#version: 0.2 - Trained by `huggingface/tokenizers`
다 .
▁ 이
다. 

▁ 있
으 로
에 서
▁ 1
▁ 그
▁ 사
▁ 아
▁ 2
▁ 수
▁ 하
▁ 대
▁ 가
▁ 시
▁ 한
▁ 보
▁ 전
▁ 것
▁ 기
▁ 다
▁ 자
▁ 지
▁ 나
하 는
▁ 정
지 만
▁ 모
▁ 일
▁ 마
▁ 때
▁ 상
▁ 제
. 

▁ 유
▁ 경
▁ 공
▁ 스
▁ 주
▁ 중
▁ 인
0 0
▁ 없
▁ 부
▁ 않
▁ 등
. .
에 게
하 고
▁ 3
▁ 오
▁ 위
) 

▁ 되
▁ 소
0 1
▁ 무
▁ 비
▁ 어
▁ (
▁ -
▁ 해
이 다.
▁ 미
▁ 여
▁ 선
이 라
▁ 조
▁ 만
▁있 는
▁ 고
▁ 바
▁ 영
▁ 동
고 ,
다 는
다 고
▁ 내
▁ 연
▁ 도
▁ 말
▁있 다.
▁ 거
▁ 성
었 다.
▁ 발
▁ 후
▁ 방
▁ 구
▁ 의
▁ 안
까 지
▁ '
▁ 신
▁때 문
▁ 생
▁ 장
에 는
들 이
▁ 세
▁ 개
▁ 

면 서
▁ 4
하 게
▁1 9
는 데
다.
 

▁ 불
▁ 역
레 이
▁ 최
며 ,
▁ 서
▁ 적
했 다.
▁ 많
▁ 진
▁ 게
▁ 강
▁ 같
▁ 문
▁ 당
▁ 카
▁ 더
▁ 5
에서 는
▁ 실
▁ 결
▁ :
▁ 알
▁ 우
▁ 관
▁2 01
▁ 파
적 으로
▁ 타
▁ 원
▁ 출
▁ 반
▁ 포
▁경 우
▁때문 에
▁ 노
▁ 된
▁ 작
한 다.
▁ 남
▁ 들
▁ 받
▁ 특
▁ 프
부 터
적 인
하 여
▁ 배
▁ 리
이 다.

▁아 니
▁사 람
▁ 차
▁있 다.

▁ 단
▁ 못
▁ 추
리 고
▁사 용
▁ 국
▁ 따
▁자 신
하 기
▁ "
e r
▁ 라
i n
해 서
▁이 후
▁ 현

 

하 였
▁ S
스 트
▁ 통
▁ 계
▁ 좋
▁ 본
▁ 데
▁ 피
▁ 또
▁ 매
대 로
라 는
▁ 감
라 고
1 9
되 었
▁ 에
▁ 6
▁ 버
▁ 함
▁ 달
▁ 교
▁ 초
▁ 물
▁ 재
▁ 두
▁ 건
.. .
▁ 드
다 가
▁ 입
▁ 분
학 교
들 은
하 면
이 나
▁ 예
2 01
▁ 설
지만 ,
0 년
▁ 코
▁ 했
▁ 크
▁정 도
들 을
▁대 한
▁공 격
▁ 김
▁다 른
▁ 요
▁ 7
▁ 편
o n
▁ 올
으 나
a n
▁ 참
에 도
▁한 다.
▁ 명
▁ 점
▁ 저
▁ 8
하 지
기 도
▁것 이
들 의
▁ 할
▁ 평
▁ 로
▁ 패
▁2 00
기 를
▁ 죽
▁ 쓰
리 는
▁ M
기 에
되 어
▁ 화
▁ 돌
▁ A
지 는
▁ 외
▁ 걸
▁1 0
▁등 장
▁ 잘
▁ 레
▁ 확
국 의
▁ 메
▁ 9
▁ 처
▁있 었
▁들 어
▁가 능
▁ 맞
▁ 변
으 며,
▁같 은
▁ 플
▁ 캐
▁ 직
▁하 는
▁ 호
▁ 과
▁ C
▁ 살
▁ 뒤
▁하 나
한 다.

으 며
▁ 회
▁게 임
▁ 속
o r
▁ 심
▁ T
▁ 종
는데 ,
▁함 께
▁아 이
▁ 활
▁ 높
▁시 작
거 나
▁모 습
▁ 치
} }
▁ 애
t h
▁ 행
▁ 필
a r
보 다
▁ 운
▁ 목
리 를
▁ 약
▁ 번
이 었
▁않 는
▁ 승
▁그 리고
▁ 박
▁위 해
이라 고
▁ 간
▁ 언
이 트
▁ 트
▁ 존
▁것 을
▁선 수
하 며
이라 는
▁ B
▁ 체
▁ 양
▁사 실
다 면
▁일 본
되 는
기 가
▁생 각
▁ 각
▁만 들
▁ 표
▁ 군
▁나 오
▁ 날
어 서
▁ 독
e n
▁하 지만
▁문 제
8 년
▁ 집
▁ 토
▁ 음
) ,
s t
▁이 상
스 터
▁따 라
▁ 끝
▁ 열
▁ 총
▁2 0
▁ 힘
▁ 완
▁그 러
▁1 2
9 년
▁ P
▁이 름
했 다.

▁프 로
▁ 손
▁ 형
▁ D
에서 도
▁ 베
리 가
▁다 시
▁가 장
▁ 잡
▁ 디
a l
7 년
▁되 었
▁ 순
라 이
▁ 및
력 을
처 럼
▁ 투
▁ 팀
6 년
a t
▁ F
▁사 이
5 년
되 었다.
▁없 는
리 아
▁한 국
▁ 판
▁한 다.

▁영 화
이 지
▁또 한
▁모 두
▁ 태
▁ 학
릭 터
▁ 증
데 ,
▁당 시
l e
▁ 《
▁ 막
▁ 왕
▁ 히
스 의
▁ 새
▁ 볼
▁상 황
o u
▁ 야
▁것 으로
▁ 클
기 는
력 이
▁ L
으 면
하 다.
4 년
지 고
지 를
이 는
▁ 복
▁ 근
▁ 키
▁캐 릭터
2 00
▁ 친
▁상 대
1 년
▁ 채
▁된 다.
▁ 폭
▁보 여
▁않 았
▁ 용
2 년
하 면서
▁1 1
▁ 너
▁ 항
▁ 앞
▁많 이
▁플 레이
▁ 임
▁ 빠
▁ 충
▁ 별
▁ 난
▁ 브
리 스
▁것 은
▁ 넘
▁상 태
▁모 든
3 년
▁ 능
▁시 간
▁ 합
▁ 루
▁존 재
▁ 효
2 0
▁결 국
▁ 큰
▁ 광
▁ K
▁ 먹
▁ G
▁ 테
▁자신 의
▁ 준
▁ 축
▁ 네
▁다 음
리 즈
▁ I
▁보 면
스 를
성 이
▁ 눈
자 가
▁ /
▁추 가
▁매 우
▁ 병
▁ 듯
▁ ~
하였 다.
▁시 즌
▁ 취
▁많 은
▁ 산
▁ 천
▁현 재
r e
▁ 커
( ...
▁ 검
▁ 삼
스 가
▁ 페
▁ 얼
▁ 누
▁ 금
▁ 줄
▁기 록
인 이
▁ R
▁나 온
▁
 

▁ 찾
▁ 얻
므 로
▁세 계
▁ 블
들 에게
▁ 악
▁지 역
▁19 9
▁ E
주 의
▁ N
▁전 투
▁ 싸
▁상 당
▁ 민
▁아니 라
▁ 식
▁ 느
가 는
시 아
▁ 백
▁이 용
▁ 첫
▁ H
▁이 유
▁아 닌
사 를
가 지
들 과
▁하 고
▁ 길
▁돌 아
▁그 런
였 다.
▁자 체
대 한
i c
i t
▁ 떨
i s
▁ 엄
제 로
부 분
▁ 황
▁ 갈
어 진
▁ 밀
▁경 기
▁ 허
하 지만
하 자
▁여 러
▁ 철
이 고
▁ 온
▁ 극
▁처 음
▁ 북
▁ 벌
▁작 품
▁모습 을
▁시 리즈
▁ 업
시 키
지 가
상 을
▁ 절
▁그러 나
▁바 로
된 다.
이 스
▁필 요
사 가
▁ 곳
▁그 래
▁되 어
▁진 행
▁거 의
▁통 해
어 나
in g
▁미 국
▁1 5
▁ 창
▁이 미
인 지
렇 게
▁ 머
▁ 팬
! 

▁ 청
▁ 와
▁1 8
▁역 시
▁ 몰
도 가
장 을
▁다 만
▁해 당
▁ 은
▁이 런
▁ 밝
▁스 킬
▁기 술
▁같 이
지 막
기 로
했 던
드 를
라 도
▁ 붙
있 는
▁ W
▁ 잠
▁수 도
▁ 탈
▁이 야
▁ 0
해 야
(... )
▁효 과
에 선
▁라 이
▁ O
▁방 송
성 을
▁ 엔
▁ 혼
▁ th
▁ 둘
▁ 즉
다 

▁부 분
▁좋 은
▁되 었다.
이 가
▁위 치
다.
 이
▁보 인
}} }
▁ 권
▁ 슈
주 는
▁특 히
▁관 련
a c
e s
▁물 론
▁사 건
▁ 환
▁ 골
▁ 했다.
▁없 다.
▁일 부
▁것 이다.
▁일 반
▁아 무
▁계 속
1 0
▁ 귀
▁ b
▁주 인
으나 ,
▁ 터
아 서
▁않 고
▁대한 민
▁대 부분
▁ 담
았 다.
리 에
▁있 어
▁ 떠
▁축 구
▁ 싶
▁활 동
드 는
전 히
▁인 해
하 다.

▁달 리
▁ 법
▁ 링
르 는
) 는
▁보 고
▁ +
▁피 해
하고 ,
▁제 작
이 다.


" 

▁ 레이
▁국 가
▁ 좀
되었 다.

▁않 은
로 ,
▁배 우
o m
▁ 맡
▁되 는
이 며
▁마 지막
드 의
▁감 독
▁ 범
인 의
시 에
e l
▁ 뿐
정 을
▁가 지고
▁있 을
스 는
▁올 라
▁ 몇
▁ 쿠
▁ 월
▁ 몸
▁정도 로
▁기 준
▁대 해
메 이
거 리
어 가
▁ 곡
으 니
▁ m
▁비 슷
▁수 준
▁된 다.

장 이
▁1 6
시 간
▁내 용
o l
▁인 간
▁이 전
▁이 를
로 는
▁ 케
자 를
▁ 탄
▁스 타
▁성 공
일 ,
▁3 0
▁제 외
▁ 접
h e
▁ 낮
▁ 풀
도 록
▁ 헤
위 를
▁대 신
▁있 었다.
- 1
수 가
▁기 본
▁어 느
자 의
a d
▁그 의
▁인 물
B S
▁그 냥
▁사 망
▁마 법
) 의
습 니
▁ o
등 학교
00 0
이 자
와 의
i on
▁ 될
▁높 은
▁나 타
▁상당 히
▁출 신
리 의
트 를
스 타
▁링 크
▁서 울
드 가
되 고
▁대 표
▁주인 공
a m
▁것 도
로 운
▁19 8
▁ 뛰
▁그 대로
▁ s
▁ 논
▁그 녀
▁ 암
도 로
▁없 이
▁ 엘
▁등 의
▁ 질
▁언 급
▁ U
들 도
려 고
▁의 미
▁ 면
일 에
▁떨 어
▁너 무
▁ 격
▁ V
) 은
▁포 함
대 의
라 마
▁받 아
도 를
▁의 해
▁직 접
▁ t
밖 에
수 를
▁관 계
▁지 금
기 의
사 의
▁ 늘
▁3 월
▁ w
19 9
▁좋 아
는 다.
었 다.

▁결 과
▁ 홍
마 다
▁ 글
스 로
▁ #
▁ 덕
▁ 팔
i g
르 게
이 며,
.. .

▁알 려
▁ 워

 이
멤 버
▁중 국
전 을
. 0
고 로
정 이
▁이 는
▁ 갖
▁있 던
▁시 절
▁능 력
▁타 이
▁ f
a s
나 는
번 째
지 도
▁th e
음 을
▁만들 어
▁1 3
▁경우 가
2 0년
졌 다.
으로 ,
▁ 육
로 서
자 는
명 이
치 는
▁1 4
▁자신 이
대 를
▁역 

▁ 러
i d
i l
▁ d
리 그
▁ 향
▁이 어
▁동 안
된 다.

▁전 쟁
랜 드
▁이 동
하 던
▁위 한
리 지
▁12 월
e d
▁애 니
점 을
▁1 7
▁나오 는
▁ 홈
인 데
▁ 넣
e t
▁증 가
▁지 원
이 지만
▁ 뜻
a y
▁ 멤버
▁유 저
u s
▁ c
▁ 괴
▁4 월
▁방 어
중 에
없 이
▁선 택
화 를
▁여 기
▁리 그
▁ 규
▁ 쓸
리 어
? 

▁평 가
▁크 게
▁찾 아
▁ 협
▁1 00
▁연 구
▁이 에
r o
▁ 울
▁출 연
▁아 버
머 니
▁여 자
▁나 왔
▁있 으며,
▁ 묘
▁o f
▁영 향
▁발 생
▁장 면
▁그 는
▁전 체
▁자 기
▁9 월
▁ 망
▁10 월
▁엄 청
▁1 월
과 는
▁ 뉴
명 을
▁ 책
상 이
인 을
an d
되 지
▁ 컨
나 가
이 를
치 를
▁실 제로
▁있 다.


▁7 월
▁개 발
▁ 급
치 가
▁ 먼
▁방 법
▁ 쉽
하기 도
▁ 니
▁또 는
▁ <
원 이
다.
 그
▁만 든
▁발 매
▁ J
▁이 루
같 이
▁ 압

 201
▁말 을
▁ p
▁있 다는
어 난
▁도 시
▁8 월
▁유 명
▁ 던
디 오
▁최 고
리 카
같 은
▁ 퍼
▁5 월
▁ 침
버 린
▁우 승
으로 는
▁ 쪽
▁ 티
▁ 깨
▁없 었
이 어
▁ 슬
▁공 식
우 는
▁과 거
▁이 것
▁가 진
▁그 렇
▁ 혹
이 드
. 1
▁ 꽤
외 부
이 기
▁ 칼
트 가
전 에
과 의
그 램
전 에서
▁보여 주
▁불 가
▁6 월
▁운 영
어 로
식 을
▁카 드
니 아
▁소 속
▁ 폐
도 의
이 었다.
▁스 토
▁변 경
하 며,
▁ 측
▁원 래
▁2 5
▁노 래
▁하 지
▁전 부
▁사 라
▁11 월
▁ 몬
▁프 랑
▁자 주
c h
▁조 금
▁친 구
▁ 돈
▁제 대로
▁사 랑
▁ 농
▁ 희
▁ 갑
▁인 터
▁ 놀
▁중 요
▁2 월
▁음 악
운 드
▁ 봉
▁ 듣
▁ 놓
▁초 반
만 큼
회 의
와 는
▁역 할
}}} 

▁서 로
였 던
0년 대
▁ 빌
▁비 해
▁유 닛
에서 의
이 터
▁있 어서
▁등 을
▁ 앨
했 고,
▁적 이
대 학교
했 을
▁남 자
찬 가지
나 라
▁선수 

▁ 학교
격 을
▁학 생
{ {
▁정 보
▁ 찍
▁ 끌
▁정 치
히 려
▁공 개
▁주 로
▁비 교
)
 

▁결 정
하 려
프 트
▁데 미
▁ 탑
▁해 도
일 본
▁유 지
▁그 것
▁마 찬가지
인 은
▁아 직
개 의
▁대한민 국
▁것 이다.

▁사 회
o w
르 면
군 의
v e
▁여 성
명 의
수 의
▁이 러
▁형 태
다 며
▁사람 이
자 로
사 는
스 와
하 거나
지 어
동 안
▁강 력
h t
리 오
▁지 나
p x
) 을
스 템
▁보 기
각 주
▁살 아
연 히
점 이
위 원
▁오 히려
▁아이 템
대한 민
▁ 송
▁정 부
▁ 궁
는 지
▁ 빨
▁19 7
▁되었 다.

▁발 견
▁ 멀
▁ 빼
물 을
▁기 존
▁이 벤
지 의
했 다고
▁알 고
메이 션
통 령
▁구 성
▁있 다고
▁마 음
▁독 일
서 는
트 로
▁참 가
임 을
▁영 상
▁ 착
▁주 장
▁정 말
▁있 으며
▁파 괴
▁후 반
원 을

 1
자 인
러 나
▁설 정
어 를
▁프 리
▁ 딜
▁ 졸
▁레 벨
분 에
▁등 이
n d
▁가 까
▁무 기
▁이 때
렸 다.
en t
▁어 떤
경 기
▁ 왜
나 마
▁있는 데,
▁정 신
▁유 일
화 가
대 가
▁아 예
▁부 족
▁활 약
화 에서
▁드 라마
▁어 려
▁마 이
▁최 종
▁행 동
▁동 시에
시 즌
▁조 선
▁없 다.

▁( 201
▁ 잔
이 기도
) 에
▁하 면
19 8
▁들어 가
스 크
▁받 았
▁ 봐
▁1 일
▁모 양
세 기
적 이
▁새 로운
하였 다.

▁사실 상
다 "
지 로
. 2
▁최 초
( 1
▁ 써
▁ →
) 를
오 는
게 임
시 켜
▁먼 저
▁대 학
▁완 전히
▁아 래
시 의
▁소 환
B C
▁ 윤
▁몬 스터
▁바 뀌
▁자 유
드 로
▁않는 다.
▁확 인
▁프로 그램
▁ 딸
▁ 숨
▁없 어
내 는
▁내 려
▁주 변
) :
▁승 리
▁ 뽑
▁힘 들
▁대 통령
) 이
▁모 델
▁ 잃
▁일 이
▁ 섬
▁설 명
▁것 .
▁바 람
▁비슷 한
▁ 콘
▁성 능
대 에
▁방 식
▁ [

 아
▁노 선
▁버 전
▁이러 한
▁차 지
▁ 쇼
▁ ‘
하 다
▁문 서
▁5 0
떻 게
▁못 한
▁ 좌
▁시 스템
상 으로
스 ,
▁ 흔
▁만 나
다 만
▁적 용
▁참 여
▁전 에
▁역 사
▁이 번
▁했 다.

르 고
▁설 치
▁ 까
하는 데
한 국
- 2
! !
. 5
▁가 지
▁보 통
간 에
▁않 아
▁이야 기
▁실 패
더 라도
▁ 움
▁2 1
i m
▁중 심
▁있는 데
o t
▁강 화
▁ X
▁ y
▁만 큼
▁있 지만
▁ 센
▁기 사
▁최 대
▁보인 다.
▁2 4
▁전 혀
▁성 격
▁ 싱
▁혹 은
도 는
▁ in
보 면
▁ 녹
▁패 배
했 고
▁있 고
원 의
e m
▁ 휴
▁대 회
사 실
▁반 응
▁때 는
▁그래 서
▁ a
구 를
였 다.

▁발 표
▁표 현
▁위 해서
굉 장
▁계 획
▁불가 능
▁성 우
▁제 1
▁어 떻게
움 을
▁출 시
이었 던
▁번 째
▁월 드
▁그 렇게
이 의

 미
인 데,
▁한 번
▁영 국
해 진
▁얼 굴
▁그 리
▁ 흑
제 가
우 스
라 의
▁다 양
▁바 이
▁많 다.
▁회 복
▁ st
▁ 석
버 스


 외부
지 에
▁ 응
보 다는
▁동 일
자 ,
어 도
▁이 렇게
▁심 지어
▁ 굉장
시 킨
방 송
▁애니 메이션
트 의
▁ 솔
▁드 래
v er
▁가 져
▁인 정
i k
▁슈 퍼
▁오 브
▁ l
▁생 산
▁얼 마
▁차 량
다 '
▁기 능
장 의
비 를
해 도
▁스 트
라 가
u r
▁마 을
▁19 6
▁게 다가
) 가
▁ 빈
u n
체 를
▁진 출
▁ |
▁힘 을
▁스 테
▁ 챔
▁ 긴
▁ 견
▁사 진
▁있 고,
▁기 억
▁앨 범
▁ n
▁경 찰
했 다.


▁문제 가
▁자신 을
문 을
조 차
▁나 가
아 가
▁ 색
▁ 샤
▁움 직
▁받 은
i r
린 다.
5 0
으로 서
▁받 고
니 다.

대 학
▁경우 도
▁밝 혀
▁있 게
▁데 뷔
▁특 수
▁ 훈
▁있 기
▁받 는
수 는
▁이름 을
▁일 단
a g
했 다는
장 에서
▁교 육
▁따 르면
▁담 당
했 지만
▁보 스
▁쓰 는
상 의
리 ,
▁사용 하는
▁ 풍
▁ 쓴
한 테
▁ 쉬
레 벨
▁2 2
부 의
▁등장 하는
피 소
력 은
으 므로
들 에
▁ 콜
▁플레이 어
제 를
카 이
▁자 동

 그
o d
니 다.
권 을
▁넘 어
라 면
▁선 거
▁졸 업
한 다는
▁남 아
▁비 판
▁발 동
▁ 퇴
▁어 머니
▁판 매
▁확 률
k m
▁다 이
▁ 휘
▁후 보
▁상 대로
▁2 3
▁난 이
▁그래 도
▁중 앙
프 로
▁시 점
수 로
장 은
▁ 빛
▁드 러
▁자체 가
피 언
▁고 려
적 을
사 로
▁영 웅
.. ..
리 와
대 표
▁순 간
▁ 믿
▁특 징
니 까
대한민 국의
▁스 페
지 지
계 를
▁과 정
전 이
▁해 서
▁자 세
준 다.
▁따라 서
▁201 8년
▁출 생
▁대 해서
▁구 조
▁공격 을
▁ 맥
▁하 루
▁지 속
▁다 르
문 에
▁대 체
▁덕 분에
▁가능 한
▁더 욱
▁우 리
▁ 컴
u m
▁어 린
▁굉장 히
▁( 200
가 가
▁특 성
부 를
▁어 렵
까지 는
부 에
ac k
▁1 ,
스 

다 !
▁개 인
군 이
되 면서
스 러
▁그 림
▁ h
▁ 묻
▁국 제
▁각 각
▁ 획
감 을
▁원 작
▁ 핵
▁대한민 국의
▁사람 들이
▁ 답
장 에
▁요 구
어 났
▁가능 성이
타 를
▁ 맵
▁이 제
▁하 다.
▁주 의
▁수 상
3 0
▁ Y
치 고
▁러 시아
선 을
으 면서
▁보 내
▁ 익
▁확 실
▁불 구
▁결 혼
▁제 공
= "
e c
크 로
▁그 나마
▁ 헌
▁그런 데
▁ 겨
자 .
▁ 폴
▁활 용
하였 다.


▁시간 이
▁국 내
▁ 땅
▁위 험
▁건 물
▁때문 이다.
▁ g
리 로
▁T V
▁참 조
▁일 으
장 으로
▁나 와
▁알 아
f f
▁감 소
지 ,
▁제 2
▁ 딱
▁201 9년
▁되 고
▁독 립
대 는
▁ 액
자 기
▁에 피소
▁강력 한
▁있었 던
▁아니 다.
▁설 립
▁마찬가지 로
▁ 훨
라 인
.
 이
▁2 8
량 이
▁보 이
체 가
▁201 7년
▁사용 할
▁나 머
버 리
▁ 뮤
u t
성 의
▁선 발
비 가
되었 다.


▁여 전히
▁201 6년
자 

▁가 는
이라 면
▁못 하고
▁ 웃
▁배 경
정 한
▁하 며
텔 레
치 로
▁말 이
▁이벤 트
1 2
하 나
었 던
▁훨 씬
▁수 가
림 픽
학 생
히 는
▁ 옆
▁챔 피언
▁단 순
시키 는
▁ 푸
▁우 주
▁가 족
▁시 청
y le
인 물
학 년
▁ 숙
▁2 6
식 이
▁y ou
▁20 20년
비 아
▁ 뭐
▁ 짓
▁19 4
▁무 시
▁경 험
▁ 밤
키 는
▁엄청 난
심 을
▁ 맨
▁문 화
▁하 이
▁쉽 게
▁제 국
▁ 꾸
리 

▁후 에
▁영향 을
▁수 록
업 을
▁ 왔
겠 다고
위 로
▁진 짜
▁어 디
in e
▁구 간
수 록
▁실 제
▁아 주
▁분 위
▁이 해
려 서
▁쓰 러
하 다는
없 는
▁아 마
행 을
개 를
▁조 건
▁2 7
이 로
다 (...)
신 이
" 라고
▁ 탐
▁잡 아
▁그 를
성 은
o p
▁4 0
▁201 5년
위 에
▁아 르
▁ 낙
▁해 결
▁ 술
▁ 꿈
놓 고
▁약 간
▁지 방
구 의
▁강 한
1 8
a k
▁역할 을
▁동 료
▁ &
▁한 정
만 이
사 와
▁본 인
▁혼 자
▁획 득
▁의 견
정 도
▁폭 발
나 이
▁드래 곤
습니 다.
▁메 이
at ion
▁유 럽
만 에
로 부터
o s
▁정 확
▁방 향
▁취 급
프 를
▁생 활
▁연 결
▁특 별
▁ 똑
▁국 민
▁기준 으로
▁ 헬
▁잘 못
▁논 란
▁추 정
▁주 는
구 가
트 는
해 주
▁ 얘
레이 드
▁조 합
▁보 호
▁현 실
티 브
▁것 에
▁작 은
▁나온 다.
▁오 른
19 7
만 한
▁프랑 스
진 다.
▁ 죄
1 1
▁ 곧
▁패 턴
▁않았 다.
▁ 웨
라 운드
▁ 읽
▁않 을
▁조 직
▁도 망
▁경 제
탈 리아
위 가
▁미 국의
▁다양 한
▁ 짧
▁ 밴
고 를
▁계 약
▁아버 지
다 니
▁ 벗
▁수 비
▁그 가
▁보 는
라 서
▁아 들
▁ 끼
신 을
▁대 전
▁ 싫
▁운 동
▁현 대
▁ 흡
▁2 차
▁S t
▁ and
▁ 끊
▁보인 다.

았 다.

요 .
▁브 라
▁처 리
▁ 즐
a p
사 

이 고,
▁당 연히
▁지 하
있 다.
▁충 분
한 다고
▁ 굴
▁ 벨
▁방 영
리 기
는 다.

▁비 롯
사 에
가 를
듯 이
▁작 중
▁ 괜
신 의
) .
졌 다.

▁다 니
공 격
▁제 한
다 른
T V
일 을
로 를
ig ht
▁중요 한
다 ,
▁201 4년
▁초 기
면 ,
▁종 료
회 를
▁ 욕
야 마
▁불구 하고
▁라 인
자 와
소 를
▁이루 어
세 계
퀘 스트
▁출 전
u l
만 을
▁이유 로
▁참 고
고 등학교
단 의
가 의
져 서
자 들이
도 ,
레 스
▁19 5
보 니


 각주
▁보 이는
사 ,
▁다음 과
▁스 스로
▁ 탓
영 화
▁연 속
데 이트
▁오 래
▁ 흥
▁이유 는
▁예 정
▁ 홀
, 000
▁히 로
리 티
o c
라 를
나 의
하 다가
▁들 고
▁느 낌
▁크 로
▁t o
▁전 문
▁ 습
명 은
▁피해 를
하 다고
r i
▁그 룹
▁주 요
인 

▁하 여
.
 그
▁2 9
당 한
2 1
로 가
▁중 에

 |
▁낮 은
▁상 승
▁참 고로
▁소 설
력 으로
초 에
' 라는
의 를
학 과
( S
▁크 리스
기 와
▁ v
비 전
아 이
시 마
▁ 듀
▁입 장
▁음 반
▁ 맛
▁장 비
유 의
이 션
▁ 쳐
시 를
나 게
▁부 산
▁항 목
▁일본 의
냐 고
기 ,
불 어
▁타 고
▁ 꼬
▁가 격
▁T he
라 며
이 란
▁여기 서
▁ 류
▁자 연
▁목 소
▁일 을
하 지만,
장 

▁ 찬
▁자 리
▁ 됐
스 에
시 켰
▁경우 는
▁발 사
▁하 기
지 게
선 의
▁야 구
▁되 면
플 레이
▁행 정
원 은
▁되 지
▁ 넓
한 다.


▁ 텔레
무 를
▁ 득
E R
▁전 용
시 가
마 저
▁했 지만
▁준 비
점 으로
▁ 엑
▁가 면
에게 는
▁달 성
▁기 간
이 즈
일 이
a b
▁블 랙
▁일 어나
▁클 리어
▁소 재
c e
바 이
원 으로
▁스토 리
르 크
▁ 벽
▁하 면서
▁부 활
▁있었 다.

▁제외 한
▁대 미
기 고
▁ 갤
▁ 흐
a th
▁운 행
▁절 대
▁반 대
부 가
▁모 드
▁문제 는
어 들
려 는
세 를
▁업 데이트
이 면
했 으며,
함 을
20 20년
▁이상 의
▁나머 지
▁체 력
▁ 굳
말 로
' s
종 의
▁ 펼
인 트
▁ 밖에
▁관 리
또 한
전 의
주 로
▁버 스
운 데
▁적 을
1 5
관 이
▁민 주
yle ="
▁하 였
▁ 칭
▁ 염
역 시
▁시 도
▁사람 

스 토
al l
) 로
상 에
거나 ,
스 티
▁항 공
▁두 고
▁나 이
▁201 3년
지 션
▁부 르
▁201 2년
으로 도
지 기
▁사실 을
▁번 역
▁생 존
단 을
▁대부분 의
스 테
▁ “
. 3
▁올 림픽
▁ 뒷
음 에도
▁좋 지
t er
했 으나
▁다 르게
▁하 다.

카 와
S T
▁파 워
▁물 리
▁신 경
시 로
디 어
▁얻 을
조 건
▁지 구
▁ 덱
타 로
▁유 니
촬 영
▁철 도
▁기 업
▁ 셈
주 를
▁최 근
▁외 국
▁ 징
▁해 야
▁연 출
위원 회
▁인터 뷰
▁이 끌
호 를
버 렸
▁ 칸
선 이
▁에 너
▁가능 하다.
▁능 력을
▁것 과
▁ 꺼
▁상황 에서
크 를
▁st yle="
▁미 션
▁싱 글
▁성 장
{{ {
페 이지
▁ 퀘스트
▁공 연
다 (
▁201 0년
▁ 쌓
▁정도 의
되 기
물 이
어 야
으로 써
이 버
▁지 휘
▁소 모
▁마 스터
▁항 상
▁위치 한
운 동
▁생 긴
세 대
(... )

▁더 불어
▁ 츠
교 육
▁않는 다.

스 럽
▁엔 딩
▁계 열
▁끝 나
▁싸 우
▁최 소
▁ 갔
▁가 수
- 3
물 론
특 별
여 서
▁만 화
민 주
▁ 흘
간 다.
군 을
습니 다.

스 (
▁유 리
▁사람 은
수 한
▁하 자
▁| |
▁좋 다.
▁모습 이
▁연 기
서 를
담 으로
어 의
▁분 노
) 에서
▁영화 

▁바람 에
▁ 덤
장 ,
▁불 러
19 6
▁ 겸
▁등 으로
▁서 비
진 을
마 의
부터 는
▁미 래
▁묘 사
튜 브
▁목 록
▁자 랑
미 가
▁있 지만,
ou nd
포 츠
▁수 는
었 다고
이 브
g r
군 은
▁나 서
이라 도
▁유명 한
호 가
▁목 표
▁만 드는
▁3 1
고 는
▁내 가
▁못 하는
스 코
겠 지만
진 이
▁장 착
▁메 인
4 0
▁위 에
▁ 앤
란 드
▁명 칭
프 리카
래 도
▁ 씨
▁ 삭
▁밝 혔
문 화
▁소 개
기 

도 에
▁ k
▁K BS
▁괜 찮
일 

▁201 1년
▁수 정
▁ 빅
식 으로
서 울
▁ 옥
▁적 은
▁건 설
리 게
▁않 게
▁작 곡
시 는
1 6
단 이
▁예 상
▁일 행
▁검 은
▁1 년
▁ 억
움 이
▁동 문
더 니
▁확 정
▁기 반
▁에피소 드
▁스 피
▁케 이
나 ,
원 

외 로
▁출생 

▁빠 른
▁현재 는
▁비 행
▁달 려
제 의
▁각 종
▁따 로
다 운
▁비 밀
▁무 엇
▁ 옮
▁갑 자기
▁훈 련
현 재
▁전 국
지 와
▁상황 이
마 가
스러 운
▁일 정
▁인 구
▁안 에
▁ 깊
▁F C
▁편 이다.
▁없 을
▁ 품
▁것 이라고
세 가
켓 몬
▁압 도
▁때문에 ,
▁뒤 에
▁가 끔
상 은
2 1년
하 라
▁지 정
▁명 령
▁경우 에는
i a
▁북 한
▁ 촬영
▁과 학
▁교 체
i e
▁나 는
▁미 사
▁본 인이
▁공격 력
사 이
▁있 다면
▁나타 나
) '
▁기 관
F A
부 로
▁ 납
▁전 반
▁ 깔
▁지 난
ik i
▁지 켜
▁나 름
▁이름 이
▁모 르
ar t
m m
▁없 고
▁수 행
▁안 정
▁때 ,
▁ 겪
▁별 로
살 아
▁기 타
▁보 니
▁사 례
▁근 처
▁결 승
▁지 지
▁ 틀
차 가
프 가
▁ 돼
▁제 일
▁게임 을
▁근 접
{{{ #
▁ 웹
▁가까 운
▁하 지만,
) 와
▁이용 해
율 이
모 토
▁필요 한
▁경 쟁
▁개 념
▁이 탈리아
많 은
▁없 다고
▁것 .

▁식 으로
▁ 랜
( ?
▁ 냉
쪽 으로
▁차 이가
▁잠 시
▁아이 돌
p l
▁있 으니
원 에
▁기 대
▁19 3
▁없 다는
▁집 중
소 가
▁ 왼
r a
았 던
▁ 쌍
▁빠 르게
or d
보 는
▁나 올
▁ 멸
지 면
▁부 른
▁만 약
▁ e
▁특 정
▁도 입
▁누 구
▁하 게
▁사이 에
▁하 였다.
▁기 다
▁처음 으로
▁같 다.

▁죽 은
il l
스 케
▁관 한
▁탈 출
▁정 작
▁발 전
간 의
랭 크
부 는
▁이야 기를
▁사 고
마 자
▁삼 성
▁갖 고
차 를
▁벌 어
지 역
▁공 동
▁스테 이지
▁ 탱
▁말 에
▁전 설
e 

리 스트
인 으로
사 (
▁거 기
일 러
▁부 정
▁부 모
▁과정 에서
w iki
▁ 콤
▁지 도
▁복 귀
계 가
▁ 맹
파 이
▁ 옛
▁자 료
버 리는
▁연 합
냐 는
▁최고 의
▁빠 져
만 의
었 고,
▁등장 한
▁나 무
▁중 에서
가 

▁ 털
▁ 옷
▁떨 어진
참 고로
▁ 쿨
량 을
이었 다.

▁엘 리
로 의
▁효과 를
화 국
▁분 류
리 며
▁보 유
▁ Z
지 

▁부 여
대 전
▁배 틀
심 이
▁ 〈
다 시
언 을

미 국의
▁이름 은
▁동 생
일 의
▁소 녀
▁유 사
▁ 옵
▁ 롤
2 .
무 리
▁접 근
▁ 뜨
▁물 건
▁달 라
▁않 다.
동 을
▁바 꾸
▁아 카
▁이 외
되었 고,
▁직 후
▁배 치
계 의
내 고
스 카
▁지 배
' 를
▁새 로
) 으로
▁이후 로
트 라
) 과
감 이
▁등장 인물
{{{# !
야 말로
▁저 지
드 시

 마
롭 게
그 리고
▁있 으면
▁나 라
▁듣 고
▁제 거
' ,
즈 의
▁ 밖
- 0
▁경우 ,
주 고
▁ 「
우 가
▁알 게
임 이
▁ 밑
▁가 운데
▁ ,
1 7
▁제 품
▁했 던
▁ 꽃
px ;
' 의
타 가
것 도
▁끝 에
치 의
》 

▁포 기
▁이 적
들 어
▁무 려
▁ 짜
2 5
▁동 물
▁월드 컵
위 는
▁ 힐
기 술
▁보 아
▁사 냥
▁돌아 가
▁도 착
하였 고,
미 를
▁ 쫓
▁대 학교
문 이
▁환 경
▁머 리
▁평 균
▁살 해
▁ 캠
▁ 띄
▁파 티
▁200 9년
양 이
터 를
▁남 은
▁경기 에서
▁나 중에
▁ 혈
{{{#! wiki
했 으며
트 리
▁6 0
▁군 사
▁시 험
▁최 강
▁해 외
▁종 류
▁아 키
) ]
▁S K
6 0
▁유일 한
일 :
▁대 사
▁하 늘
▁영 어
▁주 민
▁라이 브
적으로 는
( C
▁표 기
수 도
▁라 고
▁사람 을
▁오 늘
▁심 각
▁추 측
▁가 르
체 의
▁시 전
▁전 작
▁ 쏘
▁하 는데
▁무 슨
지 면서
▁클 래
▁200 8년
on t
▁텔레 비전
▁로 마
냈 다.
▁자 리를
로 드
이 니
3 .
역 을
▁시 대
▁사 이트
' 을
▁받 을
▁ 린
▁소 련
남 도
▁합 류
점 은
했 는데,
▁완 전
▁즉 ,
▁아니 면
▁완 성
▁경 기를
▁ 칠
▁이 걸
했 는데
▁M BC
크 의
▁판 단
▁언 제
호 선
개 월
▁사 업
▁상태 에서
▁# 

▁앞 에
▁생 겼
력 과
주 가
▁개 최
키 가
▁직 업
▁느 끼
▁그녀 의
▁많 아
▁점 을
▁날 아
제 는
▁자체 는
화 의
▁홈 페이지
▁연 습
▁한 다는
▁부 탁
▁인 한
el l
스 킬
▁통 합
들 로
▁다 루
일 부터
▁치 료
에 만
▁상 관
위 의
▁도 중
금 을
겠 다는
받 은
이 ,
▁한 편
▁ 튀
▁남 성
▁ 늦
▁없 었다.
▁포 지션
▁고 정
T he
▁ 꼭
▁ 잉
▁ 벤
A R
▁공 간
형 을
▁받 았다.
문 의
정 의
e a
원 에서
▁상당 한
' 라고
화 된
하 의
어 는
관 을
▁뛰 어난
살아 있는
) .

러 스
▁기 념
▁ 뭔
적 은
명 으로
▁도 쿄
▁제외 하면
크 가
선 수
▁열 린
▁높 아
▁모 른
이 지만,
하는 데,
▁팀 의
지 라
▁타 입
▁때 마다
▁시간 을
▁카 운
▁공 중
▁삭 제
▁나온 다.

보 를
▁대 구
리 면
체 는
자 들은
▁완 벽
▁떠 나
▁정 상
▁회 사
정 에
▁반 드시
▁유일 하게
▁포 켓몬
▁베 이
▁거 주
▁아 내
가 ,
받 는
나 를

 200
로 그
▁소 리
▁인 천
( M
텐 츠
▁시 설
▁제 목
▁많 다.

▁타 격
성 에
연 구
▁끝 난

 오
시 킬
▁조 종
▁효과 가
키 의
▁조 사
▁상 위
▁다 소
u e
▁있 다
▁종 종
▁도 와
모 가
▁( 199
아 의
녀 석
1 4
롯 데
▁없 어서
▁제 3
▁ 걱
인 과
▁요 청
▁구 매

 사
▁봐 도
▁점 점
i z
▁실 험
분 이
인 ,
▁올 려
두 고
▁보여 준
▁변 신
▁전 략
▁여 기에
▁이 곳
▁대 상
i st
르 트
되 며
▁이 게
음 이
아 버
용 으로
▁1 차
2 ,
▁후 ,
▁전 개
이 와
르 의
▁2 년
▁교 통
터 가
i f
▁것 처럼
▁불 리
▁데 이터
동 생
가 와
▁맞 추
원 ,
▁인 도
▁말 한다.
어 

▁쓰 고
탄 을
스 에서
있 다.

▁200 7년
▁ 뇌
▁대 기
▁분 명
▁C h
▁ 맺
소 년
▁때문 .
▁채 널
O N
▁인터 넷

 -
이 닝
▁ 뿌
드 와
▁라 는
( A
니 티
▁ 널
▁애 초에
지 에서
▁아니 고
보 고
▁싫 어
▁정 규
방 을
장 판
승 을
▁ 켄
▁ 런
▁프 레
▁중 간
▁이 쪽
19 4
▁어려 운
▁탈 락
붉 은
▁등장 한다.
면 에
▁반 대로
광 역시
▁유 튜브
ar d
초 등학교
▁수 많은
▁하 고,
▁좋아 하는
▁아 군
▁가 서
나 와
▁정 의
▁알려 져
1 3
▁무 조건
▁도 로
▁탓 에
질 을
u p
▁않 으면
기 관
▁전 차
" 라는
성 과
▁정 리
로 우
▁미 니
되 면
어 ,
▁이 로
전 쟁
▁지 상
하 도록
이 에
한 다면
▁자세 한
. 4
▁ 척
▁본 래
갔 다.
안 을
19 5
▁ 킹
▁비롯 한
나 다
▁생각 해
인 다.
▁안 전
▁특 이
▁외 에도
▁ 십
었 고
▁추 천
▁건 담
무 라
▁컴 퓨
그 룹
▁범 죄
▁ 몽
파 트
▁종 교
사 카
▁충분 히
했 기
▁투 입
▁싸 움
드 에
▁ 곤
▁소 유
▁몇 몇
▁충 격
▁ 윌
▁정 책
▁사 무
▁비 중
▁상태 로
▁대 응
정 은
▁지 키
c m
▁블 루
▁암 살
린 다.

▁업 그
이 다
에게 서
▁전 기
자 .

조 의
▁전 통
▁언 론
센 터
》 (
▁디 자인
▁빨 리
▁부 하
라 우
으로 부터
▁위 협
보다 도
▁거 부
시 대
▁의 하면
▁타이 틀
이 야
8 0
쪽 에
▁때 까지
이 후
▁평 범
▁선 정
▁이름 으로
▁공 포
▁끌 어
왔 다.
술 을
er s
로 나
an t
▁변 화
▁최초 로
▁돈 을
A N
▁성 향
▁손 을
리 (
▁등 에
▁예 를
▁표 시
세 의
▁ 떡
▁ 짐
▁관련 된
▁그 걸
개 로
▁ 킬
드 리
"
 "
at e
▁기 계
레이 션
▁그 린
력 의
▁본 인의
▁ 픽
o k
▁참조 .

e p
▁프로 젝
하 려고
시 오
크 래
▁능 력이
▁듯 한
▁맞 춰
도 와
었 을
▁시리즈 의
판 을
레 인
우 리
▁중 반
미 의
요 일
▁L G
▁워 낙
대 회
▁1 회
▁배우 

. 7
스 탄
주 인
이 므로
I N
▁ 록
부 에서
법 을
▁200 6년
▁우 선
▁ on
▁작 업
▁다 크
라 스
▁말 하는
▁도 전
▁에 이
▁작 가
중 학교
00 00
▁상 징
▁버 그
▁파 이
▁하 며,
▁점 이
▁생각 하면
▁대 중
▁위 의
an g
▁희 생
▁카 이
▁시 민
▁ 붕
도 시
마 를
▁일 러
자 에
▁죽 음
▁맞 는
왕 의
▁연 재
리 온
라 ,
▁국가 대표
▁ 멘
▁장면 이
났 다.
자 들의
▁사람 들은
구 에
▁타 카
모 를
▁선 생
이 상
▁ 젊
코 의
2 4
▁통 과
▁ 녀석
▁가 깝
▁1 위
트 에
c t
참 고
나 무
▁데 려
▁종 족
▁개 그
▁특 유의
▁사 태
▁생 성
▁거 쳐
▁있 지
▁내 에서
▁장 소
▁로 봇
경 을
m ath
▁다 행
▁그 야말로
▁정 식
라이 더
201 9년
▁운 용
과 학
모 로
▁대 결
진 의
호 는
▁반 복
했 지만,
때 문에
▁ 윈
▁되 면서
i th
. .

인 들이
▁가능 하다.

▁영 혼
▁얻 어
▁불 과
▁중심 으로
▁바 다
▁ 뚫
약 을
▁ 멜
바 로
▁해 석
▁스 포츠
분 을
▁ 턴
▁조 작
o g
장 과
▁최 후
▁아무 리
▁소 비
▁기 동
▁나오 지
▁듯 .
▁트 위
▁ {{{#!wiki
군 에
▁국 회의
▁굳 이
▁홈 런
▁인 식
북 도
▁사 는
▁정도 .
치 게
▁이 건
▁바 라
▁저 항
201 8년
▁붙 어
프 리
▁앞 에서
트 와
▁ 놈
▁ 챙
려 면
시 ,
gr ound
수 

% ,
로 도
▁적 극
▁빼 앗
단 계
▁선 언
▁최초 의
▁영 입
▁ 섞
▁ 뻔
▁대 비
프 레
▁대 형
하 니
▁ 썼
▁본 격
기 사
n e
▁ 멋
▁스 위
▁하 는데,
▁얼마 나
정 으로
르 가
단 에
▁때 도
▁ 잊
P C
▁평 소
▁막 아
▁힘 든
▁거 두
▁시작 했다.
▁치 명
▁카 메
▁무 리
▁점 령
인 가
▁확 장
한 다
▁ 셀
▁리 더
s s
▁따 른
타 이
역 사
4 8
▁ 숫
해 를
▁활동 을
▁패 치
회 가
▁ 혁
▁대 화
▁역 대
▁전 사
단 한
명 ,
▁오 랜
▁ =
▁출생
 살아있는
도 우
선 거
▁ 롯데
▁무 장
▁입 고
피 아
. 8
▁ 혐
' 로
다 이
ack ground
▁트 리
론 을
▁2 ,
▁오 버
▁마 무리
▁방 문
▁3 일
▁주 고
▁의 외로
. 9
▁2 개
a st
▁좋 다.

▁바 탕
타 임
▁몸 을
▁진 입
▁히 어로
▁옵 션
▁ 앉
▁ 잇
드 ,
낸 다.
I I
라 

▁편 .
▁디 자
소 녀
▁ 잭
수 ,
▁은 퇴
▁당 연
i ve
▁무 너
되었 으며,
특 히
▁ 둔
▁I n
▁ 든
▁동문 

실 을
▁불 안
▁모 르는
▁ 빙
▁ 컬
▁문제 를
' 이라는
골 을
▁초 대
▁2 일
시 브
▁그 리스
당 의
▁포함 한
▁모습 으로
. 6
진 다.

▁꾸 준
▁기본 적으로
▁맞 아
▁올라 가
▁ 밸
▁선 보
▁때문 이다.

가 로
▁나왔 다.
스럽 게
▁고 등학교
▁각 성
카 가
▁ 삶
형 이
만 으로
▁기존 의
▁카 드를
▁상황 을
▁생 명
시 티
▁살아 남
/ /
▁ 닥
▁마 치
▁사 기
▁그 려
사 건
▁8 0
▁특성 상
▁목 숨
▁전 환
▁ 펜
▁미 드
일 은
하려 는
▁의 한
▁거 기에
역 으로
▁오 프
▁무 한
▁시 기
▁내용 은
전 으로
▁요 소
▁서 버
호 의
러 가
▁200 5년
▁실 시
▁ 낫
▁경 상
용 한
▁바 닥
▁보 였
▁ 흉
▁ 봤
▁ 닮
▁나타 난
▁컨 셉
▁7 0
▁시 나
패 를
▁경 기도
▁인 기
마 트

 S
▁비 난
▁대해서 는
▁앞 서
P S
▁ ...
체 로
▁화 면
▁그 저
▁ 붉은
방 에
▁아 나
고 속
▁보 다
▁지 적
▁이 들은
복 을
▁분 리
▁아 쉬
201 7년
▁마 음을
▁부분 이
▁연 주
▁ Q
▁보 조
▁명 의
▁받 지
석 을
▁ 큐
▁야 마
▁했 으나
▁요 시
리지 널
▁노 동
▁ 멈
그 러나
ou r
다 !

▁클 럽
▁승 리를
▁이 기
▁서 술
▁사 과
▁도 움을
▁밀 어
o ve
▁ 겹
▁회 피
▁어 둠
능 력
에게 도
▁하나 로
▁살 인
▁일러 스트
▁스 코
드 라마
▁개 봉
it y
산 을
▁확 보
▁등 급
▁돌 려
되었 고
전 은
▁남 편
고 가
▁팀 이
▁형 성
▁감 안
▁노 력
▁엔 진
▁후 속
▁레 드
# 

▁f or
▁같 다.
디 아
▁라 디오
2 2
▁만들 어진
▁꽤 나
버린 다.
.
 

▁점 에서
▁소 년
▁이 와
▁아 는
▁대 답
▁미 리
▁3 px;
A T
답 게
u b
▁체 력이
▁그 때
다.
이 후
▁ 셋
▁사람 의
▁되 고,
카 드
▁거 짓
생 활
▁v s
제 에
하였 고
출 연
▁오 르
하 므로
악 의
e st
▁점 은
▁적 의
▁하 드
▁ 년
전 투
▁이후 에
▁장 갑
타 는
까지 도
즈 가
▁하나 의
▁패 러
성 도
▁마 사
▁ 택
구 는
▁적 절
결 국
트 에서
이라 서
워 서
▁높 다.
▁개 조
▁프로 듀
▁사 격
▁차 이
▁장 난
계 에
었 다는
▁디 지
▁건 축
화 에
▁공 략
자 들
철 도
리 에서
▁먹 고
프 의
t p
그 래
▁정보 를
이 크
▁임 명
▁논란 이
▁투 수
▁한 다고
▁ 숲
1 ,
pl ay
e x
트 롤
▁다 운
▁나 쁘
교 통
▁부 르는
r y
▁차 례
하 이
▁ 꼽
▁탑 재
▁무 사
▁먹 는
▁5 00
▁분 야
( ,
▁금 지
▁이 사
▁수 밖에
▁듯 .

▁15 일
▁ 텐
▁마 르
정 보
▁왕 국
▁ 덜
▁단순 히
용 이
률 이
▁한 국의
일 반
미 는
▁자신 은
▁ 묶
▁죽 을
역 

▁날 려
▁일 어난
▁뛰 어
▁나 누
▁제 압
K BS
▁가 게
, 

신 은
방 의
라 와
세 이
▁데미 지를
규 모
▁요 리
▁아 프리카
▁갤 러
▁ 뜬
▁비교 적
▁일 은
▁ 촉
▁200 4년
▁가 리
▁들어 간
201 6년
놓 은
▁거 대한
당 시
▁오 후
▁ 앙
선 에
▁파 일
▁걱 정
9 9
▁반 면
▁S BS
ad i
목 을
ht tp
▁ )는
▁발 언
었 지만
상 

다 보니
▁ 찌
▁눈 에
▁고 속
▁손 에
▁투 표
▁나 이트
대 에서
식 의
▁속 도

 (
토 리
or t
▁10 일
: //
▁ 훌
▁연 장
' 가
▁유 래
▁저 격
루 가
▁3 년
▁만 난
▁1 개
i p
물 의
시키 고
우 고
차 로
▁플 래
▁몰 아
▁못 했다.
▁ 좁
▁누 군
코 가
▁기술 을
▁앞 으로
▁대표 적인
▁이유 가
▁지금 은
주 시
▁폐 지
a in
▁허 용
▁마 침
▁확실 히
▁재 료
역 이
▁컴퓨 터
공 항
▁데 이
▁등 록
▁고 통
▁ \
해 졌
사 랑
리 안
▁곳 에
여 담으로
▁만 한
상 에서
▁상 처
▁커 뮤
in d
▁조 각
동 이
▁구 분
▁물 어
▁필요 가
▁있 도록
사 에서
마 법
e ,
▁태 어났
▁ 밥
잖 아
▁30 일
▁여 름
런 데
▁육 군
이 던
▁스 크
! "
▁사용 한
화 에서는
▁그 에
▁때 의
is play
락 을
▁아 름
정 부
권 이
자 에게
▁3 5
▁속 성
키 를
▁사이 에서
▁5 일
회 에서
▁점 프
공 을
세 요
하기 로
▁그 만
▁평가 를
▁설 계
▁중 단
c om
시 안
버 렸다.
: 1
지 자
▁편 집
토 가
카 의
동 ,
▁모 험
석 이
▁완 료
▁좀 비

 기
▁시작 한
크래 프트
미 야
▁장 기
▁걸 어
임 에도
▁끝 내
르 기
▁본 인은
▁딱 히
발 을
▁제 시
우 의
▁생 기
▁사 쿠
일본 의
력 에
▁지 닌
▁인 기가
▁멸 망
시 리즈
▁이용 한
품 을
▁부 대
▁ 댄
▁느 껴
▁최 대한
되 며,
▁있 으나
▁보 병
에서 만
회 에
▁태 양
당 이
오 프
▁보 너
▁약 속
▁지 니
I C
▁직 전
▁캐릭터 가
조 선
19 3
▁짧 은
스 턴
l ine
▁희 망
포 를
▁악 마
서 가
▁ 닌
질 이
까지 의
ar g
▁아 시아
▁일반 적인
애 니
A M
▁없 기
중 국
u st
원 래
▁ re
en d
▁방 해
▁19 2
▁ 샌
사 관
▁고 대
▁상대 가
l d
받 고
▁팀 을
▁거 절
하여 ,
효 과
▁불 리는
▁솔 로
▁유 도
량 의
▁거 야
트 ,
족 의
▁ 엠
▁겨 우
데 미
e :
▁뿐 만
▁코 스
▁여 행
상 태
on g
▁맞 고
▁ 댓
▁인 류
o b
▁떨어 져
▁마 리
▁대 놓고
▁개 의
즈 를
( 2
조 가
▁오 리지널
▁얘 기
▁형태 로
▁ 쥐
든 지
지 컬
▁ 웬
▁그 럼
▁다 름
다가 ,
▁20 일
▁되 기
독 교
▁이전 에
▁추가 로
▁구 축
한 편
▁동 맹
▁많 았
루 스
▁보 이지
물 로
수 와
지 방
단 은
7 0
▁ 캡
리아 의
니 스
▁개 선
▁바 꿔
▁젊 은
▁생 겨
l y
▁받아 들
▁잡 고
▁제 안
▁그 레이
티 어
▁ 렌
▁4 일
달 라고
▁ it
▁어느 정도
▁개 편
▁2 번
아 웃

 가
▁모 아
▁않았 다.

서 관
되었 던
▁주 문
- 4
니 가
▁존재 한다.
A C
▁산 업

 전
▁없 지만
▁수준 의
▁엄청 나게
▁알려 진
을 때
▁9 0
메 달
▁집 에
▁오 토
▁스킬 을
▁작 성
됐 다.
되 기도
▁입 학
▁병 사
▁모 티브
( B
▁알 렉
▁레 전
▁내 부
대 ,
3 ,
판 이
▁시나 리오
▁기 획
론 이
모 리
▁때 부터
▁해 군
▁끝 까지
▁7 일
스 페
▁코 너
▁3 개
▁ 란
이라 며
단 ,
▁사 령
▁서 브
등 장
평 가
▁이 하
▁필 수
▁잠 깐
▁눈 을
▁가 슴
비 의
▁화 염
타 의
▁소 리를
마 을
▁증 거
마 이
▁28 일
▁25 일
오 카
량 은
▁광 주
▁파 트
▁ 꼴
▁보 컬
▁속 에서
▁멀 리
▁평범 한
미 널
권 의
▁측 면
▁어 울
어 져
▁ 덴
▁ 혜
▁ –
▁3 00
▁포 르
▁부 담
▁편 이다.

▁길 을
베 르
성 으로
F C
▁이후 에는
. "
지 며
▁힘 이
▁ 낳
▁내용 을
▁제외 하고
인 민
단 히
자 들을
격 이
▁서비 스
렸 다.

것 이
디 션
▁걸 로
▁200 2년
구 나
I A
▁바 뀐
▁인 기를
로 스
▁P C
▁보여 주는
파 이어
사 람
▁말 고
프 랑
▁주 도
대한민 국
▁ 갱
구 로
▁근 거


 같이
▁초반 에
▁효 율
O S
함 이
▁비 디오
▁해 주
▁ 엉
기 에는
▁스 카
▁ 팩
▁흡 수
▁문제 로
▁뒤 로
▁상황 에
연 합
터 의
▁원 정
▁이야 기가
▁주 연
▁타이 밍
▁바탕 으로
▁못 해
원 과
▁황 제
▁도 움이
▁뮤 직
( P
( 201
▁제 조
' 이
▁진 화
▁200 3년
등 을
▁ 틈

 유
▁자 살
▁핵 심
▁스 케
▁가 정
▁속 도가
▁만 에
성 ,
▁범 위
O R
▁없 게
트 남
리 트
오 의
▁꾸준 히
▁책 임
▁수 호
▁ 핀
토 의
▁드 라이
오 가
▁사 상
현 의
▁정 당
사 키
e w
▁애 매
식 은
▁브 레이
▁파 악
드 

▁미 친
▁게 시
▁강 제
▁외국 인
▁개 통
▁200 0년
크 는
와 서
▁향 해
(? )
▁죽 이
▁페 르
치 에
▁중 에서도
' 는
여 자
▁자신 에게
치 지
▁줄 어들
받 아
▁사람 들
▁감 염
▁추가 된
▁이것 은
적 이고
향 이
▁우 려
해 보
▁상대 적으로
▁ 래
▁시 행
은 행
▁보 급
다면 ,
▁그 들의
쳐 서
스 키
▁올 리
▁승 강
사 인
▁넘 어가
▁ 깎
인 간
기 만
▁오 스트
▁원 하는
▁관 통
대 와
▁단 체
▁싶 은
▁발 휘
경 찰
수 에
▁의 심
▁어 찌
▁습 격
? "
쳤 다.
랜 드의
▁ 덩
▁여 겨
s e
기 (
하자 면
▁아니 다.

▁필 살
점 에
▁강 조
u d
▁게임 의
▁반 영
▁쉬 운
▁원 거리
있 던
▁봉 인

 제
▁게 이
▁임 무
▁그녀 는
▁단 독
먼 트
▁더 블
토 를
▁상대 를
▁종 합
▁사건 이
형 의
마 스
~ 3
▁계 산
▁ 궤
▁그녀 를
▁늘 어나
전 에서는
▁방식 으로
▁무 기를
▁3 2
▁동일 한
math (
▁ 폰
▁반 란
▁올 랐
느 냐
나 미
▁19 1
A S
▁댓 글
▁중 화
전 사
▁위 로
하게 도
▁밝혔 다.
하 러
먹 는
▁귀 족
러 를
조 를
▁지역 의
▁14 일
▁기 체
i v
▁떨어 지는
▁싶 어
기 인
▁ 찰
드 라
▁머 리를
▁뉴 욕
▁컨 트롤
▁27 일
▁만 족
▁멀 티
되 고,
▁되었 고,
▁데미 지
▁관 광
▁궁 극
▁8 일
▁유 우
▁아 침
▁타 임
▁건 너
▁붕 괴
▁충 돌

 2
9 0
▁용 병
심 히
▁부 상
▁활약 을
비 는
생 을
▁나오 고
▁당 황
점 에서
사 업
▁온 라인
국 이
▁트 레이
▁100 %
▁지 급
▁하나 가
▁출 발
▁포 인트
▁전 자
ig n
▁액 션
er -
▁민 족
다" 고
▁광 고
관 은

 M
▁아 웃
▁20 21년
▁속 에
▁공 통
▁26 일
▁4 5
▁게임 이
ackground :
라 리
▁광 역
oc k
베 이
메 리카
시 와
on e
▁b e
▁스 펙
▁오 는
▁21 일
a v
▁난이 도
용 을
리 자
▁1 위를
▁했 다고
었 는데
▁자 기가
▁상태 가
▁ 쏟
끼 리
치 와
▁고 민
다.
그 리고
ou t
▁있다.
 이
id th
▁밀 려
시 

스 에게
▁한 다.


로서 의
▁공 산
▁공 항
하기 에
▁돌아 온
▁설 득
▁하나 를
▁배 신
( 3
주 년
▁전 술
▁분 석
루 의
▁히 트
▁밸 런
게 도
감 독
▁17 일
▁재 미
▁배경 으로
w w
▁안 타
▁없 고,
▁이것 이
▁ 춤
다(...) .
▁라 이트
화 로
] 

▁18 일
하였 으며,
▁6 일
▁지 명
안 타
▁보여 줬
하 긴
▁12 일
▁버 프
▁ r
l l
▁9 일
님 이
▁국가대표 팀
▁약 한
루 를
A L
작 의
치 기
▁11 일
な い
▁명 중
( D
권 에서


각주 

외부
자 동
▁온 갖
▁행 복
▁F I
▁2 세
▁ ·
▁이 론
▁16 일
말 을
▁아니 지만
▁ 쥬
▁ 을
▁체 포
공 의
▁보여 준다.
▁단 ,
▁말 해
201 5년
선 에서
▁커 버
▁23 일
▁ 르
▁실 질
▁우승 을
▁커뮤 니티
▁있 으므로
▁사용 한다.
▁1 000
▁가 입
▁ is
▁대 다
배 우
진 은
▁되었 고
▁표 준
▁24 일
▁카 오
▁명 예
▁모 자
▁현재 의
▁진 영
입 니다.
▁착 용
▁구 입
▁홍 콩
▁카 페
▁들어 오
▁있었 고,
▁시점 에서
▁불 렀
u re
▁사람 들을
▁베 이스
▁않 기
▁마 련
서 ,
▁내용 이
ad d
▁외 에
차 피
관 리
▁예 전
B O
▁황 금
▁버 튼
▁와 중에
▁뒤 집
라 운
▁살 짝
▁사 항
ec t
▁않 지만
▁ 죠
▁19 0
▁내 내
▁29 일
믹 스
력 도
▁인 사
스 팅
▁보 수
▁말 한
▁사실 이
▁전 달
▁입 은
▁센 터
로 로
as s
시 설
내 가
▁등 등
▁것 이라는
▁13 일
▁소 프트
▁있었 지만
▁얻 은
▁1 번
개 발
▁뭔 가
d isplay
▁ 콩
▁업그 레이드
▁성 우는
▁22 일
▁스페 인
▁준 다.
아 시아
히 고
겨 진
▁ 핸
지 금
▁H P
▁둘 이
▁왼 쪽
V E
학 을
스트 로
▁카 즈
▁받 게
자 마자
▁그것 을
▁훌 륭
▁아 스
▁ 흰
▁다만 ,
리 나
▁어 쩔
▁언 어
만 은
보 스
원 전
▁폭 탄
▁혼 란
2 

f t
L C
계 로
▁탑 승
원 도
버 리고
▁스 탠
면서 도
▁공 유
개 가
학 자
▁성 적
▁ 캔
사 회
▁말 도
▁ 릴
▁당 장
▁ 덮
▁채 용
▁하 기도
▁ )은
▁하 던
▁구 단
▁홍 보
▁않 아서
선 은
▁근 무
시 코
▁납 치
▁취 임
관 의
합 니다.

증 을
▁ 삽
해 져
원 (
▁등장 .
▁S h
▁갖 추
▁에너 지
원 들이
▁붙 잡
중 앙
▁ 밟
무 기
직 을
▁거 대
▁누 가
- s
▁당시 에는
왕 이
▁패러 디
이 

화 ,
▁인 지
동 에
▁탄 생
▁신 체
▁옆 에
▁m e
▁뒤 ,
▁버 티
▁1 0년
▁T h
▁그 게
▁마 주
▁레이 저
할 때
가 능
▁이 르
판 에
▁거 리
면 을
▁외 교
▁바 르
드 에서
▁때 려
▁편 성
▁대 공
es s
▁조 정
▁팀 은
▁콤 보
▁겨 울
4 .
▁ }}}
▁역 으로
▁처 치
▁실 행
▁( 198
▁19 일
▁적 에게
준 다.

톨 릭
' 에
▁둘 러
▁내 에
▁뽑 아
▁처음 부터

 대한민국의
모 의
했 다가
전 자
▁그 럴
▁작 전
화 는
▁ 넥
▁벗 어나
했 으나,
▁눈 치
▁해 설
▁경 영
▁유 키
▁의 도
음 악
마 는
▁ 랭
적 의
▁자동 차
▁들어 가는
▁변 호
▁지하 철
기 에서
▁그 곳
▁200 1년
특별 시
다 지
거 리가
▁방송 을
▁나 쁜
장 (
▁공 을
▁로 켓
▁제 국의
▁돌 파
일 로
▁생 물
▁ 값
방 이
4 5
인지 라
▁듀 얼
우 승
▁확률 로
▁통 한
▁서 포
n g
▁ 뱀
▁모 션
▁행동 을
▁ 『
▁들어 서
▁쓰 지
▁이 들
▁에 이스
류 가
우 를
▁집 안
하지 는
군 과
미 니
▁덕 에
▁떠 올
시간 이
▁상대 의
▁ 셰
사 용
▁존재 하는
▁ 봄
지 .
▁당 선
단 으로
▁ 핑
권 에
▁구 역
각 을
▁추 진
▁장 애
▁가 문
속 도
▁제 기
▁2 회
▁계속 해서
▁지 옥
▁판 타
▁살 고
2 3
▁위 에서
▁ 겁
▁죽 는
▁가 득
▁이상 한
▁박 살
▁일 종의
해 주는
였 다고
였 고,
▁시 티
▁인간 의
▁처음 에는
프 는
▁컨 텐츠
▁했 는데

 대
▁예 술
e v
▁" 이
▁놓 고
▁절 반
▁스 킨
▁선 배
▁에 어
▁위 원
▁하 위
실 제로
▁부분 은
▁교 수
▁ 떼
▁노래 를
( 이
브 라
어 주
▁영 상을
장 인
▁마지막 으로
▁하 다가
국 민
▁시 내
▁브라 질
▁건 강
지 원
▁대 륙
▁계 승
등 급
가 에
( 200
▁확률 이
▁오른 쪽
▁열 심히
소 의
▁스 튜
▁데 리고
▁재 생
▁증 명
시 한
크 라
▁득 점
선 으로
( T
▁감독 의
▁위 하여
▁해 제
▁기 독교
▁ 쿄
▁연 예
병 을
▁본 편
▁통 일
▁협 력
▁흔 히
▁위해서 는
▁스 탯
▁뛰 어나
▁역 전
i an
▁형 제
▁뉴 스
▁ 폼
om e
▁기 절
▁정 글
5 ,
▁S p
or e
공 화국
기 본
마 리
▁해 체
부 와
▁적 도
▁거 래
적 이다.
▁발 음
▁일반 적으로
모 든
▁스 파
▁ 낸
산 업
っ て
▁정도 는
▁와 서
) 라는
▁오 픈
▁없었 던
▁후 에는
▁곳 에서
▁재 능
▁은 근
▁플레이 어가
▁소 멸
▁알 았
: 0
▁교 환
s p
▁이루 어진
▁심각 한
▁걸 려
▁등 판
▁아이템 을
구 역
네 가
▁나 카
▁ 융
기 업
항 공
▁자 리에
▁얼굴 을
별 로

 I
▁라이 벌
이 치
니 어
▁못 할
▁채 로
카 를
G M
서 의
▁신 인
구 ,
판 에서는
▁관계 를
계 에서
▁때문 인지
▁신 뢰
▁사이 의
▁무 력
해 지는
▁맡 은
니 ,
지 마
▁의미 가
▁로 드
▁피 아
▁중 간에
자 리
▁아무 래도
▁의 사
티 아
▁세 트
▁ 걷
▁비 록
▁관 심을
u c
o od
니 의
▁사건 을
▁일부 러
1 .
즈 는
▁주 력
▁ 겐

 3
▁압 박
가 락
▁그 만큼
디 언
했 다
1 00
( R
▁투 자
▁글 로
스트 를
ord er-
이나 ,
▁ 료
▁불 명
▁무 서
▁순 식
학 급
▁생각 하는
▁세 이
▁랜 덤
▁안 되는
도 

n a
▁가 로
▁이 들이
. com
머 리
▁민 간
( L
▁아 사
▁선수 가
▁당 한
공 식
▁기 회를
터 는
▁부 진
▁ 꺾
er e
되었 으며
▁소 울
r an
▁그 다지
▁붙 여
악 한
리 언
▁하나 인
▁극 장판
▁파 견
▁목 적으로
' 으로
▁가까 이
라 노
▁공 주
▁신 청
▁화 살
▁쓰러 뜨
유 럽
▁돌아 오
▁음 식
▁맞 이
된 다.


호 ,
▁무 난
▁비 하면
국 가
▁ i
5 00
▁밴 드
색 이
▁않 고,
i re
.... ..

 A
▁사람 도
▁수 입
워 드
▁케 이스
급 의
▁통 해서
오 를
4 ,
자 도
E C
▁넘 는
arg in
민주 당
▁아무 런
▁오 오
▁정 체
▁취 소
거 운
▁테 러
▁사실 은
▁ 닿
▁( S
▁있 겠
▁부족 한
▁발매 된
▁보 낸
▁안 습
기 간
야 구
▁잉 글
▁이 슬
▁순식 간에
▁보 도
▁이 래
▁복 잡
▁보 였다.
▁공 작
부 ,
▁공격 이
한 의
그 러
보 단
미 국
▁b order-
▁난이 도가
▁3 번
▁캐 나다
판 은
▁뒤 를
과 거
▁플 라
▁제 주
고 의
▁즉 시
▁199 9년
즈 키
▁마 나
▁몰 래
해 ,
q u
▁ 룰
으 려
▁문 을
▁골 드
류 를
▁얻 는
형 은
▁메 가
▁1 세
인 다.

, #
데 스
널 티
영 상
▁그 동안
▁아 야
▁것 이라
▁이 승
▁테 마
판 의
▁수 요
▁I I
▁해 금
국 제
▁있 긴
▁그렇 다고
▁쏟 아
서 로
▁세 워
▁등장 한다.

▁쓰 이는
▁싸 우는
▁했 지만,
중 한
▁그녀 가
리 면서
▁스 프
▁메이 저
▁ 템
아 ,
▁사용 하면
▁ 젠

 C
받 았
▁참 전
▁3 3
▁연 방
▁전 라
▁공 화국
▁방향 으로
▁베 르
▁노 출
▁지역 에
축 구
▁이 른
▁당시 의
▁31 일
▁방법 을
종 이
▁트 랙
경 제
r adi
▁ x
e g
▁2 루
▁ 들이
회 는
▁감독 이
▁도 달
겼 다.
여 기
▁흔 들
▁선 호
▁두 려
친 구
▁단 일
실 에

 "
라 .
▁의견 이
▁ 균
부 대
▁자 이
▁늘 어
▁일 어났
▁집 단
▁되었 다.


▁때 에는
▁아 라
▁쓰 레
▁등 과
내 며
▁연 극
어 .
인 도
▁정도 .

실 이
▁ 롱
▁승 격
▁네 이버
것 을
▁페 이
웨 이
▁ 옹
▁있었 으나
ar e
자 들에게
어 와
▁여 동생
▁중 인
소 에
▁199 8년
E D
▁ 섭
▁국 립
▁구 현
▁등 에서
▁주 목
▁정말 로
버 트
▁최 악의
▁또한 ,
▁반응 을
냐 며
▁3 ,
▁대 로
201 4년
▁클 로
▁아 닐
▁드 립
▁추 락
▁출 판
▁편 이
▁쪽 으로
▁간 의
▁201 8
온 다.
요 .

▁다니 는
s ,
▁되 돌
▁방 패
o v
▁3 6
▁스 파이
radi us
자 (
▁했 을
▁되 찾
▁못 하게
▁아무 도
의 로
▁패 치로
역 에서
경 이
▁m y
▁ 긍
▁편 .

ing :
거 리는
▁본격 적으로
▁이 뤄
▁클 리
▁기록 을
▁A r
▁고 유
처 음
▁성능 이
▁기 여
E N
▁ 퓨
▁전투 에서
▁데미 지가
끄 는
이었 으나
▁열 차
▁목숨 을
▁기능 을
▁( C
▁수준 으로
▁f ont
세 한
▁받 는다.
▁있었 는데,
▁견 제
브 리
▁실 력
▁ or
▁조 지
버 려
▁아무 것도
▁브 랜드
▁괴 물
▁경 계
▁최 상
동 의
▁두 번째
e b
▁목 적
▁border- radius
▁오프 닝
▁김 성
무 원
산 이
관 계
▁데 스
▁ 랩
테 인
▁대 립
라이 언
S S
▁인 근
주 ,
▁임 시
▁다 가
▁이용 하여
▁고 양
▁조 준
▁죽 어
되 자
었 는데,
- 5
▁아 오
해 가
V P
▁다르 다.
▁프로 토
▁디 스
만 원
▁ 낭
▁불 편
인 들은
▁의 식
▁생각 을
▁이후 로는
▁방법 이
▁걸 쳐
▁떡 밥
▁충 청
야 가
간 다.

까 지만
사 항
▁카 르
▁순 위
' t
부 산
▁옮 겨
▁ 낚
▁치 고
였 지만
▁게 이지
트 

▁다행 히
▁어 차피
▁in line
▁되 는데
▁있었 다고
저 히
▁격 파
▁경 유
책 을
▁해당 하는
▁눈 이
르 를
▁스페 셜
에 ,
▁있어 야
( G
▁아니라 ,
▁ 깃
색 을
시켰 다.
▁듯 하다.
해 졌다.
▁트 레
▁신 설
▁비슷 하게
줘 야
▁화 려
▁초 월
향 을
▁부분 을
였 고
▁후 쿠
▁ 훔
▁B l
▁호 평
▁넓 은
i al
민 이
▁돌 격
사 이트
. )

▁고 전
▁수 용
▁이 스
자 고
▁체 육
당 을
코 는
▁연 계
▁ 짝
▁주인공 이
▁무 게
주인 공
▁글 을
▁보 상
▁빠 진
율 을
▁d e
▁그것 도
' '
지 (
▁운 전
마저 도
" ,
해 의
었 다.


다 의
▁이 득
▁그 에게
▁ 델
▁넣 어
우 주
▁세 력
H E
▁쓰 면
▁만들 고
▁오 리
비 스
▁말 았다.
▁기 초
' 이라고
하 겠
웨 어
▁4 년
▁깊 은
▁실제로 는
▁메 달
▁코 로나
리 우
령 을
▁수 리
▁들 은
▁주 지
홈 런
b er
▁말 할
▁ 묵
▁자체 를
▁유저 들이

 스
장 한
▁모습 은
▁국회의 원
▁외 모
▁거 라고
▁떠 난
▁이 들의
의 가
▁지금 까지
▁아 우
시 스
바 일
▁199 7년
▁경 기가
▁계획 을
▁오 로
id e
▁행 사
▁대 장
▁신 규
해 지
▁동 원
형 으로
▁안 에서
야 의
▁맡 고
▁명 이
▁시작 한다.
▁없 애
▁제 4
▁사이 가
5 .
display :
▁위 기에
▁본인 도
) 라고
바 라
인 에
▁중 학교
▁제 이
▁공 급
실 에서
▁style=" display:
스트 라
▁던 전
인 인
ak e
▁ 갓
국 을
▁갑 옷


 참고
리 엄
▁소재 로
▁죽 여
▁201 6
▁네 덜
함 에
았 을
아 를
▁스 마트
▁코 미
린 이
다 면서
▁공 부
파 의
▁마 녀
▁녹 음
▁ 몹
▁E X
▁고 급
▁ 족
ar k
▁A P
성 우
▁199 6년
다(...) .

▁괜찮 은
웨 덴
연 이
▁있었 고
▁업 무
▁포 인
인 에게
I T
▁학 살
▁카운 터
▁노 예
add ing:
▁50 %
3 3
유 가
F F
▁무 료
▁꺼 내
▁사진 을
사 령
▁주 어
▁마음 에
▁회 전
▁수 학
▁콘 서
드 래
격 으로
당 히
데 이
▁드 랍
▁자신 과
▁ 맘
나 카
▁해 방
e e
속 성
▁파 이터
▁가 톨릭
▁FI FA
▁ 샘
▁한 글
모 델
▁어 깨
작 을
다 음
( E
▁나 뉘
▁마이 너
▁교 황
관 련
일 랜드
▁있었 는데
▁입장 에서는
▁도 움
2 8
▁위치 를
▁크 리
▁다 수
▁N o
▁대 상으로
▁캐릭터 를
▁기반 으로
▁돌 진

 소
시킨 다.
▁공격 력이
▁작 동
▁성능 을
▁ 멕
치 ,
부 르크
▁차 별
▁여러 가지
▁레전 드
▁했 고,
명 한
▁프리 미
▁법 률
▁쪽 이
▁인 생
님 의
뿐 만
▁걸 린
▁달 러
ag e
이다.
 이
▁확 진
▁화 장
▁카 드가
▁똑 같이
▁p adding:
▁혼자 서
▁ 돕
▁인 상
▁복 수
▁ 쇠
비 에
▁편 입
먹 을
k g
▁빨 간
▁제 로
▁점 차
2 6
▁몸 에
▁관계 가
후 반
▁응 원
▁시 각
웠 다.
▁레 인
▁Y ou
하 에
▁199 5년
▁이미 지
▁이후 의
▁이후 에도
▁' 이
▁패 시브
▁미 술
▁이름 의
주 에
▁15 0
g e
표 를
? ?
▁역 임
▁달 아
시 고
▁그런 지
▁벌 어진
▁ 늑
타 입
▁딜 러
▁K T
▁고 양이
화 되어
▁내 는
▁시 기에
함 으로써
▁된 다는
▁먹 을
▁가 졌
▁유 로
▁트위 터
▁전투 를
과 를
렸 을
보 통
▁사람 들의
▁스 폰
▁w h
b l
▁크 루
P G
▁구 출
▁조 절
▁형태 의
문 학
▁잡 는
▁아직 도
▁때문 .

란 색
▁조금 씩
▁ 텍
▁몸 이
2 7
재 를
▁연 애
▁[ math(
였 으나
▁ 닉
관 으로
츠 키
▁있 으나,
아 리
소 리
▁베 트남
▁위 키
▁평 화
▁드 물
▁하나 는
▁무 대
▁보 이고
조 리
▁계 급
▁수 집
▁평가 가
▁w ith
나 도
▁비중 이
름 을
▁않 다.

▁5 년
▁스트 라이
자 키
포 르
▁디지 털
보 가
▁리 버
해진 다.
다.
그 러나
이었 고,
마 루
인 들의
▁곳 이
▁참고 .

링 을

 어
▁마지막 에

 D
역 ,
▁ 빔
e ar
파 를
료 를
요 ?
▁요 새
▁예 측
라 이트
▁기 습
▁조 심
ic k
▁말 은
▁ 끔
▁두 산
▁1 ~
▁되 는데,
i x
-s iz
▁이 내
체 에
▁곧 바로
▁합 격
▁되 자
▁프로젝 트
) (
▁그래 픽
슈 퍼
▁달 린
▁8 강
▁영 원

 신
r om
기 지
▁낮 아
▁대 규모
▁캐릭터 의

 [
▁정 착
▁신 의
▁오 빠
▁매 일
▁제 법
터 리
었 으나
편 의
▁괴 롭
▁특별 한
▁전 까지
▁던 져
▁ 둥
▁원래 는
▁행 성
나라 의
▁울 산
▁적극 적으로
시 장
▁N PC
라 에
p h
당 하는
▁대 폭
5 %
▁ 눌
▁영 국의
▁엄 마
스 톤
▁ 탁
▁타 워
회 사
-siz e:
▁입 단
▁똑 같은
▁미 야
▁( M
or m
조 는
▁안 드로
힌 다.
▁등 은
▁통 신
▁해 적
▁1 인
▁미사 일
▁하 더라도
▁어 그
▁개 교
▁나 의
소 설
▁들어 갔
( H
▁결 성
▁ 엮
▁의 혹
▁생활 을
기 .
중 인
과 ,
민 의
▁그렇 지
위 ,
트 워
▁격 투
▁적 어도
▁살 려
▁심 한
▁한 때
▁익 숙
교 의
▁후 지
▁지속 적으로
▁테 크

 199
터 테인
카 는
▁201 7
▁그 와
or y
▁드 디어
▁메 탈
버 릴
▁불 법
행 정
▁말 했다.
▁집 어
▁ 퀄
령 이
병 이
▁곡 을
▁합 쳐
▁구 속
▁갈 아
수 (
▁오 스
o y
▁고 향
짜 리
▁ 짤
▁3 8
등 이
하였 으나
▁매 니
▁시 키
▁연 상
전 차
▁수 영

 고
이 긴
▁아 티
▁테 이
▁추 적
하 시
해 당
들에게 는
▁b ackground:
2 2년
▁얼 음
▁도 중에
2 )

▁유 용
n t
미 와
▁막 을
▁자 치
i es
▁충 전
▁때 가
끄 러
▁높 다.

▁전체 적으로
▁널 리
▁정도 가
e y
둥 이
▁구 해
ol d
▁어 째
들 ,
▁플레이 를
유 키
▁시 장
▁소 리가
▁정확 히
담 을
▁암 흑
▁크 레
함 과
지 구
작 중
소 에서
▁않았 던
▁이 들을
▁3 차
테 이
▁소 화
현 이
▁그 들은

 B
관 에
▁어디 까지
기 타
▁출신 의
▁드 러나
▁200 0
▁기억 을
▁안 내
쟁 이
▁작 용
당 에
슈 타
시 험
동 으로
▁ 헨
▁검 색
▁태 어난
합 니다.
주 면
▁넘 겨
▁한 다
/ 3
▁화 이트
▁단 점
▁발 달
▁초 등학교
▁그 랬
▁대부분 이
호 로
▁ 덧
메 가
▁선 물
▁수 원
시 절
하자 .
세 에
E X
▁카 나
▁트 로
▁여러 모로
▁조 성
▁등 ,
O L
데 다
▁ 춘
피 스
▁어 지
▁줄 어
실 한
▁하 였다.

면 으로
캐 릭터
▁ 를
▁다 섯
▁몰 려
▁길 이
▁의 원
았 다고
▁러 브
▁밖 으로
▁근처 에
영 이
▁에 스
▁어떻게 든
▁대체 로
하면서 도
▁상 품
M P
연 의
▁펼 쳐
▁성 인
▁페 이스
( F
제 국
쪽 의
버 그
▁장 점
▁C D
▁기록 했다.
▁긍 정
ro w
대 장
▁풀 어
▁추 격
m er
▁압도 적인
▁S P
▁인 공
▁유 행
▁더 빙
▁목 격
이었 다고
제 한
▁지니 고
▁보여주 고
씨 가
▁극 단
▁맞 지
이 게
▁단 지
▁거 리가
▁페 이지
ol or
》 의
▁반 발
하 라고
( )은
▁설 정이
▁우 리가
▁ 횟
번 에
▁변 형
▁ 겉
이었 지만
▁고 백
마 스터
▁규 정
제 작
▁부 상을
권 은
안 이
▁폭 풍
▁ 곁
▁빠 르
▁ 퀸
▁인 수
할 수
▁국 방
▁잃 어
▁레 코
▁한국 어
▁불 꽃
A D
▁자신 들의
크 와
▁무 언
레 일
▁계약 을
분 의
5 5
요 

내 기
▁옛 날
법 이
▁마이 클
▁팬 들이
▁제 임
▁모 으
더 욱
▁조 용
▁P ro
I S
배 를
상 ,
했 는지
▁이것 을
▁중 에는
▁만 났
▁어렵 다.
▁김 영
▁편 의
▁자 원
▁어 떠
▁만 다.
▁창 작
그 리
) "
▁기능 이
▁예 능
▁N C
▁201 9
▁ 객
▁않아 도
리 얼
보 드
▁회 의
▁출신 

디 가
일 보
▁가 이
라 기
▁의 존
▁삼 국
▁10 %
되었 다고
▁존재 하지
▁서 서
argin :
랫 동안
▁부 터
▁정 류
on d
▁여 왕
다시 피
▁있 기에
e at
▁P S
▁관 객
▁나 루
역 에
s h
8 월
6 ,
▁이슬 람
▁지나 치게
▁스킬 이
▁전쟁 을
것 은
▁베 스트
I D
▁듯 하다.

니 와
▁대 략
▁그것 이
▁스타 일
▁없 으니
까 ?
▁청 년
▁아 쉽
▁아버 지가
▁예 외
▁알 파
▁이쪽 은
으 론
교 를
▁border-radius :
노 가
린 의
▁사 정
실 점
하자 .

7 ,
▁권 총
▁18 9
▁세계 의
▁다 룬
▁201 4
▁ 빗
후 에
▁효과 는
O P
▁자 가
▁이 재
예 술
▁곳 으로
▁막 기
201 3년
▁언제 나
▁파트 너
- 
|
▁위험 한
▁마법 사
비 디오
▁팬 들은
▁일 도
▁ 팝
▁4 강
▁모 여
소 한
▁단 어
으 려고
▁고 용
▁한 화
교 회
▁양 산
▁주 전
▁ 핫
▁모두 가
▁쫓 아
▁첫 번째
▁성 적을
다니 는
▁없 으면
▁중 에서는
하기 는
▁없 었다.

▁이 주
▁2 배
▁출 현
▁홀 로
▁헤 드
▁ ;
▁공격 에
▁( 1
드 러
▁수 송
▁ 랭크
▁협 박
아 는
정 확
▁진 정한
미 ,
▁리 메이
▁런 던
▁보 장
▁ 뼈
드 립
▁이 성
▁단순 한
▁ 락
▁내 의
히 로
▁써 서

 영
▁대 화를
▁그럼 에도
자 면
▁근 육
▁실 력을
환 이
입 니다.

▁입 력
2 9
▁이 중
▁공개 된
편 에서
평 양
▁중 국의
▁붙 은
마 디
▁아니 냐는
▁죽 인
▁스튜 디오
사 무
▁끝나 고
▁의 료
▁그 로
▁남아 있
과 도
심 으로
▁내 구
▁전 직
▁식 민
▁되 어서
스트 가
▁4 8
예 를
▁성 립
! )

▁이 날
▁레 오
▁검 사
▁탱 커
▁최후 의
투 갈
▁주변 에
당 해
당 하고
인 (
▁사용 하여
▁진 지
었 기
S L
▁대 처
R A
▁처 벌
유 를
▁귀 여
▁활 성
▁" 그
▁ 펠
▁생각 이
▁상 호
▁보 안
) 이다.
부 (
▁문 헌
▁다루 는
론 의
▁전 형
드 레
▁베 어
주 지
▁끌 려
타 카
연 을
사 우
▁출 장
▁지 내
▁ 빵
▁못 한다.
만큼 은
▁말 하면
▁찾 는
▁남 긴
▁현 상
시 (
세 트
▁파 이어
훗 날
▁받아 들이
... .

▁갤 럭
▁style=" m
▁M C
▁올 린
쨌 든
토 는
레 나
o h
▁외 에는
류 의
작 이
▁호 텔
▁들어 온
해서 는
되었 을
▁지역 에서
▁코 드
▁느낌 이
관 ,
▁대 항
타 와
지 인
▁나왔 다.

▁199 4년
6 6
▁지역 을
▁저 장
물 에
▁엑 스
슬 러
7 월
▁특이 한
소 는

 T
▁ 갇
들과 는
▁통 제
▁많 아서
5 월
p er
도 르
노 의
▁이 어진
▁문 학
▁여 담으로
▁끌 고
▁나와 서
림 을
▁ }}}

통 을
▁20 20
▁강 제로
▁절 망
▁메 시
▁세 월
▁착 각
▁font -size:
▁4 개
▁ 섹
츠 의
▁지 어
하고 자
전 ,
자 치
▁시 켜
정 치
아 야
▁블 록
▁ 잦
▁대 상이

 김
▁말 한다.

▁체 력을
▁심 리
▁의 뢰
팀 이
▁고 등
▁style="m argin:
▁판 정
▁잡 을
▁판타 지
o st
▁성격 이
세 로
▁높 이
▁구성 되어
어 날
▁했 다는
▁했 는데,
치 며
▁총 을
업 이
재 가
▁파일 럿
곡 을
▁튀 어나
▁본 선
▁예 비
▁했 고
▁오 랫동안
▁ 펀
하거나 ,
▁프 린
▁ 뺏
▁잃 은
▁네 가

 하
▁노 트
기 까지
▁지금 의
▁않는 다는
▁이후 ,
▁버 려
▁함 정
6 월
i le
▁플 랫
▁가 볍
▁반응 이
▁보 일
▁수 치
▁201 5
▁구 멍
지 않
▁없 던
▁깨 닫
▁아 빠
▁199 0년
▁북 미
세 는
▁감 정
▁나 를
or ld
' 에서
▁맡 았
▁상 향
▁전 력
▁어 쩌
▁제 5
▁저 녁
7 7
실 로

 한
▁마법 을
( N
▁아 시안
▁능력 은
역 의
▁관 심이
▁자신 도
▁침 공
▁에 드
단 체
후 의
▁정치 적
▁것이 었다.
현 대
▁기 어
▁보 며
다' 는
로 봇
8 8
▁동 네
▁아 케
▁장 군
▁경 기는
▁수 사
▁내 놓
리 포
▁일으 키
▁존재 한다.

▁외 부
통 신
전 과
▁이전 의
피 를
▁하 수
▁사 장
▁결과 를
▁ 즈
▁ 셔
▁장 식
▁크 고
▁까 다
▁준 우승
당 은
▁F A
노 우
하는 게
E FA
▁전 철
▁생각 하고
: 00
▁ 낼
P U
▁감 시
▁ 빚

 L
▁ 뚜
▁모 리
▁마 츠
▁결 합
었 으며,
▁적 대
▁자 매
▁되었 다고
가 면
▁지원 을
▁서울 특별시
친 다.

 시
▁토 모
▁잠 수
▁한 동안
소 로
▁만들 었다.

 무
B A
9 월
졌 고,
▁크 다.
▁윌 리엄
ac t
구 려
▁ 곰
쿠 라
▁자이 언
▁전 화
▁푸 른
▁가 드
실 ,
금 이
▁사용 해
▁이 시
al ign
▁접 촉
근 혜
▁태 어나
▁커 플
▁1 대
▁우 수
▁콜 라
클 럽
카 오
▁3 4
▁이끌 고
방 어
영 의
▁아 머
지 고,
▁하 필
4 월
▁팬 덤
▁쓰 기
성 (
▁소 수
▁U n
▁단 계
▁규 칙
한 을
▁것 만
▁작품 의
▁ 빡
체 육
▁감 옥
파 가
협 회
is h
였 다는
란 의
▁언 니
i o
▁정확 한
▁할 아버
▁어린 이
i b
▁강 하게
▁이어 지는
▁저 그
▁기술 이
색 으로
▁대 하여
▁창 조
! )
이었 고
▁16 강
▁싸 울
▁3 D
르 지
▁정 지
▁ 컷
▁청 소년
석 은
▁관 할
201 2년
▁경 향이
)
 이
식 에
▁메 카
▁스 티
N S
▁헤 어
주 요
작 은
크 ,
▁세 상을
▁똑 같
m an
▁마음 이
▁ 컵
7 5
▁죽 음을
▁경 비
▁극 복
하려 면
idth =
국 에
▁무 렵
▁마 리오
▁몰 랐
라 엘
▁사용 하지
로 마
▁보 물
▁루 트
▁독 자
▁재 판
▁근 데
it e
6 .
심 한
ic h
▁플 레
ar y
어 리
im e
트 릭
▁힘 으로
▁순 수
조차 도
된 다는
▁폭 주
설 을
량 으로
▁생각 보다
▁ 샷
▁부른 다.
▁사 거리
▁파이 널
▁맞 은
▁방 출
▁고 생
▁스트 리
a ve
▁여 객
▁대 사를
▁유 대
▁일 제
더 스
▁신 성
레이 터
▁힘들 다.
종 을
▁차 단
▁사라 진
▁거기 다
냈 다.

20 세기
주 차
▁외 계
▁전 면
▁방법 은
▁맞 게
점 ,
▁중 계
투 를
▁포 탑
▁검 찰
신 으로
▁주 기
▁옷 을
코 와
▁하 다
▁마 도
▁2 위
▁선 출
▁박 정
▁공 화
▁당 해
▁아나 운
익 을
▁요 괴
안 에
▁아니 라고
a w
▁이 길
월 드

 조
▁장면 을
▁S S
ac h
▁개 입
단 과
▁ j
▁수 십
화 와
▁4 00
▁예 선
화 한
▁A I
▁역사 상
▁쿠 키
▁어 드
▁전 시
▁위치 해
▁ 썩
▁아 들이
▁마 크
서 에
명 에
▁캐릭터 로
되었 는데,
( )는
경 의
▁교 회
▁참 석
▁독일 의
▁밝 히
▁ 닫
▁사랑 을
코 를
대 상
▁b y
재 로
인 지는
야 를
▁이상 으로
▁박 사
▁공 군
▁정 복
▁사람 들에게

 나
▁불가능 한
▁세 운
O M
▁부 문
R E
▁나 눠
러 시아
이 도
▁무 덤
▁팬 들의
환 을
▁동 시
ic e
▁내 세
▁헌 법
▁더 더욱
% 를
비 트
시키 기
▁세계 를
| |
▁역 을
▁승 부
▁식 물
망 을
▁차 라리
▁하 계
▁어디까지 나
▁정 령
포 가
▁장 수
▁사용 되는
▁무엇 보다
▁있었 기
▁은 행
▁감 사
3 5
▁흘 러
▁ 땐
산 의
》 ,
▁들어 갈
▁필 드
▁유사 한
▁건 국
▁마 리아
▁타 케
▁찾아 가
▁ 층
▁나 아
▁파 라
때 는
▁활 발
▁멀 쩡
( 金
▁s h
▁보 게
▁마 술
▁신 고
▁오늘 날
▁inline ;
▁ 앵
▁멈 추

 카
▁오 사카
이 기에
▁방 에
미 터
석 의
▁전 공
기 록
▁적 응
게 이
진 ,
보 병
▁직 원
▁김 정
▁사용 하고
▁전 성
구 와
o ok
▁you r
▁다 수의
▁일 찍
▁훌륭 한
▁서 양
학 적
하 가
▁구 체
▁ 깜
▁의 무
▁ 앱
▁전 원
▁관계 로
▁인터뷰 에서
▁개 시
▁이 끄는
s 

▁대미 지를
▁일 시
▁출 마
am e
▁초 창
▁스 카이
▁전 에는
U N
▁기 자
▁것 인지
▁가 고

 코
▁' 아
▁말 로
a h
▁관 심
http s
▁무 적
▁미 츠
트 맨
u g
▁마침 내
다 를
▁합 성
▁속 하는
던 가
20 20
▁최강 의
실 의
6 5
▁ 횡
▁라이 더
▁일으 킨
▁3 회
▁M P
▁각 본
▁울 트라
▁어 두
▁한 계
▁달 고
▁아름 다운
▁평 이
▁비 용
토 와
▁다 를
등 의
▁무 기로
▁분위 기를
▁유 치
▁가 속
▁ 젤
▁실 력이
경 에
▁별 다른
는데 도
▁12 0
▁나름 대로
3 )

막 을
면 에서
전 대
하였 으며
▁있 다가
▁스 미
군 ,
▁주 말
▁포 스트
▁다 리
▁갈 수록
▁장 교
▁현 지
▁웹 툰
▁ 꽂
▁과 정을
( K
으 러
▁피 를
방 향
▁갖 춘
▁소 총
▁마 구
▁선수 들이
https ://
▁이 민
▁199 2년
▁소 식을
▁독 특
▁싸 움을
▁크로 스
▁비 상
▁반 격
게 다가
M A
▁디 버
▁최 다
ac e
▁S T
▁ 첨
▁ 쾌
▁만나 게
▁3 대
론 은
▁내 리
a ,
▁죽 일
▁군 주
▁공격 하는
느 라
▁이 집
로 와

 우
성 능
▁ 뜯
▁히 데
▁위 주로
▁ 쏴
케 이
▁칭 찬
묘 한
▁한 참
▁스 웨덴
▁닥 터
▁사용 한다.

▁가능 성도
하자 ,
▁연 락
▁플 로
▁날 개
▁버 리고
집 을
▁아 파트
▁경 력
( 李
▁인간 이
▁C C
▁잡 혀
▁오 해
▁자리 에서
상 과
▁명령 을
▁없 음
▁분위 기가
▁뜻 은
an ce
▁농 구
▁퀄 리티
▁ 에서
▁한 타
▁무 효
▁물 을
▁자 는
▁모 바일
▁30 분
번 ,
▁199 3년
차 는
20 21년
▁아니 라는
▁자 식
헨 티
▁같 아
▁프 라
▁정부 는
약 한
▁요 즘
일 드
▁버 프를
미 네
받 을
▁앞 두고
군 (
당 할
보 기
그 라
▁신 문
비 로
▁치 는
즈 와
▁뿐 이다.
is s
▁ he
m ent
인 들
▁받았 다.

▁사 운드
바 람
호 와
.
 아
▁블 로그
정 ,
▁무 릎
p le
이트 를
가 족
- 7
▁개 혁
보 로
▁많 았다.
▁들 을
▁못 했다.

▁시 달
▁199 1년
팅 을
▁가 야
▁오 전
▁D LC
▁인 형
▁보 관
▁제 어
- 8
겠 지만,
구 치
▁중 의
법 은
오 리
▁3 7
장 갑
▁짓 을
명 과
▁결 코
▁물 고
본 부
▁상 업
6 4
▁기 재
▁선생 님
▁( 197
▁위 반
3 7
▁부 품
▁많 고
▁어떠 한
▁ 는
팀 의
▁보 이며
번 의
▁접 속
도 에서
▁사 토
▁경 기에
근 데
바 의
드래 곤
군 으로
▁ 까지

 인
각주 

외부
▁ 며
▁ 뭉
▁집 에서
▁ 끈
▁가 문의
▁예 고
▁둘 째
▁2 px
▁보유 하고
▁ 험
▁그 들을
▁흥 행
▁원 칙
% 의
다 란
▁th at
하 라는
▁나 가는
페 이
정 상
인 .
▁인구 는
▁ 넷
.com /
▁사건 의
니 는
▁자동 으로
▁ 멍
▁막 장
비 와
▁부 임
▁구 사
▁아쉬 운
▁할 머니
. "

화 

훈 련
▁비 례
▁죄 다
▁챙 겨
▁P D
사 단
▁이 리
▁ 촌
▁우 연히
▁올라 온
계 열
▁이 정
n ow
▁새 벽
▁어 마
▁꿈 을
▁채 택
▁보 지
▁시즌 을
공 사
파 로
▁필 리
▁다이 아
O T
▁교 장
다 나
~ 4
▁헤 이
▁수 련
▁브 루
▁어려 워
▁입 을
주 민
▁커 맨
▁올 리는
가 고
▁대 만

 자
조 직
초 반
▁형 사
챌 린
영 웅
▁기 울
▁리메이 크
▁뒤 에서
약 이
기 나
▁의미 로
▁폴 란드
▁일본 에서
도 (
전 문
▁아 바
▁발생 한
▁ 컸
▁나쁘 지
▁맞 서
▁다 들
▁하 야
1 )

▁B GM
ik e
스 피
▁지금 도
▁확인 할
em "

국 은
▁일본 어
▁그 들이
▁따르면 ,
▁명 을
▁일 방
▁노 르
▁C om
▁갈 라
E S
▁봐 야
으로서 의
▁마 시
▁이 지
▁채 워
▁끝 났
i ver
▁이 거
201 1년
▁인 하여
en s
▁부 수
▁적 혀
▁바뀌 었다.
▁강 남
▁플랫 폼
( 4
너 의
러 의
▁와 이
▁감안 하면
▁아 가
▁캐 스팅
▁하 거나
▁연 관
▁유저 가
o o
N A
츠 가
▁아 리
▁후 계
▁타이 거
▁어지 간
▁믿 고
▁목소 리
▁잃 고
▁규 모
6 )

▁이상 을
▁대 충
▁9 9
역 대
물 은
일 단
했 다면
▁되 며
▁아버 지의
욕 을
▁사람 들도
▁어 른
▁김 태
▁전 멸
▁ 찔
▁좌 우
▁골 든
포 로
▁하 니
▁있어 도
▁은근 히
▁터 뜨
px "

스트 의
▁있었 을
력 ,
되어 서
▁심 하게
% 

▁2 의
▁불 을
코 ,
공 학
▁다음 날
▁모 조리
O C
▁학 원
- 9
▁캠 페
▁시절 의
▁행 위
▁이루어 져
▁찍 어
▁남 겨
▁프랑 스의
▁중 이다.
▁기록 한
▁프로듀 서
▁점 수
▁201 0
되었 다는
▁명 확
▁뜻 을
▁201 3
건 을
▁태 그
▁드 는
▁ 캘
오 고
▁지 나가
되었 으나
▁된 다고
▁머 물
▁ 곽
방 에서
고속 도로
▁비 싸
▁절 대로
▁프 라이
▁어 릴
▁잡 은
▁C l
색 의
대 신
▁연 사
▁전 함
▁세계 관
▁마 인
▁노 부
▁한국 에서
▁약간 의
안 의
▁내 지
라이 브
▁자리 잡
▁하 락
원 작
▁해 병
9 .
▁장 악
▁자 극
▁임 무를
▁A l
였 기
▁드러 난
탄 이
▁환 승
▁이 즈
엔 딩
▁태어났 다.
▁게임 에서
▁2 번째
페 르
▁버 린
th er
주 (
졌 다고
▁미국 에서
재 인
▁휘 두
▁아닌 가
! "

증 이
▁과거 의
▁남 부
▁보여주 었다.
U S
▁내 보
▁목소 리가
전 설
▁미 스
대 

▁거 듭
수 상
▁ 율
▁ 훗날
왔 다.

▁언급 한
▁설립 된
▁작품 을
▁좋 게
루 는
선 ,
티 드
10 월
4 )

▁이 치
것 으로
8 )

▁개 막
▁레벨 이
▁정신 을
에 이
▁정부 의
7 )

▁시 대의
▁둘 은
한 이
7 .
에 다
▁바 깥
▁사 양
▁플레이 오프

 W
▁네 트워
▁가 짜
▁메 타
▁3 인
키 와
▁화 를
니 를
▁방법 으로
▁안 티
▁기록 하며
하 겠다고
》 는
▁반 면,
챕 터
▁용 의
▁3 9
▁무 방
▁뮤 지컬
▁적절 한
봐 야
▁전 해
▁위치 에
로서 는
▁메 뉴
판 에서
▁ 헛
http ://
거 야
▁열 쇠
커 가
아 아
▁전 부터
▁오 직
방 으로
▁거 리를
( J
▁블 러
▁제작 된
▁ 윙
" 이라고
관 

▁학생 들이
O W
줘 서
▁L v
▁회 원
▁헌 터
우 와
▁들 려
▁충 격을
▁ at
▁집 을
▁향 상
질 의
▁있었 지만,
▁대 사가
▁별 개로
▁ 뭘
우 ,
▁네덜 란드
렬 한
링 이
▁정 체를
▁로 스
▁한 자
▁ km
▁챔피언 스
▁김 종
▁테 스트
▁감독 은
▁물 러
▁간 혹
▁융 합
▁눌 러
▁서 부
e f
검 을
▁재 현
급 으로
▁놀 라
희 가
마 와
▁브 리
▁전형 적인
▁기본 적인
▁추 구
▁계 기로
연 속
졌 을
▁민주 당
▁ le
즈 ,
▁세계 에서
▁작중 에서
▁강 요
▁출 입
▁않 도록
▁랭 킹
하기 가
률 을
▁ 넉
생 의
re d
▁어둠 의
! !

▁주 먹
▁공식 적으로
헝 가
▁시스템 을
▁소 형
▁곳 은
▁스 승
▁합 병
★ ★
조 사
▁일 상
▁트 럼
리 케
종 은
냄 새
▁대 개
보 이
▁보여주 며
▁개 정
렸 던
▁원 본
▁멕 시코
▁빠져 나
리 고,
석 에
▁2 부
신 과
코 

▁분위 기
▁알렉 산
▁ 켜
▁있었 다는
아 와
▁병 력을
▁체 결
작 품
▁회 수
▁마 왕
▁공 공
5 )

▁눈 물을
▁스마트 폰
▁홈런 을
▁처 형
▁ 켈
▁도 발
) ·
▁경우 에
▁3 루
▁밝혀 진
- 10
▁혁 명
▁시 즈
포 의
en ce
▁등장 하지
▁발 언을
p t
▁2 층
문 은
▁ 줬
하 마
▁형 식
▁남 북
조 로
▁몽 골
쪽 은
▁개 방
9 )

▁간 부
▁4 ,
관 광
V D
큐 어
▁무 관
심 지어
프 와
오 와
▁이 탈
▁방 사
▁ 킥
▁전 의
' 은
▁카 를
▁ 쉴
아 파트
}} }}
번 이
▁사망 한
션 을
▁ ?
인 들을
w .
삼 국
▁ 톰
▁전체 를
a z
버렸 다.

갔 다.

셔 널
애니 메이션
▁후 손
▁완벽 한
▁선 고
▁가격 이
스 도
회 ,
~ 200
▁좋 을
선 과
▁빛 을
▁욕 을
벌 레
▁한 명
마 크
▁것 일
▁얼굴 이
▁유 전
▁느 낀
질 로
" 는
▁아이 콘
▁깔 끔
유 닛
▁전 후
▁매 년
▁당 하는
주 와
▁적 합
▁싸 운
▁신 이
▁쓰레 기
1 

▁되 며,
( W
▁M VP
▁간 신
▁201 2
▁아이 를
▁A T
▁손 으로
▁미 디어
▁제2 차
▁비판 을
츠 를
▁쿠 로
타 운
정 과
▁18 8
개 요
▁나 이가
201 0년
바 닥
▁이 영
▁기 용
▁대미 지
에 겐
▁지 식
) /
진 으로
율 은
) 이라는
메 리
▁몰 라도
▁기 병
▁신 분
▁않 으며
가 시
▁V S
자 료
▁있는 지
▁한정 으로
▁피아 노
▁넣 는
명 )

m 2
▁잡 지
▁코미 디
▁이용 해서
비 드
하 를
▁지 형
▁없 으며,
▁ 왠
' 와
▁영 업
▁ 돋
씨 는
영 어
▁' 그
회 말
▁한 다면
▁이 은
▁동 부
2 차
▁넣 고
▁7 5
▁클 레
▁A n
% 로
노 스
8 ,
▁ 넌
각 이
▁나오 기
▁ 튜
랑 이
▁부 서
▁몰 락
▁유 령
▁귀 찮
▁단 점이
▁환 영
▁O ST
한다.
 이
▁않았 을
로 워
▁비 싼
▁물 려
▁1 .5
▁이외 의
실 은
▁국제 공항
▁5 5
▁없 다
▁포르 투갈
▁코 믹
▁ 찢
▁색 깔
▁금 속
in t
▁그 건
가 장
▁ 웅
었 지만,
▁캐릭터 는
▁병 력
▁3 학년
직 한
미 

▁하 얀
▁판 결
▁영 상이
그 런데
▁됐 다.
▁나 아가
W E
▁앉 아
출 처
▁5 개
▁있 음을
▁시 너
▁뜻 하는
▁ 룬
▁1 /
▁1 학년
▁보 라
▁상 상
▁보 존
▁증 언
▁무시 하고
▁미 나
▁인물 이
▁때 에

 지
싱 턴
▁확 대
계 획
▁특 집
리티 컬
E M
되 게
하 더라도
▁통 상
스 :
어 마
▁우 리는
▁급 격
▁대 원
주 기
▁국 왕
여 담
▁하나 도
자동 차
▁통 산
조 합
▁즉 위
8 .

 최
▁ 쏠
▁ 렉
에서 ,
임 은
역 은
▁작 가가
먹 고
▁탈 퇴
란 이
망 이
종 합
ic al
▁198 9년
▁과거 에
졌 고
동 은
▁제 정
▁경 고
름 이
▁관 측
▁198 7년
▁ 뱅
▁그것 은
p e
택 을
국 내
▁발 행
바 르
▁매니 저
▁돈 이
러 브
▁스 톰
▁최 우
▁제임 스
▁ 씹
▁모 르고
▁갤럭 시
부 장
2 월
▁동 의
▁외 의
이 면서
▁사용 이
▁달리 ,
▁군 단
그 는
▁목표 로
진 과
▁장 르
▁찾 기
▁다 카
▁기록 이
▁박 근혜
소 ,
비 ,
▁페 널티
▁어 쨌든
▁인 증
▁- 1
있 어
▁무 작
▁게임 에
a x
▁자체 의
▁ 챌린
▁I S
▁알 바
▁신 앙
이 든
▁스프 링
▁날 아가
▁했 으나,
▁동 굴
▁시작 으로
민 족
레인 저

 내
▁P l
▁베 네
즈 마
▁부 상으로
사 이드
무 장
▁선 전
( 아
▁이제 는
▁지 능

 성
▁스 태
커 의
▁다 닌
▁3 위
▁18 0
▁잉글 랜드
들 만
정 책
▁이 긴
▁코 어
▁화 가
▁카 타
▁이 겨
필 드
▁준 다.

▁조건 을
▁고 문
▁2 대
▁U S
ab le
치 면
▁오스트 리아
▁점 수를
▁만 날
▁가면 라이더
패 로
▁고 작
되 는데,
▁포함 되어
▁부 인
▁소 닉
스 포츠
다 리
았 다는
▁ 前
▁수 업
▁S C
▁저 작
▁느 낄
▁떨어 뜨
21 세기
적 ,
▁당시 에
) 이라고
▁트 윈
▁구 원
▁의견 을
▁아 메리카
▁단 편
신 교
▁의미 를
생 애
▁리 가
양 을
▁이 혼
테 르
▁2 학년
▁고 위
▁제작 한
ol l
제 와
▁ 딴
▁근 본
▁198 8년
4 7
▁가 을
▁폭 격
▁싸 워
▁알 리
▁식 의
▁바 꾼
▁도 서관
백 을

 도
았 고,
▁유 효
▁스피 드

 정
라 크
▁오래 된
▁직 전에
▁만들 기
▁바 보
나 이트
▁ 튕
▁김 민
▁살 펴
시 타
커 를
▁통 치
▁집 행
▁없 으며
퍼 스
▁않았 고,
▁시절 에
▁기 분
스테 이지
▁부 딪
랜 스
▁머 리가
▁메 리
네 시아
됐 다.

▁들 여
( 199
▁유니 폼
▁ 숭
하 하

| -
|
두 는
▁클래 식
▁ 뻗
▁관 찰
▁저 렴
s .
크라 이나
▁ 썬
▁핸 드
( I
내 지
전 기
나 서
▁찍 은
▁보 냈
2 의

 보
러 한
번 을
▁시간 에
▁댄 스
▁먹 어
▁수 출
▁수록 곡
/ 0
▁왕 의
▁전쟁 이
- 19
▁자세 히
▁그러 한
▁몬스터 를
▁국 회
▁클래 스
▁승 객
중 에는
▁해 주는
차 례
렀 다.
▁이미 지가
들 인
인 이다.
▁후 배
▁이상 이
▁시작 된
시 스템
▁죽 고
▁이용 하는
▁지 시
들과 의
▁그 라
▁아 일랜드
▁M e
통 이
▁전 진
re am

 모
국 에서
만 화
▁밝 힌
▁잠 재
▁맞 으면
창 을
디 의
였 을
▁느 린
" 를
▁세 종
▁주인공 의
00 년
▁제 출
▁ 램
있 게
자 유
▁후속 작
▁가 라
▁되 기도
▁재 정
▁한 마디
er ,
속 도가
▁말 하며
▁책 을
▁정 찰
▁ 휩
▁찾 을
t e
▁않았 지만
▁미 카
▁A K
▁새 끼
▁폐 쇄
린 을
▁휴 대
E T
▁거기 서
▁또 다시
▁이전 에는
공 이
▁말 아
▁가볍 게
박 을
러 니
▁다음 에
야 ,
▁용 도로
▁열 어
▁보너 스
현 ,
▁ 흠
란 드의
생 이
▁방송 에서
▁간신 히
맨 의
▁적 당히
ow n
▁뜬 금
▁사 전
되 던
▁존재 를
▁오 지
니 다
▁실 망
▁정 차
인민 공화국
▁곳 을
오 로
▁해 상
▁콘 텐츠
▁키 리
▁위 장
이었 기
9 ,
요 시
마 에
미 나
▁빨 라
▁6 4
▁있 습니다.

▁ 섀
▁이외 에도
▁곳 곳
▁커 리어
▁가 스
▁감 정을
▁패 션
▁유닛 을
돌 이
▁이 식
▁것 ,
▁현재 까지
▁떠 오
▁c h
▁미 안
▁아니 고,
▁ 썰
▁저 주
으로 만
▁ 깡
▁세 르
▁화 학
▁출연 한
간 이
▁200 0년대
▁아 프
▁선 두
▁서 식
특 수
▁입 장을
▁방어 력
네 의
▁가 치가
▁A C
▁것으로 ,
다만 ,
▁글로 벌
▁간 접
' (
용 의
키 퍼
▁신경 쓰
▁않 으며,
구 리
▁판 정이
▁이번 에는
▁정부 가
▁사 마
▁ 01
거 를
▁부 각
▁디 아
었 으며
▁생 략
▁집 으로
조 (
▁육 성
▁아카 데미
▁대회 에서
▁강 철
오 버
발 이
여기 서
▁있 다

▁김 동
▁아 랍
▁불 교
레 드
▁멜 로
▁업그 레이
동 물
들 보다
▁후 술
▁저 질
u nd
프 ,
▁구성 된
.1 2
▁맡 았다.
▁군 대
▁ 났
h y
들 이다.
대 원
공 화
▁ an
O D
▁과 연
고 에
천 시
▁죽 이고
▁영 구
▁제 도
▁피 격
▁노 리
▁듣 는
▁소 방
▁실 버
▁수 수
▁합 체
▁손 가락
▁진 보
▁은 하
법 에
▁취급 을
로 써
▁코 치
▁무 척
▁도 주
과 정
▁작품 이
▁M A
린 은
했다.
 이
▁챔피언 십
▁잡 기
: 3
까 진
구 에서
범 죄
▁ .
▁ 으
야 만
▁왕 이
▁움직 이는
▁후 에도
▁어마 어마
▁사회 적
▁20 %
▁안드로 이드
▁간 주
하자 마자
마 지막
조 에
중 간
면 이

201 9년
▁모 래

 에
▁퀘스트 를
▁발생 하는
▁부분 에
파 워
되었 지만
▁게임 은
▁독립 운동
지 나
▁습 득
▁미 스터
러 는
키 아
▁지역 은
▁패턴 이
박 스
▁스 톤
· ·
▁걸 고
건 설
버린 다.

▁천 재
▁결과 적으로
▁된 다.


주 교
KBS )
▁자 폭
▁않는 다고
스토 리
상 황
▁없 지만,
▁효 율이
▁일 원
학 의
▁수준 이
양 의
▁숨 어
▁팬 들
탄 의
▁제 갈
세 스
▁대표 팀
▁ 첼
▁문 자
민주 주의
였 는데
▁스 틸
▁잘못 된
▁망 가
▁특 성을
▁최 신
사 기
Y ou
독 일
▁에너 지를
된 다고
▁멤버 들이
▁이 란
▁있 습니다.
▁일 치
▁데 에
a e
속 에
▁당 신
통 합
▁받 으며
▁타 락
계 는
▁토 론
▁합 의
▁완벽 하게
し て
▁카 트
▁T e
▁죽 이는
▁않았 고
▁시 그
▁결과 는
가 며
타 수
」 

씨 의
▁사람 에게
▁의 문
▁공격 할
▁중 독
노 동
▁받아들 여
▁독특 한
▁음악 을
▁면 에서
▁요 코
▁이스 라엘
▁금 융
ex t
왔 던
▁강 의
▁자연 스럽게
▁볼 넷
▁끊 어
만 약
니 코
▁작 가의
▁아 파
▁방 지
▁종 목
▁하나 씩
▁개 설
▁양 성
▁현 역
▁소 위
기에 ,
▁추 억
필 더
▁키 워
너 는
▁주 둔
▁있었 으나,
▁구 하기
▁편 이라
카 ,
사 도

 F
▁했 다.


▁효과 로
▁유명 하다.
▁답 변
다 (...)

▁휘 말
▁카 라
ou s
▁S M
▁야 스
or k
' m
▁사 후
▁덧 붙
▁들 면
4 6
▁ 팽
▁추가 되었다.
가 ?
▁범 위가
▁넣 은
슬 링
▁마 드리
▁미 군
▁골 을
▁ 삐
▁해 안
▁이 글
타 마
▁이 어서
전 한
▁공 룡
법 원
▁카메 라
여 객
▁되어 있
▁ *
님 을
▁부 를
▁고 구려
전 (
▁차 원
▁G T
동 과
▁모 를
▁검 을
▁죽음 의
해 질
▁ up
▁호 흡
▁양 쪽
▁여 신
▁플레이어 의
: 2
▁성공 한
결 승
은 ,
오 지
▁주 제에
▁자 격
▁쉽 지
습 을
제 ,
▁나 간
▁대통령 이
▁싫어 하는
단 지
▁그러 자
기 능
▁이미 지를
림 이
바 나
▁유 력
발 로
▁보여준 다.

면 의
▁별 명
시 나
니아 의
온 의
▁1 층
▁다음 으로
였 으며,
▁영 토
▁편 곡
능 력을
▁리 듬
희 의
▁남 녀
t o
▁늦 게
▁늘 어난
받 지
공 업

 P
▁기 원전
- 6
▁사 우
리 에게
▁영향 으로
▁북 부
▁누 적
▁나오 면
▁새 롭게
▁보면 ,
t le
정 (
▁" 아
▁얻 게
▁M y
진 에
체 인
8 9
▁포 위
▁나 면
▁제 6
▁털 어
▁M S
온 이
지 기도
▁1 만
▁관련 이
▁캐릭터 .
▁이유 를
▁언급 이
▁생 기는
듬 해
▁이 라는
▁차 트
▁저 런
▁금 방
▁스 턴
▁침 입
▁유저 들은
▁상관 없이
▁국민 의
히 지
▁사건 으로

 G
블 로
소 속
행 이
하나 ,

 수
편 에
▁상황 .

201 8년
▁존재 가
▁가 만
▁숨 겨진
▁틀 어
▁ 엿
▁순 서
다" 는
▁힘들 어
▁목 을
▁확실 한
▁후반 에
▁다 스
▁밸런 스
거 리를
노 래
▁원 인이
▁곤 란
▁쓰 인
▁애 플
타 나
▁둘 의
▁운영 하는
▁사용 하기
▁커 다란
▁연속 으로
튜 버
▁후보 로
받 았다.
▁속 도를
▁아 크
기 동
▁두려 워
▁김 대
학 ,
과 에
▁차 를
▁수 류
▁한다.
 이
as h
▁일으 켜
▁쓴 다.
▁경상 북도
▁비 해서
열 을
▁추정 된다.
% 가
▁화 력
사 한
▁물론 ,
▁피해 가
▁ 윗
▁T HE
▁잇 는
▁곡 이
▁캐 논
▁삶 을
▁ 킨
▁2 기
A P
▁작 업을
미 노
▁가 지는
시 하는
▁명칭 은
▁묘 사가
웠 던
2 )
▁시작 하는
▁A R
▁이 펙
감 한
대 구
▁일어나 는
단 에서
▁종류 의
▁자 본
▁총 알
▁배우 는
병 원
요 ,
급 이
19 0
▁친구 가
▁데 다가
번 호
▁나 나
차 량
▁메 르
▁미드 필더
▁설 정을
▁되었 을
시 청
앨 범
/ h
y ,
▁아르 헨티
▁토 벌
인 한
경 은
▁업 로드
▁자 전
▁나 선
아 르
되 는데
▁빛 의
▁출시 된
▁침 략
▁결과 가
G A
초 의
▁수 를
▁스 포
▁드 리
타 ,
▁득 표
편 이
▁격 추
어진 다.
▁우 수한
▁김 재
▁로 그
▁4 4
디 를
였 는데,
▁원 딜
우 기
▁기 뻐
L E
레 오
▁슈 팅
▁1 명
▁난 입
▁터 키
▁입 장에서
야 는
▁ 닭
았 지만
▁수 술
▁먹 은
▁알 아서
▁수도 권
▁부 러
▁재 개
든 가
▁집 착
▁크 기
사 .
▁k t
잉 글
▁하 차
영 은
▁회 장
▁국가 의
달 아
맨 이
3 6
산 으로
▁생겼 다.
▁화려 한
▁ 흩
포 인트
▁의 지
▁나타 나는

 H
▁주변 의
▁점 도
▁기 믹
▁남 쪽
경기 에서
▁이 렇
재 판
▁나오 는데
▁언 덕
▁돌아 와
▁가 려
▁크 리티컬
▁정 수
▁L ove
▁모 모
▁레이 더
▁하나 .
▁간 다.
▁금 메달
0년대 에
▁시절 부터
기 기
▁처 럼
▁U EFA
▁선수 로
▁오 류
200 8년
▁진짜 로
하 루
▁대부분 은
▁유 발
▁상 술
▁성능 은
▁시스템 이
▁따 온
▁루 시
▁전문 가
▁동 방
▁리 뷰
▁라 운드
▁ 왈
▁등장 했다.
V A
▁대표 적으로
족 이

 한국
▁개 량
네 이
었 다
▁하나 ,
▁장 비를
주 일
▁인 스타
200 9년
▁모양 .
▁조 별
▁무 기가
8 5
▁진 압
▁평 을
re ss
▁유 형
▁파 리
▁이끌 어
▁최소 한
▁내 고
▁ 냄새
▁가 벼
▁차 가
▁1 군
▁ 톱
슨 의
) 도
▁철도 역
더 러
on 't
▁ 꿀
▁없 다면
▁느낌 을
슨 이
레 가
o x
▁주장 하는
모 드
▁귀 환
언 이
▁걸 맞
19 1
침 을
국 으로
( 5
▁물건 을
▁시절 에는
양 함
위 권
▁블 라
리그 의
듯 한
▁한번 에
해 지고
프 라
계 약
▁늑 대
버 스터
▁제 7
▁환 상
▁카 드의
00 만
▁요 소가
▁2 인
▁조 약
▁초반 에는
▁말 하고
아 래
▁만든 다.
▁장면 은
▁ 펑
▁뛰어 넘
▁게 이트
▁호 위
▁엔 터테인
연 한
▁간 단
ir l
자 나
▁피 할
▁198 6년
▁동 성
▁거짓 말
▁ 옳
▁ 쭉

 다
▁유 희
▁4 7
▁이 명
▁잔 뜩
▁별 도의
▁전투 에
복 지
▁정 식으로
▁가지 게
▁ 뿔
▁헤 비
▁ 냈
S P
가 서
추 어
▁준 수한
▁유 독
▁트 럭
치 면서
▁돌아 다니
브 를
▁보 완
ct ion
in k
커 스
▁시 에
하 진
▁질 문
비 행
▁수 백
무 가
▁비 트
' 

ww w.
▁빼 고
▁나 폴
▁국 도
너 가
▁중 립
▁일으 켰
▁높 게
▁고 교
》 에
로 만
▁현 상이
▁아마 도
▁세 이버
리포 니아
▁돌 입
▁커 녕
▁북 쪽
▁왕 자
▁실 종
소 프트
급 을
▁올 렸
▁아이 스
▁이 슈
발 의
▁토 너
▁니 시
▁한 쪽
▁필요 하다.
▁출 처
▁포 항
▁D J
▁드 라
▁이 수
▁올 스타
▁초 중
▁방 식을
▁배 포
▁가끔 씩
▁아 쿠
▁사 살
▁속 으로
장 애
이었 다는
링 크
▁비교 하면
복 이
▁기 숙
달 라는
라 라
▁전 신
로 

▁좁 은
▁보 다는
▁안 나
▁들어가 면
▁도 끼
▁업데이트 로
▁캡 틴
▁초 보
이었 으나,
▁사 막
▁타 는
영 을
바 가
▁사 유
.
그 리고
▁가 치
▁중 이다.

▁플레이 어를
점 의
▁지 불
▁오 마
▁발 라
ea h
▁네 이
▁끔 찍
▁마이 크로
▁E x
차 에
▁경상 남도
▁당연 한
법 인
▁눈 물
▁팀 에
▁ 쿼
▁죽 지
▁블 레이
▁이것 도
▁의 상
▁( A
올 림픽
19 2
트 랙
▁일 종
이 한
▁어 딘
▁연 료
.1 1
▁멘 탈
▁동 작
▁K IA
▁네 임
좋 은
해 보면
▁사례 가
이자 ,
▁ 헐
디 는
건 이
중 에서
▁리 얼
▁정 황
슬 라
▁확실 하게
▁김 현
▁히 카
시 에는
률 은
버 전
▁요구 하는
위 키
▁3 번째
" 의
▁의견 도
▁경험 이
8 6
▁점 이다.
▁신 기
다" 라고
▁대미 지가
번 은
검 은
졌 다는
3 9
▁동 계
▁갤러 리
▁다 리를
▁상처 를
▁1 루
▁토 끼
▁드라이 버
▁부분 에서
▁드 림
▁철 저
현 은
▁일 명
▁부 근
▁니 콜
범 위
▁내 장
▁끝 날
▁모르 겠
L L
▁강 등
▁아니 었다.
▁트 라이
▁전투 가
▁쿨 타임
▁되 지만
호 

▁건 조
▁뮤직 비디오
~ 5
민 은
▁아 저
▁치 유
▁막 는
▁고 수
▁5 ,
▁속 도로
▁면 이
피 가
▁떨어 지
▁대 대
▁곡 은
▁칼 을
오 늘
고 한
고 도
▁측 정
▁저지 른
▁당 하고
( )
▁투 어
▁아래 에
▁루 이
▁실 수로
▁오 카
▁S c
▁육 상
▁대 거
▁박 물
▁창 설
반 도
▁영화 를
▁스타 크래프트
▁ 턱
령 의
ow er
▁유 나이
- 20
▁아 끼
▁어째 서
▁자 녀
▁마 케
곡 이
▁오 디션
▁유저 들의
▁시작 했다.

▁시 위
▁지나 지
▁갑 작
▁하 트
와 도
에서 부터
▁동 쪽
▁주 식
석 ,
차 별
더 의
▁공격 으로
▁콘서 트
▁슬 롯
의 의
▁물 질
▁나 은
크 리스
▁않 지만,
▁대 단한
▁신 라
그 의
▁발 을
일 리
M S
▁시 대에
▁상 급
나 가는
운 이
▁구 글
▁이 듬해
▁아니라 면
▁3 연
▁H D
▁ 똥
디 지
▁콜라 보
제 (
▁일 로
)

 외부
▁태 도를
배 틀
▁애매 한
▁( 196
▁기 사가
" 을
▁죽 기
▁ 슛
▁불 펜
▁칼 날
▁골 키퍼
적 이다.

▁중 ,
▁전체 가
사 나
▁맡 아
해 준
▁생각해 보면
▁보 내는
▁지 은
우 지
▁개 업
ent er
판 으로
r u
▁공 성
블 랙
▁셈 .
ul t
▁포 스
▁적 어
ver y
▁아 테
▁화 물
▁타 겟

 N
▁얻 기
▁배 출
▁취 득
▁아니 었
▁ 벼
상 (
.2 5
테 일
부 

▁왕 국의
▁이용 할
▁않았 다고
▁가르 쳐
▁같 다고
▁제외하고 는
か ら
19 년
▁샌 드
▁불 이
속 이
▁브 로
▁분명 히
▁1 :1
▁미 치
머 가
▁그 랜드
▁군 대를
살 을
례 를
▁완 공
왕 을
하 길
▁재 밌
▁유 통
▁무 기는
환 의
▁빌 려
▁두 들
▁알 겠지만
▁일 일
) 에게
주 며
▁일행 이
▁세 이브
▁원 인
▁ 쉐
클 래
공 간
▁마 스크
▁철도 역

나 고
h at
▁없 는데
▁장 치
으니 까
절 한
▁아 틀
▁인 종
▁노 려
▁공격 은
▁언 더
▁쪽 은
▁선 제
소 수
▁항 복
▁198 5년
아 니
▁거 울
▁책 임을
인데 도
▁활성 화
▁확진 자가
즈 니
▁위 기를
▁맛 이
▁SK T
▁c an
▁강 원도
▁생 일
구 

어 요
▁누 르면
▁하나 만
개 ,
시 스트
.0 7
▁진 심으로
▁1 기
▁아 즈
▁교 사
▁수 익
▁인 민
▁이 종
▁다 녔
▁넘 어서
▁매 치
▁유닛 이
▁많 지
▁사랑 하는
▁얘 기를
소 와
했 었다.
▁신 화
I G
▁무서 운
▁입 수
▁문서 를
열 이
▁ 싹
▁코 난
▁철 거
▁대 리
냐 ?
▁머 리에
▁한국 인
긴 다.
▁2 0년
그 래도
았 고
과 대학
키 스탄
준 이
코 어
▁속 의
▁지 칭
▁ 칩
니 시
▁늘 어났
▁w e
장 .
▁술 을
▁추 종
▁지 뢰
▁ 퀴
▁전 까지는
▁노 벨
▁반 박
▁장 점이
▁무사 히
▁생각 할
집 이
▁오랜 만에
▁말 라고
리스 가
▁타 격을
식 (
너 를
▁쓰 여
▁삽 입
3 월
▁전 동
프랑 스
▁녹 색
▁시즌 에
레 의
▁능력 치
토 니
▁라이 온
▁기 회가
▁캐 리
매 를
▁ al
▁세 포
▁레 알
▁병 원
" 고
스 레
저 럭
▁깨 달
▁형 식으로
돼 서
에 르
너 스
▁건 드
▁마 그
4 4
▁바 퀴
▁숙 련
▁전 세계
일 부
는 지는
▁198 0년
▁보 이지만
▁의 해서
▁바닥 에
하 늘
더 가
체 와
강 의
w idth=
몬 드
▁ )

▁제 자
미 사
관 과
▁뒤집 어
지 능
졌 던
▁사망 

▁일부 를
워 치
▁처음 에
했 기에
▁정 통
▁매 력
럭 저럭
라 면서
▁흡 혈
▁개발 한
▁예 로
건 의
っ た
▁희 귀
▁갖추 고
공 개
▁멋 진
▁폭 력
▁차 기
▁막 내
▁어머니 가
▁것이 다.


비 한
자 :
T S
플 래
▁호 칭
▁모습 도
▁H e
술 사
음 에
▁브 레
병 의
▁대 성
▁서 쪽
▁배 정
▁완 결
▁의 하여
▁2 ~3
▁임 대
즈 

▁동 기
▁발 굴
▁사건 에
란 을
▁R e
▁단 축
▁유리 한
▁자 막
▁실 수
▁적 지
설 이
인 천
▁질 문에
▁언급 된
▁하나 이다.

201 7년
노 는
▁법 정
▁측 에서
산 에
▁플레이어 는
▁완전 한
▁양 의
영 ,
▁시간 은
" 이라는
학 원
마 도
▁상태 를
▁초기 에는
▁위 대한
▁구 할
▁전 주
▁총 기
▁소속 의
서 야
▁원 자
▁언 젠
역 과
▁끝 으로
▁작품 은
카 운
데 다가
▁컬 러
이었 는데
▁G r
상 대
▁세 대
w ay
▁평 타
▁ 뿜
그 가
▁와 중
▁허 락
▁4 3
▁버그 가
ff ff
하 다면
▁음 식을
▁같 지만
라 !
이 동
▁숨 겨
▁198 4년
사 고
▁동 아
▁나오 는데,
▁연 맹
▁있었 으며,
▁분 쟁
▁너 프
▁트 레이드
▁인 구가
련 의
▁전반 적으로
뉴 스
▁가 시
▁그 레
▁프 란
▁추정 된다.

투 스
▁플레이 가
▁ 힙
▁카 드는
됩 니다.

▁가 사
▁ 힌
리 다
▁파 생
▁이벤 트가
▁채 팅
광 역
c olor
기 획
▁닮 은
▁4 대
▁아 트
▁기 상
이었 는데,
▁경우 엔
▁노선 이
나 간
다' 고
▁높 고
렸 다고
▁만 남
▁얻 고
목 이
르 며
▁1 부
' 과
▁ 꼼
되 지만
▁엘 프
츠 는
▁무 산
과 

▁- 2
▁이벤 트를
▁주 사
▁K BO
저 가
8 7
▁K 리그
▁올 릴
▁주 간
▁성 격을
명 (
▁불가능 하다.
a i
최 근
베 이터
▁3 세
I P
▁진 실을
▁넣 을
▁4 번
▁포 트
▁물론 이고
▁기 점으로
▁답 이
싸 움
▁그 럭저럭
▁최 하
▁모양 의
▁조 롱
▁사라 져
늦 게
▁비 주
▁셈 .

▁유 튜버
▁윈 도우
미 로
▁무 지
▁돌아 왔
▁목소 리를
▁게임 

▁있 듯이
되 거나
▁기 회
▁바뀌 었다.

▁갈 등
▁군 인
▁천 황
위 해
터 미널
반 의
▁공연 을
▁티 켓
▁말 하자면
▁선수 를
▁집 합
▁형태 를
▁했 으며,
▁초 록
▁중 .
씨 를
▁떠 났
▁일 에
혔 다.
있 고
▁배우 ,
▁불 만을
▁쉽 다.
▁복잡 한
투 표
리 버
▁빌 드
▁어두 운
중 의
▁전체 적인
▁약 점
타 자
▁태 평양
▁성 을
▁동 남
길 을
▁체 크
▁처 참
▁후 퇴
▁라 틴
운 을
▁영 광
▁모 니
▁서포 터
▁ 첩
▁과 도
▁압도 적으로
▁L C
▁밑 에
▁4 9
머 스
▁기관 총
O U
▁지 냈
▁사 고를
▁프리 큐어
▁ 굿
▁마 약
▁여 론
▁공격 력을
▁팬 들에게
▁교 전
째 로
0 e
▁주인공 은
M C
▁인간 을
▁버튼 을
로 에
걸 로
공 원
▁신 호
▁연 금
▁인물 .
▁기록 했다.

▁가 동
관 에서
나 

파 는
▁아버 지는
▁심지어 는
▁아나운 서
▁주 장을
▁걸 리는
▁세 상
▁마 다
▁4 6
▁등장인물 .
▁4 2
▁장면 에서
▁악 역
▁현 장
▁참여 한
운 의
▁불 린다.
▁클 랜
▁크 기가
▁사냥 꾼
▁상대 에게
▁201 1
uc k
▁호평 을
▁S NS
카 르

201 6년
쉽 게
ation al
안 전
▁FC 의
▁관 여
▁허 나
▁탄 약
▁사이 드
추 가
득 점
슨 은
▁인 원
▁밝혀 졌다.
리 즘
▁역 사를
ad e
의 회
▁매 직
▁타 자
▁스페 이스
▁풀 려
겠 다며
함 은
▁조용 히
S t
포 트
▁웹 사이트
센 트
▁나 갔
▁ 씌
▁ 00
대 사
▁날 카
▁사태 가
▁빅 토
▁구 별
병 으로
▁향 한
▁여 유
▁1 .
▁1 01
▁다 녀
▁사용 된
▁코 코
▁빼 면
▁서서 히
리 학
I M
▁파 는
▁매 달
▁그림 자
▁소 지
▁문 재인
아 키
▁스토 리를
ab y
c o

 198
품 이
▁말 이다.
▁자신 들이
하면 ,
▁가리 킨
▁간 단한
▁가 해
▁성 남
▁D e
▁드 럼
▁그러 다가
~ 201
감 에
▁친 한
반 이
T BC
당 했다.
▁지 팡
▁비 웃
권 ,
먹 은
▁18 7
▁대 치
▁스토 리가
▁건축 물
▁너 의
▁ 펄
인 터
거 의
▁구간 이
▁없 으므로
▁내 야
▁영 문
re e

 세
▁밝혔 다.

▁상 륙
▁개 체
▁배 를
▁패 스
▁피 가
▁넘 게
▁ ↔
▁보 충
▁200 8
희 는
▁고 객
▁나 치
▁또 다른
다 거나
정 도로
▁둘 을
▁내 린
▁유 의
▁ 햄
부 인
더 를
차 의
▁혐 오
저 의
어 요.
▁변 환
▁받는 다.

미 에
▁땅 을
▁당 일
▁인 디
군 다나
▁음 성
▁디 젤
▁들어 올
▁워 싱턴
담 이
▁호 소
네 스
피 해
▁받 기
▁점 ,
▁보 면서
▁변 화가
문 제
▁S e
▁트 롤
파 티
▁줄어 든
보 이는
▁프레 임
어 에
▁당 사
▁바 가
▁함 선
▁사 카
▁ 곱
되었 는데
▁노 리는
▁긴 급
▁동 화
▁상대 는
▁지 키는
▁되었 으며,
3 

▁가깝 다.
살 이
루 와
▁유 인
▁명 백
▁매 번
▁스킬 은
▁마 코
▁신 입
코 스트
▁O r
족 을
▁g o
스러 워
▁위 기
하고 는
▁차 이는
▁금 액
림 의
▁장 전
▁30 %
▁ 럭
▁이 룬
동 (
구 (
▁1 분
군 에게
▁코 믹스
▁프로그램 을
브 로
▁노 리고
▁각각 의
라 .

▁조건 이
본 래
▁대 조
곡 으로
▁끊 임
▁용 서
전 에는
타 이어
▁정 비
▁밀 리
관 (
▁그렇 지만
▁서비 스를
▁훈련 을
▁쓰 인다.
▁직접 적으로
▁코 리아
▁퍼 포
▁198 3년
am p
▁요 정
까 ?

▁나오 기도
▁복 구
▁개 신교
▁ 챕터
천 만
스 런
▁달 라고
-1 5
했 듯이
▁감 지
▁키 가
경 우
▁전라 남도
▁팀 원
▁d o
▁사 형
▁그러 다
C C
문화 재
▁억 지로
▁시 드
▁여 지가
밀 리
쳤 다.

▁소 식이
▁심 장

아 이
▁길 드
음 은
▁3 개의
▁편 에
호 (
▁정 기
주 연
▁1 라운드
음 의
▁나 도
장 비
▁이 웃
▁필리 핀
▁페이스 북
▁무시 무
▁ 쟁
▁일 행을
a 

▁더 이상
▁1~ 2
▁크리스 마스
소 총
가 스
c c
▁계 통
▁자랑 한다.
▁전 무
▁잠 입
▁고 스트
▁유 격
훈 이
▁C PU
므로 ,
▁자 라
구 조
▁써 야
▁귀여 운
▁차 이를
였 지만,
선 생
as e
▁무 승
플 로
3 2
▁배 운
▁무 의
▁잘 라
▁놓 은
디 스
르 와
▁사이 버
야 .
하 다.


▁한 데
▁거 친
▁작 년
▁6 5
▁하 자.
▁옹 호
전 체
▁무 역
렸 고,
▁관 중
s on
채 널
▁이득 을
▁도 둑
상 한
▁건 물을
숙 한
▁부정 적인
하기 를
▁성공 했다.
▁f rom
▁좋 다고
▁들어 간다.
▁E P
o ol
▁무력 화
현 을
▁통 틀
▁ 쏜
▁나 라의
▁사쿠 라
▁땅 에
▁C J
▁쌍 둥이
▁심 심
▁198 2년
▁자랑 하는
▁취 향
▁들어 오는
▁남아 있는
누 리
정확 히는
▁모른 다.
▁결 말
▁l ove
▁ 펫
함 으로
카이 도
▁사회 주의
▁나오 면서
들 .
시 즈
개 인
▁듯 이
▁저 택
▁추정 되는
▁나이 에
산 시
▁소 송
▁피 터
라 클
하 겠다는
▁궁 금
▁우 크라이나
▁평 생
▁세 력을
▁해 골
d d
▁약 탈
▁N ew
▁엄 격
▁팔 을
4 9
▁제 가
자 라는
▁바 꿀
분 ,
▁ 맷
였 다.


▁사 귀
▁세계 에
▁ 몫
편 을
▁우리 나라
▁익 스
▁돌아 가는
주 에서
워 즈
▁작 전을
거 래
▁연 기를
▁로 버트
▁K O
▁선거 에서

 비
r on
▁ 풋
다 )
레 를
▁담 긴
▁재 활
어 지는
뮤 직
▁탐 험
▁ 헝가
왕 (
연 맹
루 ,
보 호
▁치명 적인
▁A p
▁각 자
▁한국 에
▁카오 스
▁카 미
c l
합 이
▁진 학
▁수 립
▁하 에
▁것 보다
▁에 르
플 렉
▁남 겼
단 

사 진
였 으나,
▁가격 은
▁인물 로
▁기 지
▁항 의
▁제한 이
▁적 중
당 과
▁충 성
산 은
여 러
▁주 었다.
오 ,
▁버 리는
▁남 기고
▁속 한
리 스의
▁받 아서
▁ 튼
달 러
▁아이 언
▁쏘 는
▁레 어
(...) .
▁한 두
▁이 하의
▁특별 히
▁때문 이라고
▁준 비를
마 ,
▁결정 적인
리 도
▁나 갈
▁뜻 이
▁공 기
▁20 22년
▁사 법
▁style=" b
신 문
▁특수 한
▁어 택
아 프리카
▁박 스
▁마 감
H z
릭 스
타 니
▁열 리는
▁일부 는

 동
▁여 학생
▁된 다면
▁가만 히
▁통 하여
1 의
대 기
▁체 험
▁ all
격 의
▁대다 수
i er
.0 2
▁법 칙
▁아래 의
s c
▁딜 을
낸 다.

▁전 화를
▁거 둔
▁동 양
▁발 렌
▁번 에
▁유지 하고
플 러
치 아
▁임 팩
iver s
▁웬 만한
▁후 원
▁신 도
우 스의
▁대 단
" 로
▁아버 지를
회 초
버리 면
▁왔 다.
▁며 칠
▁반 사
▁시리즈 를
▁예 언
▁7 년
▁그 랑
▁T r
le ft
카 라
▁시 야
▁곡 의
▁않았 다는
▁자유 롭게
가 .
▁코 르
▁선수 는
블 린
▁줄 여
인데 다
▁철 학
f r
▁공 사
였 으며
1 월
몬 의
▁작 사
목 으로
▁웨 스트
▁풍 부
▁호 환
용 은
▁나왔 던
작 곡
졌 지만
▁세 븐
▁간 호
▁시리즈 에
▁기존 에
▁우 리의
등 한
6 7
광 주
▁경험 치
▁아 기
P M
심 의
▁생각 한
▁터 져
▁도움 으로
▁선 임
5 9
우 라
200 7년
▁백 성
탐 정
생 명
되었 기
▁사람
 21세기
▁노선 을
▁부른 다.

하였 으나,
▁말 았다.

▁토 마
▁2 개의
▁타 쿠
▁보 건
▁출 범
▁해 킹
r .
▁기록 은
우 며
▁괜 히
▁크리스 탈
▁2 군
▁좋 아서
─ ─
▁닌 자
▁시 원
ol og
해진 다.

▁ 끄
▁퍼포 먼
▁가능 성은
▁세 력이
▁경우 에도
▁6 00
▁작품 

시 피
환 경
▁감독 을
▁싶 다고
기 게
▁천 연
▁마 키
▁임 신
or n
▁아래 로
▁시 노
▁테 란
▁싶 다면
er t
페 이스
▁선택 할
로 이
▁카 와
▁창 원
판 과
▁보 석
un g
▁방식 이
네 임
▁않 겠
at ch
▁나타 났
▁어 리

 경
▁I t
▁체 인
▁영화 의
▁무 인
미 래
▁나 섰
▁태 풍
▁스 텔

201 5년
▁번 도
여 행
작 으로
▁구조 를
▁상황 이다.
▁귀 국
▁느끼 고
터 널
( 大
▁히로 인
디 에
▁이 나
▁어 이
▁학교 에
프 라이
▁버전 은
▁삼 아
▁손 님
닉 스
결 과
▁나 츠
▁맡 게
당 한다.
ow s
크 리
플 라
혀 서
▁ 됨
▁나타난 다.
활 동
▁영원 히
▁이 겼
▁제공 하는
루 

▁4 차
럽 게
▁주인공 을
도 서관
배 가
리 히
▁모 집
▁배 달
▁능력 으로
▁천 안
▁소 요
되어 있
ur n
▁그림 을
▁스트 레
▁ 휠
▁해 피
▁건 지
▁읽 는
▁나 고
▁198 1년
▁것이 고,
원래 는
네 

▁ are
▁안 타를
▁초반 부터
▁ 꿰
▁대 선
▁나머 지는
▁블 레이드
션 이
▁좋 고
보 의
빌 리티
▁드래 프트
실 점으로
외 의
▁치 면
▁전 역
▁많 기
▁ )
▁수 치가
저 기
준 의
▁영 역
▁200 9
강 점
▁묻 자
위 에서
( O
법 의
▁주 최
▁거주 한
기 존
▁올라 가는
▁치 열
▁시청 자
▁철 수
▁데 다
▁수 여
상 으로는
▁거 는
▁길 게
포 스
▁G o
생 물
▁억 제
▁교 과
▁끝 나는
▁홈페이지 


▁소프트 웨어
▁ 톤
▁( P
능 력이
▁바이 러
여 성
▁아닌 ,
▁상대 방
가 게
▁지 녔
▁관 람
들 처럼
▁중 복
▁요 원

 4
민 ,
▁주 차
▁느 려
▁출 간
200 6년

 R
마 르
▁25 0
▁가능 성을
▁방 치
▁간 단히
▁아이 가
▁참조 .
▁아 동
▁모티브 로
조 연
▁서 구
▁모 스크
바 야
▁스 키
▁만 나는
X X
▁나타 내는
▁와 일드
▁얻어 맞
▁개 칭
3 8
▁계 기가
▁느 꼈
▁머 리카
a il
▁ 띠
기 어
▁실 시간
▁위 력을
▁연구 를
저 스
▁취 약
▁지키 기
▁평 양
▁마 냥
▁정확 하게
▁유 입
▁죽 게
타 점
▁버전 이
▁공 허
세 서
▁별 명이
▁ ×
▁존 경
▁수 능
▁뒤 늦게

 진
▁뒤 에는
▁( 이
박 이
▁해 산
▁터 치
다' 라는
▁1 사
시 에서
▁없었 고,
녀 의
▁수 월
변 이
지 .

필 살
▁부 착
▁6 년
화 (
시킨 다.

속 을
이었 지만,
▁개 별
▁프리미 엄
▁아티 스트
위 와
▁( D
백 과
3 4
▁교 도
▁네 오
~ 6
▁W WE
▁번째 로
▁통 계
▁유 출
▁도와 주
안 은
▁축 하
▁ 굵
리 우스
인 듯
권 과
▁천 사
e ver
▁되었 다는
▁라이 프
▁코 우
▁로 빈
▁올라 오
하면서 ,
▁장 관
▁화 제가
ou g
▁베이 징
▁징 역
▁패턴 을
당 에서
▁4 1
초 기
▁진행 하는
모 는
▁회 상
▁시 체
▁터 미널
▁삼 각
▁경 남
▁중 세
▁내 각
법 으로
▁1 억
▁그 날
권 으로
베 이스
- C
▁비슷 하다.
반 을
▁ 놔
▁패 널
토 ,
▁로 얄
▁배 트맨
▁헤 르
▁1 시간
▁시 상
▁가까 워
▁덤 으로
▁작곡 가
부 문
▁18 6
식 과
▁밝 은
공 격을
나 로
▁대 단히
▁종 이
▁야 생
▁지 목
십 시오
I ON
▁단 행
거 든
▁최근 에는
▁대 지
민 을
▁J R
it ion
▁W orld
▁결 심
▁기 사를
▁모습 에
▁포기 하고
폭 탄
▁못 해서
▁담당 하는
왕 은
▁나 지
▁체 계
형 ,
▁도 저히
▁들어가 서
▁변 화를
강 화
▁안 으로
▁사 도
부터 가
▁입 는
▁변경 되었다.
ig h
▁전 승
▁파 르
▁축 제
훈 장
▁조 조
▁어 필
▁말 투
인 구
▁네트워 크
( 현
메 라
▁분 열
▁가 리지
▁10 분
▁구 슬
A A
신 도
니 버스
▁심 사
기 념
▁추가 되었다.

▁청 와
처 리
▁P art
대 체
▁고속 도로
▁행 위를
제 1
리아 가
▁캔 슬
마 츠
. S
▁침 묵
▁왕 조
강 한
▁중 첩
게이 머
노 를
▁돌 연
▁지휘 관
- P
▁M an
▁레 지
이 랑
▁이 닝
▁상태 에
▁김 진
▁끌어 올
봤 자
▁슬 로
벽 을
▁분 포
그 를
파 괴
il d
▁쿨 타
: 

란 히
▁편 지를
▁ 짱
▁유 망
▁상 의
▁이상 은
▁공개 되었다.
스 틱
▁데 드
▁로 맨
▁n o
노 트
백 이
▁못 하면
▁권 력
▁클 릭
▁기 가
▁한편 ,
▁날 리는
▁대 상을
▁팬 텀
후 가
▁오 염

 일본
▁여 기는
장 전
기 준
▁상관 없
▁심 판
사 에게
▁일부 가
▁세 뇌
네 는
▁만들 어서
바 를
남 자
식 ,
틀 랜드
▁공 지
▁일방 적으로
▁베 를
3 1
성 

m ,
▁상 기
▁보 였다.

▁사 거리가
▁원 소
▁오 키
▁비 하
▁당 할
주의 를
▁슬 라이
▁브 랜
▁다 큐
5년 에
절 을
▁김 경
진 (
름 의
최 종
▁더 해
▁동 반
속 의
▁장 거리
▁디 스크
▁생 길
▁사고 가
▁1 승
▁정도 다.
▁바이 오
▁직접 적인
▁ 쯤
▁깜 짝
▁style="margin: -2
▁트리 플
히 메
▁문 명
세 .
태 를
접 한
▁콜 로
▁엘리 트
▁패 키
▁후 기
▁니 코
저 는
▁만 화가
집 에
저 런
▁미래 를
▁사령 관
호 환
▁살아 있
주 )
▁
 |
▁D .
▁읽 어
▁논 의
▁맞 을
▁거 론
.0 3
▁가 기
하지 도
▁이 라고
▁따 뜻
자 연
▁데이터 를
▁메 모
▁소 드
손 으로
▁있었 다.


▁김 기
▁하 향
저 를
하였 는데,
스터 를
▁전 날
▁들어 와
▁style="margin:-2 px"

▁시 킨
층 의
▁터 널
▁기 아
▁ 뷰
▁진 정
▁활동 하고
▁기 둥
▁D VD
라 디오
▁아 지
▁중 순

 키
대 화
박 물
마 냥
▁시 카
▁분 기
▁이로 써
자 책
권 에서는
▁재 회
▁하였 다.


하 곤
▁시 라
▁찾아 온
텐 도
▁트 라우
▁시리즈 에서
▁공 립
▁않 다는
▁쌓 아
내 면서
▁전설 의
시키 면
미 (
▁쓸 어
▁바 에
4년 에
- S
▁구 경
▁추 방
▁스코 어
▁뱀 파이어
▁여 럿
▁집어 넣
▁가 질
▁미 네
▁시 계
▁한 나라
▁세 상에
오 오
▁전 북
▁왜 냐
▁비 극
▁장 남
▁남 는
▁넥 센
표 가
▁학 습
▁후보 가
▁다르 다.

니 

즈 에
타 쿠
▁브레이 크
▁오로 지
▁악 몽
매 치
▁여 행을
▁남 자가
▁정 체는
이었 을
▁그러 니까
▁쪽 에
▁상 실
길 이
터 로
▁두들 겨
라 에게
▁주 장이
▁지나 면
▁표 정을
▁찍 는
▁자체 도
초 로
석 에서
▁김 상
▁소 장
른 다.
▁내 게
데 드
▁C on
독 립
▁3 점
히 게
▁교육 을
▁( B
▁2 라운드
▁데 몬
녀 가
▁배 려
▁드라이 브
문 으로
▁복 수를
지 ?
▁호 불
▁서 번
▁대 량
▁카드 로
우 면
국 과
▁ ★
o ,
▁( L
▁귀 신
▁쉬 워
▁입장 에선
▁뜯 어
▁수 의
어 :
▁도 구
▁커 피

그 리고
▁강 하다.
▁설치 되어
▁차지 하는
▁게 스트
▁키 스
▁위 력이
if e
▁대 우
▁대해서 도
천 군
티 스
▁방향 을
▁치명 타
an k
▁위치 하고
▁갖 는
▁전 파
▁극 히
서 도
▁정보 가
었 다가
▁ 닛
▁복 합
ter n
▁동 영
▁러시아 의
스티 벌
▁사 로
▁프로 필
산 ,
▁부 동
▁맡 았다.

▁이 젠
▁엑 스트라
▁나 뉜
' .
▁프리미 어
▁주인공 인
라 미
▁하 려고
▁둘러 싸
▁끝 이
▁안정 적인
작 가
요 한
무 의
▁지 워
▁도착 한
▁경 악
▁서 머
▁관 료
▁벽 을
▁농 업
도 쿄
▁아 들을
T E
행 위
마 나
▁일본 에
소 나
▁계획 이
▁상 자
체 스터
▁일 어날
추 는
국 ,
현재 는
▁대통령 의
▁바르 셀
다.
이 때
▁코 토
▁수준 .
현 (
▁전 원이
소 리를
▁후 임
▁것이 며,
▁ 짙
r ight
▁초창 기
A K
▁증 폭
▁느끼 는
천 의
▁동일 하게
랐 다.
▁세 웠
▁막 상
▁이야 기는
시간 을
내 에
카 페
입 니
▁화 력을
▁파 란색
▁없었 고
▁화 성
명 

▁최 대의
▁대표 하는
프 에
칭 은
▁구 독
▁성향 이
파 크
▁상황 은
▁후반 부
▁중 후반
▁정도 를
▁기술 로
》 에서
8년 에
▁쫓 겨
▁비 율
적으로 도
▁가능 .
▁뚫 고
▁크 림
▁가리 키는
정 

▁라인 업
▁가 담
▁주 택
▁인터뷰 를
▁담 은
p s
▁늘 려
▁가 난
놓 는
▁사 가
▁넘어 가는
▁함 락
▁어드 벤
▁적 들을
▁( F
▁떨어진 다.
요 ?

▁ 쌀
▁ 쪼
▁조금 만
경 ,
다고 .
▁번 의
▁힙 합
▁ 훼
▁엘리 자
미 르
▁프 렌
씨 (
i i
대 문
- 

금 은
▁유 카
되었 으나,
o on
▁상 반
▁트 랜스
r is
▁스킬 로
▁올 해의
▁197 9년
▁체 제
죠 .
▁용 인
시 대의
.0 6
중 이
▁에 릭
노 와
▁용 어
▁못 했던
▁따 지면
▁주 관
B 48
▁화 력이
감 과
▁춤 을
당 ,
▁고 마
▁C G
학 력
▁위치 가
▁교 류
▁대 인
▁모 로
▁충분 한
▁부모 님
리스 는
▁성 적이
▁즐 겨
해 졌다.

▁보유 한
▁함 부로
▁권 장
▁문제 에
+ 1
▁출 력
▁호 주
인 치
▁말 했다.

었 는지
▁후 의
▁ 홋
▁수준 이다.
▁아니 기
▁자 꾸
▁실질 적인
▁운 이
게 이트
▁아이템 이
▁10 만
투 수
국 인
▁스위 스
▁우 월
해 줄
미 디어
▁반 해
메 인
▁편 에서
▁정치 인
교 가
크 스
었 으나,
.0 5
돌 아
u k
▁ 엎
▁창 단
다" 며
▁ 벙
관 계를
▁난이 도는
▁비 유
▁블러 드
잡 이
▁5 6
▁6 개월
▁그녀 에게
▁ 펌
▁지 향
▁서로 를
▁가 상
▁ 람
▁파 울
버 튼
▁ 툴
( V
▁차 이로
▁카 더
▁ 얽
▁세 인트
▁수 석
▁시작 한다.

▁아 츠
서 와
비 치
▁박 지
밀 히
▁야 쿠
▁클 라
▁조 언
▁팔 아
▁수 직
▁엔 진을
▁주의 해야
박 한
▁별 도로
▁거 라
▁국 경
▁ 쟈
▁날 이
km /h
▁해 리
동 에서
▁코로나 19
▁사 제
▁기 도
▁전 력을
▁최종 보스
3년 에
건 담
▁특히 나
▁눈치 채
8 4
▁기 종
▁말 로는
le s
야 

▁스 팀
▁물 에
▁스 캔
▁인스타 그램
나 에게
능 한
▁선수 들의
자 이
▁성 별
▁조 회
블 리
▁부 작
실 히
▁아케 이드
감 은
▁선수 권
▁동 영상
▁정상 적인
실 제
소 

▁물 이
▁사 단
▁카 자
구 간
▁법 무
▁공 장
▁즉 사
데 레
터 와
▁소 문이
▁k now
▁재 직
방 울
자 라고
처 를
▁갖 게
▁은 신
a )
▁재 건
▁있다.
 그
▁방영 된
▁감 싸
▁감독 으로
▁사 업을
▁미 루
▁싶 지
주 

▁사건 은
▁복 무
▁남 을
교 사
▁디지 몬
▁귀 엽
시 노
라 딘
▁F l
▁W ar

201 4년
▁계열 의
▁발견 된
마 치
▁미 즈
▁지 경
▁th is
▁전 락
막 이
베 리
▁가 죽
철 의
▁포 격
포 는
좋 아
▁ 끓
▁간 에
▁되 도록
리 던
볼 을
▁과 목
▁번 호
▁이 르는
층 이
▁비 틀
▁수록 된
어 느
▁스티 븐

 주
비아 의
▁실 현
▁부르 며
▁예 산
▁M ar
▁옆 에서
▁사 립
번 과
▁한국 에서는
▁정확 히는
▁( 2

 상
▁지 는
경 기에
▁주 어진
▁운동 을
▁의 식을
an n
▁조 연
해서 ,
{ \
▁기 대를
▁모 노
▁제 네
▁규 모가
코 (
히 트
▁너 희
▁시리즈 

▁요 약
▁해 양
▁미국 인
위 치
▁( 3
▁아들 인
w e
▁폐 기
▁ 둠
이라고 도
▁역 사가
메리 칸
▁악 당
팀 은
▁- 10
i el
▁드 롭
▁손 오
▁S R
▁주 제
▁부 르고
▁대신 에
I VE
▁나오 게
▁소속 으로
▁A M
이었 으며,
▁199 0년대
▁O n
▁조 리
곡 은
▁있 기도
▁바 둑
▁서로 의
▁막 대한
▁있 음
or g
오 스
▁흑 인
▁6 6
▁너무 나
▁( T
▁맞 붙
하 다

해주 고
▁리 드
▁폭 파
▁메달 리스트
▁뿐 이다.

▁클 라우
시켜 서
▁이 자
▁진행 된
▁S F
▁준 공
리아 를
강 을
▁국 정
!! !
▁부 적
▁단 위
▁차지 하고
▁4 개의
간 히
▁혐 의로
- A
▁마 린
▁빛 이
리 기도
평 을
an ch
키 ,
▁ as
▁가벼 운
▁매 주
▁권 유

 파
만 ,
창 이
일 과
▁보 이기도
▁유 적
▁버 스터
▁패배 를
클 리
▁반응 은
▁사진 이
량 과
▁카 구
▁ 늙
▁8 8
▁디자 인이
해 온
▁그러 면
▁전 방
▁마 치고
▁퍼 져
▁차 고
▁s p
혹 은
▁2 연
께 서
▁판 정을
▁R PG
곡 의
순 위
드 컵

 안
▁n ot
자 신의
운 영
런 트
▁이유 도
미 한
클 로
▁치 러
▁전쟁 의
▁여성 의
▁휘 둘
▁탱 크
▁ 론
색 ,
▁만들어 낸
▁집 권
어 머니
▁ 벡
▁오 페
▁타 마
▁더 군다나
되어 ,
▁오스트 레일
▁올랐 다.
) -
받 는다.
되 므로
▁품 고
▁자 금
▁3 명
▁쓸 데
▁합 동
▁넘 버
▁바이 올
▁응 용
] ]
무 는
▁사 고로
▁다름 없
액 션
▁하자 .

▁한 방에
정 당
군 .
테 랑
봐 도
▁( 195
▁막 고
k y
▁모 토
▁아이 러니
▁폭 탄을
▁A .
경 기를
▁성우 :
▁해 명
▁인 용
▁너 를
▁독 재
▁내용 의
성 한
▁기 후
▁비 율이
▁우 위를
▁ 쳤

 공
몬 스터
▁넘 치는
▁성우 가
▁뜬금 없이
함 의

 장
▁유 기
▁십 자
▁바꾸 는
발 매
▁20 대
버 려서
A Y
▁물어 보
졸 업
▁방 면
거리 에서
▁분 해
▁개 인의
▁리 스
▁사 야
▁너무 나도
▁대 동
▁중 형
▁도망 치
▁유래 는
▁늘 었다.
삼 성
결 을
▁원 더
▁ 갚
▁상태 .
▁필요 는
▁4 회
▁가 요
▁시 의
▁S D
▁정책 을
오 

수 인
▁이 순
▁기다 리고
▁프 레이
장 도
▁몬스터 가
▁흔 한
공화 국의
츠 와
▁5 7
▁무 리가
▁마 비
▁길 어
본 을
▁어디 서
▁원작 의
밀 한
▁2 .
( 6
▁움직 임을
▁날 짜
▁무 대를
▁복 제
▁스 즈
들 에서
▁달 하는
▁식민 지
분 으로
▁능력 치가
▁배 제
▁스킬 의
▁스크 린
▁것 과는

 중
태 가
▁마 무
▁리 처
티 를
▁ 솜
▁p l
▁백 작
리 코
▁처음 엔
▁ 캄
▁출신 으로
생 으로
▁ 줘
바 다
▁최 적
그 레
▁말 라
▁규 모의
▁지원 하는

 원
▁우 익
an c
6년 에
▁ 젖
▁라이 플
브 레이
▁본격 적인
▁주 목을
▁단 종
▁분 할
레 옹
▁3 000
▁나오 며
▁승리 로
:0 으로
-1 7
후 보
▁있어 ,
▁변경 되었다.

▁기억 이
▁발표 한
▁딸 을
론 가
▁상대 할
▁지 리
▁안 의
▁노 가
as on
▁틈 을
▁연 인
▁맞 춘
▁경우 를
▁리버 풀
▁5 2
▁가 량
▁2 명
▁일 대
생활 을
▁쿠 데
▁주 류
▁여 성이
▁벌 인
▁루 카
▁시 합

 0

 2020년

 E
▁ 뮌
▁먹 으면
▁대 변
▁악 의
0년 에
▁캠페 인
고 리
프 란
7년 에
▁싸 움이
▁p ro
▁대학 원
▁없 어진
▁등 극
▁e x
▁어 뢰
▁투 척
▁히 틀
속 으로
▁1 의
▁벽 에
▁동 경
▁뿐 ,
초 간
▁모 드를
H K
테 이션
▁손 꼽
▁질 투
ap p
▁전 송
킹 을
▁마 디
▁의미 하는
▁창 립
천 히
▁드 레
▁초 등
▁황 제의
베 르크
▁누군 가
회 복
작 전
▁사 촌
▁받 으면
7년 )

▁엔 젤
▁돼 서
책 으로
▁투 구
▁업 체
▁음 원
▁수 면
▁물 러나
으 라고
애 초에
▁전작 의
▁엘리자 베
이 거나
up er
재 료
▁지키 고
기 원전
▁방어 력이
▁히 나
. )
▁s c
▁케이 블
▁이른 바
▁제작 에
ou nt
ul l
카 미
편 에서는
▁파 멸
▁측 은
▁연 봉
▁구간 은
▁일시 적으로
군 

▁만 만
▁등장 할
렉 션
▁정 예
▁수 습
▁예 전에
▁번 개
▁기술 은
▁조 카
서 버
▁발견 한
▁튕 겨
▁고 쳐
▁평 가는
▁전 남
▁부 가
▁일 격
커 는
만 으로도
G B
st yle
▁크 라
▁포함 된
▁퇴 장
j ect
▁6 ,
▁지역 이
터 ,
▁지 지를
▁끊임 없이
▁써 먹
▁숫 자
르 ,
▁전 망
▁의미 한다.
▁보 좌
▁소 중한
▁국 무
▁에 디
▁라 그
▁브라 운
▁에 그
세 ,
재 의
▁따 르는
▁싶 으면
▁없 다며
" 이
혹 한
▁극 장
해 준다.
내 에서
▁상 하
지 니
▁말 하자
▁차량 이
ic t
열 차
▁올 렸다.
프랑 스의
▁조 우
▁놀 란
퍼 가
▁주 된
▁무 섭
졌 다.


▁5 회
신 ,
▁알 레
▁초 청
▁트 루
▁차량 을
e el
▁독 점
▁커 스
성 우는
▁달 리는
a f
▁경험 을
▁좌 절
▁투 명
조 ,
▁1 호
출 을
했 으니
▁2 :
▁왜 곡
▁당 신이
▁무 라
▁L e
12 월
▁말 레이
맥 스
팀 을
▁시작 할
▁상 영
▁던 지는
▁배우 
미국의
스 파
되어 야
▁데이 비드
바 퀴
▁무 술
▁빌 런
마 귀
▁공 방
난 다.
▁불 태
했 듯
번 으로
사 하는
▁신경 을
▁튼 튼
타 

6년 )

5년 )

▁면 역
▁개 척
신 (
중 을
▁겹 쳐
▁인도 네시아
▁되었 는데,
사 냥
스트 는
리스 를
▁c om
▁뿌 리
▁간 간히
▁안 심
▁주의 .

작 인
▁일행 은
화 :
바 는
▁해 보
▁타 츠
っ と
▁긴 장
▁실 수를
다 던
전 공
▁도 박
▁200 6
룡 의
히 면
▁5 4
▁것이 기
▁자 의
▁되 므로
▁사로 잡
화 하는
▁위 성
▁포함 해
▁승강 장
대 부분
▁그곳 에서
▁크 다.

매 가
▁포지션 은
▁파 밍
▁목록 


▁기다 려
▁회 사의
▁밤 에
▁강 경
으 려는
▁요 한
▁아니 지만,
졌 으며,
▁것 들이
▁싶 을
▁믿 는
▁등 도
▁5 1
▁발 로
▁보 험
▁쓰 게
▁누구 도
▁약 점을
▁스트리 머
▁드 문
▁개 를
▁적 시
▁왠 지
도 도
▁가능 하며,
9년 )

▁무시무 시한
등 록
▁페 이즈
▁영혼 을
▁포스트 시즌
▁성 과를
▁찾아 볼
와 이
▁상태 의
▁16 0
▁느 리
▁더 러
시 민
리아 는
▁위 주의
글 로
▁지 낸
시아 의
브 의
▁교 토
대 (
▁짐 작
l and
가 면서
▁어렵 지
형 과
전 까지
▁올 리고
▁호 의
렸 다는
▁우 호
하여 야
석 으로
동 맹
▁나 중에는
전 용
▁모두 를
▁커 서
▁역시 나
▁확 산
▁오스 만
▁1 일에
영 국
▁묻 는
▁9 7
▁속 해
0 )

▁나 빠
▁청 소
정 하고
▁즐 기는
▁경 북
▁빛 나는
▁버 렸다.
▁B L
▁쳐 들어
▁에 픽
2년 에
▁더불어 민주당
▁봤 을
다.
그 런데
▁논 쟁

 5
▁배 가
( 198
▁만 다.

들에게 도
▁정 해진
에 른
▁ 꽉
▁잡아 먹
▁중화 민
▁194 5년
개 혁
▁우 측
▁주 역
IN G
▁시내 버스

 O
▁쓸 만한
▁토 요
▁영화 이다.
▁공 무원
▁참가 한
▁콘 솔
▁사용 된다.
▁메 모리
▁선택 한
▁끼 고
▁모델 이
훈 의
▁4 인
re at
헤 이
▁목 적을
▁순 으로
앤 젤
파 와
▁못 한다.

▁관계 는
▁마법 소녀
▁9 5
▁제 안을
환 으로
▁테 라
I n
▁하이 퍼
리그 에서
▁시 로
▁서울 대학교
티 가
▁불 량
▁모 듈
▁위 안
▁캐릭터 들이
▁2 .0
▁유 재
▁올 드
▁짜 증

 부
▁모양 .

라고 도
▁한 일

 일
▁사 자
▁권 력을
▁충청 남도
▁축 소
▁2 사
▁이 모
▁딜 레이
▁봉 쇄
래 서
▁지 연
▁감 정이
▁제 독
지 휘
▁일 관
▁긍정 적인
er n

 *
▁아 미
▁모 은
기 며
▁치 킨
▁이어 져
했 음에도
▁10 대
▁슬 라
▁믿 을
렸 고
▁서 바이
▁세 부
내 어
▁앞 의
파 일
▁정신 이
▁지켜 보
▁어 색
▁아이 디
▁경 주
질 은
▁미 쿠
▁학 과
▁디자 이
서 (
▁에 반
▁오브 젝
▁모 터
구 청
아 메리카
▁거 미
▁플 라이
생 산
▁입 증
▁김 용
▁일 렉
아 트
▁제 8
▁충 족
-1 6
▁형태 가
▁전쟁 에서

 서
▁할 수
I V
▁노 무
▁변호 사

 일본의
▁한 창
▁+ 1
° C
초 를
▁여 의
▁시 키는
▁건 네
혁 명
▁보통 은
▁가능 .

누 스
사 스
▁내 리는
▁마이 크
▁ 얀
h o
토 미
▁사이 에서는
▁오 락
들 (
▁혼 돈
C G
▁입 대
▁반란 을
▁ 샬
가 수
; "
기 계
가 에서
▁스파이 더
▁증 오
▁모양 이다.
자 들과
▁도시 를
▁전체 의
▁루 이스
▁상징 하는
▁내 주
▁살아남 은
장 난
▁폭 행
▁체 감
대학 원
당 초
리 한
▁살아 있는
▁수 염
▁재 등장
8년 )

인지 ,
▁세 우
콜 릿
▁손 해
▁여 섯
▁KBS 2
▁가져 온
철 이
▁9 8
▁때 와
▁생 방송
anch or
온 을
▁지 고
▁어 렸을
▁실질 적으로
▁순 수한
▁확장 팩
▁모 르게
▁위 력
▁마법 의
▁않았 기
▁부르 기도
▁기 분이
이다.

 같이
시키 며
▁마 틴
▁11 0
▁조 기
▁수 색
▁유 혹
C D
▁정 반
▁활동 하는
▁공 수
아 도
▁총 선
▁안타 까
자 로서
▁말 이다.

▁열 고
▁ 뉘
야 와
▁유 학
it al
나 기
묘 하게
▁유 물
id =
▁5 9
들에 겐
▁승 점
들이 나
우 치
▁싸 웠
제 이
▁공격 해
▁혹 시
▁아니 더라도
▁말 씀
▁학교 에서
디 움
▁나 라를
음 으로
▁사이 클
▁듣 게
er o
당 하게
슬 로
▁범 용
러 리
해 져서
11 월
▁천 천히
스테 이션
▁당 신의
년 에
▁했 으며
▁레이 드
. O
▁ 옐
포 인
i ,
R O
금 으로
▁F or
▁마을 을
들 끼리
▁이곳 에
▁샤 를
▁파 고
▁설 명을
▁있 기는
▁B e
▁수요 가
▁리그 에서
▁좋 았
▁간 섭
호 에
▁버 린다.
령 으로
▁싱 가
▁하 겠
▁침 투
산 (
▁기 생
- D
화 학
▁발생 한다.
▁획득 할
▁바뀌 어
실 과
▁불 사
위 대
온 은
▁의 문을
▁제 트
▁부 부
나 에
▁인 식이
▁걸 그룹
.
이 후
▁ 긁
▁w ill
니 즘
타 에
▁논 리
지 며,
캐 나다
b le
▁문화 재
▁용 이
' 고
▁지 진
▁둘 다
▁딜 링
od e
▁산 맥
▁실패 한
▁5 분
유 는
▁ 봇
▁사 퇴
.
 -

이 탈리아
▁1, 000
▁바 란
▁3 의
▁가져 다
티 의
▁나누 어
▁필살 기
▁명 문
아 무
▁낙 하
T A
▁비 가
저 리
▁후 회
▁복 원
품 으로
▁스 쿨
▁200 7
▁어머니 는
▁캐 스터
)
 (
▁끝나 면
격 은
▁노 멀
▁L A
▁호 남
▁부 유
이었 다.


▁아버지 와
달 라
▁발표 했다.
▁하 반
▁상대 방의
▁1 등
보 우
▁영화 
미국의
▁바뀌 는
▁ 엇
▁시 체를
▁또 ,
시간 에
▁엘리 베이터
▁지역 으로
노 스케
▁마 친
▁표현 을
▁난이 도를
▁유 용한
▁연 령
4년 )

▁설 명이
▁고통 을
▁다음 을
▁한 방
수 사
▁B r
▁붙 인
▁허 무
▁호불 호가
▁총 리
▁모른 다.

▁있었 으며
들 로부터
▁된 다.
이
~ 8
▁인 권
또 는

 서울
▁ 얇
테 니
화 점
고 등
▁8 5
▁정도 였다.
▁뜻 으로
▁싸움 에서
▁장 례
▁마 력
▁시리즈 가
▁S E
▁배 드
거 라고
▁손 이
▁여기 서는
▁개념 이
▁쓰러 트
▁이전 부터
▁화 산
리 라
▁철 저히
성 군
▁어마어마 한
마 로
y st
류 는
▁연 고
▁어울 리는
▁공산 주의
▁한 가
▁플 러
형 에
코 스
플 라이
▁너 머
합 니
▁별 의
▁프로 그래
▁나 들
▁S ch
다 ”
▁뮌 헨
▁레코 드
▁시간 의
말 이
▁리 타이어
m e
▁모델 로
수 원
▁웃 는
▁공 헌
고 기
V :
병 과
▁전쟁 에
" 가
▁마 라
▁야 간
루 미
▁정 체가
저 우
▁벨 기에
▁영 주
▁보여줬 다.
▁대 사는
▁바 텀
▁놓 여
▁ 굽
▁A S
▁지 점
힌 다.

▁승 진
내 려
▁역 의
▁아 베
▁쇼 핑
▁입 문
뉴 얼
▁어 빌리티
▁리 치
▁하 려
신 에
▁운영 하고
▁아 서
al e
▁작 화
▁많은 데,
▁바 위
되었 다가
▁알려 주
▁동 해
▁민 첩
이라 기
1 )
▁스 나이
. A
▁대 접
▁프로 게이머
▁농 담
us ic
어 스
▁블 래
▁멤버 로
▁시 리아
▁( 194
선 (
▁약 화
▁아저 씨
▁힘 입
군 사
ot t
▁흐 름
더 는
즉 ,
▁연 대
▁그래서 인지
▁대 가로
▁8 00
▁이런 저런
아 주
▁이 오
▁토 우
▁특 성이
▁외 전
▁이집 트

 포
▁우 울
/ 4
▁이해 할
- B
▁중 .

극 장판
▁사 서
▁4 위
▁사람 으로
▁공 무
▁전투 기
네 를
▁의미 는
▁손 쉽게
▁나 노
▁이 토
▁얼굴 에
/ 2
▁주 면
▁진 급
▁영향 력을
▁방 탄
▁강 원
▁길 고
▁E n
▁클 린
▁세 팅
차 고
▁0 .5
▁경 호
▁인물 이다.
▁스타 리그
▁동 점
질 적인
▁9 6
▁영향 이
▁않 으므로
진 흥
▁유 료
초 가
▁만 드
- M
▁하늘 을
으면서 도
▁누 나
▁어렵 다.

▁김 지
▁전 향
n et
▁마 신
▁웨 이브
▁수류 탄
▁주 축
그래 서
메 탈
▁사이 코
▁비 스
색 은
▁하 인
▁동 행
▁맞 다.
▁촬영 한
▁부 스터
▁최 저
▁테 일
▁18 5
오 르
딜 을
벤 트
▁들어 왔
수 리
▁파 란
줄 이
▁수 단
ind ows
고 려
▁성공 한다.
▁너 는
까 봐
▁1 집
▁그렇 고
▁가능 하게
네 마
v s
▁인 피
▁아 인
특 이
브 가
▁오 면
선 택
▁일본 은
▁슬 레이
▁정 권
테 크
▁거 라는
▁카 츠
▁죄 를
y n
▁타이틀 을
▁뽑 는
)
 -
▁교 차
▁5 8
검 사
▁아래 와
▁성 적은
▁시즌 2
ackground -
폰 을
▁S H
▁정도 면
두 면
▁일 하는
▁글 이
병 은
▁정 발
▁노 란색
▁추 서
▁( H
th ing
▁특징 이
▁것이 고
▁( E
▁어머니 의
▁혈 액
교 도
▁많 을
▁이 니
아 나
▁가 디언
▁게이 머
ic s
▁피해 량
_ {
▁선수 의
▁학생 회
께 끼
다 와
▁구 미
▁고 기
▁살 던
▁크 래
▁비주 얼
▁한 계가
▁플레이어 에게
▁시작 해
▁그러 던
▁ 흙
200 4년
블 루
▁뚜 렷
▁초 기에
200 5년
애 를
▁용 사
▁비롯 해
▁요 리를
▁만 일
▁한마디 로
▁산 하
▁W e
▁보 정
▁개 성
▁단 위로
▁절 친
희 ,
도 리
▁그 중
어 떤
조 각
▁안 양
en g
▁기 부
▁일 기
▁연습 생
건 지
면서 ,
▁우 르
▁사라 지고
▁모 순
내 서
▁던 진
▁적 게
글 라
3년 )

9 8
~ 7
검 찰
▁아 군이
▁도 쿠
▁역 


▁1, 2
비 시
▁피해 자
음 과
▁매 장
▁래 퍼
▁일본 인
분 은
▁탄 핵
▁시점 에서는
▁특징 을
▁받 기도
▁기 갑
▁답 답
대 교
▁극 도로
전 

▁있었 기에
▁이 경
▁질 문을
▁어지간 한
▁경기 에서는
▁ 앓
▁빠 르고
▁전 ,
▁자 존
형 태
높 은
층 에
피 의
▁감 수
국 어
▁헨 리
▁6 개
▁제1 차
선 발
▁테 니
▁U N
▁시 가
아 라
▁

 198
모 습
▁원 주민
▁이곳 에서
▁E d
3 00
ar m
▁불 행
▁죄 책
▁롤 드컵
▁경 직
▁일 이다.
▁기 기
한 데
▁7 7
▁쓰 인다.

▁학교 를
▁ 헷
있 을
▁ 밈
▁J TBC
플 레
철 도의
▁조합 을
▁최근 에
▁실 전
▁사람 과
버 드
▁도 덕
▁깎 아
▁인 게임
변 을
▁로 이
▁납 득
▁디자 인을
ou ld
하 르트
▁기 원
▁마음 대로
▁2 위를
▁7 ,
▁오 기
▁프 랜
▁무 거운
▁해 준
▁김 일
▁초중 반
▁요 소를
▁캘 리포니아
v N
▁생각 은
▁훔 쳐
▁제작 진
▁쓰 던
▁주의 .
리 시
▁반 도
▁포인 트를
▁기본 으로
▁승 부를
▁오 크
▁실 은
▁주연 으로
▁정 면
▁올라 갈
▁진행 되는
▁공 업
나 나
▁초 에
▁호 수
▁인지 도가
▁ 싼
▁설 령
제 도
하 르
▁단 어를
▁ 닦
▁음 모
▁마 블
▁바라 보
▁여 자가
부 모
L G
▁상 점
체 력
네 .
▁고 무
▁백 업
되었 지만,
▁차 원에서
た い
병 에
▁마 루
▁조 치
▁노 린
지 는데
간 을
기 자
즈 로
▁I D
▁무난 하게
▁근 대
▁움직 일
▁말 과
천 을
▁동 급
~ 199
▁찍 고
런 스
▁만 주
지막 지
▁미 나미
감 으로
▁셈 이다.

▁개봉 한
하였 다고
▁추측 이
▁같 다.


영 과
▁이탈리아 의
▁코 멘
▁이번 엔
▁스트라이 크
피 안타
실 험
▁싸우 게
역 (
▁친 척
▁설 이
▁분 산
▁퍼 즐
▁최우 수
▁필요 하다.

회 )

▁우 회
▁올라 간
지 대
9년 에
▁휴 식
▁( R
▁분노 를
▁진 주
줄 을
들 고
▁데미 지는
▁비난 을
▁올 바
리 드
▁볼 수
사 거리
▁에피소드 에서
▁출 루
▁점 유
▁페 스티벌
▁시청 률
▁김 해
3 )
▁결혼 을
▁F M
▁시즌 이
리 거나
아 마
▁트레 일러
지 옥
▁도시 의
▁되 려
▁A D
▁모자 라
▁조 언을
▁197 1년
거 가
세 기에
▁피 부
▁14 0
식 에서
▁조건 으로
아 

▁가능 하며
풍 을
▁부 친
시 스코
▁밀 리는
타 리
eat .
▁신 용
▁사랑 의
패 턴
▁에 디션
▁ 랜드
▁정 화
▁싶 다는
▁베 타
락 이
▁메이 플
▁13 0
▁쓸 만
▁정상 적으로
자 이다.
▁누군 가가
불 가
▁아 군의
▁찾 고
▁반 짝
BS )
▁성 과
▁공격 한다.
청 을
▁하 우스
▁패배 한
티 즌
▁유니 버
항 을
▁과거 를
▁소 문
▁7 6
감 도
~ 1
▁카 스
속 에서
9 5
▁숫 자가
▁마 운
▁1 장
▁여 전
오 기
▁멤버 가
▁콘 스탄
▁일으 키는
들 까지
re t
타 르
▁최상 위
▁197 0년
▁시 사
od y
빨 리
연 대
시키 지
▁이 누
▁고 개를
기 면
▁한번 도
▁때 에도
▁연 쇄
▁발 발
▁조 명
▁외 야
-1 2
4 )
▁소 용
▁엄 연히
▁면 모를
자 이자
▁모습 과
▁악 화
너 무
▁무 기의
p ort
스 와의
▁크 레이
자 리를
▁연 산
▁페 미니
▁건물 이
▁시 뮬
▁투 사
▁할 때
▁협 회
터 에
us e
시 인
▁아니라 서
▁I T
(...) .

들 

b e
▁어그 로를
▁사 천
▁본 작
퍼 를
▁업 무를
▁적 당한
▁변 한
▁북한 의
▁김 준
너 와
-1 8
- F
▁ 돔
미 션
▁소 규모
▁잡 으면
자 였던
▁벌어 지는
▁ 햇
▁이 틀
▁액 티브
▁10 개
행 성
나 르
▁사실 에
▁산 탄
▁

 199
석 과
▁쿨타 임이
▁ 샀
▁두 드러
▁쓴 다.

▁발매 한
▁비 서
값 을
▁지 구의
▁주 니어
▁백 인
ᄏ ᄏ
▁피 로
▁출 격
맨 을
▁정도 이다.
▁아이 들을
▁197 3년
▁본 토
▁보 상으로
▁밑 에서
▁역 이
▁2 

▁합 리
▁좋 겠
망 의
열 의
▁P h
▁셈 이다.
글 을
소 리가
되 지는
▁ 웰
▁많은 데
. (
정 규
▁내 부에
▁P r
▁압 축
▁ 딘
▁기록 하고
▁작품 에
▁알려 지지
워 하는
▁내 에서는
▁무 지막지
t y
▁구간 을
▁베 테랑
▁타 율
▁담 아
▁편 하게
ri st
▁당 했다.
▁같 다는
▁명 명
▁조 사를
▁고 난
▁명칭 이
▁않는 다면
▁L P
▁탄 압
▁가 공
▁c l
▁되었 으며
해야 만
▁공간 을
활 동을
▁수 동
▁수 감
re ak
▁짐 승
했 습니다.

▁의 지를
요 !
수 에게
▁3 부
▁지 붕
▁어려 울
▁최종 적으로
제 품
▁새 누리
해 하는
▁이 대
7 6

 노
구 미
▁100 만
▁재 배
▁멋 대로
하 듯
▁유 엔
▁신 형
▁198 0년대
▁신 속
▁짓 는
린 과
조 와
▁묶 어
▁보내 고
전 부터
▁주장 했다.
oh n
▁l a
▁동 인
▁마 쓰
▁설명 은
▁운 송
히 어로
받 았다.

사 :
전 에서도
▁영 어로
▁커스 텀
▁파 크
.
 1
▁최 연
심 은
▁l ike
▁보 편
▁이 병
▁기술 .
▁설치 된
▁부산 광역시
▁내 부의
os e
▁유나이 티드
이 팅
▁연출 이
▁실 내
▁곳곳 에
독 한
▁통 째로
▁노선 은
▁변 해
▁대전 차
▁영 양
▁깔 아
▁시 골
쉬 를
0년 )

화 에선
민 과
마 니아
▁고 소
▁양 자
▁시작 되었다.
ST ER
두 로
제 르
▁사용 자
▁뜨 는
두 의
▁제 노
▁2 .5
- R
다" 라는
에 너
▁잊 지
경 력
.0 8
▁움직 임
▁신 선
두 가
▁들 지
▁선 사
al k
수 .
▁티 어
금 융
▁아 까
▁히 든
▁시 에는
ic a
▁조 차
▁왕 복
▁모델 은
히 토

 네
▁인 사를
▁2 주
▁사용 해서
▁w idth
▁날 ,
▁자료 를
▁입 주
▁사용 시
▁후반 부에
t r
마 일
전 도

 K
▁총 독
▁연결 되어
▁퇴 각
▁난 다.
▁없었 다고
▁되어 야
▁삼국 지
▁돌아 갈
▁옵션 이

 리
o ot
▁위 엄
▁딸 이
▁히어로 즈
▁잠수 함
▁브 래
현 과
▁피 하기
▁대 면
▁되돌 아
▁강 릉
릴 라
▁곳 이다.
▁이번 에도
▁도 적
G E
▁증가 ,
▁마을 의
▁이해 가
▁201 0년대
▁A ll
▁다시 금
▁생긴 다.
▁이걸 로
▁나폴 레옹
▁매 각
▁멤버 들의
일 지도
▁벌 이는
▁우 라
▁스 핀
▁불리 한
▁버전 으로
▁크 라이
급 은
▁특 정한
▁아 시
▁발 각
공 으로
▁A d
노 미야
▁쪽 에서
▁힘들 다.

▁의 회
▁선발 로
▁버 텨
▁가 치를
▁부 숴
지 는데,
▁보여주 었다.

드 (
파 에
▁함 대
ing le
▁죽이 려
▁선수 들을
▁미국 과
▁결 투
▁아사 히
▁즐 길
기 :
▁C F
루 토
▁S U

 해
▁붙 는
▁사이 를
▁비판 이
▁검 토
▁명칭 을
5 )
▁죽 으면
환 은
한편 ,
계 와
▁바 른
e ed
▁여 타
▁몰 라
▁주의 할
▁필요 로
▁것 인데,
▁했 기
▁스카 우
" (
▁측 의
▁김 수
▁깨 끗
무 늬
▁J .
▁갇 혀
▁외 곽
▁덤 .
▁중 지
▁브 라이언
▁참 모
▁약속 을
▁인 격
▁맡 는
▁거 북
▁억 울
▁평 행
였 기에
▁있 다며
▁와 카
명 )
I R
▁패 널티
▁첫 째
▁식 량
▁낮 다.
차 게
경 상
시 작
▁대부분 을
▁스 탈
▁사 신
토 스
▁토 르
근 이
▁TV A

 강
▁놀 라운
▁다 이어
하 우스
천 사
▁편 은
▁A FC
▁레벨 을
적 이지
장 치
독 일의
▁O P
블 을
▁도시 철도
사 리
▁교 수

▁배우 이다.


▁앤 드
▁대통령 은
▁국가 가
▁본 다.
in al
▁마을 에
▁츠 바
▁밖 에서
▁치료 를
▁5 000
편 으로
▁어쩌 면
▁극단 적인

 난
▁주 제가
▁방송 에
아버 지
▁이 기고
현 실
▁날 뛰
성 에서
세 요.
▁발 탁
인민 공화국의
다 르
▁미국 이
▁ 잎
▁일본 이
▁급격 히
▁197 8년
한국 어
다' 라고
C E
▁황 제가
경 영
▁미션 을
▁기술 의
▁갔 다.
공 연
▁헷 갈
거 라
▁칼 리
▁허 가
두 를
▁남 게
▁방식 은
/ 1
▁타이밍 에
▁적 으로
▁재 학
" 라며
▁인 상을
▁그 릇
▁솔 직
됨 에
at or
▁저 는
▁즐 거
고 와
▁블 로
T R
▁ 쫒
▁종 결
▁포 획
정 신
▁토 큰
▁영화 는
칭 을
▁지나 가는
▁반 면에
▁트 라
▁캐 릭
▁얻 었다.
anchor (
N o

 후
▁병 력이
▁멍 청
~ 10
▁볼 트
▁되 겠
▁끔찍 한
크 레
▁성공 적으로
ou l
▁ 앰
▁불 쌍
▁특 기
▁신 사
▁많 지만
풍 의
▁바 꿨
▁폐지 된
▁노 력을
▁다운 로드
문 과
▁셔 틀
▁분노 한

1 .
건 은
금 의
▁의 사를
▁행동 이
▁시 게
베 트남
▁( 전
극 장
남 도의
▁못 했고,
2년 )

▁오 라
▁격 려
▁이루 는
▁존 중
▁주 행
플레이 어
▁목 적은
밴 드
▁스스로 를
▁돼 지
소 환
▁문 이
▁있 거나
▁영상 에서
▁됐 다.

km 2
▁매 체
몬 이
q ue
▁정 교
▁기 적
▁감 탄
▁돌 고
▁가능 할
량 에
족 은
▁곡 으로
4 2
▁해 치
▁조선 의
견 을
미 국의
▁발매 되었다.
▁약 혼
▁o h
▁노래 가
▁궤 도
▁코 스트
▁문제 점
▁속 한다.
방 은
훈 은
▁섞 여
모 노
▁실 드
로 이드
코 드
형 인
▁슬 픔
▁덤 .

▁미 노
▁프로 리그
타 케
▁선 을
▁양 이
▁꼬 리
▁여러 번
▁문제 의
▁베를 린
▁결정 적으로
▁자 원을
▁내 에서도
▁리그 의
▁탐 사
론 과
▁버 틸
▁방법 도
▁유 이
▁곁 에
▁제 9
▁오 를
▁토 오
▁케 빈
▁학생 들은
퍼 의
▁스 티브
세 포
패 스
한 다

▁지속 적인
▁로 즈
▁골 렘
▁초 콜릿
▁일 컫
▁- 5
▁그러나 ,
.0 4
▁이름 도
▁면 적은
당 으로
▁받았 다고
▁이르 러
▁없었 기
▁피 지컬
엘 의
▁방 을
▁얘 기가
하 ,
S C
자 원
진 

▁리 틀
▁두 는
문 제는
ast er
▁힘입 어
▁ 릭
▁버 섯
▁기 름
분 한
렐 라
▁인 해서
권 도
▁5 번
▁적절 히
보 컬
▁이외 에
▁싱 크로
▁자 제
사 라
▁자전 거
▁3 :
▁우 에
비 슷
▁발 명
▁높 아서
츠 카
▁코스 튬
▁전체 에
노 선
진 화
▁순 환
▁시작 하였다.
▁이 세
▁ 씻
보 에
트 넘
▁' 오
▁본 명은
▁과거 에는
▁그 해
! "
"
▁도 깨
▁편 이지만
▁머 신
재 는
청 년
▁명 시
▁트 윗
▁인물 은
▁피 의
▁도 서
▁와 타
▁킬 러
▁아 스카
▁라 인을
▁터 진
▁떨어 질
▁골 라
▁ 믹
절 이
▁
 이
니 카
▁인공 지능
▁안정 적으로
▁ 탕
▁권 한
▁ 샐
▁전라 북도
▁부 속
▁보 이스
▁자체 에
▁몰 살
▁이 태
▁5 %
어 .

▁지방 의
▁보 상을
▁마 피아
. "
"
▁그러 면서
▁활동 이
▁기사 단
▁나 이는
▁9 0년대
마 침
▁흰 색
▁에피소 드가
▁대 마
▁맞춰 서
▁특징 이다.

 토
니 에
전 선
▁빙 의
▁다 가가
▁트 래
▁세계 로
i um
▁최 악
▁담 배
▁마 찰
▁프로 레
▁목표 를
▁4 번째
▁임 진
▁앞 선
.0 9
▁김 유
▁그러 므로
다 닌
최 대
▁ >
▁원 조
군 에서
5 em"

리 노
▁라 스
▁토너 먼트
▁상 식
딜 이
▁챔피언스 리그
▁굉장 한
▁8 년
목 록
▁앨범 을
▁강 도
▁근 거리
▁배우
 대한민국의
▁결 론
▁ 으로
▁ 뻥
▁차지 했다.
▁뽑 을
▁자이언 츠
▁s o
▁발생 할
▁다큐 멘
▁모 인
▁ 룩
지 라도
▁바이 에른
에게 만
출연 


よ う
▁대 수
동 시
▁O ne
▁민주 주의
종 (
▁진행 할
병 기
▁경 력이

201 2년
▁때 만
▁군 의
▁굴 러
- -
페 이즈
▁주 니
▁따 르
▁인 연
▁( 대
C h
▁경찰 이
리 는데
B L
▁들어 가지
▁향 후
▁스 펠
▁그 들
▁남 동생
▁많 고,
▁C S
▁이 기는
▁1 :
on s
프 

▁발 레
처 가
▁200 4
▁나 눈
줬 다.
▁특징 .
편 은
▁디 펜
1년 )

▁상 하이
▁비 용이
▁하나 하나
▁세계 대전
받 게
▁존재 로
' re
” 

is e
▁선 포
D S
지 리
보 라
학년 도
▁시 마
▁필 립
▁점 수가
졌 는데,
▁보 낼
▁단 백
▁언젠 가
김 새
도 전
보 지
▁섬 의
▁전략 을
티 노
▁소프트 웨
▁아니 게
▁쓰러 진
▁깨 어나
경 (
▁고 립
▁초 상
▁여 파로
▁197 4년
심 에
▁끼 워
총 을
▁유 성
▁소 집
▁올라 왔
으니 ,
▁까다 로운
▁상 담
▁침 착
▁아닌 데
▁알 지
제 일
▁여 론이
▁아이 들이
▁모 드로
▁2 에서
채 로
▁사 다
▁남 매
▁나 이로
▁아직 까지
▁잉 여
함 .

스 틴
▁침 몰
▁받아 야
▁이 대로
▁빠 지는
▁갖 춰
▁별 명을
▁대결 을
▁ 뽀
쿠 로
I X
회 )
리 타
이 사
어 린
▁노 스
▁수상 한
임 의
친 다.

령 은
▁뿌 려
i en
물 과
▁메 이지
▁토 대로
구 성
▁스 쿼
▁성향 을
▁잡 몹
▁준 수
▁팀 에서
▁녹 아
사우 루
▁시리즈 는
그 로
▁애 국
▁승 인
▁유지 하는
▁버전 의
▁목 적이
▁이후로 도
op e
메 이트
▁박 성
우 스가
▁칼 로
B M
래 의
하 드
▁핑 크
a )

린 다는
▁짧 게
클 레
▁착 륙
파 ,
▁과 장
O O
▁바 라는
▁진지 하게
님 은
▁이 가
▁1 점
M BC
▁유 틸
▁나왔 을
아 닌
▁없 으나
▁경기 장
▁ 랑
녀 는

201 3년
▁깨닫 고
▁유닛 의
초 ,
▁잘 하는
지 사
▁터 트
▁h ave
▁ 룸
ivers ity
엔 터테인
▁이때 는
▁통틀 어
▁투 쟁
▁키 우
▁D ay
연 혁
▁공 부를
▁자 국
로봇 대전
▁별 개의
▁왜냐 하면
▁설정 상
▁색 이
▁미국 은
아 지
소 송
▁않 다고
▁회 색
▁감 상
▁원 시
▁ 얹
▁통 칭
▁크레 딧
▁디 즈니
▁깊 이
▁후 일
▁벌 레
쾌 한
▁사람
 대한민국의
념 을
투 아
▁197 2년
▁St ar
훈 ,
▁누구 나
▁전 담
▁ 옴
▁대 가
▁죽 는다.
▁시작 하여
▁올라 와
▁단독 으로
오 면
▁결승 전
▁무 대에
▁세 라
▁때 를
쪽 이
▁포함 하여
▁트 릭
A 의
부 키
▁예 쁘
▁약 을
▁잃어 버린
▁가 성
▁쓸 모
▁엉 덩
▁ 붐
미 에게
▁5 3
▁부 패
▁가져 가
▁마 땅
▁어 벤
▁엔터테인 먼트
▁기 묘한
l o
▁주 포
u al
쿠 가
▁영화 가
새 로운
▁여 우
범 이
▁하 시
▁시 대를
▁흥 미
어 에서
le t
▁유 산
9 6
▁드 릴
▁2 만
공 주
펙 트
조 정
탄 은
▁탈 취
▁소비 에
▁고등 학생
서 

▁땅 볼
▁있 음에도
▁이상 하게
▁항목 을
an s
▁치 고는
신 인
졌 기
삼 진
카 드를
▁드러 내
▁심각 하게
하 세요
었 다면
▁7 2
▁드물 게
▁안 경
▁ 혀
▁다 케
ing s
▁소련 의
▁치 즈
▁포 수
▁탄 창
▁운영 을
시켰 다.

▁ 껍
▁못 했
▁증가 

▁ 씬
▁방식 의
소 (
▁경 성
▁능력 도
▁무난 한
▁히 비
각 의
집 에서
미 술
▁몬스터 의
▁모 에
프 스
다 라는
▁중 장
▁입 지
▁승 차
▁끔 살
▁3 개월
▁오 고
▁양 손
▁육 체
화 )

▁가 졌다.
▁상대로 는
▁꺾 고
▁미 쳐
했을 때
▁집 필
▁I s
▁모양 이
▁ 솟
▁소 중
▁키 를
작 에
▁팀 으로
▁조금 이라도
▁불렀 다.
▁정류 장
감 염
치 킨
병 ,
킬 을
▁안 녕
▁메카 닉
나 ?
sp an
엘 이
▁이 원
▁스 텝
ん だ
.
 (
▁제 치고
▁뿐 더러
피 는
▁거 지
▁항공 모
▁좌 측
▁197 5년
▁ out
▁거 인
▁대회 에
례 로
▁무 용
▁한 데,
버 를
스 퍼
훈 을
▁주 교
▁활용 할
▁차량 은
▁하여 금
▁이 윤
▁하 급
가 드
▁폭 로
▁휩 쓸
▁경 연
▁히 메
▁천 문
▁찬 성
▁있어서 는
녀 를
▁악 마의
았 으나
▁과 정이
▁뉴 질
▁포 스터
:1 로
▁트위 치
딩 을
▁라 며
진 행
하고 도
E O
즈 에서
▁ 떴
▁따라 서는
디 와
상 가
▁생각 하지
▁실 용
무 로
▁저작 권
아 머
▁시작 하면
명 인
▁고 르
▁큐 브
▁인 쇄
▁친 일
) 인
▁7 00
▁해 에
따 라
희 를
▁발 키
▁신 학
▁배 차
▁높 여
▁표 면
▁청 주
▁만들 었다.

▁점 에
▁유니 크
▁성격 은
> ,
▁ 펴
at er
' 이라
▁두 개
층 을
▁200 5
▁뜨 거운
조 한
이었 으며
▁안 고
들 한테
▁미 키
▁D C
▁ 읍
오 자
200 0년
타 워
▁높 을
▁위해 선
▁연 간
▁착 한
▁잊 혀
▁정치 인

▁재능 을
▁남 동
L S
브 레
▁한국 시리즈
▁없어 도
로 윈
▁200 2
▁되었 던
▁새 겨
▁중 소
▁거짓 말을
듯 .

▁공 감
▁뜻 이다.
▁하루 에
▁197 7년
량 도
▁반 전
▁자 칭
▁구 름
보 험
▁고 지
▁이전 까지
겁 게
불 을
▁어렵 게
지 거나
ne w
라 (
유 튜브
▁선 행
즈 카
▁수 급
▁수수 께끼
▁법 을
▁아르 바
▁일행 과
오 른
▁자유 한국
▁토 니
▁어드벤 처
업 에
▁의 학
▁1일 :
▁보 스가
음 반
▁역사 적
가 루
a ir
업 체
▁9 시
네 ,
▁유럽 의
면 (
▁S .
▁사항 은
▁이루 고
▁스트 리트
들 여
▁세 번째
▁하 단
▁한 다

▁점 과
▁안 겨
이 센
▁ 뱃
▁좌 익
▁그러 니
인데 다가
꺼 번에
▁직전 까지
▁시 범
세계 의
▁프 론
▁3 가지
볼 넷
▁배경 이
혼 의
▁형 편
▁정리 한
▁같은 데
( 전
▁회 차
▁황 태
T h
▁후 방
.
그 러나
▁주 문을
▁앨 리스
아이 돌
▁계 정
초 부터
▁해 머
▁해 소
▁즈 음
▁다 닐
▁않을 까
▁시 정
ol le
▁바이 러스
▁뭐 가
레 인지
▁적 다.
▁주 제로
▁엔딩 을
▁혼 합
▁서울 시
느 니
▁주 인이
히 기
▁우 루
▁지 혜
았 는데
▁좋 다는
관 계가
▁불 만이
우 

▁전 인
▁속 성이
▁되었 지만
▁써 도
랄 한
F L
▁조합 이
프로 듀
▁차지 한
소 드
크 루
▁할 인
▁높 이는
in '
트 레
무 지
▁숨 을
in s
▁전통 적인
하 다며
▁흐 르는
사 격
▁깔끔 하게
한 국의
▁보여 줄
▁크리스 티
▁속 도는
▁저 주를
컴 퓨
▁카 카오
▁암 시
적 도
▁병 행
▁축구 선수
ie w
I L
하기 까지
▁무료 로
루 션
숭 이
▁측면 에서
▁3 ~4
▁태 클
▁ 팰
살 인
▁시 종
▁선수 들
▁뻔 한
트 (
▁곤 충
내 의
실 점을
▁안 된

 남
다 보면
▁D PS
▁다루 고
▁방 위
요 리
호 쿠
▁단 어가
사 들이
▁이 현
▁고 증
▁1 호선
는지 ,
▁개최 된
C .
▁레 일
세 와
▁병 과
▁제목 으로
▁내려 가
▁표현 이
~ 20
듯 .
▁안타 깝
▁불 어
し た
▁6 회
4 1
▁닌 텐도
▁의 원이
▁B S
▁부탁 을
▁목 걸
▁실 점
▁플 라스
적 에
▁보여주 지
우 에게
책 이
상 승
▁학생 들의
▁니 가
▁한 꺼번에
▁플레이 할
▁ ↓
▁비교 해
▁상태 였다.
▁생 체
고 

▁시작 해서
% )
다 크
소 방
▁그 거
▁이벤 트로
▁공 이
▁( G
▁패턴 은
년 이
▁메 이드
코 에게
공격 력
▁타이밍 을
▁이 익
▁신 나게
▁보스 턴
▁섭 취
택 이
▁' 마
▁왼 손
▁순 간에
▁압 권
b an
편 성
▁진 실
▁웃 음
▁일본 에서는
▁가능 하다는
▁손 상
▁연 타
▁197 6년
용 ,
▁음 료
▁8 회
▁까 는
시 카
▁일 곱
▁특 화
▁위험 이
▁겪 은
▁ 쵸
클 린
▁ 쫄
▁얼 티
▁O p
▁이 빨
쪽 에서
▁비판 하는
▁지도 자
。 

▁선 박
▁이 럴
▁ z
▁20 세기
족 으로
▁오 렌
년 의
담 당
액 을
토 르
▁열 매
▁적 힌
in a
▁실제로 도
▁아니 며,
▁일 람
p ic
▁아닐 까
~ 

무 스
1년 에
▁오 르는
▁태 워
- align
환 ,
▁보 이며,
좋 게
▁마 오
▁포 착
▁학 술
▁특 화된
▁대 의
▁학생 이
▁네 티즌
이나 마
▁ 中
▁낚 시
아이 템
▁ 엽
나가 와
치 

▁주 저
-2 1
▁V ol
▁히로 시마
들 어가
▁순서 대로
▁히 토
형 제
▁오 케
▁저렴 한
▁공 원
▁검은 색
▁실 력은
인가 ?
▁초 과
▁김 승
▁도망 가
디 자인
쓰 는
▁김 포
▁싸우 고
하였 던
대 륙
▁상황 이다.

하 다.
이
▁조 치를
하 와
▁관 리를
▁높 지
▁애 완
▁ 탭
▁되 지만,
▁나뉘 어
▁실 려
▁영웅 이
K O
▁거기 다가
▁기간 이
▁포 장
▁당 신은
}}}} }}
▁강 간
.1 5
▁w as
커 로
▁장 본
수 용
크로 스
▁부 드러
▁다이아 몬드
▁날카 로운
▁부 끄러
▁능 가
이었 기에
▁반대 하는
▁통 하지
▁ 깐
▁공간 이
▁가 챠
▁정도 만
▁헬 멧
▁피 난
▁마케 팅
리아 ,
사실 상
▁싱 어
술 이
▁ 닐
장 :
▁적 고
▁불가능 하다.

▁ 꾀
6 )
▁중요 하다.
미 스
▁E D
졌 으며
▁사이 로
▁누 르고
fr ac
▁믿 지
▁점 .
▁뛰 어들
7 9
또한 ,
▁개념 을
▁1 5년
▁운행 하는
▁미래 의
판 매
▁오 이
oug h
▁D NA
re s
▁행정 구역
▁되었 는데
공 에
▁대다 수의
▁카 테
▁이후 부터
8 00
▁연 락을
▁하 마
▁출 혈
더니 ,
▁여 긴
▁그려 진
준 은
▁도 요
▁식 품
▁되 니
▁검 열
▁b l
▁게이지 가
▁소 수의
▁MA X
▁비 공식
▁찔 러
메 르
▁공 용
▁사용 되고
원 인
▁196 9년
color :
-1 1
▁들어 ,
▁포 탈
골 드
폭 력
▁망 명
▁시즌 에는
▁영화 배우
올 라
▁뒤 의
쿠 의
▁선 진
201 8
▁쓰 기도
200 2년
▁보 드
▁일반 인
▁V er
▁어머니 를
▁중화 인민공화국
▁은 폐
▁현 상을
▁에 밀
▁신 중
국 

공 동
▁이 별
▁플 랜
▁아 유
▁레이 싱
4 

해 방
▁어그 로
가 미
▁3 .
▁쏘 아
▁말 았
특별 자치
▁앨 런
분 명
▁안 된다.
▁중 부
▁에 이지
▁감 동
▁용 암
여담 이지만
▁암 호
▁경기 력을
▁사 투
201 9
▁고려 하면
8 3
▁감옥 에
▁나들 목
▁모 종의
앤젤 레스
▁시험 을
▁1 일,
▁선택 을
▁근처 에서
4 3
▁보 스를
▁5 천
- T
회 (
▁모티브 는
▁멤버 들
중 이다.
▁맥 스
풍 이
▁제목 은
뉴 욕
▁동맹 을
> 

준 ,
▁잦 은
▁단행 본
▁발 음이
▁감 각
》 를
▁변 태
▁연 혁
▁저 렇게
▁19 세기
B N
▁신 부
▁충격 적인
U M
▁좋아 한다.
▁스피 릿
▁밀어 붙
▁소 득
▁주 거
▁무언 가를
▁몸 으로
련 을
어 찌
이 다

▁사용 을
v en
한 ,
하자 는
오 게
▁ un
▁마 산
▁공 인
▁전 당
▁급 속
▁좋 지만
▁매 출
▁공격 적인
ん な
▁부 대를

 197
맨 은
▁현재 도
▁0 .7
F M
▁배 울
▁등장 해
결 혼
▁중 력
▁196 3년
▁구축 함
버 가
▁입 원
▁힐 러
오 토
▁코스 프레
▁자 를
▁무 슬
▁성공 을
치고 는
▁지 구를
▁불 의
▁했 다가
▁이동 할
기 병
링 은
▁일 요일
▁중 거리
▁슬 퍼
▁원 로
▁했 었다.
▁8 ,
▁적 들이
▁잠 실
▁6 시
▁들어가 게
되었 다.
이
▁I 'm
▁센 트
▁재 단
▁O S
▁L a
▁스테 이
▁비 로
▁눈 앞
es ,
▁' 사
▁없 기에
▁식 사
~ 9
い て
왕 과
▁실 린
니 스트
▁플래 시
▁S er
▁재 산
▁제 10
▁돌아 간
▁것 에서
▁입 사
▁버 렸
▁특징 은
▁거 뒀
▁경찰 에
▁살 게
계 ,
▁확 립
E W
▁결국 은
▁야마 토
주 자
장 에게
▁멤버 들은
▁화 재
▁서 클
▁폴 리
▁넘 쳐
안 으로
▁상 을
▁수 천
▁196 8년
▁어려 움
▁간단 하게
ackground: #
▁모스크 바
▁ 슌
▁사라 지는
▁데 이트
▁ 탔
▁여기 저기
▁않 으니
▁몰 고
is m
▁리처 드
평 균
▁진 격
코 로
▁평 상
▁3 0년
▁어 설
▁팔 레
▁컨 디션
▁오 게
▁재 사용
▁마음 의
▁종 로
▁미사 일을
했 습니다.
▁상 무
▁안 보
▁부담 이
▁공 정
▁비슷 하다.

2 회
▁결과 ,
▁모양 으로
▁2 집
언 제
▁이동 하는
▁(M BC
기본 적으로
.. ....

도 라
r ag
배 의
L B
되 지만,
▁소 통
하 로
▁봐 서
▁오 퍼
▁로 렌
▁덱 을
▁생겼 다.

해 볼
차 원
포 드
▁레인 저
▁가깝 다.

▁썬 더
바야 시
쿠 스
▁용 산
ro p
▁저 글
▁화 폐
▁위해 ,
▁막 혀
▁지 위를
▁장착 한
합 을
▁살인 사건
▁상 주
▁6 7
▁그려 져
▁ 퍽
바 시
▁반 지
▁두 번
▁영상 

▁좀 더
▁중 견
▁받았 던
▁집 계
▁병 기
치 료
▁있 다(
▁가족 을
▁건 립
▁7 시
타 고
레이 트
▁수준 은
광역 시의
구 장
차 이즈
▁아 픈
▁밀 고
▁보여주 면서
광 고
우 드
파 라
▁카 리스
견 이
▁무 자
▁거 리에
혁 이
▁예 수
▁기 소
자 세한
목 에
두 에
▁성 직
▁우 스
▁예 시
▁N BA
▁예정 이다.
▁면 허
▁일 정한
▁유 비
▁ 굶
▁블 리자
▁경제 적
우 로
▁하 라
▁매 드
때 마다
▁보 자
▁구 동
E L
▁취 업
우 스는
카 나
▁득 점을
▁남 지
▁피 에
▁등장 했다.

% ),
로서 ,
▁무엇 을
▁15 00
▁학교 의
▁스 매
▁그렇 기에
공 은
텐 데
▁돌아 올
제 에서
할 만한
▁모 의
▁디자이 너
▁많 다는
▁I C
▁인 벤
▁기 껏
▁개 명
▁분 홍
▁( 아
▁쳐 다
▁포 도
골 로
▁주 입
▁쓰 이지
▁트럼 프
》 은
카 타
있 지
▁못 지
▁당 대
경 기도
▁전 과
▁퍼 스트
▁작품 에서
▁관계 없이
▁의도 적으로
등 으로
▁원 년
카 게
▁피 어
" 에
▁진 에
▁네임 드
▁다 리가
1 회
▁주인공 에게

 구
▁피 규
an na
▁O VA
▁갖 다
▁개 가
서 스
▁8 시
▁통 솔
▁아 비
( 제
대 고
목 적
▁이 행
타 인
명 이다.
▁보호 막
▁자 란
▁선수 들은
▁악 명
▁씨 앗
채 를
▁중 대
▁이름 에
▁검 증
▁수 술을
질 에
학 회
▁종 영
P 를
해 에
▁애 쉬
▁하 므로
▁카드 .
▁시작 했고,
▁듣 지
출연

 주연
▁맞추 는
▁드 루
▁상황 에서도
( 대
있 어서
▁2 호
▁동 북
▁25 %
▁들 었다.
▁갈 색
V .
▁흡 사
▁스코 틀랜드
▁갔 다가
▁보라 색
▁발견 하고
▁( 18
▁등장 하며
bl ue
▁ 땡
▁하 쿠
▁히 가시
▁담당 하고
출 판
▁탓 인지
▁힘 의
▁7 회
▁주인공 과
▁불구 하고,
▁파 츠
▁담 고
▁데 빌
▁것이 며
)

 같이
▁아가 씨
론 ,
▁감 추
▁병 원에
술 의
사 전
▁ 퀘
▁에 로
▁막 강한
연구 소
이 (
II I
▁이 어가
▁신 데
▁곡 이다.
추 천
▁불 린
▁탐 색
▁갱 신
▁고 아
▁G u
▁진출 에
▁스 노우
) 까지

201 0년
▁섞 어
금 지
▁고 성능
▁9 회
▁게임 으로
▁표 정이
▁기재 된

 '
으 려면
리 츠
존 하는
▁대해 선
▁그리 핀
미 즈
▁여 담
리아 와
▁있다.
 다만
▁문제 도
▁중국 에서
▁출신 인
▁조선 민주주의
▁꿈 꾸
머 리를
y e
▁와중 에도
▁멈 춰
4 00
▁도 우
▁미 라
t on
▁이야 기도
▁선호 하는
( U
경 과
▁G O
문 에서
그 마
▁당 초

미 국
▁모두 에게
▁오 죽
▁이 그
종 교
▁절 벽
▁근거 로
▁찍 을
▁무언 가
▁조 상
▁두 루
▁종류 가
▁그레이 트
▁아 스트
▁향 하는
성 인
▁제 약
▁길 에
배 로
▁암 컷
귀 를
시간 은
▁모 아서
▁웬 만
-align :
▁메 디
▁실험 을
▁노 조
▁10 시
▁그렇 기
▁유 동
▁디 바
( The
자 체
▁명 은
열 에
200 3년
잉글 랜드의
군 단
▁루 나
▁이 진
▁것 들을
▁덕 분
.
 하지만
( !)
▁이 브
▁전반 적인
▁법 적
▁이 라크
▁재 앙
▁오 류가
▁아버지 인
▁근처 의
▁포지션 을
름 은
미 아
유 희
▁알아 차
▁눈 동
달 의
▁[math( \
+ X
풀 이
▁망 설
▁재 장전
▁터 지는
▁남 학생
▁리 스트
▁철저 하게
이라 이트
▁B J
▁라 스트
▁벌 써
▁안습 한
▁만큼 ,
▁포 로
났 다.

니 스탄
하 신
가능 한
유 저
▁지 식을
r m
▁' 신
d er
▁자 율
통 일
▁엔 드
) 이라
▁리 오
리스 타
▁소속 된
▁썼 다.
▁낙 선
▁이 노
▁카 지
r it
직 에
▁캐 치

 호
널 드
▁열 차가
▁표 절
▁성격 으로
크 에
▁카드 .

더 블
▁김 두
▁에 도
여 야
싱 글
▁감독 

▁모 드가
▁혼 혈
▁W h
▁벗 어난
' 이란
▁보 냈다.
▁부 천
활 약
▁비행 기
레 는
▁위 상
▁스포 일러
만 도
주의 자
▁오 우
▁단 발
▁미국 으로
▁국 토
▁필요 할
해 군
▁매 그
프레 임
▁노 릇
삼국 지
리에 이션
수 학
▁정 원
▁목소 리로
▁추 리
▁되어 버린
▁그 리는
▁ 썸
주 택
▁아마 추어
▁세 레
연 은
▁장 신
▁토 트넘
▁유저 들
▁능력 과
참 모
▁문 장
▁유 언
▁' 나
▁생 김새
시키 고,
▁사 정이
▁허 리
▁남 자의
▁데려 가
▁출 산
서 양
한 지
주의 적

 여
r en
)
 "
▁재미 있는
▁width :
벌 을
▁여기 에서
▁( N
▁주변 을
▁라이 언
▁짝 사랑
▁모 음
▁맺 고
▁드립 을
결 정
파 리
▁n ow
▁19 20년
▁시 ,
▁호 응
▁사망 자도
▁일단 은
▁서포 트
후 쿠
오 면서
s v
▁받았 고,
6 00
▁북 서
▁의미 한다.

본 다.
▁만 능
청 이
▁프 랭크
▁미국 에
. 10
십 자
▁설명 하는
외 에도
" 으로
▁키 라
▁찾 아서
▁얻 지
학 부
▁1 px
▁제 라
▁빌 보드
▁활약 으로
▁면 도
종 으로
▁나 라가
▁점 멸
▁찰 스
▁아스 날
▁잡 힌
▁찾아 와
▁쳐 서
▁( W
▁광 산
▁적용 되는
유 로
락 의
건 ,
격 투
시 기
▁' 고
▁객 관
▁만나 고
▁대 외
족 과
▁애 용
▁체 인지
▁간접 적으로
▁시 켰
▁아 레나
▁독 보
( 7
무 쌍
블 러
포 ,
▁사용 했다.
거 는
칭 으로
▁경 향
▁묘 하게
▁알려 졌다.
▁방사 능
▁청 나라
▁1 편
▁U p
▁' 어
▁여 자를
▁고 고
▁클 론
D D
들이 다.

▁협 상
대 결
▁소 음
▁들어 갔다.
os s
▁커맨 드
▁입 에
▁마 스
▁추 세
▁동성 애
▁주인공 으로
▁관광 객
5 7
누 가
정 지
법 과
▁불 참
▁성 씨
▁직 선
▁수 업을
▁걸 리
가 인
▁6 8
▁정도 에
▁턴 에
때 도
졌 는데
▁+ 10
▁출시 되었다.

 본
▁인간 과
▁강 림
▁작품 으로
▁신 을
이다 보니
▁전 력이
▁무효 화
▁ 톨
▁오 다
▁내 셔널
'' '
▁아니 며
▁시 크
▁일본 군
▁틀 린
▁듣 는다.
en er
▁희망 을
프란 시스코
구 도
우 스를
▁동 아시아
▁ 핏
▁버 릴
▁연예 인
▁싶 어서
▁일 조
a u
▁사 회의
▁상태 이상
e ep
o le
▁생 태
▁A N
▁공중 에서
▁승 려
y s
▁읽 고
▁뿐 이지
▁신 축
쓰 고
▁말 해서
▁시 외
C S
스 나
▁스페 인의
식 품
▁일어나 지
▁오 메가
▁걸 친
▁섬 에
▁보 이기
▁논란 을
▁명 으로
스페 인
▁데 모
▁캐릭터 들의
ち ゃ
c k
카 

▁이 도
▁아 슬
▁축 복
발 전
▁미 치는
수 라
▁확 신
측 의
서 비스
▁식 당
▁남 한
▁하필 이면
▁정신 적
▁각 자의
▁필요 없
▁김 병
.1 8
▁3 분
▁간 파
▁한국 은
) ’
▁내 며
▁배 구
지 지만
▁졸업 식
▁토 크
▁토 요일
▁ 헥
버 스가
▁강 호
▁ 뺨
▁페르 시아
포 켓몬
▁가 사를
유 니
▁여 태
▁아 자
▁ 랄
▁완벽 히
▁원래 의
▁2 개를
▁회 사가
▁ ☆
▁안전 하게
티 는
▁사실 이다.
o ver
▁통 화
▁하였 고,
▁섀 도우
당 연히
▁감 이
▁와이 번
5 6
▁황 후
▁I N
▁청 춘
랑 은
▁본 능
▁바 닷
▁버 리
▁아 랫
▁다 이스
▁여 부를
▁사과 를
▁방송 이
▁작 고
▁국내 에서

 박
린 ,
▁취 재
▁출 동
▁할아버 지
▁17 0
▁ 껴
▁필 사
파 인
▁장 탄
▁ 낯
고 에서
연 ,
▁것 이나
▁워 크래프트
▁사 우스
▁박 진
▁준 결승
▁사람 들과
청 의
▁등장 은
▁어 긋
▁심 해
K T
▁화 해
프로 그램
▁수 장
( s
▁[ [
▁결 정을
▁상대 하는
론 에
▁에 어로
▁I II
ext -align:
c he
▁발 급
▁특 급
le ss
▁도 는
▁유명 하다.

▁놀 랍
게 는
▁권 한을
▁동 아리
m p
ut ion
▁꼬 마
▁미 소

201 1년
▁전 염
▁고 블린
▁탐 정
면 은
ar l
▁떨어 지고
▁그 대
▁A nd
▁멘 붕
▁진출 을
▁키 타
▁민 폐
리 /
바이 러스
▁개 장
▁전 수
▁날 린
▁않 던
▁키 요
▁없었 을
▁싱가 포르
▁상 냥
렸 지만
▁웨 이
문 ,
▁좌 석
こ の
토 

▁록 맨
▁앞 세
▁언급 을
▁아름 다
테 스트
▁공격 의
▁동일 하다.
▁지 내는
▁나 기
출 신
▁공식 적인
▁보 았
3 의
▁눈 으로
k r
▁ 얄
▁만 루
▁있 겠지만
▁재 임
yst em
▁성격 의
▁디 렉
▁고 맙
▁줄 여서
▁맵 을
물 ,
꾸 로
명 :
▁요 금
▁( KBS
▁해 준다.
▁ 뚱
ar i
▁대 법
▁초기 화
우 (
고 생
포 와
해 버린
▁박 아
▁예 약
산 화
▁달 의
▁간 다.

▁20 2
▁제1 회
해 선
▁비밀 을
▁관계 에
▁근 로
▁부 실
아 스
▁보 러
▁후 인
▁피 카
강 이
▁받 으면서
▁추 모
▁W indows

 연
▁생각 에
▁15 %
▁항공 기
▁이 라
▁입 구
▁멀 어
▁등 .

게 임을
▁이 광
▁불 린다.

▁죽 었
년 도
순 환
▁삼 고
▁무서 워
▁미 성
▁오버 워치
▁모션 이
▁주 무
▁나 서는
▁핀 란드
▁ 퀵
▁부분 도
▁빌 딩

 로
▁방어 력을
▁전 대
▁띄 워
▁발사 하는
▁ 펭
제 국의
▁현 대의
▁인류 의
겨 울
카 스
▁5 대
▁20 21
례 가
모 션
지 니어
▁노 란
북 도의
이 에게
인 드
▁전 제
▁신 생
▁상대 하기
▁신경쓰 지
▁않았 지만,
플 릿
▁역 습
기 면서
중 심
▁성 의
▁건국 훈장
( 고
▁마드리 드
바 위
▁스 컬
데 르
▁약 점이
▁속 성을

 알
▁성 사
▁등장 .

▁고 집
▁작 가는
때 까지
▁방 에서
▁신 한
▁한 계를
▁랜덤 으로
▁ ver
▁차 이나
▁안 젤
▁작 아
▁많 았던
▁복 사
▁카 네
▁12월 에
▁두 꺼
하였 지만
▁움직 이지
▁인 생을
▁E N
▁후반 기
테 라
클 릭
▁탐 지
▁실패 하고
▁모양 이다.

○ ○
▁단 기
▁그렇 듯
▁이벤트 에서
▁오른 손
▁버 스를
▁I M
ub l
베 리아
▁m m
▁살해 당
▁비중 을
▁대학 생
수 수
▁실 사
▁북 동
▁팬 이
▁탈 환
▁빌 리
부 지
ig ital
▁사라 진다.
▁상위 권
홍 콩
▁까다 롭
http:// www.
▁소 꿉
it ch
▁띄 는
우 리는
▁뛰 고
▁딜 이
0000 00
▁차 로
▁출연 했다.
▁공화 국의
( 사
▁ 툭
군 주
▁대 피
증 으로
▁창 을
▁후쿠 오카
▁캐 시
▁후 유
am es
호 에게
▁내 지는
▁백 제
▁18 4
▁11 시
▁과 격
▁벤 치
▁잊 어
만큼 의
▁여 유가
▁급 행
▁196 7년
선 

▁후술 할
▁사 와
▁g et
데 뷔
▁원래 대로
▁창 의
▁2 분
!! !

롭게 도
▁전성 기
▁범 위를
▁노래 는
▁일어났 다.
8 )
백 으로
▁수 비를
ra in
▁성 장을
▁따라 잡
국 (
주의 의
티 콘
봉 을
덕 션
도 어
▁모 임
▁표 정
크 

▁t r
▁사 임
그 림
▁격 퇴
▁학 사
▁분 당
▁맡 았던
▁인정 하고
▁하나 에
▁나오 지만
▁키 우는
▁탁 월
▁업그레이 드를
▁다 짐
▁설정 은
▁3 60
▁못 했고
▁스카 웃
▁무 쌍
▁만든 다.

게 ,
▁하였 으나
align =
왕 후
▁예 방
지 던
▁중 동
▁테 츠
▁3 층
▁캐릭터 인
▁ 텔
こ と
이 치로
▁제국 이
▁올 해
▁멸 종
작 용
▁실패 로
▁사 전에
▁C .
▁거 점
▁함 수
镇 ,
본 이
저 래
승 리
▁않았 다면
▁쪽 을
▁엘 레
▁화살 을
▁장 성
▁지 시를
▁계 단
’ s
학 기
▁

 197
▁올라 갔
참 조
▁머 무
검 의
▁해 군의
▁아르 메
y pe
▁무 궁
) 이다.


▁사무 라이
▁샘 플
으 신
▁발 목을
▁정 석
▁김 선
▁들 키
여 ,
▁원 인은
데스 리가
▁그룹 의
▁B R
▁정도 다.

▁느끼 게
▁캠 프
▁연 달아
▁표 지
승 으로
▁6 3
▁스타 일의
▁유망 주
▁손 자
▁무 죄
▁무너 뜨
수 :
▁수 컷
▁시 바
▁내 뱉
( 가
▁ 갯
D P
▁선 의
▁노 는
▁초 인
S M
▁은 메달
B T
▁타이 탄
▁만나 서
! "라고
▁아 담
▁아 일
▁자체 적으로
▁손 해를
▁크로 아
▁시 기가
▁on e
▁양 반
모 어
진 한
무 한
▁스 즈키
류 에
▁신 발
모 스
▁시작 하면서
▁나 란히
▁무 신
▁항 해
▁연구 소
▁배 웠
▁계 략
▁가깝 게
▁청 구
▁기준 으로는
▁떼 어
▁무엇 보다도
▁등 )
▁자신 들을
st r
▁모른 다는
플 러스
▁디스 플레이
있 다는
규 칙
▁김 윤
▁" 어
▁올라 오는
주 군
진 짜
▁주 술
▁타 운
▁모델 을
비 

▁( ...
▁195 0년
해 왔
▁유 연
▁다시 는
다.
그 러
▁증가 한다.
es e
▁어 나
▁시작 부터
▁조 립
▁P P
▁그렇 다
▁대회 를
▁졸업 

▁자 아
▁' 자
▁사용 하며
▁권 리를
▁인 재
▁패 스를
▁판매 하는
▁마 력을
▁금 강
▁에드 워드
내 면
▁전 장
▁않 자
▁알 기
▁수록 되어
▁김 주
▁도 모
▁배 역
▁있어서 ,
▁의 정부
▁인 조
▁N ight
오 스트
따 라서
빌 딩
▁차량 의
▁맛 을
▁테이 블
▁일제 강점
▁재 미를
▁친구 인
▁담 겨
▁행동 에
폴 리스
▁의혹 이
▁아 군을
.
 전
▁19 19년
▁때문 이었다.
▁쓰 이고
해 

▁이명 박
▁훼 손
▁노 인
▁마 일
▁힘 에
▁먹 지
▁선수 이다.
▁오 가
▁제품 을
▁마 지
▁말고 도
▁Un iversity
.O .
습니 다
▁역 은
▁아이 의
▁C H
황 을
▁시 선을
▁20 분
▁이름 과
모 와
버리 고,
▁찢 어
▁다 투
▁박 탈
▁자 리가
정 말
▁배 터
▁베이스 볼
▁갈 등이
▁무시 할
다 간
f orm
▁학생 들을
패 가
▁몇 번
▁열 대
▁ 얌
▁동 메달
▁호 러
▁보이 게
▁영화 에
빈 이
▁괴 수
▁짓 고
▁종 사
▁만들 었
▁원 수
오 니
▁감 금
▁구 상
▁드 워
울 산
▁충청 북도
▁( 193
▁흡혈 귀
7 )
▁왕 조의
▁발표 된
▁인정 하는
료 가
▁P K
▁해당 되는
▁연습 을
▁삼 촌
▁상대 방을
▁후보 에
▁따 서
▁자유 를
▁골 프
판 에선
▁노 바
▁드 로우
▁메시 지를
▁손 잡
기 구
▁스킬 .
▁마을 에서
▁가면 을
▁이리 저리
▁스 릴
▁고 발
▁사랑 에
▁하면 ,
▁불안 한
▁소 원을
▁2 경기
▁가 이드
▁생 명을
미 지
( 중
▁군 수
▁이용 하면
▁보 스로
9 )
▁선거 구
테 

▁유 한
▁얼 어
▁승리 한
산 동
점 과
▁찾 으러
▁t vN
▁ —
▁내 부에서
▁돌 리는
▁갈 등을
키 

▁통 하는
▁코 파
뚱 한
▁무 색
▁죽 이지
▁졸업 생
▁전 임
▁밝혀 지지
▁겪 고
▁등 재
ad y
b r
▁인간 은
▁주 자
▁우 두
▁평소 에
▁오 세
▁만 렙
구 니
▁본 부
▁입 장이
▁가족 이
▁소속 되어
조 작
▁청와 대
원 들은
시 드
천 이
▁의 아
순 히
▁구 형
거 지
▁기 지를
▁3월 에
▁몰아 넣
▁힘 은
▁광 복
▁들 었
▁이외 에는
▁낫 다.
▁방 언
▁터 보
▁재 위
▁웃 음을
▁스탠 드
bl ock
し い
팀 에
룡 이
터 

물 리
연 방
함 ,
판 ,
마 리를
▁그 보다
▁장 로
장 군
▁주 머니
공 산
▁나 비
▁부분 의
테 의
▁넘어 갈
▁D R
▁대기 업
▁남 겼다.
▁찬 양
▁D ream
▁관리 하는
' ll
▁마 유
▁명중 률
で も
팩 트
all y
▁구체 적인
▁시 트
▁무 늬
▁원작 과
▁피해 량이
▁N HK
▁장 미
▁활동 한
▁세 우고
▁정규 시즌
▁둘이 서
직 업
▁인정 하지
▁버 전을
▁이름 만
▁김 광
▁적극 적인
▁박 영
▁갈 리는
▁가로 막
▁1 턴
류 ,
팀 인
▁스 텟
▁ 맑
▁상황 이라
▁걷 어
▁게 르
▁거 다.
▁농 민
커 와
▁스 윙
랑 을
▁흉 내
▁구 하는
▁말 하지
▁중 이던
▁직 행
▁선 동
▁소 스
sv g
▁지 을
▁남 양
▁상태 이
네 이션
달 이
▁마 저
▁동 년
▁극 한
( 일
▁그 후

 초

 바
▁E BS
P h
▁ 앗
▁자 책
▁제 니
문 서
▁번 이나
▁운 명
▁거주 하는
무 대
▁배 터리
▁능력 에
▁ am
▁인 지도
▁구매 할
▁걸 릴
▁바뀐 다.
▁않 음
차 ,
통 에
▁a b
▁말 고는
▁레이 스
슨 을
▁아르헨티 나
영 국의
테 오
G 의
▁노 골
운 행
키 스
포 머
▁오페 라
▁텐 데
▁결과 로
▁기능 은
재 ,
편 집
요 가
▁목 이
북 한
-1 4
▁적용 된
▁독자 적인
책 임
처 의
▁중앙 에
▁사 사
▁강 렬한
어 (
▁생각 한다.
▁고 장
▁T 1
▁플레이 하는
▁마 우스
▁치열 한
▁모 욕
▁한국 과
우주 연
▁10 5
▁호 감을
▁트 러
▁복 선
토 에게
년 간
▁수 치를
멸 의
▁변경 

수 아
평 화
▁ 낸다.
하였 는데
▁폼 이
▁-5 px
중 이다.

탕 을
▁한 양
▁인 원이
▁사라 졌다.
▁3 기
▁날 에
▁이용 객
사 이어
지 하
▁버 프가
▁기숙 사
▁편 을
루 트
▁많 았다.

츠 ,
▁6 9
▁광 명
▁상황 이었다.
▁장난 감
U C
▁말 자.
▁브라 우
법 ,
▁얼마 든지
▁다니 엘
▁야 수
▁맞 물
is ion
냐 ,
▁수 확
카 로
▁비 정상
▁챌린 지
회 장
르 드
▁고 시
▁유지 할
▁넘어 간
r d
▁보이 지만,
▁수 신
▁196 0년
▁하나 같이
▁도 배
▁도 루
▁하 프
▁10월 에
▁낳 은
▁수상 자

▁트 랩
▁개발 된
▁주 위
▁부 지
▁흐 름을
▁한 층
▁역할 은
고 교
▁공격 력은
▁번 갈
e 5
▁3 .5
극 을
▁인물 들이
▁ 짠
▁광 고를
▁쪽 의
▁펀 치
▁자 기를
▁승 률
▁밥 을
▁아 메리칸
▁해 줄
▁신 동
▁뛰 는
궁 의
불 명
인 들에게
▁고 사
▁내 성
▁하 느
0000 0000
ackground- color:
▁그만 두
▁등장 하여
▁언 데드
▁들어 서는
▁극 중
자 매
▁보너 스를
! ?
▁장 치를
▁돋 보
▁시간 대
▁모드 에서
발 사
▁이 마
▁루 머
살 의
▁우 세
! (
해 지기
▁아 울
▁대구 광역시
▁아 포
▁R A
▁사태 를
▁주 파
▁저질 렀
200 0
▁호 크
' 라
▁키 보
네 와
▁1 초
▁편 으로
▁빈 번
했 었다.

▁포 유
▁빨간 색
▁G l
▁무시 하는
▁군 대가
▁길 이가
▁오 노
▁들어가 기
가 끔
나 지
▁무 비
하기 에는
▁에 리
▁환 생
▁냉 장
▁유닛 은
▁지 루
▁역할 이
시 내
▁대 량으로
▁예정 이다.

▁엉 망
▁돌아 오는
▁초등 학생
▁선 물을
키 타
그 렇
▁생 애
▁조직 의
▁이쪽 도
a j
... "
▁쓰러 져
▁ 늪
가 (
▁외 형
▁글 자
:2 로
▁ 붉
버 의
점 

희 와
▁능력 치는
공 학과
▁따라 가
▁j ust
~ 15
▁이 방
▁요 미
중 국의
▁가능 하지만
...
 이
값 이
다.
이 런
▁낭 비
▁뽑 은
▁언급 되는
▁프로그래 밍
▁정 한
▁가 도
▁과 언이
취 를
▁달 러를
▁떡밥 이
▁광 범위
▁못한 다는
▁안전 한
▁미 만
▁명 성을
▁엔 진이
▁벨 라
어 택
▁개 국
▁필 드에
란 트
▁요 격
▁괴 로워
했 다

와 ,
▁우 치
▁따 위
▁Te am
▁특 전
▁우 유
▁유 아
▁신 비
영 

▁행 보를
▁적용 되지
클 라
▁등 

찬 을
▁원 내
▁7 9
E P
▁대표 적
▁찾 지
)
 아
▁소설 을
▁진행 을
▁파 일을
▁분야 에서
▁양 도
▁전 격
▁곳 도
▁이 익을
▁이 놈
▁결 의
▁구 로
▁들어 보면
▁경기 의
버 스를
▁조 던
▁메 트로
병 대
문 (
▁유 전자
▁지 우
▁비 전
.
 사실
▁표 정으로
▁반 쯤
빈 의
▁태 국
▁어째서 인지
있 다고
제 2
▁공 손
(C h
건 물
▁효과 도
▁상 성
▁피 오
▁행복 한
.S .
▁편 리
▁합 작
▁성향 의
▁가라 앉
▁섞 인
▁이 소
▁지정 되었다.


▁4 명
▁G irl
▁프로 야구
▁인천 광역시
▁테 일러
▁194 4년
▁올려 주는
! '
헤 드
▁이름 인
▁아 폴
▁시점 에
▁자세 를
돌 프
▁8 6
▁과 시
▁채 보
〉 

▁밖 의
커 녕
▁불 평
ate /
iel d
▁남 의
▁ .9
사우 루스
▁연구 가
란 은
us h
▁이때 부터
▁두 뇌
▁연 관이
받 침
▁중 시
▁만나 면
▁올라 왔다.
정 식
▁붙어 있는
▁안 개
▁난 사
▁뒤 에도
하다 보니
시켜 야
▁최 전
▁불 타는
( 신
▁피 니
▁카 사
▁무 소속
마 뱀
▁창 업
▁진행 한
랑 의
▁떨어 져서
르 면서
▁지 킬
▁등 지에서
▁ https://
▁부동 산
▁1 .2
▁사 운
▁고 스
나 라는
el f
▁style="b ackground:#
반 응
er )
▁테 오
▁특히 ,
▁발생 했다.
▁아내 가
▁안 동
▁ 젬
점 프
▁경 부
▁덤 벼
( KBS)
▁운 명을
▁유니 콘
▁카이 사
칸 센
▁전개 가
▁영원 한
▁10 초
획 득
1 차
▁오 디오
▁연 설
냐 면
▁ 츤
방 사
▁세계 가
▁레 스토
오 르는
▁발 간

 화
▁패 치를
▁토 지
- 01
▁세 웠다.
▁5 위
▁일 삼
▁S N
▁머 릿
▁일 족
▁상대 방이
▁친구 를
리 :
겠 지
▁ 캣
대 공
▁제 왕
데 이터
▁이 타
▁40 %
▁지 냈다.
▁아마 존
▁벗 겨
치 도
▁일 주일
▁우 린
▁무슬 림
m l
” 라고
▁검 술
▁평 일
매 우
각 성
류 로
▁3 명이
▁고 가
▁받았 다.


방 위
▁사이 즈
▁주 를
슨 과
가면 라이더
S h
▁상 세
▁주민 들이
▁ 왓
▁우 즈
( 구
▁S ingle
▁때문 인
▁시카 고
▁취임 

원 에게
▁피 하는
▁올 림
▁운 반
▁요청 을
▁이 케
▁연결 하는
▁US B
난 이
등 에
▁미 지
▁몰아 붙
던 전
우 에
▁미루 어
했 으면
▁출 제
▁C P
▁뒤 이어
▁비 참
▁티 베
ir st
▁영혼 이
▁예 쁜
▁시스템 의
시 도
▁중 구
▁리 볼
▁열 혈
확 률
▁달라 진
▁성 소수
섰 다.
▁점 검
▁계획 은
o om
▁wh at
▁( 20
▁결승 전에서
▁거 꾸로
▁아이템 은
곡 인
▁1 .0
▁( 오
노 ,
티 오
▁196 2년
▁꼴 찌
▁완 화
▁능력 치를
▁프랜 차이즈
는 가
모 에
▁방송 국
▁숙 청
통 계
▁이상 ,
▁석 사
▁공격 수
▁로 보
▁ 줌
한 정
렌 의
▁구 리
교 롭게도
소 울
▁시즌 의

 요
국제 공항
+ +
▁임 금
▁영상 은
됩 니다.
▁대표 로
가 요
▁LC K
▁홋 카이도
▁상 자를
▁역할 로
▁읽 을
▁바라 보는
됨 .

▁T o
팀 으로
▁상당 수
▁여기 고
▁혼 인
▁콜 롬
▁크 지
▁체 코
▁삶 의
▁8 개
▁움직 임이
여 도
▁수비 수
▁팬 들을
▁측 에서는
심 과
기 후
G O
▁예 정이
▁우려 가
▁사 직
세 대학교
3 회
▁오른 팔
영 (
H D
▁P V
근 접
히 며
▁시리즈 와
▁다음 은
▁세르 비아
▁상술 한
1 대
용 과
▁불 릴
콘 서
.
 마
▁태양 의
▁활용 한
▁배 급
▁스타 디움

 <
▁병 역
▁밀 리언
▁ 팡
특 징
▁식 사를
▁덱 에서
▁녀석 이
▁살펴 보면
O VE
▁ 짬
▁그 루
▁원 형
스터 의
▁성장 한
▁한 반도
▁탱 킹
▁워 리어
▁중국 어
예 선
▁9 ,
양 은
▁당 한다.
▁계 절
▁떠 나는
규 가
▁합 법
▁등장 하며,
▁수준 을
샷 을
▁인 텔
▁차 에
▁그 랜
▁심 의
▁세 컨
▁재 수
▁그 마저도
▁약 물
▁드러 났다.
▁2 승
▁표 창
등장 인물
▁ 츄
충 청
▁가진 다.
▁아이 들
▁응 답
▁T R
▁블라 디
2 가
▁내 버려
le ct
▁추 후
▁날아 가는
라이 어
r ing
▁전투 력
▁현 장에서
▁보이 는데,
▁죽음 에
나 타


 기타
▁상황 .

U T
▁정 해
신 도시
▁풋 볼
▁시 공
▁뜻 한다.
▁우 주의
m a
in c
( 오
모 니
▁페 어
▁울 프
▁쉽 다.

▁지나 친
▁위 원

는 ,
▁생 명의
▁초 래
5 1
▁세계 적으로
맨 과
▁증가 하는
▁트 렌
▁헬 리
▁미 러
레 븐
▁다닌 다.
효 율
▁횟 수
▁정 답
▁디자 인은
▁유저 의
▁한 강
▁기 쁨
▁등 .
▁크 라운
▁컴 백
지 상
▁가 히
▁항 구
▁묻 는다.
▁이르 렀
y l
▁신 하
▁잘 생
▁클리 셰
엑 스
▁팬 들도
비 록
▁온 다.
다 )

▁콤 보를
슨 ,
▁프랑 크
▁연 말
▁남 서
▁196 6년
▁중 고
▁내용 에
▁시청 자들이
슈타 인
▁하나 로,
▁민주 화
▁지상 파
▁소 생
단 (
▁ 롬
▁위 함
체 제
▁것이다.
 이
덕 분에
▁깨 고
▁소속 사
s )
카 에게
▁주 황
상태 가
g ain
거 기
▁내용 으로
▁과도 한
▁하나 .

▁연 동
▁A m
▁변 하지
▁교 향
▁분 신
▁행동 은
▁현실 의
V S
▁남 자는
철 은
▁마 물
송 라이
▁만났 을
▁스트리 밍
불 명의
▁어렵 다는
▁바닥 을
현 

▁가 루
▁스타 일을
전 국
▁리 셋
▁사람 
미국의
▁스파 르
▁번 씩
▁수 시로
라에 몽
▁고 의
▁O N
할 지
▁유저 는
토 록
아 슬
치 (
▁않았 으나
▁6 1
공 (
▁사용 해야
▁석 유
각 형
▁중 에선
▁걸 리면
▁196 4년
▁일본 을
▁m an
방 과
▁답 게
▁개발 을
▁결 제
슬 롯
▁산 타
▁한 대
▁미 소를
▁온 천
▁ 냈다.
하 니까
▁거두 었다.
드 에게
▁눈 의
▁다 룰
▁위 와
▁카 피
▁기다 리는
w ard
▁말 려
▁서바이 벌
하 트
201 7
▁ 붓
프 터
▁이 의
▁순 위가
▁마 스코
▁안 토니
▁위치 는
▁조종 하는
▁문제 .
▁의미 의
▁짧 아
▁특이 하게도
▁타이 완
▁엑 시즈
▁맨 체스터
▁추가 되어
▁문 화를
▁어려 움을
▁공 중에
유 치
▁입 히는
▁소 금
못 해
세 이브
틀 랜
▁사 정을
▁많 다고
▁본 다면
▁케 리
▁세월 호
▁바꾸 고
ffff ff
▁되 게
몬 을
▁작품 이다.
▁C M
변 경
▁ 벅
링 의
▁측 이
6 9
- block
▁8 9
▁L IVE
성우 :
?? ?
▁공 짜
▁문제 점이
▁충 실
▁국 어
▁전 두
▁' 대
▁중반 에
▁하 러
▁요코 하마
▁후 미
광 이
▁샤 오
) 에는
▁걸 린다.
▁18 3
▁우 정
▁펼 쳤
▁1 세대
투 자
▁이 념
▁이 세계
종 ,
▁6 2
겼 다.

▁업데이트 가
▁한 달
▁9월 에
▁총 괄
동 

▁프로 이센
▁지지 하는
▁수 단이
▁제 도를
국민 학교
볼 트
▁사 악한
▁부 대가
▁이 어나
200 1년
i am
n ing
▁시스템 은
슬 을
8 2
▁1 위로
그 라운드
글 이
▁지원 이
▁5 인
▁부분 .
▁ 뺀
▁1 패
▁슈 트
애 나
▁마법 으로
▁4월 에
▁소환 하는
▁너 도
▁미 끼
염 을
st er
▁여자 친구
▁빨 아
▁돕 는
▁용 도
리케 이션
차 기
▁그 란
▁평소 에는
케 이션
▁바 론
▁음 력
- t
▁소 니
▁옆 으로
▁194 6년
▁하 스
▁재료 를
백 의
; 

▁낮 고
▁바르셀 로나
▁그 들에게
사 망
th e
▁학 문
피소 드
▁' 미
▁남 기
▁동 정
olog y
▁' 무
▁꿰 뚫
러 와
▁상 단
▁제 20
or ea
▁변 하는
▁대신 해
란 한
▁마 르크
▁월 간
▁전 속
▁다 다
▁내 밀
▁불 타
ang e
▁지 극
철 ,
▁포 맷
い た
▁필 두로
▁밑 으로
매 일
▁30 초
y m
▁주 에
▁M k
▁비로 소
om b
▁서번 트
▁자 격을
▁명 나라
▁모두 의
▁w idth=
▁11월 에
( 10
▁코 인
▁최소 한의
함 대
▁하는 게
노 벨
하 겠지만
▁처리 하는
▁맡 겨
▁목록 

▁오스트레일 리아
트 레이
특 정
▁G S
▁붙 어서
▁성공 했다.

하 느라
▁있다.
 하지만
▁숨 기고
것 이다.
▁ 넬
▁가 자
▁구조 가
▁O f
놀 이
▁시 도를
▁나서 서
▁유니 버스
▁홈페이지 

비 (
▁O ok
▁활용 하는
회 

▁194 8년
운 다.
▁간 지
때 부터
▁개인 적인
▁국가 를
▁정보 는
방송 을
▁이 복
▁터 라
▁궁극 기
▁스 바
▁풀 린
▁퇴 치
▁ ar
▁크 기의
▁4 :

이 후
.5 %
▁무작 정
▁네 크로
▁게임 이다.
0e 6
가 이
▁ us
▁단 점을

 타
▁대 명
남 의
여 름
▁해 독
▁베 지
▁ 톡
궁 을
▁절 단
메 랄
▁정 밀
버리 기
마 리가
▁저 술
▁뮤 지션
화 도
▁묻 혀
▁게시 판
베 르트
▁어드 밴
마 에게
▁메 세
복 은
회 전
▁시즌 1
O G
파이 널
▁강 민
황 후
▁10 ,
b 0e
▁해 변
▁도시 로
▁공산 당
▁맵 이
f l
- L
준 을
▁주의 를
바 와
▁되어 버렸다.
▁계획 에
▁대미 지는
▁친 절
카 리
▁상 속
▁끝 을
▁원작 에서는
▁194 9년
▁경험 치를
▁참고 .
수 호
화 )
b0e 0e6
▁장 비가
▁style="background:# b0e0e6
▁선거 에
인터 넷
▁197 0년대
▁효율 을
▁협 동
▁어디 에
검찰 청
▁모 빌
▁주 며
C H
▁메 구
▁스 칼
▁헝가 리
▁연결 된
▁합 친
▁눈 빛
라 니
at tle
▁그리 고,
▁3 만
▁박 종
말 의
▁하 려는
▁디버 프
반 에
▁반 동
▁파 동
▁추 출
포 에
벌 이
▁내 기
▁거 느
리 조
벽 이
창 의
림 은
▁올라 간다.
▁( 4
▁늦 은
▁나 열
▁아들 로
▁끝내 기
P D
▁ 팁
▁극 대화
▁지구 에
r ic
▁로 저
▁실 업
항 목
▁빠 지게
하려 던
▁그렇 다면
▁특 공
▁사용 하게
선거 에서
려 던
▁등장하는 데,
▁진행 이
▁거 칠
n o
▁당시 엔
▁해병 대
▁비 용을
▁플라스 틱
▁크 롬
보 도
▁정 해져
.
 "
.
 다만
▁빈 틈
▁style="background:#b0e0e6 ;"
레 타
▁주 력으로
▁마지막 까지
▁응 급
리 프
▁막 판
▁시 오
▁자 고
▁전동 차
▁싱어 송라이
.. ...
▁기 를
▁강 동
운동 을
▁Se ason
리 사
▁이 인
▁단 단
▁말레이 시아
▁프 롤
▁2 명이
▁자 부
▁맞 출
▁맞 다.

▁200 3
▁막 지
▁피 고
▁신 장
▁블랙 홀
▁잔 류
▁일 하고
보 안
▁미 쓰
▁성 경
▁2 TV
▁놈 이
▁영 토를
▁진지 한
▁감 행
▁기록 하면서
총 리
/ s
▁화 면에
▁퍼 부
그 레이
▁늘어나 는
처음 에는
▁정 치가
▁구 울
▁8 7
▁정 성
행 으로
▁때려 잡
▁잉글 랜드의
▁그 도
▁시 네마
▁확률 은
▁드러 나는
▁텍 사스

 사실
i et
골 이
융 합
요 의
▁보여주 기도
▁196 5년
▁정황 상
▁여러 분
트 럼
▁입 양
▁필 라
2 를
▁카 게
〉 ,
▁고 로
▁가득 한
▁지 내고
▁무 선
▁돌 을
▁앨범 의
▁방어 를
▁미 소녀
등 포
▁되 살
▁아 그
▁등장 하고
안 타를
▁출 석
▁풍부 한
오 던
▁뉴질 랜드
▁돌아 갔
cm ,
디 ,
▁기록 하는
▁2 천
▁화면 이
A B
▁G M
▁개업 한
▁시 킬
▁따 돌
▁오 바
▁걸맞 게
요 !

▁시뮬 레이션
▁하 자,
▁없었 지만
커 니즘
▁영화 에서
▁1월 에
슨 

▁2 편
▁중 학생
▁강 탈
▁넘 긴
격 인
이라면 ,
실 록
▁사 육
▁앞 으로도
▁유 메
졌 으나
▁할 로윈
▁포인 트가
▁위협 을
▁이래 저래
▁아쉽 게도
▁ 푼
층 은
▁멀리 서
▁블 럭
서울 특별시
수 산
▁유 머
부 족
▁흑 막
노 르
▁수 인
▁적합 한
/ 5
▁프라 임
▁따뜻 한
그 린
▁레 슬링
일 으
▁시작 된다.
▁c olor
▁재능 이
▁가 던
▁클 라이
주 었다.
▁시 인
▁오 니
▁추구 하는
▁ 뱉
▁교 실
밥 을
창 에
시키 면서
티 에
▁휘 하
▁공 학
▁스 탭
▁치 안
효과 를
▁선 봉
▁세 상의
▁ 꿇
▁천 주교
▁동일 하다.

▁가 나
▁고 인
▁방 으로
-1 로
▁7 8
적 이며
▁모양 새
공 단
▁보 강
반 은
▁아 님
▁M ag
바 스
▁2 시간
▁하 츠
▁한 반
▁모 친
▁날 개를
프가 니스탄
자 들도
▁프로토 스
▁강 점
▁써 먹을
ran s
▁코 노
유 리
▁바람 을
.A .
역 까지
▁ 겟
▁서 방
▁드 레이
라 시
▁오 해를
▁멤버 들과
▁주 위에
천 ,
▁2 점
▁것이 었다.

표 는
돈 을
토리 얼
▁평 택
▁일 련의
V ER
▁딸 인
하 리
▁뒤 인
~ 18
( 마
▁값 을
▁구 한
▁클 러
▁가 격을
▁워 커
▁혈 통
▁7 4
▁C ar
근 을
at a
▁난 민
▁노무 현
h am
▁대 니
▁강 서
비 용
▁7월 에
▁상 시
▁구 성이
▁포 텐
▁급 하게
▁회 사를
▁제 너
- b
n y
하 더니
▁이루어 졌다.
사관 학교
면 과
필 로그
▁철 권
▁왕 족
- G
▁현실 을
이라 ,
혜 를
▁다르 지만
/ 10
▁불 리며
▁상태 이다.
▁Ap ple
▁제 발
▁원 인을
▁너 프를
▁맞추 기
려 야
▁모른 다고
▁인물 을
▁중 에도
▁살 았
▁194 1년
▁배 워
▁1 화
▁깃 털
다 던가
▁앞 을
▁옵션 을
c y
했 음을
▁오 더
▁스 콧
▁잘 만
▁8월 에
▁빼앗 아
악 마
▁로 우
▁미국 ,
▁나오 며,
▁컴 뱃
수 정
▁유튜브 에
적 으론
▁아니 냐
▁수준 에
▁다름 없는
▁시 대가
▁한 해
▁댓글 을
디 스크
▁부 위
▁높 기
▁물 품
▁ 쇄
▁유치 원
요 를
쿠 니
▁도 약
스타 의
▁개발 이

 10
▁하 긴
▁방 패를
▁테 레
▁길 이는
백 만
▁인 질로
▁배 리어
201 6
경 쟁
얼 굴
▁이 들에게
▁안 산
E .
▁씹 어
▁체력 과
바 ,
번 역
6 8
▁깨 어난
▁열쇠 를
▁불리 기도
I .
▁연구 에
▁ 킴
H T
▁걸 려서
박 쥐
한다.
 그
▁다음 ,
드리 히
하자 고
▁사용 하던
▁카운 트
▁3 명의
▁검 정
버리 면서
퍼 는
▁마 가
겠 어
되 니
▁샷 건
▁플래 그
▁원 주
▁시설 을
▁이 단
▁전 선
▁혼란 을
분 간
▁그 간
▁연출 을
사령 관
▁3 위를
▁카메 라를
▁직 장
▁급 히
▁" 내가
▁ 쐐
% 에
▁들어간 다.

▁때 리는
▁로 열
▁선 조
▁명 단
▁메이저 리그
▁해 고
▁맞추 면
▁바다 에
출 시
▁이 준
▁S w
▁역 이다.
▁순 찰
▁주 기도
▁5월 에
▁사 나
▁관 해
▁먹 여
n er
▁P ar
^ {
스 위
▁차 원의
▁등장인물 .

u ch
푸 른
▁보 자면
내 야
이 서
여자 고등학교
리 치
▁세 력의
at ed
타나 베
▁위험 에
E 의
▁ ※
▁하 도
▁강 하고
▁1 로
▁박 쥐
▁삼 는
▁졸업 하고
었 기에
▁토 마스
▁파티 를
▁그리 하여
▁있는 게
▁엠 블
류 와
▁캐릭터 .

왔 다고
▁깔 려
▁넉 넉
▁가 와
▁그림 이
▁멀쩡 한
▁정부 에
▁제작 진이
있 는데
▁이 례
▁보 르
or s
9 7
▁A V
▁타입 의
▁Ook .
) 에서는
외 교
▁중 도
원 들을
▁대 책
고 (
E ST
▁시 장에서
▁인 접
▁있다.
 그리고
▁활동 에
▁구 해주
▁현 금
▁사망 했다.
가 락을
學 校
▁프로듀 스
▁보 구
대 인
▁미 하
▁트레이 닝
▁다름 아닌
▁의하면 ,
패 치
▁사용 되었다.
홈런 을
▁ ro
▁파 손
▁O h
었 다.
이
▁결과 에
▁있을 지
▁것이 ,
▁이 쿠
▁의 원은
▁주인공 .
▁홍 진
축 을
캐 슬
I O
해 양
▁비 아
▁리 스크
▁친구 들과
▁명 장
