#version: 0.2 - Trained by `huggingface/tokenizers`
Ġ ì
ì Ŀ
Ġ ë
í ķ
Ġ ê
ì Ĺ
ë ĭ
Ġ í
ìĿ ´
ìĿ ĺ
ëĭ ¤
ìĹ Ĳ
ê ³
ì Ħ
ë Ĭ
ë ¡
ëĬ Ķ
ì ł
ê °
ë¡ ľ
ì ŀ
ê µ
Ġì Ŀ
ë ħ
íķ ĺ
ë ¦
ì §
ëħ Ħ
ì ĭ
ë ¥
ì ľ
ìĿ Ħ
íķ ľ
Ġì ŀ
Ĥ ¬
Į Ģ
ì Ĭ
ë ı
ì ķ
¸ °
Ġ 1
ì Ľ
Ġì ł
ë¦ ¬
ê³ ł
ë ĵ
ê° Ģ
ìĦ ľ
ìĬ ¤
ìĿ Ģ
ì ļ
ì§ Ģ
Ġê °
Ġë °
Ġ 2
Ġì Ĺ
ê ¸°
Ġì ķ
Ī ëĭ¤
Ġì Ħ
ìľ ¼
ì ĺ
Ī ĺ
ĠìĿ ´
ì ĸ
ë Ĥ
ë §
ë¥ ¼
Ŀ ¼
ê ²
ë ¶
ëı Ħ
ìĭ ľ
ë ł
£ ¼
ìĿ ¸
ë Ŀ¼
ìĿ ¼
Ġì ĭ
ë °
ë ©
Ġë §
Ġê ²
êµ Ń
ì Ĥ¬
ì ĥ
Ġì ĺ
ì ¹
ë Ĳ
ë ĮĢ
ìľ¼ ë¡ľ
ìŀ Ĳ
· ¸
ë ŀ
ìĸ ´
ì Ļ
ìĹĲ ìĦľ
Ġê ³
í Ļ
ë ³
ë ¯
ë ¬
ë¶ Ģ
Ġì §
ìĽ Ķ
Ġì Ĥ¬
ìķ Ħ
ã Ģ
íķ ´
Ġê µ
Ġë ĮĢ
Ġë ĭ
Ġ Ċ
í ĸ
ê³ ¼
í ĺ
í Ĭ
Ġ (
Ġ2 0
íķ Ļ
ëĤ ĺ
Ġì ľ
ì £¼
ì Īĺ
Ġë ı
ë ²
Ġë Ĥ
ë ª
ì ²
í ĥ
Ġë ³
êµ ¬
íĬ ¸
ì Ĩ
íĻ Ķ
Ġë ¶
ìŀ ¥
Ġê ·¸
ëĵ ľ
ìł ķ
ë į
Ġ1 9
ìĽ Ĳ
ëĵ ¤
¡ °
ìĿ´ ëĭ¤
Ġë ª
ëĲ ĺ
¹ Ħ
ìĻ Ģ
ìĥ ģ
ë Ł
ìł Ħ
Ġì ¶
ìĦ ±
¤ ĳ
ļ Į
Ġìĭ ľ
Ġì Īĺ
êµ Ĳ
Ġìķ Ħ
ìł ģ
ìļ °
Ġì§ Ģ
Ġê ¸°
Ġê° Ģ
2 0
Ġ -
í Ķ
Ġìł ľ
ëı Ļ
Ġìł Ħ
´ Ģ
ë¥ ´
í Ħ
ìł ľ
ģ ¬
ìĹ Īëĭ¤
í ļĮ
ê² Į
ì Ĥ
Ġì ĥ
Ġë ĵ
ìĺ Ģ
Ġìŀ Ī
ì¹ ĺ
ë§ Ī
ì °
í Ĩ
1 9
Ġì ļ
ë© °
ë¯ ¼
Ġ íķĺ
Ġì Ĩ
Ġí ĺ
ìĹ ¬
Ġë ¬
Ľ Ħ
íĦ °
Ġì Ĭ
Ġë ¯
ë¯ ¸
ë £
ĠìĦ ł
Ġí Ļ
Ġìł ķ
Ġ íķľ
Ġëĭ ¤
Ġì ²
Ġ 3
ëĭ Ī
í ģ¬
ĠìĿ ¼
ìĦ ł
Ġìĺ ģ
ë¬ ¸
Ġí Ķ
Ġë ²
ë© ´
Ġìŀ Īëĭ¤
ëª ħ
í Į
ìĹ Ń
Ġì ¤ĳ
Ġë³ ´
ë§ Į
ìĭ ł
Ġ íķ
ë ¹Ħ
ìļ ©
ëł Ī
ê³ Ħ
± °
Ġê³ µ
íĥ Ģ
Ġìŀ Ĳ
ĠìĿ ¸
Ġ :
Ġì £¼
ĠìĹ Ń
Ġì ĸ
ê ¸
Ġê² ½
Ġí ı
ìĦ ¸
ìľ Ħ
Ġ ãĢ
í ı
Ġì °
Ġ20 1
Ġìľ ł
ìĺ ¤
ìĤ °
Ġë¯ ¸
ëĲ ľ
ì¹ ´
ì ¡°
íķĺ ìĺĢ
ìĨ Į
ì ¶
íķĺ ëĬĶ
êµŃ ìĿĺ
íĸ Īëĭ¤
Ġëı Ļ
ê³ µ
ëŁ ¬
ì ¦
êµ °
½ Ķ
Ġìľ Ħ
ì§ Ħ
ãĢ ĭ
Ġê² ĥ
ë³ ´
í Ĥ
Ġ20 0
ë Ħ
ê ·¸
Ġë¶ Ģ
Ġì ¹
Ġë§ Ī
Ġë Ĳ
ìĹ °
ê² ½
Ġí ĥ
íķĻ êµĲ
Ġí Į
ê ´Ģ
Ġìĺ ¤
Ġì Ļ
Ġì ¡°
ĠìĹ °
ĠìĬ ¤
ìĥ Ŀ
Ġê° ľ
¢ ħ
ĠìĨ Į
í ĭ
ìŀ ¬
ìĭ Ŀ
ĠëĤ ĺ
Ġëĵ ±
ìĺ ģ
Ķ Ķ
ĠãĢ Ĭ
íĶ Ħ
Ġì Ľ
Ġì¶ ľ
íķĺ ê³ł
íĺ ¸
Ġêµ Ń
Ġë į
Ġëª ¨
Ġ 4
ê° Ħ
Ġëı Ħ
ìĿ Į
Ġê³ ł
ĠìĿ ĺ
ë³ ¸
ĠìĹ ¬
ëĭ ¨
íĤ ¤
Ġêµ ¬
ëĭ ¹
Ġë° ľ
ìŀ ĳ
ì² ´
ìĹ ħ
ê ·
ë¬ ´
e r
ê° ģ
ĠíĶ Ħ
íķĺìĺĢ ëĭ¤
ĳ ľ
Ġí Ĩ
ê° ľ
ì ¡
ìľ ł
í İ
íķĺ ìĹ¬
íĸ ī
ĠìĦ ľ
ë¬ ¼
ìĹ Ī
íķľ ëĭ¤
ĠìĦ ¸
ìķ ¼
ŀ Ī
íķľ ë¯¼
Ġë ¹Ħ
ëį °
Ġë ħ
Ġìĭ ł
Ġ 5
´ Ī
íĨ ł
ĳ Ĳ
â Ģ
Ġìĥ ģ
ìŀ Ħ
í ĽĦ
ê ±°
ë° ĺ
ķ Į
ë° ©
¸ Į
ì Ī
ë£ ¨
ìľ¼ ë©°
ĠìĦ ±
ìļ ´
ê ¹
± ´
ëĲĺ ìĹĪëĭ¤
Ġì Ĥ
Ġí ĽĦ
ëŀ ĺ
ì° ¨
ìķ Ī
ëł ¥
Ġê ´Ģ
a n
Ġë° °
ìĻ ¸
Ġí ĸ
ìļ Ķ
ĠìĦł ìĪĺ
ì ½Ķ
i n
ìĹĲ ëĬĶ
ë ĶĶ
Ġ íķ´
Ġ S
Ġìĺģ íĻĶ
o n
í ħ
ëł ¤
µ ľ
íķ ł
0 0
ëŀ Į
ĠëĤ ¨
ì ¤ĳ
Ġêµ Ĳ
Ġê ¹
Ġìŀ ĳ
ëį ĺ
ĠëĲ ĺ
ë¡ Ŀ
20 1
ëħ ¸
ëª ¨
Ġ ~
íı ¬
ì¦ Ī
íĨ µ
Ġë ķĮ
ë² Ħ
Ġë° ©
íĭ °
ìĸ ĳ
íĺ Ħ
ë¦ ½
ìĨ į
Ġ 6
ë° Ķ
ì ¢ħ
Ġí Ĭ
ë¶ Ħ
Ġìŀ ¥
¶ Į
Ġë¬ ¸
í ŀĪ
í Ĵ
ĠìŀĪ ëĬĶ
Ġë ¦
Ġë ©
Ġìļ °
ì ħ
Ġë¬ ´
ì ¸
Ġë° Ķ
í ĳľ
Ġê ¸
ë¶Ģ íĦ°
Ī ¬
Ġ 7
Ġëħ ¸
íĮ Į
Ġê¹ Ģ
Ġì¶ ķ
ëĵ ±
ê¹ Į
ë² ķ
Ġ M
í Ĺ
Ġ 8
ĠìĤ¬ ëŀĮ
Ġì µľ
Ġíĺ Ħ
Ġ19 9
ëĤ ¨
Ġ1 0
Ġíı ¬
20 0
ĺ Ĳ
´ ĳ
ĠíĨ µ
Ġë§ Į
Ġë¦ ¬
ë¥ ¸
Ġí İ
Ġìķ Ĭ
Ġê ·
ì§Ģ ë§Į
íĸ Ī
¤ Ģ
Ġë ¡
Ġ C
ĠëĤ ´
Ġ 9
Ġê² °
Ġì§ Ħ
íĺ ķ
ë¦ °
Ġìĸ ´
Â ·
ë© Ķ
Ġ "
ëŀ Ģ
Ġë Ķ
ì ¿
ìĬ¤ íĬ¸
Ġê ±°
ì¶ ľ
e n
ì ¼
o r
ìĦ ¤
Ġ T
ìĬ ¹
ì² ľ
ìĹĲ ê²Į
Ġì¶ķ êµ¬
Ġ A
a l
a r
Ġë ĺĲ
ë ¸Į
ìĭ ¤
ëŀ ĳ
ĠìĽ Ĳ
ê¹Į ì§Ģ
Ġê° ķ
ëĤ ´
ë° ľ
íķ ©
Ġìĥ Ŀ
ìķ ĺ
) ,
íķľë¯¼ êµŃìĿĺ
Ġë§ ģ
ĠìĦ ¤
ĠìĿ Į
ĠíĮ Į
ëı ħ
Ġê° Ļ
Ġë§ģ íģ¬
ê² ©
íĴ Ī
ìĻ¸ ë¶Ģ
ìĨ ¡
Ġë¶ Ī
Ġë¶ Ħ
ìĿ´ ëĿ¼
ĠìĹ Ĳ
ìł Ĳ
ì »
Ġìķ Į
ìłģ ìĿ¸
Ġë Ħ
Ġ1 2
ê ¶Į
Ġëĭ ¹
a t
ìłģ ìľ¼ë¡ľ
ìļ ¸
ì§ ģ
Ġë° ĺ
ëł ¹
íĥ ľ
ì² Ń
ë¦¬ ìķĦ
ëĦ ¤
Ġ '
Ġí Ĺ
Ġë¡ ľ
Ġìķ Ī
ì ´Ī
ìĪ ł
Ġê³ Ħ
´ Ŀ
e s
íĶ ¼
Ġ Ġ
ĠíĶĦ ë¡ľ
ë¥ ĺ
ĠìĹ Ĩ
Ġë° ı
Ġëª ħ
Ġëĭ ¨
í Ŀ
ê°ģ ì£¼
Ġ F
Ġì¹ ´
ë£ Į
Ġìĭ ¤
ĠìĤ¬ ìļ©
ìĦ Ŀ
ëĲĺ ìĸ´
ê ±´
Ġìŀ ¬
ĠìĿ¼ ë³¸
Ġ1 1
Ġë Ŀ¼
ĠëĶ °
Ġì° ¨
Ġìĺ Ī
íĮ Ĳ
Ġë§ Ĳ
ë ĳĲ
Ġê° Ĳ
Ġì ½Ķ
Ġì° ¸
ê° ķ
íķ ¨
Ġìļ Ķ
íħ Į
ë ¨
ê¸ ī
Ġë ł
ì¡ ±
ĠĊ ĠĊ
ë¦ Ħ
íİ ĺ
Ġëį °
ë¦ ¼
Ġë ĳĲ
ë² Ī
ë¡ ł
Ġíķ ¨
Ġí ħ
Ġì ¡
Ġ B
Ġ P
ì ¤Ģ
ì¿ ł
Ġë° Ľ
ĠíĬ ¹
ë² ł
Ġíĥ Ģ
h e
Ġ âĢ
Ġ19 8
Ġ1 8
Ġêµ °
ë§ ¤
Ġëł Ī
ì£¼ ìĿĺ
ëĵ¤ ìĿ´
ê³ ¡
Ġì ¢ħ
í Ī¬
Ġì ´Ī
ìĹĲìĦľ ëĬĶ
ë©´ ìĦľ
íķ Ń
ê¸ Ī
Ġë Ĩ
ìħ ĺ
Ġë°° ìļ°
ģ ´
íķĺ ê¸°
Ġê² Į
ë³ Ħ
ëħĦ ìĹĲ
ìĭ ¬
Ċ Ċ
Ġíķľ ëĭ¤
s t
ì¸ ł
ëĵ¤ ìĿĢ
Ġëį Ķ
ìŀ ħ
ìķ ħ
i c
Ġëĵ ľ
ë§ Ŀ
Ġë ¹
Ġìĺ ¬
19 9
i t
Ġì ¦
íķĺ ê²Į
ìĤ ´
Ġëª ©
Ġ D
ëŀ ľ
ĠìĿ´ íĽĦ
B S
l e
Ġê ±´
ê ´ĳ
ì§ Ī
Ġìļ ´
Ġ K
Ġëı ħ
Ġì¶ Ķ
ìĸ ¸
ìķ ½
Ġíĸ ī
ĠìĻ ¸
( )
Ġì ±
ë³ ĳ
Ġë² ł
ĵ °
į ¼
ĠëĮĢ íķľ
ª ½
Ġì Ī
ëĬ ¥
´ ī
Ġë° ķ
ëĤ ľ
ĠíĶ ¼
Ġë§ ¤
ëłĪ ìĿ´
íİ ¸
ëĵ± íķĻêµĲ
ìĭľ ìķĦ
Ġë³ Ģ
Ġ L
Ġë¯¸ êµŃ
Ġìĸ ĳ
íĸ ¥
Ġíĥ ľ
íķľë¯¼ êµŃ
ìķĺ ëĭ¤
ëĭ ¬
Ġìŀ ħ
ë ¹
ë° °
ë¶ ģ
Ġíĺ ¸
ìĺ Ī
ìł Ģ
Ġí ģ¬
ĠíĻ ľ
Ġíĺ ķ
ã ĥ
Ġí Ŀ
ĠíĻ Ķ
ëł ¨
ĠìĤ °
ìľ ¡
ê² °
ìĺĢ ëĭ¤
Ļ ìĿ´
ã ģ
ì ª½
ìĻ ķ
ëª ©
ëį Ķ
ëŁ ī
ì§ ĳ
ê¸ Ģ
Ġì§Ģ ìĹŃ
Ġíı ī
Ġ )
Ġí ļĮ
Ġëĭ¤ ìĿĮ
Ġë³ ¸
ĠìĬ ¹
ëĲĺ ìĹĪ
Ġê³ ¼
Ġë§ İ
Ġ I
ìľ¼ ëĤĺ
ëĵ ł
ĠìĻ ķ
Ġì² ł
ì² ĺ
Ġë© Ķ
Ġì ´Ŀ
ê »
ì¼ Ģ
¸ Ķ
r o
ëĲľ ëĭ¤
Ġ R
Ġëĭ¤ ë¥¸
Ġìŀ Ħ
| |
ĠìľĦ íķ´
Ł ģ
Ġë² Ī
Ġìł ģ
ìĬ¤ ìĿĺ
ì² ł
ìĦ¸ ê¸°
Ġë³´ ê¸°
Ġê²½ ê¸°
ë³ µ
ì Ķ
ĠìĹ ´
ëĮĢ íķľë¯¼êµŃìĿĺ
ì Łģ
Ġê°Ļ ìĿĢ
ĠëĲĺ ìĹĪëĭ¤
ìĿ´ ë©°
ìĽ Į
ê» ĺ
ĠëĲ ľ
ëĦ Ī
Ġì »
Ġ t
Ġë¶ ģ
ê° ĻìĿ´
Ġìĭľ ìŀĳ
Ġìŀĳ íĴĪ
Ġìķ ¼
Ġ íķĻ
Ġì¶ľ ìĥĿ
Ġ19 7
2 1
Ġ G
íĻ ĺ
Ġ H
í ļ
ëĬĶ ëį°
ëĿ¼ ìĿ´
Ġíķľ êµŃ
Ġì º
ì ±
íı ī
ëĵ¤ ìĿĺ
ì§ ¸
Ġí ĳľ
i s
ëŀľ ëĵľ
ĠëķĮ ë¬¸
Ġê·¸ ë¦¬
ìŀ Ī
ì¶ ķ
Ġë¯ ¼
ĠëĮĢ íķľë¯¼êµŃ
ìķ ł
· ¨
Ġê° ģ
ì ½
ëĿ¼ ë§Ī
Ġ E
i on
Ġ1 5
Ġê·¸ ëĬĶ
ëħ Ģ
Ġëĭ ¬
Ġë ¸Į
ĠìĤ¬ ìĿ´
Ġíķ¨ ê»ĺ
ìł Ī
ĠíĨ ł
Ġ N
ĠêµŃ ê°Ģ
ìł ¸
ë¨ ¸
o l
ì¡ Į
Ġëĵ ¤
Ġíİ ¸
ĠìĨ į
ī ´
ĠëĶ° ëĿ¼
Ġê° Ħ
ê· ¼
ëĵ¤ ìĿĦ
íĻ ©
19 8
ê· ¹
Ġì¶ľ ìĭł
r e
ëĿ¼ ëĬĶ
Ġë¬ ¼
íķĺ ë©°
ìĺ ¨
í į¼
Ġê²½ ìļ°
íĥ Ī
. .
1 8
Ġì§ ģ
Ġìķ ł
Ġë ĶĶ
Ġíķ Ń
Ċ Ġ
Ġìķ ½
Ġì² ĺ
Ġìĥ Ī
Ġê²Į ìŀĦ
Ġìł Ģ
Ġì§ ĳ
ìĥ ī
Ī Ħ
ĠìĦ¸ ê³Ħ
ëĿ¼ ê³ł
Ġ1 6
ĠìŀĲ ìĭł
ã Ĥ
Ġì² ´
Ġì² Ń
Ġì¡ ´
Ġ o
ê° Ĳ
ë² Ķ
íķĺ ëĭ¤
íķĺ ì§Ģ
ì¦ Į
Ġ W
ëıĦ ìĿĺ
Ġì² ľ
Ġê¸° ë¡Ŀ
e l
ëŁ ½
Ġí Ī¬
ëĮĢ íķĻêµĲ
ĠëĮĢ íķľë¯¼êµŃìĿĺ
ĠìĿ´ ë¦Ħ
Ķ ëłĪ
a c
ìĶ ¨
Ġ19 6
Ġë² ķ
Ġê ´ĳ
Ġë Ĭ
Ġë £
íĬ ¹
Ġ ||
Ġê¸ Ī
ĠëĺĲ ëĬĶ
ìĭľ ìĿĺ
Ġì ¢
íĹ ĺ
ìŀĪ ëĬĶ
ĠíĬ ¸
ìľĦ ìĽĲ
ä ¸
ĠíĺĦ ìŀ¬
Ġíķĺ ëĤĺ
in g
ì° ½
ĠëĺĲ íķľ
Ġë² Ħ
ĠìĿĺ íķ´
Ġ1 7
ĠíĻ ķ
ĠìĹ¬ ìŀĲ
Ġë Ĵ
ĠìľĦ ì¹ĺ
o u
Ġë ģ
íĶ ½
ê² ¬
´ Į
ìĿ´ ëĤĺ
Ġê°Ĳ ëıħ
Ġë³ µ
ì ³
ĠìĦľ ìļ¸
ì° ¸
ìĿ´ ìĬ¤
Ġo f
Ġê°Ģ ìŀ¥
íĥ Ħ
ìĹ ´
Ġíķ ©
Ġíķ Ħ
Ġí ŀĪ
Ġê·¸ ëŁ¬
Ġìł Ĳ
ĠëķĮë¬¸ ìĹĲ
í ĮĢ
ë¹Ħ ìłĦ
ëŀ ¨
ëĲĺ ëĬĶ
ëŁ °
ìĿ¼ ë³¸
ìĹĲ ëıĦ
ë¯¸ êµŃìĿĺ
o m
ì° °
Ġê²ĥ ìĿĦ
Ġìĭ ¬
Ġì¦ Ŀ
ê¸° ëıĦ
Ġ /
íĿ ¬
Ġ O
Ķ ëĭ¤
Ġ U
ĠìĤ ¼
ĠíĶ Į
ĠíĮ Ĳ
1 0
Ġë ¨
íĶ Į
ĠëĦ ¤
Ġìĸ ¸
ĠìĤ¬ ë§Ŀ
Ġ1 4
ë ĥ
ĠëıĻ ë¬¸
Ġì ½
ëĦ Ĳ
Ġë Ł
Ġì° ½
Ġíİ ĺ
ĠĊ Ċ
£ ½
ìĿ´ ì§Ģ
Ľ Ī
ë° ķ
i g
Ġì¹ ĺ
ìĽ ¨
ë° ±
ĠíĻ ©
Ġê·¸ ìĿĺ
e t
a m
i l
ìĿ¼ ìĹĲ
ĠëĴ ¤
ĠíĻľ ëıĻ
ëĶĶ ìĺ¤
ĠìĿĮ ë°ĺ
ìķ Ļ
ĠëĲľ ëĭ¤
ĠíĶĦ ëŀĳ
Ġí Ĥ
ê·¸ ëŀ¨
ĠìĤ ´
ë¦¬ ìĬ¤
ë¦¬ ëĬĶ
B C
ìĬ µ
Ġ1 3
Ġê²ĥ ìľ¼ë¡ľ
ĶëłĪ ë¹ĦìłĦ
ìĪ ľ
Ġëª »
Ġë° ±
u s
ëĭĪ ìķĦ
Ġì ·¨
Ġ J
í ģ´
ãĢ ī
ĠìŀĪ ìľ¼ë©°
ìĿ´ëĿ¼ ê³ł
ĠìĦ¤ ë¦½
Ġì°¸ ê°Ģ
ĠìŀĪ ìĹĪëĭ¤
ìĿ´ íĬ¸
ì¹ Ń
Ġí ģ´
Ġê²ĥ ìĿ´
å ¤
Ŀ ½
Ġì¶ ©
an d
a s
Ġì¡° ìĦł
Ġë£ ¨
ë³ Ģ
ĠìĿĮ ìķħ
Ġì² «
ìĬ ¬
ì¶ Ķ
ĠìĻ Ħ
ê· ľ
ĠëĤ¨ ìŀĲ
Ġìłķ ì¹ĺ
Ġíĸ Īëĭ¤
ìķĦ ìŀĪëĬĶ
ĠìĽ Ķ
ê¸° ë¥¼
c h
Ġê· ¼
âĢ Ļ
ë¡ Ģ
ĠíĨµ íķ´
ê¸° ìĹĲ
å ®
Ġ19 4
Ġê°Ģ ì§Ģ
i d
Ġëĭ¹ ìĭľ
ë ´ī
ë¦¼ íĶ½
19 7
Ġìļ ©
Ġìĭľ ì¦Į
Ġë¦¬ ê·¸
¤ Ħ
Â ł
ì¡ ´
ë Ŀ½
ì¦ Ŀ
ë¦¬ ê·¸
ë¶ Ī
ãĢ Ĭ
íļĮ ìĿĺ
ëĤ ł
ì ´Į
Ġë°© ìĨ¡
Ġíħ ĶëłĪë¹ĦìłĦ
íĭ Ģ
Ġëı Į
Ġíķ ł
Ġ19 5
ì ĵ°
ìĤ´ ìķĦìŀĪëĬĶ
Ġ 0
ĠíĶĦë¡ľ ê·¸ëŀ¨
ĠìķĦ ìĿ´
ì¡Į ëĭ¤
ëĬĶ ëĭ¤
Ġí ļ
Ġíı¬ íķ¨
ĠíĮ ¨
ĠìĪ ľ
ìĿ´ ìħĺ
å ħ
ĠìĿ Ģ
ë¦¬ ë¥¼
ë¦ Ń
ëŁ ¼
ì± ħ
Ġì ¤Ģ
íĻ ľ
Ġíħ Į
Ġëĵľ ëĿ¼ë§Ī
ĠëıĦ ìĭľ
ë Ķ
Ġìłľ ìŀĳ
ìĬ ¨
ë ģ
Ġë¯¸ êµŃìĿĺ
ĠìĹ° êµ¬
Ġì ĵ°
Ġë³ ĳ
ĠìĿ¼ ë¶Ģ
Ġë ľ
± ¸
Ġê ¶Į
ĩ ¼
Ġê·¸ë¦¬ ê³ł
ì§Ģ ëĬĶ
e d
íļ į
Ġì¹ ľ
Ġì²ł ëıĦ
Ġê·¸ëŁ¬ ëĤĺ
Ġíķĺ ëĬĶ
ê² ĥ
ĠìĹŃ ìĤ¬
ĠìĨ Ĳ
ë ¸Ķ
ĠâĢ ĺ
ìĦ ¼
ĠêµŃ ìłľ
Ġëĵ¤ ìĸ´
ë§ Ĳ
Ġí ĮĢ
Ġ3 0
¸ ìĹħ
ìĿ´ëĿ¼ ëĬĶ
Ġì± Ħ
Ġë§Į ëĵ¤
ëĮĢ ë¡ľ
ĠëĨ Ĵ
ë§ ī
Ġì £½
Ġìº Ĳ
ì º
Ġë§İ ìĿĢ
en t
Ġ201 0
Ġí Ĵ
íĦ ´
Ġê²ĥ ìĿ´ëĭ¤
íĺ ģ
ĠãĢ Ī
1 2
Ġíı Ĳ
ë Ĥ¬
ĠëĮĢ íķ´
æ Ŀ
k m
íĹ Į
Ġí ģ
ëĲĺ ê³ł
u n
ĠìĤ¬ íļĮ
ĠìĿ´ ìĥģ
Ġë ĸ
1 5
íĥ Ŀ
Ġ V
Ġìĭ Ŀ
Ģ ë¡ľ
Ġë ī´
ëħĦ ëĮĢ
Ġì ¼
ê² ¨
ĩ ´
Ġìĺ¬ ë¦¼íĶ½
ëıĦ ë¡ľ
ì³ Ĳ
1 6
ì§ ķ
íķĺ ë©´ìĦľ
Ġëĭ¤ ìĭľ
íķĻ ìŀĲ
Ġ201 2
ë¦¬ ì¹´
ëħ Ĳ
( ,
Ġëıħ ìĿ¼
1 7
ĠíĤ ¤
Ġ201 4
ë ĳ
ĠíĻ į
Ġëľ »
ĠìłĦ ìŁģ
ĠíĹ Ī
ìĿ´ ìĹĪëĭ¤
ì ´Ŀ
ĠìŀĪ ìĹĪ
íĸĪ ê³ł
ìĿ´ ìŀĲ
19 6
ì µľ
ìĬ¤ ëĬĶ
Ġì¤ĳ êµŃ
ì» ¤
ĠìĪĺ ìĥģ
ìĬ¤ íĦ°
Ġë°ľ ë§¤
ĠëĮĢ íķĻ
Ġt he
íĺ ĳ
ëĭ ´
ê°ľ ìĿĺ
ĠëŁ ¬
ë¡ľ ìĦľ
íķ Ħ
00 0
ë³´ ëĭ¤
íķĺìĺĢ ê³ł
Ġëª¨ ëĳĲ
2 2
Ġê³µ ìĭĿ
ĠìķĦ ëĭĪ
ê³ ¨
ĠìĹ¬ ëŁ¬
Ġ200 8
ëĮĢ íĳľ
ĠìľĦ íķľ
ĠĠ ĠĠ
ëį ķ
í ĽĪ
Ġëª¨ ëĵł
ìĬ Ī
Ġ201 3
Ġ201 1
Ġëĭ¤ìĿĮ ê³¼
Ġê· ľ
ìĿ´ ê³ł
íĺ ¼
Ġíģ °
Ġ <
ìĹ Ķ
ëł ¸
ë¨ ¼
íĮ ¨
ëŀĢ ëĵľ
Ġ200 9
ìł ĳ
ĠìĦł ê±°
Ġìłķ ë¶Ģ
ë§ ģ
Ġì ¿
é ĩ
íĨµ ëł¹
ì» µ
Ġ d
Ġìĺ ¨
Ġìľ ¡
ë° Ľ
ë°© ìĨ¡
Ġ2 5
Ġì¡ ¸ìĹħ
ìĤ¬ ë¥¼
ĠëĮĢ íĳľ
Ġìļ° ìĬ¹
ì¹ ľ
ìĿ´ ëĬĶ
ì¸ µ
ìķ Ķ
Ġ201 5
ë¦¬ ìĹĲ
Ġêµ¬ ìĦ±
ëĤĺ ëĿ¼
ĠíĻ ĺ
ëı Į
ë£ ¹
æ ľ
ëį ¸
êµ° ìĿĺ
Ġê²° ê³¼
Ġë¬¸ íĻĶ
ĠíĻ Ī
Ġë ¸Ķ
ä º
Ġ s
ìŀ¥ ìĿĦ
ë ĪĦ
Ġê¸ ¸
Ġê² Ģ
ëĮĢ ìĿĺ
Ġíĺ ĳ
ĠëĨ į
ë ·
ãĢĭ (
u r
ìľĦìĽĲ íļĮ
ë¦¬ ì¦Ī
1 4
ĠìĿ¸ êµ¬
ìĥģ ìĿĦ
ë Ĩ
Ġëĵ± ìĿ´
ìľĦ ë¥¼
ìĦ± ìĿĦ
a d
ĠìĦ¤ ì¹ĺ
ĠìĿ´ ìļ©
Ġ200 7
ìĸ´ ì§Ħ
Ġ201 6
ê±° ëĤĺ
íĬ¹ ë³Ħ
Ġì²ĺ ìĿĮ
Ġì ¸
ëł Į
ìĺģ íĻĶ
ìŀĲ ê°Ģ
ìĭľ ìĹĲ
ìĽ Ģ
ê¸° ìĿĺ
íĤ ¨
ĠìķĮ ëł¤
Ġì¡´ ìŀ¬
i v
Ġê ±¸
Ġê°Ģ ëĬ¥
ìĿ¸ ìĿĺ
¶ ģ
íĥĪ ë¦¬ìķĦ
ë° Ģ
1 1
ì°¸ ê³ł
ì§Ģ ë¥¼
ĠíĶĦëŀĳ ìĬ¤
Ġ201 8
Ġê°ľ ë°ľ
at ion
ëĮĢ íķĻ
ë¦¬ ê°Ģ
Ġëħ ¼
ï ¼
ìĿ´ ìĹĪ
ĳ ¸
Ġëģ Ŀ
Ġê´Ģ ê³Ħ
ê³ł ëĵ±íķĻêµĲ
Ġìľ ¤
Ġìĭ ±
ì° ©
Ġëª© ë¡Ŀ
ìĨ Ĳ
å Ń
Ġë ŀ
ëħĦ ë¶ĢíĦ°
ìĿ ĳ
ĠëĮĢ íĨµëł¹
ëĵ Ŀ
Ġ19 3
ë² Į
Ġë¬¸ ìłľ
ĠìŀĪ ìĸ´
ìĬ¤ íĥĢ
Ġê°Ģ ìĪĺ
Ġ m
ê° Ŀ
Ġ201 7
ĠìĤ¬ ê±´
Ġ â
Ġìĺģ êµŃ
Ġ p
ĠìŀĲìĭł ìĿĺ
ĠìĨ ¡
ĠëĮĢ íļĮ
ìĤ ¼
Ġíķĺ ìĺĢëĭ¤
Ġê¸° ì¤Ģ
ĠìĿ´ ë£¨
u m
Ġìķ ŀ
Ġëĵ± ìĿĺ
ëł¥ ìĿĦ
í ľ
Ġí ŀ
ĠK BS
ĠìĹ Ķ
Ġê´Ģ ëł¨
ĠëĤĺ íĥĢ
ë¶Ģ ë¶Ħ
Ġ200 6
ĠëıĻ ìķĪ
Ġì¦ ī
íĶĦ íĬ¸
® ¤
ë¡ľ ìļ´
ë¬¸ íĻĶ
Ġ2 4
ĠìĿ¼ ë°ĺ
Ġë³ Ħ
o p
ĠìĬ Ī
ìľ ¨
íķľ êµŃ
ìĺ ¬
Ġë° Ģ
Ġë§ ŀ
Ġíĸī ìłķ
í ģ
Ġ c
ĠìĻ Ģ
´ ´
ĠëĮĢ íķĻêµĲ
ì¶ ©
Ġíĸ ¥
Ġê· ¹
Ġë ĳ
ĠëĤ ł
1 3
Ġ f
19 5
Ġê²ĥ ìĿĢ
Ġìł ĳ
Ġì§Ħ íĸī
ë¹Ħ ìķĦ
ĠêµĲ ìľ¡
Ġíı Ń
Ġëħ¸ ëŀĺ
ìĹ ĺ
ì° ¬
į ¨
Ġëĭ Ī
o t
ĠìĦ Ŀ
Ġëĭ ´
Ġë²Ī ì§¸
ëĤ¨ ëıĦ
Ġì§Ģ ë°©
F A
Ġë°ľ íĳľ
ë¦¬ ìĿĺ
.. .
Ġë§ ¡
ë¡ľ ë¶ĢíĦ°
ĠíĹ ¤
Ġìķ ¨
Ġ2 3
ëĭĪ ë©Ķ
ì´Ī ëĵ±íķĻêµĲ
19 4
ĠëĿ¼ ìĿ´
ìŀĲ ìĿĺ
Ġê³ ³
ê° Ī
ĠìłĦ íĪ¬
Ġë³ ¼
) .
Ġë°ľ ê²¬
Ġí ľ
Ġ b
ìĬ¤ íħ
Ġí Ħ
ë¥ ł
Ġìŀ ĺ
Ġê¸° ìĹħ
Ġëĵ± ìŀ¥
Ġì¤ĳ ìĭ¬
Ġì¢ ĭ
Ġ20 19
ìļ° ìĬ¤
ë²Ħ ì§Ģ
ĠìĹĨ ëĭ¤
ë ķĮ
ë¯¼ ì£¼
Ġê· Ģ
Ġë© ´
a g
ê¸ ¸
ĠT V
Ġì¶ľ ìĹ°
íķĺ ë©´
Ġê³µ ê²©
ëĭ Į
Ġ2 1
Ġ2 8
Ġìĭľ ê°Ħ
ëĤ¬ ëĭ¤
ëıĦ ë¡Ŀ
ìĭľ íĤ¤
ê´ĳ ìĹŃ
Ġ200 5
ëĭĪë©Ķ ìĿ´ìħĺ
ĠìĿ´ ìłĦ
Ĳ ëĭ¤
| -
Ġë°ľ ìĥĿ
ĠìĿ¼ë³¸ ìĿĺ
ì¸ ¡
ê¹ Ģ
Ġ2 2
ë²Ī ì§¸
ĠìĿ´ ìĸ´
ëŁ¬ íķľ
Ġê° ĸ
ëªħ ìĿĺ
Ġê²½ ìłľ
Ġíļ ¨
Ġì£¼ ìŀ¥
ê· ł
ĠìĿĺ ë¯¸
Ġê°Ļ ëĭ¤
= "
ìĿ µ
Ġë§ ī
íĿ ¥
Ġë ĪĦ
Ġë³Ģ ê²½
e m
ì¶ľ ìĹ°
Ġ2 6
ëĵ¤ ê³¼
ëħĦ ìĹĲëĬĶ
ê¸° ê°Ģ
ë ĸ
Ġì± ħ
íĸĪ ìľ¼ë©°
Ġì¿ ł
Ġì» ¤
Ġì¤ĳ ìķĻ
ë¡ľ ëĬĶ
Ī Ī
Ġì¼ Ģ
Ġëĵ± ìĿĦ
ĠìĨĮ ìĨį
ë² ¨
íļ ¨
ê¸° ëĬĶ
Ġìĺģ íĸ¥
£ Ħ
T V
r i
Ġ2 7
Ġê³ ¨
ìĹŃ ìĤ¬
ì¿ Ħ
Ġì°¸ ìĹ¬
Ġë² Ķ
íĻĶ êµŃ
Ġíķĺ ê³ł
Ġì ¤Ħ
ĠìĿ´ ëĬĶ
Ġ and
íĴ į
Ġ20 20
Ġë° Ŀ
ëĭ Īëĭ¤
Ġê³ ¡
ĠëĲĺ ìĸ´
ĠìĬ¤ íĥĢ
ë¹ Ī
ìĸ µ
Ġìļ´ ìĺģ
Ġ200 4
ìĦľ ëĬĶ
) :
Ġê¸° ìĪł
âĢ Ŀ
ĠìĿ¸ ë¬¼
ë§ ¹
u t
ìĻĢ ìĿĺ
o s
e c
æ ĸ
Ġíĥľ ìĸ´
a y
ìĭ ±
ĠìĽĶ ëĵľ
Ġë ´ī
ĠT he
Ġìµľ ì´Ī
ìĤ¬ ê°Ģ
êµ¬ ìĿĺ
ìĿ´ ëĵľ
er s
Ġê·¸ ë£¹
ìłķ ìĿĦ
ìľ ¤
ì¹ ¨
Ġëį° ìĿ´
ĠëŁ¬ ìĭľìķĦ
Ġëıħ ë¦½
i r
Ġìķ Ķ
ë ī´
ìĦľ ìļ¸
ìĽĶ ìĹĲ
ë¥´ íģ¬
Ġíķĺ ì§Ģë§Į
ê· Ģ
ìĤ¬ ìĿĺ
ìĦ± ìĿ´
ëħĦ ê¹Įì§Ģ
Ġìł Ī
ĠíĥĢ ìĿ´
Ġë¨ ¸
ĠìĿ´ ëŁ¬íķľ
ìĹĲìĦľ ëıĦ
u l
íĮ ħ
í ĩ´
ìĪ Ļ
o d
ãĢ į
Ġìķł ëĭĪë©ĶìĿ´ìħĺ
ĠìĿ¸ íķ´
Ġì§Ģ ìĽĲ
ĠëĮĢ ë¶Ģë¶Ħ
201 0
ë¦ ´
ë§ ¨
Ġì§ Ī
Ġí ĭ
Ġíĸ Ī
ì į¨
ìķ¼ ë§Ī
Ġìłķ ë³´
Ġìĭľ ëĮĢ
Ġ200 0
ĠìķĦ ëĵ¤
ĠìľĦì¹ĺ íķľ
ĠìŀĲ ìľł
ì» ¬
å ı
ì¡° ìĦł
Ġê° Ī
Ġë§Ī ìĿ´
ë¨¸ ëĭĪ
ë· Ķ
ëĲĺìĹĪ ê³ł
ìĬ¤ ë¥¼
Ġìĸ »
ĠM BC
Ġíĥ Ī
ëĬ Ĳ
ëĵ¤ ìĹĲê²Į
ĠìĿ´ ë¥¼
i a
Ġë¡ľ ë§Ī
i m
Ġ2 9
ĠìĪĺ ëıĦ
ìĻ Ħ
ëĬ ĺ
ë³ ¼
ë¶ģ ëıĦ
ìĬ¤íħ ľ
ì¹ ¸
ìŀĲ ë¥¼
ìĺ ¥
ê³¼ ìĿĺ
ĠâĢ ľ
a p
ĠìĥĿ ê°ģ
Ġ in
Ġìľł ëŁ½
ìŀĲ ëĬĶ
Ġìķ¼ êµ¬
Ġêµ¬ ì¡°
ìļ ķ
íĭ ´
ī ê¸Ģ
ĠìŀĲ ë£Į
ëł ī
ìĬ¤ íģ¬
Ġì ĩ¼
Ġíķ´ ëĭ¹
ìĭľ ì¼
ëĤĺ ëĭ¤
ë¦¬ ìĬ¤íĬ¸
ĠF C
ĠìĥĪ ë¡ľìļ´
Ġë¶Ģ ë¶Ħ
ìļĶ íķľ
ìĿ¼ë³¸ ìĿĺ
ì± Ħ
Ġê²° ìłķ
ìĹĪ ê³ł
o c
ĠìĿ¼ ìĸ´
Ġì½ ĺ
å ľ
ëł¸ ëĭ¤
ìĿ¸ ë¯¼
Ġì¸ ¡
æ °
Ġì²łëıĦ ìĹŃ
Ġëĭ¤ ìĸĳ
Ġ200 3
Ġìĭľ ë¦¬ì¦Ī
ëª ¬
ê°Ģ ì§Ģ
å Ĳ
Ġì¹ ¨
ìĬ¤ ê°Ģ
ëį ´
t h
ëĭ ĺ
ìľ¼ë¡ľ ëĬĶ
Ġíĺķ íĥľ
Ġíĥ Ħ
ì ¢
t er
Ġ ...
Ġì§Ģ ìłķ
Ġê°Ļ ìĿ´
ĠëĤ ľ
ëıĦ ë¥¼
Ġìķ ħ
Ġíı ´
ç Ķ
íı ´
ĠìĬ¤ íİĺ
å ·
ë¥´ ëĬĶ
ìķ Į
Ġíĺ ¼
êµĲ ìľ¡
Ġë°° ê²½
ëĲ ł
Ġ íķĻêµĲ
ĠìĿ´ íĥĪë¦¬ìķĦ
Ġìŀ ¡
ìļ´ ëĵľ
ë¶Ģ ìĿĺ
ĠêµĲ ìĪĺ
ìĭľ ë§Ī
íĺ¸ ìĦł
íķĺìĺĢ ìľ¼ë©°
ĠĊ Ġ
íĸĪ ëįĺ
ĠìĤ¬ ìĭ¤
ì¹´ ìĿ´
Ġê·¸ ëħĢ
Ġ200 2
īê¸Ģ ëŀľëĵľ
ĠìĹ¬ ìĦ±
ìŀĲ ë¡ľ
Ġì ħ
Ġìĭ± ê¸Ģ
ê±° ë¦¬
ĠíĦ °
ĠêµŃê°Ģ ëĮĢíĳľ
Ġìµľ ê³ł
0 1
ĠìĹ ħ
ĠS t
ĠìĹĨ ëĬĶ
Ġê¸ ī
ìĹ ¼
ĠìĤ¬ ëŀĳ
å į
Ġìļ´ ëıĻ
Ġìĥģ íĥľ
ë²Ħ ìĬ¤
Ġëį° ë·Ķ
ì²ĺ ëŁ¼
Ġëħ¸ ìĦł
íĻ į
ĠíĬ¹ íŀĪ
ĠìĿ´ ìĹĲ
ìĹ Ħ
ĠìľĦ ìĽĲ
Ġ Y
3 0
ë¯ Ģë¡ľ
ê´ĳìĹŃ ìĭľ
ìĿ¸ ìĿ´
¥ Ĳ
ĠëĮĢ ìłĦ
ëĲĺìĹĪ ìľ¼ë©°
Ġì° ¾
íĺ ľ
å¤ §
ëªħ ìĿĦ
ìº Ĳ
å ±
ĠâĢ ĵ
ê²½ ê¸°
ì¤ĳ íķĻêµĲ
2 5
Ġë°Ľ ìķĺëĭ¤
ìĹ° êµ¬
ê°Ģ ìĻĢ
201 4
Ġë ¥
ĠìĦ ¬
Ġë² Į
í ŀ
ĠëĦ ĺ
Ġê²½ ìĥģ
Ġ ,
o w
ĠìĹ ĺ
Ġê°Ģì§Ģ ê³ł
Ġë°Ľ ìķĦ
Ġê¸ Ģ
ëłĪ ìĬ¤
Ġìĸ´ ëĸ
201 2
Ġì§Ħ ì¶ľ
ìĹĲìĦľ ìĿĺ
å °
ëĮĢ ë¥¼
ĠìĦ± ê³µ
ëĵľ ëĿ¼ë§Ī
ê ¶ģ
201 1
íķĻ ê³¼
íľ ĺ
ł ëĭ¤
ìŀĲ ìĿ¸
íİĺ ìĿ´ì§Ģ
ìĭĿ ìĿĦ
Ġì¹ ¼
ĠìķĦ ë²Ħì§Ģ
íĺ Ģ
Ġìķ¨ ë²Ķ
Ġìŀĳ ê³¡
Ġì£¼ ë¡ľ
ĠìĿ¸ íĦ°
ìĥ Ī
200 8
ìľ¼ë¡ľ ìĦľ
Ġê³Ħ ìĨį
ëªħ ìĿ´
Ġë¸Į ëĿ¼
Ġë§¤ ìļ°
ĠíıĲ ì§Ģ
ĠìĥĿ ìĤ°
ĠíĶĦ ë¦¬
0 7
ĠìŀĪ ê³ł
ëŀ Ļ
ê¸ ´
ìĸ´ ë¡ľ
é ģ
201 5
ĠìĨĮ ìŀ¬
ĠëłĪ ìĿ´
ĠëĶ ¸
ĠìĿ´ ê²ĥ
ëŀ µ
ĠêµŃ ë¯¼
ĠëıĮ ìķĦ
ĠìŀĪ ëįĺ
âĢ ĵ
Ġê³ł ëł¤
¿ Ĳ
Ġ [
h t
ì £Ħ
Ġ1 00
ëĲĺ ì§Ģ
200 9
ê ´´
ì¶ ĺ
Ġë¹ Į
Ġëª¨ ëį¸
ĠíĹ Į
c e
ĠìķĬ ìķĺëĭ¤
ìĦ ¬
Ġìĭľ ìłĪ
ìļ´ ëıĻ
íı¬ ì¸ł
Ġì» ´
Ġìłľ ê³µ
Ġì¡° ì§ģ
201 3
ĠìĦ ¼
ê¸° ë¡ľ
0 3
ìŀ¥ ìĿ´
o g
201 6
Ġ20 21
ìĽĲ ìĿĺ
Ġ3 1
Ġê³µ ëıĻ
ìĿ į
ìķ ķ
Ġê±° ì£¼
ĠíĽĦ ë³´
Ġ200 1
ĠìĿ´ ìķ¼
Ġê¸° íĥĢ
K BS
Ġë¶Ģ ìĤ°
ê² Ģ
Ġìļ ¸
íķ´ ìĦľ
o v
Ġê±´ ì¶ķ
Ġêµ¬ ê°Ħ
ë¦¬ ìĺ¤
ĠíĻĪ íİĺìĿ´ì§Ģ
ì¹ Ļ
2 3
ëĤ ¸
ì¢ Į
ĠìķĦëĭĪ ëĿ¼
ëĤĺ ëĬĶ
ì ĩ¼
Ġì¢ Į
ìĦ± ìĿĺ
ìĪĺ ìĿĺ
ĠìĿ´ ìľł
ë¡ľ ìĬ¤
ä ¹
íĶĦ ë¦¬ì¹´
ìĿ¸ë¯¼ ê³µ
éĩ ĳ
ĵ ¨
ë¦¬ ê³ł
a b
´ ëĵľ
ĠìĨĮ ìĦ¤
ĠëĤ´ ìļ©
2 4
Ġê³Ħ íļį
ëĦ ·
Ġíŀ ĺ
Ġì°¨ ì§Ģ
Ġë ®¤
° ëĭ¤
ìĬ¤ ì½Ķ
ĠíķŃ ê³µ
ëıĦ ëĬĶ
æ ĺ
ĠêµŃê°ĢëĮĢíĳľ íĮĢ
ìĽĲ ìłĦ
ĠìłĦ ì²´
Ġë°© ë²ķ
ĠìķĬ ê³ł
ĠI n
ëıĦ ê°Ģ
Ġìŀ ł
Ġëª ĩ
ìłĦ ìĿĦ
ì§Ģ ë§ī
íĨ ¤
ë¦¬ ì§Ģ
ĠìķĬ ëĬĶëĭ¤
Ġë°Ķ ìĿ´
Ġê´Ģ íķľ
Ġëĭ¤ ìĿ´
ĠêµĲ íĨµ
Ġìĭľ ìĬ¤íħľ
ìĭľ ê°Ħ
ìĸ ¼
ë¥´ íĬ¸
200 7
Ġë¹ ł
é Ļ
ar t
ë¹ Į
å ¾
19 3
ĠëĬ ¥
ëĭ Ŀ
ìĿ¼ ë¶ĢíĦ°
i st
ìĥ ¤
ĠìĽ Į
201 7
Ġëĳ ĺ
Ġ w
Ġëħ ¹
ë¡ ¯
ìļ ±
é ĥ
å ¯
Ġì£¼ ìļĶ
ìĭ Ń
íĥ ķ
Ġë ĪĪ
ëıĻ ì°¨
ì½ ľ
Ġëĸ ¨
i e
ìĽĲ ìĿĦ
200 6
Ġê°ľ ìµľ
ĠãĢ Į
ĠìĦ± ìļ°
ìĿĮ ìĿĦ
Ġë¶Ħ ë¥ĺ
Ġìĸ ¼
ìŀ ¡
ĠëĶ° ë¥´
Ġëĸ ł
ë² ¤
0 6
íĻĶ ë¥¼
ĠíĺĦ ëĮĢ
ĠìĹ° ê²°
Ġë°°ê²½ ìľ¼ë¡ľ
Ġ |
ì½ ĺ
ì ·¨
ë¶Ģ ìĹĲ
íķĻ ê¸ī
ac k
0 5
íķĺê¸° ëıĦ
ìĤ¬ ëĬĶ
ĠìĻ¸ êµŃ
ê¶Į ìĿĦ
ìĿ¸ ëĭ¤
íĶ¼ ìĸ¸
íĻ ķ
es s
ĠìĽ ¹
Ġëª¨ ìĬµ
Ġ199 9
Ġí į¼
ĠìĹŃ íķł
ë¹Ħ ìĬ¤
201 8
Ġì¶Ķ ê°Ģ
íĶĦ ëŀĳ
æĿ İ
Ġâ Ĩ
Ġë§İ ìĿ´
ĠëıĦ ë¡ľ
ëĵľ ëĬĶ
ë§ ¥
Ġ v
íĶĦ ë¡ľ
íķĺ ìŀĲ
í ĳ¸
ĠíĿ ¬
ĠìĿ¸ ê°Ħ
ìļ´ ëį°
ĠS BS
ĠíĶĮ ëłĪìĿ´
Ġëª ¸
0 2
. )
ĠìĤ¬ ìĹħ
íħ Ĳ
ëĮĢ íķľ
½ ĥ
íĹ ¤
ĠíĬ¹ ë³Ħ
Ġ199 8
ìĪĺ ë¥¼
ĠíĮ Ķ
íĬ ľ
Ġë§Ī ì§Ģë§ī
íģ Ĳ
íĬ¸ ë¡ľ
íĦ ¸
ì ¥Ĳ
ë£ ¡
ĠìĿ´ ë¯¸
Ġë¯¼ ì£¼
ìĤ¬ ê´Ģ
ĠìĹ´ ë¦°
ĠëıĦ ì¿Ħ
Ġê²° êµŃ
¾ ¸
Ġëĭ¤ìĸĳ íķľ
Ġë§ ¥
êµ ´
ĠìķĦ ëŀĺ
Ġ199 6
ìĿ´ ìĿĺ
Ġ &
ãĢ ı
ìĬ¤ íĥĦ
r a
ìĤ¬ ë¡ľ
Ġê³µ ê°ľ
Ġê³¼ ìłķ
Ġíĭ °
íĨ ¨
ìķ ¡
ê°Ģ ëĬĶ
ê³ ³
íķ Ģ
Ġê² ©
ĠC h
ìľ¼ë¡ľ ë¶ĢíĦ°
íĿ Ĳ
ëª¨ íĨł
ìłĲ ìĿĦ
ĠìĹ Ħ
Ġìľł ì§Ģ
ĠìĽĶëĵľ ì»µ
ĠíķĦ ìļĶ
Ġìľł ëªħ
ç İ
íĥ ģ
Ġê°Ģ ì§Ħ
ä »
Ġìłķì¹ĺ ìĿ¸
Ġë¬ ĺ
Ľ °
ig n
Ġë³´ ê³ł
ìĥģ ìĿĺ
Ġê¸° ëĬ¥
ĠìłĦ ëĿ¼
ë©Ķ ëĭ¬
ëĥ Ĳ
ë¥ Ļ
ī ¬
ĠíĴ į
ìľ¼ë¡ľ ìį¨
0 9
Ġìĺ¤ ìĬ¤íĬ¸
Ġì± Ķ
Ġë¬¸ íĹĮ
Ġëª °
ĠĊĠĊ ĠĊĠĊ
0 8
Ġíĳľ íĺĦ
ĠìĥĿ íĻľ
Ġìļ´ íĸī
ìĿ´ ê°Ģ
í ĵ¨
íı °
Ġê°Ģ ìļ´ëį°
ĠìķĦ ë¥´
ìŀ¥ ìľ¼ë¡ľ
ĠìĽ ¨
Ġê±° ìĿĺ
êµ° ìĿĢ
Ġíķĺ ìĹ¬
Ġ st
Ġê°Ģ ë¦¬
ĠìĿ´ ëģ
Ġ l
20 00
ĠF I
ĠëĨĴ ìĿĢ
Ġë§Įëĵ¤ ìĸ´
ìĸ´ ë¥¼
ìł ¤
ìłľ ë¡ľ
íĹ Ī
ìŀ¥ ìĿĢ
ĠìķĬ ìĿĢ
Ġíķĺ ê³Ħ
ëĶ ©
Ġê°ģ ê°ģ
ëł ĩ
æ Ń
Ġê² ¸
Ġê²½ê¸° ëıĦ
2 8
Ġíľ ´
Ġê´Ģ ë¦¬
Ġìłľ êµŃ
ëĥ Īëĭ¤
Ġ199 7
íķĺ ëł¤
Ġì½ ľ
ĠìĿ ĳ
å ¹
Ġì¶ľ ìłĦ
2 6
ĠëĮĢ ìĥģ
0 4
Ġìĸ´ ë¨¸ëĭĪ
ìĦ¼ íĦ°
Ġ Â·
íķĺ ëįĺ
ĠìĿ¸ ìłķ
ëĭ¤ ê°Ģ
ĠìĿ¸ ëıĦ
20 19
ëĮĢ íķľë¯¼êµŃ
ì§Ģ ìĿĺ
Ġìĸ´ ë¦°
ìħ Ķ
ëł¥ ìĿ´
Ġ199 5
å± ±
20 20
Ġìŀĳ ìĿĢ
íķ´ ìķ¼
Ġì±Ķ íĶ¼ìĸ¸
ìĽĲ ìĿ´
æ ´
es t
íĬ¹ë³Ħ ìĭľ
Ġìķ ¤
Ġê°ľ êµĲ
Ġìĺ¤ ë¸Į
ì² Ļ
200 5
Ġìĥ ¤
Ġìĺģíĸ¥ ìĿĦ
Ġë°ľ ìłĦ
ê°ľ ìļĶ
Ġíıī ê°Ģ
¹ ìĿĢ
´ ¬
ìĿ´ ìĸ´
Ġì Į
ĠëĶ°ë¥´ ë©´
ĠëĤĺ ëĿ¼
ĠëĮĢ ìĭł
Ġì§ģ ìłĳ
´ Ħ
ê³ ¤
ĠíķĻ ìĥĿ
Ġê±´ ìĦ¤
Ġë¹Ħ ëĶĶìĺ¤
ĠìłĦ êµŃ
ìĿ¼ ìĿĺ
ĠìĿ´ë¦Ħ ìĿĦ
ìĬ¤ ìĻĢ
Ġì£¼ ë³Ģ
5 0
in e
2 7
ĠìĿ´ë£¨ ìĸ´
ìĤ¬ íļĮ
ìĺĢ ëįĺ
ëģ ¼
Ġìŀĳ ê°Ģ
íı Ń
Ġê²° íĺ¼
íħ Ķ
it y
ì¹´ ìĻĢ
Ġì§Ģ íķĺ
ĠëĤ¨ ìķĦ
Ġìĥģ íĻ©
Ġë² ¨
ìŀĲ ìĻĢ
T he
ĠìŀĲ ìĹ°
ĠìĿ´ ëıĻ
ì£¼ ìĭľ
ĩ Į
´¬ ìĺģ
2 9
Ġë¨ ¹
å º
ä ½
Ġìłķ ìĿĺ
íķĺ ì§Ģë§Į
è ¡
ìĬ¤ ë¡ľ
ar d
ĠìĬ ¬
Ġê·¸ ê²ĥ
ĠìĦł ìłķ
ëĵ Ģ
ì ĩ
a v
Ġê ¼
ì³ ¤
ĠìŀĦ ëªħ
ëĭ¤ ëĬĶ
Ġ199 0
c t
ë°Ķ ìĿ´
Ġê±´ ë¬¼
ë¯¸ ëĶĶ
ì§Ģ ìĹĲ
Ġë³´ ìĹ¬
ĠìĿ´ ë¡ł
ĠëıĻ ë¬¼
ĠêµŃ íļĮìĿĺ
Ġë°© ìĭĿ
ë¡ ¤
é ķ
Ġí Ľ
ê¸° ê´Ģ
ìĻ Ķëĭ¤
Ġêµ¬ ìĹŃ
Ġí ĳ¸
ìĿ¸ ìĿĦ
ìĪĺ ìĥģ
ĠëĲĺ ëĬĶ
íı Ĳ
Ġìķ ķ
ìĪĺ ê°Ģ
ĠìķĬ ëĬĶ
Ġë Ľ°
ê³µ íķŃ
ëıħ êµĲ
el l
Ġ å
Ġê²½ ì°°
ê³¼ íķĻ
200 4
ìŀ Īëĭ¤
il l
ìłľ ê°Ģ
ìłľ ë¥¼
ì§Ģ ê³ł
ìĥĿ ìķł
íĸĪ ì§Ģë§Į
a k
ĠëĬ Ĳ
Ġìĥ ī
ëĨ į
i f
ëł Ģ
ĠìķĮëł¤ ìł¸
ì ¤Ħ
ê² ¼
Ġë° ´ëĵľ
Ġë¶ Ļ
ìłķ ë¶Ģ
Ġë§Ī ìĿĦ
ĠìĬ¤ íı¬ì¸ł
Ġìĸ¸ ìĸ´
ĠìłĦ ë¬¸
ìĤ¬ ìĹĲ
Ġì§Ģ ëıĦ
Ġê·¸ë¦¬ ìĬ¤
ĠëĤĺ ìĺ¤
¤ ë²Ħ
Ġì¶ľ ìĭľ
ìĤ¬ ì¹´
ìĦł ê±°
ì¼ ĵ
ë¯¸ êµŃ
Ġ n
Ġíķ µ
ì¹ĺ ëĬĶ
al l
un d
ìĽ¨ ìĸ´
ìŀ¥ ìĿĺ
ëĳ ¥
ì²ł ëıĦ
ĠFI FA
ìľĦ ìĹĲ
Ġ X
ë² ½
ë© ĺ
Ġê¸ ´
ëłĪ ìĿ¼
Ġí ĽĪ
Ġ5 0
ĠìķĦ ìĭľ
íĵ¨ íĦ°
ëł ¬
ĠìĻĦ ìłĦ
Ġíĥ Ĳ
Ġ199 4
å Ī
ĠëĮĢ êµ¬
Ġíĺķ ìĦ±
ëĮĢ ìĹĲ
S T
ëŁ¬ ìĬ¤
ìĿ¸ ìĿĢ
Ġì·¨ ìŀĦ
ì½Ķ ëĵľ
ĠëĶ°ëĿ¼ ìĦľ
ëĤĺ ìĿ´
êµ° ìĹĲ
ëį ľ
íĺĦ ìĿĺ
íĤ¨ ëĭ¤
ë¨¼ íĬ¸
ìĦ¸ ìĿĺ
Ġê³¼ íķĻ
Ġìłķ ëıĦ
ĠìĦľ ë¡ľ
ĠíĽĦ ìĹĲ
ĠëĤ ®
ç ¾
ì§Ģ ë¡ľ
ìĹ¬ ìŀĲ
ķ ħ
êµ° ìĿ´
Ġê³µ ê°Ħ
ĠìķĦ ëĭĮ
ĠìķĬ ìķĺ
Ġëħ¸ ëıĻ
Ġë§Ĳ íķľëĭ¤
Ġêµ° ìĤ¬
ëĵ¤ ìĹĲ
ë§ Īëĭ¤
ëĮĢ íļĮ
ìª½ ìľ¼ë¡ľ
ìĹ Ĩ
Ġìľ Į
ìļĶ ìĿ¼
ìłĦ ìĹĲ
Ġëªħ ì¹Ń
Ġë¹ Ī
Ġëĭ¨ ì²´
Ġë§Į ëĵł
íĬ¸ ë¦¬
Ġì§Ģ ê¸Ī
ì§Ģ ê°Ģ
Ġê³µ ìĹ°
Ġì§Ģ êµ¬
Ġê¸° ê´Ģ
íģ¬ ë¡ľ
Ġìłľ ìĻ¸
Ġì¶© ì²Ń
Ġì ´¬ìĺģ
æ Ī
ìłķ ë³´
ĠìĺģíĻĶ ìĿ´ëĭ¤
ëĲ Ĳëĭ¤
ĠëıĻ ìĭľìĹĲ
ìĺ¤ ì¹´
Ġìłķ ì±ħ
ĠíĻľ ìķ½
ëĭ¨ ìĿĺ
ì§Ģ ë°©
Ġìĥģ ëĮĢ
ê³Ħ ë¥¼
ë¬ ĺ
ĠíĨµ íķ©
íĭ ±
ìĦł ìĿĺ
Ġê¸° ë°ĺ
ì§Ģ ìĹŃ
Ġê¸° ê°Ħ
ĠìĹ° íķ©
ë¦° ëĭ¤
Ġì¤ĳ ìļĶíķľ
Ġê°ľ ìĿ¸
ë¥¸ ëĭ¤
ìĿ¼ ê¹Įì§Ģ
' s
e x
ë¶Ģ ë¥¼
Ġìĭ ¸
ìĬ¤ íĤ¤
e v
ìĽĲ ìľ¼ë¡ľ
u b
ĠìĤ¬ìĿ´ ìĹĲ
y le
Ġê¸° ëħĲ
ĠìĹ° ê·¹
ìłľ ìĿĺ
ì¹ ¼
íķĺ ëĿ¼
ì¹ĺ ë¥¼
e p
Ġì Ķ
200 2
Ġ18 9
ìĽĲ ìĿĢ
ĠíĮĲ ë§¤
ĠìļĶ êµ¬
ìĽ ħ
Ġì¹ľ êµ¬
ì½ ©
Ġê¸° ë³¸
Ġê³ł ëĵ±íķĻêµĲ
Ġìĭ¤ ìĭľ
ìĬ¤ íħĮ
ĠìĿ¼ ìľ¼
ì§Ħ ëĭ¤
ĠìĿĺ íķľ
ĠëĦ Ī
ëĤĺ ìĿĺ
ĠëıĦ ìŀħ
Ġë§ Ŀ
ĠìĿ¸ ì²ľ
Ġë°ĺ ëĮĢ
ì£¼ ìĹ°
ë©Ķ ë¦¬ì¹´
å ¸
Ġê²½ ëł¥
an g
ìĤ¬ ìĻĢ
ãĢĭ ,
ĠìĤ° ìĹħ
ëĵľ ë¦¬
ì¹ ł
ĠìĪĺ íĸī
íĬ ¼
Ġë¹Ħ ë¡¯
Ġì¤ĳ íĻĶ
ìĿ¼ ëŀľëĵľ
ë¦¬ìķĦ ìĿĺ
Ġ a
ĠìŀĪëĬĶ ëį°
ìĬ¤ íĭ°
ĠìĹŃ ìĭľ
ĠíĬ¹ ì§ķ
Ġë ¿Ĳ
ĠìĪĺ ë¡Ŀ
Ġí ĩ´
ç Ľ
Ġê³Ħ ìķ½
Ġíģ¬ ê²Į
ìĿ´ ë¥¼
Ġê°Ģ ì¡±
íĹ ¨
Ġê¸°ì¤Ģ ìľ¼ë¡ľ
íĬ¸ ìĿĺ
Ġíĺ ģ
Ġìĺ ¥
ĠìĦ¤ë¦½ ëĲľ
Ġíģ¬ ë¦¬ìĬ¤
ĠìºĲ ëĤĺëĭ¤
ìĬ¤ ì¹´
Ġíİ¸ ìĦ±
ë²ł ìĿ´
Ġë© ¤ë²Ħ
ëĮĢ ê°Ģ
ìłĦ ìĹĲìĦľ
ìĤ¬ ìĹħ
Ġê·¸ ê°Ģ
ë¦ ī
ĠìĹ° ìĨį
ìŀĦ ìĿĦ
Ġ199 2
ìĤ¬ ìĿ´
Ġ =
é Ŀ
Ġë¯¼ ì¡±
al ign
i an
ĠìĹ° ì£¼
Ġìļ° ì£¼
æ Ĺ
Ġ199 3
ëĵľ ë¡ľ
Ġê·¸ ëŀĺ
ĠìĻ¸êµŃ ìĿ¸
ëħ ¼
ê¸° íĥĢ
Ġì°¨ ëŁī
ĠìĹ° ë°©
Ġìĭľ ìĦ¤
n d
ìķĦ ìĿ´
Ġëį°ìĿ´ íĦ°
200 3
ĠìłĦ ê¸°
F C
ìĨĮ ëħĦ
ìĬ¤ íİĺ
ĠíĻĺ ê²½
Ġìĭľìŀĳ íĸĪëĭ¤
e w
æ ³
ê° ĳ
ì¶ķ êµ¬
M BC
Ġìĸ´ëĸ ¤
ìĨĮ ë¥¼
ìĦľ ê´Ģ
ĠëĲĺ ìĹĪ
Ġê°ľ íĨµ
ë¬¸ ìĿĦ
Ġê² ¬
ëĲĺ ë©°
ĠìĬ¤ ìľĦ
íıī ê°Ģ
ëĿ¼ ìĿ¸
4 8
ĠëĿ¼ ëĶĶìĺ¤
ëĤĺ ë¬´
ĠìĤ¬ ê³ł
ê¸° ìĪł
íĤ ¹
ĠëĨ ĵ
ìŀ¥ ìĹĲ
êµŃ ë¯¼
Ġíĥ ĳ
Ġì° ©
ì¦ ĺ
ëįľ ëŀĢëĵľ
Ġê°ľ ìĿĺ
å Ł
ëĲĺ ë©´ìĦľ
Ġë¹Ħ íĮĲ
i p
ĠíŀĪ ë¡ľ
¢ °
Ġìľ¡ êµ°
ìĭľ ì½Ķ
Ġ199 1
çİ ĭ
b er
íĻĶ êµŃìĿĺ
Ġë¯¸ ìĪł
Ġìłķ ëĭ¹
ì£¼ ëĬĶ
ë£¨ ìĬ¤
ĠìĨĮ íĶĦíĬ¸
íĻĶ ê°Ģ
ìł Ŀ
ĠëĤĺ ê°Ģ
ĠìĹŃíķł ìĿĦ
. "
íĮ Ķ
ì²´ ìĿĺ
Ġë³´ íĺ¸
ĠìŀĪ ìĿĦ
Ġëĭ´ ëĭ¹
iv e
ëĭ ī
Ġê±° ì³Ĳ
Ġë©Ķ ëĭ¬
Ġì´Ī ê¸°
ĠìĤ¬ ë¬´
ĠìĦ¤ ëªħ
ĠìĿ¸êµ¬ ëĬĶ
Ġíģ´ ëŁ½
ë ĺĲ
ëĤĺ ê°Ģ
ìŀ Ķ
íĨł ë¦¬
Ġê ¶ģ
ĠëĤĺ ë
ëª ½
ĠìĬĪ íį¼
Ġ20 22
Ġê¸° ì¡´
ĠìŀĪëĭ¤ ê³ł
u d
ë¥´ ê²Į
ìłģ ìĿĢ
ê´Ģ ë¦¬
Ġìµľì´Ī ìĿĺ
ĠãĢ İ
Ġì§ĢìĹŃ ìĿĺ
ìŀ¥ ìĹĲìĦľ
Ġë°°ìļ° ìĿ´ëĭ¤
Ġì²ĺìĿĮ ìľ¼ë¡ľ
íĬ¸ ëĤ¨
Ġì¢ħ êµĲ
a e
ç ¥
ĠìĽĲ ëŀĺ
Ġëľ» ìĿĢ
ĠíĮ ¬
ë¡ Ń
ë¶Ģ ëĬĶ
ëª °
íĺĦ ìŀ¬
ĠìĨĮ ëł¨
ou r
Ġê³µ íķŃ
Ġíĸī ëıĻ
ëĮĢ ëĬĶ
ìł ł
Ġíĺ ¹ìĿĢ
Ġíĥľìĸ´ ëĤ¬ëĭ¤
ĠìłĦ íĨµ
ãĥ »
Ġìŀ īê¸Ģëŀľëĵľ
Ġëĵ Ŀ
ìĪĺ ëĬĶ
Ġëĭ¬ ë¦¬
ĠìĹ¬ ê°Ŀ
íķĺ ìĿ´
Ġì¹ ¸
ì¤ĳ ìĹĲ
ìĿ´ìĹĪ ëįĺ
ìłķ íķľ
ë ®¤
Ġìĺ ®
ĠêµŃ ë¦½
ìĸ´ ëĬĶ
ĠìĹ ¼
ìĬ ·
ìĬ¤ íĦ´
í Ĥ¬
ì£¼ ìļĶ
æ ²
ë° į
ìłķ ìĿĺ
ìĪĺ ë¡ľ
e b
Ġ198 0
6 0
ê° Ķëĭ¤
Ġë°Ķ ë¡ľ
ĠêµŃíļĮìĿĺ ìĽĲ
ë¦¬ íķĻ
ë¦¬ ìĻĢ
íĺ Ķëĭ¤
Ġíķľ íİ¸
Ġë²ł ìĿ´
ê²© ìĿĦ
ĠìľĦ íķĺìĹ¬
200 1
íķĺëĬĶ ëį°
ĠìĨ Ķ
íĬ¸ ë¥¼
Ġìłģ ìļ©
ëªħ ìĿĢ
í Ģ
íĸĪ ìľ¼ëĤĺ
Ġë¯¸êµŃ ìĿ¸
Ġíķĺ ìĺĢ
ĠíĶ¼ íķ´
ĠíĴ Ģ
Ġë§Ī ìĿĮ
ĠĠĠĠ ĠĠĠĠ
Ġì¦Ŀ ê°Ģ
Ĳ ë¦¬
ë ¢°
ĠëĲ ł
æ Ľ
ëĵľ ìĿĺ
ëĿ¼ ìĿĺ
Ġë°© ìĺģ
ë¬¼ ìĿĦ
Ġ g
ĺ ë¦¬
ëĿ¼ ìĬ¤
Ġìķ ¡
ĠêµŃ ëĤ´
ĠìĹŃ ìŀĦ
Ġì» ¨
ë¥´ ê³ł
ãģ ®
Ġê° ĳ
ìħ Ģ
Ġì ĵ
ĠìĿ´ ìĤ¬
ìĦľ ë¥¼
or t
ìħ ľ
íİ ľ
Ġ198 7
Ġë¹Ħ ìĬ·
ĠìļĶ ìĭľ
êµ° ìĿĦ
an t
Ġë³´ íĨµ
ìĿ¸ë¯¼ê³µ íĻĶêµŃ
Ġì»´ íĵ¨íĦ°
ìĦ Ń
Ġìľł ìĿ¼
Ġëį ķ
ĠìĪ Ļ
ĠëĲĺ ê³ł
Ġìµľ ëĮĢ
Ġíķĺ ë©°
ĠìĹ´ ì°¨
ë£ ¬
it h
Ġê³¼ ê±°
Ġì§Ģ íľĺ
ìĿ´ ê¸°ëıĦ
ìĦł ìĿĦ
ê°Ħ ìĿĺ
ìĩ Ħ
Ġì£¼ ìĹ°
ĠìĦł íĥĿ
ìĹŃ ëĮĢ
ĠìĿ´ìķ¼ ê¸°
20 21
Ġìŀĳ ìĹħ
ë¯¼ì£¼ ì£¼ìĿĺ
Ġì°¾ ìķĦ
ìĦ± ìĿĢ
ëĵ ¬
Ġê¸° ëıħêµĲ
ê³¼ ëĬĶ
Ġë° ¤
ë°° ìļ°
ëıĦ ìĹĲ
ĠìĨĮìŀ¬ ë¡ľ
Ġê²½ê¸° ìĹĲìĦľ
ĠíĻķ ìĿ¸
ĠìĬ¹ ê°ķ
êµĲ íĨµ
é Ľ
ìķ ¤
æ µ
Ġíļ į
ĠëĤ Ļ
ĠìĤ¬ ìĥģ
ì²´ ë¥¼
Ġ4 0
Ġ ?
Ġë©Ķ ìĿ´
íĺĳ íļĮ
éģ ĵ
ë¦Ń íĦ°
íĨ¨ ë¦Ń
ìĿ¸ ë¬¼
ig ht
ìłģ ìĿĦ
Ġ .
ìľ µ
Ġì§Ģ ëĤĺ
Ġëª¨ ìĸĳ
Ĭ ìĿĢ
ìĭľìķĦ ìĿĺ
Ġë°Ľ ìĿĢ
f t
E FA
íķĺìĺĢ ìľ¼ëĤĺ
ëĭ¹ ìĿĺ
ìĤ¬ íĤ¤
íķĺ ê±°ëĤĺ
ĠìĹĨ ìĿ´
ìĭľ ëĮĢ
ì ī¬
Ġìµľ ì¢ħ
ìĭľ ì¦Į
ìĤ¬ ìĿ´íĬ¸
Ġì§Ģ ë°°
ìĦ¸ ê³Ħ
ìľ Ī
Ġë¶Ģ ë¬¸
ĠìĹ° ê¸°
ê ¾¸
ê² Ĳ
ĠìĺĪ ìĪł
q u
Ġ198 8
æĸ ĩ
ë¦¬ ë¡ľ
ĠìķĦ ëĤĺ
m m
êµĲ íļĮ
ë ľ
ĠêµŃìłľ ê³µíķŃ
Ġ198 9
ĠêµĲ íļĮ
ìłķ ìĹĲ
ìĺĪ ìĪł
Ġë¹Ħ êµĲ
Ġë°© íĸ¥
ìĸ´ ê°Ģ
æ Ļ
ìľĦ ë¡ľ
Ġìļ° ë¦¬
ĠìĬ¤íİĺ ìĿ¸
ê²½ ìłľ
Ġíķĺ ìĿ´
Ġë¡ Ŀ
Ġëī´ ìļķ
ë²ł ë¥´
ĠëĮĢ íķĺìĹ¬
4 0
ĠíĿ ĳ
ì¡° ìĿĺ
ĠìķĦìĭľ ìķĪ
ìĽ¨ ëį´
ìļ° ìĬ¹
ë©Ķ ìĿ´
ĊĊ Ġ
ĠëłĪ ì½Ķëĵľ
ä¸ Ń
Ġë¨ ¼
Ġìĺ Ľ
N A
ro w
Ġì´Ī ëĵ±íķĻêµĲ
Ġìľ Ī
u p
Ġì ī
ìľ¼ ë©´
Ġì£¼ ìĿ¸
Ġì¶Ķ ìłķ
ì§Ģ íĦ¸
ĠëĦ ĵ
s p
Ġìķ¼ ë§Ī
ìĿĺ ë¥¼
Ġë° ĸ
ìķĦ ìĿĺ
ëĮĢ ìłĦ
ìĽĮ ëĵľ
) Â·
ĠìŀĲ ê¸°
ĠíĶĦë¡ľ ëĵĢ
ķ ìĭľì½Ķ
ì§Ģ ìĽĲ
íĸī ìłķ
Ġëª ½
199 9
¶ ¤
Ã ©
ĠĠ Ġ
f f
ĠâĨ Ĵ
Ġì¡° ì§Ģ
ëħĦ ìĿĺ
ĠìĿ´ëģ Į
ëĿ¼ ìļ´ëĵľ
Ġë¶Ħ ìķ¼
ìŀĲ ë¦¬
Ġê±°ì£¼ íķľ
ëĭ¤ ê³ł
ĠêµĲ íĻ©
ëıĻ ìķĪ
ĠìŀĪëĭ¤ ëĬĶ
ìĭľì¼ °ëĭ¤
åŃ ¸
Ġê·ľ ëª¨
ĠìĺĪ ìłķ
ĠëŁ °
ĠìŀĪ ì§Ģë§Į
ĠíĽĦ ë°ĺ
ĠíĿ Ķ
íĺ Ī
ë ±
ì¢ħ ìĿĺ
ìĸ´ ìĿĺ
ëŀ «
ìĽ¨ ìĿ´
r an
êµŃ ê°Ģ
Ġíĥľ ìĸĳ
æ ł
Ġë³´ ëĤ´
Ġë¶Ħ ë¦¬
Ċ ĠĊ
å ¿
a st
ëªħ ìĿ´ëĭ¤
ĠíĶĦë¡ľ ìłĿ
ë¬¼ ê´Ģ
ê² łëĭ¤
ìŀ īê¸Ģëŀľëĵľ
íĺ¸ ë¥¼
Ġíĳľ ì¤Ģ
ìĬ¤ ì¼Ģ
Ġìĥģ ëĭ¹
c m
Ġê±´ì¶ķ ë¬¼
ĠìĦł ë°ľ
Ġìĭ¤ íĮ¨
ìĨį ëıĦë¡ľ
Ġëĸ¨ ìĸ´
ëĿ¼ ëıĦ
Ġì¡° ìĤ¬
íĥ ĳ
ë¶Ģ ë¥´íģ¬
ĠëĮĢ ì²´
ĠìĿ µ
êµ¬ ìĹŃ
íĥĢ ìĿ´
Ġëªħ ìĿĺ
Ġê°ľ ëħĲ
é ĸ
Ġì¤ĳìĭ¬ ìľ¼ë¡ľ
ìĿ´ ëŀĢ
ĠìŀĲ ì¹ĺ
íļĮ ìĤ¬
ĠìŀĲìĭł ìĿ´
199 8
ë¬´ ëĿ¼
ĠìĤ¼ ìĦ±
ĠìĿ´ìĥģ ìĿĺ
íģ¬ ìĿĺ
Ġê´ĳ ì£¼
Ġì¶ľ íĮĲ
íŀ Į
ĠìĿ´ ìĻĢ
ë¦ ¿
ìĬ¤ íĨł
E R
Ġìĺģ êµŃìĿĺ
ĠìĿ¼ë°ĺ ìłģìľ¼ë¡ľ
ĠìĦľìļ¸ íĬ¹ë³Ħìĭľ
Ġê°Ģ ê¹Į
ìĽ ĥ
Ġì´Ī ëĮĢ
ĠìĪĺìĥģ ìŀĲ
¿ Ī
ìĦł ìĪĺ
íķĻ ìłģ
Ġë§Ī ë¥´
íĤ¤ ëĬĶ
Ġ h
on g
ìĿ´ ì§Ģë§Į
ëĭĪ ìĬ¤
Ġìĸ´ ëĬĲ
Ġì§Ģ ì§Ģ
ĠíĹ ¬
Ġê°ľ ìĭľ
ĠìºĲ ë¦ŃíĦ°
êµŃ ìłľ
ë¥´ íĪ¬
Ġí Ģ
r y
Ġê ´´
ĠìĿ´ ìłģ
å Į
Ġë°Ķ íĥķ
ĠìĤ¬ ì§Ħ
ìĨ Ķ
Ġíķ´ ìĻ¸
ìĿ´ ì¹ĺ
Ġìŀ Ķ
3 5
ĠìĹ¬ ê¸°
é «
ĠìĿ´ ëķĮ
Ġst yle
Ġë²Ħ ìłĦ
Ġìĭľ ë¯¼
8 0
S BS
ë ¸
Ġt o
Ġë¥ ĺ
ĠëķĮë¬¸ ìĿ´ëĭ¤
Ġê·¸ ë¥¼
ë¬´ ë¥¼
ê ¼
Ġë ĥ
Ġê³µ íĻĶêµŃ
Ġíļ¨ ê³¼
199 6
Ġë°Ľ ìķĺ
Ġíļį ëĵĿ
Ġë°Ľ ê³ł
Ġìľł ëĭĪ
Ġì¢ħ ë¥ĺ
ĠíļĮ ìĤ¬
n e
Ġì¢ĭ ìķĦ
ĠìķĦ íĤ¤
íĶĦ ë¦¬
199 0
ĠìĿ´ ë¥´
ì²´ ê°Ģ
Ġì¢ĭ ìĿĢ
ìĦ± ê³¼
ĠìĿ´ê²ĥ ìĿĢ
ê ±¸
ĠëıĻ ìĿ¼
Ġìĺ¤ ëĬĺ
ë²Ħ íĬ¸
o k
ë¯¼ì£¼ ëĭ¹
Ġë¶Ī ê°Ģ
ĠìĶ ¨
Ġìĸ¸ ê¸ī
ëĭ¨ ìĿĦ
ĠìĿĺ ìĽĲ
íķ ĳ
Ġì¢ħ ë£Į
íĺ¸ ë¡ľ
Ġë§ ¨
; "
Ġë°ĺ ìĿĳ
Ġìĺ¬ ëĿ¼
ĠìķĦ ì¹´
ë¡ľ ìĿĺ
ĠëĤĺ ìĿ´
ë¹ Ļ
i al
ëł µ
Ġëį ´
ëĮĢ ìĥģ
ìĿ´ íĥĪë¦¬ìķĦ
ìĽĢ ìĿĦ
ê¸° ìĻĢ
ë© ¸
Ġë§Į íĻĶ
Į Ħ
Ġ197 0
íĻ Ģ
ĠìłĦ ìŀĲ
ë¬¸ íķĻ
ĠêµĲ ìŀ¥
ë¡ ±
ëıĦ ìĭľ
. (
íĸĪëĭ¤ ê³ł
ë¸ Ĳ
ìĿ¼ ìĿĦ
as s
Ġë³Ģ íĻĶ
åŃ Ĳ
Ġë¸ĮëĿ¼ ì§Ī
ĠìķĦ ìĭľìķĦ
Ġë³¸ ìĦł
ĠìĨĮ ìľł
Ġd e
ĠìĮ į
íĬ¸ ìĽĮ
Ġê¸° ìĽĲìłĦ
ĠìĦľ ë¹ĦìĬ¤
Ġìŀħ íķĻ
Ġ198 6
Ġì§ ķ
ĠFC ìĿĺ
Ġëı Ī
or d
ĠĊ ĊĠ
íľ ´
ĠíĺĦìŀ¬ ìĿĺ
n g
Ġíıī ê·ł
ìĤ° ìĹħ
ĠìĹĲ ëĦĪ
Ġê´Ģ íķł
Ġê²° ìĬ¹
Ġê³ §
Ġf or
ĠëĬ ĺ
ĠìĬ¤ íħĮ
ãĥ ¼
íķĻ ëħĦ
éĩ Į
ê·¸ ëŀĺ
ìª½ ìĹĲ
íĺ¸ ëĬĶ
ëŁ¬ ëĤĺ
ìĿĮ ìķħ
ëı Ī
ĠíĿ Ĳ
ë©´ ìĹĲ
Ġì¡° ê±´
ĠêµŃ ëıĦ
Ġë ķħ
ĠìļĶ ë¦¬
Ġì¹ Ń
ĠìĦł ì¶ľ
ì¤ĳ ìķĻ
Ġì¡° ìķ½
o b
ĠìŀĲ ëıĻì°¨
ëĤľ ëĭ¤
ĠëĦ £
Ġë©Ķëĭ¬ ë¦¬ìĬ¤íĬ¸
Ġê°Ģ íĨ¨ë¦Ń
ìĦ ¯
ëıĦ ìļ°
ë¥´ ìĿĺ
C A
ĠìĬ¹ ë¦¬
Ġìłķ ê·ľ
ìĥģ ìĿ´
ĠìĭĿ ë¬¼
en s
æ° ı
Ġíķĺ ëĭ¤
Ġë³´ ìĿ¸ëĭ¤
íķĻ ìĥĿ
Ġëĭ¤ ì¹´
íĬ¸ ëĬĶ
Ġíĺķ ìĭĿ
Ġ Z
199 7
ĠìĨĮíĶĦíĬ¸ ìĽ¨ìĸ´
ĠìĹĶ ì§Ħ
ê³Ħ ìĿĺ
a in
ëĵľ ë¥¼
ë§Ī ìĿ´
Ġë¶Ģ ì¡±
Ġìĸ¸ ë¡ł
ĠìĿ´ íķ´
ĠìĦ¸ íı¬
ìĬ¤ ìĹĲ
Ġê°ķ ìĽĲ
ìĦ¸ ìĿ´
Ġëĵ± ìĹĲ
ì¹ĺ ê°Ģ
Ġê°ľ ìĹħ
å ¼
Ġê·¸ ë¦¼
ĠíĿ ¥
ĠA l
ìĭľì¼ ľ
Ġ198 4
ìłľ ëĬĶ
i k
ĠëĽ° ìĸ´
ë Ģ
ë¦¬ê·¸ ìĿĺ
ĠìŀĪìĸ´ ìĦľ
Ġê±¸ ì³Ĳ
on t
ê°ľ ìĽĶ
Ġë¬¸ íķĻ
ìĽĲ ìĹĲ
ĠëĳĲ ê³ł
ĠI I
ëŁ Ń
ĠíĻķ ìŀ¥
ë¶Ģ ê°Ģ
ìĦ± ìĹĲ
ìĤ¬ ëĭ¨
æ ķ
ĠíĻľëıĻ ìĿĦ
ìĭ¬ ìĿĦ
ĠìĪĺ ëĬĶ
Ġ198 5
ĠU n
ĠìĿ´ë¦Ħ ìĿĢ
ĠT h
Ġíľ ĺ
íļĮ ë¥¼
Ġìłķ ìĭł
ìłĦ ìŀĲ
ë¬¸íĻĶ ìŀ¬
íĴ Ģ
Ł ³
ëłĩ ê²Į
é Ģ
c om
ëį ¤
Ġìŀ ĥ
ë· °
ĠíĹĮ ë²ķ
ìĶ ©
ìłķ ìĿ´
ëłĪìĿ´ ìħĺ
Ġë Ŀ
Ġê²½ ìĺģ
Ġë¶Ħ ìĦĿ
ìļ° ë¦¬
ëĭ¤ ìĿ´
Ġíķĺ ë£¨
O N
¨ ë¦¬
ìĦ¸ ê°Ģ
Ġê°ľ ë´ī
ec t
ìľł ëŁ½
Ġìłľ ì¡°
ì³¤ ëĭ¤
êµ¬ ìĹĲ
Ġ è
ë¶Ī ìĸ´
e g
199 5
ìĺģ ìĸ´
ro und
íĸĪ ëĬĶëį°
Ġêµ° ìĿ¸
Ġìµľì´Ī ë¡ľ
Ġê°Ĳëıħ ìĿĺ
éķ ĩ
ëª¨ ë¦¬
ê²Į ìŀĦ
ĠìĦł ìĸ¸
Ġ ç
ìĹ° íķ©
or y
ì°¨ ìłĦ
ì§Ģ ìĻĢ
ĠìĬ¤ íĬľ
3 1
ìĭľíĤ¤ ëĬĶ
ëį° ìĿ´
ĠëĲĺ ìĹĪê³ł
ĠìĬ¤ íĬ¸
ĠìłĦ ìĹĲ
å ¥
Ġëªħ ëł¹
199 4
ê°Ĳ ëıħ
ëĤĺ ë¯¸
íħĮ ìĿ¸
Ġë¹ ħ
ĠìĽ Ģ
Ġìľł ìĤ¬
Ġë°Ķ ëĢ
ì§Ģ ì»¬
ĠëĮĢë¶Ģë¶Ħ ìĿĺ
ĠìķĮ ëłī
Ġ18 8
ĠìĹĨ ìĹĪëĭ¤
Ġëª© íĳľ
B O
ìĿĢ íĸī
äº º
Ġìłľ íķľ
å· ŀ
ìĿ¸ íĬ¸
Ġì£¼ ë¯¼
ĠìķĦ íĶĦë¦¬ì¹´
ëĶĶ ìķĦ
Ġê³µ ìĤ°
Ġì§Ģ ìĨį
á Ĩ
Ġëª ¬
ê·¸ ë£¹
Ġë®¤ ì§ģ
ĠìĤ¬ìĿ´ ìĿĺ
Ġì¢ħ íķ©
ìĦ¸ ëĬĶ
ĠìĨį íķĺëĬĶ
ìŀĦ ìĬ¤
h y
Ġìĺģ ìĸ´
ĠìĽ¹ ìĤ¬ìĿ´íĬ¸
ĠìĤ¬ìļ© íķĺëĬĶ
Ġë§Ī ìĤ¬
ĠëĶĶ ìŀĲìĿ¸
Ġì ´Į
ĠìĻ ľ
Ġë°ľë§¤ ëĲľ
ìķĦ ìĭľìķĦ
ĠíĶĦëŀĳ ìĬ¤ìĿĺ
ĠíķĺëĤĺ ìĿ´ëĭ¤
ĠíĽĦ ì¿ł
ĠëĦ¤ ëįľëŀĢëĵľ
ìĤ¬ ê±´
ĠìĿ´ ëŁ°
ĠìĬ¹ ê²©
Ġì±Ħ ëĦĲ
İ ìĿĢ
Ġíı´ ëŀĢëĵľ
Ġì½Ķ ë¯¸ëĶĶ
åľ ĭ
ì§ ľ
Ġìłľ íĴĪ
ar y
è ¨
ĠëĤ´ ëł¤
Ġ on
æĿ ±
ìĨĮ ê°Ģ
ĠíĮĮ ìĿ´
n t
ìĺ ¹
Ġíķĺ ì§Ģ
ëĤ´ ëĬĶ
Ġë¹Ħ íĸī
ê³µ ìĤ¬
Ġê²½ìĥģ ë¶ģëıĦ
Ġì° ¬
3 6
ĠëĶĶ ì§ĢíĦ¸
3 7
ìŀĲ ëĵ¤ìĿĢ
íĸĪ ìĿĦ
íĺ ¹
ë¦¬ ìĹĦ
Ġëª¨ìĬµ ìĿĦ
ĠìķĦ ë§Ī
ĠíĨµ ê³¼
Ġê² ¨
ĠìŀĪìĹĪ ëįĺ
4 5
Ġë²ķ ë¥ł
íķĺ ëıĦë¡Ŀ
Ġì¹ ł
íı¬ ëĭĪìķĦ
ë ´
Ġê ½ĥ
Ġìº ł
ê²¼ ëĭ¤
íĭ ¸
ĠS p
ĠíĻ Ģ
ëĲĺìĹĪ ëįĺ
íķľëĭ¤ ëĬĶ
g e
Ġ198 1
íĶ¼ ìķĦ
ê¸° ìĹħ
ëªħ ìľ¼ë¡ľ
Ġë¯ ¿
ë¸Į ëĿ¼
ëłĢ ëĭ¤
Ġìĸ´ ëł¤
Ġì¹ĺ ë£Į
ì£¼ ë¥¼
Ġ198 3
ĠíĬ¹ ìĪĺ
ëŀ Ń
ĠìĨĮ ë¹Ħ
ëĳ Ķ
Ġë¹ Ľ
Ġíķ Ģ
ĠëĮĢ ì¤ĳ
i b
Ġìĭ¤ íĹĺ
í Ī
ĠA r
ĠìŀĪ ê²Į
Ġëĵ± ìľ¼ë¡ľ
Ġìŀ¥ ê´Ģ
ĠìĦłìĪĺ ê¶Į
ìļĶ ìĭľ
Ġëī´ ìĬ¤
ĠëįĶ ìļ±
Ġê°ķ íĻĶ
ìłľ ìŀĳ
ĠìĺĪ ìĦł
ìĿĺ íļĮ
Ġë¶Ī êµ¬
id e
ä ¿
Ġ æ
ĺë¦¬ íı¬ëĭĪìķĦ
ìĿ¼ ìĹĲëĬĶ
ĠìĤ¬ ëĿ¼
ëıĻ ìĹĲ
Ġìŀħ ëĭ¨
ëĲ ¨
íķĻ ëł¥
Ġìľł íĺķ
íķ µ
Ġìłľìŀĳ ëĲľ
Ġìľł ë¡ľ
ic h
Ġë§ º
êµ¬ ë¥¼
Ġíı¬íķ¨ íķľ
å® ī
Ġë§Ĳ íĸĪëĭ¤
ë¡ ¬
ëį° ë¯¸
ĠìĦłìĪĺ ìĿ´ëĭ¤
Ġë¶ģ íķľ
at e
ĠìĿ´ìľł ë¡ľ
ì¤ĳ êµŃ
Ġì§Ģíķĺ ì²ł
ìĦ¸ ë¥¼
ê ½ĥ
Ġë² ¤
Ġìĭľ íĸī
ìŀĲ ë£Į
ĠìĿĮìķħ ê°Ģ
ì» ´
ìĤ¬ ëŀĳ
ĠíĶĦ ëłĪ
Ġê°Ģë¦¬ íĤ¨ëĭ¤
Ġê²ĥ ìĿ´ëĿ¼ê³ł
Ġì§ĢìĹŃ ìĹĲ
ĠëĤĺ ìĺ¨
ĠëıħìĿ¼ ìĿĺ
199 2
ì» ¨
ìłģ ìĿ´
ê°ľ ë°ľ
ĠêµŃ íļĮ
ìĨĮ ìĿĺ
Ġë°Ŀ íĺĶëĭ¤
) (
ìĽ łëĭ¤
ì°¨ ë¡ľ
ë§Į ìĿĦ
Ġìĭł ìĦ¤
ìĹ ½
Ġíĺ Ī
ĠìĹĲ ìĿ´
7 0
g round
en d
Ġíİĺ ë¥´
ë§Į ìĿ´
ĠëĤĺ ì¹´
b ack
Ļ ìĿĢ
ĠíĴ Ī
ìľĦ ìĿĺ
Ġ198 2
Ġê·¸ ëĵ¤ìĿĺ
Ġëĭ¬ ìĦ±
Ġìľł ëŀĺ
ì§Ģ ì§Ģ
Ġì§Ģ ìĥģ
9 9
ëŀ Ĳëĭ¤
ĠìŀĲ ë¦¬
or e
Ġë¶Ģ ë¥´
Ġê²° íķ©
ĠìĦ¤ ê³Ħ
å »
ë¯¸ ìķ¼
Ġê¸° íļį
Ġ k
Ġìłľ ì£¼
ë¶Ģ ë¡ľ
Ġêµ¬ ëĭ¨
ìŀĲ ì¹ĺ
íģ¬ ëĿ¼ìĿ´
ĠĊĠĊ ĠĊ
åį Ĺ
ĠìłĲ ëł¹
ĠìĹ¬ íĸī
ë¶Ģ ìĤ°
ìĦ± ìļ°
íĶ Ī
Ġë°© ë¬¸
ĠìĿ¸íĦ° ëĦ·
ëĿ¼ ìļ°
ê¸° ìĽĲìłĦ
Ġë²ł íĬ¸ëĤ¨
ì¡° ìĹ°
íĦ° íħĮìĿ¸
ĠìĦ± ìŀ¥
ìĭľ ë¡ľ
Ġì¼Ģ ìĿ´
ëħĦ ìĿĦ
Ġëªħ ìĺĪ
ĠìĨĮ ê°ľ
i o
ĠëıĻ ìĥĿ
íĶĦëŀĳ ìĬ¤ìĿĺ
íķ¨ ìľ¼ë¡ľìį¨
Ġíİ ľ
íķ´ ìĿĺ
A R
ê·¸ ëĬĶ
ĠìĿĢ íĩ´
ĠìķĮëł¤ ì§Ħ
å Ĭ
åŁ İ
Ġì§Ģ ì§Ħ
u re
Ġê²° ìĦ±
ìĽĲ ìĹĲìĦľ
ë¹ ł
Ġê²½ìĥģ ëĤ¨ëıĦ
it e
íıī ìĸĳ
ĠìĿ´ë¦Ħ ìľ¼ë¡ľ
íĭ° ìķĦ
ìĿ¸ êµ¬
ä¸ ī
199 3
Ġê°Ģ ë¬¸
l d
ë¥´íĪ¬ ê°Ī
Ġë© Ģ
Ġìĭ¤ ìłľ
Ġì¤Ģ ìļ°ìĬ¹
ĠU EFA
Ġêµ¬ ë¶Ħ
Ġê²½ íĹĺ
Ġê³Ħ ìĹ´
ĠP ro
ëĭ µ
) '
Ġìĵ ´
íĦ°íħĮìĿ¸ ë¨¼íĬ¸
æ ī
Ġê·¸ëħĢ ëĬĶ
ëıĻ ìĿĦ
ï¼ ī
íģ ¼
ĠëŁ° ëįĺ
ìĻ Ķ
u st
ëŁ ´
Ġê·¸ ë¦°
3 3
Ġë²ł ìĿ´ìĬ¤
Ŀ ê°Ģ
ë ĩĮ
íĶĮ ëłĪìĿ´
ê°Ģ ìĿĺ
ë¹Ħ ë¥¼
ĠìłĦëĿ¼ ëĤ¨ëıĦ
ĠìĿĺë¯¸ íķľëĭ¤
ĠëįĶ ë¶Īìĸ´
íķĺ ìĿĺ
Ġë¶Ģ ìĹ¬
ìĸ´ ìĦľ
ĠìķĦ ëĤ´
m an
ìĿ¸ ìľ¼ë¡ľ
é« ĺ
ĠìĦ¼ íĦ°
Ġì§Ģìłķ ëĲĺìĹĪëĭ¤
ç ¦
ê¸Ī ìĿĦ
ĠìĽĢ ì§ģ
Ġê¸° ìŀĲ
ï¼ Ī
ĠìŀĲ ì£¼
Ġëĭ¤ìĿĮ ìĿĦ
ì¿ł ëĿ¼
Ġìłľ ìķĪ
Ġëģ Į
íĬ¸ìĽĮ íģ¬
ìĬµ ëĭĪëĭ¤
Ġìµľ ê·¼
Ġë°ľë§¤ ëĲĺìĹĪëĭ¤
Ġë¶Īêµ¬ íķĺê³ł
ĠëĤĺ ë¨¸
Ġê²ĥ ìĹĲ
ëĭ ¥
Ġê³ł ëĮĢ
S S
ĠìĹĺ ë¦¬
ĠìĪĺ ì¤Ģ
ëĭĪ ìĭľ
ìĿ¸ ì§Ģ
ê²½ ì°°
ì¼ ľ
e f
Ġíİ¸ ìŀħ
ĠíĶĦë¡ľëĵĢ ìĦľ
ë¡ľ ë§Ī
Ġê°ľ ì¹Ń
Ġìłĳ ê·¼
ĠíķĺëĤĺ ìĿĺ
ĠìķĮ ê³ł
ìĽĶ ë¶ĢíĦ°
ì ´ī
è ĩ
ĠíĻ© ìłľ
Ġê¹ ¨
ëĲĺ ê¸°
7 5
ĠìĻ¸ êµĲ
3 8
ãĢ Ī
ì²´ ëĬĶ
h er
Ð °
ĠëĨ Ģ
ĠëĿ¼ìĿ´ ë¸Į
3 2
å Ľ
Ġë°Ķíĥķ ìľ¼ë¡ľ
Ġìłľ êµŃìĿĺ
Ġìłķ íĻķ
ì¹ĺ ê³ł
Ġë²Ķ ì£Ħ
ëĿ¼ ëħ¸
ìŀĲ ëĵ¤ìĿ´
back ground
ìª½ ìľ¼ë¡ľëĬĶ
ĠìĻĦìłĦ íŀĪ
199 1
Ġë¬¼ ë¦¬
Ġìĭ ¶
ag e
ĠìĤ¬ëŀĮ ìĿ´
ìĭľ ìĦ¤
3 4
6 5
ë¶Ģ ë¬¸
Ġë¯¸ ëŀĺ
Ġë¬¼ ì§Ī
6 4
åħ ¬
ì§Ģ ëıĦ
i es
u c
å¤ ©
Ġìľ¡ ìĥģ
Ġë© ¸
Ġë§¡ ìķĺëĭ¤
å ĭ
e y
ìĿ´ íĽĦ
Ġìķ Ļ
ìĿ¸ ëį°
Ġìĺ¤ìĬ¤íĬ¸ ëłĪìĿ¼
Ġëĭ¬ ëŁ¬
ic al
ìłķ ìĿĢ
ĠìĺĪ ë¥¼
ëĭĪ ìĸ´
ĠìķĦ ì§ģ
Ġë§Į ëĤĺ
Ġì¤ĳ ìĹĲ
ro m
ĠíĮĮ ê´´
ç §
ìĹŃ ìĿĦ
íķŃ ê³µ
ëŀ į
ĠìĪ ł
u e
Ġíķ© ë³ĳ
ìĭ ¸
íķĺ ë§Ī
ĠìĹ¬ ë¦Ħ
ĠìĿĺ ìĤ¬
ë²ķ ìĿĦ
ĠíķĺëĤĺ ë¡ľ
Ġ196 0
3 9
ì°¬ ê°Ģì§Ģ
ĠP r
Ġìŀĳ ìĤ¬
ĠìĬ¤ ìĽ¨ëį´
Ġë¹Ħ íķ´
ìĤ° ìĭľ
Ð ¸
Ġì°¨ íĬ¸
Ġì¤ĳ íķĻêµĲ
ë¦¬ ìĸ´
ĠìŀĦ ìĭľ
ë³¸ ë¶Ģ
198 8
: #
Ġë¯¸ ìĤ¬
ĠìĤ¬ìĿ´ íĬ¸
ĠìķĬ ìķĦ
ĠíĬ¹ ìłķ
Ð ¾
ì£¼ ë¡ľ
l y
ĠìĬ µ
Ġì¶Ķ ì§Ħ
ëŀ Ħ
ĠëķĮ ê¹Įì§Ģ
Ġ6 0
ìľĦ ê°Ģ
Ġì£¼ìĿ¸ ê³µ
Ġê±° ëĳĲ
Ġìŀ ĩ
7 8
ĠìĪĺ ìļ©
ê°Ĳ ìĿĦ
Ġëħ¼ ëŀĢ
ìķĦ ê°Ģ
ĠìĿ´ ëĵ¤ìĿĢ
i z
ĠC om
ĠíļĮ ìŀ¥
ĠìļĶ ì²Ń
ìĥģ ìĿĢ
iv ers
å® Ĺ
ìĿ¸ë¯¼ê³µ íĻĶêµŃìĿĺ
ìĹ° íĺģ
ë°Ķ ëĿ¼
Ġë¶Ģ ìĿ¸
Ġë¶Ī êµĲ
ìĹĪ ìľ¼ë©°
on d
ì£¼ ìĹĲ
ê´Ģ ëł¨
ê·ľ ëª¨
ìłĲ ìĿ´
ìĭĿ ìĿ´
ëĶ ĺ
ëĤĺëĿ¼ ìĿĺ
è »
198 9
Ġìłķ ìĭĿ
Ġê¸° ì´Ī
Ġìłķ ëıĦë¡ľ
ê´Ģ ìĿĢ
ĠìľĦ íĹĺ
Ġíĳľ ìĭľ
ê°Ħ ëĭ¤
Ġì¡´ìŀ¬ íķľëĭ¤
5 5
ë¬¼ ìĿĺ
Ġë°ľ ëĭ¬
ĠìĿĺ íķĺìĹ¬
ìľ¼ ë¯Ģë¡ľ
O S
ëħĦ ê°Ħ
ĠìĻķ êµŃ
ĠìĦ± ê²©
ĠìŀĪ ëıĦë¡Ŀ
ìķĦ ë¥´
Ġê°Ģ ë¥´
ì§ ĵ
ëĶĶ ìĸ´
Ġ197 9
Ġë°° ì¹ĺ
Ġê ¿Ī
Ġìłľ ìĭľ
Ġì ´ī
ë¡ľ ëĵľ
Ġë¹Ħ ë°Ģ
ìĥģ ìĹĲ
ĠëĦ¤ ìĿ´
Ġìĺ¤ ë¥¸
ĠìľĮ ë¦¬ìĹĦ
Ġê·¸ ëĵ¤ìĿĢ
Ġë²Ī ìĹŃ
ìĤ° ìĿĦ
íĹ¨ íĭ°
Ġìŀĳê³¡ ê°Ģ
Ġë© ľ
Ġë¯¸ ìĥģ
Ġìĺģ ìĹħ
ë¯¸ ëĦĲ
ì²ľ ìĭľ
Ġê¸° ìŀ¬
Ġìŀĳ ìļ©
ĠíĪ¬ íĳľ
ãĥ ³
ë§ İìĿĢ
Ġìĺģ íĨł
ì¦Ī ìĿĺ
å¹ ³
ç ¤
Ġìĭ Ń
ëĵ¤ ë¡ľ
ĠíĺĦìŀ¬ ëĬĶ
Ġë°ľ íĸī
ĠìĹ¬ ê²¨
íĨµ ìĭł
íĻĶ ìĿĺ
Ġíģ´ ëŀĺ
Ġê·¸ ëŁ°
Ġë§Ī ì°¬ê°Ģì§Ģ
íĺķ ìĿĦ
ĠíĨµ ìĿ¼
Ġê²½ ìŁģ
Ġìĺ¤ ìĤ¬ì¹´
íı ¼
ëĤ¨ ëıĦìĿĺ
ìĹĨ ìĿ´
Ġê³µ ìŀĳ
ëĥ ¥
íĺ¸ ìĤ¬
ac e
c ol
Ġëĭ¹ ìĽĲ
Ġìī ½
Ġê°ķ ëł¥
ìĬ¤ ìĹĲìĦľ
ĠìĦ± ë¦½
ç «
ìĹĪ ëįĺ
Ġë³µ ê·Ģ
ì²ł ëıĦìĿĺ
Ġíİ¸ ì§ĳ
ì½ ¤
Ġìĥģ íĺ¸
ĠëĤĺ ë¬´
ì £½
Ġì¤ĳ ëĭ¨
ĠëıĻ ê³Ħ
o h
Ġê´Ģ ê´ĳ
ĠíķĦ ë¦¬
ĠìĿĺ íļĮ
ĠìĪĺ ë¹Ħ
Ġê°ľ íĺģ
ĠìĿ¸ íķľ
Ġ +
ê²½ ëł¥
Ġ3 5
íĭĢ ëŀľëĵľ
Ġê¸° ìĹ¬
Ġíķ´ ê²°
Ġíķ´ ìĦĿ
ìĨĮ ë¦¬
ĠìĥĿ ìĦ±
íķľêµŃ ìĸ´
ìľĦ ëĬĶ
ìĥĿ íĻľ
ĠìĤ¬ìļ© íķľëĭ¤
ĠìĿĮë°ĺ ìĿ´ëĭ¤
ê³¼ ìĹĲ
ìĿ´ ê¸°
ìķĦ íĶĦë¦¬ì¹´
ë²ķ ìĽĲ
ë¯ ¹
Ġê°ĸ ê³ł
ëŀĺ íĶĦíĬ¸
ê³¨ ìĿĦ
s e
ìĭł ìĿĦ
ê°Ģ ì¡±
ĠìĤ ¶
ä¹ ¡
ĠíĮ¨ ë°°
Ġê·¸ ëĮĢë¡ľ
ì²´ ìľ¡
ìĿ´ ìĻĢ
ĠìĦľ ìĭĿ
Ġë¬¸íĻĶ ìŀ¬
ĠíĶ¼ ìķĦ
9 8
ĠëĤ¨ ë¶Ģ
ìĭł ìĿĺ
ĠìĬ¤ ìĬ¤ë¡ľ
ation al
ì¡°ìĦł ìĿĺ
Ġíı °
Ġê°ĢëĬ¥ íķĺëĭ¤
Ġìĺ¤ ëŀĺ
Ġìłľ ëıĦ
6 8
Ġì£¼ ìĿĺ
Ġê³µ ë¦½
ìĽĶ ìĹĲëĬĶ
ìĺ¤ íĶĦ
ĠìĪ ¨
Ġë¯¸êµŃ ìĹĲìĦľ
ĠìľĦ ìĹĲ
ìĨĮ ëĬĶ
ìĿ¸ ê°Ģ
A T
ĠëĬ Ķ
ìĿ´ ìĤ¬
Ġ197 3
Ġì¤ĳ ìļĶ
ĠìĹ° ìŀ¥
ìŀ ī
ĠìĿ Ħ
Ġíķ´ êµ°
Ġë¶Ī ë¦¬
Ġì§ §
ê³Ħ ìĹĲ
Ġë¸Ķ ëŀĻ
ç Ļ
Ġëĭ¹ ìĦł
íĭ° ë¸Į
ë§Į ìĿĺ
Ġë°Ŀ íĺĢ
Ġë¥ ´
Ġìĥģ ì§ķ
ìĿ¸ ê³¼
Ġì§ĳ íķ©
en ce
Ġ Q
Ġë²ł ë¥´
ìłĦ ìŁģ
ìĺ¤ ìĬ¤íĬ¸
Ġíģ¬ ë¡ľ
è ¦
ì§Ģ ìĹĲìĦľ
íĮĮ ìĿ´
Ġë°ķ ìĤ¬
ëħ ķ
Ġëª» íĸĪëĭ¤
ìļ´ ìĦľ
ĠíĪ¬ ìĪĺ
Ġê°ľ íİ¸
íĶ¼ ìĨĮ
ĠìĿ ½
) ãĢĭ
Ġê°ģ ë³¸
Ġê³ ¤
Ġ re
Ġë°Ķ ë¥´
Ġì²´ ê²°
ì§ģ ìĿĦ
Ġë°ĶëĢ Į
ĠìĦ¸ ìĽĮ
Ġë¶Ħ íı¬
" ,
Ġì°¨ ë¡Ģ
ĠìłĦ ë°ĺ
ì§Ģ ìħĺ
ê¸° íļį
Ġìĭł ë¬¸
Ġì²ľ íĻ©
ìłķ ì¹ĺ
Ġìĭľ ì²Ń
A N
ìĿ¼ ë°ĺ
ĠíĽĦ ì§Ģ
Ġíİ ¼
ĠëĦ Ĳë¦¬
ĠíĶĦë¡ľìłĿ íĬ¸
ĠìķĦ ë¬´
ê°Ģ íĥĢ
ĠìĽĲ ìŀĳ
Ġb y
Ġëĵ± ë¡Ŀ
ìĺģ êµŃìĿĺ
Ġë¶Ģ ìłķ
Ġìĭľ ëĮĢìĿĺ
Ġëħ¹ ìĿĮ
Ġê³ł ìĸĳ
íĬ¸ ëĿ¼
ĠìķĦ ìĿ¼ëŀľëĵľ
Ġê¸ Ģë¡ľ
ëĭ¨ ì²´
ĠëĶ° ë¥¸
ëĭ¨ ìĹĲ
æ ±
Ġì£¼ ëıĦ
ìĿ¼ ëŁ¬
Ġê ¶¤
ĠëĤĺë ī
ìłķ ì±ħ
ìĥģ ìľ¼ë¡ľ
ĠíĿ ¡
Ġë§İ ëĭ¤
Ġì£½ ìĿĢ
ê´Ģ ìĿĦ
% )
ëĤĺ ì¹´
ë¡ľ ë¥¼
ëĵ¤ ëıĦ
ë²ķ ìĿ¸
ĠìĭĿ ë¯¼
4 7
9 5
Ġì ª½
Ġë°Ķ ëĭ¤
9 0
ë ¿Ĳ
Ġìĺ¤ëĬĺ ëĤł
Ġì²ĺ ë¦¬
ëª »
ĠìĤ¬ëŀĮ ëĵ¤ìĿ´
ë¯¼ ì¡±
Ġ e
ìĻķ ìĿĺ
Ġìŀ Ń
å İ
ìĭľ íĭ°
ìĺ¤ ëĬĶ
Ġìĭľ íĹĺ
ìĿ¼ ë³´
I N
ìĻĢ ëĬĶ
20 22
S t
ĠìķĪ ìłĦ
ëĨ ĵ
ìĤ¬ ë¬´
ìŀ¥ ê³¼
ĠìĦłìĪĺ ë¡ľ
Ġë© ķìĭľì½Ķ
êµ¬ ëĬĶ
ãĢ Į
Ġì¤ĳ ê°Ħ
Ġìŀĳ ìłĦ
ĠìĿ´ ì£¼
ê²½ ìĿĦ
Ġê·¼ ì²ĺ
ëªħ íķľ
m er
ëĵľ ê°Ģ
ĠìĬ¤íĬľ ëĶĶìĺ¤
Ġê°Ģ ìł¸
íĻĶ ëĲľ
ĠìłĦ íķ´
ĠìķĦ ìĤ¬
ĠíļĮ ìĽĲ
ìºĲ ëĤĺëĭ¤
Ġë¹Ħë¡¯ íķľ
Ġ197 8
in d
ä¸ Ģ
ëĵ¬ íķ´
ë§Ī ìĬ¤
198 0
Ġê³¼ìłķ ìĹĲìĦľ
ï¼ ļ
Ġì¡¸ìĹħ ìĭĿ
ĠìĿ´ ê³³
ë¬´ ìĽĲ
Ġì» ¬
ìĭĿ ìĿĺ
Ġê²½ìļ° ê°Ģ
Ġë ĩĮ
ì£¼ìĿĺ ìŀĲ
Ġìĭľ ê¸°
ĠíĽĪ ëł¨
ê³ł ë¥¼
æĹ ¥
Ġ at
Ġ3 2
ĠìĦ¸ ìĿ´
ë¯¸ íĦ°
Ġíĺĳ ëł¥
Ġë®¤ ì§Ģì»¬
ë©´ ìĿĦ
ĠìĿ´ ë¡ľ
ìĪĺ ë¡Ŀ
ëĭ¨ ìĿĢ
Ġìļ°ìĬ¹ ìĿĦ
Ġ km
æĸ °
Ġê¸Ī ë©Ķëĭ¬
ìĸ´ì§Ħ ëĭ¤
Ġì¡° ê°ģ
íķĻ ìĿĦ
Ġ Ð
p h
Ġë¬¸ ìĦľ
ëĤĺ ê³ł
Ġ195 0
198 7
ĠìķĬ ëĭ¤
Ġëĵ± ê³¼
4 6
Ġë¸Ķ ë£¨
ì§Ģ ê²Į
Ġì§Ģ ëĤľ
Ġë©´ ìłģìĿĢ
ĠìķĦëĤĺ ìļ´ìĦľ
Ġìŀ¬ íĮĲ
ĠíıĲì§Ģ ëĲľ
Ġë³´ ìľł
å· Ŀ
Ġë²Ħ ìĬ¤
ĠìłĦ íĻĺ
Ġê´Ģ ì¸¡
Ġê·¼ ê±°
ê²½ ìĥģ
Ġìľłëªħ íķľ
Ġíĺķ ìĤ¬
ìĸ Ģ
ëıħ ìĿ¼ìĿĺ
u g
ĠëĮĢ ìĿĳ
ìħĶ ëĦĲ
ĠìĤ¬ìļ© íķł
Ġëħ¸ ë¥´
ìĦ¸ ëĮĢ
Ġê±° ë¶Ģ
is h
ãĢĭ ()
ìĭľ ëĬĶ
ĠìĬ¤ìľĦ ìĬ¤
ëĳ ĳ
Ġëĭ¨ ìĪľ
Ġ197 2
Ġ194 5
è ª
ĠíĨµ ì¹ĺ
Ġíĺģ ëªħ
é ł
ìĦľ íĬ¸
Ġì§ĢìĹŃ ìĹĲìĦľ
e ar
Ġ197 4
Ġê¸Ī ì§Ģ
Ġë¨¼ ìłĢ
á Ħ
Ġìŀ¥ ìķł
Ġê°Ģ ìłķ
ëĲĺìĹĪ ìľ¼ëĤĺ
íĽĦ ìĿĺ
ìŀīê¸Ģëŀľëĵľ ìĿĺ
Ġëĵ¤ìĸ´ ê°Ģ
ĠëıĦ ì°©
ëŁī ìĿ´
ç¤ ¾
ìĦ± êµ°
Ġë§Į ìĹĲ
ìĪ Ń
ìĭĿ ìĿĢ
Ġìļ¸ ìĤ°
7 7
ĠìĹ° íĺģ
Ġê´Ģëł¨ ëĲľ
ĠìĿ´ ìĻ¸
Ġìĸ µ
ìĦł ìĿ´
Ġëĵľ ëŁ¬
ĠëĤ¨ ìĦ±
ëį° ìĬ¤
ëł¥ ìĿĢ
Ġì¤Ģ ë¹Ħ
ìĭľ ìĺ¤
íģ´ ëŁ½
ëŁ¬ ìļ´
å ł
ĠëĤ´ ê°ģ
êµ¬ ê°Ģ
Ġìĭľ íĭ°
Ġë¶Ī ë¦¬ëĬĶ
Ġì¡°ìĦł ë¯¼ì£¼ì£¼ìĿĺ
Ġëĭ¤ ë¥´
íĮĮ íĬ¸
ov e
ìĤ¬ ëł¹
ë©Ķ ë¦¬
ĠìĤ¬ìļ© ëĲľëĭ¤
ĠëĤ¨ íİ¸
Ġê°ĢëĬ¥ íķľ
ëıĦ ì¿Ħ
ìĿ´ ìĹĲ
Ġê¸°ë¡Ŀ íĸĪëĭ¤
ĠíĮĮ ë¦¬
ë¸Į ë¦¬
Ġìłľ ìŀĦìĬ¤
ĠëķĮ ëĬĶ
Ġë§Ī ë¦¬
ê°Ģ ë¥¼
ĠíĥĢìĿ´ íĭĢ
Ġëį ¸
ëĥ Ī
Ġê·¸ëħĢ ìĿĺ
ë°Ľ ìķĺëĭ¤
ìŀĲ ìĹĲ
ĠíĻľ ìļ©
Ġ( )
ĠìŀĲ ëıĻ
íĭ° ëĵľ
Ġ197 1
ëĭ¤ ë¥¸
ç ī
ìļ° ëĬĶ
ĠìĹ ĳ
ĠëĤĺë¨¸ ì§Ģ
ìĿ´ ì¦Ī
ëıĻ ìĥĿ
è Ń
ëĭ¤ ìļ´
ìŀĲ ìĿ´ëĭ¤
Ġì¡° ìĦ±
it al
ĠS h
Ġê¼ ¬
le ft
æ Ķ
ĠìĿ¼ ìĿĦ
ëĿ¼ ìĹĺ
Ġë¶ģ ë¶Ģ
Ġë¡ľ ìĬ¤
ĠìĻķ ì¡°
ëłĪ ìĿ¸
íŀĪ ë¡ľ
Ġë¡ ¯
ĠìĿ¼ ìłľ
m ent
íķľëĭ¤ ê³ł
ĠëĦ¤ íĬ¸ìĽĮíģ¬
e at
ĠìłĦ ëĭ¬
Ġìĺ¤ íĽĦ
Ġê¹Ģ ìĺģ
ëĭĪìķĦ ìĿĺ
åħ ĥ
ĠìĹĶ íĦ°íħĮìĿ¸ë¨¼íĬ¸
Ġíĳľ ê¸°
) "
ĠA n
ĠìĿ´ ìĬ¤
íħ į
ë¹ Ľ
íĥ Ĳ
ĠìĬ¤ íĶ¼
ìĿĺ ìĽĲ
ĠíĻį ì½©
ĠìĦł ìĥĿ
Ġë¶Ģ ìŀĦ
Ġì¼ Ħ
Ġ5 00
4 4
ìłĦ ìĿĺ
ë§Ī íĬ¸
ìĨĮ ìĪĺ
Ġëħ Ħ
ĠìĬ¤ ì½Ķ
Ġê°ķìĽĲ ëıĦ
íķĻ íļĮ
Ġë°ľ ìĤ¬
Ġ197 5
íİ ł
ĠêµŃ ë°©
Ġë² ½
ëĿ¼ ë¹ĦìķĦ
Ġíķ´ ìķĪ
Ġì¶©ì²Ń ëĤ¨ëıĦ
ì£¼ êµĲ
ĠìĤ´ ìķĦ
198 6
ìŀĲ ìľł
Ġ197 6
ëª ĩ
Ġì £Ħ
Ġë°ĺ ëŀĢ
Ġë¹ĦìĬ· íķľ
Ġê·¹ ìŀ¥
ë¡ľ ê·¸
Ġê·Ģ ì¡±
ĠL G
ĠìĤ´ íķ´
ìĿ¸ ëıĦ
ìŀĳ ìļ©
Ġìĸ´ë¦° ìĿ´
Ġë§Īì°¬ê°Ģì§Ģ ë¡ľ
Ĳ ìĿĺ
Ġì²Ń ìĨĮëħĦ
ë´ ĩ
Ġëª© ìłģìľ¼ë¡ľ
ĠìĥĿ ë¬¼
ë§Ī íģ¬
Ġì¦ Ĳ
Ġê·ľ ìłķ
s s
ëĨ Ģ
ìĦ¸ íı¬
íķĺê¸° ë¡ľ
Ġìĭľ ëıĦ
Ġë°© ìĸ´
Ġì§Ģ ëªħ
ĠĊĊ ĠĊ
Ġë°Ķ ê¾¸
íı¬ ë¥´
ĠìĻĦ ê³µ
Ġê² ª
~ )
íķĺ ëĤĺ
ĠìĿ´ ìĬ¹
å ī
ë³´ ëĵľ
Ġë°Ķ ëŀĮ
Ġì¤ĳ êµŃìĿĺ
7 6
ĠëıĻ ë§¹
Ġì²´ íı¬
Ġëĭ¤ ëĭĪ
ĠìĿ´ ëĵ¬íķ´
ëĭ¨ ìĿ´
5 8
ê³µ ìĿĺ
Ġë¶ ķ
Ġêµ¬ìĦ± ëĲĺìĸ´
Ġê²ĥ ê³¼
Ġíıī íĻĶ
æ ħ
ĠâĨ Ķ
ĠíĮĮ ê²¬
sp an
w w
ī ìĿĢ
Ġì°¸ìĹ¬ íķĺìĺĢëĭ¤
ä ¼
ac t
Ġë²ł ìĬ¤íĬ¸
ëĮĢ êµ¬
ĠíļĮ ìĿĺ
Ġì¹´ ë¥¼
ëĲĺ ê¸°ëıĦ
Ġíķľ êµŃìĿĺ
ĠìĹ° ë§¹
Ġë¦ °
Ġëĵ Ģ
Ġì¶ľìĭł ìĿĺ
Ġ196 9
æĿ ĳ
ìķĦ ë²Ħì§Ģ
ĠìĿ¸ ìĪĺ
ĠìŀĪ ìľ¼ëĤĺ
ê³ł ëł¤
ìĨĮ ë¡ľ
æĺ İ
ë§Ī ìĿĦ
ìĤ¬ ìļ°
Ġë³´ ëĭ¤
ë¥ĺ ìĿĺ
è ģ
/ /
' ,
Ġìļ° ìĪĺ
ì ģ
Ġìĥģ ëĮĢë¡ľ
Ġìĺ¤ìĬ¤íĬ¸ ë¦¬ìķĦ
Ġì£¼ìĹ° ìľ¼ë¡ľ
Ġë¸Į ëŀľëĵľ
æł ¡
ëĭ Ĳ
ë¡ľ ëĤĺ
Ġíķ´ ì²´
ol og
ê³µ ìĹħ
ëĮĢíķĻ ìĽĲ
ar k
ëıħ ìĿ¼
6 6
Ġì¶ ĺ
Ġì° °
ç ļ
ìĹĲ ë¥´
Ġìłģ ìĿ´
ĠìĻĦ ìĦ±
Ġì§Ģ ëĥĪëĭ¤
Ġê°Ħ ìĿĺ
Ġ197 7
íĸĪëĭ¤ ëĬĶ
ĠìķĦ ì¹¨
ĠìĹĲ ëĵľ
íķ¨ ìĿĦ
Ġì¤Ģ ê³µ
Ġìµľ ìļ°
ent er
Ġêµ° ì£¼
ìĨĮ ìĹĲ
Ġê²ĥìĿ´ ìĹĪëĭ¤
ĠíķĦ ìļĶíķľ
êµ° ê³¼
ê·¹ ìŀ¥
à ¸
ê·¸ ëŁ¬ëĤĺ
Ġíĺķíĥľ ë¡ľ
Ġë¶Ģ ëª¨
ĠìĿ´ ëĵ¤
ĠëĤ ©
4 9
Ġë ¿
íĬ¸ ê°Ģ
Ġê¸° ìĤ¬
ê°ķ ìłĲ
ì¼Ģ ìĿ´
Ġëį ĺ
C h
ĠìķĪ ìłķ
ì¡Į ê³ł
ìĹ° ëĮĢ
ì¤Ģ ëĭ¤
ëŁī ìĿĦ
äº ĭ
ëĭ¤ ìĿĮ
ìĭľ ê°Ģ
Ġê° Ĵ
Ġíĺ ľ
e e
æĽ ¸
ìĭľ ë¥¼
ĠìĻ ¼
Ġê ¾¸
ìĨĮ íĶĦíĬ¸
ì¡° ì§ģ
ĠìĹŃ ëĮĢ
ĠìľĦíķ´ ìĦľ
ĠëĮĢíķ´ ìĦľ
Ġë¬ĺ ìĤ¬
ë¶ ķ
å ½
ĠëģĿ ìĹĲ
198 5
198 4
ì¹ĺ ìĿĺ
ëĺĲ íķľ
Ġê°Ģ ëĬĶ
ĠëĤ´ ë¶Ģ
ĠìŀĪ ê¸°
æŃ £
Ġì¤ĳ ìĹĲìĦľ
ĠìľłìĿ¼ íķľ
Ġì²ľ ë¬¸
¤ ¼
Ġ196 8
Ġë³´ ëıĦ
êµŃ ìĿ´
Ġìħ Ģ
Ġê²Į ìĿ´
Ġìľł ë¦¬
ìĭ± íĦ´
ĠY ou
or m
ãĢ ģ
íķĺëĭ¤ ê°Ģ
ëĤ¸ ëĭ¤
ic e
Ġë³´ ì¡´
ĠìĦ± ìłģ
è Ģ
Ġëª» íķľ
ĠëĤ¨ ìª½
Ġì§ĢìĹŃ ìĿĦ
v er
Ġê°ķ íķľ
ëł¤ ê³ł
or ld
ĠìĿ¸ ìĭĿ
Ġìĭľìŀĳ íķľ
ì¡ ¸ìĹħ
ì Į
é »
íĶĦ ê°Ģ
Ń ī
Ġëĭ¤ ë£¨
ëħ¸ ëıĻ
or k
ìłĦ íŀĪ
ìĬ ´
ìŀĲ ìĿ´
ìłĦ ë¬¸
ê° ĻìĿĢ
ĠìŀĪìĹĪ ê³ł
ĠìĪĺ ë§İìĿĢ
ìĬ¬ ëŀĮ
ë¶ģ ëıĦìĿĺ
ê ´Ħ
ë¦¬ íŀĪ
Ġëĵ £
ëĭ¹ ìĿĢ
I A
Ġì ĩ
ìĭľ ìŀ¥
Ġ4 5
ë¹Ħ ëĵľ
Ġë¶Ģ ë¥¸ëĭ¤
ĠëıĻ ë¶Ģ
æ³ ķ
ìłĲ ìľ¼ë¡ľ
ĠìĥĪ ë¡ľ
ĠìłĦ ëŀµ
ĠëĦĪ ë¬´
è ³
ĠS K
Ġê·¼ ë¬´
Ġìµľ ìĨĮ
Ġë ´Ħ
ìŀĲ íĤ¤
êµ¬ ì¹ĺ
Ġë³´ ìĪĺ
ĠìķĮëłī ìĤ°
Ġ r
ĠíĮĢ ìĿĺ
ĠìĿ´ë¦Ħ ìĿ´
ĠìĦłê±° êµ¬
8 8
ì» ·
ĠìĿ¼ ì¢ħ
ì¼ Ħ
ĠíĮĮ ìĿ¼
E C
íķĻ ìĿĺ
Ġê°Ģ ìŀħ
Ġì´¬ìĺģ íķľ
Ġìłľ ê±°
9 2
ĠìĿĺ íķĺë©´
ë°Ķ ë¥´
ë° ĸ
l l
Ġìĭľ ìłķ
Ġìĺ¤ ë¦¬
Ġìłľ ëª©
Ġë¶ģ ìª½
ë¶Ģ ìŀ¥
ì²ľ êµ°
Ġìĥ Į
Ġìľł ëĮĢ
íĺķ ìĿĺ
o y
ĠëıĻ ë£Į
ê´Ģ ìĿ´
o st
ĠìĿ´ ì§ĳ
Ġëĭ¤ ë§Į
ìĹŃ ìľ¼ë¡ľ
ĠíĻį ë³´
Ġë§Ī ìĵ°
ë©Ķ ëĿ¼
ë¦¬ íĬ¸
Ġ7 0
Ġë§ĪìĿ´ íģ¬ë¡ľ
Ġìµľê³ł ìĿĺ
Ġë ĮĦ
è ²
ëıĦ ë¥´
Ġë³´ ìĿ´
ä ¾
Ġì°¸ ìłĦ
ĠíķŃ ìĥģ
ëıĦ ìĻĢ
Ġë² Ĺ
ĠìķĦ ëĭĪëĭ¤
ĠêµŃ ìĻķ
ë ®
ë¡Ń ê²Į
A C
p er
è ¥
is s
ĠìĿĢ íĸī
Ġë¡¯ ëį°
ê¶Į ìĿĺ
ê°Ģ ìĭľ
ìĤ¬ ì§Ħ
ë¥ ľ
ĠìĦľ ë¹Ħ
Ġìłľ ê¸°
a h
ĠìłĦ ì²ł
ĠìĿ¼ìĸ´ ëĤĺ
Ġìłķ ë¦¬
çĶ °
ĠìĦľ ë¶Ģ
Ġê²½ìļ° ìĹĲëĬĶ
ìĺĢ ìľ¼ë©°
ëĶ °
ëĤĺ ìĻĢ
ĠëĤ ³
ĠìķĪ ìĹĲ
Ġë§ ¹
ĠìĨĮ ëħĢ
ê´Ģ ê³Ħ
Ġì§Ģ ìłģ
ìłľ êµŃ
Ġìŀĳ ìĦ±
ĠìķĦì¹´ ëį°ë¯¸
ìŀĳ íĴĪ
Ġê¸° ê³Ħ
ĠìŀĪ ì§Ģ
Ġê±´ ê°ķ
9 6
ĠìĹ° ì¶ľ
ĠB l
ìķ ¨
ëĭ Ľ
ë£ ©
íĥĢ ë§Ī
íĶĦëŀĳ ìĬ¤
ìĸ´ ì¡Įëĭ¤
ëł¥ ìĿĺ
ì½Ķ ìĿĺ
ìłĲ ìĹĲìĦľ
Ġíķ© ë¥ĺ
ĠíĤ ¹
ìķ¤ ìł¤
Ġë§Ĳ ìĿĦ
ing le
Ġë§ĪìĿ´ íģ´
ĠìĺģíĻĶ ë°°ìļ°
ĠìĿ¸ ë¯¼
íķĺìĺĢ ëĬĶëį°
ĠC l
Ġë³´ ì»¬
A M
Ġë¯¸ ëĵľ
æ º
Ġ196 3
ìķĦ ìĿ¼ëŀľëĵľ
4 2
ç Ĳ
ìĹĲ ìĿ´
Ġìĭľ ìĿ¸
Ġìĭł ê²½
ĠìłĦ ìĭľ
Ġê³µ íı¬
ç ľ
ëĳĲ ê³ł
è ¶
ĠìĻ Ķëĭ¤
ĠìłĦ ìĦ¤
Ġíı¬ ë¥´íĪ¬ê°Ī
ì¿ ¨
Ġìļ° íģ¬ëĿ¼ìĿ´
O R
Ġê¸°ìŀ¬ ëĲľ
i le
ë¯¸ ìĸ´
Ġê³Ħ ìĬ¹
Ġêµ ´
ëĦ ¬
ìĺ¬ ë¦¼íĶ½
Ġê²ĥ ëıĦ
ĠëĤ® ìĿĢ
Ġê° Ŀ
Ġê³µ ê¸ī
Ġì¢ħ ëª©
ìķĺ ê³ł
Ġìĺ¤ ë¥´
ê³µ ìĽĲ
i re
ĠìĹħ ë¬´
â Ī
ë¡ľ ê°Ģ
ëįĶ ìĬ¤
ìĿĮ ë°ĺ
ìĤ° ìĿĺ
è «
Ġê°Ĳ ìĨĮ
ç ¶
ter n
ì² ©
Ġìĸ¼ êµ´
t p
Ġì¸ ł
ĠëĵĿ ìłĲ
ĠìĿĺ ê²¬
ìĦł ìĿĢ
ĠëĮĢíķ´ ìĦľëĬĶ
Ġëŀ ĺ
å ³
íĤ¤ ìķĦ
o od
) )
ĠìĿ¼ìĸ´ ëĤľ
Ġìĭł ìĿ¸
Ġêµ¬ ì¶ķ
Ð µ
ĠìĬ¹ê°ķ ìŀ¥
Ġ3 8
I C
a w
" (
ĠëıĻ ìª½
Ġìĭ¤ íĸī
198 2
æ ¨
ĠëĮĢ ë¥Ļ
ìľł íĤ¤
Ġë²ł ëĦ¤
6 7
Ġìłķë¶Ģ ëĬĶ
i x
ê³ ±
Ġê²Ģ ìĤ¬
ĠêµĲ ì²´
ìĹ ĩ
ìĺĢ ê³ł
198 3
ì£¼ ìĹĲìĦľ
ìķĦ ë©Ķë¦¬ì¹´
ìľ¼ ë©´ìĦľ
ĠUn ivers
Ġë°ķ ë¬¼ê´Ģ
Ġë¹ ¼
Ġê´Ģê³Ħ ë¥¼
ìķĪ ìĿĦ
ìĽĶ ê¹Įì§Ģ
ĠìķĦ ë¦Ħ
Ġê´Ģ ì°°
íĶ¼ìĨĮ ëĵľ
æľ ¬
ĠìĤ¬ëŀĮ ìĿĢ
Ġê²½ ê³Ħ
9 4
íĹ ¬
å ĸ
ê³ł ìĨįëıĦë¡ľ
ì¤ĳ êµŃìĿĺ
å ĳ
ĠëĤ¨ ë¶ģ
Ġìĸ¼ ë§Ī
ì¹ĺ ë¡ľ
Ġ196 7
Ġëª» íķĺê³ł
Ġì¶© ëıĮ
Ġì¦ī ìľĦ
p t
Ġëª¨ ë¦¬
é ¦
æµ ·
æ ĥ
Â °
ë± ħ
Ġë¯¸ ìķ¼
éĿ ¢
íĻĶ ìĹĲ
ëĮĢ ìĤ¬
ĠN ew
1 00
ìĿ¸ ì²ľ
Ġê¸° ìĸµ
Ġ8 0
Ġì§ģ íĽĦ
íħĮ ë¥´
ĠíĥĢ ì¹´
é ¾
êµ¬ ì¡°
ìĥģ ê³¼
ë¶Ħ ìĹĲ
Ġìĺ¤ìĬ¤íĬ¸ëłĪìĿ¼ ë¦¬ìķĦ
ĠìŀĲ ìĿ´
æ ¼
êµĲ ëıĦ
æĪ Ĳ
ĠìľĪ ëıĦìļ°
er n
Ġë ±
ĠíĨµ ìĭł
åĲ Ľ
ĠìĿ´ ìĭľ
ĠìĤ¬ìļ© íķĺìĹ¬
íķ´ ì¡Įëĭ¤
å Ĵ
ä¸ Ĭ
ct ion
9 7
Ġë¬¸ìłľ ë¥¼
Ġíı¬ ì§Ģìħĺ
ĠìĪĺ ìĽĲ
Ð ½
ĠíĬ¸ ë¦¬
Ġê²½ê¸° ë¥¼
ĠíĹĪ ìļ©
ĠìĤ¬ íķŃ
I V
! !
ë¥´ íĥĢ
ìĨĮ ìĦ¤
ë¶Ħ ìĿĦ
ë¶Ģ ìĿ¸
Ġìĥģ ìĹħ
Ġê°ľ ìłķ
ê³¼ ë¥¼
ãģ Ħ
Ġìľł ëĤĺìĿ´
Ġê±° ë¦¬
ë°± ì§Ī
ĠìĨĮ ëħĦ
ht tp
ĠìĤ¬ ëł¹
ig ital
S A
Ġê°ģ ì¢ħ
Ġìĭľìŀĳ íķĺìĺĢëĭ¤
ĠëĨį ìĹħ
ĠìĤ¬ìĿ´ ìĹĲìĦľ
v N
Ġìĭł ëĿ¼
ëı ¼
ĠëĦĺ ìĸ´
ê°Ģ ë¡ľ
ìłģ ìĿ´ê³ł
ì¶Ķ ìĸ´
Ġë° ĳ
ĠìłĦ ìļ©
: //
ëī´ ìļķ
ì¹´ìĿ´ ëıĦ
Ġíĺĳ íļĮ
Ġëĸ¨ ìĸ´ì§Ħ
Ġìĺ Ĩ
ë§Į ìĹĲ
Ġìłķ ì°©
ĠìĿ¸ ê·¼
ĠëĤĺ ëĪĦ
5 7
t e
Ġíĥľ íĴį
ĠìķĦ ìļ°
Ġëħ¸ ëł¥
Ġê°Ģê¹Į ìļ´
Ġê³³ ìĹĲ
íĦ° ë¦¬
Ġìĺ¨ ëĿ¼ìĿ¸
ëĮĢ ìĻĢ
Ġìĺģ ìĹŃ
ìĥĿ ë¬¼
ç ¸
¼ Ī
å £
ìĿ¼ ìĿĢ
Ġë³´ìĹ¬ ì£¼
Ġëĭ¨ ê³Ħ
ìĭľíĤ¤ ê³ł
ĠìłľìĻ¸ íķľ
ê° Ķ
íķĺ ìĹĲ
ìĸ´ ëĤĺ
ĠìŀĲ ì²´
ê¸° ëħĲ
æ ¥
Ġì±ħ ìŀĦ
ëĲ Ĳ
198 1
Ġs c
Ġìł ĬìĿĢ
ê°Ģ ìĿ´ëĭ¤
Ġë§Įëĵ¤ ìĹĪëĭ¤
ìħ °
Ġì ī¬
ĠëĮĢíķĻ ìĽĲ
Ġì ı
ëŁ¬ ë¦¬
Ġëĸł ëĤĺ
4 1
Ġìľł ëıĦ
å¤ ª
ëĵ± ìŀ¥
oc k
æ´ ŀ
ĠìĦ¤ ìłķ
Ã Ĺ
ĠìĿ¸ ëĶĶ
ĠP art
Ġì§ĳ ì¤ĳ
ĠëĦ¤ìĿ´ ë²Ħ
¾ Į
ë¥¼ ë¦°
Ġìĭľ ìŀ¥
ê´ĳìĹŃ ìĭľìĿĺ
ì ¤
ĠìĦ¸ ì¢ħ
Ġìŀ¥ ê¸°
Ñ ģ
ç¾ ©
Ġê° ¤
Ġìłľ ìłķ
ĠC D
ëĵ¤ ëª©
éķ ·
ë© ľ
ë³µ ì§Ģ
ì¹ĺ ìĽĲ
ìĽ ł
ëŁī ìĿĢ
ëĤ´ ê³ł
Ġê³Ħ ìĤ°
ë§Ī ìĿĺ
ĠëĮĢ ìĤ¬
Ġëĥ ī
ìĿ¸ ìłĳ
Ġë¬¸ìłľ ê°Ģ
Ġì¡° ìłķ
ĠëĮĢíĳľ ìłģìĿ¸
ĠëĨį êµ¬
êµŃë¯¼ íķĻêµĲ
ìĭľ ìĬ¤íħľ
ĠìĦľ ìª½
êµĲ ìĿĺ
íĢ ´
ĠëĴ ·
ĠìļĶ ì½Ķ
197 0
Ġê¸° íĽĦ
r ic
Ġë§Į ëĵľëĬĶ
Ġìłķì¹ĺ ìłģ
ĠíĶ ½
Ġëªĩ ëªĩ
ìĭľ íĤ¨
Ġìłķ ìĥģ
Ġì² Ļ
ĠìĤ¬ìļ© ëĲĺëĬĶ
Ġìħ °
ĠìĮ ĵ
ĠìłĦëĿ¼ ë¶ģëıĦ
ê¸° íĽĦ
Ġíķĺ ê¸°
Ġì§ĳ ëĭ¨
Ġëĳ Ķ
Ġê°ľìĹħ íķľ
Ġìĺ¤ íĶĪ
ìĬ¤íģ¬ ë°Ķ
Ġë¬´ ìĹŃ
ĠìĹ¬ ìłĦíŀĪ
ĠìľĦ ìĿĺ
íĶĦ ëłĪ
íķ´ ë¥¼
ë¦¬ ëħ¸
ĠìĤ¬ìĭ¤ ìĿĦ
Ġ196 4
Ġì¶ľ ë°ľ
ĠìĪĺ ìĺģ
íĶĦ ëĬĶ
Ġìĺ¤ ìĬ¤
ĠëĤĺ ì¤ĳìĹĲ
ĠíĻķ ëĮĢ
s on
ëľ ¨
Ġë ļ
ì¡° ëĬĶ
íĥĢ ë¡ľ
ĠìłĦ ìĤ¬
íĤ¤ ìĬ¤íĥĦ
ĠìĿ´ ëŀĺ
ë¹Ħ ëĶĶìĺ¤
ex t
Ġê²½ê¸° ìŀ¥
ĠìĦ¸ ë¥´
Ġë¶Ī ë¦°ëĭ¤
ëŁī ìĿĺ
ìłĦ ìĿ´
op e
ĠìĿ´ ëłĩê²Į
ĠìłĦ ì°¨
Ġë°ĺ ë©´
Ġê²¨ ìļ¸
Ġê°Ĳ ìĹ¼
4 3
Ħ ëĬĶ
ĠëĤĺ ëĵ¤ëª©
ĠìĿ´ìļ© íķĺìĹ¬
ĠëıĦ ìĦľê´Ģ
Ġì½ ©
ĠíĨµ ìĤ°
Ġì į¼
ĠíĻĶ íķĻ
è¥ ¿
ìŀĲ ëıĻì°¨
Ġê·¸ ëłĪìĿ´
ĠëĴ¤ ìĹĲ
Ġì£¼ ëª©
ìĿ´ ë¡ľ
Ġ3 6
é ļ
ìĦ± ìľ¼ë¡ľ
Ġì£¼ ëĬĶ
æ Ģ
ìĹĲê²Į ëĬĶ
Ġë¡ľ ë²ĦíĬ¸
ĠìĨĶ ë¡ľ
Ġìĭľìłķ ì´Į
Ġì½Ķ ëĵľ
Ġê º
ë¹Ħ ê°Ģ
ĠíĬ Ģ
ë³ĳ ìĽĲ
é Ħ
ĠìķĮ ìķĦ
æ ŀ
ëıĦ ìĦľê´Ģ
Ġíĸī ìĤ¬
ĠìĪĺ ê°Ģ
ìĭ¤ ìĿĦ
ì§Ģ ë¦¬
ê¸° ê³ł
Ġì§Ģ ë¦¬
Ġì²´ ê³Ħ
Ġì£½ ìĿĮ
ĠìķĦ ë©Ķë¦¬ì¹´
ì¡° ìĤ¬
Ġëĳĺ ëŁ¬
Ġë¶Ħ ìŁģ
ĠìĪ ²
8 5
Ġ196 2
ĠëĭĪ ìĭľ
ì§Ģ ë§Ī
êµŃ ìĿĢ
Ġìĺ® ê²¨
ĠS c
Ġê°ľ ìĦł
Ġ196 6
êµ¬ ëł¤
Ġë§Ī ëĵľë¦¬
a z
ĠíĻĪ ëŁ°
ĠíĥĦ ìĥĿ
ç ´
ĠìĨĮ ìŀ¥
Ġíķ¨ ìĪĺ
Ġê°ķ ì¡°
Ġê¹Ģ ìłķ
ĠìĤ¬ëŀĮ ìĿĦ
ì¼ Ī
Ġìľł ìłĦ
ĠìĤ¬ë§Ŀ íķĺìĺĢëĭ¤
ë¦¬ ê¸°
Ġë¬¼ ë¡ł
ìľĦìĽĲ ìŀ¥
Ġë¯¼ ê°Ħ
Ġìłķë¶Ģ ìĿĺ
íĺ¸ ê°Ģ
Ġíķĺ ëĬĺ
Ġì£¼ ë§Ĳ
ĠìĿ¸ ìĤ¬
ĠìĿ¼ ìĿ´
ê´Ģ ìľ¼ë¡ľ
ë©Ķë¦¬ ì¹¸
ĠëĿ¼ ìĿ¸
ìłģìľ¼ë¡ľ ëĬĶ
ì¦Ī íĤ¤
ĠíĮ Ŀ
Ġì¦Ŀ ê±°
Ġë§Ī ë²ķ
o ok
å¾ ·
ãĢ İ
Ġê´Ģ ë£Į
Ġëŀ ľ
ëĿ¼ íģ¬
íĻľ ëıĻ
å¯ º
Ġë¬´ ìŀ¥
Ġì¸¡ ìłķ
Ġíĥĳ ìŀ¬
ê ¾
I S
Ĩ į
ê°ľ ë¥¼
ìĭľ ìĬ¤
ìĦľìļ¸ íĬ¹ë³Ħìĭľ
Ġìłľ ìĿ´
ê¶Į ìĿ´
Ġëģ ¼
ëĲĺ ìŀĲ
I n
ìĦĿ ìĿĦ
áĨ ŀ
Ġìĭ¤ ìłľë¡ľ
ëĭ¹ ìĿ´
ĠëłĪ ëĵľ
ê¹Įì§Ģ ìĿĺ
Ġê³ł ëĵ±
Ġì¶ķêµ¬ ëĭ¨
ĠíķŃ ëª©
ìĬĪ íĥĢ
ĠìĬ¤ íĥ
Ġê¸°ëĬ¥ ìĿĦ
ĠíķĻ ìĤ¬
ìĭł ìĿ´
ìĦ¸ ìĹĲ
Ġì¤ĳíĻĶ ìĿ¸ë¯¼ê³µíĻĶêµŃ
Ġë§Ī ë¦¬ìķĦ
ĠìľĦì¹ĺ íķ´
ĠìĪĺ ë¦½
ĠìĿ´ ìĬ¬ëŀĮ
ëĿ¼ìĿ´ ìĸ¸
ĠíĹ Ŀê°Ģ
ĠìĤ¬íļĮ ìłģ
ĠíĶ¼ìķĦ ëħ¸
ìĻ ľ
íĥĢ ì¹´
V D
Ġê²Ģ ìĿĢ
ëŀ« íı¼
åº ľ
Ġê´ĳ ê³ł
7 1
ëł ´
ĠìķĦë¥´ íĹ¨íĭ°
ac h
8 6
Ġìĺ¬ ëŀĲëĭ¤
ĠíķĦë¦¬ íķĢ
Ġìĭľ ê°ģ
ĠíĮĲ ëĭ¨
Ġëª½ ê³¨
Ġë§Įëĵ¤ ìĸ´ì§Ħ
Ġë¡ ¤
5 6
ĠìĽĲ ìŀĲ
ë©´ ìĿĺ
ĠìĪĺ ìłķ
ìĿ¸ ëĵ¤ìĿ´
ìĬ¤ íĮĮ
Ġ ĠĊ
Ġê·¸ ëłĩ
ëĮĢ ìĤ¬ê´Ģ
ìĹ°êµ¬ ìĨĮ
ë§Ī ë¥´
Ġìŀ¥ êµ°
Ñ Ģ
ĠìĹĨ ìĸ´
ì ī
ì¢ħ íķ©
Ġ196 5
ĠìĿ¸ ê°Ģ
in t
ĠìŀĲìĭł ìĿĦ
Ġëĵ±ìŀ¥ íķĺëĬĶ
ë¡ľìĦľ ìĿĺ
è» į
ĠM e
' (
ìĦľ ë¡ľ
on e
Ġë ½
ëŀ Ĳ
ëĵ ¯
Ġì±ĶíĶ¼ìĸ¸ ìĬ¤
Ġì£¼ ìĹĪëĭ¤
ìŀĲ ëĵ¤ìĿĺ
ìłĢ ìļ°
ĠëĤĺíĥĢ ëĤĺ
Ġì¢ Ģ
Ġìļ© ìĸ´
Ġìłľìŀĳ ìĹĲ
Ġíİ¸ ê³¡
éĻ ¢
ĠìĦł ê³ł
êµŃ ìľł
ì§ Ĳ
Ġì¢ħ ì¢ħ
Ġë§Ī ëł¨
ĠìłĢ íķŃ
ĠìĬ¤ ë¯¸
ë²Ħ ê·¸
íĮĮ ìĿĺ
ìĭł ë¬¸
ë¡ľ ëıĦ
Ġìĺ ¹
£ ł
ĠI S
ìłĦ ëĿ¼
8 9
ĠìĦł ìĿĺ
ëłĪìĿ´ ëĵľ
ĠìĤ¬ ë¡Ģ
é Ł
ëł Ľ
Ġê¹ Ĭ
Ġìĭľ ëĤĺ
íĺ¸ ìĿĺ
» ê²Į
Ġê±´ ëĦĪ
ëħ¸ ìĬ¤
ëĿ¼ê³ł ëıĦ
ĠíķĢ ëŀĢëĵľ
ĠëĬĲ ëĤ
Ġíķ´ëĭ¹ íķľëĭ¤
íĶĦ ìĿĺ
Ġìķ¡ ìħĺ
Ġë¯¸ ëĶĶìĸ´
ê¹ ¨
ë¡ł ìĿĦ
åħ ī
ìĬ¤ íı¬ì¸ł
ĠíĨµ íķĺìĹ¬
Ġë¶Ī ëŁ¬
êµ¬ ë¡ľ
ĠâĢ Ķ
Ġì·¨ ê¸ī
Ġìĭľ ëĤ´
Ġë°ľíĳľ íĸĪëĭ¤
åĮ Ĺ
Ġíĺ¸ íħĶ
¥ íĦ°
å ´
Ġ9 0
5 1
ëħĦëĮĢ ìĹĲ
ç Ħ
íķľ íİ¸
ëħĦ ê³¼
ë¦¬ ëĤĺ
å¹ ´
Ġ3 00
Ġì£¼ ìĭĿ
ĠíĨµ ê³Ħ
Ġê³µ ê³µ
ĠìľĦ íĺĳ
ìŀ ł
an n
197 9
ê¾ ¼
Ġë¶ķ ê´´
7 9
ìĿ´íĥĪë¦¬ìķĦ ìĿĺ
Ġê³µ ìľł
Ġê°Ħ ì£¼
Ġë¬´ ê¸°
or g
ĠíĿ °
íį¼ ëĵľ
Ġ194 9
Ġì´Ŀ ë¦¬
ê°Ģ ê°Ģ
ìĺ¤ ë¦¬
ĠìĪ «
ìķ¤ìł¤ ëłĪìĬ¤
ĠíĻķ ë³´
Ġìłķë³´ ë¥¼
ĠìķĦìĿ´ ëıĮ
ë Ī
ĠìłĦ ì£¼
ë¹Ħ ì¹ĺ
Ġìľł ìĹĶ
ro p
ĠìľĦìĽĲ íļĮ
å §
ë¡ľ ë¡ľ
Ġë³¸ ëŀĺ
ë³´ëĭ¤ ëĬĶ
ìķ¼ êµ¬
Ġìŀ¬ ì§ģ
ĠìĤ¬ ìŀ¥
ëĭĪ ìĿĺ
ëł¥ ìľ¼ë¡ľ
Ġë°©ìĨ¡ êµŃ
ìŀĲ ê¸°
è Ĺ
íĮ ¬
ìºĲëĤĺëĭ¤ ìĿĺ
Ġê² Ĳ
ê ¿
ĠìĬ¤ íĭ°
ĠìŀĪìĹĪ ì§Ģë§Į
ĠíŀĪ ëį°
Ġìļ ķ
ul t
Ġìłģ ê·¹
ĠìĬ¤íİĺ ìħľ
íŀ ĺ
ìĹ° ìĨį
ĠìĿ´ë£¨ìĸ´ ìł¸
Ġìĺģ ìĥģ
Ġë¬¸ ìŀĲ
Ġê¸°ë¡Ŀ ìĿĦ
Ġì±Ħ íĥĿ
ìĺģ êµŃ
ëł Ĳ
é Ĥ
ĠìĿ´ ë²Ī
s h
Ġíħ į
ìĬ¤ íĮħ
Ġê³ł ìłķ
Ġì¶© ë¶Ħ
ĠìĿ´ìĬ¤ ëĿ¼ìĹĺ
å® ¶
ĠíĥĪ ëĿ½
ĠìĿ´íĽĦ ìĹĲ
ĠìĦ± ìĿ¸
ĠS ingle
ê²° ìĬ¹
ĠìĪĺ ìŀħ
ĠìĿ´ ëŀĢ
Ġê¸Ī ìľµ
ê²Į ìĿ´
Ġê· ł
éĻ ½
ì¡° íķ©
íĸī ìĿĦ
Ġìī½ ê²Į
Ġëĭ¤ ìĦ¯
Ġê·¸ ëł¤
ĠìĤ´ ìĿ¸
5 3
Ġ194 8
ĠêµĲ íĨł
Ġë³´ ë©´
ë¶Ģ ìĻĢ
ëĦ¤ ìĬ¤
ëĭĪ ëĬĶ
ĠUnivers ity
Ġíŀĺ ìĿĦ
ĠìĹĲëĦĪ ì§Ģ
I I
ëĦ¤ ìĭľìķĦ
Ġë¬´ ëłµ
ìļ° ëĵľ
Ġëĵ±ìŀ¥ ìĿ¸ë¬¼
ë¦¬ ì¼Ģ
ë¬¼ ìĿ´
ĠìĤ¬ ëĬĶ
Ġ196 1
ãĢ Ģ
5 00
Ġ194 6
ëĿ¼ ëĶĶìĺ¤
Ġw ith
ìķĦ íĤ¤
ëĭ¹ ìĿĦ
Ġë°ĽìķĦ ëĵ¤
ëŁ¬ ìĭľìķĦ
ĠìľĦì¹ĺ íķĺê³ł
íį¼ ìĬ¤
åľ °
ìĿĺ ìĿĺ
ĠíĨµ íķľ
5 4
ĠíıŃ ë°ľ
Ġìµľìļ° ìĪĺ
ìŀĲ ìĹĲê²Į
ĠíĶĮ ë¡ľ
ëĭ¹ íķľ
ĠìĿ¼ ìĽĲ
ê²½ ìĿĺ
Ġê¸°ì¡´ ìĿĺ
å Ŀ
ì¢ħ ìĿ´
Ġëĭ Ľ
ë¬¸ ìĹĲ
è Ī
ë²ł ìĿ´ìĬ¤
åİ Ł
ìĮ į
Ġìµľ ëĭ¤
ĠC on
íİĺ ë¥´
Ġê²½ íĸ¥
ĠìĿ´íĥĪë¦¬ìķĦ ìĿĺ
ì§Ī ìĿĺ
ê³ł ë¡ľ
ê¸° ë¡Ŀ
Ġë°©ìĭĿ ìľ¼ë¡ľ
Ġìĸ´ëĸ »ê²Į
íĻ Ī
ì¡Į ìľ¼ë©°
Ġì´Ī ë°ĺ
ë¨¸ ìĬ¤
Ġê°ķëł¥ íķľ
íĬ¸ ëŀĻ
ìĶ ¬
ä¸ ĸ
ĠìĿĺ ë£Į
ĠìĿ¸íĦ° ë·°
ĠìłĢ ìŀ¥
íķĺëĭ¤ ê³ł
H K
ĠëĤĺìĺ¤ ëĬĶ
Ġìº ĺë¦¬íı¬ëĭĪìķĦ
Ġëģ Ĭ
Ð º
Ġë©ĶìĿ´ ìłĢ
íķĺ ìĭľ
Ġê¹ Į
Ġíĥľìĸ´ ëĤľ
ĠìĦ Ń
ëł¥ ê³¼
7 2
Ġë¹Ħ ìļ©
ëĦ¤ ìĿ´
éĥ ¡
ĠìĿ¼ë°ĺ ìłģìĿ¸
Ġíĥľ íıīìĸĳ
ĠìĤ¬ìļ© íķľ
C D
ë¹Ħ ìĿĺ
ĠìĤ¬íļĮ ì£¼ìĿĺ
íķĺëł¤ ëĬĶ
Ġê³µê²© ìĿĦ
ìĤ° ë¦¬
ë¨ ¹
ìĿ´ëĿ¼ê³ł ëıĦ
ë¶Ħ ìĿĺ
ìķĪ ìłĦ
- -
col or
ĠìĿ¸ íķĺìĹ¬
á »
5 9
Ġë°ĸ ìĹĲ
ì£¼ ê°Ģ
ê³Ħ íļį
7 4
ĠíĨ °
ëĤ Ļ
ĠëĮĢíļĮ ìĹĲìĦľ
ëĤ ©
ë ĩ
ë¹Ħ ìĭľ
Ġë§ Ľ
æŃ ¦
Ġê¸¸ ìĿ´
ê³ł ëĵ±
ìĤ¬ ìĿ¸
Ġë¶Ģ ê·¼
Ġë¿Ĳ ë§Į
ë°ĸ ìĹĲ
ĠìĦľìļ¸ ëĮĢíķĻêµĲ
p l
197 3
ë°Ľ ìĿĢ
ĠëĤ´ ìĹĲìĦľ
Ġì¶ľ ìŀ¥
ìĤ° êµ°
ĠìĻ¸ ìĹĲëıĦ
çĶ Ł
Ġìĭľ ê¸°ìĹĲ
ĠìĹ° ìĺĪ
oh n
Ġì§ Ĳ
æ Ħ
ĠìķĬ ìĿĦ
ìĿ¼ ë¡ľ
ì§Ģ ê¸°
ëıĻ ìĿĺ
Ġì» µ
Ġìķł íĶĮ
Ġìŀ¬ ìłķ
è §
ë²ł ë¥´íģ¬
ĠíļĮ ë³µ
ĠìłĦíĪ¬ ìĹĲìĦľ
Ġìĺ¤ íĨł
ĠìĤ¬ëŀĮ ìĿĺ
â Ĩ
6 2
k g
ìĤ¬ ìĬ¤
ëŀĺ ê³¤
ìĸ´ ëıĦ
Ġíİ ł
ĠìĤ¬ ìļ´ëĵľ
Ġì½ĺ ìĦľíĬ¸
ĠìĤ¬ëŀĮ ëĵ¤ìĿĢ
Ġê·¸ëŀĺ ìĦľ
ĠíĶĮ ëŀ«íı¼
Ġì¹¨ ê³µ
ë¯¸ ëĭĪ
ìĹ° ë§¹
ĠíĻķ ìłķ
ëĳ ĺ
Ġë¹ ¨
ç¥ ŀ
ë¶Ģ ìĹĲìĦľ
Ġìľł íĬľ
ê³µ íĻĶêµŃ
Ġëª© ìłģ
Ġíķľ ìłķ
ê³ł ê¸°
Ġê·¸ ê³³
ĠìķĶ ìĤ´
Ġêµ¬ì¡° ë¥¼
ìĸ´ ìĬ¤
Ġë°Ľ ëĬĶ
ëĭĪ ë²ĦìĬ¤
ìĹŃ ìĿ´ëĭ¤
i er
ëĲĺìĹĪ ì§Ģë§Į
ĠëĨĴ ìĿ´
ëĮĢ ìĹĲìĦľ
ã Ĩį
Ġ3 3
ì§Ī ìĿĦ
Ġíı¬ ìľł
Ġë§Į ìķ½
I D
ĠíĬ¸ ë¡ľ
Ġíĺķ ìłľ
æ ¬
íİ Ļ
ìķ Ĺ
Ġìĵ° ìĿ¸ëĭ¤
ìĤ° ìľ¼ë¡ľ
ĠìłĦ ê°ľ
ĠìŀĲ ë³¸
ìĿ¸ ìĹĲ
Ġì±ĶíĶ¼ìĸ¸ ìĭŃ
197 8
ì£¼ êµ°
ê° Ĵ
Ġìĩ ł
ri st
ë¯¸ ìĿĺ
ë°ķ ë¬¼ê´Ģ
åŃ¸ æł¡
ëĲĺìĹĪ ëĬĶëį°
B A
ëıĻ ìľ¼ë¡ľ
ì¡° ë¥¼
ĠëŁ¬ìĭľìķĦ ìĿĺ
ãĢī ,
ĠíĬ¸ ëŀĻ
ìłĲ ìĹĲ
Ġíŀ Ĳ
ĠëĲĺìĹĪ ìľ¼ë©°
Ġê¹Ģ ìĦ±
Ġê³Ħìķ½ ìĿĦ
ĠìľłëĤĺìĿ´ íĭ°ëĵľ
6 1
c l
ì°¨ ë¥¼
ìŀ¬ íĮĲ
Ġìľł íĤ¤
Ġëĭ¨ ë°±ì§Ī
ê³¼ ëĮĢíķĻ
Ġìĭľìŀĳ ëĲĺìĹĪëĭ¤
íĥĢ ëĬĶ
ĠìĥĿíĻľ ìĿĦ
6 3
íĥĢ ì§Ģ
ëĿ¼ ëĵľ
ìĹħ ìĿĦ
ìĦł ìĹĲ
Ġìĭ± ìĸ´
ĠëĮĢ íĺķ
ìĦ¸ê¸° ìĹĲ
ìĿ¸ ìĿ´ëĭ¤
ìĦľ ìĿĺ
ì²´ ë¡ľ
ĠëĤĺ ëĬĶ
ĠíĹ¤ ìĿ´
Ġìŀ¥ ì°©
Ġì¡° íķ©
ê³¼ ìłķ
Ġê³ł íĸ¥
5 2
E N
ìĤ¬ ìłĦ
Ġê³ł ìļ©
ë©´ ìĹĲìĦľ
ĠìĹĲ ìĸ´
ë¹Ħ ëĬĶ
Ġë°ķ ìłķ
ĠìĪĺ ì¶ľ
Ġì°½ ìĦ¤
Ġìļ°íģ¬ëĿ¼ìĿ´ ëĤĺ
ë ļ
Ġìŀ¥ ì¹ĺ
ĠìĪĺ íķĻ
ë©´ ìĿ´
Ġë¶Īê°Ģ ëĬ¥
ìĺ¤ ìĬ¤
Ġëĵ± ìĹĲìĦľ
ĠìĬ¤ íģ¬
Ġê´Ģ ìĭ¬ìĿĦ
Ġì¡ ±
íİĺ ëĿ¼
" |
íģ¬ ëŀĺíĶĦíĬ¸
íĻĺ ê²½
Ġíķĺ ëĵľ
ìĿ¸ ëĵ¤ìĿĢ
Ġê²½ìļ° ëıĦ
æľ Ŀ
Ġí Ĥ¬
êµĲ ìĪĺ
Ġê³µ êµ°
êµŃ ìĿĦ
ìĨĮìĪĺ ìŀĲ
ĠëĤ Ń
íĨ ±
Ġë³´ ìĿ´ëĬĶ
íķľ êµŃìĿĺ
ã ħ
ic s
Ġê°ľ ìĭł
ĠS ch
Ġë³Ģ íĺ¸ìĤ¬
ĠìķĦ ëŀį
197 2
ĠíĶĦ ëŀĢ
ì§Ī ëŀľëĵľ
Ġì¶©ì²Ń ë¶ģëıĦ
9 3
Ġíķĺ ìŀĲ
Ġì°½ ë¦½
ĠìĿ´ìłĦ ìĹĲ
Ġë§Ī íģ¬
ì£¼ ëħĦ
ĠC ol
Ġì£¼ìŀ¥ íĸĪëĭ¤
æľ ´
Ġëħ¸ ë¶Ģ
Ġìŀĺ ëª»
ëĮĢ ìŀ¥
ĠìłĦ ìĹŃ
ĠìŀĲ ë¦¬ë¥¼
ĠP l
ê´Ģ ìĿĺ
íĻĶ ëĬĶ
D igital
Ġê·¸ê²ĥ ìĿĢ
Ġë²łìĿ´ ì§ķ
ìĭľ ìĻĢ
ĠëĭĪ ì½ľ
Ġë§Į ì¡±
Ġëĵ ¯
ê¸° ê°Ħ
ĠìĪĺ ìĹ¬
ê´Ģ ê´ĳ
Ġì¤ĳíĻĶ ë¯¼
íħĮ ëĦ¤
7 3
ĠíĪ¬ ìŀĲ
è¡ Į
Ġë¹Ħ ìľ¨
ìķ½ ìĿĦ
ĠìĿ´ ë¯¼
ìĿ´ ëįĺ
ì¹´ ê³ł
ĠP h
Ġëĸ¨ìĸ´ ìł¸
Ġíķĺ ê²Į
Ġ195 5
Ġíĥ ģ
ìłĦ ìĿĢ
ĠëĤĺ íı´
ëĿ¼ìĿ´ íĦ°
íĪ °
Ġëħ¸ ë²¨
T BC
Ġë¯¸ëĵľ íķĦ
ìĬ¤ íı¬
ĠìĬ¹ ë¦¬ë¥¼
æ° ´
un g
ĠëĮĢìĥģ ìľ¼ë¡ľ
I T
ë£ ¸
Ġì²Ń ëħĦ
ĠìĹ¬ê¸° ìĦľ
Ġ1 000
ou nt
ê´ĳ ì£¼
ë°Ľ ìķĦ
Ġ0 1
ĠëĴ¤ ë¥¼
ç µ
ëĶĶ ìħĺ
íĺķ ìĿ´
Ġ194 0
Ġì¹´ ìļ´
Ġë§¤ ëħĦ
Ġì¤ĳ ìĿĺ
Ġì¡°ìĦłë¯¼ì£¼ì£¼ìĿĺ ìĿ¸ë¯¼ê³µíĻĶêµŃ
ä¸ »
Ġëł Į
ç ķ
Ġëĭ µ
ëıĻ ë¬¼
Ġìĺ¬ ë¦¬
ĠíĨł ë¡ł
ìĽ °
ë¦¬ íĭ°
Ġëĭ¨ ìĿ¼
ĠëĿ¼ íĭ´
ì¤Ħ ê±°ë¦¬
Ġë¯¸ëĵľíķĦ ëįĶ
ëł¥ ìĹĲ
ĠW orld
ìķĺ ìľ¼ë©°
ëĬ Ħ
ìĿ´ìĹĪ ìľ¼ëĤĺ
ì²´ ìĹĲ
Ġëª¨ ìĬ¤íģ¬ë°Ķ
íĸī ìľĦ
íĸĪ ê¸°
Ġë¬ »
Ġíĺ ĲìĿĺ
ìĸ´ ìĻĢ
Ġêµ¬ìĦ± ëĲľ
Ġ194 1
Ġì¶ľìĹ° íķĺìĺĢê³ł
Ġê°Ģ ê²©
ĠH e
ĠM ar
ìĪĺ ìĿ´ëĭ¤
ĠìķĦ ìĿ´ìĬ¤
íĮ ©
6 9
« ĵ
ĠìłĲ ì°¨
ĠìĪľ ìľĦ
ì¡± ìĿĺ
ëĭ¨ ìľ¼ë¡ľ
ĠëŁ¬ ë¸Į
Ġê³ł êµ¬ëł¤
ë³´ íĨµ
Ġíıī ìĸĳ
ĠìĦĿ ìĤ¬
ĠíĮĲ ê²°
ĠìĽĮ ìĭ±íĦ´
ic a
ĠëĮĢ ê·ľëª¨
ĠìĨį ìĹĲìĦľ
ëł¨ ìĿĺ
é İ
ìłľ ìĹĲ
ĠìĿ¸ê°Ħ ìĿĺ
197 6
Ġì§Ģ ìĭĿ
Ġë¨¸ ë¦¬
ëĵľ ëĿ¼
ìłķ ëıĻ
ë¡ľ ë°Ķ
ìļ© ìľ¼ë¡ľ
ĠêµŃ ë¬´
Ġë¯¼ì£¼ ëĭ¹
ìĸ´ ëĵ¤
ĠëıĦ ìĽĢ
ë¥ĺ ë¥¼
íļĮ ìŀ¥
Ġëĵ± ìĿĢ
ëĮĢ ìĭł
ĠìĿ¸ ê¸°
Ġìŀł ìĭľ
ë¦¬ ì¦ĺ
Ġì¡° ê¸Ī
ë Ĵ
Ġì¦Ŀ ëªħ
ë Į
ìĤ Ń
Ġì§ģ ìĽĲ
ĠíĺĦ ìĭ¤
íĿ ¡
Ġê°Ģ ë¡ľ
ë²ķ ìĹĲ
ĠìĿ´ ìŀ¬
Ġì§ ĵ
ì§Ģ êµ¬
ëıħ ë¦½
Ġë³µ ìŀ¡
ìļ° ëĿ¼
ĠíĥĢ ê³ł
ĠìķĦ ì£¼
Ġë¶Ħ íķł
ë ¤Ħ
ìĦł ìĹĲìĦľ
ëł ĺ
Ġìĺ¬ íķ´ìĿĺ
as e
ëŁ¬ ìĭľìķĦìĿĺ
ar e
ë¹ĦìķĦ ìĿĺ
ĠíĦ ¸
Ġ y
è ĭ
ĠìĤ¬ìļ© ëĲĺìĹĪëĭ¤
ĠK ë¦¬ê·¸
ìĤ¬ ìĹĲìĦľ
ë²Ī ìĿĺ
| }
Ġ Î
ĠìĹŃ ìľ¼ë¡ľ
Ġë°± ìŀĳ
ëª¨ ëį¸
ĠëıĦ ìĽĢìĿĦ
196 8
Ġì² ¨
Ġìĺ¤ ìłĦ
ĠíĻ ĭ
ì§Ħ ìĿĦ
ë¦¬ ëĭ¤
ĠìĽĲ ì¹Ļ
éĥ ¨
id ae
ìŀħ ëĭĪëĭ¤
ĠìĨį ìĹĲ
ĠìŀĲ ê²©
ìĿ¸ ëªħ
ĠìŀĲìĿ´ ìĸ¸
ë¥´ íĤ¤
ë°ķ ì¥Ĳ
ĠíĦ° íĤ¤
ìĭľ ëĮĢìĿĺ
196 0
ĠìĿ´ë£¨ ìĸ´ì§Ħ
Ġë¶Ī ê³¼
H E
ĠëķĮ ìĹĲëĬĶ
Ġëŀ Ń
Ġëĳ ¥
ï ½
Ġíķĺ ë©´ìĦľ
ĠëĽ°ìĸ´ ëĤľ
ìĥģ ìĹĲìĦľ
ä» ģ
æ ·
ìĺ¤ìĬ¤íĬ¸ ëłĪìĿ¼
A P
ë¯¸ ìĪł
Ġì°¸ ìĦĿ
% ,
Ġê³ł ìłĦ
ì§Ģ ìĤ¬
Ġìķŀ ëĳĲê³ł
ĠìłĦ íĺĢ
ĠT e
Ġì¤ĳ ë°ĺ
Ġíķľëĭ¤ ëĬĶ
Ġê°Ģë¦¬ íĤ¤ëĬĶ
Ġíĺķíĥľ ìĿĺ
Ġ195 4
ìĿ¸ íĦ°
íħĲ ì¸ł
Ġìº Ħ
Ġê³¨ ëĵł
Ġì§§ ìĿĢ
Ġíķ´ ë°©
Ġê³¼ ìłķìĿĦ
ĠêµĲ ì°¨ë¡ľ
ĠëıĦìĭľ ë¡ľ
it ion
íģ¬ ëĬĶ
y st
197 4
ĠìĹĲ íĶ¼ìĨĮëĵľ
ĠíĥĢìĿ´ ê±°
ic k
ì¡° ê°Ģ
ë ¤¼
íķ´ ì§Ħ
ĠìĿ´ ìĦ±
Ġìĺ ·
ìĭľ íĹĺ
Ġìłķ ì°¨
íĬ Ģ
Ġì¹´ ëĵľ
Ġê³ł ìĨį
Ġë³´ ìķĪ
l and
. ,
ĠëĮĢ ë¦½
Ġê¶Į íķľ
Ġë ®
ëł¤ ëĬĶ
ëĬ ¬
ìļ° ì£¼ìĹ°
¥ ¬
íĨł ëĭĪ
íķĺê³ł ìŀĲ
ĠìĿĺíķ´ ìĦľ
ìĭ¬ ìĿ´
ĠëıĻìĿ¼ íķľ
Ġê³Ħ ê¸ī
197 7
Ġìľłíĺķ ë¬¸íĻĶìŀ¬
ĠìĿĮ ìĭĿ
íĥĢ ë¥´
Ġ195 6
Ġë§Ĳ ìĿ´ëĭ¤
ĠìĿ¼ ìłķ
ê¹Įì§Ģ ëĬĶ
ĠìĨĮ ìĪĺ
ĠìĤ¬ëŀĮ ëĵ¤
ì° į
Ġë¶Ģ íĻľ
ĠìĿĮ ëł¥
ë¬¸ ìĿ´
Ġë¿ Į
ĠìĹ ł
Ġìľ µ
Ġìĥģ íĴĪ
ë¦¬ ìĸ¸
Ġë°ĺ ë³µ
ë¦Ń ìĬ¤
Ġ195 8
Ġ i
ĠìĹĨ ê³ł
éŁ ĵ
íŀ Ĳ
ìĬ¤ ìľĦ
ĠìĿ´ëģ ĦëĬĶ
B N
ì¹´ ëĵľ
ĠíĴ ĭ
ĠL ove
r ap
Ġë£¨ ìĿ´
ìĿ´ìĹĪ ê³ł
ĠìĿĺ ìĥģ
ĠF A
ì£¼ ë¯¼
Ġëį ®
íĭ° ìĬ¤íĬ¸
ĠìĥĿ ëªħ
ìĦľ ìĹĲ
Ġê³ł ìľł
ê³µ íķĻ
ĠM us
ê ¶
ìłģ ìĿ´ëĭ¤
ĠìĬ¤ì½Ķ íĭĢëŀľëĵľ
Ġ194 4
Ġë¶ īìĿĢ
O M
ĠíĮĮ ìĽĮ
Ġíķľëĭ¤ ê³ł
è Ļ
Ġê±´ êµŃ
Ġíĸīìłķ êµ¬ìĹŃ
r am
ìĹĪ ì§Ģë§Į
ë°ĺ ëıĦ
è ©
ëĦ ĺ
Ġëĭ¹ ìĭľìĿĺ
íĺķ ìĿĢ
Ġíķ© ê²©
ê¼ ¬
è ī
ë¶ Ļ
Ġë³´ ì¡°
Ġíĸī ìĦ±
ĠíĿ ĺ
íķĺëł¤ ê³ł
ol d
8 4
ìĪĺ ìĻĢ
ĠëĤ¨ ëıĻ
ç ©
Ġíķ´ ìĸĳ
íķľ ìĿĺ
Ġê³ł ìĨįëıĦë¡ľ
Ġë¯¸ìĤ¬ ìĿ¼
ĠìĭľëĮĢ ìĹĲ
íĥĢ ë¥¼
ĠíĽĦ ìĨĲ
ìĹĪ ëĬĶëį°
ĠíĽ ¨
Ġê°ľë´ī íķľ
ëĤ¬ ìľ¼ë©°
ĠìĥĿ ì¡´
Ġì§ĢìĹŃ ìĿĢ
Ġ3 4
Ġ193 0
ëĤ ¼
ç Ł³
Ġë³´ ëĬĶ
ìĶ¨ ëĬĶ
íģ´ ë¦¬
F M
ì° Į
ìĨĮ ìĹĲìĦľ
íķ¨ ìĹĲ
ĠíĮĢ ìĿĢ
ë¡ł ê°Ģ
ãĤ ¹
ìº ł
Ġìļ´ ìłĦ
ìĿ¼ ìłľ
ĠìĦ¸ ìļ´
ìķĪ ìĿĺ
ĠìĤ´ ê³ł
a x
ëĿ¼ ê°Ģ
ìĹĲ ë§Į
Ġë°ľìĥĿ íķľ
Ġì° į
ĠíĶĮëłĪìĿ´ ìĺ¤íĶĦ
ĠìĽĲ ìłķ
Ġë²¨ ê¸°ìĹĲ
åĴ Į
Ġê¸°ë°ĺ ìľ¼ë¡ľ
å ²
Ġë¶ģ ìĦľ
æ° ¸
ê·¸ ë¦¬
ĠëĤ´ìļ© ìĿĦ
8 2
ëĭ¹ ìĭľ
ĠêµŃ ê²½
ĠíĶĮ ëĿ¼
Ġì°¨ì§Ģ íĸĪëĭ¤
r u
Ġt vN
Ġê°ĸ ì¶ĺ
Ġì£¼ êµĲ
ĠíĽ¨ ìĶ¬
Ġë¡ľ ë§¨
ìłĲ ìĿĢ
Ġ195 9
ìĭľ íĤ¬
ĠìĻĦ ë£Į
Ġìļ° ìĦł
Ġëį°ìĿ´ ë¹Ħëĵľ
ëĪĦ ìĬ¤
ê±´ ìĦ¤
9 1
ĠìĿ¸ ê¸°ë¥¼
Ġíķ© ìĿĺ
è ı
ëıĻ ìĿ´
Ġê³µ ë¶Ģ
ë¬´ ë¶Ģ
ĠìĿ´ê²ĥ ìĿ´
ĠëĤĺ ìĻĢ
Ġìļ´ ìļ©
ĠìķĦ ìĺ¤
ĠìķĦ ë¯¸
é¾ į
ìĽĲ ê³¼
Ġ195 2
ĠìĪĺ ìĤ¬
ì¶© ì²Ń
Ġëıħë¦½ ìļ´ëıĻ
ë¬´ ëĦ¤
ar l
196 9
Ġê°ĢëĬ¥ ìĦ±ìĿ´
Ġ19 20
Ġê°ĸ ì¶Ķ
ìĬ¤ ëŁ¬ìļ´
ë£¬ ëĭ¤
ç¸ £
Ġê·¸ íķ´
y s
Ġê°ľìµľ ëĲľ
8 3
Ġë¬¸ ìĭł
ê³µ ë¦½
ê²½ ìĺģ
â Ĺ
Ġëª¨ íĹĺ
ĠM C
E D
ì¶ľ íĮĲ
íĺĦ ëĮĢ
Ġëľ» íķľëĭ¤
ĠìĤ¬ìĭ¤ ìĥģ
ìŀĲ ëĵ¤
ĠíĸĪ ì§Ģë§Į
Ġì ³
Ġë¶ĢìĤ° ê´ĳìĹŃìĭľ
Ġìŀīê¸Ģëŀľëĵľ ìĿĺ
ĠìĤ¬ íĽĦ
å ĥ
ĠëĤĺëī ĺ
Ġìķ½ ìĨį
íĬ¹ë³Ħ ìŀĲì¹ĺ
Ġê°ľ êµŃ
ĠìĹĲ ëıĦ
çĦ ¡
íĬ¸ ìĻĢ
ìķĺ ëįĺ
ĠíĥĢìĿ´ ìĻĦ
ĠìĹĦ ë§Ī
Ġë¯¸ ëĭĪ
ĠìĿ´ ì¤ĳ
a i
a u
ĠëĤ´ ìĹĲ
Ġë¹ĦêµĲ ìłģ
ãĤ ¤
ĠëĤĺ ìĦľ
A S
ĠëĿ ł
é ĺ
ĠíĶ¼ íĦ°
ëįĶ ëĿ¼ëıĦ
ĠP C
ĠìľĦ ë°ĺ
Ġê°ľ ê´Ģ
ĠìĻ¸ ìĹĲ
ìĬ¤ ëŁ½
ĠìľĦìĽĲ ìŀ¥
ê¶Į ìĹĲ
Ġìĥ ĺ
ĠìĹ° ìŀ¬
ë²ķ ìĿĺ
ë²Ī íĺ¸
ĠíĻĶ ë¬¼
ĠR e
Ġíı¬ì§Ģìħĺ ìĿĢ
ìĹĪ ìľ¼ëĤĺ
Ġì²´ ìľ¡
Ġì§ĳ íĸī
ĠìĬ¤ íĨł
ĠA FC
ë§Ī ë£¨
ìķĦ ìĦľ
ìĨ¡ ëĿ¼ìĿ´íĦ°
ìħ ī
197 1
íĻĶ ë¡ľ
ĠìĤ Ń
Ġë²ł ë¥¼ë¦°
ëħ ģ
ìĭľ íĤ¨ëĭ¤
íĨµ ê³Ħ
ĠìķĪ ëĤ´
ë¥ ¨
ìļ° ìĿĺ
ì ©
ê²łëĭ¤ ê³ł
ĠëĲĺ ì§Ģ
Ġë¹Ħ ëĤľ
ĠìĹ¬ê°Ŀ ì²łëıĦ
Ġë¶ģ ëıĻ
êµ¬ ìĻĢ
Ġìłķ ëıĦìĿĺ
ìŀĳ ê³¡
Ġìĸĳ ìĦ±
ĠìĿ´ ìłķ
ĠO ST
ĠíĮĮ ëĿ¼
Ġì·¨ ëĵĿ
ĠìĿĢ íķĺ
i um
íĶ¼ ìĬ¤
ëĦ ¨
Ġìłģ ìĿĢ
ìĤ° ìĿĢ
Ġê°Ī ëĵ±
å ĵ
ĠëĮĢ íķŃ
Ġë¡ľ ëĵľ
Ġíģ´ëŀĺ ìĭĿ
ĠìĽ¨ ìĬ¤íĬ¸
Ġë½ ĳ
í Ľ
ĠìĹ´ ëĮĢ
Ġìłķ ë³µ
ĠìłĢ ì§Ģ
Ġìĭ±ìĸ´ ìĨ¡ëĿ¼ìĿ´íĦ°
ê² Ķ
ĠìĺĪ ìĥģ
Ġë§¡ ê³ł
ĠìŀĦëªħ ëĲĺìĹĪëĭ¤
ì²ĺ ëĵľ
ĠìŀĪìĹĪ ìľ¼ë©°
Ġë³´ ê¸ī
Ġìĺ¤ íĶĦ
ìĤ¬ ëŀĮ
ĠìķĦ ë²Ħ
Ġë¦¬ ëįĶ
Ġ195 3
ãĥ¼ ãĥ
Ġíķµ ìĭ¬
ëĮĢ ì¤ĳ
Ġìĭł ìĦ±
ìĤ° ë©´
ĠëĲ Ĳëĭ¤
å° ¹
ĠíĶĦë¦¬ ë¯¸ìĸ´
ëłĪ ìĺ¤
Ġìĭ¬ ê°ģ
ĠíĿ¡ ìĪĺ
Ġsc ope
Ã £
Ġìĺ¤ íŀĪ
íħ ĶëłĪë¹ĦìłĦ
Ġ194 7
Ġë¦ ´
Ġìĭľê°Ħ ìĿ´
ëĭĺ ìĿĺ
Ġë³¸ ê²©
er t
Ġëħ¼ ìŁģ
ĠìĪ Ń
ëħ ¹
ëĦĪ ìĬ¤
Ġêµ¬ ì²´
ĠL e
è Ĭ
ĠíĿ¬ ë§Ŀ
ì¤ĳ íĻĶ
æ ģ
é ¡
ĠB e
ë¬¸ ìĿĺ
ĠìĦ¸ ìĽłëĭ¤
ìĬ¤íĬ¸ ëĿ¼
æľ Ī
ĠíĪ¬ ìŀħ
íĽĦ ì¿ł
ĠìĦ¤ì¹ĺ ëĲĺìĸ´
Ġëĭ Į
Ġë§Į íģ¼
ìŀĲ ëĵ¤ìĿĦ
íĽĪ ìŀ¥
Ġê³µ íĻĶêµŃìĿĺ
ĠëıĦ ìļĶ
ĠíĹ ¨ë¦¬
ĠìĹŃìĤ¬ ìĥģ
ìĽĲ êµ°
at t
ĠêµŃë¯¼ ìĿĺ
ĠìĹŃ ìĿĦ
8 7
ĠìĻ Ķ
ë®¤ ëĭĪ
ĠëķĮ ìĹĲ
ê³µ ìĭĿ
ìľ¼ë¡ľ ëıĦ
Ġíĥ Ŀ
Ġ3 7
ìĸĳ ìĿĺ
Ġê·Ģ êµŃ
row span
Ġë£ Į
Ġì±ĶíĶ¼ìĸ¸ìĬ¤ ë¦¬ê·¸
Ġf rom
Ġë¬´ ìĹĩ
ìķ¼ ìĭľ
Ġì¹´ ìĿ´
ì§Ħ ìĿĺ
ìļ° ê³ł
ub l
is m
c enter
ì¢ħ ìĿĢ
p r
Ġëħ¸ ìĺĪ
Ġê°Ģ ëĤĺ
ou s
éĥ ½
Ġê³µ ìĤ¬
ĠíĬ¸ ëŀľ
ä½ ¿
ĠìŀĪìĹĪ ìľ¼ëĤĺ
Ġìħ ĭ
ĠëıĦ ëĭ¬
Ġìłľ ì¶ľ
ĠìĦ¸ê³Ħ ìĹĲìĦľ
ë©Ķëĭ¬ ë¦¬ìĬ¤íĬ¸
8 1
Ġì į¨
at a
ëħĦ ê²½
194 5
ìĭł ìĿĢ
ber t
ìķ¨ ë²Ķ
ĠìļĶ ìĨĮ
ë§Ī ìĵ°
ĠíĨµ ìłľ
ĠëıĻ ìķĦ
Ġë°© ì¶ľ
ĠìĤ ½
è¡ Ĺ
ĠíĬ¹ ì§ĳ
ĠìĨĲ ìŀĲ
Ġì½Ķ íĮĮ
or n
ëĭĪìĭľ ë¦¬ì¦Ī
ì² ¼
ĠìĽĲ ëħĦ
Ġê²½ ìľł
ë§Į íģ¼
ĠìĬ¹ ìĿ¸
Ġì²ł íķĻ
ìłĦ ìľ¼ë¡ľ
ëĦ Į
ìĹĨ ëĬĶ
ì°¨ ë¡Ģ
å¤ «
ĠìŀĲ ìĤ´
ìļ´ ìĺģ
ĠìŀĲ ëħĢ
ĠìĬ¤ íĤ¤
Ġê±° ëĮĢíķľ
ì² ¨
ë¶Ħ êµĲ
Ġì¶ľ ìŀħ
Ġê¸ī ìłľ
ĠìĨĮ ë°©
ìĬ¬ ë§ģ
ê°ľ íĺģ
ê³ ½
Ġê³ ½
íĹ¤ ìĿ´
íĬ¹ë³Ħ ìĭľìĿĺ
ìĹĲ íĬ¸
Ġ *
ĠìĤ¬ ìľł
ĠìķĦ ëĿ¼
Ġë³´ ê±´
ëĭ¹ ìĹĲ
Ġíķĺ ëĬĶëį°
éĸ Ģ
ĠìĿ¼ë³¸ ìĹĲìĦľ
ê¶Į ìĿĢ
at h
Ġíı¬ìľł ë¥ĺ
Ġ4 00
Ġê±° ìłĪ
ĠìłĪ ëĮĢ
Ġê°ķ ìłľ
ë¬¼ ë¡ľ
Ġì¶Ķìłķ ëĲľëĭ¤
ĠìļĶ íķľ
å¸ Ŀ
ĠìĤ¬ íĨł
in a
ĠìĿ¸ ê³µ
ĠìĿ´ì§ĳ íĬ¸
ì§Ģ ë©´ìĦľ
ĠíĥĪ ì¶ľ
Ġê¹Ģ ì¢ħ
ì£¼ ìĻĢ
197 5
P S
an ce
ìĬ¨ ìĿĢ
ë¦¬ ìķĪ
ë°Ķ ìĿ¼
Ġìłķë¶Ģ ê°Ģ
ĠF M
íĥĢ ìļ´
íķĺëĭ¤ ëĬĶ
ì¦Ŀ ìĿĦ
ĠM an
ë ĪĪ
ĠëĲĺ ë©´ìĦľ
Ġì¤ĳ ê³Ħ
Ġì§Ģ ëĭĮ
ì¹ĺ ìķĦ
ĠìĿ¼ì¢ħ ìĿ´ëĭ¤
íķĦ ëĵľ
ë³´ ë³ĳ
Ġê²°ê³¼ ë¥¼
g color
E T
ëĵľ ëłĪ
Ġ195 1
ëĤ Ń
ĠíĮĮ íĬ¸
ìĥī ìĿĦ
ìĿ¼ ìĿ´
Ġêµ¬ ë³Ħ
ìĬ¹ ìĿĦ
Ġë¦¬ê·¸ ìĿĺ
ĠB r
Ġê·¼ ëĮĢ
Ġê·¸ ìĹĲ
ĠìĿ´ìķ¼ ê¸°ë¥¼
ĠíĶĦ ë¦°
ĠìĬ¤íĥ ł
Ġë©¸ ë§Ŀ
ĠìķĮ ê²Į
Ġ195 7
n et
ĠìĪĺ íĽĪ
ĠíĶĦë¡ľ ìĦ¸
íĪ¬ ìĬ¤
ĠíĪ¬ ìĸ´
ìº ĺë¦¬íı¬ëĭĪìķĦ
Ġìĺ¤ ëŀľ
Ð¾ Ð
ìĭľ ì²Ń
ìĪĺ ìĹĲ
ĠíĶĦë¡ľê·¸ëŀ¨ ìĿ´ëĭ¤
ĠíĸĪ ìľ¼ëĤĺ
o ol
ĠE d
ĠíħĮ ëŁ¬
ĠìĤ¬ ë²ķ
Ġê°ľ ìĦ¤
ĠìĺĪ ë¹Ħ
ĠëłĪ ìłĦ
ĠíĮ¨ ìħĺ
Ġì°½ ì¡°
ìĿĮ ìĹĲëıĦ
ê²Ģ ì°°
íĻĶ íķĻ
ĠìĿ´ ìĿµ
am p
Ġë¹ Ļ
Ġëĵľ ëĿ¼ìĿ´
ìĿ´ ìĥģ
Ġìŀ¥ ëĤ¨
Ġì¶Ķ ì¸¡
ĠìĦ± ìĨĮìĪĺìŀĲ
ê°ľ ìĿ¸
Ġìķ½ ê°Ħ
Ġì§ĢëıĦ ìŀĲ
ë³´ ìĿ´
ĠíĿĶ íŀĪ
olog y
Ġìķŀ ìĦľ
ĠêµĲ ìĤ¬
íĨµ íķ©
ë¦¬ì§Ģ ëĦĲ
è ĪĪ
ìĪł ìĿĦ
Ġê¸Ģë¡ľ ë²Į
ë¦´ ëŁ¬
Ġíĸī ë³µ
Ġìĭľ ìĤ¬
ì¸ł íĤ¤
Ġê³µ íĻĶ
ĠE x
ĠëĲ ¨
ĠìĻĢ ìĿ´
ë° ¤
ìĿĮ ìĿ´
Ġëĭ¤ íģĲ
Ġê·¸ê²ĥ ìĿĦ
Ġì¸ µ
ĠT r
ĠêµŃê°Ģ ìĿĺ
ĠëıĦ ì¤ĳ
é º
Ġê²½ ì£¼
Ġìĸ´ ëłµ
Ġì§Ī ë³ĳ
ëĮĢ ëĮĢ
Ġìĸ» ìĹĪëĭ¤
ë©´ ìľ¼ë¡ľ
Ġíķ´ ìĦ¤
ìĿ´ ìļ©
ĠíĻķ ìĭ¤
Ġë§Ī ì¼Ģ
ou t
ou nd
ëī´ ìĬ¤
Ġìĭľê°Ħ ìĿĦ
ë°Ľ ê³ł
ì¹´ ìĿĺ
ë¡Ģ ëĮĢíĳľ
ìĹĲê²Į ìĦľ
ë³´ ëĬĶ
ĠìĤ¬ë§Ŀ íĸĪëĭ¤
âĪ ¼
Ġìľłëªħ íķĺëĭ¤
íķ´ ëıĦ
ìłģ ìĿĺ
Ġì¶ľ ë§Ī
195 0
Ġì£¼ ìĸ´
Ġìº Ķ
ìŀĳ ê°Ģ
ç ı
ĠìłĦ ê³µ
im e
Ġíķ´ëĭ¹ íķĺëĬĶ
ĠíĮĢ ìĿ´
ĠìľłíĬľ ë¸Į
Ġê·¸ ëłĪ
ìĹ¬ ìĦľ
Ġíı¬íķ¨ ëĲĺìĸ´
Ġê³ł ë¬¸
ĠìĥĿ ê²¨
Ġì½Ķ ë¡ľëĤĺ
ë¶Ħ ìĿ´
ìħ Ģë¡ľ
A D
ĠìľĦì¹ĺ íķľëĭ¤
O V
Ġìĥģëĭ¹ íŀĪ
Ġê ±
ab le
Ġë°° ìĹŃ
ĠíĸĪ ê³ł
Ġíı¬ ê¸°
Ġëĭ¨ íİ¸
ìĬ¤íİĺ ìĿ¸ìĿĺ
ìľł ìĤ°
ì¿ł ìĬ¤
ĠëĮĢ ê³µ
Ġë¡ľ ë´ĩ
Ġ0 3
êµ¬ ìĦ±
Ġëªħ ëªħ
Ġìŀ¡ ì§Ģ
ĠëĦĵ ìĿĢ
. âĢĿ
ĠëıĦ ë§Ŀ
ĠëĬ¥ ëł¥ìĿĦ
ìĭľ ë¦¬ì¦Ī
Ġìłľ ìĸ´
Ġ194 3
Ġìĺ¤íŀĪ ëł¤
ìħ Ī
ä¸ ĭ
Ġì¼ Ī
ĠëıĻ ìĿĺ
ĠìĤ¬ìļ© íķĺê³ł
Ġë³ĳ ìĤ¬
ĠíĹ¤ ë¥´
Ġì «ĵ
Ġë¶Ģ ìĥģ
ê°Ģ ë¯¸
ĠE P
ĠìŀĲìĿ´ìĸ¸ ì¸ł
íĻĶ ìĻĢ
ê°Ħ ìĹĲ
ĠëłĪ ìĺ¤
Ġë§Īëĵľë¦¬ ëĵľ
ĠìĦľ ë²Ħ
Ġì½Ķ ì¹ĺ
ĠíħĮ ìĿ´
r on
ìĬ¬ ëŁ¬
ĠìĿ´ìļ© íķľ
Ġë²łìĿ´ìĬ¤ ë³¼
Ġê¼ Ń
Ġê±´ ë¦½
æ² ³
Ġíķľ ë²Ī
ĠìĤ¬ ë¦½
æľ ĥ
re e
ĠëıĦ ì¿ł
ĠíħĮ ë§Ī
ĠìĪĺ ì§ĳ
196 4
ĠìĿ´ìļ© íķ´
Ġë² ¡
Ġìĺ¤ëŀĺ ëĲľ
ĠìļĶ ìĥĪ
ĠíĬ¹ë³Ħ íķľ
ĠìłĲ ìĹĲìĦľ
ĠëıĻ ìŀĳ
ë¡ľ ìļ°
o le
ëĵľ ìĭľ
Ġ193 8
ì¼ĵ ëª¬
ĠíĻ© ê¸Ī
ĠëĤ¨ ìĦľ
Ġì°½ ìĽĲ
Ġìķ¼ ìĬ¤
ĠìĬ¤ ë§ĪíĬ¸
ĠìĦ¸ ìĿ¸íĬ¸
Ġíĥľìĸ´ ëĤĺ
ìłĦ ê¸°
Ġì°¨ ìĿ´ê°Ģ
is c
êµŃ ìĹĲ
Ġë³´ ë¬¼
ê°ķìłĲ ê¸°ìĿĺ
Ġê°Ģ ìĻĢ
ë²ķ ìĿĢ
Ġíķ© ìĦ±
Ġíİĺ ìĿ´ì§Ģ
Ġêµ¬ ìĨį
íĸ Ħ
ìĦ¸ ë¡ľ
ìļ°ì£¼ìĹ° ìĥģ
Ġì§ĢìĽĲ ìĿĦ
Ġê°Ģ ìĿĦ
ĠìŀĪìĹĪ ëĬĶëį°
ìĶ¨ ìĿĺ
ìļ° ì¹ĺ
ìĬ¤ íĶ¼
ìķĪ ìĹĲ
íĬ¹ë³Ħ ì¶ľìĹ°
ĠíķŃ ë³µ
ë¦¬ ì½Ķ
Ġê³Ħíļį ìĿĦ
Ġìĺ¤ ì¹´
ì°¸ ì¡°
Ġê²ĥ ì²ĺëŁ¼
Ġë£¨ ìĿ´ìĬ¤
ĠìĻ¼ ìª½
ĠìĿ¸ ìĥĿ
Ġë¶Ģ íķĺ
ĠìĿĳ ìļ©
ë³´ ê³ł
196 7
ì¶ °
Ġíķ´ ìĤ°
ĠëĮĢ ë¹Ħ
íĶĦ ëĿ¼
M S
ìĭĿ ìľ¼ë¡ľ
Ġê¸Ī ìĨį
Ġë°ĺ ìĺģ
Ġê²½ê¸° ìĹĲ
ëł¹ ìĿĦ
ìķĪ êµ°
ë© ķìĭľì½Ķ
ĠìľłëĭĪ ë²Ħ
Ġê²½ ìĦ±
196 5
é Ń
ê·¸ ìĿĺ
ëĭ¹ íĸĪëĭ¤
ĠìĭĿë¯¼ ì§Ģ
Ġë³´ ìĺĢëĭ¤
er v
ë¥´ ëħ¸
am e
ĠëĤĺë Ī
ì£¼ ìĭľìĿĺ
ĠìĤ¬ê±´ ìĿĦ
åı ¸
çļ ĩ
ĠëĲĺ ë©´
Ġë§Ĳ ëłĪìĿ´
ĠíķĻ ìĪł
ìĺ Į
ĠëĮĢ ìŀ¥
Ġê±° ëŀĺ
ĠM y
ĠìĿ´ ìłľ
ëªħ ê³¼
ĠìĥĿ ê¸´
ĠìĬ¤íİĺ ìĿ¸ìĿĺ
ì§Ģ ìłķ
ì¦Ī ëĭĪ
ìĸ¸ ìĿĦ
ĠíĶĮ ëŀĺ
Ġë¸Į ë£¨
íĭ° ìĬ¤
ëĤ¨ ìŀĲ
ìĨĮ ìĨ¡
ĠíĢ ¸
ë© į
Ġë²Īì§¸ ë¡ľ
Ġë ·
Ġíķĺ ë©´
íĻĶ íķľ
ĠíĽĦ ê¸°
ĠìĿ´ íķĺ
íĨł ìĿĺ
Ġíķ´ ìĦľ
ì§Ģ ë©°
ìĿ¸ ëĵ¤ìĿĺ
ê² ł
Ġê¸° êµ¬
Ġëĭ¨ ëıħ
íģ¬ ìĬ¤
Ġë¨¸ ë¬¼
ë£Į ë¥¼
Ġë°ľê²¬ ëĲľëĭ¤
Ġë³Ģê²½ ëĲĺìĹĪëĭ¤
ê±° ìļ´
ìĬ¤íħĮ ìĿ´ìħĺ
æĶ ¿
Ġì§Ģ ëĤ¸
ìĦł ìľ¼ë¡ľ
Ġì¶ľ ê°Ħ
ĠíķĻ ìĬµ
ëħĦ ìĹĲìĦľ
Ġëľ» ìĿĦ
o x
ì¼ °ëĭ¤
Ġê³¨ ëĵľ
Ġìĺģ ìĽħ
íħ ľ
ë¬ µ
ì¹´ ë¯¸
íĪ¬ ëĭĪë²ĦìĬ¤
Ġíı¬ íķŃ
Ġë Į
ìĦľ ê°Ģ
ĠíĶĦë¡ľ ê·¸ëŀĺ
æ ¸
i i
Ġì§ģ ìĹħ
ĠìĦł êµĲ
ê³ł ìĿĺ
ĠìĦłê±° ìĹĲìĦľ
ie w
ë° ¥
ĠìĿ´ ë¥´ëĬĶ
ĠëıĻ ëĤ¨
ĠV ol
Ġíļ ¡
H z
ìĿ¼ ë¦¬
Ġì§Ģ ê¸ī
ì²´ ìĬ¤íĦ°
ìĤ° ìĿ´
Ġì°¸ê°Ģ íķľ
ĠìĽĶ íĻĶ
R E
ĠS e
ç Ł
ĠíĥĢ ìŀĦ
ĠìłĲ ìĿĦ
Ġì¡° ìŀĳ
Ġê°ķ ìĿĺ
ĠO r
s c
ìĪĺ ìĽĲ
Ġì§Ħ ìŀħ
Ġ x
Ġê³µ ìĽĲ
ë°Ķ ë¡ľ
Ġë¬´ ëį¤
íķĻ ìĽĲ
æī Ģ
Ġìĭł ì²Ń
ĠëĮĢíĳľ íĮĢ
ëıĦ ìĹĲìĦľ
ĠPr ess
íĬ¹ ì§ķ
ë°ķ ìĬ¤
ìľ¨ ìĿĦ
ä¹ ĭ
ëģ Ķ
196 3
ìĿ¸ ì¦Ŀ
å ¦
ĠëķĮ ë¶ĢíĦ°
ĠëłĪìłĦ ëĵľ
ë± Ģ
ĠìĬ¤ íĨłë¦¬
ë¯¸ëĶĶ ìĸ´
å° ı
ê°ķ ìĿĺ
Ġëĵ±ìŀ¥ íķľëĭ¤
íĴĪ ìĿĦ
ëŀĢëĵľ ìĿĺ
Ġíķ «
ĠìĨį íķľëĭ¤
ä¸ į
ĠìĿ´ëģĮ ê³ł
Ġë©Ķ ìĿ¸
Ġë¸ĮëĿ¼ ìļ´
Ġë°Ķ ëĳĳ
ê¸° ìķķ
ëĭ¤ ë©´
ĠìĤ° ë§¥
æ ¯
ĠìłĦ íĽĦ
çĽ ¸
ĠíĶĦ ëŀŃ
Ġë¶Ī ë²ķ
Ġì¹ľ ìĿ¼
Ġìĸ´ ìĽĮëĵľ
ĠìĬ¤ ë¦´ëŁ¬
ìĬ¤íİĺ ìĿ¸
Ġë¹ł ìł¸
ëĭ¨ ê³Ħ
Ġë°©íĸ¥ ìľ¼ë¡ľ
ê°ľ ê°Ģ
ĠêµĲ íĻĺ
Ġê±´ ì¡°
ĠE n
Ã ¡
ĠìĿ´ìľł ëĬĶ
ë¥ Ń
íļĮ ê°Ģ
ĠìĿĺ ì¡´
ĠìłĢ ëħģ
Ġëĭ¤ ì¼Ģ
Ġê·ľ ì¹Ļ
Ġë¯¸ ì¹ĺ
ì§ Ŀ
Ġì¡° ì¢ħ
Ġì ¥Ĳ
ĠìĿ´íĽĦ ìĹĲëĬĶ
196 6
ì°¨ ìĽĲ
ìĺĢ ìľ¼ëĤĺ
Ã ¼
Ġê·¸ ìĹĲê²Į
íĶĦ ëŀĢ
ĠíĻĶ ê°Ģ
Ġëĵ± ê¸ī
ĠíĺĦ íĻ©
ĠK BO
Ġì²ľ ìĹ°
ĠìĪĺ ìĨ¡
Ġê¹ ĬìĿĢ
Ġì§Ģê¸Ī ìĿĺ
Ġìłķì¹ĺìĿ¸ ìĿ´ëĭ¤
ìŀ¥ ìķł
åı ²
ìĭľì¼ °
ë²ł íĬ¸ëĤ¨
Ġë³´ ìŀ¥
ĠìŀĲ ëĬĶ
Ġìĭł ìķĻ
Ġì½Ķ ë¦¬ìķĦ
ĠëĿ¼ìĿ´ ìĺ¨
ìļ° ìĹĲ
Ġë »
ìĸĳ êµ°
ìĩ ł
Ġì£¼ ê´Ģ
ìĦĿ ìĿ´
Ġíİĺ ìĿ´ìĬ¤
Ġëĳĺ ì§¸
ãģ ª
Ġì£¼ ê³ł
Ġp ro
ì£¼ ìĿ¸
ë¦¬ ìĭľ
íļĮ ëĬĶ
ĠíĽĦì¿ł ìĺ¤ì¹´
Ġë³ĳ ìĽĲ
ëĦ¤ ëįľëŀĢëĵľ
è ¼
ĠìĿĺ ë¬´
ì°¨ ê°Ģ
ĠëķĮ ìĿĺ
Ġëĭ¤ ìļ´
ĠíĽĦ ìĨį
Ġëľ» ìĿ´
Ġë¹ł ë¥¸
ìĺ¤ ìĿĺ
Ġì¡° ì¹´
ìĺģ ìĿĺ
ê°ģ íĺķ
Ġë¶Ģ ëĮĢ
ìķ µ
íķĻ ë¶Ģ
ì§Ģ ìŀĲ
ĠíĨµíķ´ ìĦľ
ĠìĹĨëĭ¤ ê³ł
ë²Ħ ëĵľ
Ġìķŀ ìĹĲ
ê ¶¤
Ġê²Ģ ì°°
ĠìľĦ ìĦ±
ëłĪ ëĤĺ
ĠíŀĪ ìĸ´ë¡ľ
Ġíķľ ëķĮ
ĠíĺĦìŀ¬ ê¹Įì§Ģ
ĠíĻľ ë°ľ
ìĸ´ ìł¸
ë¹ Ĺ
Ġë°©ë²ķ ìĿĦ
äº Ķ
ħ ìĬ¤
êµŃ ìľ¼ë¡ľ
ĠìłĢ ìĪł
ĠëĤ ¸
al e
ê°Ģ ìĹĲ
Ġë³¸ ê´ĢìĿĢ
ìĤ° íĻĶ
Ġb gcolor
Ġë¥ ¼
íĥĢ ìĿĺ
ĠìĬ¤ íĶĦ
Ġë³´ ëĥĪëĭ¤
Ġê²Į ìĬ¤íĬ¸
Ġì²ł íķĻìŀĲ
æ± Ł
ëª¨ ë¥¼
íĭĢ ëŁ¬
ì £ł
ëħĦ ìĿ´
Ġìŀĩ ëĬĶ
ìĿ´ ìĭľ
íŀĪ ëĬĶ
Ġë°Ľ ì§Ģ
it t
è¶ Ļ
Ġëĭ¬ ëĿ¼
ĠìķĮ íĮĮ
Ġê¸°ìĹħ ìĿ¸
K ë¦¬ê·¸
ĠëĿ¼ ìĿ´íĬ¸
Ġë°ľíĳľ íķľ
ìĹ°êµ¬ ìĽĲ
Ġë§Ī ì¸ł
ĠìĹĦ ì²Ń
ĠìĿ´ ê¸°
Ġ4 8
ìĿ´ìĹĪ ìľ¼ë©°
ic t
ĠíĻĶ ìĿ´íĬ¸
Ġ al
y p
Ġë§Ī ì¹¨
ation s
Ġìĭł íĺ¸
Ġìĺ¬ ìĬ¤íĥĢ
A L
) âĢĻ
Ġëĵľ ëŀĺê³¤
ĠìŀĳíĴĪ ìĿĦ
ë©´ ìĿĢ
ĠìĻ¸ ë¶Ģ
ĠëĮĢ ìĦ±
ãĢ Ĥ
C C
Ġìŀ¥ êµĲ
Ġë³Ģ íĻĺ
ĠìľĦíķ´ ìĦľëĬĶ
Ġëıħ ìŀĲ
ĠìłĦ ì§ģ
ìĹ¬ ìĦ±
ì¡° ìĹĲ
Ġê¸°ìĪł ìĿĦ
O L
ìĦ¸ ìĻĢ
íĮĲ ìĿĦ
V P
Ñ Ĥ
íķĺ ìľĦ
Ġíķ´ ë¦¬
Ġìĥģ ìĬ¹
ë ¿
Ġëªħ ëĭ¨
íģ °
ì§Ħ íĿ¥
Ġíĸ¥ ìĥģ
ĠìĬ¤íĭ° ë¸Ĳ
Ġ193 9
ê±° ëŀĺ
ĠìºĲëĤĺëĭ¤ ìĿĺ
ĠëĵĿ íĳľ
ĠíĦ° ëĦĲ
Ġê° Ķëĭ¤
æ¼ ¢
ĠíŀĪë¡ľ ìĭľë§Ī
ê¸° ìĦľ
Ġì¡° ìłĪ
ëŁ¼ ë¹ĦìķĦ
U S
Ġëį´ ë§Īíģ¬
Ġ194 2
Ġê¸¸ ìĿ´ëĬĶ
Ġë¸Į ë¦¬
ĠíķĺìĺĢ ê³ł
Ġëĭ ¥íĦ°
ìļ° ì£¼
ë¥ĺ ê°Ģ
Ġê³µ íĨµ
Ġë°° ì¶ľ
ëĲĺ ë©´
Ġê¸° ìĥģ
éĦ Ń
ĠìĨĮìĨį ìľ¼ë¡ľ
ĠìĦľë¹Ħ ìĬ¤ë¥¼
Ġìĭľì¦Į ìĿĦ
Ġìłķ ì§Ģ
ĠìľłìĤ¬ íķľ
ëĭ¤ìĿĮ ìĿĢ
T h
ë²Īì§¸ ë¡ľ
ìĨĮ ìĻĢ
Ġë³´ ìķĦ
ìĦ¸ íķľ
ë²ł ìĬ¤
Ġíĺ¼ ëŀĢ
íĺ¸ ì¿ł
æŀ Ĺ
Ġì£¼ ëĳĶ
Ġë²ķ ì¹Ļ
Ġì į
ë³´ íĺ¸
Ġìłķ ê¸°
ë¥´ ê¸°
O P
å Ĩ
ĠìĹ° ëĮĢ
ë®¤ ì§ģ
ĠëĦĺ ëĬĶ
Ġê°Ħ ëĭ¨
Ġ19 14
ĠìłĦìŁģ ìĿĦ
Ġë¶Ļ ìĹ¬
Ġë¬´ ê²Į
Ġê¸°ë¡Ŀ íķľ
çĻ ½
Ġì¶ľ ë²Ķ
ê¸° ìĹĲìĦľ
ìĿ¸ ì¡°
ĠíķĺëĤĺ ëĬĶ
Ġìŀ¥ ìķħ
Ġìŀ¬ ê°ľ
Ġìķ µ
ĠìĦ± ëĬ¥
Ġëĭ¤ë¥´ ëĭ¤
U N
ĠìķĪ ëıĻ
ëł¸ ê³ł
íĶĮ ë¡ľ
ê¸° ìĹĲëĬĶ
Ġë³µ íķ©
oc i
Ġìľ ¨
ê³¡ ë¦¬
ĠìĺĪ ì¸¡
ìĽĶ ëĵľ
Ġì§Ģ ëĭĪ
ê°ķ ìĽĲ
ê¸° ëıħêµĲ
Ġ5 5
ì¦Ī ì¹´
íĿ ĳ
Ġíģ Ĳ
ĠìĿ¼ ìĿ¼
ë¯¸ ê°Ģ
ĠìĭľëĤĺ ë¦¬ìĺ¤
ë¯¸ ë¥¼
ĠìĿ´ ë¥¸
ë¶Ģ ëĮĢ
ìĨĮ ëħĢ
ëĶĶ ìĬ¤
Ġìĥģ íķĺìĿ´
ĠìłĢ ìŀĳ
Ġê¸° ëĮĢ
ĠíĿ ī
íĶĦ ë¥¼
ãĥ ©
ĠëĤĺíĥĢ ëĤ´ëĬĶ
Ġìĭľ ìĹĲ
ë¿Ĳ ë§Į
ìĭľ ìĬ¤ì½Ķ
ë¡ł ìĿĺ
ĠíĽĦ ìĹĲëĬĶ
ĠíķľêµŃ ìĸ´
Ġìĸ» ìĸ´
X Ã£
Ġë© ĺ
Ġìŀ¥ ìĭĿ
Ġì§Ħ íĻĶ
â ĺ
Ġì§Ģë°© ìĿĺ
Ġì¤ĳ ìĿ¸
Ġì¤ĳ ìĿ´ëĭ¤
ĠìĦ¤ì¹ĺ ëĲĺìĹĪëįĺ
ĠI s
íļĮ ìĹĲ
Ġëªħ ìĿ´
Ġìĸĳ ìŀĲ
Ġê¹Ģ ëıĻ
Ġíĸī ìľĦ
ĠíĮĢ ìĿĦ
ìĺģ ìĥģ
ol l
Ġìĭľ ìĿĺ
Ġìłľê³µ íķľëĭ¤
ĠëĮĢ ìĪĺ
ìĦ± íĻĶ
ĠìķĦ íĭ°ìĬ¤íĬ¸
ĠìĹ¬ê°Ŀ ì²łëıĦìĿĺ
ë³´ ë¥¼
Ġì°¨ ìĿ´
ìĦ¸ ëĮĢíķĻêµĲ
Ġìĭł ë¢°
ĠíĿ¬ ìĥĿ
S P
Ġì°½ ëĭ¨
ê³ł ìĨį
om e
ëĭ¤ ë¦¬
Ġë°ĺ ëĵľìĭľ
Ġëħ¼ ìĿĺ
Ġì°° ìĬ¤
ĠìĿ´ìłĦ ìĿĺ
ë¬¸ ìłľ
ìķĦ ëĤĺ
Ġë¦¬ ì²ĺëĵľ
Ġê²° ë°©
Ġìŀ¬ ìľĦ
ì¡° íĮĲ
ĠJ TBC
ĠëĤĺ ê³ł
Ġë ĺ
Ġìĵ° ëĬĶ
ì½Ķ ìĬ¤
æľ ī
íķĺ ë£¨
ĠìĿ´ ì¢ħ
ĠíĸĪ ìľ¼ë©°
Ġë¹ł ë¥´ê²Į
K BO
Ġíķ ¸
Ġê³³ ìĹĲìĦľ
íĨ ¡
Ġê·¸ëŁ¬ íķľ
Ġíķľ ëĤĺëĿ¼
ëħĦ ëıĦ
ĠëĬĺ ìĸ´
Ĺ ëĤł
Ġìĺ¤ë¥¸ ìª½
t on
Ġì§Ģ íĤ¤
ĠìĹŃìŀĦ íĸĪëĭ¤
O C
ì² «
ĠíĮĲ íĥĢì§Ģ
ĠíĶĦ ëĿ¼
ĠëıĻ ìĦ±
ê³µ ìĤ°
ì´Ŀ ëıħ
Ġë¶Ħ ê¸°
íĺģ ëªħ
ĠD e
Ġê²½ìļ° ëĬĶ
ĠíļĮ ìłĦ
ê°Ģ ëĿ½
âĨ Ĵ
Ġì·¨ ìĨĮ
Ġëŀ Ģ
Ġê³µìĭĿ ìłģìľ¼ë¡ľ
å¿ ł
y l
Ġìķ¤ ëĵľ
ë§Į ìĿĢ
ìĨĮ ìĨį
ĠìĺĪ ìĤ°
ç¾ ħ
Ġv s
Ġë¯¸ ëĤĺë¯¸
ĠìĪĺìĥģ íĸĪëĭ¤
å³ ¶
Ġì½Ķ ëĦĪ
il d
ìłĦ íĪ¬
ë°Ģ ë¦¬
ĠìĿ¸ ê¶Į
ĠìłĦ íĮĮ
Ġê²½ê¸° ëĬĶ
íķ´ êµ°
Ġë³´ ë³ĳ
ìĦĿ ìĿĺ
Ġì¹´ ë©ĶëĿ¼
Ġì¡´ìŀ¬ íķĺëĬĶ
íĦ° ìĬ¤
Ġì°¸ ì¡°
ĠíĺĦ ìĹŃ
ow n
Ġë§Ī ì¹ĺ
Ġì¢ħë¥ĺ ìĿĺ
ëĵ¤ ìĸ´
ĠíĻĶ ìŀ¬
Ġë©Ķ ìĭľ
ĠìĬ¤ ì¹´
ìķ¼ ìĿĺ
Ġê¹Ģ íĥľ
Ġëĭ¨ ìľĦ
ê³µ ìĹ°
ê²½ ê¸°ìĹĲ
if e
ìłķ ìľ¼ë¡ľ
Ġì¢ ģ
Ġê ½
Ġë°Ľ ëĬĶëĭ¤
Ġì½ ¤
Ġì»¤ ë®¤ëĭĪ
ĠìĿ´ ìĪĺ
å¾ Į
Ġìĺģ ìŀħ
Ġë³´ ê´Ģ
ìĹŃ ìĿ´
íı¬ ë¡ľ
ë¯¸ ë¥´
ĠH ist
ĠëĬ ¦
ĠëĮĢ ë¦¬
Ġê°ķ ëĤ¨
ĠëłĪ ìĿ¸
Ġê³µê°ľ ëĲľ
Ġë°Ķ ëĿ¼
ìŀ¥ ê´Ģ
ì¦ Ĳ
Ġì´Ŀ ëıħ
íĬ¹ ìĪĺ
íĤ ´
æ ®
A l
ĠìĻķ êµŃìĿĺ
ĠíĦ° ë¯¸ëĦĲ
ãģ Ĺ
æĺ Į
ĠìĿ´ ëĭ¤
ëħ¸ ë¯¸ìķ¼
ãģ ¨
Ġê²½ ëĤ¨
Ġì±Ħ ìļ©
ì¦Ī ëĬĶ
Ġ3 9
Ġë¶Ī ìķĪ
Ġë¶Ģ ë¥´ëĬĶ
ìĹ°ìĨį ê·¹
Ġê±´ ëĭ´
I M
ĠK T
ì´Īëĵ±íķĻêµĲ ëĬĶ
Ġë¡ľ ì¼ĵ
íİĺ ìĿ´
Ġìĭľ ìĥģ
196 2
is e
Ġê°ľë°ľ íķľ
ĠíĴĭ ë³¼
ãĢī (
ĠëıĻ ìĽĲ
Ġì²ĺìĿĮ ìĹĲëĬĶ
Ġë³´ ëĤ¸
an s
å® ĺ
ĠíĶ¼íķ´ ë¥¼
ĠëĤĺ ìĿ´íĬ¸
Ġìŀ¡ ìķĦ
W E
Ġì¹´ ë¥´
è¡Ĺ éģĵ
ìĹĲìĦľ ë§Į
êµĲ ë¥¼
æĿ ¾
Ġê·¹ìŀ¥ íĮĲ
Ġ ch
ìĭł ê²½
ë²ł ë¦¬
ĠìĦ± ëĤ¨
Ġt h
ĠìĤ¬ê±´ ìĿ´
Ġì²ł ëıĦìĿĺ
ìķĦ ì¹´
Ġìĺ¤ íİĺëĿ¼
Ġë°© ìĤ¬
Ġê¹Ģ ìĿ¼
Ġì¡° ë³Ħ
ê²Ģì°° ì²Ń
Ġì£¼ ê°Ħ
Ġëī´ ì§Īëŀľëĵľ
ëĮĢ ë¬¸
íħĮ ìĿ´
ĠìĤ¬ íĥľ
ĠëĤ¨ ìĿĢ
ĠëĬĲ ëģ¼
ìģ ľ
ìĪ ¨
ĠëĤ´ ìĿĺ
ĠëıĦ ìłĦ
Ġì²ľ ìķĪ
Ġíĭ Ģ
ì² ¸
ĠëĪĦ êµ¬
ĠìĤ¬ ëĭ¨
Ġë§¤ ìĿ¼
Ġì£¼ íĥĿ
ìĤ° ëıĻ
ìĿ¸ ê°Ħ
ìĬĪ íį¼
Ġë° ¥
Ġìĵ ¸
Ġì´Īëĵ±íķĻêµĲ ìĿ´ëĭ¤
Ġì²´ ìłľ
Ġì¡° ëªħ
as h
ë°Ķ ëĭ¤
ìĤ¼ ê±°ë¦¬
êµ° ìľ¼ë¡ľ
ãĥ «
ĠëĤĺ ì¹ĺ
Ġê°Ī ëĿ¼
ëĶ ķ
Ġìłľ ëĮĢë¡ľ
ĠN HK
ìŀ İ
ë¥´íĤ¤ ìĺĪ
S L
Ġìĸ¸ ìłľ
ĠìĿ´ ì¦Ī
ë¦¬ ê²Į
Ġìĸ´ ëĶĶ
ĠìĿ´ ë¤Ħ
Ġëª©íĳľ ë¡ľ
Ġê³µ ì£¼
ì¡° ì§Ģ
ëħ¸ ë¥´
ë¦¬ê°Ģ ìĿĺ
194 8
ãģ Ł
ìłĦ ìĤ¬
ë¯¸ ëĬĶ
Ġìĺ¤ ìĺ¤
ĠëĨĴ ìķĦ
ĠìķĦìĤ¬ íŀĪ
ë¹Ħ ìĹĲ
Ġë°Ľ ìĿĦ
æĸ ¹
ĠëĤĺ ìĻĶëĭ¤
ĠìĺģíĻĶ ìłľ
ëĭĪ ìĬ¤íĥĦ
ãģ ĭ
ĠìĬ¤ ì¼Ģ
ĠíĹĿê°Ģ ë¦¬
i el
íĨµ ìĿĦ
ë¹ ħ
ĠëĬ¥ ëł¥
Ļ íķ©
ìķł ëĭĪ
Ġì¶ľìĭł ìľ¼ë¡ľ
Ġ4 2
ĠìķĦ ëĵ¤ìĿ´
Ġë§ĪìĿ´íģ¬ë¡ľ ìĨĮíĶĦíĬ¸
ĠìĤ¬ ìļ°
ë§Ī ëĭĪìķĦ
ê·¸ ë¦¬ìĬ¤
Ġë°ĺ ë°ľ
ĠëĳĲ ìĹĪëĭ¤
S C
on s
ĠìĦłìĪĺ ê°Ģ
íĬ¸ ë¦Ń
Ġì²łëıĦìĹŃ ìĿ´ëĭ¤
ë°ľ ìłĦ
Ġê³¼ íķĻìŀĲ
Ġë ´
ĠìķĬìķĺ ê³ł
K B
Ġë¬´ ëĮĢ
ĠìłľìĻ¸ íķĺê³ł
ìĹ¬ìŀĲ ê³łëĵ±íķĻêµĲ
ëģ Ħ
å ĩ
Ġëĭ¤ ë¦¬
ë²ķ ìĿ´
æ° ĳ
èģ ĸ
ç ¯
ĠìĿ¼ë¶Ģ ë¥¼
ĠìłĦìŁģ ìĿ´
ĠìķĦë¥´íĹ¨íĭ° ëĤĺ
Ġìłľ ìĿ¼
Ġëħ¼ ë¬¸
Ġë§ŀ ìĿ´
åĸ Ħ
ëłĪ ìĿĺ
Ġë¯¸ ìĬ¤íĦ°
Ġë¯¸ ëĭĪìĭľë¦¬ì¦Ī
ëĳ¥ ìĿ´
ĠìĪĺíĽĪ ìŀĲ
ëĵ Ń
ĠíĺĦ ìĥģ
ì´Ŀ ë¦¬
Ġë°©ìĺģ ëĲľ
Ġìĸ´ëĸ ł
Ġíı¬íķ¨ íķľëĭ¤
ĠìĿ¸ì²ľ ê´ĳìĹŃìĭľ
ĠíĶĦ ëĿ¼ìĿ´
Ġëľ» íķĺëĬĶ
ĠíĸĪ ëįĺ
é ¤
æħ ¶
ĠëįĶ ë¸Ķ
ĠìĿ´íĽĦ ë¡ľ
ĠìĬ¹ ê°Ŀ
ìĥģ íĥľ
ĠìĪĺ ëª©
ç ¿
Ġë°ľíĳľ íķĺìĺĢëĭ¤
ë©ĺ íĦ°ë¦¬
ë¬´ ë¦¬
Ġìĥģ ë¥Ļ
ç Ńī
ĠìĿ´ ìĺģ
ĠìĦł ë³´
íĪ¬ ìķĦ
ì½ §
ë°© ìĿĺ
ìłľ ë¥´
ìĥī ìĿĺ
Ġë¯¸ ëĤĺ
ì¢ħ ìĿĦ
a il
Ġë°ľê²¬ ëĲľ
ĠìķĬ ìľ¼ë©°
Ġê³Ħ ê¸°ë¡ľ
= #
ìĤ¬ ë§Ŀ
ĠìŀĳíĴĪ ìĿ´ëĭ¤
ĠëıĮìķĦ ê°Ģ
Ġì°¨ ë³Ħ
Ġì½ĺ ìĬ¤íĥĦ
Ġ1 20
ë°Ķ ìĿĺ
ĠĠĠĠĠĠĠĠ ĠĠĠĠĠĠĠĠ
ĠìĹ° ê´Ģ
ĠCom p
äº Į
ĠìĹ°ì£¼ ìŀĲ
Ġì§Ħ ë³´
Ġìļ° ëł¤
Ġë³´ ìĬ¤
ìľł ìĿĺ
ì£¼ìĿĺ ë¥¼
ìľ¼ ëĭĪ
ê¸Ī ìĿĺ
Ġë¹¼ ìķĹ
ĠíĻĶ ìĦ±
êµŃ ìŀ¥
ĠìĪĺ ìĦĿ
Ġê´Ģíķł íķľëĭ¤
ìľ¼ë¡ľìĦľ ìĿĺ
è ¾
ĠëĮĢ ëŀµ
ë³´ ê¸°
M C
ë¹Ħ íĸī
Ġì²Ń ëĤĺëĿ¼
Ġëĭ¤ ëĭ¤
ìĽĮ ì¦Ī
ì§Ģ ìĿ´ëĭ¤
ĠìĿ´ê²ĥ ìĿĦ
Ġì¶ľìĹ° íķĺìĺĢëĭ¤
Ġìĭ¬ ë¦¬
ĠìĿ´ íĺ¼
êµŃ ìĹĲìĦľ
íĺķ ìľ¼ë¡ľ
F F
ìĦł ê³¼
ë¹Ħ íĬ¸
ĠW h
ìº Ķ
êµ¬ ë¦¬
y n
an c
ìĹĲ ë¥¸
ĠìĿ´ ì¹ĺ
ak e
ìĻķ íĽĦ
ìĻĢ ìĿ´
é¦ ¬
å Ĥ
Ġê°Ģ ìĬ¤
Ġ6 4
ìĻķ ìĿ´
ĠíĶĦë¡ľê·¸ëŀ¨ ìĿĦ
ĠN o
m e
Ġíıīê°Ģ ë¥¼
íĥĢ ëĤĺ
ä½ ľ
Ġí Ī
Ġíģ¬ë¡ľ ìķĦ
ê² ¸
Ġê³µ ìĿĦ
ĠD VD
Ġê·¸ ìĻĢ
ĠìķĦë¦Ħ ëĭ¤ìļ´
ë¬¼ ìĿĢ
Ġì¹´ìļ´ íĭ°
æ ¢
le y
íĭ° ìĺ¤
ĠëĮĢ ê¸°
Ġìĭľìŀĳ ìľ¼ë¡ľ
ë£ °
íĸī ìĦ±
Ġìŀ ī
Ġë°Ľ ê²Į
ĠëĤĺìĺ¨ ëĭ¤
ç Ī
ĠëģĿ ëĤľ
Ġìĭľìŀĳ íķĺìĹ¬
j ect
ĠëıĻ íķ´
ĠìĨį ìĿĺ
è¨ ĺ
Ġì¡°ìĦł ìĿĺ
ì ¯
tern ational
Ġì¶Ķ ì²ľ
Ġ15 0
ìĦľ ìĸĳ
ĠìĿ´ ì§Ģ
ĠíĬ¸ ìľĦ
Ġíı¬ ìľĦ
Ġ19 19
Ġì§Ħ ìķķ
ë£Į ë¡ľ
ĠìĨĮìĦ¤ ê°Ģ
ĠìĨį íķľ
ìĿ¼ ìĬ¤
Ġê°Ģ ìĦľ
ê±´ ìĿĦ
Ġìŀ¥ ìĨĮ
ĠìĤ¬ìļ© ëĲĺê³ł
Ġë§Ī íĭ´
ìŀĲ ìĹ°
Ġíļ¨ ìľ¨
Ġì¤ĳ ë¶Ģ
ĠëĤĺíĥĢ ëĤľëĭ¤
Ġìĺ¤ ë¦¬ì§ĢëĦĲ
ìĹ° íŀĪ
Ġëĵ± íĮĲ
ĠìĨĮë¹Ħ ìĹĲíĬ¸
á º
Ġì¶ ¤
Ġê²ĥ ìĿ´ë©°
Ġê°ĸ ëĬĶ
ĠìĹ´ ëł¸ëĭ¤
ë ¼Ī
çĲ Ĩ
ìĬ¨ ìĿĺ
ê·¸ ëłĪ
ĠA d
Ġë¸Ķ ë¡ľê·¸
Ġê°Ģ ê²Į
ĠíĻľëıĻ íĸĪëĭ¤
íİĻ íĬ¸
íĻĶ ëĲĺìĸ´
Ġë§Īì§Ģë§ī ìľ¼ë¡ľ
Ġë² ¼
Ġëľ» ìľ¼ë¡ľ
ot t
Ġì£¼ ìµľ
íİ¸ ìĦ±
åħ ¨
u k
ĠíĻĶ ìĤ°
ĠìĿ¼ ì¹ĺ
Ġê·¸ëŀĺ íĶ½
å¿ ĥ
ç ĩ
Ġëħ¼ëŀĢ ìĿ´
ë°© íĸ¥
íĭ° ëħ¸
Ġíı¬íķ¨ íķĺìĹ¬
ëĵ± ê¸ī
ĠO n
ĠíĻĭ ì¹´ìĿ´ëıĦ
ìĺ¨ ìĿĺ
Ġíı¬ ëıĦ
ìĬ¤íĭ° ë²Į
Ġì§Ģ ì¼ľ
ìĪĺ íķľ
æ ¿
ë¶ĢíĦ° ëĬĶ
ĠìĽ ħ
ĠìĪĺ íķĻìŀĲ
en c
ëĿ¼ìĿ´ ëįĶ
ì§Ħ ìĿ´
ĠìĬ¤ íĬ¸ë¦¬
ĠìĥĿ ìķł
Ġíķ´ ìĹĲ
ëĲĺìĹĪ ìĿĦ
Ġì²´ ì½Ķ
ê¸° êµ¬
ĠìĿ¼ ìĭľ
ëłĪìĿ´ íģ¬
ì§Ģ ìĿ¸
Ġìŀ¥ ë¹Ħ
ìĿ´ ë¯Ģë¡ľ
ê³¡ ìĿĦ
en n
ç¶ ĵ
Ġíķ ĳ
Ġê°ľ ë§ī
ìĸ´ ë²Ħ
ëŁŃ ìĭľ
íĨł ë¯¸
Ġìĵ° ê³ł
ëĶĶ ìĽĢ
ĠìĿ¼ë¶Ģ ëĬĶ
ê°ľ ë¡ľ
Ġíĸ¥ íķ´
ëŁ ¿
íģ´ ë¦°
Ġëıħ íĬ¹
ìĿ´ ëĭĿ
Ġíı¬ íĬ¸
Ġë°ĺ ëıĦ
ĠìĿ¸ëıĦ ëĦ¤ìĭľìķĦ
ë§Ī íģ¬ìĿĺ
ë°Ķ ìĭľ
Ġê¸°ë¡Ŀ íķĺìĺĢëĭ¤
ĠëĮĢíĨµëł¹ ìĿ´
ìĹ¬ ê°Ŀ
å® ļ
Ġìłķ ë¹Ħ
Ġê°Ģ ì¹ĺ
ĠìĿĺ ìĭĿ
ĠìŀĦ ì§Ħ
ìĪĺ ëıĦ
Ġ193 6
Ġëĭ¤ìĿ´ ë¬ĺ
ìĻľ ëŀĢ
Ð ¹
Ġíģ¬ ë£¨
Ġê³µ ìĹħ
Ġêµ¬ íĺĦ
Ġ? )
Ġë¹Ħ ìĥģ
ĠìĦ¸ê³Ħ ìĿĺ
ĠíķĻ ë¬¸
ì»¤ ìĬ¤
ĠìŀħíķĻ ìĭĿ
ĳ ¤
Ġì§Ģ ìĸ´
Ġìĭł íĻĶ
ìĬ¤ ìĽ¨ëį´
êµ° ìĤ¬
196 1
ĠD NA
ĠëĮĦ ìĬ¤
ĠìĿ¸ ì¢ħ
ìłĪ íķľ
Ġìį¼ ëĭ¤
ê¸° ê¹Įì§Ģ
íĥ ±
Ġê°ģê°ģ ìĿĺ
íİĺ ìĿ´ìĬ¤
Ġë°Ģ ëıĦëĬĶ
íĨ °
ê³µ ëıĻ
ê·¸ ë¦¬ê³ł
ë°© ìĿĦ
od e
ë³´ íĹĺ
Ġíİĺ ìĿ´
ĠS F
Ġë¡ľìĬ¤ ìķ¤ìł¤ëłĪìĬ¤
Ġê°Ĳ ìĤ¬
ĠâĢ »
ëĵľë¡ľ ìĿ´ëĵľ
ĠìĽ ĥ
Ġìŀ İ
ĠìķĮëł¤ ì¡Įëĭ¤
ìĦ¼ íĬ¸
Ġc l
å¸ Ĥ
ĠìĬ¤ íĮĮ
ë¥´ ê°Ģ
êµŃê°Ģ ëĮĢíĳľ
íĻĶ ëĲĺìĹĪëĭ¤
Ġë¬ ¶
Ġìľł ê¸°
Ġìĭ¤ ì§Ī
ĠìļĶì½Ķ íķĺë§Ī
O W
ĠìĿ´ ëĵ¤ìĿĺ
ê³ł ê°Ģ
êµŃ ëĮĢíķĻêµĲ
è ±
ëĭ¨ ì§Ģ
ĠS T
ĠìĿ´ ë²¤
Ġë¶Ħ ëħ¸
ìĬ¤ ì»µ
ìŀ¬ ë¥¼
íļĮ ìĹĲìĦľ
ë¯¸ ëĤĺ
Ġê°ľ ì¡°
ĠìĦ¸ ëł¥
Ġë¬´ ìĭľ
ìłķ ë¦¬
ĠëıĻ ìĿ¼ë³¸
Ġê³ł ìĭľ
Ġêº ¾
Ġë§Ī ìĬ¤íĦ°
ìĬ¤ì¼Ģ ìĿ´
ê¸° ëĬ¥
ĠëıĦ ìĻĢ
Ġë¯¸ ìĵ°
Ġê°Ģ ìĿ´
Ġêµ° ëĮĢë¥¼
ĠëĲĺ ìŀĲ
Ġëĭ¤ ìĪĺìĿĺ
ĠíıĲ ìĩĦ
Ġë§Į ì£¼
yst em
ĠëĤĺíĥĢ ëĤ¸ëĭ¤
Ġìĸ´ëĸł íķľ
ĠìĤ¬ ëĥ¥
i us
ëĭĪ ìĬ¤íĬ¸
ì²´ êµŃ
Ġìļ´ëıĻ ìĿĦ
ìĹĪëĭ¤ ê³ł
Ġë¹Ħ ë¡Ŀ
Ġëľ ¨
ìĭľ íĥĢ
Ġì¹ĺ ëŁ¬
Ġì½Ķ ë¯¹
Ġê¸° ìĽĲ
ê³Ħ ê°Ģ
Ġìľł íĸī
Ġì¶ľìĭľ ëĲĺìĹĪëĭ¤
ìĦĿ ìĿĢ
ëĿ¼ìĿ´ íĬ¸
Ġìĥģëĭ¹ íķľ
ĠíĮĮ ìķħ
ì£¼ìĿĺ ìĿĺ
ë® ¬
ëª° ëħĦ
Ġìĭľ ìľĦ
Ġê°Ģ ì¡Įëĭ¤
ê¹ Ķ
ìĭ¤ ìĿĺ
ê²łëĭ¤ ëĬĶ
Ġê°Ģ ìĬ´
Ġì£¼ ëĭĪìĸ´
Ġì§ķ ìĹŃ
ê³ł ë¦¬
ĠíĴį ë¶Ģ
ĠìĹŃìĤ¬ ìłģ
Ġë° ´
Ġìĥ¤ ë¥¼
ë¶Ģ ìĤ¬
o ot
ë§Ī ë¦¬
ì²ĺ ìĬ¤
195 9
ëªħ ìĹĲ
ĠíħĮ ìĬ¤íĬ¸
Ġëį°ìĿ´íĦ° ë²łìĿ´ìĬ¤
å¼ µ
Ġê²½ìļ° ìĹĲ
ëıĻ ìĿĢ
Ġìłĳ ì´ī
Ġë§¤ ëĭĪ
ĠìłĲ ìłĲ
Ġìłľìŀĳ íķľ
B M
es e
Ġë¯¸ êµ°
ĠìĤ¬ìļ© ìŀĲ
ĠìĿ¸ ìłĳ
ĠìĨĮ ìĨ¡
å® ®
íĦ° ë¥¼
ĠíķĺëĤĺ ìĿ¸
ĠìĿ´íĽĦ ìĿĺ
Ġë¶Ħ ìľĦ
ê³¼ ê±°
Ġë¬¸ìłľ ë¡ľ
Ġëª¨ìĸĳ ìĿĺ
ìłľìŀĳ ì§Ħ
ìĹ ł
ĠìķĦ ë¦¬
195 5
Ġì¤ĳ ìĦ¸
ĠëĨį ë¯¼
ĠìĤ¬ëŀĳ ìĿĦ
íĮ¨ ë¥¼
Ġì½Ķ ë¥´
Ġì½Ķ ë¬´ëĦ¤
Ġëħ¹ ìĥī
ê³Ħ ìķ½
Ġìĭľìŀĳ íķľëĭ¤
ĠìŀĪ ìĿĮìĿĦ
ê¶ Ĳ
íķĺìĺĢ ì§Ģë§Į
ìŀĲ ìĽĲ
ĠìŀĦ ëĮĢ
ìĹĲ ìĦł
íķĺ ìļ°ìĬ¤
Ġë§Ĳ ìķĺëĭ¤
æľ ¨
íĥĢ ìŀĦ
Ġ4 1
Ġê¹Ģ ìŀ¬
ìĦ¤ ìĿĦ
ì¹ĺ ê¸°
ĠíĽĦ ìĽĲ
ĠìłķíĻķ íķľ
194 6
> ,
ëĭ¤ ìĭľ
Ġíķĺ ìļ°ìĬ¤
ìĹ ĳ
Ġìĭľë¦¬ì¦Ī ìĿĺ
í ĳ
ĠìĨĮ ë©¸
ĠìĦľ ìĸĳ
in s
ĠìĿ´ë¦Ħ ìĿĺ
Ġì§Ħ ì£¼
æ ĩ
Ġê°ķ ë¦ī
Ġê¹Ģ ì§Ģ
Ġëı ķ
Ġíĺķíĥľ ë¥¼
ran s
è ·
Ġê·¸ ëĵ¤ìĿ´
ì¡°ìĦł ë¯¼ì£¼ì£¼ìĿĺ
Ġ j
ĠëĲĺ ë©°
ĠI t
Ġìĭľ ëĵľ
ëĭ¹ ê³¼
ĠëĳĺëŁ¬ ìĭ¸
Ġë°Ķ ê¿
é ©
Ġê¹Ģ ë¯¼
ëĦĪ ë¨¼íĬ¸
ëĩ ¨
ë£¨ ìĿĺ
âĢ ĺ
ëĮĢ ìĽĲ
å Ģ
Ġê¹Ģ ìĶ¨
ĠìĤ¬ ìłĦ
Ġëı ¼
ĠF or
ç ·
ĠëĮĢë¶Ģë¶Ħ ìĿĢ
ĠìķĦ ìķ¼
ìĪĺ ìĤ°
ìħ ĭ
ĠíĻĶ ìŀ¥
Ġìľł íķľ
ĠìķĦëĵ¤ ë¡ľ
ìĥĿ ìĿĺ
Ġëı Ķ
ĠìĿĺ íĺ¹
ë²ł ë¥´íĬ¸
ĠíĬ¸ ìľĪ
Ġëªħ íĻķ
ĠìĹĲëĵľ ìĽĮëĵľ
ì¶ľ ìĭł
Ġ http
Ġëį §
ĠìĦľ êµ¬
ĠìłĢ ìĦľ
ĠíĬ¸ ëłĪìĿ´
ĠìĺĪ ìĪĺ
Ġ193 7
w ard
ìķł ëĤĺ
ĠíĽĪ ìŀ¥
Ġìĭł íķĻ
ĠìŀĳíĴĪ ìĿĢ
Ġë§¡ ìķĦ
ĠìĿ¸ ì§Ģ
ĠìŀĲ ê·¹
ĠìķĬ ê²Į
ìĽĶ ìĿĺ
195 4
195 6
ĠìĬ¹ ì§Ħ
ĠìĿĺ íķĻ
ìľł ëĮĢ
ìĿ´ ìĦ¼
ìĽĶ íĺ¸
Ġì¤ĳíĻĶë¯¼ êµŃ
O T
ç¾ İ
ëª¨ ëĵł
195 8
ìĭĿ ë¬¼
íı´ ë¦¬
ĠêµĲ íĸ¥
ãĥ ª
íŀĪ ì½Ķ
Ġë¬´ ìĤ¬
ĠìķĮ ë°Ķ
íĻį ì½©
ĠìľłìĿ¼ íķĺê²Į
ĠìĿ´ìĤ¬ ìŀ¥
Ġëª¨ ìĹ¬
Ġìĭł ì¶ķ
Ġìĭľ ì¹´ê³ł
re am
ĠíĨµ ìĥģ
Ġíħ Ĳ
Ġê±° ì§ĵ
Ġì§Ģ ë¶ķ
ĠíĶĦë¡ľ íĨł
Ġíķ© ì³Ĳ
ĠW ar
ĠëĮĢíķĻêµĲ ìĹĲìĦľ
Ġë°Ľìķĺ ê³ł
Ġê·¸ ëłĩê²Į
ëĭĪ ê°Ģ
ì¹´ íĥĢ
ĠìĹ°êµ¬ ë¥¼
Ġê°ľ ìĽĲ
ëĮĢ ì±ħ
ĠëłĪì½Ķëĵľ ìĹĲ
íķ´ ê°Ģ
ĠìĹ¬ ëıĻìĥĿ
ĠìĹĨëĭ¤ ëĬĶ
ëĵľ ìĻĢ
ĠëĶĶ ìĬ¤íģ¬
åı ¤
Ġìĭ¬ ìĤ¬
è ĥ
ĠO p
195 7
ĠìĦł ë°ķ
ìĭľ ë¯¼
åī į
Ġê´Ģê³Ħ ê°Ģ
ĠìĽ¨ ìĿ´
ĠíĮĮ íģ¬
ì¡° ìłķ
ë§ ŀ
ì¡ ¸
Ġë³Ģ íĺķ
ìĿĺ ìłķ
Ġë¹ħ íĨł
ìĸ´ ë¦°
ĠìĹĨ ìľ¼ë©°
ãĤ ī
ë¦Ħ ìĿĦ
ĠíĻľëıĻ íķĺìĺĢëĭ¤
Ġìĭ± ê°Ģ
Ġíķĺ ìľĦ
Ġê¸Ģ ìĿĦ
ìłķ ê·ľ
ãĤ ĭ
Ġìłķì±ħ ìĿĦ
ĠìĹ¬ ê¸°ìĹĲ
er y
ìķł ëĭĪë©ĶìĿ´ìħĺ
Ġë¶Ģ ìŀ¥
ĠíĸīëıĻ ìĿĦ
ì¦ ī
A r
Ġìĥģ ìľĦ
Ġë§Ĳ ìĹĲ
Ġìĭł ì²´
ë³ĳ ìĿĦ
ĠìĪľ ê°Ħ
Ġì²ľ ì²´
ë¶Ī êµĲ
ìĿ´ìĹĪ ì§Ģë§Į
Ġë°ľ ëªħ
å´ Ķ
194 0
åĮ ĸ
ww w
ê³ł ëĬĶ
íĨµ ìĿ¼
Ġë¦¬ ë²Ħ
i am
åį ģ
ë² ¡
äº ¬
ìľ Ļ
194 9
Ġ193 5
Ġìĭľ ë¦¬ìķĦ
ãĢį (
æĻ Ĥ
Ġë¶Ħ ìĹ´
ë°° ê²½
íĨł ìĭľ
ĠíĻķ ë¥ł
ëĵ¤ ìĿ´ëĭ¤
ĠìłĦìŁģ ìĿĺ
è Ĳ
ìłľ ëıĦ
ĠíĽ Į
ê¹ ¥
íĪ¬ íĳľ
ìķ¼ ìĪĺ
ĠíĻĶ íķ©
u al
ê³µ ìĭł
ĠìĨĮ ë¦¬
ĠìĿ´ë¦Ħ ìĿ´ëĭ¤
íĦ° ìĿĺ
Ġíķ´ ìĥģ
Ġë°ĺ ëĮĢë¡ľ
ë¨¸ ë¦¬
íĮ ¡
ĠíĥĲ ìĤ¬
ĠìĹŃ ìĿĢ
Ġë°ľ êµ´
ëıĻ ë§¹
Ġíķľ ê¸Ģ
íĽĪ ëł¨
ëĭī ìĬ¤
ëĺĲ ëĬĶ
Ġë°© ìłķ
ĠëĤĺìĿ´ ë¡ľ
ìĭľ ìķĪ
Ġê¸ į
ĠëĤ´ ìħĶëĦĲ
ëĿ¼ ëĶĶ
Ġìĺ¤ ë²Ħ
ê³Ħ ìĹĲìĦľ
Ġê¹Ģ ìļ©
ĠìŀĳìĹħ ìĿĦ
Ġê°Ĳëıħ ìĿĦ
ĠêµĲìľ¡ ìĿĦ
Ġìłľê³µ íķĺëĬĶ
ìłľ ìĿ´
ĠìĿ´ ìĶ¨
Ġíĺ¼ íķ©
ìĤ° ìĹĲ
ĠíĬ¹ ìĿ´
Ġë°ľê²¬ ëĲĺìĹĪëĭ¤
Ġ4 3
ìĺĢ ì§Ģë§Į
Ġê¹Ģ ì§Ħ
Ġë¶Ģ ìĨį
Ġìļ© ìĿ¸
re at
L E
( ),
ìŀĲìĿ´ ëĦĪ
ĠìĿĮìķħ ìĿĦ
Ġìŀ¥ ìĪĺ
ëĴ ¤
âĢ ¦
ĠìķĦìĿ´ ëĶĶ
Ġë¶Ī ëłĢëĭ¤
æ ¡
ê´Ģ ìĹĲ
ĠìĺĪ ëĬ¥
Ġíı¬ ìĬ¤íĬ¸
ĠìĿ´ ë£¬ëĭ¤
Ġëĭ¤ ìĪĺ
Ġê¹Ģ íĺĦ
Ġìŀ¬ ë°°
ìĹŃ ìĿĺ
ĠìĦ± ê²½
ĠëĶĶ ë¹Ħìĭľ
Ġëĭ «
ê³Ħ ìĹ´
Ġíģ¬ ë¡ľìĬ¤
Ġì´Į ìĿ´ëĭ¤
ĠëĦ ·
Ġíģ´ ëĿ¼
ëĿ¼ ë©´
ì¹ľ êµ¬
ì¢ħ êµĲ
Ġëª¨ ìķĦ
Ġì¤Ģ ëĭ¤
ĠëĬĲëĤ Į
ê³µ ì£¼
Ġê·¸ëŁ° ëį°
ìŀ ĩ
ĠìĿĺë¯¸ ë¥¼
Į íĹ¨
Ġìĭľì¦Į ìĹĲ
íĮĲ ìĿ´
ì§Ī ìĿ´
ĠëĨĴ ìĿ´ëĬĶ
ĠíĮ ½
ĠìĦ¸ë¥´ ë¹ĦìķĦ
Ġì§Ģ ìĿĢ
Ġê°Ĳëıħ ìĿ´
ìĬ¬ ëĿ¼
Ġëª¨ íĨł
Ġíģ¬ ê¸°
ëĭ¤ ìĿ´ëĿ¼
Ġë³´ìľł íķĺê³ł
ĠìĻķ ìŀĲ
Ġë©ľ ë¡ľ
Ġ #
Ġ4 4
íı¬ íĬ¸
Ġê°Ħ íĸī
ig h
ìĤ¼ êµŃ
ë§Ī ì¹ĺ
íĽĦ ë³´
ëĤ´ ìļ©
ìĭľíĤ¤ ê¸°
ì²Ń ëħĦ
ĠëĤĺ ìĿĺ
Ġìĺ¬ ëł¤
Ġê³Ħ íĨµ
ĠìĬ¤íĥĢ íģ¬ëŀĺíĶĦíĬ¸
ĠìĿ´ ê¸Ģ
Ġì²ĺ íĺķ
Ġëħ¸ëŀĺ ë¥¼
ĠìĽĲ ìĨĮ
ìĺ¤ ìĤ¬ì¹´
ê¸Ī ìľµ
ì¶ľ ì²ĺ
ĠS S
ĠìĤ¬ë§Ŀ íķľ
ĠJ ohn
ĠíĺĲìĿĺ ë¡ľ
Ġë©Ķ íĥĪ
ĠìŀĦ ìĿĺìĿĺ
Ġì²ĺ ë²Į
Ġìŀł ìĪĺ
Ġì°¸ ê³ł
ç ¨
Ġìĺ¤ íĤ¤
ĠìĤ¬ëŀĮ ëĵ¤ìĿĺ
ĠìĿ´ë£¨ìĸ´ ì¡Įëĭ¤
M A
çŁ ¥
Ġìĥģíĥľ ë¡ľ
Ġìĭľ ê²Į
Ġê°Ģì§Ģ ëĬĶ
Ġë¹Ħ íĬ¸
ì±Ħ ëĦĲ
Ġê³µ ìŀ¥
ĠR o
Ġíģ¬ ë¦¬
ìķĦ ë§Ī
c c
ë¸Į ë¡ľ
U EFA
Ġì¹¼ ë¦¬ì§Ģ
Ġë°Ķë¥´ ìħĢë¡ľ
ĠìłĦ ëĤ¨
å£ «
íķĺ íĤ¤
ĠìłĦ ë¶Ģ
ìłľ ìĻĢ
P C
ä¿ ¡
ĠìĿ¼ë¶Ģ ê°Ģ
Ġëħ¸ ì¶ľ
ĠìķĦë²Ħ ì§ĢëĬĶ
ìļ¸ ìĤ°
Ġìŀ¬ ëĭ¨
ìłķ ëĭ¹
ĠP D
Ġê²ĥ ìĿ´ëĿ¼ëĬĶ
ĠìķĦ ëıĻ
Ġìļ° ìĹĲ
ì£¼ ê³ł
Ġê¸¸ ìĿĦ
íĤ¤ íį¼
Ġì§Ģ ëĤ´
Ġë°©ë²ķ ìľ¼ë¡ľ
Ġìĭ¤ íĺĦ
ìķĦ ëŀĺ
ìŀĳ ìłĦ
ë£¨ ê°Ģ
ãĥ Ī
èĩ £
Ġê²½ ë¶ģ
ìłĢ ìĬ¤
è °
Ġì£¼ ìŀ¬
Ġíģ¬ ê³ł
ì į
íģ¬ ë¥¼
ìĿ¼ ê³¼
Ġíı¬íķ¨ íķĺê³ł
195 2
Ġëĭ¨ ìĸ´
ĠìŀĲìĭł ëĵ¤ìĿĺ
ëĿ¼ ìĻĢ
ëĤ´ ìĹĲ
ìĭľìķĦ ëĵľ
ĠìĹ° ìĬµ
Ġìĵ° ìĿ´ëĬĶ
ĠëĶĶ ìĬ¤
ĠìĿ´ ëªħ
ĠëĶ ľ
ĠìłĦ ëıĻì°¨
å ¢
Ġë¬ µ
Ġë©Ģ ë¦¬
ĠëıĻ ë°©
Ġê²½ìłľ ìłģ
Ġê°ľ ìŀħ
ìĹŃ ìĿĢ
ìŀ¬ ëĭ¨
ĠìĤ¬ìļ© ëĲľ
ĠíķĻ ìľĦë¥¼
Ġëĭ¹ ì´Ī
ĠìĦ± íĸ¥
ì±ħ ìĿĦ
ìĤ¬ ê¸°
ëĵ¤ ë¡ľë¶ĢíĦ°
ìĹŃ ìĹĲìĦľ
Ġìŀ¬ ê±´
ĠíĿ¬ ê·¹
ĠìĺĪìłķ ìĿ´ëĭ¤
Ġëª¨ ë°ĶìĿ¼
Ġë¶Ģë¶Ħ ìĿĦ
ĠìĹĲ ìĬ¤
ĠíĺĪ ìķ¡
ĠìĿ¸êµ¬ ìĿĺ
ĠíĽ ĹëĤł
ê´ĳ ê³ł
ĠíķľêµŃ ìĹĲìĦľ
ëį° ë¥´
ĠëĿ¼ ê³ł
ĠìĦłìłķ ëĲĺìĹĪëĭ¤
in k
Ġìĭ «
ĠìĪĺ ë¦¬
ä¹ Ŀ
ĠëĮĢêµ¬ ê´ĳìĹŃìĭľ
ê²Ģ ìĤ¬
íĥĢ ëĭĪ
ë²Ķ ìľĦ
Ġ193 4
ãĤ ĵ
Ġëĵ¤ìĸ´ ìĦľ
Ġìķŀ ìĹĲìĦľ
Ġë¬´ ëĦĪ
Ġë¶Ģ ì¹ľ
íĺĳ ìĿĺíļĮ
Ġê³¡ ìĿĢ
ĠìĿ¸ ìĩĦ
Ġë°Ķ ê¹¥
Ġ4 7
Ġê¹Ģ íķ´
ĠëĿ¼ìĿ´ íĶĦ
ĠE BS
ĠìłĦíĨµ ìłģìĿ¸
3 00
ing s
T C
ĠìĿĮë°ĺ ìĿĢ
Ġê±°ëĳĲ ìĹĪëĭ¤
ĠìĭĿ íĴĪ
Ġìĭľ ëª¨
ĠĊĠ ĠĊ
ìĸĳ ìĿ´
è £
ìĤ¬ë¬´ ìĨĮ
ĠìĦ ŀ
ĠìłĦ ëĭ¹
ĠëıĦ ëª¨
ì¢ħ ìľ¼ë¡ľ
Ġì»¤ ë²Ħ
ê º
ì§Ģ ìĸ´
ĠìłĦ ëł¥
Ġì²ł ìĪĺ
Ġëĭ¹ìĭľ ìĹĲëĬĶ
å¥ ³
r id
Ġê²ĥ ìĿ´ëĿ¼
ĠìķĦ ìĬ¤
íħ ĶëłĪ
Ġê³µ ì¤ĳ
ì¹ĺ ìĺ¤
íķĺìĺĢëĭ¤ ê³ł
ëĤ´ ìħĶëĦĲ
Ġíŀ Ļíķ©
ìĪĺ ìĤ¬
ìĦľìļ¸ íĬ¹ë³ĦìĭľìĿĺ
ĠìľłëŁ½ ìĿĺ
é Į
ëħ¸ ìĦł
Ġì¶Ķ êµ¬
íİ Ģ
Ġê·¸ ëķĮ
ìĭĿ íĴĪ
ë³´íĨµ íķĻêµĲ
ëŀ« ëıĻìķĪ
ĠëĤĺëī ľ
ĠìĨį ëıĦ
ìĿ¼ìłľ ê°ķìłĲê¸°ìĿĺ
Ġê¸° ìļ¸
ĠíĶĦëŀĳ íģ¬
ut e
íĤ ·
ë³µ ìĿĦ
ê°Ģ ëĬ¥
ìłĦ ê³¼
Ġìłķ ì²´
en g
ì§Ħ ìĿĢ
am b
ĠíŀĪ íĬ¸
t ext
ì´Ī ê¸°
ìĤ¬ëł¹ ë¶Ģ
Ġê¸°ë¡Ŀ ìĿ´
Ġì§Ģ ìĭľ
åĲ Į
íı´ ë¦¬ìĬ¤
ĠìĹĳ ìĬ¤
ë¦¬ ë¸Į
ĠìĿ´ ìĽĥ
ëĿ¼ ìĹĲ
ĠìĥĪ ê²¨
r es
ĠìłĦ íĻĶ
Ġì¹¨ ìŀħ
ë ķħ
ãģ «
Ġë§Ŀ ëªħ
Ġë§¤ ì£¼
æķ İ
ĠF l
ì§Ħ íĸī
Ġ4 6
Ġê°ķ ëĵ±
Ġë©Ķ ëª¨ë¦¬
Ġ193 3
Ġë¬´ íķľ
Ġë²Ī ìĿĺ
Ġëª» íķĺëĬĶ
Ġë§Įëĵ¤ìĸ´ ì¡Įëĭ¤
ê³Ħ ëĬĶ
ãĤ ¢
ĠìĿ´ ìĿĢ
ĠìĥĪ ë¡Ńê²Į
ĠìłĦ ìĭł
ç¥ ĸ
Ġìĺ¤ ëĭ¤
Ġë°ľ ìĿĮ
Ġê¼ ½
ĠíĶĦë¡ľê·¸ëŀĺ ë°į
ĠìĿĺ ëıĦ
ic ial
ê°Ģ ìĪĺ
íĮ ½
Ġë§Ī ìĿĮìĿĦ
ĠëĿ¼ ìļ´ëĵľ
ìĺĪ ë¥¼
Ġíģ´ ëłĪ
Ġê³¡ ìĿĦ
ä» £
Ġë© °
Ġêµ¬ìĦ± ìĽĲ
ĠëĭĽ íı°
ìĭľ ìĹĲìĦľ
Ġì²Ń ì£¼
f orm
ĠìķĪ ìĹĲìĦľ
Ġíİľ ìĭ±
" )
ĠCh rist
ĠìĿ¼ ì°į
ĠìĿ¸ ìļ©
Ġëĭ¤ ë¥´ê²Į
Ġëª© ìĨĮ
Ġë°° êµ¬
ì²ľ ë§Į
ìĭĿ ìĹĲ
Ġíĥľ êµŃ
ìĺ¬ ë¦°
Ġíĥľìĸ´ ëĤ¬ìľ¼ë©°
Ġëĵ£ ê³ł
ĠìĹ¬ ìĻķ
Ġìĸ´ ê¹¨
ĠëıĪ ìĿĦ
ê¸° ì§Ģ
êµ¬ ë¯¸
Ġê°ľìĭł êµĲ
ĠëĮĢ ìĤ¬ê´Ģ
ëĭĪ ì¹ĺ
ãĥ ĥ
ìĦ¸ ìĬ¤
å ¡
ì ¾Į
ê°Ģ ê³µìĿĺ
Ġë§Ĳ íķĺëĬĶ
ad e
ĠìĥģíĻ© ìĹĲìĦľ
ĠìĤ¬ ìŀĦ
Ġë¡ ±
ĠíĥĪ íĩ´
ë§¥ ìĬ¤
ë¯¸ ìĤ¬
Ġíķ´ ìķ¼
ĠìķĮ ë¦¬
ìķĦ ëĿ¼
a f
ëĮĢ êµĲ
ĠíĨł ëª¨
Ġìĺ¤ìĬ¤ ë§Į
ëĭ¤ ìĿĺ
ĠíıĲ êµĲ
Ġ0 9
ì¸µ ìĿĺ
ëĤ¬ ê³ł
Ġë¬¸íĻĶìŀ¬ ìŀĲë£Į
Ġìĸ» ìĿĢ
íĺ Ķ
Ġë°ĶëĢĮ ìĹĪëĭ¤
ë§Ī ìĹĲ
æ ©
Ġê´Ģëł¨ ìŀĲ
Ġë°ľìĥĿ íķĺëĬĶ
Ġìĭľìŀĳ ëĲľ
ĠìĹĦì²Ń ëĤľ
ìķĦ ë¦¬
Ġíı´ ë¦¬
Ġê¹ ĥ
S h
ìĪĺ íķĻ
ë²Ķ ì£Ħ
ç Ĩ
Ġêµ¬ ìŀħ
Ġíģ¬ ëłĪ
ĠíĮĮ íĭ°
Ġì¹¨ ëŀµ
Ġê·ľëª¨ ìĿĺ
Ġìłģ íķ©
Ġëĺ ĳ
Ġëħ¸ ìĬ¤
ìĥĿ ìĤ°
A n
ìľł ëĭĪ
ic an
Ġë°ķ ìĺģ
ê¸° ìĤ¬
êµŃìľł ì²łëıĦìĿĺ
ë³´ ìĤ´
ìĪĺ ë¦¬
ĠìĹ°ê²° íķĺëĬĶ
ê°ģ ìĿĦ
ìľł ì¹ĺìĽĲ
ĠíĽĦ ê³Ħ
Ġìĺ¬ ëŀĲ
O U
l es
ë²ł íĬ¸
ìĹ´ ì°¨
íķĺìĺĢ ëįĺ
Ġë°ľ ë°ľ
Ġ7 5
Ġëĭ¤ ìĬ¤
ìłĲ ìĿĺ
ĠI C
ì£¼ ìĹĪëĭ¤
ì¡° ë¡ľ
Ġì°¸ê°Ģ ìŀĲ
ê²© íķľ
ĠíĻľëıĻ íķĺê³ł
Ġíģ´ ë¡ľ
Ġ align
Ġì°½ ìŀĳ
ìĤ¼ ìĦ±
Ġë¸Į ëłĪ
ê²© ìľ¼ë¡ľ
Ġíıī ë¡łê°Ģ
Ġìĸ´ëł¤ ìļ´
ĠìĦ¸ ìĥģìĿĦ
Ġì ¾Į
Ġì§ Ŀ
ĠìłĦ ë©´
ë¬´ ëĬ¬
Ġíģ¬ ëĿ¼
êµĲìľ¡ ì²Ń
ĠíķĺìĺĢ ìľ¼ëĤĺ
Ġëĭ¬ ëł¤
ìłķ ìĽĲ
ë°± ë§Į
Ġì¡´ìŀ¬ íķĺì§Ģ
Ġê°Ģë¬¸ ìĿĺ
Ġë¡ľë§Ī ìĿĺ
Ġì¢ħ ë¡ľ
ìŀ¥ ìĿ´ëĭ¤
Ġëĵ¤ ê³ł
Ġíİ¸ ì°¬
ĠíķŃ ìĦ±
è° ·
Ġê¹Ģ ìĪĺ
ĠìĬ¹ ëł¤
( :
ê ¿Ī
ê²½ ìĿ´
ëŀ ´
Ġì§Ģ ëĥĪ
ĠìĦ± ìĶ¨
éĩ İ
Ġ193 2
íķ´ ìł¸
Ġì² ¼
å Ħ
ëĿ¼ ë©°
ĠìĺģíĻĶ ëĬĶ
Ġë°° ê¸ī
ëł¹ ìĿ´
Ġíķ¨ ëĿ½
Ġê´Ģëł¨ ìĿ´
Ġë¡ ł
è ¿
ĠëĦ ¥
ĠU S
Ġìĭ¬ê°ģ íķľ
ìķ ŀ
ìĤ¬ ìĿ´ëĵľ
Ġë³Ģ íĻĶë¥¼
Ġëļ ľ
ëĭ¨ ê³¼
og rap
Ġë§Īì¹¨ ëĤ´
ĠìĤ¬ëŀĮ ëĵ¤ìĿĦ
Ġë§¡ ìĿĢ
ĠAr t
Ġê·¼ ë³¸
ìĦ °ëĭ¤
ĠìĿ į
p ort
Ġëŀ ©
ì¶ľìĹ° ìŀĳ
Ġë°Ķ ëĭ¥
íķ¨ ê³¼
P U
ìĭ ¼
ëĮĢ ë¶Ģ
è µ
ĠìĿ´ë¯¸ ì§Ģ
ĠíķĺìĺĢ ìľ¼ë©°
ê¹ Ŀ
Ġì§Ģê¸Ī ìĿĢ
Ċ ĠĠĠĠ
ĠíĽĦë³´ ë¡ľ
ĠìĹ° íĺ¸
Ġì¡¸ìĹħ ìĥĿ
Ġë°° íı¬
ëŀĢ ìĥī
ĠìĬ¤íħĮ ìĿ´ì§Ģ
íĶĦëŀĢ ìĭľìĬ¤ì½Ķ
éĢ ļ
ìķĦ ìĽĥ
ĠíĻķ ë¦½
Ġíı¬ ì¼ĵëª¬
ê³ł ëĮĢ
ĠìķĦ íĮĮíĬ¸
ĠìĹŃ ìĿ´ëĭ¤
ĠëĤ´ ëł¸ëĭ¤
Ġìŀ¬ ì¦Ī
ì° ¾
Ġíķľ ìĦ±
Ġë§Įëĵł ëĭ¤
Ġì£¼ìŀ¥ íķľëĭ¤
ëĭ ·
ìŀĦ ìĿ´
ĠëĶ° ë¡ľ
Ġë¬´ ìĭł
ĠíĢ ´
Ġì§ĳ ìķĪ
Ġc om
M I
ìĬ¤ëŁ½ ê²Į
ĠìĿ¼ìľ¼ íĤ¤
Ġê¶¤ ëıĦ
ìłľ ì£¼
Ġë§İ ìķĦ
æĢ §
Ġê°ľ ëªħ
ë°Ķ ëĤĺ
ĠíĮĮ ë¥´
E P
æ´ ª
Ġìº ¡
ĠìĤ¬ ë§Ī
Ġë£¨ íĬ¸
ìĦľìļ¸ ëĮĢíķĻêµĲ
ĠìĿ¼ìĸ´ ëĤ¬ëĭ¤
ĠìłĪ ë°ĺ
Ġìķł ëĭĪ
åŃ Ŀ
Ġê°Ģì§Ħ ëĭ¤
Ġë¶Ģ ìĥģìĿĦ
ìłľ íĴĪ
éĽ Ĩ
ê²° ê³¼
âĢĻ (
ĠíŀĪ ê°Ģìĭľ
íĶĦê°Ģ ëĭĪìĬ¤íĥĦ
ut ion
ĠëĤĺíı´ ëłĪ
Ġë¶Ħ ëªħ
ĠìĻĦê³µ ëĲľ
Ġë§Ī ì²ľ
Ġìĺ¤ ëŀ«ëıĻìķĪ
ë³Ħ ë¡ľ
ìłķ ê³¼
ëħ¸ ëŀĺ
Ġê°ģë³¸ ê°Ģ
íģ¬ ë¦¬ìĬ¤
Ġê°Ĳëıħ ìľ¼ë¡ľ
P a
ìĤ¬ ìĥģ
Ġê´Ģ ìĹ¬
ĠM VP
ĠìĦ¤ë¦½ ëĲĺìĹĪëĭ¤
ĠìĬ¤íĥĢ ëĶĶìĽĢ
Ġ an
ĠìĦł ìłĦ
Ġì£¼ìŀ¥ íķĺìĺĢëĭ¤
ĠëĤ´ìļ© ìĿĢ
ĠìłĦ ë¶ģ
ĠíĨł ëĦĪë¨¼íĬ¸
Ġì¢ĭìķĦ íķĺëĬĶ
ĠìĹĲ ë¥´
íĻ© íĽĦ
ëĶ ¸
Ġ193 1
Ġê³¨ íĤ¤íį¼
et t
Ġì§Ħíĸī ëĲĺìĹĪëĭ¤
re d
ĠìŀĲ ìłĦ
Ġë³Ģ íĺ¸
ë³´ ê±´
Ġì¹´ ëĿ¼
em ent
in al
ĠëĳĲ ëł¤
ìĤ¬ ìļ©
ê³µ ê°Ħ
ĠĊĠĊ Ġ
le ct
k y
Ġë°© ì§Ģ
ìĭ¬ ìĿĺ
Ġê¸Īë©Ķëĭ¬ ë¦¬ìĬ¤íĬ¸
ĠìłĦë¬¸ ê°Ģ
íĦ° ëĬĶ
ë¡ľ ìĻĢ
ì½Ķ íĶĦ
Ġíİ¼ ì³Ĳ
é ½
ĠíķĦ ë¦½
ì»´ íĵ¨íĦ°
Ġê·¸ ë¡ľ
ĠìĹ° ê°Ħ
ĠëıħíĬ¹ íķľ
Ġì½ĺ íħĲì¸ł
Ġê²°ìĦ± ëĲľ
ĠìķĦ ë©Ķë¦¬ì¹¸
ëĶĶ ìŀĲìĿ¸
íķ© ëĭĪëĭ¤
Ġëĭ¨ ì§Ģ
ì½ ķ
ëĿ¼ íĬ¸
Ġë°ľ ê°Ħ
Ġëªħì¹Ń ìĿĢ
ĠìĪĺëıĦ ê¶Į
Ġê¹Ģ ê¸°
æ ·¸
ĠG u
ĠëıĦìĭľ ìĿ´ëĭ¤
ëį ©
Ġê³Ħ ê³¡
194 7
Ġëħ¸ë¥´ ìĽ¨ìĿ´
ĠìķĦ íĭĢ
Ġì¶ķ ìłľ
Ġì£½ ìĹĪëĭ¤
Ġí ĵ¨
ìļ° ê°Ģ
ĠëĶĶ ìŀĲìĿ´ëĦĪ
ã İ
Ġ~ )
Ġëª© ìĨĮë¦¬
ĠD J
íķĺ ë¯Ģë¡ľ
F I
ĠëįĶë¶Īìĸ´ ë¯¼ì£¼ëĭ¹
ĠìĹĺë¦¬ ìŀĲ
ĠìĬ¤íĶĦ ë§ģ
Ġëĵľ ëŁ¼
ìĦł ìĥĿ
Ġê²Ģ ìĥī
Ġê¸į ìłķ
ĠìŀĲ ë§¤
Ġë³´ìĹ¬ ì¤Ģëĭ¤
Ġë ķ
ì¹´ ëĿ¼
ĠíĨ ±
Ġìĥģ ìĨį
ìŀ¥ êµ°
194 4
Ġë°ĶìĿ´ ëŁ¬ìĬ¤
Ð »
íĮĮ ëĬĶ
ëĤ´ ê¸°
Ġì³ Ĳ
ìĪĺë¡Ŀ ê³¡
Ġíķł ìķĦë²Ħì§Ģ
ur n
Ġë¦¬ ëĵľ
ëª© ìłģ
Ġë§Įëĵ¤ ê³ł
Ġìĭł ìĤ¬
Ġë¬¼ ë¦¬íķĻ
et h
ĠìĹŃìĤ¬ ê°Ģ
er m
Ġê³µìĹ° ìĿĦ
íİ Ħ
åĲ ī
am es
ìĬ¤íĬ¸ ë¡ľ
ĠìķĬ ì§Ģë§Į
ì´Ī ìĿĺ
ì£¼ìĿĺ ìłģ
ê´Ģë¦¬ ìľĦìĽĲíļĮ
ĠAl l
ĠíķĦìļĶ íķĺëĭ¤
Ġì£¼ìĭĿ íļĮìĤ¬
Ġê³µ íĹĮ
ê° ¤
ì§Ģ ëªħ
Ġë©Ķ ë¦¬
ĠìĦ¸ê³Ħ ëĮĢìłĦ
ë°ķ ìĤ¬
ĠìĦ ¹
ì²´ ìĻĢ
ĠìĦ± ìĿĦ
ĠC ount
Ġëªħ ìĿĦ
ìłĢ ìĦľ
Ġê³µ ë¬´ìĽĲ
ĠìĹŃ ìĿ´
é ³
Ġìĥģ ìŀĦ
Ġì¦ Ī
ĠìŀĦ ë¬´
ĠìķĦ íĬ¸
Ġë§Ī ë¥´íģ¬
ĠìĿĺ ìłķë¶Ģ
ì¤ĳ ìĿ¸
ĠìĹ°êµ¬ ìĨĮ
Ġì¤ĳ êµ¬
íĮĮ ë¦¬
ê³¼íķĻ ê¸°ìĪł
ìĿ¼ ëĵľ
E S
Ġê°¤ ëŁŃìĭľ
ow er
Ġê°Ģ ìļĶ
ĠíķĦìļĶ ê°Ģ
éİ Ń
ìĦ¸ ë¥´
Ġêµ¬ ë¡ľ
Ġíŀ Į
ëĵľë¦¬ íŀĪ
çĶ º
Ġê² ¹
ëĤĺ ë¥´
ĠíĥĢ ê²©
ìķĦ ìĬ¤
Ġê¸° íļĮë¥¼
ë§Ī ê°Ģ
Ġìĺ¬ ëł¸ëĭ¤
æ Ł
ìĬ¤ íĶĦ
ì§Ģ ë©´
Ġ19 10
Ġê°ĢìĪĺ ìĿ´ëĭ¤
Ġì§Ģê¸Ī ê¹Įì§Ģ
ĠìĭľìĬ¤íħľ ìĿĦ
ë¸Į ëłĪ
Ġìŀħ ìŀ¥ìĿĦ
ĠìķĮê³ł ë¦¬ì¦ĺ
ìĹĪ ìĿĦ
ìĿ¸ ìĹĲê²Į
ëĲĺìĹĪëĭ¤ ê³ł
íĢ ĺ
ìķĦ íĮĮíĬ¸
ĠìĤ¬ìĭ¤ ìĿ´
ĠĊĠĊĠĊĠĊ ĠĊ
ĠìĭĿë¬¼ ìĥģ
Ġë°ĽìķĦëĵ¤ ìĹ¬
Ġíķĺ ìĹĲ
st r
íı¬ ìĬ¤
P G
Ġë°ľ ëłĪ
Ġì´Ŀ ìĦł
ìĭ¤ ìĿĢ
Ġêµ° ìĿĺ
Ġíĳľ ì°½
ĠìĤ¼ êµŃ
195 3
Ġ19 28
ìĤ¬ ê³ł
ĠëıĻ ìĸĳ
ì¡° ê±´
ì¹´ ìĺ¤
ĠëĤ¨ìķĦ íĶĦë¦¬ì¹´
ë°± ê³¼
Ġêµ¬ ë§¤
Ġëŀĺ íį¼
ĠêµĲ ë¥ĺ
ì¶ ¤
íķ¨ ìĿ´
ĠëģĿ ëĤĺ
Ġêµ¬ ê¸Ģ
ĠìĬ¬ ë¡ľ
ĠíĮĮíĬ¸ ëĦĪ
Ġëĭ ī
Ġëĭ¤ìĿĮ ëĤł
ĠíĻĺ ìĬ¹
ĠìĦ¤ ëĵĿ
Ġì°½ ê°Ħ
Ġë³ĳ íķ©
Ġíļ¨ê³¼ ë¥¼
Ġëĭ¤ ìĨĮ
Ġë¶Ģ ëıĻ
p le
ĠA mer
ãĤ ¯
O D
Ġê³ł ê°Ŀ
c o
ìķĦ ëĬĶ
Ġìĸ´ ëĵľ
ĠìķĮ ëłĪ
ìķĦ ë©Ķë¦¬ì¹¸
Ġë°© íķ´
ëĲĺìĸ´ ìķ¼
ĠL a
Ġê·¼ ìľ¡
ë¡ł ìĿĢ
Ġìĭ¸ ìĽĢ
ì°¨ ëŁī
ĠìĨĮëł¨ ìĿĺ
Ġë¯ ¹
Ġíİ¸ ìĿ´ëĭ¤
194 1
ëĤĺ íĥĢ
Ġìŀĳ ëıĻ
ëŁ° ëįĺ
ĠëĮĢ ê°ľ
Ġ19 24
Ġì¢ħ ìĤ¬
ĠëĤ´ ê°Ģ
op h
íĹ Ŀê°Ģ
qu e
ĠëĮĢ íĻĶ
ĠíĺĦ ì§Ģ
íŀĪ ê³ł
ĠìĥģëĮĢ ìłģìľ¼ë¡ľ
Ġê¹Ģ ìĥģ
Ġê±° ëĵŃ
ë²ł ë¦¬ìķĦ
åĽ Ľ
ëĭĪ ì¦ĺ
Ġê²ĮìŀĦ ìĿĦ
Ġìł ł
ĠìĿ´ íĨł
Ġíıī ìķĪ
ĠíĨł ì§Ģ
Ġíĺ¼ ìŀĲ
ĠìķĬ ìľ¼ë©´
ìĿ´ ë©´
ĠìĹ° ìĤ°
Ġ is
ãģ Ĩ
Ġìŀ¥ ë¥´
ì½ °
ĠíıŃ íĥĦ
âĺ Ĩ
ĠìĪĺ ìĿĺ
ĠìĪĺ ìĿµ
ĠëĳĲ ìĤ°
ì§ĳ íķ©
ë°Ľ ëĬĶ
Ġìĥģ ê´Ģ
Ġì´Ī ì²Ń
íĶĦë¡ľ ëĵĢ
ìĿ´ ìķ¼
ĠìĦł ìŀĦ
ĠìķĪ ìĸĳ
æĺ ¥
ĠìĻĦìłĦ íķľ
ĠT HE
Ġíĺ¸ ìĨĮ
Ġ19 29
ìľĦ ìĻĢ
Ġì¡°ìĦł ì´Ŀëıħ
è Ĥ
ëĪĦ ë¦¬
ĠìĽĲ ìĿ¸
Ġë²Į ìĸ´
E BS
ĠíĹ ¨
Ġíĸī ëł¬
åł Ĥ
ëĵ± ìĿĺ
ëĭ¬ ëŁ¬
Ġì¹´ íİĺ
ĠíĪ¬ ìŁģ
Ġì§ĢìĹŃ ìľ¼ë¡ľ
ì¡¸ìĹħ ìĥĿ
ĠëıĻ ìĭľ
Ġì¤ĳ ìĹĲëĬĶ
ul l
ĠìŀĲ ìĽĲ
an k
Ġì²ľ ì£¼êµĲ
ĠëĮĢíĨµëł¹ ìĿĺ
Ġìĭľì²Ń ë¥ł
Ġ19 18
Ġë³´ ìķĺëĭ¤
íĮĮ ë¥¼
ir l
Ġì§Ģ ìľĦë¥¼
I P
íļ¨ ê³¼
ĠìłĦ íĺķ
ĠP ar
ìĹ° ê¸°
ìº Ħ
ĠìĦ¤ì¹ĺ ëĲľ
ë©Ķëĭ¬ ìĿĦ
ĠìĪĺ íĺ¸
ĠìĪĺ ìļĶ
ì¹´ ê°Ģ
Ġíħį ìĤ¬ìĬ¤
ëıĻ ê³¼
ĠìĬ¤ íĮĮìĿ´
ĠëĨĴ ëĭ¤
Ġë® ĮíĹ¨
Ġíĺ¸ ìĪĺ
Ġë§ŀ ìķĦ
ĠìĿ´ ëĿ¼íģ¬
ëĲĺìĹĪëĭ¤ ê°Ģ
å¸ «
ĠëıĦì¿Ħ ëıĦ
Ġì§ ľ
Ġë²ķ ë¬´
ĠìĿ´ ëĵ¤ìĿĦ
ĠëĦ¤ ìĿ´ìħĺ
ìĺ¤ ëĬĺ
ĠìĹŃìĤ¬ ë¥¼
Ġìĺ µ
ĠëĮĢ ê²°
Ġë°ľ ìĸ¸
íĥľ íıīìĸĳ
ì¹ľ ëĭ¤
ĠìĿ¼ë³¸ ìĹĲ
ĠíķĻ ìĤ´
Ġì¤ĳ ì¶Ķ
Ġíķ´ ëıĦ
íİ¸ ê³¡
D P
ï½ ŀ
ëıĦ ë¦¬
ĠëĪĪ ìĹĲ
Ġìĸ» ìĿĦ
Ġíħ ĶëłĪ
ī ģ
íĳľ ë¥¼
ĠQ u
r it
ë° ´ëĵľ
Ġ4 9
ìĸ´ ìķ¼
Ġì½Ķ ìĬ¤
Ġê°ĳ ìŀĲê¸°
M P
ìĺģíĻĶ ìłľ
e an
y m
ĠëĨĵ ê³ł
ĠìĿ´ íĥĪ
ìĭŃ ìŀĲ
ë²¨ ëĿ¼
Ġëħ¸ìĦł ìĿĦ
áĨŀ áĨ
Ġë¶Ģ ëĭ´
ê²½ ìĹĲ
Ġìľł ìłĦìŀĲ
Ġê³ł ì¢ħ
ĠíĬ¹ ìłķíķľ
ĠëĤĺíĥĢ ëĤĺëĬĶ
ê°Ģ ìĬ¤
ĠìłĦ ê¹Įì§Ģ
íķĺì§Ģ ëĬĶ
ìĺ¤ìĬ¤íĬ¸ëłĪìĿ¼ ë¦¬ìķĦìĿĺ
ĠëĮĢ ë²ķ
ĠìĦľ ìĿ¼ë³¸
Ġìľł ìłģ
Ġê´ĳ ìĹŃ
ou l
ìĿĮ ìĿĺ
ĠìĹ¬ê²¨ ì§Ħëĭ¤
íķ´ ìĸĳ
ë² ³
ãĤ Ĭ
íĬ¹ë³Ħ ìľĦìĽĲíļĮ
ĠëĮĢíĳľ íķĺëĬĶ
åħ «
Ġê¹Ģ ê²½
ĠìĤ¬ìĹħ ìĿĦ
ì¡° ë¶Ģ
w e
Ġìľł íļ¨
ìĹ° ì¶ľ
ĠêµĲ ëªħ
ĠìĪľ íĻĺ
ĠìĿ¸êµ¬ ê°Ģ
v e
Ġë°± ìłľ
Ġëĭ¤íģĲ ë©ĺíĦ°ë¦¬
íĦ° ê°Ģ
íģ¬ ê°Ģ
ê²½ ê¸°ëıĦ
Ġë¶Ģë¶Ħ ìĿ´
Ġê³µìĤ° ì£¼ìĿĺ
ĠíĬ¹ ìĦ±
íĺĳ ëł¥
Ġë¬¼ ëŁ¬
ìĹ° ìĿĺ
ëħ¸ ë¦¬
ĠìĥĿ íĥľ
ar ch
ìĺģ ìĿĢ
Ġ5 1
ĠìĤ¬ìļ© íĸĪëĭ¤
ĠH D
Ġë°ĶìĿ´ ìĹĲë¥¸
ìĹ £
Ġë§Ī ë¬´ë¦¬
Ġëª©ë¡Ŀ ìĿ´ëĭ¤
ens is
íĮĮ ìĿ´ìĸ´
ĠìĦ± ìłģìĿĦ
Ġë¡ľ ëłĮ
Ġë¡ľ ë¹Ī
ìĦľ ë¹ĦìĬ¤
ë¬¸ ìĿĢ
ĠìŀĲ ë¦¬ìĹĲ
Ġì£¼ ìłĦ
ĠA m
Ġíĸ¥ íĨł
Ñģ Ðº
ëĦĲ ëĵľ
ìĹĪ ê¸°
ìĭ¤ ìĿ´
t t
ëĤĺ ë¦¬
ĠìĿ¸ ì¦Ŀ
ìĸ´ ë¦¬
íĻĶ ë¬¼
Ã ¤
ì¹ĺ ê²Į
Ġê°Ģ ë©´
ĠìľĦ ë¡ľ
ìŀĳ ìĿĢ
Ġë©Ķ ìĿ´ì§Ģ
Ġêµ ¿
ĠìķĦ ìĽĥ
Ġìļ´ìĺģ íķĺëĬĶ
B l
I G
ĠìĹ°êµ¬ ìĹĲ
Ġë°Ľìķĺ ìľ¼ë©°
ìĺ¤ ìĻĢ
Ġë¶Ģ íĥģ
Ġë©Ģ íĭ°
íģ´ ëĿ¼
ĠìķĶ íĺ¸
Ġìĥģíĥľ ìĹĲìĦľ
Ġì¤ĳ ì§Ģ
íĤ¤ ìĿĺ
ìĶ¨ ê°Ģ
Ġ5 2
> (
ĠS C
Ġì¹´ ì¦Ī
ĠìĽĶíĻĶ ëĵľëĿ¼ë§Ī
ìĹĲ ëĦĪ
ê°Ģ ë£¨
Ġì²ł ê±°
ĠìĿ¼ìĸ´ ëĤĺëĬĶ
íıī ê·ł
ĠìłĦ ìĨ¡
Ġëª¨ ëĵľ
ëĵ± ìĿĦ
Ĳ ģ
íķĦ ë¦¬
Ġê¸° ìĨĮ
Ġê°Ģ ëĭ´
ĠìĿ´ë¥´ ëŁ¬
Ġ6 5
U n
ĠìĬ¤íĶ¼ ëĵľ
ëĵ¯ ìĿ´
ë§Į ìľ¼ë¡ľ
ĠíĿĺ ëŁ¬
ëĵ¤ ìĹĲìĦľ
ìĨĮ ë°©
Ġì§ĳ ê¶Į
Ġë³µ ë¬´
Ġâ ĳ
Ġíģ¬ë¦¬ìĬ¤ íĭ°
ĠìĦĿ ìľł
ìŀ ĺ
ìĤ¬ ê±°ë¦¬
Ġìĸĳ ìĿĺ
ì²ĺ ë¥¼
ê°Ģ ìļĶ
ìŀĲ ë¡ľìĦľ
ĠëĤĺ ìķĦê°Ģ
ì¤ĳ ìĿĺ
ìĬ¤ íĨ¤
Ġê¸Īë©Ķëĭ¬ ìĿĦ
Į ë¦°
Ġì°¸ìĹ¬ íĸĪëĭ¤
ì¹´ ìĬ¤
ìŀĳ ìĤ¬
ìĹ¬ìŀĲ ëĮĢíķĻêµĲ
ĠìĪĺë¹Ħ ìĪĺ
ĠíĢ ĺ
ìĸĳ ìĿĦ
ĠìĹĨ ìĿĦ
Ã ¶
Ġëį ľ
Ġì¡°ì§Ģ ìķĦ
íķĺìĹ¬ ìķ¼
Ġë°© ë©´
Ġë¬´ ìļ©
Ġë¶Ħ íķ´
ì ´
ëĲĺ ëĬĶëį°
Ġì²ľë¬¸ ëĮĢ
Ġ et
ĠìĹ¬ ìĦ¯
Ġë¹Į ë³´ëĵľ
ë¶Ħ ìľ¼ë¡ľ
ĠìĹĲ ë¦Ń
ĠíķŃ êµ¬
Ġ Â
ĠR es
Ġì§ĳ ìĹĲ
ëĿ½ ìĿĦ
ĠíĬ¹ì§ķ ìĿ´ëĭ¤
C l
ë¯¸ ìķĦ
Ġ ed
Ġìłķ ìĪĺ
ë¹Ħ ë¡ľ
Ġê²Ģ íĨł
ë¡ł ìĿ´
ë¦ ĩ
Ġë· °
m ìĿĺ
Ġìŀħ ê³ł
Ġìĸµ ìłľ
T S
ìĭĿ ê³¼
Ġêµ ³
ìĦ¸ íĬ¸
Ġëħ¼ ë¦¬
ìĦ¸ ì¢ħ
ìī ½
ĠìĿ¼ ìļĶìĿ¼
ìĥ ĺ
ë¬¼ ìĹĲ
Ġíģ¬ë¡ľìķĦ íĭ°ìķĦ
E L
ĠëıĦ ìĭľìĿĺ
Ġëª¸ ìĿĦ
Ġì½ľ ë¡¬
ĠìĽĲ ì£¼ë¯¼
Ġê°Ģ ì¹ĺê°Ģ
Ġë¬¸ ìĿĦ
ë¯¸ ìĬ¤
ĠëĤĺëĪĦ ìĸ´
Ġê°ľ ë³Ħ
Ġìļ´ìĺģ íķĺê³ł
Ġê²¸ ìŀĦ
ĠìĿ¸ëĶĶ ìĸ¸
st yle
Ġì¦ī ìĭľ
ì¹ĺ ìĹĲ
ìĭ± ê¸Ģ
Ġë°° íĭĢ
ĠëĨį ì´Į
r en
193 9
ìĥĿ ìĿĦ
r at
ë¯¸ ì¦Ī
ĠJ R
ĠìĻĦ ë²½
ĠêµŃ íĨł
ĠG o
ĠëĤĺëīľ ëĭ¤
ĠëıĮ íĮĮ
195 1
Ġì£¼ ê¸°
Ġê·¸ê²ĥ ìĿ´
ĠN ational
ĠìĨį íķ´
ĠëĤ´ìļ© ìĿ´
êº ¼
ë£¨ ìĪĺ
Ġíİ¸ ìĿĺ
M L
Ġë°ķìłķ íĿ¬
Ġìĭł ê³ł
ë ĮĦ
ë¡ľ ìį¨
Ġ0 2
Ġë³ĳ ìĦ¤
ĠëĤĺíĥĢ ëĤ¬ëĭ¤
íĺĦìŀ¬ ìĿĺ
ĠëĤĺê³ł ìķ¼
Ġ or
Ġê¶Į ë¦¬
èĬ ±
ëŀ ©
n er
ĠëıĮìķĦ ìĺ¨
Ġì¶Ķ ê¸°
ë§Ŀ ìĿĦ
ĠìŀĲ ëŀĳ
Ġëį° ìĹĲ
ĠíķĦ ìĪĺ
ĠìłĦë°ĺ ê¸°
Ġ le
ĠìĿ¼ ì»
ì°¨ ëĬĶ
Ġìĸ¸ ëįķ
Ġìĵ° ëŁ¬
å° ĩ
Ġìĺ¤ ì§ģ
Ġìłľ ëĦ¤
Ġì§Ī íĻĺ
ë§Į íķľ
ĠëªħìĺĪ ìĿĺ
Ġë Ń
ĠìĿ¼ì» «
ê·ł ê´Ģ
ë¡ľë°Ķ íĤ¤ìķĦ
Ġ19 21
Ġ19 25
Ġë¬´ ë¹Ħ
ì²Ń ìŀ¥
Ġë³µ ìĽĲ
Ġëį ©
Ġìŀħ ëł¥
ê¸Ģ ë¡ľ
ì§Ģë°© ë²ķìĽĲ
ê°ķ ìłĦ
Ġìĵ° ìĹ¬
Ġ19 23
Ġìĺ¤ ì¼Ģ
ĠëĤĺëĿ¼ ìĿĺ
âĢ ľ
Ġë¹Ħ ìĦľ
Ġë¹ ļ
194 2
Ġìĭ¬ íĮĲ
ĠìĤ½ ìŀħ
ĠìľĦ ëĮĢíķľ
ëª¬ ëĵľ
Ġíİĺë¥´ ìĭľìķĦ
ĠMus ic
C N
ë¯¸ ëŀĺ
ĠìŀĦì§Ħ ìĻľëŀĢ
ë£ ½
Ġê²°ìĬ¹ ìłĦ
ĠìĿĺë¯¸ íķĺëĬĶ
Ġ ãĥ
ĠìĿ´ ê´Ģ
Ġìłķ ê¶Į
Ġë© Ī
Ġì¡¸ìĹħ íķĺê³ł
er e
íı¬ ë¥´íĪ¬ê°Ī
ĠíĥĢ ìŀħ
Ġíı¬íķ¨ íķĺëĬĶ
ĠìķĦë²Ħì§Ģ ìĿĺ
Ġë¯¸ ë¦¬
Ġìĺ¤ ëĶĶìħĺ
Ġìľł ëĭĽ
ĠëıĦ ëįķ
ì²ľ ë¦¬
ìĺ¨ ìĿĢ
ëĬĶ ì§Ģ
ê·¸ ë¡ľ
ìĹ ī
Ġìĭľ ê°Ģ
íĶĮ ëĿ¼
ĠìĿ´ ìĦ¸
ĠìĿĺ ìĭ¬
ëª¨ ìĿĺ
Ġíı¬íķ¨ ëĲľëĭ¤
ìĤ¬ìļ° ë£¨ìĬ¤
ĠìķĮëłīìĤ° ëĵľ
ìļ° ìĬ¤ìĿĺ
ëįķ ìħĺ
è¦ ĭ
R A
Ġëĸł ëĤ¬ëĭ¤
Ġc ol
Ġë²¡ íĦ°
Ġë¸Ķ ë¡Ŀ
ĠëģĮ ìĸ´
Ġê°ĸ ëĬĶëĭ¤
or s
ëŁ° ìĬ¤
ĠëıĮ ëł¤
Ġë²¨ ëĿ¼
â ī
ìķħ ê¸°
ĠìŀĳíĴĪ ìľ¼ë¡ľ
Ġê´ĳ ë²ĶìľĦ
ìĽ¨ ìĿ´ìĿĺ
¤ ëĭ¤
ìĸ´ íķŃ
íĬ¸ ë¡¤
ĠëĤ¨ ê·¹
Ġëª° ìķĦ
ìŀĲ íĿĲ
ĠìľĦ íĤ¤
ar i
Ġíķľ ìŀĲ
ĠëĮĢíļĮ ìĹĲ
Ġëĵ¤ìĸ´ ê°Ķëĭ¤
ĠëıĻ ë¶ģ
íı¬ ë¥¼
ĠìĿ¼ë³¸ ìĿ¸
ap p
ìĬ¤ì¼ĢìĿ´ íĮħ
ë§Ī ë¥¼
ĠìĻķ ìĿĺ
Ġê³¨ ìĿĦ
Ġ19 26
íĥĢìĿ´ ìĻĦ
ç« ĭ
ìŀĲ ëĵ¤ìĹĲê²Į
Ġ19 22
ĠìķĦ íħĮëĦ¤
ê³Ħ íĨµ
ê¶Į ëıĦ
Ġìķ ī
ìłĦ êµŃ
Ġê°ĸì¶Ķ ê³ł
íĮĮ ë¡ľ
ĠëĮĢë¶Ģë¶Ħ ìĿ´
ĠìĿ¼ ìłķíķľ
Ġë¶Ģë¶Ħ ìĿĢ
T A
ĠìĿ´ ëħ¸
um ent
ì¦Ī ê°Ģ
ì¿ ¼
w ay
Ġê³ ±
Ġíķĺ ìĿ¸
Ġì£¼ ìłľ
íĮĮ ê°Ģ
å® Ī
íĥĢ ìĬ¤
ìļĶ ì½Ķ
Ġë²ķ ìłķ
íħĲ ëıĦ
ìĥī ìľ¼ë¡ľ
ĠìĿ´ë£¨ ê³ł
Ġìľł ê³ł
ìĿ¼ë³¸ êµŃìľłì²łëıĦìĿĺ
Ġì°¸ê°Ģ íĸĪëĭ¤
Ġê³³ ìľ¼ë¡ľ
ĠìĦ±ê³µ ìĿĦ
Ġl a
Ġ ãģ
Ġë¶Ī ëł¸ëĭ¤
Ġì¿ł ëį°
ëĭĪ ìĻĢ
ë£¨ ë¯¸
ĠëĮĢ ìĽĲ
íĮĮ íģ¬
ìĸ¸ ìĸ´
Ġë¯¸ ìĬ¤
Ġë³¸ ì§Ī
è« ĸ
Ġêµ¬ ìĽĲ
ĠìĹ° ìķł
íĬ¸ ìĹĲ
Ġíĳľ ë©´
ĠìĻķ ì¡°ìĿĺ
Ġê²ĮìŀĦ ìĿ´ëĭ¤
a j
Ġ5 4
ë²ķ ìľ¼ë¡ľ
ĠëıĮìķĦ ìĻĢ
ĠìĹ´ì°¨ ê°Ģ
ĠìķĦìĿ´ìĬ¤ íķĺíĤ¤
ìĭľ ëħ¸
Ġ19 27
Ġë°ľ ì¡±
Ġê´Ģ ì§ģ
Ġê°Ĳ ìłķ
Ġìŀħ ìŀ¥
ĠíĶĮëłĪìĿ´ ìĸ´
Ġë¸Į ëĿ¼ìĿ´ìĸ¸
ĠëłĪ ìķĮ
ĠìŀĪìĹĪ ê¸°
ĠíĥĲ íĹĺ
ë° Ń
ê²½ ìĿĢ
íĺĦ ìĿĦ
íĥĲ ìłķ
ê°Ĳ ìĿ´
ĠìłĲ ìĿ´
ĠìĹ° ê³ł
Ġê³łìĸĳ ìĿ´
Ġìļ° ë¦¬ëĬĶ
Ġê³µê²© ìĪĺ
Ġê¸° ëıĻ
Ġëª© íı¬
Ġë²Ī íĺ¸
ĠìĥģíĻ© ìĿĦ
Ġ 00
ì£¼ ê°Ħ
ç ¬
Ġê¸° ëĳ¥
en er
ĠìľĦì¹ĺ ë¥¼
ĠC ar
ê¸Ī ìĿ´
ĠE ng
ĠëĮĢíĨµëł¹ ìĿĢ
d e
ĠìĹ° ìĿ¸
Ġê¸° ëıĦ
ĠO ff
ë§ Ľ
Ġë¯¼ ë²ķ
Ġì§ĳ ê³Ħ
íĬ¹ íŀĪ
ê³ł ì¿ł
ĠëłĪ ì§Ģ
Ġê°Ģ ìĥģ
íĨł ìĬ¤
ëĶ ľ
Ġë³´ íĹĺ
ëį° ìĿ´íĬ¸
ĠìŀĪìĹĪëĭ¤ ê³ł
åĽ ½
Ġíķľ ìĿ¼
ë¸Į ë¦¬ì§Ģ
å¯ §
Ġìķ¨ ëŁ°
Ġë²Ĺ ìĸ´ëĤĺ
æ ¹
Ġì¢Į ìļ°
ç ģ
ëĿ¼ ë¥¼
Ġìĺģ íĺ¼
Ġëĭ¨ ì¸µ
ë§ ·
ĠìĤ¬ ì´Į
ëĲĺ ì§Ģë§Į
Ġë§Į íķľ
íıī íĻĶ
ìĹ¬ ëĭ¨
Ġìľł íĨµ
Ġë§Į ëĭ¤
Ġì±ħ ìŀĦìĿĦ
ĠíĮ ĶëłĪ
íŀĪ ë©Ķ
Ġëĵľ ë¦¼
Ġë²Ī ì£¼
Ġë°ĺëŀĢ ìĿĦ
Ġê°Ģ ê³ł
Ġíķ© ëıĻ
ì¤ĳ íķľ
ë¡Ģ ë¥¼
Ġìĭ±ê°Ģ íı¬ë¥´
ĠìĽ °
ë¬´ ìĬ¤
ë¦¬ ìļ°ìĬ¤
Ġ9 5
ĠìĬ¤ íĭ¸
ĠëıĦì¿ł ê°ĢìĻĢ
éł Ĩ
Ġì£¼ ìłľê°Ģ
Ġì¶Ķê°Ģ ë¡ľ
Ġë°© ìĸ¸
Ġë¯¸êµŃ ê³¼
ìĬ¬ ëĿ¼ë¹ĦìķĦ
ĠíĶ½ ì²ĺìĬ¤
ì¡± ìĿ´
Ġíİĺ ìĬ¤íĭ°ë²Į
ĠíĶĦë¦¬ ëĵľë¦¬íŀĪ
Ġë± Ģ
Ġìĺ¤ ìĿ´
ë¬´ ê¸°
Ġì§Ģ ë°Ķ
ĠëĤ¨ ìĸĳ
ĠíıŃ ëł¥
ìºĲ ìĬ¤íĮħ
Ġìĭ¤ ëĤ´
ìĹĲìĦľ ë¶ĢíĦ°
ĠF ran
ĠìķĦ ë¹ł
Ġìŀ¬ ëĬ¥
è ¬
ĠìĿ´ìĥģ ìĿ´
ìĬ¤íħ Ķ
s ite
ìŀ¬ ìľĦ
Ġë§Į íĻĶê°Ģ
Ġì¸¡ ë©´
ĠìĤ¬ ìļ°ìĬ¤
Ġìłķ ìĽĲ
Ġíİ ĳ
Ġë°ľ íĥģ
Ġíģ´ ë¦¬
ĠìĤ¬ëŀĳ ìĿĺ
ë§Ī ë±Ģ
ĠHist ory
íĶĦ ìĬ¤
ĠìĿ´ ê²½
Ġíĥ ĵ
ìĺ¤ ë¡ľ
ĠíĥĢ ì¼Ģ
ìĭ¤ ë¡ľ
æ´ ¾
Ġì°© ìļ©
Ġì§ĢëĭĪ ê³ł
ìķĦë¥´ íĹ¨íĭ°
ĠëĮĢ ëıĻ
Ġë³´ ìĿ´ì§Ģ
Ċ ĠĠĠ
Ġë§Ĳ ìĿ´
Ġë Ŀ½
ìĪĺ ìĹĺ
Ġê³ł ë²ł
ĠìŀĲë¦¬ ìŀ¡
Ġì§Ģ íĸ¥
Ġê°ľ ë°©
ĠëĲĺ ëıĮ
ëĵ± ë¡Ŀ
Ġê°ľ ëŁī
ìľł ê°Ģ
Ġë¬¼ ìĿĦ
Ġê¸° ëĭ¤
ĠìĦł íı¬
ìĻ¸ êµŃ
he l
he m
ê²½ê¸° ëıĦìĿĺ
ê°ķ ìĹĲ
Ġê·¸ ëŀľëĵľ
Ġìĺģ ê´ĳ
ìĦ¸ ìļĶ
194 3
b le
Ġê·ľ ìĬĪ
ê¸° ê³Ħ
ĠìĿ¸ ê¸°ê°Ģ
ì¸ł ìĿĺ
Ġëĵľ ëŀĺíĶĦíĬ¸
Ġå ī
ĠìĤ¬ ì¿łëĿ¼
Ġê·¼ ë¡ľ
Ġë°ĿíĺĢ ì¡Įëĭ¤
ĠìĿ´ìĻ¸ ìĿĺ
ê°ľ êµŃ
ëª¨ ëĭĪ
ĠìĥĪ ë²½
Ġ6 00
ĠìĿ´ ìĽĲ
ì¹´ ë¥´
ĠìĦľ ìĪł
ĠIn ternational
193 6
Ġê¸°ë¡Ŀ ìĿĢ
èı ¯
ëĵ± ìĿ´
ë¥ĺ ëĬĶ
ĠB BC
ĠìĤ¬ìĿ´ íģ´
Ġê³ł ìľĦ
Ġì°¨ ëĭ¨
ĠíĻĶ ëł¤
ĠíķŃê³µ ê¸°
ìĥģ ìĹħ
Ġì´Ŀ ìŀ¬
è· ¯
ë²ķ ë¥ł
Ġíķł ë¨¸ëĭĪ
ĠíĻľìķ½ ìĿĦ
ĠìĹ° ë£Į
ìĽ¨ ìĿ´íĬ¸
ĠëĮĢ ë³Ģ
ê·¸ ëĿ¼
Ġë¬¸ìłľ ìĹĲ
ĠìĿ¸ ëıĦìĿĺ
Ġê ¿
Ġë¸ĮëĿ¼ì§Ī ìĿĺ
æĺ Ł
ê²°ìĬ¹ ìłĦ
ë¦° ìĿĺ
Ġìŀ¬ íķĻ
ëŁ° íĬ¸
ëĬĲ ëĥĲ
ìķĦ ëĵ¤
Ġì² ©
ĠG l
o o
ĠìĦ¤ë¦½ ìĿ¸ê°Ģ
Ġëªħëł¹ ìĿĦ
ĠíĽĦ ìŀĦ
ë¹Ħ íŀĪ
Ġê·¸ ëŀĳ
ĠìĨĲ ìĿĦ
ĠìĬ¤ íĨ¤
ĠìĻ¸ ë¬´
ìķĦ ê³¼
Ġìĭľ ë§Ī
ĠìļĶ ë¯¸
Ġë°© ìĭĿìĿĦ
ĠìĦľìļ¸ ìĭľ
ĠìĤ¬ íĩ´
Ġìĥģ ìĿĦ
íĬ¸ ì½¤
Ġì§Ģ ìłĲ
ìłľ êµŃìĿĺ
19 30
Ġì¢ĭ ì§Ģ
ì°½ êµ°
å® ĭ
Ġíķľ íĻĶ
ĠG r
ìľ¡ êµ°
Ġd es
ëª¨ ê°Ģ
ĠìĿĮ ìĦ±
Ġíĺ¸ íĿ¡
ìĭľë§Ī íĺĦ
Ġëĭ ®
Ġ5 6
ì´Ŀ ìŀ¥
ĠCom m
ìķĪ ìĿ´
O K
Ġ áĦ
ë¦° ìĿĢ
ëł¹ ìĿĺ
Ġê°Ģ ë§Ī
ĠìĦ± ì§ģ
Ġíģ¬ ëĭ¤
ĠìĦłìĪĺ ëĭ¨
Ġê²° ìĿĺ
Ġì´Ī ìĹĲ
ĠíĹĪ ê°Ģ
åĲ Ī
ìĨį ìĿĺ
ë¹ ¨
ĠíķŃ ìĿĺ
ĠëĮĢ ìļ°
Ġì§ĳ íķĦ
ì¡° ì°¸
ìĿ´ ëŁ¬íķľ
ìħ ¸
Ġë§Įëĵ¤ ê¸°
ĠêµĲ êµ¬
Ġëªħì¹Ń ìĿĦ
Ġê° ±
ĠìĹ°ê²° ëĲĺìĸ´
T P
è ĳ
Ġë ¼Ī
ĠëĲĺ ëĬĶëį°
Ġëªħ ëĤĺëĿ¼
Ġê²ĮìŀĦ ìĿĺ
ĠìĬ¤ë¯¸ ìĬ¤
Ġê°ľ ì²´
åĲ į
Ġìĺģ êµ¬
ëŁ¬ ë¸Į
íİ¸ ìĿĺ
ì¡° ì°¨
Ġìĭł ìĿĺ
ĠíĶĦë¡ľ ìĿ´ìĦ¼
ìĬ¤ì½Ķ íĭĢëŀľëĵľ
ĠìķĪ íĨłëĭĪ
ë¸ĮëĿ¼ ì§ĪìĿĺ
Ġë¹¨ ê°Ħ
Ġì§Ħíĸī ìŀĲ
ìķĦì¹´ ëį°ë¯¸
Ġë¦¬ ìĬ¤íĬ¸
ĠìĹĨ ê²Į
us s
ĠìĻĢ ì¹´
Ġë³µ ìĿĮ
Ġì¹´ ë©Ķ
Ġë£¨ ë§ĪëĭĪìķĦ
Ġì§ĢìĨį ìłģìľ¼ë¡ľ
íķĺ ë¥´íĬ¸
Ġíķľ ìĭł
ëłĪìĿ´ íĦ°
Ġì£¼ ìŀ¥ìĿĦ
íķŃ ìĿĦ
íģ¬ ëĿ¼
ĠìłĦìŁģ ìĹĲ
at er
Ġê·¼ì²ĺ ìĹĲ
ë¯¼ ìĿĺ
ĠìĺģêµŃ ìĹĲìĦľ
ĠëĿ Ħ
Ġë©¸ ì¢ħ
ĠìĿ´ ë¥¸ëĭ¤
åĲ İ
íļĮ ê´Ģ
ĠD ay
Ġëĵ±ìŀ¥ íķľ
ìļ© ìĿĺ
ĠíĻķ ìĤ°
âĹ ı
Ġëį°ë·Ķ íĸĪëĭ¤
æ¨ Ĥ
ëıĮ íĶĦ
ĠëıĦ ìĦľ
Ġêµ° ìĿ´ëĭ¤
Ġìĺģ ìĽĲ
Ġìĭł ëıĦ
Ġìĸ´ë¨¸ëĭĪ ëĬĶ
ìĬ¹ ê°ķ
ì´Ī ìĹĲ
ê¸Ī ìĿĢ
ëĲĺ ê±°ëĤĺ
ìĹ° ê·¹
íĥĢ ì¼Ģ
íģ´ ëłĪ
Ġì§Ģìĥģ ìĹŃìĿ´ëĭ¤
Ġë°©ìĨ¡ ìĿĦ
ë¥´ ë°Ķ
ëıĦ ìĤ¬
íĮĮ ìĿ¼
ĠìĤ¬ëŀĮ ëĵ¤ìĹĲê²Į
ĠìķĦëĵ¤ ìĿ¸
Ġê³ł êµĲ
ĠìĤ¬ìļ© íķĺìĺĢëĭ¤
Ġë³Ģ ìĭł
Ġë³µìŀ¡ íķľ
ĠU N
åħ §
ìĿ¸ ëıĦìĿĺ
ĠA nd
ë İ
ìĹŃ íķĻ
ĠíŀĪ íĭĢëŁ¬
ĠìĤ¬ê±´ ìĿĺ
Ġì°© ê³µ
Ġì ¥¬
ìľł ë¡ľ
ëĬ¥ ëł¥
ìĺ ·
ëĤĺ ë§Ī
Ġì±ħ ìĿĦ
Ġ19 00
Ġê¶Į ëł¥
Ġ19 12
f er
ĠìĤ¬ ê²©
ĠëłĪ ë²¨
ë°ľ ìĿĦ
ĠìĪĺ ë£Į
ĠR ev
ĠìĿ´ ë³µ
ĠìŀĪ ìĿĮ
in c
ë³ĳ ëĮĢ
Ġê·¸ê³³ ìĹĲìĦľ
Ġê°Ģ ë¯¸
ĠíĺķìĭĿ ìľ¼ë¡ľ
ìĭľ ìĬ¤íĬ¸
an a
Ġëį°ë·Ķ íķĺìĺĢëĭ¤
ê¸° ë³¸
Ġì§ģ ìłĦ
éĩ į
ĠC F
ĠìĦ¸ ëł¥ìĿĦ
ìĨį ìĹĲ
ĠìĬ¹ ë¶Ģ
Ġìŀ¬ ìŀĦ
Ġë¸Į ë¡ľ
ëĶĶìķĦ ëĿ¼ë¹ĦìķĦ
ĠìĦłìĥĿ ëĭĺ
ìłĦ ì²´
Ġìŀ¬ ìĤ°
ĠìĿ´ìłĦ ìĹĲëĬĶ
) -
Ġìŀħ ë²ķ
Ġë³Ħ ëıĦìĿĺ
Ġ ex
ĠìķĦ ì¼Ģ
ìĿ¸íĦ° ëĦ·
a ir
æ Ĩ
ĠìŀĲ ê°Ģ
L A
Ġê°Ĳ ìĭľ
ĠëĮĢì²´ ë¡ľ
ì°¸ ìĹ¬
ç¦ ®
Ġì§Ģ ì§Ģë¥¼
Ġëª¨ íĦ°
ĠìĹ¬ ìĪĺ
Ġìłķ ë¥ĺ
ĠY ork
ë°ľ ë§¤
íķľêµŃ ë°©ìĨ¡
åŁ º
eb site
Ġ rowspan
Ġëŀ ĳ
Ġë§ĲëłĪìĿ´ ìĭľìķĦ
ĠìķĪ íĥĢ
ĠìĻ¸ ê³Ħ
Ġâ ī
ĠìĹ¬ìĦ± ìĿĺ
Ł Ī
r al
ĠìĺĪ ë°©
Ġê´Ģ ê°Ŀ
ĠëĮĢ ëŁī
å Ķ
ĠìĿ´ë£¨ ëĬĶ
Ġìħ Ķ
ĠìĦ¼ íĬ¸
ĠìĨĮ ìĬ¤
Ġê³³ ìĿ´ëĭ¤
é» ĥ
ìĸ´ íĬ¸
Ġìĺ¬ë¦¼íĶ½ ìĹĲ
Ġìľ Ĺ
íıī ìĿĦ
ìļ´ íĸī
ĠëĶ° ìĦľ
r is
ĠëĮĢìĥģ ìĿ´
íĶĦë¡ľëĵĢ ìĦľ
l i
Ġë¶Ħ ìŀĲ
ĠíĬ¸ ëĿ¼ìĿ´
Ġë§ŀ ìĦľ
Ġìłĳ íķľëĭ¤
Ġíĺ¼ ìĿ¸
ì¹¸ ìĦ¼
ë© Ģ
ìŀĲ ë§¤
Ġìı ĺ
Ġìľł ì¹ĺ
ĠìĤ° íķĺ
ĠëĤ¨ ìª½ìľ¼ë¡ľ
ĠSc i
íĽĦ ìĹĲ
ĠìĻķ ìĿ´
ë§Į ìĽĲ
Ġì£¼ ë¦½
Ġíķ´ ë°ľ
Ġ Ã
ì¹´ ë¥¼
Ġë§Ī ìĤ°
âĢ ¢
ĠìĦ¸ê³Ħ ìłģìľ¼ë¡ľ
ĠìĿ´ìĸ´ ì§ĢëĬĶ
ìĺģ ìĤ¬ê´Ģ
Ġê³µ ë£¡
çī ©
Ġì¤Ħ ìĸ´ëĵ¤
Ġë§Īì²ľ ë£¨
ĠG e
ë¦¬ ìĹĲìĦľ
ë¶Ģ ìŀĳ
ĠëıĻ ë°ĺ
ìľł íķľ
ìĪŃ ìĿ´
ĠS P
Ġì°¨ ëĤ¨
Ġì·¨ ë¦¬íŀĪ
ì¤ĳ ìĭ¬
ãģ ¦
æĹ ı
Ġëª¨ ìĿĮ
ĠíķľêµŃ ë°©ìĨ¡
íĥĦ ìĥĿ
ĠìĤ¬ê±´ ìľ¼ë¡ľ
ĠíĬ ľ
Ġì´Ī ê¸°ìĿĺ
ĠìĬ¤ìĽ¨ëį´ ìĿĺ
Ġê·¸ ëĿ¼
ĠìĦ± ì§Ī
Ġìĺ¤íĶĦ ëĭĿ
ĠìĪĺ ìĪł
ìĭ¤ ìĹĲìĦľ
ìľĪ ëıĦìļ°
Ġì¶Ķ ë°©
Ġê°Ħ ëĭ¤
ìĦ¸ ì¸ł
Ġë©Ķ íĬ¸ë¡ľ
ìłķ ìĥģ
Ġê¸ī íĸī
èĭ ±
ĠìĨĮìĨį ìĿĺ
Ġë¶Ħìķ¼ ìĹĲìĦľ
ĠìĤ¬ íĺķ
ĠëĤ¨ ëħĢ
ĠëıĻ êµ¬
Ġìĭł ë¶Ģ
ĠM on
Ġë°Ŀ ìĿĢ
ë²¤ ì²ĺ
ãĤ ·
Ġë°Ģ ëĿ¼ëħ¸
d u
Ġë°ĺìĿĳ ìĿĦ
ìĹ° ìĿĦ
ĠA P
ç¦ ı
ĠìĦłì¶ľ ëĲĺìĹĪëĭ¤
Ġì§Ģ êµ¬ìĿĺ
Ġìľł ì¹ĺìĽĲ
Ġìĸĳ ìª½
ĠìĿ´ ìĪľ
ìĤ¬ ì¶Ķ
Ġê³µê°ľ ëĲĺìĹĪëĭ¤
Ġìĥģ ìĭ¤
íĻĺ ìľ¼ë¡ľ
Ġë°Ģ ëł¤
ĠëıĦë¡ľ ìĿ´ëĭ¤
ĠëĤł ê°ľ
Ġì¡°ê±´ ìĿĦ
ĠìŀĳíĴĪ ìĿĺ
ĠìĬ¤íĬ¸ ëĿ¼ìĿ´
Ġê² ī
Ġê°Ģ ëģĶ
ĠìĿ¼ ìĿĢ
ĠëĤĺíı´ëłĪ ìĺ¹
ĠìĦł íĺ¸
íĸĪëĭ¤ ê°Ģ
Ġë¶Ģ ì§Ħ
ëħĦë¶ĢíĦ° ëĬĶ
ëª ¸
Ġë°ľìĥĿ íķĺìĺĢëĭ¤
Ġìĭ¤ ì²ľ
Ġ19 07
Ġì²« ì§¸
ĠìĿ´ ìĺ¨
Ġë°ĽìķĦ ëĵ¤ìĿ´
éĽ ²
ĠëĤ© ì¹ĺ
Ġê¶Į ë¦¬ë¥¼
ĠíİĺìĿ´ìĬ¤ ë¶ģ
ĠìĪĺ ìĨĮ
Ġë§Ī ì£¼
ìķĦ íĬ¸
ì£¼ ìĭĿ
ĠìĤ¶ ìĿĦ
ĠëĬ ĳ
ĠíĽĦë°ĺ ê¸°
Ã Ń
Ġë§Į ëĤľ
ĠW WE
Ġê¶Į ëł¥ìĿĦ
Ġëĭ¤ìĿ´ ìķĦ
ĠìŀĲ ëĿ¼
ĠìĿĺ ìŀ¥
íĽĦ ì§Ģ
ì½Ķ ëĬĶ
ĠíĨłë¡ł íĨł
Ġë°ľ ëłĮ
4 00
ĠìĬ¤ ì¹´ìĿ´
ê¸° ëıĻ
ë¸Į ë£¨
Ġìĺ¤ ëĬĶ
ĠS M
Ã ³
Ġë¦¬ ê°Ģ
ë¹ µ
ìłķ ìĭł
ĠìĨĮìĦ¤ ìĿĦ
Ġì§Ģ ë¶Ī
Ġê°ľ ìŀ¥
ë¦Ħ ìĿ´
Ġìĥģ ë¬´
Ġë¬´ ìĿ¸
ĠìŀŃ ìĬ¨
ëª¨ ë¡ľ
Ġìŀ¬ ìĥĿ
ĠìĿ´ë¡ľ ìį¨
ĠëĤ¨ ê²¼ëĭ¤
íĻľ ëıĻìĿĦ
ĠìķĦ ë²ł
ê³µ ìĤ¬ìĿĺ
ìĹħ ì²´
íıī êµ°
ĠëĵľëĿ¼ë§Ī ìĿ´ëĭ¤
ìļ° íģ¬ëĿ¼ìĿ´
Ġê´Ģê³Ħ ë¡ľ
ë§Ī ëª¨íĨł
Ġíĺģ ìĭł
ìļ° ìĬ¤ëĬĶ
Ġìľł ìĦ±
ĠìľłëĭĪë²Ħ ìĭľìķĦëĵľ
ê¼ ´
ĠìĭŃ ìŀĲ
Ġê¸°ë¡Ŀ íķĺë©°
ĠIn d
ĠìĿ¼ìľ¼ ì¼°ëĭ¤
Ġì°¸ìĹ¬ íķľ
Ġê³ł ê³ł
Ġë¬´ ë¦
æ Ł³
Ġìĥģíĥľ ë¥¼
Ġì¡´ ìĬ¤
âĢĻ ,
ë¶Ħ ìĦĿ
ĠíĶĮ ëłĪ
ë²Ħ ìĬ¤íĦ°
ĠìĿ´íĽĦ ìĹĲëıĦ
ĠìĤ¬ ë§ī
ĠR ec
ì§ ±
ê¸° ìĿ¸
Ġê°Ģ ìĦ¤
Ġë¶ģ ìķĦë©Ķë¦¬ì¹´
ĠíķľêµŃ ìĿ¸
ĠíĬ¸ ëŁ¼
Ġìłĳ ìĨį
ĠA ss
ì£¼ ê³¡
Ġìľł íķĻ
Ġ8 00
Ġì§Ģ íĺķ
ë§Ī ìĤ¬
ë¯¸ ìĹĲ
Ġì²Ń êµ¬
Ġê°Ģ ìĤ¬
ĠìłĦ ìĽĲ
ìĹŃ ìĹĲ
Ġëĭ¤ìĿĮ ìĿĺ
åŃ «
íŀĮ ëĭ¤
ĠìĿ´ íĸī
Ġê°Ģ ê¹Ŀ
ĠìĿ´ëģĮ ìĹĪëĭ¤
Ġì¼ĢìĿ´ ë¸Ķ
ëĤĺ ë¥¼
ĠìĿ´ë¥´ ëłĢëĭ¤
Ġìµľ ëĮĢìĿĺ
ĠëĶĶ ì¦ĪëĭĪ
ĠëĲĺ ê¸°
ĠíĮ ©
al d
ĠëĮĢíķľë¯¼êµŃ ìĹĲìĦľ
Ġì¶©ë¶Ħ íŀĪ
êµŃ ë¦½
ë£¨ ê³¼
åħ Ń
Ġêµ¬ìĦ± ëĲľëĭ¤
ĠìĬ¤ ì½§
ë²¨ ê¸°ìĹĲ
Ġê¸°ë¡Ŀ ëĲĺìĸ´
Ġìľł ë°ľ
Ġì°¨ ê´Ģ
Ġëĭ¨ìĪľ íķľ
Ġì£¼ ì§Ģ
Ġêµ¬ ë©į
ë°° ë¥¼
æ¬ Ĭ
Ġê³ł ê¸ī
Ġë¦¬ íĭĢ
Ġíĺ¸ ì£¼
íķľêµŃ ëĭ¹
ĠĠĠ ĠĊ
Ġê·¸ ë§Į
Ġíĺ¸ ëĬĶ
Ġìĭł ìŀ¥
ãģ ¾
ê²Į ëĬĶ
ĠëıĦ ë©Ķ
Ġëª» íķĺìĺĢëĭ¤
ĠíħĮ ëĭĪìĬ¤
os s
Ġ19 17
Ġë³´ ë¥´
ĠëĮĢ ì¡°
ìĦłê±° ê´Ģë¦¬ìľĦìĽĲíļĮ
ëĭĪ ê¹Į
ĠìłĦìŁģ ìĹĲìĦľ
ĠìĦľ ëªħ
Ġìķŀ ìľ¼ë¡ľ
ëģ¼ ë¦¬
ê²½ì°° ìĦľ
ĠìĿ´ íĺĦ
ê°ķ ìĿĦ
Ġì¡ ¸
if ic
ĠëĤ ±
è² ŀ
Ġë°©ë²ķ ìĿĢ
ë¦¬ ìĺ¨
ìĻķ ìĿĢ
E O
íĮ Ŀ
ĠìĪľ ìĦľ
ì°¨ ìĿĺ
ĠëŁ Ń
ì¤ĳ ìĿĦ
ëĳ ł
ĠíĶ¼ ê²¨
íĥĢ ê°Ģ
ìĺ Ľ
Ġì¡°ìĦłë¯¼ì£¼ì£¼ìĿĺ ìĿ¸ë¯¼ê³µíĻĶêµŃìĿĺ
å ķ
Ġê°Ģ ê³µ
Ġìĺ¤ ë¹ł
ê¸° ìŀĲ
Ġê°Ģê¹Į ìĿ´
Ġì ĮĢ
Ġê´Ģ ìĭ¬
ĠSt ud
ìĭľ ìłĪ
S K
ìĥĿ ëªħ
Ġìŀħ ìĤ¬
ìĦłê±° êµ¬
Ġíĳ¸ ë¥¸
ĠíĿĳ ìĿ¸
Ġê°ľëħĲ ìĿĦ
Ġìĭ« ìĸ´
ĠìĿ´ ì§Ħ
Ġêµ¬ ë¯¸
íĶĮ ëŁ¬
ĠìĨĮ ìĭĿìĿĦ
Ġì¶Ķ ìłģ
ìĻ Ī
ĠO f
ĠìŀĪ ìľ¼ë¯Ģë¡ľ
ĠìĿ¼ ìĥģ
ì½Ķ íĨł
ĠíķĻ ìŀĲ
íĭĢ ëŀľ
ë©ĶìĿ´ íģ¬
ĠëĦ£ ìĸ´
ê³ °
âĢ Ķ
Ġê·¸ë¦¬ ìĬ¤ìĿĺ
ëĨ Ī
Ġíķľ ìĸĳ
Ġìŀħ ìĿĢ
Ġê°Ģ ìĵ°
ë§Ī ëĬĶ
ĠìĿ´ë¥¸ ë°Ķ
Ġåī į
M B
ë Ŀ
Ġê²½íĸ¥ ìĿ´
N S
ĠíĻ Ģë¡ľ
íĺķ ìĤ¬
ë©Ķ ë¥´
ëł¬ íķľ
up er
Ġì»¤ë®¤ëĭĪ íĭ°
ë ´Ħ
ëĭ¤ ëĭĪ
ĠA C
Ġíģ¬ë¦¬ìĬ¤ ë§ĪìĬ¤
Ġì£½ ìĿĮìĿĦ
Ġë²Į ìĸ´ì§Ħ
ĠìĿ¼ìľ¼ ì¼ľ
ëĲĺ ê²Į
P ro
Ġë°©ìĨ¡ ëĲľ
ĠìĿ¼ë³¸ ìĸ´
ĠìŀĦ ë¬´ë¥¼
ĠìĹħ ë¬´ë¥¼
Ġì¢ħë£Į íķľ
ãĢı (
' t
Ġì± Įë¦°
Ġíģ¬ ë¦¼
ĠìĿ´ ëĵ¤ìĿ´
ìĤ¬ ìŀĲ
Ġì¶ľìĹ° íĸĪëĭ¤
ë³¸ ìĿĦ
ĠìĹĲ ëĶĶ
åŃ ¦
ĠìĨĮ ìļĶ
ëĶ° ëĿ¼
Ġìĭ¸ ìļ°
Ġíĥĳ ìĬ¹
ëĵ Ī
ì¹ĺ íĺĦ
ar a
Ġëª© ìĪ¨
Ġíģ´ ëĿ¼ìļ°
ĠëıĻìķĪ ìĹĲ
ĠA g
Ġê³µ ìłķ
Ġíķ´ íĺĳ
ë°Ķ ìķ¼ìĭľ
ĠëĤĺíĥĢ ëĤ´
íķĺ ë¥¼
ìĹ´ ìĿĦ
L G
ì¡°íĮĲ ìĦľ
ĠíĨł ë§ĪìĬ¤
Ġê³ĦìĨį íķ´ìĦľ
ĠíķĺìĹ¬ ê¸Ī
Ġê°ľ ìĿ¸ìĿĺ
ĠìĪĺìĥģ íķĺìĺĢëĭ¤
ĠìĿ¼ ëł¨ìĿĺ
c on
Ġë¸Į ëŀĺ
ĠìŀĲ ë¬¸
ìķ¼ ìĬ¤
ç ħ
Ġë¦¬ ëĵ¬
ĠìĤ¬ ëıĦ
ĠìĤ¬ ì¹´
ì¦Ī ë¥¼
íħĮ ìĬ¤
ìļ´ íĬ¸
ëľ »
íķĺê¸° ë¥¼
ì¹ĺ ë£Į
ìŁģ ìĿ´
Ġêµ¬ìĦ± íķĺëĬĶ
Ġì¶Ķ ëĿ½
ĠìĿ¸íĦ° íİĺìĿ´ìĬ¤
Ġìĭľ ë¦½
ëĶĶ ìĸ¸
ê·¼ íĺľ
Ġìĩ¼ íĬ¸
Ġíķ´ ìłģ
ed ia
ev er
ep h
Ġê³µìĤ° ëĭ¹
ĠëĤ´ ëĨĵ
Ġìĥģíĺ¸ ìŀĳìļ©
Ġ5 3
Ġëĵ¤ ë©´
ìĭ¤ ë¡Ŀ
ë§Ĳ ë¡ľ
ìĤ¬ ìŀ¥
ĠëĤ´ ìĦ¸
Ġê·¸ëħĢ ê°Ģ
Ġë¶Ģ ë¥´ê³ł
íĮĲ ìĿĢ
Ġë§¤ ìŀ¥
Ġë§Ĳ íķ´
Ġê°Ģ ìĨį
ì´Īëĵ±íķĻêµĲ ë¡ľ
Ġë¬´ ë£Į
ĠT BS
Ġíķĺ ê¸°ëıĦ
íĺ¸ ìĻĢ
Ġê´ĳ ë³µ
ëĤ´ ìĿĺ
ĠíħĮ ìĿ¼ëŁ¬
Ġë¶Ħë¥ĺ êµ°
ìĺģ ìĿĦ
ĠA p
ĠìķĦëŀĺ ìĹĲ
Ġå ½
èĩ ª
8 00
E E
Ġíľ´ ëĮĢ
s ch
ëŀĢ íĬ¸
Ġë¶ģ ìª½ìľ¼ë¡ľ
Ġìļ° ìĿµ
Ġë¯¸ íĤ¤
ĠíĶĦë¡ľ ë¦¬ê·¸
ë°©ìĨ¡ ìĿĺ
ĠíļĮ ìĤ¬ìĿĺ
ĠìĺģíĻĶ ìĿĺ
Ġê²Į ëĭ¤ê°Ģ
Ġë§Ī ëĿ¼
ìľ¨ ìĿ´
ĠìķĦìĭľìķĪ ì»µ
o on
ëł ģ
Ġê·¸ ëĵ¤ìĿĦ
ë°ĺ ìĿĳ
in i
Ġìĺ¬ë¦¼íĶ½ ìĹĲìĦľ
ĠCol le
Ġìłķ êµĲíļĮ
ĠìĪĺ ìĭŃ
ë°ĺ ìĿĺ
ĠìľĦ ìĹĲìĦľ
Ġë³¸ ëĭ¤
Ġë¯¼ ìĺģíĻĶ
ĠíķĺëĤĺ ê°Ģ
íĿ Ķ
Ġëĭ¹ìĭľ ìĹĲ
ìłĦ íķľ
ĠíķĻ ìĽĲ
Ġìļ´ ìĨ¡
av e
äº ķ
Ġëĭ¨ìĪľ íŀĪ
ë² ¼
ë¡ł ìĹĲ
ĠL ife
ĠìĬ¤íģ¬ ë¦°
íĸĪ ìĹĪëĭ¤
as on
ĠìĻķ ë¦½
ìľ Į
ë³´ ë¡ľ
ion s
ë°ĶìĿ´ ëŁ¬ìĬ¤
ëħ¸ ìĿĺ
ĠìķĶ ì»·
ĠìĹŃìŀĦ íķĺìĺĢëĭ¤
Ġë§Ĳ ë¡ľ
ĠìĤ¬ ì°°
ìĪĺ ìķĦ
ë¶Ħ ë¥ĺ
Ġëį°ìĿ´íĦ° ë¥¼
ìĤ¬ì¶Ķ ìĦ¸ì¸ł
ĠìĹĶ ëĶ©
ìĭł íķĻ
Ġëª¨ ìŀĦ
Ġìµľ ìĥģ
Ġê³Ħ ìłĪ
ê³µ ìĿĦ
ĠìĽĲ ìĿ¸ìĿ´
Ġë°ľíĳľ ëĲĺìĹĪëĭ¤
ĠëłĪìĿ´ ë¸Ķ
æ İ
ĠìĦ¸ ë¶Ģ
Ġê± ·
íĨł ë²¤
ĠìĿ´ ì¤Ģ
ëĭĪ ìĹĲ
Ġê¾¸ ì¤Ģ
ch n
Ġê³¤ ì¶©
Ġë§Īì¼Ģ íĮħ
ĠíĮĮ íĤ¤ìĬ¤íĥĦ
Ġë¹Ħë¡¯ íķĺìĹ¬
æ² »
Ġê³łëł¤ ëĮĢíķĻêµĲ
ä½ Ľ
Ġë§¨ ì²´ìĬ¤íĦ°
ĠìĤ¬ëł¹ ê´Ģ
ĠCount y
Ġê°Ģ ëĿ¼
Ġì§Ģ ì¤ĳ
ĠëıĻ íĻĶ
ĠíĮĮ ìļ¸
ĠìĹ´ ë§¤
Ġì§Ģ ì§Ī
íķ´ ìĹĲ
ì£¼ ì¿ł
Ġê¸°ëħĲ ë¬¼
æ³ °
Ġêº ¼
ĠìĿ´ìļ© íķł
Ġë¡ľë§¨ ìĬ¤
Ġëª¨ ë¡ľ
Ġì£¼ìŀ¥ íķĺëĬĶ
M ar
Ġì°¨ì§Ģ íķĺê³ł
ĠĠ ĠĊ
ĠìĬ¤íĥĢ ìĿ¼
Ġê²© íĮĮ
ĠìĤ¬ íļĮìĿĺ
ĠëıĦ êµ¬
Ġì¶ķ ìĨĮ
Ġë§¤ ê°ģ
ë³´ ìĿĺ
Ġì¡°ìĦł ìĭľëĮĢ
ĠëıĻìĦ± ìķł
Ġë¹Ħ ë¡ĢëĮĢíĳľ
ëĿ¼ìĿ´ ìĸ´
Ġë¬¸ìłľ ëĬĶ
ĠìĹŃ ìĹĲìĦľ
åĪ ¤
Ġëħ¸ëıĻ ìŀĲ
ìĪľ ìľĦ
Î ±
ĠëĮĢíķľë¯¼êµŃ ìĿ¸
íħĮ ìĵ°
íĶĦë¡ľ ê·¸ëŀ¨
ê°Ģ ëĤĺ
íĺķ íĥľ
ĠìķĦëŀĺ ìĻĢ
r ight
ĠíĬ¹ ê¸ī
st it
id th
íĬĢ ë¥´íĤ¤ìĺĪ
Ġê´Ģ íķĺìĹ¬
Ġíģ¬ë¦¬ìĬ¤ íĨł
Ġë¶Īê°Ģ ë¦¬ìķĦ
ìĬ¬ ë¦¼
Ġë¯¸ ì¦Ī
ë£¨ ìħĺ
ĠíĥĢ ìļ´
Ġë» Ĺ
ĠìĹĲ ìĬ¤íĮĮ
I ON
ĠìĤ¬ê±´ ìĹĲ
ĠìĹħ ëį°ìĿ´íĬ¸
ĠìĻ¸êµĲ ê´Ģ
ëŀĢ ëĭ¤
ì²ľ ë©´
ĠíĸĪ ëĬĶëį°
Ġê¸´ ê¸ī
ë¦¬ì¼Ģ ìĿ´ìħĺ
ëıĦ ëĭĪìķĦ
ìĹŃ ê³¼
ëĦ ¥
ĠíĽĦ ìĿ¸
âī «
Ġê°ķ ìĪĺ
Ġíķ¨ ê²½
ĠëĮĢ ëĮĢ
ë¡ľ ì§Ģ
Ġê±° íĸī
Ġì´Ī ê¸°ìĹĲ
ace ae
íĦ° ë¯¸ëĦĲ
Ġë¬´ ëĿ¼
ëł¸ ìľ¼ë©°
Ġs p
ê²ĮìĿ´ ë¨¸
é Ĭ
ĠëĿ¼ìĿ´ ë²Į
ĠìłĦíĪ¬ ë¥¼
ìŀ¬ ìĿ¸
Ġìĭł ìļ©
ĠD r
ìłĦ ëĮĢ
ĠìĦľ ìĦľ
ĠìĤ´ìķĦ ëĤ¨
ì²ľ ìĭľìĿĺ
ĠíķĺëĤĺ ëĭĺ
íķĻ ìĤ¬
ĠC o
ĠíĶĦë¡ľ íķĦ
Ġë³µ ìĪĺ
Ġp l
ç§ ĳ
ëĿ¼ìĿ´ ëĤĺ
m a
ĠìĨĮ íĻĶ
ĠìĤŃ ìłľ
Ġ19 06
Ñ ĥ
Ġìĺ¤ìĬ¤íĬ¸ëłĪìĿ¼ ë¦¬ìķĦìĿĺ
Ġìĸĳ ìĤ°
ĠíĻĶ ìĦĿ
ìłķ ëıĦ
Ġê°Ģ ëĤľ
ĠìĿ¸ ìĥģ
ìķĺ ìľ¼ëĤĺ
ëĦ¤ ë§Ī
ĠìĿ´ìĥģ ìĿĦ
Ġìŀ¬ ë£Į
ë¹Ħ ìĻĢ
Ġì¡° ë¬¸
ĠìĬ¤ íĥĪ
Ġê°ľ ì²Ļ
Ġì¶ľìĭł ìĿ´ëĭ¤
ç ¢
íĦ° ëĦĲ
æĻ ¯
ë©ĶìĿ´ ìłĢ
ëĪ ħìĬ¤
ì¹Ń ìĿĢ
ê³łëł¤ ìĿĺ
êµŃ ëıĦ
Ġëıħë¦½ ìĿĦ
Ġìļ° ë¦¬ê°Ģ
ĠíĬ¹ íĹĪ
Ġëª» íķľëĭ¤
ĠëĤĺíĥĢ ëĤľ
ĠìĦ±ê³µ íĸĪëĭ¤
ëĵ±ìŀ¥ ìĿ¸ë¬¼
D S
ĠìĤ¬ ê°Ģ
Ġëĵľ ë¬¼
ĠìľłëĮĢ ìĿ¸
ì§ĳ ìĿĦ
ĠíĨł ìļĶìĿ¼
ì© Į
Ġìĭ¬ ìŀ¥
ĠíĬ¹ì§ķ ìĿĦ
Ġ19 05
èĢ ħ
ĠìķĮëłīìĤ° ëįĶ
ìĥĿ ëħĦ
Ġìĥģ ì£¼
Ġíĭ Ī
ĠëıĻ ê²½
Ġëĭ¬ íķĺëĬĶ
ì¶© ë¥ĺ
æ ı
Ġìķ ±
Ġë°© ìľĦ
Ġêµ µ
Ġê¸° ì§Ģ
s k
Ġë§Ĳ ëĿ¼
Ġê²½ê¸° ê°Ģ
ì°¸ ê°Ģ
ĠìķĦë²Ħì§Ģ ê°Ģ
ĠìĦ¸ ìļ°
å° Ļ
ìĤ¬ê´Ģ íķĻêµĲ
ĠìķĦ ê°Ģ
ĠíĺĦ ìŀ¥
S p
it ed
Ġë¶ģ ë¯¸
Ġìļ© ìĤ°
íķĻìŀĲ ìĿ´ëĭ¤
Ġë¯¸ ì¹´
ĠìĦłìĪĺ ìĿ´ìŀĲ
çİ ī
ĠëĤ¨ìķĦ ìŀĪ
ĠíķĦ ë¦Ħ
ìķĦ ìĺ¤
ĠíħĮ íģ¬
é £
ëĭ¤ ëŀĢ
ĠìĹ° ìĦ¸ëĮĢíķĻêµĲ
Ġê·¸ëħĢ ë¥¼
193 8
P D
ìĿ´ ë¦Ħ
íĻĪ ëŁ°
Ġë³´ìĹ¬ ì£¼ëĬĶ
æº Ĳ
Ġë° ¸
Ġíķĺ ì²ľ
ìľł ë¥¼
ë°Ģ íķľ
êµŃê°ĢëĮĢíĳľ íĮĢ
ìĭľ íĶ½
ĠëĤĺ ìĻĶ
ĠíĻ© íĽĦ
Ġì´ī ì§Ħ
ĠìĦľ ìª½ìľ¼ë¡ľ
ìķĪ ìĿĢ
ìĦľ êµ¬
ĠìĤ¬ ëĭ¤
ì¦Ī ëĭĪìĬ¤
ç ĳ
Ġíĺ ¹
ĠìĦ¸ íĬ¸
Ġcl ass
å» º
ìľł íĸī
Ð¸ Ð¹
ê¼¬ ë¦¬
ĠíıŃ ìĬ¤
Ġë¹Į ë¦¬
íĳ ¼
ëıĻ ë¦¬
ê±´ ì¶ķ
ëĿ¼ ëį¸
ĠìĻķ ì¡±
ĠíĨł ë¨¸ìĬ¤
ëĭ´ ëĭ¹
Ġê°ķ ìļĶ
Ġë¡ľ ì¦Ī
Ġëŀ Į
ìĤ° ë§¥
ê³Ħ ë¡ľ
ĠìĨĮ ê·ľëª¨
Ġì§ĳ ìĿĦ
ĠëĮĢíĳľ ë¡ľ
ĠìĦľ ê¸°
ĠëķĮ ë§Īëĭ¤
ĠìĬ¤ë§ĪíĬ¸ íı°
ë¬´ ëĮĢ
ĠíĥĢ ìĽĮ
Ġíĥľ ì¡°
Ġê°Ī ìĥī
Ġê¸°ë³¸ ìłģìľ¼ë¡ľ
ëĿ¼ ê¸°
et y
íĤ¤ ê°Ģ
¼ ìĨĲ
ìĬ¤ íĭ´
íı¬ êµ¬
ë¯¼ì¡± íĸīìľĦ
ëª¨ ìĸ´
ĠëĭĪ ê°ĢíĥĢ
Ġì¶ľìłĦ íķĺìĹ¬
I R
at ch
ĠH ar
C H
Ġìĭ¤ ìĹħ
ĠëıĮìķĦ ìĻĶëĭ¤
éĻ µ
ë°Ķ ëŀĮ
é ľ
Ġìłķ ë¬´
ìĺ¤ ê°Ģ
Ġê¹Ģ íı¬
Ġëªħ ìĭľ
Ġëª¨ìĬµ ìĿ´
íħ Ģ
ĠO S
Ġìŀł ìŀ¬
Ġê°Ģ ìķ¼
Ġìĭł ì¹¸ìĦ¼
ĠìĿ´ ëĤĺ
Ġíķľ ë°ĺëıĦ
Ġì§Ħ íķĻ
ìŀĲíĿĲ ìĬ¤íĥĦ
ĠC J
ĠíĮĮ ìĥĿ
Ġê±¸ ì¹ľ
ì¹ĺ ìĻĢ
Ġë©Ķ ê°Ģ
ĠíĮ¨ ëŁ¬
ìĹ¬ìŀĲ ì¤ĳíķĻêµĲ
Ġíķĺ íĬ¸
Ġìĺģíĸ¥ ìľ¼ë¡ľ
Ġë°ľìĥĿ íķľëĭ¤
Ġíĥľìĸĳ ìĿĺ
ĠìĿĢíĩ´ íķľ
Ġê »
Ġë³´ íİ¸
ĠìłĦ íķľ
ĠëıĻ ê¸°
ìļ° ì¡°ìĹ°
íĿ¬ ìĿĺ
ĠìĪĺì¤Ģ ìĿĺ
Ġê³ °
ĠìĤ¬ê±´ ìĿĢ
Ġë®¤ì§ģ ë¹ĦëĶĶìĺ¤
ê°Ħ ìĿ´
Ġë¶Ļ ìĸ´
íĪ¬ ìŀĲ
Ġëŀ ¨
ĠíĥĦ ìķķ
ë¡ľìĦľ ëĬĶ
ĠìĹ¬ ìĭł
Ġì´Ī ëĵ±
Ġë°± ìĦ±
ĠìĪĺ ë¥¼
ì¦Ī ìĺ¤ì¹´
% ),
l ine
ìĬ¬ ë¡ľ
ĠìĪĺìĥģ ìŀĳ
en e
Ġìķķ ì¶ķ
íķĦë¦¬ íķĢ
è ĺ
Ġ19 08
ĠìĿ¼ ì¢ħìĿĺ
ĠW e
ìĭľ íĶ¼
ĠìĿ¸ ë¥ĺ
Ġëª© ìĤ¬
Ġì§Ī ëŁī
ĠìĬµ ê²©
ì ¥¬
19 20
Ġìłķë¶Ģ ìĹĲ
ìĹ¬ ê¸°ìĦľ
ĠìĨĲ ìĹĲ
åĬ ī
Ġëĭ¤ëĭĪ ìĹĺ
Ġë¬´ ê´Ģ
æ Į
Ġìŀ¥ íİ¸
Ġì¢ĭ ëĭ¤
ë°Ķ íĿĲ
íħĮ ìĬ¤íĬ¸
ë¶ĦêµĲ ìŀ¥
ĠíĬ¸ìľĦ íĦ°
ĠìľĦì¹ĺ ìĹĲ
æī ¿
ì¡°ìĦłë¯¼ì£¼ì£¼ìĿĺ ìĿ¸ë¯¼ê³µíĻĶêµŃìĿĺ
Ġì¹´ ëĤĺ
ë³ĳ ìľ¼ë¡ľ
Ġì²´ íĹĺ
Ġë§Īìĵ° ëĭ¤ìĿ´ëĿ¼
Ġë± ħ
Ġëª¨ ëħ¸
) ãĢī
ĠìĿ¼ ê³±
ãģ ı
Ġë¶Ģ ëĵľ
Ġ5 7
ì ĳ¤
ĠêµĲ íļĮìĿĺ
Ġíı¬ ìĿ¸íĬ¸
yp e
íķĺê¸° ìĹĲ
Ġìĺģ ìĸĳ
ìłĲ ê³¼
æł ¹
ĠëĮĢíĳľ ìĿ´ìĤ¬
Ġë¶Ģë¬¸ ìĹĲ
ĠëıĻ ìª½ìľ¼ë¡ľ
Ġêµ¬ ìŀ¥
ëį°ìĿ´ íĦ°
¾ °
ìĿĮ ëł¥
Ġë°ľ íľĺ
Ġë°° ìłķ
ĠìĹĨ ìĿĮ
åĪ Ĩ
ubl ic
ì¸µ ìĹĲ
Ġì§Ģ ì¹Ń
ĠìĪĺ ë°ĺ
ĠíĶ¼ ê³ł
Ġìłľ ëıĦë¥¼
ĠN C
ĠíĶĦëŀŃ íģ¬
ĠêµĲ ì°¨
Ġì¹¼ ë¦¬
et er
Ġë°ľë§¤ íķľ
é ¢
ê·¸ ëħĢ
Ġì£¼ ìĹĲ
ĠíĮ¨ íĦ´
Ġê²½ ìłĦ
Ġ5 8
on y
Ġíİ Ħ
l o
ë³´ëĭ¤ ëıĦ
ë©Ķ ëĭĪìķĦ
ãģ Į
íĺ¸ ìĹĲ
Ġì¡° ìļ©
ĠìĽĲ íķĺëĬĶ
ìħ ¨
ë¯¸ ëħ¸
Ġë¹ĦíĮĲ ìĿĦ
ëĶĶ ìĿĺ
ĠK ore
Ġë²Ī íĺ¸ëĬĶ
ĠìĦ¸ê³Ħ ë¥¼
193 7
Ġìĺ¤ ìĦ¸
N N
Ġê³µ ê¸°
íĮĮ ìĻĢ
Ġìłľ íĽĦ
Ġêµ¬ê°Ħ ìĿ´
6 00
ìĦ¤ ë¦½
ë »
æ² Ī
ê°Ģ ìŀ¥
Ġì»¤ íĶ¼
ìŀ¬ ë¡ľ
íŀĪ íĨł
ë©Ķ ìĿ´ì§Ģ
íĹ¬ ë¦Ħ
n a
ĠìķĦ ì¦Ī
åŃ Ĺ
íļ¨ ìĨĮ
ëĨį ìĹħ
ç ĥ
ë¯¼ ëĭ¹
ur g
ĠíĥĦ íķµ
ì§Ģ ëĮĢ
Ġíĥ ±
ĠëıĦìĽĢ ìĿ´
ĠìĹĨ ì§Ģë§Į
ĠëĮĢë¶Ģë¶Ħ ìĿĦ
Ġìłģê·¹ ìłģìľ¼ë¡ľ
èī ²
â ĸ
íĤ¤ ìĬ¤
Ġì¢Į ìĿµ
ĠìĭľëĤ´ ë²ĦìĬ¤
ã Ħ
ĠìĦ± ê²©ìĿĦ
Ġêµ° ëĮĢ
íķĺ ëĬĺ
ĠìĤ° íĻĶ
an e
Ġìĭľìĥģ ìĭĿ
êµ¬ ìĹĲìĦľ
Ġíķ¸ ëĵľ
ìłĦ ì£¼
Ġë³´ ìĬ¤íĦ´
ĠìķĬ ê¸°
Ġëªħ ìľ¼ë¡ľ
ìĻķ ìĿĦ
Ġë³¸ íĨł
ĠìŀĪìĸ´ ìķ¼
íı¬ íķŃ
Ġë°ĶìĿ´ ìĺ¬ë¦°
Ġíı¬ ë¥´
è į
ëł ·
ìķ½ íĴĪ
å® £
Ġíķ´ ìłľ
ĠìĨĮ íĺķ
ëĦ¤ ìĨĮ
Ġíĸī ìľĦë¥¼
f ord
ë¦¬ ìŀĲ
íĶĦ ëĿ¼ìĿ´
ĠA b
ĠíķľëĤĺëĿ¼ ëĭ¹
ĠìĤ¬ìĿ´ íĥĢë§Ī
ìļ° ìĺĮ
in o
ĠìĹĺë¦¬ìŀĲ ë²łìĬ¤
k e
Ġ {
ìĥ Į
ìķħ ìĿĺ
Ġê°ĸ ê²Į
ê¸´ ëĭ¤
Ġê³µ íķĻ
ëĭ´ ìĿĦ
æ¥ Ń
ĠìĹ° ìķĪ
at ed
ê²½ê¸° ìŀ¥
t o
Ġë³´ ì¢Į
ê³Ħ ìĻĢ
ĠìĬ¤ ì¦ĪíĤ¤
ãģ ¯
ĠW ill
Ġìķķ ëıĦ
Ġ as
ĠI T
íĮ© íĬ¸
Ġíı¬íķ¨ ëĲľ
h a
Ġê° Ķ
ê¸° ì¤Ģ
Ġì½Ķ ëĤľ
ì¹¨ ìĿĦ
Ġìĭľ ë¡ľ
Ġìĸ´ ëĳĲ
Ġë³¸ê²© ìłģìľ¼ë¡ľ
ë±ħ íģ¬
ëħ¸ ë¶Ģ
ĠíĶĦë¡ľ ëįķìħĺ
Ġìłģ ëıĦ
Ġì½ľ ë¡ľ
ĠìĪĺë¡Ŀ ê³¡
ĠíĨł ëĭĪ
Ġì¦Ŀ ìĸ¸
Ġê¸°ë°ĺ ìĿĦ
íĪ¬ìķĦ ëĭĪìķĦ
Ġê°ķ íķĺê²Į
ì§Ģë°© ê²Ģì°°ì²Ń
Ġë¬¼ ëł¤
Ġê¸° ë¶Ģ
Ġì´Ŀ ê´Ħ
ĠìĿ´ë²¤ íĬ¸
ê¸° ê¸°
çĽ ´
ìĤ¬ íķľ
ĠA M
Ġì¢ħ ìĿ´
Ġíıī ìĥĿ
Ġë¹Į ëĶ©
ë¦¬ íĥĢ
ìĭ¤ ìĹĲ
Ġëį° ëł¤
Ġë§ĪìĿ´ íģ¬
Ġìĭľ ì¡°
ç Ĥ
ë¡ľ ìĹĲ
r ess
ĠëģĿ ìľ¼ë¡ľ
Ġê²½ìłľ íķĻ
ìĺ¤ ë¥´
le x
ĠíĽĦë³´ ê°Ģ
Ġëį§ ë¶Ļ
ĠìķĦ íĶĦê°ĢëĭĪìĬ¤íĥĦ
ìĪľ íĻĺ
) ãĢį
êµ° ëĭ¨
ìĦ¸ê¸° ìĿĺ
ĠìĦ¸ ë¦¬ìĹĲ
ĠíĻ© íĥľ
ì£¼ ë¦¬
Ġâ Ĺ
ê°ĢìĻĢ íĺĦ
Ġìºł íİĺ
ì¼Ģ ìĿ´ìħĺ
Ġì£¼ë³Ģ ìĿĺ
åº ·
ìĸ Ħ
Ġìĭľ ë²Ķ
Ġê°ľ ê·¸
ìĤ° ìĭľìĿĺ
Ġëª¨ ëĭĪ
ĠìĿ´ ìľ¤
ìłľ íĶĦ
ãĢĭ -
ëĥ ī
ëŀĺ ìĿĺ
Ġë²ł ìĸ´
ĠëĮĢíķľ ìłľêµŃ
ì°¨ íĬ¸
íĪ ¼
ì°¨ ìĹĲ
ìĭ¤ ìŀ¥
ĠìĹħ ì²´
Ġ189 6
ëĶĶ ìĹĲ
ìĹ¬ íĸī
Ġê°Ģ ëıĦ
Ġë§Ī ê°Ĳ
Ġë¦¬ ìĸ¼
ĠìĿ¸íĦ°ë·° ìĹĲìĦľ
ë¬¼ ì§Ī
Ġê´Ģ íķ´
ãģ į
Ġë²Ħ ì§Ģ
ĠìŀĲì¹ĺ ì²´
ĠA ir
ĠìĥģíĻ© ìĹĲ
Ġìŀħëĭ¨ íķĺìĺĢëĭ¤
ĠìĹĲ ìĿ´ìĬ¤
ì¡± ìĿĢ
ap an
ì½ĺ ìĦľíĬ¸
Ġì¤ĳ ëıĻ
ìķĪ íĥĢ
ìłģ ìĿ´ë©°
êµ° ëĭ¤
ĠíĬ¸ ëĿ¼
ĠO ne
ìĺĢ ëĬĶëį°
Ġìľł ìļ©
ĠìĨĮ ëĵĿ
ìĤ´ ìĿ´
ãĤ «
Ġì¹ł ëłĪ
ë°Ķ íĥĢ
ĠíķľêµŃ ìĺģíĻĶ
Ġê´Ģê³Ħ ìĹĲ
Ġìĥģíĥľ ê°Ģ
it s
Ġì¿ ¼
Ġë°ľê²¬ íķľ
æ¿ Ł
ĠëĶ ±
íĮĲ ìĹĲ
ëħĦ ë§ĮìĹĲ
Ġìľ Ļ
ĠìĥĪ ëģ¼
ë§Į íĻĶ
Ġëĭ¨ íĸī
ro up
Ġ z
êµĲ ìĤ¬
Ġíŀĺ ëĵ¤
Ġê°ķ ìłĲ
ĠP ol
Ġë³ĳìĦ¤ ìľłì¹ĺìĽĲ
ĠìĺģíĻĶ ë¥¼
;" |
Ġìłģ ìĿĳ
ĠìĻķ ë¹Ħ
ĠìĿ¼ìłľ ê°ķìłĲ
Ġë²ķ íķĻ
ĠìĿ´ ëħĲ
ĠìĤ¬ ìĸĳ
ëĿ¼ìĿ´ ë¸Į
ĠëĦĵ ìĿ´ëĬĶ
193 4
ĠíĪ ´
Ġìŀ Ĭ
ĠìĿ¼ ëĮĢ
ĠìľĦ ìĥģ
ì¢ħ ìĿ´ëĭ¤
ìĽ¨ ìĬ¤íĬ¸
ĠëĮĢíķĻ ìĿĺ
ĠìĿ´ ë³ĳ
Ġë¹ħíĨł ë¦¬ìķĦ
Ġ19 09
ĠìłķìĭĿ ìľ¼ë¡ľ
ìĬĪíĥĢ ìĿ¸
Ġìŀ¥ ê°ĳ
Ġìļ° íİ¸
ë³´ ìķĪ
ë¶Ħ ìķ¼
Ġê³¼íķĻ ê¸°ìĪł
Ġìĭł ê·ľ
Ġìļ° ëĿ¼
Ġìķ¼ ì¿ł
m p
ìļ° ìłĢ
Ġì²Ń ì¶ĺ
ìºĲ ë¡¤
ĠíĶĦë¦¬ë¯¸ìĸ´ ë¦¬ê·¸
Ġìĥģ ìĺģ
ĠìĹ´ ë¦¬ëĬĶ
ĠìĦł ì¡°
ë©´ ê³¼
ìĬ¬ ë¦¬
ëĲ¨ ìĹĲ
ĠëĮĢ ë§Į
ì²ł íķĻ
ì°¸ ëª¨
Ġìĸ¸ ëįĶ
åħ µ
ì±ħ ìŀĦ
ĠíĽĮ ë¥Ń
ĠR ef
Ġì£¼ ê±°
Ġê°Ĳ ìĺ¥
Ġíı¬ ë§·
Ġìļ´ëıĻ ê°Ģ
b y
Ġ19 11
ĠìĺĪ ìĻ¸
ĠìĽĶ ê°Ħ
Ġíı¬íķ¨ ëĲĺìĹĪëĭ¤
ĠìĨĲ ëĭĺ
ĠìĿ¸ë¬¼ ë¡ľ
Ġê³ł ê°Ģ
Ġê³ł ë¦¬
ì²ĺ ë¦¬
í īģ
ëĭĪìķĦ ì£¼
Ġê·¹ ë³µ
íı¬ ëĵľ
ê±´ ìĿĺ
Ġëĭ´ ê³ł
ì§Ģ íľĺ
ìķĦ ìĻĢ
ĠíĮĲ ìĤ¬
Ġê¸°íĥĢ ë¦¬ìĬ¤íĬ¸
íĺĦ ìĿĢ
å¤ ĸ
Ġê°ľ ì°°
ê³¡ ëıĻ
ĠìĤ¬ìĿ´ ë¥¼
æ »
ìĿ´ëĿ¼ ë©´
åĳ ¨
. '
Ġìĭľìŀĳ íĸĪê³ł
ĠëĮĢ ìĦł
Ġì¤ĳ ìĦ±
ëŀĢ ìĿĺ
ìĿ¼ë³¸ ìĸ´
ĠìĬ¤íĥĢ ë¦¬ê·¸
ber g
P h
ìĿ´ ìłĦ
ĠìķĬìķĺ ì§Ģë§Į
Ġë¹Ħ íıīê°Ģ
ë¦¬ íģ¬
ç ķĮ
Ġê° ĵ
Ġ8 8
ìĭ¤ íķľ
Ġë§ī ê¸°
ìŀĲ ìĬ¤
íķ´ ë°©
er o
Ġë§Ŀ ìĽĲ
ĠìĽĲìŀĲ ëł¥
ìłĦ ìĦ¤
ĠìĦ± ê³¼
ĠA ìĿĺ
Ġë²ķ ìłģ
ĠíĹ¤ ë¹Ħ
ĠìĿ´ íĻĶ
ê¶Į ê³¼
re t
Ġë§ŀ ì¶°
ìĹ° ë°©
ĠìĿ´ ìĿ¸
Ġì§Ģ ìĹ°
ĠìĽĲ ìĭľ
os e
ìĽ ¹
Ġë°ľíĳľ ëĲľ
ìķĺ ì§Ģë§Į
ĠìĤ¼ ê°ģ
Ġë°©ìĨ¡ ìĿ¸
ĠìĺģíĻĶë°°ìļ° ìĿ´ëĭ¤
ĠìĿ´ìĸ´ ìĦľ
Ġê²Į ìĭľ
Ġë¯¸êµŃ ìĿĢ
ĠíıĲì§Ģ ëĲĺìĹĪëĭ¤
ĠìĹ´ ìĹĪëĭ¤
193 5
ĠëĤĺëīĺ ìĸ´
ĠìĤ¬ ê³¼
Ġìĺ¤ ëħ¸
ĠëĮĢíķĻêµĲ ìĿĺ
é Ł³
ë¶Ģ ë¥´
ĠëĮĢ ìĻ¸
ĠìŀĲ ê¸Ī
Ġê¹Ģ ë³ĳ
Ġë§ī ë¶Ģ
ĠëĨĵ ìĹ¬
ê·¸ëŀĺ íĶ¼
ĠìĨĮ ì§ĳ
ĠìĤ¬ ë²Ķ
íĶĦ ìĻĢ
ĠíĽĦ ìĹĲëıĦ
Ġë§¤ëĭĪ ìłĢ
Ġâī ª
Ġìłķ ìĿ´
Ġë¯¸êµŃ ìľ¼ë¡ľ
Ġì£¼ ëł¥
ĠìĤ ¿
Ġìŀ¡ ê³ł
ĠII I
C S
Ġê°Ģ ì¦Ī
ë¯¸ ìĻĢ
Ġì§Ħ ê²©
ĠíĬ¹ë³Ħ íŀĪ
ĠíļįëĵĿ íĸĪëĭ¤
æ ½
ĠíĻĪëŁ° ìĿĦ
ìĬ¹ê°ķ ìŀ¥
ĠìĪĺ ì§ģ
Ġ25 0
Ġë¥´ ëĦ¤
Ġë¹ µ
ëª© ìĿĦ
ì¹ĺ ì§Ģ
Ġì¡´ ìĬ¨
ĠíĨµ íĻĶ
ìĹĲ ë¯¸
Ġìĺģ ì£¼
Ġë§ŀ ì¶Ķ
Ġë¸Ķ ëĿ¼ëĶĶ
ëĨ Ĵ
Ġì¡° ê¸°
Ġë°ĶëŀĮ ìĹĲ
ë¦¬ëħ¸ ìĿ´
ĠìłĦ ìĿĺ
ë¬¸ ê³¼
ê´Ģ ê³Ħë¥¼
Ġìĭ¤ ì¢ħ
ĠìĿ´ ìŀĲ
Ġì¿ ¨
193 2
Ġê¸°ëĬ¥ ìĿ´
ë°ĶìĿ´ ìŀĶ
ĠìłķíĻķ íŀĪ
íĻĶ ìłĲ
ìĺ¤ ëĤĺ
æ Ĭ
íķĺ ëĿ¼ëĬĶ
Ġìļ´ íķŃ
ë§Ĳ ìĿĦ
ĠìĬ¤ íĭ°ë¸Į
Ġê¹Ģ ëĮĢì¤ĳ
ĠìĪĺ ì»·
ĠëĮĢ ì§Ģ
Ġê²½ ë¹Ħ
ìĹĲê²Į ëıĦ
Ġìłķì¹ĺ ê°Ģ
W h
Ġì§Ģ ìŀĲ
ë¸Ķ ë¡ľ
Ġì§ĢìĽĲ íķĺëĬĶ
l er
Ġìłķ íĨµ
ë²ķ ê³¼
ì²Ń ìĿĺ
Ġë¨¹ ëĬĶ
ĠìĿĺê²¬ ìĿĦ
íķĺìĿ´ ìĺ¤
Ġë§Ī ìĭľ
ĠíĶĦë¡ľ ê²ĮìĿ´ë¨¸
Ġê°Ĳ ê°ģ
ì¹´ ë¦¬
Ġìĺ¤ íĥĢ
ì¼ °
Ġë©´ ìĹŃ
ìłľë¥´ ë°ĶìĿ´ìŀĶ
ìĭ¤ ë²łìĿ´
Ġíıī íĥĿ
ĠíĤ¤ ìĬ¤
Ġìłľ ëıĦìĿĺ
ĠìłĦ ìĦ¸ê³Ħ
Ġìĭł íķĻìŀĲ
ãĤ ¿
ê²½ìĥģ ëĤ¨ëıĦìĿĺ
ê² ģ
Ġìľł ìķĦ
ëĵł ì§Ģ
Ġíķĺ ëįĺ
ìľĦ ëĮĢ
ĠëłĪ ìĬ¬ë§ģ
ĠëĪĪ ìĿĦ
Ġíĺ¸ ëĤ¨
ĠëĮĢìłĦ ê´ĳìĹŃìĭľ
Ġå½ ¹
ë£¨ ëĬĶ
ĠëĮĢ ëĭ¤
an y
Ġì£¼ íĮĮ
Ġ15 00
ëıĻ ê¸°
ĠíĶĮ ë£¨
ìķĶ ë¦¬
Ġëĭ¤ë£¨ ëĬĶ
Ġ19 13
ĠëıĦ íĺ¸ì¿ł
ëŀĳ ìĿ´
Ġë¬´ë¦ İ
Ġëĭ Ĳ
Ġëļľ ëł·
ĠíĻįë³´ ëĮĢìĤ¬
Ġìļ© ìĸ´ëĬĶ
Ġê·¹ ëĭ¨
av id
Ġë¸Į ëłĪìĿ´
Ġíķĺ ìķ¼
D A
ìĤ¬ ìĿ´ëĭ¤
Ġì£¼ ìĦĿ
ì¢ ĭ
ĠìĤ¬ê³ł ë¡ľ
ik e
Ġìĭ¬ ì§Ģìĸ´
íĺ¸ìĦł ìĿĺ
ìĬ¤íħĮ ë¥´
ĠS ystem
ì¤ĳ ìĿ´
Ġëħ¸ ë¬´
Ġëľ» ìĿ´ëĭ¤
ë¡ľìĬ¤ ìķ¤ìł¤ëłĪìĬ¤
Ġê¸° ë³ĳ
ĠíĻľ ìĦ±íĻĶ
Ġê±° ëĮĢ
ìĦľ ìĻĢ
ĠìĿ¼ íĸī
ìľ¨ ìĿĢ
Ġê´ĳì£¼ ê´ĳìĹŃìĭľ
Ġìĭ¶ ìĸ´
Ġì°¨íĬ¸ ìĹĲìĦľ
íĤ ¥
ĠìĦľ ë¸Į
Ġìĥ ¬
Ġê´ĳ ìĤ°
ĠĊĊ ĠĊĠĊ
íĤ¨ ìĬ¤
Ġê¼¬ ë¦¬
Ġìµľ ìłĢ
ĠV S
ou se
Ġê°Ģ ì¹ĺë¥¼
Ġìĺ¬ëĿ¼ ê°Ģ
ì¸ł ëĬĶ
Ġê³¨ íĶĦ
Ġë²¼ ìĬ¬
or th
Ġê²Į ë¥´
il le
ë¡ľ ë¯¸íĦ°
ì£¼ìĿĺ ìĻĢ
ĠìłĢ ëĦĲ
ëłĮ ì§Ģ
íĸ¥ ìĿĦ
ĠëıĻ êµ´
ĠíĻ© ìłľìĿĺ
our n
ĠìĹŃ ìĿĺ
ìĿ¸ ëĵ¤ìĿĦ
Ġìŀ¥ ë¡Ģ
ĠíĹĪ ëĿ½
ë ķ
Ġë°ķ ì§Ģ
Ġì°½ ëĭ¹
ê°ķìĽĲ ëıĦ
ĠìŀĲ ì²´ê°Ģ
ë°ĶëĿ¼ íĤ¤
ëłĪ íĭ±
Ġìĸĳ ëıĦ
Ġê³¼ ëıĦ
ĠíĤ ¨
Ġìļ¸ìĤ° ê´ĳìĹŃìĭľ
Ġ7 2
Ġì´Ī ìĥģ
ëĤĺ ìĭľ
al k
Ġì¤ĳìķĻ ìĦłê±°ê´Ģë¦¬ìľĦìĽĲíļĮ
ĠSch ool
Ġëª¨ ë¥´
Ġë§Ī ê·¸
ëıĦì¿Ħ ëıĦ
Ġë¹ Ĺ
ê³ł ìĹĲ
ĠìĪĺ ìĹħ
Ġë²ł ë¥¸
ãĥ ¬
Ġìłģ ìĸ´ëıĦ
ec k
ë°ľ ìĿĺ
Ġì£¼ ëĲľ
Ġìľł ë°°
ëħĦê¹Įì§Ģ ëĬĶ
ĠíĶĦ ëŀľ
ĠìĿ¼ ëĭ¨
Ġë°ĺëĮĢ íķĺëĬĶ
ëłī ìħĺ
E X
ĠìķĦìĿ´ íħľ
Ġìĥī ê¹Ķ
ĠìĦ¼íĬ¸ ëŁ´
Ġê·Ģ íĻĺ
íĪ¬ ìĪĺ
Ġìħĭ ì§¸
ê³µ ëĭ¨
ëĶĶ ì§ĢíĦ¸
ìłĢ ì§Ģ
ĠìĥĮ íĶĦëŀĢìĭľìĬ¤ì½Ķ
éĿ ĳ
Ġëª¬ ìĬ¤íĦ°
íķľëĭ¤ ë©´
ê´Ģ ê³¼
âĢ »
ĠëĤ¨ ê²¨
Ġê°Ģ ëĵĿ
Ġëĭ¤ íģ¬
Ġëħ¸ìĦł ìĿ´
ell a
é ®
Ġëĭ´ ìĿĢ
ĠìŀĲìłĦ ê±°
ĠìłĦ ìŀĳ
Ġë°ľ ìłĦìĿĦ
íĺĦ ìķħ
ĠìłĦì²´ ë¥¼
Ġì¶Ķê°Ģ ëĲĺìĹĪëĭ¤
ì ĵ
ë¥ł ìĿĢ
ĠìĿ¸ë¬¼ ìĿ´ëĭ¤
Ġë¬¼ ê³łê¸°
Ġìŀ¥ ëĤľ
ir st
Ġë§º ê³ł
é Ĺ
Ġíķĺ ëĬĲ
Ġìľł ëł¥
Ġê´Ģê³Ħ ëĬĶ
Ġì²ł ìłĢ
ĠëĨĢ ëĿ¼
åĳ ½
ìĥģ ëĮĢ
ĠìĿ´ëģĮ ìĸ´
ëĭ «
ĠìĹ° ëĿ½
é¤ ¨
Ġëıħ ìŀ¬
ëª½ ê³¨
ë¦¬ ë©°
Ġë§İ ìķĺëĭ¤
çŃī åŃ¸æł¡
Ġì§Ģ ëĮĢ
Ġëħ¸ìĦł ìĿĢ
ear ch
íĮĲ ìĿĺ
Ġë§Ī ë¦¬ìĺ¤
ë²Į ëłĪ
ãĥ³ ãĥ
Ġëıħë¦½ìļ´ëıĻ ê°Ģ
Ġê°Ģ ìĭľ
Ł ìķĦ
Ġìĭł íķľ
Ġë¬´ ìĬ¬ë¦¼
íĮĢ ìĿ´
ĠìĹĲëĦĪ ì§Ģë¥¼
å» £
Ġê¸°ìĹ¬ íĸĪëĭ¤
ĠìĤ¬ìļ© íķĺì§Ģ
Ġì¿ł ë°Ķ
ëłĪ ëĵľ
Ġëª¨ ëĵĪ
íķĺë©´ìĦľ ëıĦ
éº Ĺ
Ġ9 9
ì¶ľ ìŀ¥
Ġì¿ Ħ
Ġìĥģíĥľ ìĹĲ
ê²½ìĥģ ë¶ģëıĦìĿĺ
ìĨĮìĨ¡ ë²ķ
ç ®
ĠìĨĮ ë¦¬ë¥¼
ĠâĢ ķ
ĠìĿ´ ê´ĳ
ê³ł ëıĦ
ĠB ar
193 3
Ġìľł ìĿ¸
ĠìĦ¸ ìĥģ
ĠV er
ìľłëŁ½ ìĿĺ
Ġ æĿİ
ĠìłĦ ìĪł
Ġë°ĺ íĻĺ
ĠíĺķìĦ± ëĲľ
ĠìĦ¤ì¹ĺ ëĲĺìĹĪëĭ¤
IV E
Ġìłķ êµĲ
Ġë²ķ ìłķëıĻ
Ġê°Ĳëıħ ìĿĢ
Ġìľ¤ ì¹ĺ
Ġìŀħëĭ¨ íĸĪëĭ¤
ê¸Ģ ëĿ¼
ëĤĺ ìĬ¤
íıĲ íķ©
Ġì¹ ©
ãĤ ¸
ĠìłĦ ë§Ŀ
íļĮ ë§Ĳ
ĠìĹ¬ ìĿĺ
íĨł ëª¨
a ut
ĠëĤ´ ëĬĶ
Ġëª¨ìĬµ ìľ¼ë¡ľ
Ġë§Ī ìĬ¤
ì°¸ê³ł ìŀĲë£Į
ìĺ¤ ê³ł
Ġë¬¼ë¦¬ íķĻìŀĲ
æĹ¥ æľ¬
ì½Ķ ë¥´
Ġì»¤ ëĭ¤ëŀĢ
Ġë¶Ģë¥´ ê¸°ëıĦ
ĠìĪĺ ê°Ĳ
ë¬¼ ë¦¬íķĻ
Ġì§ĳ ìĹĲìĦľ
Ġê¸° íĺ¸
ë²ł ìĬ¤íĬ¸
ĠìĺģíĨł ë¥¼
æ ĭ
ĠìĿ´ ì¼Ģ
ìĦ± ëıĦ
b all
ĠëĲĺ ì°¾
Ġëħ¸ íĬ¸
ìĸ´ ë¨¸ëĭĪ
ĠêµĲíĸ¥ ê³¡
Ġëª¨ ëŀĺ
ìĤ¬ ë¦¬
ëıĻ ë©´
ĠìĹ°ê¸° ëĮĢìĥģ
ë¡ł ìłģ
ers on
ì»¬ ëŁ¼ë¹ĦìķĦ
Ġì°¾ ëĬĶ
Ġ3 60
Ġìĭł ë¶Ħ
Ġëħ¸ëŀĺ ìĿ´ëĭ¤
ĠìķłíĶĮ ë¦¬ì¼ĢìĿ´ìħĺ
Ģ ëĭ¤
ĠíĨł ì°©
Ġìķ½ íĥĪ
Ġìŀ¥ ë¡ľ
ĠëĮĢ íķĺ
ĠìĿ¼ ëłī
ëłĪ ìķĮ
ot h
Ġë°° ìĹ´
ë£¨ ìĤ´
ĠìĽĲ ëĤ´
ĠìĪľ ìĪĺ
ĠíĶĮë¡ľ ë¦¬ëĭ¤
å £½
ìŀĲ ë¬¸
Ġê±° ëĬĲ
ëª© ìľ¼ë¡ľ
Ġìĭ¤ìłľ ë¡ľëĬĶ
) /
íĺĦ ìĿ´
ëł¹ ìľ¼ë¡ľ
ìĬ¤ìĽ¨ëį´ ìĿĺ
íķĻêµĲ ë¥¼
íĮĲ ë¡Ģ
Ġê¹Ģ ìĬ¹
Ġì¶© ëĤ¨
íĶ Ķ
Ġë³¸ ëªħìĿĢ
ĠìĬ¹ ê³Ħ
ìĿ´ìĬ¤ ì¼Ģ
è º
ĠìĤ¬ëŀĮ ìĿ´ëĭ¤
Ġìĸ¸ë¡ł ìĿ¸
Ġê¹Ģ ìĦł
ìļ°ì¡°ìĹ° ìĥģ
I L
ĠIS O
ĠìļĶë¯¸ ìļ°ë¦¬
ê ±
ĠìĬ¹ ì°¨
Ġê·¸ ëĵ¤
Ġìľł ë¬¼
Ġìķ¼ ìĥĿ
Ġë°ľìĥĿ íĸĪëĭ¤
ĠëĮĢ ì¹Ń
Ġê³ł ìķĪ
Ġì°¸ ëª¨
çļ Ħ
ìļ° ë¥¼
ìĤ° ìĦ±
ĠëĶ ´
ond on
ĠëĺĲ ëĭ¤ë¥¸
Ġë²ķ ìĽĲ
ĠìĿ´ìĸ´ ì¡Įëĭ¤
Ġë ¤¼
ë§Ī ì¸ł
ë£¨ ë¥¼
ĠíĽĦ ì§ĢìĻĢ
çĶ ³
a ur
ĠíĮĮ ìĿ´ìĸ´
ĠìĪĺë¡Ŀ ëĲĺìĸ´
Ġìł ¤
åĥ ı
Ġ19 04
Ġê¸° íķĺ
19 14
ê³µ ìŀ¥
Ġíķł ë¦¬
op s
ĠìŀĦ ê¸Ī
ìķĦ ìĭľìķĦìĿĺ
ĠìĤ´ ìķĺëĭ¤
Ġì»¬ ëŁ¬
Ġë¹Ħ íĭĢ
ĠëĤĺìĿ´ ìĹĲ
ìĿ¸ëªħ ìĤ¬ìłĦ
ê³¼ ìŀ¥
ëĤĺ ê¸°
ë³´ ìĬ¤
ĠëĤĺê°Ģ ìĤ¬íĤ¤
ì½Ķ ë¦¬ìķĦ
æĽ ¹
ĠêµŃ ìłķ
Ġê³ł ìĦ±
ìļ´ëıĻ ìĿĦ
Ġëįķ ë¶ĦìĹĲ
ĠìĹ ī
ĠíĽĦ íĩ´
ëł¹ ìĿĢ
ëĦ¤ëįľëŀĢëĵľ ìĿĺ
ìĿĺ íķĻ
ëħĦ ìłľ
ìļ° ìłķ
ëĭ¹ íķĺê³ł
ĠíĶĦëłĪ ìŀĦ
ìĿ¼ë°ĺ ë¯¼ì¡±íĸīìľĦ
é© Ľ
ëı Ķ
Ġëıħ ìłĲ
Ġë¶ģ êµ¬
êµŃ ê³¼
Ġê·¸ ëŁ¼
ìĹ° ìĺĪ
ĠìĿ¼ìľ¼ íĤ¨
íĻ ĭ
ê¹Įì§Ģ ëıĦ
ĠìĭľìłĪ ìĹĲ
ë³´ ë©´
Ġìĭł ìŀħ
íĻ ī
Ġëķħ ìĿĦ
Ġìĵ´ ëĭ¤
ĠìĿ´ íķĺìĿĺ
Ġíķ© ë¦¬
ì§Ģ ìĺ¤
ìľĦ ìĹĲìĦľ
íĻ© ìłľ
Ġë¬´ ë¦¬
ë§Ī ìłĢ
Ġì¤ĳ ë¦½
ì¤ĳ ìĿ´ëĭ¤
Ġê±° ë¦¬ë¥¼
éĺ ¿
íİĻíĬ¸ ëŁ¼
íģ¬ ìĻĢ
ëŀĺ ìĬ¤ì¹´
ìĭ¤ íĹĺ
ĠìĹĶ ì§Ģ
ĠìĿ´ë¡ł ìĿĦ
ìĿ¼ ë¶Ģ
Ġë²Ĺ ìĸ´
ì§Ģ ìłĲ
ĠëŀŃ íĤ¹
ê³ł ìĭľ
Ġêµ¬ ìĤ¬
Ġ10 1
Ġíĺ Ĳ
ìķĺ ëĬĶëį°
ĠëĽ° ê³ł
Ġë°Ķë¥´ìħĢë¡ľ ëĤĺ
ë£¨ìĤ´ ëłĺ
ë¦¬ ì¡°
íĻĶ íķĺëĬĶ
Ġì¹ĺ ëłĢëĭ¤
ëĮĢ íĨµëł¹
ëĤ¨ ë¶Ģ
ëĶĶ ëĬĶ
Ġ7 00
Ġë°ķ ìĥģ
Ġê°Ħ ìĹĲ
ë®¤ ì§Ģì»¬
ĠìŀłìĪĺ íķ¨
ìłĦ ìĭľ
ĠC ont
ĠíĶĦë¡ľëĵĢ ìĭ±
ë¿ Ķ
ìĨĮ ëł¨ìĿĺ
at or
ĠíĺĦ ì¡´
Ġíģ´ëŀĺ ìĬ¤
Ð ²
Ġê³ł íĨµ
íİ ´
ë°Ķ ìĬ¤
Ġë¶Ī ëłĢ
Ġë¦¬ê·¸ ìĹĲìĦľ
ĠíħĮ ìĺ¤
èĹ ¤
Ġì¤ĳíķĻêµĲ ìĿ´ëĭ¤
at es
ëª© ìĹĲ
ëįĶ ìĬ¨
ìłĪ ìĿĦ
Ġê·¸ë£¹ ìĿĺ
ìŀĲ ë³¸
Ġê°ľ ìĦ±
ĠìĨĮ ìľĦ
Ġë²ł íĨłë²¤
íķĺ ìĹĲìĦľ
ĠC an
íĬ¹ ì§ĳ
ĠëĦ¤ëįľëŀĢëĵľ ìĿĺ
ī ĺ
Ġì¶ľ ëł¥
Ġ5 9
ê·ľ ì¹Ļ
â Ļ
ĠìĿĮë°ĺ ìĿĦ
ê²° ìłķ
êµ° ìĹĲê²Į
Ġë²łëĦ¤ ì¹ĺìķĦ
ìķĦìĿ¼ëŀľëĵľ ìĿĺ
ìłľ íķľ
ĠëıĻ ìĦľ
ĠíĬ¸ ëŁŃ
Ġë³¸ìĦł ìĹĲ
Ġë¬´ ìĤ°
ë¶ĢìĤ° ê´ĳìĹŃìĭľ
ĠìĬ¤ ìĬ¹
ĠìĥĿê°ģ ìĿĦ
ĠFA ì»µ
Ġë°ķ ìĦ±
ĠêµĲ ê³¼
ĠP er
Ġë§¥ ìĬ¤
Ġ8 5
åĲ ³
çĽ £
ĠìĽĲëŀĺ ëĬĶ
Ġìĸ´ íķŃ
ì²ľ ìĤ¬
ĠëĤ¨ìķĦ ë©Ķë¦¬ì¹´
? )
ang e
Ġì°¬ ìĦ±
ê°¤ ëŁ¬ë¦¬
ìĿ´ ê²Į
Ġë¯¸ ì¹ĺëĬĶ
ê´Ģ ìĹĲìĦľ
Ġ6 3
Ġìļ° ë¦¬ìĿĺ
ĠL ive
å¤ ı
Ġ0 4
ìĭľ ëĤĺ
Ġì§ĢìĹŃ ìĿ´
ëĮĢ ìĻķ
ĠëĤ´ ìŀ¥
ëĲĺ ëįĺ
ì¤ ĺ
ìĺ¤ìĬ¤íĬ¸ëłĪìĿ¼ ë¦¬ìķĦ
ĠìłĦíĺķ ìłģìĿ¸
Ġìľłê³ł ìĬ¬ëĿ¼ë¹ĦìķĦ
Ġìĺ¤ ìĹ¼
ĠM S
ĠìĻĢ ìĦľ
ĠìĨĮ íĻĺ
Ġ189 5
Ġë³´ ìĿ´ê³ł
ê³µ íĻĶ
ĠëĦĺ ê²¨
Ġìĸ¸ìłľ ëĤĺ
ìĹĲëĦĪ ì§Ģ
ĠS m
è¡ Ľ
ort s
å ģ
Ġìĭľ ëĿ¼
ĠëıĦ ì¤ĳìĹĲ
ë¬¼ ë¦¬
ĠìĦ¸ ìĽł
ëĦ¤ ê°Ģ
Ġë§º ìĹĪëĭ¤
ë³´ ëıĦ
Ġë¬´ ìĦł
ers ion
è Ķ
ìĤ° ê³¼
ĠìŀĦ ìĭł
ĠìŀĲìĭł ìĿĢ
ëŁ¬ ëĵľ
ë°Ľ ì¹¨
Ġì²ĺìĿĮ ìĹĲ
ë§Ī ìĿ¼
Ġìłģ ìłĪíķľ
ìĦ¬ ìĿĺ
ë¦¬ ìĸ¼
ìľĦ ìĦ±
ĠìĬ¤ ì¿¨
Ġìļ´ ë°ĺ
íĿ¥ êµ°
ìĿ´ëĿ¼ ë©°
åľ ĸ
Ġíļ¨ê³¼ ê°Ģ
Ġìŀ¬ ë¬´
Ġê²ĥìĿ´ ê³ł
íĨł ë¥´
åĬ Ł
Ġë¶ģ ê·¹
ĠìĤ¬ì§Ħ ìĿĦ
ĠìĮį ëĳ¥ìĿ´
Ġëĵ¤ìĸ´ ê°Ħ
ĠU p
E A
Ġ6 6
ĠìĤ¬ ìľĦ
ì¦Ī ë²ł
ĠëĤ´ ì§Ģ
æĦ Ľ
ìľłëĭĪ ë²Ħ
ĠìķĪ ìĦ±
Ġê·¸ë¦¬ íķĺìĹ¬
ĠìĿ´ ìĤ¬íļĮ
ĠëĮĢíķľë¯¼êµŃ ìĹĲìĦľëĬĶ
ìĶ¨ ë¥¼
Ġì§ĢìĽĲ íķľëĭ¤
èŃ °
Ġì¢ģ ìĿĢ
ëŁ¬ ìĬ¤íĬ¸
ì²ľ ìĿĺ
ĠA c
ìĨĮ ëĭĪ
ì¸ Ħ
ìĭľ ëĵľ
íķ´ ì§Ħëĭ¤
ê³µ ë¬´ìĽĲ
ëĦĪ ëĬĶ
ëĿ ł
ĠìĦ± ê·łê´Ģ
Ġë¯¼ ì¤ĳ
ì¹´ ëĬĶ
Ġì¹´ íĬ¸
Ġìłľ ëĭĪ
Ġì¤ĳ ìĹĲìĦľëıĦ
Ġìĺ¤ ëĶĶìĺ¤
Ġëĭ¤ ë£¬
ê²½ ëĤ¨
Ġìĭ¤ ìļ©
! ãĢĭ
ìŀ¥ ìĿ¸
Ġë³Ħ ë¡ľ
ĠíĥĦ ìĨĮ
ĠìĤ¬ ë¡ľ
ĠìĿ¸ ì¡°
Ġì£¼ ìĸ´ì§Ħ
ĠìĹĲ ìĬ¤íĨł
Ġíģ¬ ê¸°ê°Ģ
ĠìĦĿ ë°©
Ġì¤ĳíĻĶ ìĿ¸ë¯¼ê³µíĻĶêµŃìĿĺ
ëĿ¼ ë¯¸
Ġìĺ¤ë¦¬ ì½ĺ
ĠìŀĪ ìľ¼ë©´
Ġì£¼ ë¬¸
Ġë¯¸êµŃ ìĹĲ
ĠëĶĶ ìł¤
Ġìĭľê°Ħ ìĹĲ
ìĬ ĺ
Ġì°¨ì§Ģ íķľëĭ¤
ĠìŀĲ ìĦ¸
ĠíĺĦ ìĥģìĿĦ
ì²ľ ëıĻ
Ġìŀħ ìĹĪëĭ¤
ì²ľ ëħĦ
ê²° íĺ¼
ĠëĬ¥ ëł¥ìĿ´
Ġíĺ¸ ë¥´
Ġì²ľíĻ© ìĿĺ
ĠìķĦë¬´ ëŁ°
ĠìłĦ ìŀĦ
Ġìłľì£¼ íĬ¹ë³ĦìŀĲì¹ĺ
ĠìĹ¬ ìĿ¸
ãĤ Ń
ĠíĬ¸ ëłĪ
Ġì¦Ŀ ê¶Į
é® ®
in n
Ġìĺģíĸ¥ ëł¥ìĿĦ
èī ¯
ĠìĪĺ ìĪĺ
æĢ Ŀ
ë§Ī ì¼Ģ
ol ution
íļĮ ë¡ľ
ì¡Į ëįĺ
é¢ ¨
Ġê³ ģ
Ġë³¸ ìĿ¸
Ġêµ ī
ĠìĦľ ë°©
ĠìĤ° ìķħ
Ġê¸Ī ê°ķ
íģĲ ìĸ´
Ġëĭ¬ìĦ± íĸĪëĭ¤
ê·¸ ë¦¼
ĠíĽĦ ìĿĺ
ì½Ķ ê°Ģ
Ġê³µê°Ħ ìĿĦ
Ġëĵ± ìŀ¬
ëĿ¼ëį¸ íĶ¼ìķĦ
Ġê³Ħ ì¸µ
ĠìĦ¤ë¦½ íķľ
Ġw ebsite
åĭ ķ
ëıĦ êµ°
Ġíĺ¸ íĻĺ
Ġì¹ľ ìĿ¼ë°ĺë¯¼ì¡±íĸīìľĦ
ĠìĿĺ ê±°
Ġìĸĳ ìĭĿ
ìĿ¸ ì¹ĺ
ĠìĤ¬ ê¸°
ĠìķĦ íĮĮ
íļĮ ìĽĲ
ĠC H
ĠA R
Ġë¶Ī ëªħ
ì²ł ìĿĺ
ĠëĮĢíķ´ìĦľ ëıĦ
Ġëª» íķĺê²Į
èª ŀ
ĠìĿ´ìĻ¸ ìĹĲëıĦ
Ġì§Ģ íĳľ
Ġëªħì¹Ń ìľ¼ë¡ľ
ĠìĿĮ íĸ¥
ìķĦ ë¥¼
íİ ĳ
iel d
íħĮ íģ¬
ëıĮ ìĿ´
Ġc on
Ġì¡°ìĦłì´Ŀëıħ ë¶Ģ
ìĤ¬ ìĭľ
z e
Ġê ´
Ġë°Ľ ìľ¼ë©°
íĥĦ ìĿĦ
v iew
ĠT ime
Ġëĭ¹ íķ´
Ġë©Ķ ë¥´
Ġê¹Ģ ì¤Ģ
ëłī ìĬ¤
L S
ĠìĹ° ê³Ħ
Ġëģ Ī
ĠëĲĺ ê¸°ëıĦ
Ġìłģ ìĿĦ
Ġë¸ĮëĿ¼ ëįĶìĬ¤
åĪ ©
Ġê°Ħ ìłĳ
ìķ¼ë§Ī íĺĦ
ëĦĪ ìĿĺ
ĠìĤ¬ ìłľ
ë¬´ ë¡ľ
ĠìŀĪ ìĬµëĭĪëĭ¤
ĠíĹ ĺ
Ġp p
ĠíĿ° ìĥī
ĠìĪĺ ë°±
ìĹ¬ ëŀĺ
íĳľ ì¤Ģ
ĠC ON
Ġë³¸ ë¶Ģ
ì²Ń ìĨĮëħĦ
Ġ3 000
ĠN e
ĠíıŃ ê²©
em ber
åı £
ĠíĿĲ ë¥´ëĬĶ
ë²Ħ ë¦¬
Ġê·¸ëŁ¬ ë¯Ģë¡ľ
ĠìĦł ë°°
ì¦Ī ìĻĢ
ç« ł
) >
ĠìľĦ ê¸°
ĠêµŃê°Ģ ê°Ģ
Ġê±´ë¬¼ ìĿĢ
Ġê¶Įíķľ ìĿĦ
ĠëĮĢ ëĭĪ
Ġë©Ķ ëĶĶ
Ġë¶Ģ íĨµëł¹
ë° ´
ë¸Į ìĬ¤
ĠìĦł íĺķ
Ġë§Ī ìĹĲ
ìŀ¬ ìĿĺ
Ġëĭ¹ ëĤĺëĿ¼
ĠìĥĪ ëĪĦë¦¬
Ġê´Ģëł¨ íķĺìĹ¬
íĪ ´
Ġìĥģ ìĿĺ
ëŀĺ ìĬ¤
ê°Ķ ê³ł
Ġëļ «
L e
Ġ å¤§
Ġ und
Ġë§ī ëĤ´
l in
t r
ĠëĿ¼ ìĬ¤
ĠìĤ¬ìĿ´ ëĵľ
u x
S c
ĠìĤ¬ëŀĮ ìľ¼ë¡ľ
Ġìŀħ ì¦Ŀ
ĠëĦ¤ìĿ´ìħĺ ìĬ¤ì»µ
Ġê²½ ê³ł
Ġëª¨ëį¸ ë¡ľ
ĠíĽ Ķ
ĠìĹŃ ìłĦ
ÑģÐº Ð¸Ð¹
ëģ Ŀ
ide o
èĲ ¬
ë¬´ ìĹŃ
ĠíĽĦ ê¸°ìĿĺ
Ġìŀ¥ ë©´
Ġì§Ģ ìĹĪëĭ¤
Ġíĸ Ħ
ìĽĲ ëŀĺ
Ġëĵ¤ ìĹĪëĭ¤
ĠëĴ¤ ë¡ľ
êµĲ ìĭ¤
Ġì¤ĳ ìĭľ
ìĪĺ ìĪĺ
ì¤ĳ ëĮĢ
Ġê±¸ ëł¤
E ST
ç Ń
Ġìľ ¼
Ġê±° ë¦¬ìĹĲ
Ġìĭ¤ ìĪĺ
ìľĦ ìķĪ
íĭ° ìĹĲ
ìĬ¤íĥĢ ìĿ¸
Ġê·¸ëł¤ ìł¸
Ġëĭ¤ìĿĮ ìľ¼ë¡ľ
Ġê°Ħ ë¶Ģ
ĠìĿĺë¯¸ ê°Ģ
ĠìĿ´ë¥´ ê¸°ê¹Įì§Ģ
Ġì£¼ëª© ìĿĦ
ĠëĿ¼ìĿ´ ìĸ¸
Ġë¶Ģë¶Ħ ìĹĲ
Ġì£¼ë³Ģ ìĹĲ
Ġìī Ĳ
Ġëį´ ë§Īíģ¬ìĿĺ
Ġë¡ľë§¨ íĭ±
ĠìķĦ ëĬĶ
Ġìĺģ ëĵ±
ìłĦ ì°¨
ĠìĦľ ë¶ģ
ĠìĹĨ ìĹĪëįĺ
ìŀ Ń
Ġìĺģ ëıĻ
Ġì¹ Ļ
Ġíİ Ģ
Ġì§Ħ ìĪł
Ġì¤ĳ ìĨĮ
Ġì§Ħ ëĭ¨
Ġìĭľëĵľ ëĭĪ
Ġê´Ģ ìĭ¬ìĿ´
ëħ¸ íĶĦ
Ġíĥľ ê¶ĮëıĦ
ãĤ Ĵ
ĠìĿ´ìłģ íķĺìĺĢëĭ¤
ê°Ģ ê³ł
Ġê¹Ģ ì°½
ìĺĪ ìĦł
ìĹ° íķľ
ĠìĤ° ë¦¼
ĠíķĦìļĶ ë¡ľ
ĠìĹĲ ìĦľ
Ġìºł íĶĦ
æº ª
ĠìĦ± ê³¼ë¥¼
Ġì´Ī ëŀĺ
ĠíĨł ë²Į
ĠìĤ° íĥĢ
ĠìĹĨ ìĹĪê³ł
ì¤ Į
le t
Ġë¶Ļ ìŀ¡
Ġì§ĢëĤĺ ì§Ģ
7 00
Ġê³ł ë°±
Ġíĭ° ë²łíĬ¸
Ġë°ĸ ìľ¼ë¡ľ
ë¹Ħ ë¡ĢëĮĢíĳľ
ê¸ī ìĿĺ
Ġê¹Ĭ ìĿ´
G M
Ġìľł ìŀħ
ĠìľĦ íĥģ
ĠìļĶ ê¸Ī
ìºĲë¡¤ ëĿ¼ìĿ´ëĤĺ
Ġíķ´ ìļ´
ëł¹ ìĹĲ
íļĮ ìłĦ
ìķ½ ëł¥
ëĪĦ ë§Ī
Ġëĭ¤ ëħ
Ġë³´ ìĿ´ë©°
Ġë§Ī ì¹ĺê³ł
ĠM c
ĠìĨĲ ìĥģ
Ġë¹Į íĹ¬ë¦Ħ
Ġë¨¹ ëĬĶëĭ¤
b um
Ġ19 15
ê²½ê¸° ìĹĲìĦľ
Ġìłľ íľ´
Ġ11 0
ĠíķŃ íķ´
ĠìĪľ ì²ľ
Ġê³³ ìĿĢ
ĠìĹ°êµ¬ ëĬĶ
Ġë© ĭ
Ġíĥľ ê·¸
ĠíĶĮëłĪìĿ´ ìĬ¤íħĮìĿ´ìħĺ
ĠìĹ° ìĦ¤
ìĺģ ìĿ´
ĠìĿ´ ëĤł
Ġêµ ½
Ġíķĺ ìĤ¬
Ġë³´ ëĥĪ
Ġê²°ê³¼ ë¡ľ
èº «
ê³ł ëŀĺ
ä¾ ¯
Ġë¶Ģ ì²ľ
ì¡Į ìľ¼ëĤĺ
M y
Ġìµľ ìĭł
Ġë³µ ì§Ģ
Ġíķĺ ë§Ī
Ġíħ ľ
ĠíĻĶ íıĲ
Ġë¶Īë¦¬ ë©°
ĠìĿ¸ íħĶ
ul ar
Ġ ãħ
ĠëĳĲ ëĵľ
Ġìĭľê°Ħ ìĿĢ
ĠìŀĲ ìľ¨
ëĦ £
íİ¸ ìĿ´
) ;
íģ¬ ë¦¬
ëłĪ íĭ°
çľ ŀ
Ġìµľ íĽĦìĿĺ
ĠìķĪ ëĵľë¡ľìĿ´ëĵľ
ç ½
Ġíģ¬ ê¸°ìĿĺ
Ġë¨¸ ë¦¬ë¥¼
ìĸ´ ìļĶ
ìķĪ ëıĻ
Ġë¯¼ì£¼ ì£¼ìĿĺ
ĠíĶĦë¡ľíĨł ì½ľ
N C
Ġì°½ ìĹħ
y cl
ëĲĺìĹĪëĭ¤ ëĬĶ
Ġíģ¬ ëłĪìĿ´
Ġê¹Ģ ëªħ
Ġê²° ìĭ¬
Ġì´Īê¸° ìĹĲëĬĶ
æ ¾
è ĸ
ìĬ¤ ë¶Ģë¥´íģ¬
ë§Ī ìĬ¤íĦ°
ĠìĽĲ ëįĶ
ĠìĤ¼ ìķĺëĭ¤
Ġâ Ī
ĠìĪĺ ëĭ¨
ë¯¸ ìĵ°
Ġì°¸ê°Ģ íķĺìĺĢëĭ¤
ĠëĵľëĿ¼ìĿ´ ë¸Į
ìĦľ ìĽĲ
ìĸµ ìĽĲ
íķ´ ì§Ģê³ł
Ġëĭ ¿
Ġìĭł íĿ¥
ov er
ì§Ģ ëĤĺ
ĠìĻ¸ ìĿĺ
ìķĶ ìľ¼ë¡ľ
Ġë²Ī ëĩĮ
ĠìĿ´ìļ© íķĺëĬĶ
Ġëª¨ ì§ĳ
éĸ ĭ
ëħĦ ìĥĿ
ìķĦ ìĭľìķĪ
ĠíĻľëıĻ íķľ
ëĵ¤ê³¼ ìĿĺ
ĠëĮĢ ëĭ¨
Ġ6 8
Ġë¶Ģ ì²ĺ
ĠëĮĢ ë¡ľ
Ġì¶ľ íĺĦ
ëĦ¤ ìĬ¤ì½Ķ
Ġm m
Ġì£¼ ìĨĮ
ĠëĤ¨ êµ¬
Ġìŀħ ë¬¸
ĠìĦ¸ê³Ħ ìĹĲ
Ġê·¸ë¦¬ìĬ¤ ëıĦ
ĠìĪĺëª© ëĵľëĿ¼ë§Ī
Ġì¡°ìĦł ìĭľëĮĢìĿĺ
ĠíĨµ íĸī
Ġëª©ìĪ¨ ìĿĦ
ë§Ĳ ëĿ¼
a el
íķĺ ë¦¬
ì£¼ ê¸°
ĠíĨ ¤
ĠR em
íĶĮ ëŁ¬ìĬ¤
ì£¼ íĥĿ
Ġíı¬ íģ¬
Ġë°ķ ê·¼íĺľ
ĠìķĦëĵ¤ ìĿ´ëĭ¤
åº ¦
ìģ ĺ
ĠìĿ´ íĥľ
ë¬¼ ê³¼
ro s
ì¡Į ìĿĦ
Ġëª¸ ë¬´
ĠíĮĮìĿ´ ëĦĲ
íĥĢëĤĺ ë²ł
w eb
Ġë§ī ìĿĦ
ìľł ë¦¬
åľ ¨
Ġë¶Ħê¸° ìłĲ
ìĭł ëĿ¼
Ġë§Ī ë£¨
ìĺĢëĭ¤ ê³ł
ì¤ĳíĻĶ ìĿ¸ë¯¼ê³µíĻĶêµŃìĿĺ
Ċ ĠĊĠĊ
Ġìĸ´ ë¦´
Ġê±° ì¹ľ
Ġëį° ìĬ¤
ì¡Į ì§Ģë§Į
ìĿ¼ ê¸°
ëĦ¤ ìĿĺ
Ġìĩł íĩ´
Ġê¹Ģ íĿ¬
Ġë¹ ¨ë¦¬
Ġë§ŀ ëĬĶ
Ġë°´ëĵľ ìĿĺ
ëıĻ ìķĦ
Ġ ï¼
ëķĮ ë¡ľ
ä¿ Ŀ
o f
D VD
ĠC or
Ġì§ĢìĹŃ ìĹĲìĦľëĬĶ
æĻ º
íħį ìĤ¬ìĬ¤
Ġíķĺëĵľ ìĽ¨ìĸ´
ê²½ ìŁģ
ì°¨ ë³Ħ
ĠíĻĺ ìŀĲ
ut h
íķĺ ê°Ģ
Ġìłľ ìķ½
íıī ë¦¬
Ġë³Ģ íĻĶê°Ģ
Ġë¹Ħë¡¯ íķ´
ĠìķĦ ìĦľ
ĠB er
Ġêµ¬ ë¦Ħ
ĠìłķëıĦ ìĿ´ëĭ¤
ä¸Ń åŃ¸æł¡
Ã ¨
ĠìºĲ ìĬ¤íĮħ
æ ¦
ĠêµŃ ê²½ìĿĦ
ë¬´ ë¥´
Ġì¤ĳêµŃ ìĹĲìĦľ
ë³´ ê°Ģ
ĠêµĲ ìĭ¤
Ġ6 2
Ġêµ° ìĤ¬ë¥¼
Ġê³µíĻĶ ëĭ¹
íĻįì½© ìĿĺ
ĠëĳĲëł¤ ìĽĮ
ĠëĮĢ ìĦľìĸĳ
ĠìŀĦìĭľ ìłķë¶Ģ
ìĬ Ĳ
ëĵľ ë¦¬ìķĦ
ìłĦ ëŀµ
Ġê²½ ìĹ°
ĠëĮĢ ëĭµ
Ġìľł ê²©
Ġì¼Ģ ëĦ¤
è¦ ª
åĩ º
uc k
ĠíĴįë¶Ģ íķľ
Ġë³´ ìŀī
Ġë¯¸ ì¸ł
ĠìĬ¤ íİĻíĬ¸ëŁ¼
íĨµ ìĥģ
ë²Ħ ëŁ¬
ĠíŀĪìĸ´ë¡ľ ì¦Ī
ìĥĿ íĥľ
ë¡ľ ëĭĪ
Ġì²Ń ìĻĢ
Ġë³µ êµ¬
íĤ¤ íĥĢ
ĠìĽĲ íĺķ
ëĵĿ ìłĲ
Ġëĥ Īëĭ¤
ç į
Ġ9 8
Ġì½Ķ ìĸ´
ìĺ¨ ëĭ¤
å· ¦
G B
Ġìłľ ìŀĲ
Ġì£¼ íķľ
ë¥ĺ ìĹĲ
ĠíıĲ ê¸°
íĳ¸ ë¥´íĬ¸
ĠíĬ¹ ìĦ±ìĿĦ
Ġë¹Ħ ìĬ¤
íĨł ëĬĶ
ĠêµĲ ëıĦ
ë¡ł ê³¼
ìĺĪ íĶĦ
Ġë¯¼ ìĨį
ĠĊĠĊĠĊĠĊ ĠĊĠĊ
ĠìĥģíĻ© ìĿ´
ĠíĿĲ ë¦Ħ
Ġëĵ¤ ìĹ¬
åħ ¸
ĠìĿ´ ìĬ¤íĬ¸
ìķĦ ìĤ¬
Ġì½Ķ íĬ¸
ì°½ ìĽĲ
ĠëĤĺê°Ģ ëħ¸
ĠìĹ´ì°¨ ëĬĶ
ìĨĮ ëł¨
Ġê´Ģ ëŀĮ
Ġìĩ¼ íķĳ
Ġíı¬ íĦ°
Ġìŀħ ëĮĢ
Ġê³µëıĻ ì²´
ìľ Ĺ
ìĤ¬ ì§Ģ
Ġìľł ìļ°
Ġê°ķ ìĿĦ
ĠìĤ¬ìĿ´ ë²Ħ
Ġëª¨ìĸĳ ìľ¼ë¡ľ
Ġì ´
ĠëĮĢ ë²ķìĽĲ
Ġë²ķ ìĿ¸
ä¸ ĥ
ìĿĮ ìĹĲ
ĠìķĬìķĺ ìľ¼ë©°
Ġì¶ĺ ì²ľ
æĨ ²
ìĹ° ëıĦ
ĠìĹĨ ê¸°
Ġb e
Ġìĺ¤íĤ¤ ëĤĺìĻĢ
é ħ
ĠìķĦë§Ī ì¶Ķìĸ´
ì¡° ìķ½
ĠP e
ĠN ight
ë¥ µ
Ġê°Ħ ìĦŃ
ìĬ¤ìľĦ ìĬ¤
ìłľ ìĭľ
Ġì¼Ģ ë¹Ī
Ġê¸°ë³¸ ìłģìĿ¸
ëıĻ ìĦ±
ĠìĽĲ ìŀ¥
ĠëģĿ ëĤ´
Ġêµ¬ê°Ħ ìĿĢ
ì¶ľíĮĲ ìĤ¬
Ġë¦¬ ë©ĶìĿ´íģ¬
ãģ ¡
Ġíľ ł
ĠêµŃë°© ë¶Ģ
c k
æ ¤
ĠìĤ¬ ìłģ
ĠëįĶ ë¹Ļ
íĳ¸ ë¥´
ĠìĦł ëĳĲ
ĠëĤĺ ëĤĺ
ĠëĲĺìĹĪ ëĬĶëį°
G C
ì§ģ ìĽĲ
ĠíķĻ ë¶Ģ
Ġê³µëıĻ ìłľìŀĳ
ĠM P
ë§Ī ë¥´íģ¬
Ġë©Ķ ëª¨
Ġìķ½ ê°ĦìĿĺ
ì§Ħ êµ°
ĠìłĢ íĥĿ
Ġìķ¨ë²Ķ ìĿĦ
Ġê³¼ê±° ìĹĲ
) ãĢı
il m
ë°Ľ ì§Ģ
Ġìľµ íķ©
è Į
ë¬¸ ê´Ģ
Ġì ¤
ë©´ìĦľ ëıĦ
Ġì°¸ê°Ģ íķĺìĹ¬
Ġìĭ¤ìĭľ ëĲľ
Ġìĭľ ì§ĳ
ìĭł ìľ¼ë¡ľ
Ġë°ľ íļ¨
Ġìµľê·¼ ìĹĲëĬĶ
ĠìĤ¶ ìĿĺ
S F
ê°Ģ ìĿ¸
ìľ¼ ëł¤
Ġë¶Ģ íĴĪ
ĠìĹ¬ ìļ°ì£¼ìĹ°ìĥģ
ìĦĿ íĥĳ
Ġë§Ĳ íķĺê³ł
Ġê°ľë°ľ ìĿĦ
Ġê²°ìłķ íĸĪëĭ¤
éĥ İ
ĠìĪĺ ë°ĸìĹĲ
ĠìĻĢìĿ´ ë²Ī
ç Ŀ
A A
Ġëª¨ íĺķ
ãģ ĵ
ë¯¹ ìĬ¤
ë°Ķ ëħ¼
ĠíĨł ë§Ī
Ġë¶Ħíı¬ íķľëĭ¤
ìĬ¤ íį¼
Ġíķĺ ëĭ¤ê°Ģ
å¯ ¶
ĠâĢ ł
J ohn
ĠìĤ¬ìļ© ìĿ´
Ġëª© ê²©
ĠìĤ¬ ì§ģ
Ġê³§ ë°Ķë¡ľ
µ ¸
Ø §
M Hz
ìĹĶ íĦ°íħĮìĿ¸ë¨¼íĬ¸
Ġìºĺë¦¬íı¬ëĭĪìķĦ ì£¼
æĩ ī
ë¦° ìĬ¤
ë§¤ ì¹ĺ
ĠSt ar
Ġë°©íĸ¥ ìĿĦ
ë¶ ĻìĿ´
Ġíķĺ ìĻĢìĿ´
Ġêµ¬ ë¦¬
çĻ ¾
ë³¸ ìĿĢ
ìŀĦ ë¸Įë¦¬ì§Ģ
ëĵ± íķľ
ĠìķĦëĭĪ ê³ł
Ġì°¨ì§Ģ íķĺìĺĢëĭ¤
Ġ Âł
íķĺ ëĭĪ
Ġê³³ ìĿĦ
ĠìĹ¼ ìĥī
ĠìĿĢ ë©Ķëĭ¬ë¦¬ìĬ¤íĬ¸
Ġë°Ģ ìĸĳ
Ġë²Ħ íĬ¼
ìĤ¬ íķŃ
Ġê²Į ìŀ¬
m y
Ġë¬¸ ìŀ¥
Ġ18 0
Ġìĺ¤ ê°Ģ
ĠìĺĽ ëĤł
ìľ¼ë¡ľ ìĿĺ
Ġë¶Ģ ìĥģìľ¼ë¡ľ
íĺ¸ íħĶ
ĠìķĮ ëĿ¼
ì²Ń ìĿĢ
ĠìĦ¸ìĽĮ ì§Ħ
ĠëĿ¼íĭ´ ìĸ´
Ġì½ľë¡¬ ë¹ĦìķĦ
Ä ģ
ê¸° ìĿ´ëĭ¤
ë¶Ħ ìĿĢ
Ġë¬¸íĻĶ ìłģ
ĠìĿ¼ìĸ´ ëĤľëĭ¤
ĠìĽĲ ì£¼
ĠìĿ´ë£¨ ìĸ´ì§Ħëĭ¤
Ġìĸ» ê²Į
ĠAr ch
Ġìĭ¬ íķľ
ĠìĭĿ ë³Ħ
Ġì°¨ì§Ģ íķĺëĬĶ
ìķ¡ ìĿĦ
ĠìĿ´ ë§Ī
Ġì¡´ìŀ¬ ë¥¼
Ġíŀĺ ìĿ´
ëĭ¹ ìĹĲìĦľ
Ġìķ½ ì¹Ń
IN G
ëłĪ ìĬ¬ë§ģ
ĠìŀĲ ìĭĿ
ë¯¸êµŃ ìĹĲ
ãģ ķ
is ion
Ġê°ĢíĨ¨ë¦Ń êµĲíļĮ
Ġìĺ¤ì¼Ģ ìĬ¤íĬ¸ëĿ¼
Ġë²ł íĥĢ
n h
íı¬ íĦ°
Ġë°Ģ ìłĳ
er man
Ġë§Ĳ íķł
Ġìķ¼ ê¸°
ĠìķĬìķĺ ëįĺ
ìĿ¼ ê°Ħ
19 28
ĠìŀĪëĭ¤ ê°Ģ
ãĥ Ń
ë³Ģ ê²½
Ġ6 1
ĠD es
ĠíķŃê³µ ìĤ¬
Ġê¿Ī ìĿĦ
ìª½ ìĿĺ
ĠìŀĪëĭ¤ ë©´
ĠëĤĺ ìģľ
ĠH IV
Ġê°ĢëĬ¥ ìĦ±ìĿĦ
n ow
ë° ı
ĠìĦľ ë¨¸
ĠS H
ìļ¸ ëŁ¬
Ġê¸ī ê²©
ìĥĿíĻľ ìĿĦ
ê·¸ ëĿ¼ëĵľ
Ġì¹ľ ìĦł
ĠìĺĨ ìĹĲ
S M
ĠëıĻ ìķĦìĭľìķĦ
íĿ ĺ
ĠíĥĢìĿ´ê±° ì¦Ī
Ġìĺģ ê°ĲìĿĦ
æ´ ¥
Ġ un
ì¡° ë¬¸
ĠA s
ê¶Į ìľ¼ë¡ľ
ë²Ī ì§Ģ
ìĹ´ ìĿĺ
ĠìŀĲìľł ë¥¼
íı´ ëŀĢëĵľ
CA F
ë¬¸ ìŀĲ
ĠìĦ¸ ëł¥ìĿ´
ĠR ep
ĠT o
ĠìĿ´ìĸ´ ìł¸
ĠëĮĢ ì£¼êµĲ
Ġë°©ë²ķ ìĿ´
ĠíĶ¼ ìĹĲë¥´
æ® ¿
ç ¹
ou th
ĠìķĦëŀĺ ìĿĺ
FI FA
ĠëĤ± ë§Ĳ
ì½ ¥
íĬ¸ë¦¬ ìĺ¬
Ġì»¨ íĬ¸ë¡¤
íķĻêµĲ ë¡ľ
ĠìĨĮ ëĭĪ
ìŀĳ ìľ¼ë¡ľ
ë°© ìĹĲ
ĠíĨµ íıĲíķ©
Ġìĸ¸ ëĭĪ
íĨł ê°Ģ
Ġìŀ¥ ë¯¸
ì± Ķ
ë¸Ķ ëŀĻ
ëł¸ ìĿĦ
ĠìĿĺë¯¸ ë¡ľ
ĠìĽĲ ë¡ľ
Ġêµ¬ê°Ħ ìĿĦ
ì¢Į ìĥģ
íĭ° ìĿĺ
íİ «
Ġê³µëıĻ ìľ¼ë¡ľ
ĠëıĦìĭľ ë¥¼
Ġê¸¸ ìĿ´ê°Ģ
ĠìĿ¼ íĻĺìľ¼ë¡ľ
ĠíĹĮ ìķ¡
ĠIS BN
Ġëħ¸ ìĿ¸
Ġêµ° ìĪĺ
Ġìº ĺ
ĠëıĦìĭľ ëĬĶ
Ġìĭľ ëĭ¬
Ġê³ł ì§Ģ
Ġì¶Ķ ëĮĢ
ĠíļĮ ìĥī
Ġìķ¼ë§Ī êµ¬ì¹ĺ
Ġêµī ìŀ¥
íķĻ ìĹĲìĦľ
ro l
Ġì§ģ ë¬´
ëħĦëĮĢ ë¥¼
ĠëĤł ì§ľ
en a
ëŁ¬ ëĬĶ
éĻ ³
Ġìĺ¤ëĬĺëĤł ìĿĺ
Ġíķĺ ëħ¸
Ġë§Ĳ íķĺë©°
Ġíģ¬ ê¸°ëĬĶ
Ġíķ´ì²´ ëĲľ
ĠëĳĲ ë²Īì§¸
Ġìºł íį¼ìĬ¤
êµ ¿
íķĺ ê²łëĭ¤ê³ł
ì° ®
form ation
C om
ìĿ¸ ê¶Į
Ġì£½ ìŀĲ
Ġê¾¸ì¤Ģ íŀĪ
F L
Ġì£¼ ìļĶíķľ
ĠíĹ¤ ëĵľ
Ġìłľê³µ íķĺê³ł
193 1
ĠìĬ¤íĬ¸ë¦¬ íĬ¸
Ġê¹Ģ ìľ¤
ìĽ ¬
Ġë¶Ħ ëį°ìĬ¤
Ġê²Į ìĿ´íĬ¸
Ġ19 16
ìļ© ìĿĦ
å¤« äºº
ĠìĿ´ìĿµ ìĿĦ
ìĤ¬ íĽĦ
Ġê°Ģ íķ´
ì£¼ìĿĺ ëĬĶ
ĠG irl
ìºł íį¼ìĬ¤
Ġíĥ ¤
Ġê¸° ìķĦ
Ġíķľ ê°ķ
Ġëĭ¤ ê°Ģ
ì¹´ íĬ¸
Ġë¶Ī ìĥģ
Ġëª¸ ê¸¸
ëĶĶ ê°Ģ
Ġìķ½ íķľ
Ġì£½ ê³ł
Ġì±ħ ìĿĢ
éĥ ŀ
ìĿ´ ì§ĳ
ìµľ ê³ł
ĠC ent
ë¥ł ìĿ´
æŃ Į
Ġë¶Ģ íļĮìŀ¥
Ġê²°ìĬ¹ ìłĦìĹĲìĦľ
íĥĢ ë¦¬ìĺ¤
Ġìĺ¬ ë¦°
Ġíİĺ ë£¨
Ġë¯¸ ìĸĢ
Ġì§Ħ ì§ľ
Ġì¶© ê²©
Ġë²łëĦ¤ ìĪĺìĹĺ
ê³ł ì§Ģ
ëıĦ ìĸ´
íĮĲ ë§¤
ìŀĲ ëĤĺ
ê³¼ ëıĦ
ìļĶ ë¦¬
ëĳĲ íĻĺ
ì¼ĢìĿ´ íĮħ
ĠëĤĺ ìĦł
Ġê³¼ ìŀ¥
íį¼ ëĭĪ
r ing
ĠíĨ ¨
ĠìŀĦ ìĥģ
Ġs h
ĠëĪĦ ëĤĺ
Ġì¡° ë¶Ģ
Ġëĵ± ëıĦ
ĠìĤ´ íİ´
ĠëĶĶë¹Ħìĭľ ìĺ¨
ìļ° ìĻĢ
ë°© ìĿ´
ĠE v
Ġìĺ¨ ëıĦ
ĠêµĲìĪĺ ë¡ľ
ĠìłĦ ìĬ¹
ĠìĿĺ ë¢°
Ġíĥľ ì¢ħ
ï¼ Į
ĠìķĦìļ° êµ¬
Ġê± ±
Ġíı ¼
Ġë¬´ íļ¨
ìĭ¬ ìĤ¬
Ġ Ä
ëĲľëĭ¤ ëĬĶ
Ġìĭ¶ ìĿĢ
ç¯ Ģ
p s
Ġë¦¬ ìĬ¤
Ġì§Ģ íĺľ
ì¡± ìĿĦ
ĠëĤ´ìļ© ìĿĺ
t he
å¼ ĺ
íĽĦì¿ł ìĺ¤ì¹´
c he
Ġêµ¬ ìĥģ
ĠíĽĦ ê¶ģ
19 19
ĠíĮĮ ì¶©ë¥ĺ
ì¶ķ ìłľ
ur a
ë©ķìĭľì½Ķ ìĿĺ
at us
ĠíĶĦë¡ľê·¸ëŀ¨ ìĿĺ
ìĿ´ìĹĪ ëĬĶëį°
Ġëĸł ëĤľ
r ay
Ġê°Ģ ì§Ī
ĠìĺĪ ìłĦ
ang u
Ġê²¨ ìļ°
ĠìķĬ ëıĦë¡Ŀ
iz e
o ch
ëĭ¹ ìľ¼ë¡ľ
Ġì¡¸ìĹħ íĸĪëĭ¤
æķ ¬
Ġìĺ¹ íĺ¸
ê°Ħ ìĿĦ
Ġë¦¬ ì¹ĺ
ê³ł íķľ
Ġìķķ ë°ķ
ìĻ¸ êµĲ
Ġd er
ì¹¼ ëĿ¼
Ġë¬¼ ìĿ´
ĠM ag
od y
Ġìŀĥ ê³ł
ëĵľ ìĹĲ
ĠìĿ¼ ë¡ľ
Ġíĥ ķ
ĠS ec
íļĮìĿĺ ìĽĲ
Ġì¤Ģ ê²°ìĬ¹
f l
ĠA ward
Ġìłģ ìĥī
Ġíĸīìłķ ëıĻ
ĠìŀĲë£Į ë¥¼
Ġë©ķìĭľì½Ķ ìĿĺ
ìłĦ ìĦł
ë¹Ħ ëĤĺ
Ġìķł ëį¤
ĠìĤ¼ ìķĦ
ĠíĻľëıĻ ìĹĲ
æµ ģ
Ġì´Ŀ ìŀ¥
ĠìĭľìĬ¤íħľ ìĿĺ
ĠìłĦ ìĦ±
ĠS oci
Ġëį° ë¦¬ê³ł
ĠB est
Ġëª» íķ´
åĶ Ĳ
Ġê¸° ìĥĿ
íĶĮ ëłĪ
ĠìķĦë¥´ ë©ĶëĭĪìķĦ
é« Ķ
êµŃë¯¼íķĻêµĲ ë¡ľ
ĠìĤ¬ ì¿ł
ìĦĿ ê¸°
Ġìłķë¶Ģ ë¥¼
Ġìľ¤ ë¦¬
Ġëĭ´ëĭ¹ íķĺëĬĶ
ìĻķ ì¡°
ĠìŀĳíĴĪ ìĿ´
Ġíķ´ êµ°ìĿĺ
Ġì¹´ íĥĪ
Ġëªħì¹Ń ìĿ´
Ã ¢
Ġê²ĮìŀĦ ìĿĢ
Ġì¡¸ìĹħ íķľ
iv er
ĠëıĮìķĦ ìĺ¤
ĠìĦł ìłľ
Ġíİ¸ìŀħ ëĲĺìĹĪëĭ¤
ëĿ¼ íģ´
Ġë¶Ģ ë¶Ģ
ìĹĳ ìĬ¤
íĻĶ ìĹĲìĦľ
ëį Ł
Ġ5 000
ãģ £
ìľĦìĽĲíļĮ ê°Ģ
ìĿ¸ìłĳ ìĹŃ
ĠìĪĺ ìĭł
åľ Ł
ĠìĿ´ ìĨĮ
Ġë³´ ì¶©
ĠM od
íĻ© ê¸Ī
ĠìłĦíķ´ ì§Ħëĭ¤
Ġê ¾
ìĤ¬ íĨł
ĠD ream
ê²° ìĿĦ
Ġì¢ħêµĲ ìłģ
Ġê¹Ģ íĺķ
ar m
Ġìĺ® ê²¼ëĭ¤
ìŀĲ ë¥´
ĠìĦł ë¬¼
ĠëĤ¨ ëıĻìĥĿ
ë¸Ķ ë¦¬
Ġê·¸ëŁ¼ ìĹĲëıĦ
ĠìŀĲ ë°Ķ
ĠëıĻ ëŀĺ
ĠëĮĢíķĻ ìĹĲìĦľ
ĠìĹĶì§Ħ ìĿĦ
Ġê²½ ë¶Ģ
ë³´ ë¦¬
íĮĮ ìĹĲ
Ġê¹Ģ íĺľ
Ġë¬¼ ê±´
Ġíĺĳ ìĥģ
ĠìĿ´ìķ¼ ê¸°ê°Ģ
Ġë¿Ĳ ìĿ´ëĭ¤
Ġê³µ ìļ©
Ġê³ł ë¦½
ĠíĶ¼ ë¶Ģ
Ġë³Ħ ëıĦë¡ľ
Ġë¬¸íĻĶ ìĿĺ
1 20
E M
ëĭ¤ ë¥´
Ġëª¨ ìĪľ
íķ´ ì£¼
Ġì»¤ íĶĮ
ĠìľĦíĹĺ íķľ
ĠìľĦ ê¸°ìĹĲ
ì²´ ìłľ
Ġë¶Ħ ìĤ°
Ġìĸ¼ë§Ī ëĤĺ
Ġíıī ìĿ¼
ë³´ ë¥´
Ġ7 7
Ġê²°ê³¼ ê°Ģ
Ġê³Ħ ê¸°ê°Ģ
ĠìĺĪ ë¡ľ
ì¸ł ìĻĢ
åĪ ¶
Ġ ÃĹ
ì§Ģ íķĺ
ì¹ĺ ë©°
ìĬµ ìĿĦ
ë¡ľ ëıĻ
ê³ł ìŀĲ
íĨł ë¥¼
ĠìľłëŁ½ ìĹĲìĦľ
Ġ188 9
b l
íķĺìĺĢ ìĿĦ
ë¦¼ ìĿĦ
ĠíŀĪë¡ľ ìĭľ
ìĦłìĪĺ ê¶Į
ìķĦ ë¹Ħ
Ġë¯¸ ìĭľ
ìľł ë¯¸
ëª¨ ëĬĶ
Ġë§Ĳ ìĿĢ
Ġëª¨ìĸĳ ìĿĦ
é į
ìµľ ì¢ħ
' '
ìłĦëĿ¼ ëĤ¨ëıĦìĿĺ
åĤ ³
ìĭł ìĦ±
i en
íķĺ ëŁ¬
Ġë°Ŀ íŀĪ
ë´ Ĳ
ĠëĨį ë¦¼
ç© º
ĠìĦ¸ ë¸Ĳ
? "
ë¡ľ ìĿ´
ĠëıĻ ì¹ĺ
Ġë§Ī íĤ¤
ĠìĹĨ ìķł
ì§ĳ ëĭ¨
Ġê²½íĹĺ ìĿĦ
ĠìĻ ĵ
ĠëĤ¨ íķľ
ĠìĨĮìŀ¬ ìĿĺ
æµ ¦
ê±° ì§Ħ
ìĭ¤ ìłĲ
Ġëªħ ìĦ±ìĿĦ
Ġë¶Ħìķ¼ ìĿĺ
ê³µ íĮĮ
Ġë£ ©
Ġê³µ ì§ģ
ĠíĶ¼ ìĹĲ
ëĭ Ń
Ġë¸Ķ ë£¨ìĬ¤
Ġe ìĬ¤íı¬ì¸ł
Ġë¯¸ ìħĺ
ë¥ĺ ë¡ľ
ëªħ ìĿ¸
ĠB S
ìĭł ê³¼
íĥĢ ë¦¬
åł ´
Ġì Łģ
ĠìłĦ ìĹ¼
ìĨĮ íķľ
Ġìŀ¥ìķł ìĿ¸
ĠìĿ¼ë³¸ ìĿĢ
Ġë°± ìĿ¸
ĠíĹĪ ë¦¬ì¼Ģ
Ġê²°ê³¼ ëĬĶ
Ġ ro
Ġê¸° ìļ©
ê°ľ ëĬĶ
ì¡Į ëĬĶëį°
u rop
Ġë¹Ħ ì¦ĪëĭĪìĬ¤
Ġ9 6
íİ¸ ìĹĲ
Ġìķ½ ë¬¼
ĠìĿ´ìĬ¹ ë§Į
Ġê·¸ ì¤ĳ
Ġë¹Ħ ê·¹
ĠìĿ´ ìĹĪëĭ¤
ë£¨ ìĬ¤ìĿĺ
ĠìĽĶ ìļĶìĿ¼
ĠìĪĺë¡Ŀ ëĲľ
ĠìĦł ì§Ħ
Ġ ä½ľ
ìĪ ²
Ġì¹¨ íķ´
Ġìļ´ëıĻ ìĹĲ
å¾ Ĳ
ä» ¤
R e
ĠS ong
ĠëķĮ ëıĦ
ì¶ľ ìĿĦ
ëĮĢ ë¦¬
ĠìĦ¸ ìļ°ê³ł
Ġëĭ¬ ìĿĺ
ëħĦ ìľ¼ë¡ľ
Ġì¤ĳ ìŀ¥
ĠëĶ ĺ
íģ´ ëŀľëĵľ
Ġíĸ¥ íķľ
Ġì°¾ ê¸°
ĠIn t
ë©ĺ íĬ¸
ê²½ ì£¼
ĠìĤ¬ëŀĮ ìĹĲê²Į
Ġì´Ī ìłĲìĿĦ
ëª© ë¡Ŀ
Ġë§İ ê³ł
Ġê·ľ ìłľ
ì§Ģ ê¸°ëıĦ
Ġíķĺ ë²Ħëĵľ
ë³´ ìĪĺ
ì²Ń ìĿ´
ĠB ook
ĠíĶ¼ ëĤľ
ĠìĿĳ ìļ°ìĺĮ
ëļ Ŀ
Ġê³ł ë¯¼
ëª¨ ìĬ¤
ë²ł ëĦ¤
íĶĮëłĪìĿ´ ìĬ¤íħĮìĿ´ìħĺ
Ġíİĺ ë¦¬
è§ Ģ
ìĬ¤ìľĦ ìĬ¤ìĿĺ
ë²ĦìĬ¤íĦ° ë¯¸ëĦĲ
ĠìĿĺ ì§Ģ
Ġë°ĺ ìĤ¬
ĠëĶĶ ë¹ĦìłĦ
ĠëĮĢíļĮ ë¥¼
éĢ ²
ĠìĿ¼ìĿ¼ ìĹ°ìĨįê·¹
ĠìĨĮ ëĭī
ĠìĹĲ ë²Ħ
ĠìĤ¬ìļ© ìĿĦ
ĠëĶ° ëľ»
Ġì¶© ë¶ģ
Ġë³´ ëĭĪ
ê·¸ ëŁ¬
ĠìĺģêµŃ ê³¼
ĠY our
N ew
ĠëĮĢ ìĿĺ
ì½Ķ ë¯¸ëĶĶ
ìĿ´ìĬ¤ ëĿ¼ìĹĺ
íĨµê³Ħ ìĭľìĬ¤íħľ
ë¡ľ ë§¨
Ġìŀĳ ìłĦìĿĦ
íĮĮ ë¥´
ĠìķĪ ìĤ°
Ġì¹¨ ëª°
ìĤ¬ëł¹ ê´Ģ
ê²½ ë¶ģ
ĠíĮĮìĿ´ íĦ°
Ġê¹Ģ ê´ĳ
ìĦĿ ìľ¼ë¡ľ
ì¯ Ķ
ìłľ ìĿ¼
íĥĢ ìĿ¸
a ul
b e
Ġì¡° ìĥģ
Ġê´Ģ ìŀ¥
Ġìĺ¬ ë¦¼
ãģ ¿
ĠìĦłê±° íĨµê³ĦìĭľìĬ¤íħľ
Ġë°ĸ ìĿĺ
ìĬ¤ íį¼ëĵľ
ĠëłĪ ëĭĮ
ĠìĻķ ìĭ¤
ĠíĿĶ ëĵ¤
ë§Ī ìŀĲ
ëĤ¨ ë©´
ĠíĬ¸ìľĪ ìĬ¤
Ġë¶Ģ ìĦ¤
ëĵ± ìĹĲ
ëĪĦ ìĹĺ
âĹ ĭ
ograp hy
ĠìĹŃ ëıĦ
ìĭľì¦Į ìĿĦ
Ġê¸° ì²´
Ġíħ Ķ
Ġì²´ ì¡°
ĠíĹĪ ë¸Į
Ġê±´ ìĿĺ
ou g
ĠíĺĦ ê¸ī
Ġëĭ¹ íĸĪëĭ¤
ĠìĿ¸ê°Ħ ìĿ´
Ġë º
ĠëĲĺìĹĪëĭ¤ ê³ł
íĿ¬ ëĮĢíķĻêµĲ
L a
Ġê²° ìłķìĿĦ
R I
Ġë¶Ģ ì°©
ì§ĢìĹŃ êµ¬
ĠìĽĲìŀĳ ìŀĲ
ëĮĢ ìĪĺ
ìķĦ ìĹŃ
ĠAmer ican
ë§Ī íĤ¤
ì³¤ ê³ł
åĪ Ŀ
ĠìĪĺ íķĦ
ë°Ķ ìĿ´íĬ¸
ëĬĲ ë¦¬
ĠĊĠ ĠĊĠ
ìĸ´ ìĿ´ëĭ¤
Ġìłķ ìĿ´ëĭ¤
i oc
ì§Ģ ëĬ¥
ĠT op
íķ¨ ìĿĢ
ìĭľ ëĤ´
ĠíĻķìĿ¸ íķł
ê³µ ê°ľ
Ġë¶Ģ íĿ¥
ĠíķĺëĤĺ ë¥¼
Ġê°Ĳëıħ ìĿ´ëĭ¤
ì¶Ķ ì§Ħ
ĠìĿĳ ëĭµ
ì§ĳ íĸī
è ®
ĠëĶĶ ìķĦ
Ġì°¾ ìĿĦ
Ġì§Ħì¶ľ ìĹĲ
í Ĳģ
íģ¬ ëłĪ
ë¹Ħ ìķ¼
ì¿ł ë¥´
ê¸Ģ ë¦¬
ĠI P
ĠìĭľëĮĢ ë¥¼
Ġíķ©ë³ĳ íķ´
ĠëĿ¼ìĿ´ìĺ¨ ì¦Ī
A K
ì ·
ĠëķĮë¬¸ ìĿ´ìĹĪëĭ¤
Ġë²Ķ ì£¼
Ġëĭ¹ìĦł ëĲĺìĹĪëĭ¤
ëĤĺ ê²Į
Ġê²½ ê³Ħë¥¼
ìķĺ ìĿĦ
ĠìĿ¼ë³¸ êµŃìľł
ëĲĺìĹĪ ê¸°
ìĽĲìĿĺ ìĽĲ
ĠK IA
åĪ ¥
ãĥ ŀ
ĠìĦ¬ ìľł
ra in
ìĸ´ ìĹĲìĦľ
Ġìłģ ìĿĺ
Ġë§ī ìķĦ
íĢ ¸
Ġíı´ëŀĢëĵľ ìĿĺ
Ġì½ĺìĬ¤íĥĦ íĭ°ëħ¸
ìĭľ ëĮĢìĹĲ
ì½Ķ ëĶ©
at ive
ĠìĻķ ìľĦ
ìĦľ ë¶Ģ
19 24
ĠìĦ¸ê³Ħ ìłģìĿ¸
Ġë¬¸íĻĶ ë¥¼
Ġíķĺ íĤ¤
ĠIn ter
-- --
Ġìŀĺëª» ëĲľ
ĠëķĮ ëķĮë¡ľ
ĠB o
" .
ĠìĤ¬ ìĽĲ
Ġê¸° ì¢ħ
ĠìĤ¬ìļ© íķ´
ĠìĭľìĬ¤íħľ ìĿĢ
Ġì°© ë¥Ļ
C E
ìļ° ì§Ģ
ĠìŀĲ ìĨĲ
Ġì§Ħ ìĺģ
ĠìĤ¬ìļ© íķĺë©°
ĠíĨł íģ¬
Ġì²ľë¬¸ íķĻìŀĲ
{ |
ĠìŀĲ ê²©ìĿĦ
ë°ĺ ìĿĦ
Ġìµľ ìĹ°
Ġë³´ìĹ¬ì£¼ ìĹĪëĭ¤
ì½Ķ íĮĮ
ĠìĺĪ ìĸ¸
ĠëłĪ ìĿ´ëĭ¤
l or
19 29
ĠëĤ¨ ìª½ìľ¼ë¡ľëĬĶ
Ġë¯¸ ëħ¸
íı¬ ë³ĳ
ĠëĤ´ ìłĦ
å¾ ¡
Ġì§ģìłĳ ìłģìĿ¸
ĠëĿ¼ íĬ¸
ìĿ´ íķĺ
ê²½ ê³¼
ĠM ed
íķ¨ ìľ¼ë¡ľ
ë¡ł ìŀĲ
Ġë²ķ ì¡°
ì¦Ŀ ìĿ´
Ġì§Ģ ëĤ´ê³ł
ĠìĦ¸ ê·ł
Ġìĥģ ìĥģ
ë¶Ħ ê³¼
íİ¸ ìĿĦ
Ġíļ Ł
ìĬ¨ ìĿ´
ç Ĵ
ĠëĤ¨ ìļ°ì£¼ìĹ°ìĥģ
Ġíķ© ê³Ħ
êµŃìłľ ê³µíķŃ
ĠìĤ¬ìļ° ëĶĶìķĦëĿ¼ë¹ĦìķĦ
ĠìĦ± ìĿĺ
ĠìĿĮë°ĺ ìĿĺ
Ġê°ľìµľ ëĲĺìĹĪëĭ¤
Ġìłķ ê¶ĮìĿĦ
ĠìļĶêµ¬ íķĺëĬĶ
Ġê³µìĭĿ ìłģìĿ¸
ìĦ± ìĹĲìĦľ
ĠìĦ±ê³µ ìłģìľ¼ë¡ľ
íķĻê³¼ ë¥¼
ĠìĽ¹ íĪ°
êµŃ ëĤ´
Ġì¶© ì¡±
Ġìĥģ ìŀ¥
ëĦ¤ ìĭľìķĦìĿĺ
ic le
ĠE X
ĠíĮ¨ ë°Ģë¦¬
Ġì§Ģìłķ ëĲĺìĸ´
al s
Ġì²« ë²Īì§¸
Ġê¹ Ķ
Ġëĭ¹ íķľ
u ch
ìĽĲ ìŀĲ
ê³¨ ëĵł
ĠëĿ¼ìĿ´ ìĦł
Ġì¡° íķŃ
ĠìłĲ íĶĦ
Ġê°Ĵ ìĿĦ
è İ
ĠëĤĺ ìĹ´
Ġìłģ ëĮĢ
ĠíĬ¸ ë£¨
ĠíĶĮ ëĿ¼ìĬ¤
ĠìĨĲ ê°ĢëĿ½
ê´Ģ ì°°
ë°Ķ ëĭ¥
ĠíĿ ©
Ġì§Ģë°© ëıĦ
ë¯¸ ìĥģ
ì¶ľ ìłĦ
ì¹ľ ìĿ¼
Ġìľłì§Ģ íķĺê³ł
ĠìĬ¤ ì¼ĢìĿ´íĮħ
ĠìĦ¤ ìĿ´
Ġì´Ŀ ìĦłìĹĲìĦľ
ĠìĿ¼ë¶Ģ ë¡ľ
Ġì½ĺ íħĮìĬ¤íĬ¸
ĠíĽĦ íķľ
Ġìŀĳ ìĤ¬ê°Ģ
Ġë³ĳ ëł¥ìĿĦ
1 10
Ġëĵ ł
ëª¨ ëħ¸
Ġìĺ¨ ì²ľ
ì¿ł ëĭĪ
Ġê´Ģê´ĳ ê°Ŀ
ì°¨ ìŀ¥
Î ¿
ĠìĨĮìĨį ëĲĺìĸ´
Ġíį¼ ìł¸
ìĸ´ ì¡±
Ġê·ľëª¨ ê°Ģ
Ġë¹Ľ ìĿĺ
Ġì§Ħ ìłķíķľ
ì²Ń ìĿĦ
ĠíļĮ ê³ł
Ġì±ħ ë´ī
ê³ł ì¢ħ
ĠìĹ´ ìĸ´
ä¿ ®
íĬ¸ ë§¨
Ġìŀĳê³¡ íķľ
ĠìķĦì§ģ ëıĦ
ĠìĹĶì§Ģ ëĭĪìĸ´
ĠíĶĦëŀĳìĬ¤ ìĿ¸
ìĸ´ ìĹĲ
Ġë¹Ħ ë¡ľ
íĭ° ëĤĺ
Ġë°ĺ ë©´ìĹĲ
ĠìĦľ ì´Ī
ĠìķĪ ìĿĺ
o ft
Ġ6 7
Ġë¡ľ ìłĢ
ĠP S
ì§ģ íķľ
Ġê´ĳ ìŀ¥
Ġíĸ¥ ëħĦ
ìŀĲ ìĿ´ìŀĲ
ĠìĨĮ ê´Ģ
ê¸° ìĽĲ
ë¶Ī ê°Ģ
Ġìļ°ìĪĺ íķľ
ĠëĵľëĿ¼ìĿ´ ë²Ħ
E G
ĠìŀĲ íļĮìĤ¬
re en
Ġì£¼ ìłľë¡ľ
ìĭľ ëĭ¤
ĠìĦľ ìª½ìľ¼ë¡ľëĬĶ
ì¦Ŀ ê¶Į
ĠìķĦ ëĵ¤ìĿĦ
Ġëħ¸ ë¦¬
ìĭľ ê²Į
Ġìĭľ ìĻ¸
Ġê³ł ë¶Ħ
ĠêµŃë¯¼ìĿĺ íŀĺ
Ġíķĺ ìĸĢ
Ġì¤ĳ ê¸°ìĿĺ
ê°ģ ìĿĺ
ĠìĤ° ëĭ¤
è³ ¢
ì¡° ìĻĢ
ĠC PU
éģ Ķ
ë ĺ
ëıĻ ìĹĲìĦľ
é Ĳ
Ġìĸ ĩ
ìĹ°íķ© íļĮ
ar g
ĠíķĻ ê³¼
ĠE l
ĠìłĦì²´ ìĿĺ
íķ´ ëĬĶ
Ġë¯¸êµŃ ìĿ´
å¿ Ĺ
ĠìĽĢì§ģ ìŀĦ
ë²Ī ëĩĮ
Ġìĺ¤ ì§Ģ
ãģ Ĭ
ëª© ìĨĮë¦¬
ast er
åī ¯
ì§Ħ ê³¼
ë³´ ìĹĲ
ì£¼ìĿĺ ìĹĲ
Ġíķ© ì°½
Ġì·¨ ìķ½
Ġë§ĪìĿĮ ìĿ´
Ġë¹Ľ ìĿĦ
Ġìĸ Ģ
Ġë²ł ìĸ´ìĬ¤
ĠëĶĶìĬ¤ íĶĮëłĪìĿ´
Ġìŀ¥ ìĦ±
Ġë°ķ ì¥Ĳ
å¤ ļ
ëĦ¤ìĨĮ íĥĢ
ĠëıĻ ë©Ķëĭ¬ë¦¬ìĬ¤íĬ¸
ìĸĳ ìĦ±
ãģ §
ĠëĤ¨ ìĽĲ
ĠìĺĪ ë£¨ìĤ´ëłĺ
ì¯ ¤
p or
ê» ´
ĠíĽĪëł¨ ìĿĦ
ë Ľ°
Ġê´Ģ ìłĲìĹĲìĦľ
Ġë§ĪìĿĮ ìŀĳìļ©
Ġì´Į ìĿ´
Ġ ;
Ġê³ł ëıĦ
ê°Ĳ ìĤ¬
íķĺ ëĿ¼ê³ł
ĠìĿ¼ ìĽĲìľ¼ë¡ľ
Ġë¬´ ì£Ħ
Ġë²Ħ ë¦¬ê³ł
Ġì¶ľìĹ° íķľ
ä½ Ĳ
Ġëĵľ ëŁ¬ëĤĺ
ĠíĸĪëĭ¤ ê³ł
Ċ ĠĠ
Ġë¶ ĻìĿ´
ë£¨ ìĿ´ìĬ¤
ĠìĪ¨ ê²¨
æ Ĥ
ĠíħĮ ëłĪ
ĠíĻľ ìĦ±
Ġê³¼íķĻ ìłģ
Ġê³Ħíļį ìĿ´
ĠëĤĺëĿ¼ ë¥¼
ëĭ¤ ì¹´
Ġìĭľ ê·¸
ä¾ į
ë Ń
ì²´ ìĿ¸
Ġì§ĢìĹŃ ê³¼
Ġì¸¡ ìĿĢ
ĠëłĪìĿ´ ìłĢ
Ġë¶Ģ íĺ¸
ĠíĻĶ ë©´
êµĲ êµ¬
ĠA KB
ĠìĻĢ ìĿ¼ëĵľ
ĠPh il
ĠìĿ´ëªħ ë°ķ
Ġë§Į ëĤ¨
ĠìĺĪìĪł ê°Ģ
ëĵ¤ ë¦¬
Ġê³µ ì±Ħ
ĠìĦľ ëıħ
êµŃ ìłģ
Ġìĺ Ĳ
Ġìĭł ë¹Ħ
Ġëĭ¨ ìĦł
íħĮ ëĤĺ
ìľĦìĽĲíļĮ ëĬĶ
Ġë§Īë¥´íģ¬ ìĬ¤
Ġìĥ ¹
ë³ĳ ìĿ´
Ġê°ĢëĬ¥ íķĺê²Į
å¼ ı
Ġê°Ħëĭ¨ íķľ
Ġë³´ ìĥģ
ĠëıĻ ìª½ìľ¼ë¡ľëĬĶ
ĠìĦľ íķ´
Ġëªħ ëĭ¨ìĹĲ
Ġì¹´ ìĻĢ
íĻį ë³´
Ġìłľëª© ìľ¼ë¡ľ
A d
ĠìĿ´ ìĬĪ
Ġìĺģ ëĤ¨
íĭ° ìķĦìĿĺ
ìºĲ ìĬ¤íĬ¸
ëıĻ êµ¬
íĨł ë¡ł
íĶĮ ë£¨
ì¸µ ìĦĿíĥĳ
ìĸ¸ ë¡ł
ì½ľ ëĿ¼
å ĺ
êµ° ìĹĲìĦľ
Ġêµ° ëĭ¨
ĠPro ject
ë°Ķ ë¦¬
Ġì°© ìĪĺ
ìĦł ì¡°
Ġì¶Ķ ìĤ°ìľ¼ë¡ľ
Ġíĺĳ ì£¼ê³¡
ur y
ëį ±
ĠëıĦ ë¯¸ëĭĪ
el s
ourn al
ĠìĤ¬ìĭ¤ ìĿĢ
ne y
d er
ë©Ķ ê°Ģ
ĠíĻľëıĻ ìĿ´
ëłĪìĿ¸ ìłĢ
Ħ ëĭ¤
êµĲ íĨł
ĠB ro
Ġìļ´íĸī íķĺëĬĶ
ç§ Ģ
Ġìľł ëĦ¤ìĬ¤ì½Ķ
ëł¤ ìĦľ
ĠíĶ¼ íĬ¸
ĠìĹ° ëł¹
Ġë°ĶìĿ´ ëŁ¬
ĠìľłëĭĪ íı¼
Ð ¼
Ġ he
Ġì¡° ì¹ĺë¥¼
ur es
ë¡¯ ëį°
ê²½ ê¸°ë¥¼
ĠìĽĲ ìĪĺ
Ġì§Ģë°© ìĹĲ
Ġìĺ¤ìĬ¤íĬ¸ ë¦¬ìķĦìĿĺ
p ro
ëĮĢ êµ°
ĠìķĦ ë¦¬ìĬ¤
Ġë°° ìłľ
Ġë©´ ìłģ
ĠìŀĲì¹ĺ êµ¬
B I
ĠíĮĮ ìļ´ëĵľ
ë²Ķ íķľ
Ġëª¨ëį¸ ìĿ´ëĭ¤
ê³ł íĺĦ
Ġíķĺ ëĿ¼
ìĺģ ìĽħ
éĸ ĵ
ĠëĭĮ íħĲëıĦ
ĠíķĺëĤĺ ëĭĺìĿĺ
Ġì¦Ŀ ìĨĲ
ĠíķĻêµĲ ë¥¼
ĠíĻĶëł¤ íķľ
Ġìł ĸ
ìłľ ë¦¬
Ġìļ° ì²´êµŃ
íĥľ íĶĦ
Ġê¸Ī ìļĶìĿ¼
Ġ6 9
Ġì°¨ ìĿ´ë¥¼
ë³Ģ ìĿĦ
ĠëĮĢíļĮ ìĿ´ëĭ¤
Ġë²Ķ ìľłíĸī
ĠëĤĺì¹´ ë¬´ëĿ¼
Ġíħį ìĬ¤íĬ¸
Ġëª» íĸĪê³ł
Ġê³ĦìĹ´ ìĿĺ
Ġìĸ´ëłµ ëĭ¤
e in
19 18
ë¯¸ ì½Ķ
Ġë¯¸ íķĺ
ëĤ´ ê°Ģ
ìĺĪ ìłķ
ĠìķĦëĭĪ ìĹĪëĭ¤
ĠìŀĲìľł ë¡Ńê²Į
ë²łë¥´ íĨł
Ġì £ł
íĮĢ ìĿĢ
Ġì¦Ŀ ì¶ķ
ìĿ´ì§Ģ ë¦¬ìķĦ
ìĺ¬ ë¡ľ
o id
ë¬´ ìŀ¥
Ġì°¨ ê¸°
ur al
ĠìĦ¬ ìĿĺ
hy s
Ġìļ° ë£¨ê³¼
ë¥ł ìĿĦ
Ġë³´ ìĤ´
el f
ëĦ ĵ
ĠìĨĮ ì´Ŀ
ĠS w
å¯ ¦
Ġë£¨íĬ¸ ë¹ĦíŀĪ
Ġìĭľ ë¥¼
ĠëıĦ ì¹´ìĿ´
Ġë¦¬ ëĪħìĬ¤
íĺķ ìłľ
ĠíĶ¼ ëłĮ
Ġìķ¨ ë¦¬ìĬ¤
ĠìłĦ íĸ¥
ë¶Ħ íı¬
Ġë°ĺ ì§Ģ
ìľĦ ì¹ĺ
ìļĶì½Ķ íķĺë§Ī
Ġê·¸ ëŀľ
Ġíķł ëĭ¹
Ġëĸ ¼
H D
Ġ im
íĬ¸ ë¥´
ĠìĤ¬ìĿ´ ê°Ģ
ìĪĺ ë©´
Ġíķ´ íĶ¼
ĠíĥĢ ìľ¨
um e
Ġë¶ĢëıĻ ìĤ°
ìļ° ì²´êµŃ
ë¥ĺ ìĻĢ
! "
ìĥĿ ëª°ëħĦ
íĤ¤ ì§Ģ
Ġë´ī íķ´ì¡Įëĭ¤
é³ ³
ëĮĢ ìĦ±
ëª¨ ë¥´
Ġìĭ¬ ë¦¬íķĻ
Ġ13 0
ë¦¬ ìĤ¬
Ġìĸ ĺ
ëĤ¨ ìĦ±
ĠëĤ³ ìķĺëĭ¤
Ġt r
ĠìŀĲë¦¬ ìĹĲìĦľ
Ġ( ,
Ġëª¨ ì¹ľ
ê³¡ ë©´
un e
Ġê³¡ ìľ¼ë¡ľ
ĠìĹ°êµ¬ ê°Ģ
Ġë©¤ë²Ħ ë¡ľ
ë¹Ħ íĤ¤
íĺģ ìĭł
Ġê±° ìĬ¬ëŁ¬
Ġì´Ŀ ë¬´
Ġì§Ģì¤ĳ íķ´
ë¯¼ ìĿ´
ĠìĬ¤ ìºĶ
ad io
Ġì½Ķ ì½Ķ
ĠIn stit
Ġë¹Ħ ê³µìĭĿ
ê³¡ ìĿ´
Ġëĭ¬ ìķĦ
Ġëª° ëĿ½
ìĭľ ë¶ĢíĦ°
ĠëĮĢìłĦ ìĿĺ
Ġê¸Ģë¡ľ ë¸Į
ìĦ °
Ġë§Ĳ íķľ
ĠíĹĮë²ķ ìŀ¬íĮĲ
Ġìª½ ìľ¼ë¡ľ
êµĲ íļĮìĿĺ
ĠíļĮ ê³Ħ
ĠìķĦëĭĪ ë©´
ĠëĪĦ ìłģ
Ġìĺ¤ ì¿ł
íĸī ëıĻ
Ġì½© ê³ł
Ġì¤ĳ ëıħ
ĠìľĦ ìķĪ
ìĿĮ ìľ¼ë¡ľ
ĠíļįëĵĿ íķĺìĺĢëĭ¤
ĠëıĻ ì§Ģ
Ġê´Ģ íĨµ
ĠìłĲ ìĿĢ
Ġìľ¡ ìĦ±
Ġë²Ķ ìľĦ
Ġì»¬ ëŁ¼ë¹ĦìķĦ
ĠëıĻë§¹ ìĿĦ
ë¹Ħ ìĦľ
ë°© ìľĦ
ĠíĥĢ ìĽĲ
ìľĦìĽĲ íļĮìĿĺ
Ġë¯¸ìĪł ê´Ģ
íĦ ±
Ġíı¬ ë¡ľ
ĠC al
Ĵ áĨŀ
ì£¼ ìĿ¼
Ġë¶Ģ ê³¼
Ġìĸ´ ìļ¸
ĠëłĪ ìĿ´ìĬ¤
ĠëĮĢíļĮ ëĬĶ
ĠìĽ¨ ìĿ¼ìĬ¤
Ġì¤ĳì¶Ķ ìĽĲ
ĠìķĪ ëĤĺ
Ġê°ĢëĬ¥ íķĺë©°
ìĿ´ ëıĻ
íķ´ ìĦĿ
ìĦł ìĸ¸
Ġê¹Ģ ìĽĲ
Ġëªħ ëªħíķľ
ĠêµŃê°Ģ ìĹĲìĦľ
ëĤł ëłĪ
Ġê´ĳë²ĶìľĦ íķľ
Ġê°ķ ê²½
Ġìļ´ëıĻ ìĿĺ
ĠëĤ´ ë¥Ļ
Ġë°ľìĥĿ íķł
Ġëĭ¤ìļ´ ë¡ľëĵľ
ĠìłĦ ì§Ħ
íĶ¼ ë¥¼
Ġì¶Ķ ëª¨
Ġìĥģíĥľ ìĿ´ëĭ¤
ìĤ¬ìĿ´ íĥĢë§Ī
ìĽĲ ìĪŃìĿ´
ĠìĿ¸ ë¬¸
Ġë°° ëĵľ
ëĳĲ ìĤ°
Ġë³µ ìĤ¬
Ġì°½ ìĭľ
ĠìķĦìĿ´ ë¥¼
Ġìŀĥ ìĸ´ë²Ħ
Ġì¶©ë¶Ħ íķľ
ĠìĤ¬ ìŀĲ
ë°© ìļ¸
Ġë¡ ¬
Ġë³¸ ìĦłìĿĺ
Ġë²Į ìĺĢëĭ¤
Ġê²°íĺ¼ ìĿĦ
æ ĵ
Ġ éĩĳ
ë¡ľ ë´ĩ
Ġì¤ĳ ëł¥
Ġë°ľë§¤ íĸĪëĭ¤
ĠìķĬëĬĶëĭ¤ ëĬĶ
Ġêµµ ìĿĢ
ì§Ģ ë¶Ģ
ìĪĺ ìļ©
ĠëĪĦ êµ°
ĠĊĠĊĠĊĠĊ ĠĊĠĊĠĊĠĊ
Ġë¯¸ìĬ¤íĦ° ë¦¬
ëħ¸ ë°Ķ
ĠëģĿ ëĤ¬ëĭ¤
Ġë§ Īëĭ¤
Ġì§Ģ ìĸ´ì§Ħ
ê²ĥ ìĿĢ
Ġì±Ħ ë¡ľ
w ork
Ġ7 6
ĠìĤ¬ìĿ´ íĨł
ëĤĺëĿ¼ ë¥¼
ĠëıĻë¬¼ ìĿĺ
ìĿ´ì¹ĺ ë¡ľ
ĠìĪł íĥĦ
ĠìĿ¼ ê´Ģ
ĠL A
Ġìĭľìŀĳ íķĺëĬĶ
ri pt
Ġì¤Ħ ë¦¬
ê¸ ĭ
Ġíľ ©
ìĦľ ê¸°
Ġë¶Ģ ë¥¸
ë²ł ëĭĪìķĦ
Ġì¹ĺë£Į ë¥¼
Ġì ¥
ìĽĲ ìŀ¥
ĠS er
Ġë°Ķ íĭ°
Ġë Ī
ê³ł ìĸĳ
Ġ7 8
Ġê²½ìłľ íķĻìŀĲ
íļĮ ëĭ´
ĠìļĶ ìĨĮë¥¼
Ġíı¬íķ¨ íķ´
Ġì£½ ìĿĦ
Ġk g
Ġê½ ¤
R O
ĠëĮĢíķĺ ëĵľëĿ¼ë§Ī
Ġìłľ ìĿ¸
ìļ´ ìĪĺ
ë¸Į ìĿĺ
Ġë°¤ ìĹĲ
w ik
Ġì§Ģ ëª©
Ġê³µ ë¬´
ì¿ł ë¡ľ
ĠíĶĦë¡ľê·¸ëŀ¨ ìĿĢ
ĠíĹ¤ ìĸ´
Ġ8 2
Ġëª© ìłģìĿĦ
Ġë°ķ ì¢ħ
êµ¬ ë¥´
ĠìłĦ ìĨį
ĠìļĶ ìĽĲ
Ġì£¼ìŀ¥ ìĿ´
Ġë§¥ ëıĦ
íĸī ìĤ¬
ìľłëĮĢ ê³Ħ
Ġì¤ĳ ìĿĺìĽĲ
Ġëª¨ ëª¨
ĠíĨł ìļĶ
æ¢ ģ
k a
Ġëĭ Ń
ë¯¸ ìĹĦ
Ġíİ ´
Ġê³Ħíļį ìĿĢ
íĭ° ìĽĢ
Ġíİ¸ ì§Ģë¥¼
ĠíĻĺ ìĽĲ
/ (
ĠëĦ ¬
ìĬ¤íİĺ ìħľ
ĠëĤ´ ëĤ´
Ġìĭ¬ ìĿĺ
ìłĦë¬¸ íķĻêµĲ
Ġë¸Į ë¤¼
ĠêµŃê°Ģ ë¥¼
Ġë²ĦìłĦ ìĿĢ
Ġì¤ĳ ë³µ
Ġë°ľê²¬ íĸĪëĭ¤
Ġê·¼ì²ĺ ìĿĺ
Ġë§Ī ìĿ¸
ìµľ ê·¼
ĠëıħìĿ¼ ìĿ¸
ë°Ľ ëĬĶëĭ¤
ĠìĿ¼ë³¸êµŃìľł ì²łëıĦ
ëıĦ ë°Ķ
ëıĻ ìĭľ
ãĤ Į
çĨ Ļ
ĠìĹ° ìĩĦ
Ġì§Ģ ìĺ¥
19 10
ĠL ondon
ev el
íķĺ ìļ°
íİ¸ ì§ĳ
Ġ0 8
Ġê²°ê³¼ ìłģìľ¼ë¡ľ
ìļ´ëıĻ ê°Ģ
íĦ° íĤ¤
Ġíı¬ ìĪĺ
Ġìłľ íĶĦ
Ġê³µ ëŀµ
ri m
Ġëį°ìĿ´ ë¹Ĺ
ĠëıĦìĭľ ì²łëıĦ
ëŀ ı
ì£¼ ìĸ¼
Ġë¹Ħ ìŀĶ
Ġê°Ĳ ì§Ģ
Ġê±´ë¬¼ ìĿ´
ĠëĲľëĭ¤ ëĬĶ
ìĪĻ íķľ
ĠìĪĺ ì¹ĺ
ĠìĤ¬ìļ© ìŀĲê°Ģ
ĠíĶĦëŀĳìĬ¤ ìĹĲìĦľ
Ġíİ¸ìĦ± ìľ¼ë¡ľ
ĠìĽĲìŀĳ ìľ¼ë¡ľ
Ġêº¾ ê³ł
ĠíĿ¬ê·¹ ìĿ¸
êµĲ ë¡ľ
ĠëĿ¼ ìļ°
Ġì¤ĳìĭ¬ ì§Ģ
ç ĭ
ëĮĢ ë¥Ļ
ì£¼ ëħĦìĿĦ
Ġìłķ ë²Į
ì½Ķ ìĺ¬
íĪ¬ ìĸ´
Ġê±°ì£¼ íķĺëĬĶ
è¨ Ģ
êµŃ ìĿ¸
ìĦ¸ íĤ¤
Ġëĵ¤ìĸ´ ìĻĢ
ĠS u
íħĮë¥´ ë¶Ģë¥´íģ¬
ĠëıħìŀĲ ìłģìĿ¸
Ġìļ° ìĹ°íŀĪ
ĠìĹŃìĤ¬ ëĬĶ
Ġíĺĳ ìķ½
ì£¼ìĭĿ íļĮìĤ¬
ëĤĺ ëĿ¼ëĬĶ
ë¯¼ì£¼ ìĹ°íķ©
ĠëłĪìĿ´ ìĭ±
Ġì¶ľìłĦ íĸĪëĭ¤
N E
ĠíĶĦë¡ľ ìķ¼êµ¬
íıŃ ëł¥
ĠìĺģíĻĶ ë¡ľ
ĠëĤ¨ ê¸´
ĠìĪ« ìŀĲ
Ġíģ¬ë¦¬ìĬ¤íĨł íį¼
ë© ¤ë²Ħ
ĠëĮĢ íıŃ
Ġíĺ¸ ìĦ¸
ìĬ¤íĥĢ ê·¸ëŀ¨
ì´ ¨
ĠìķĦ ì¸ł
Ġê²½ ëł¥ìĿĦ
ĠìķĪ ëĵľëłĪ
ĠëĶĶ ëłī
ĠíķŃê³µ ëª¨
ĠëĲ Ĳ
ĠíĨµ ì¹Ń
Ġë³´ëĤ´ ëĬĶ
Ð¾Ð ²
ë¬¸ ìľ¼ë¡ľ
ë§Į ëªħ
Ġë§Ī ì¹ľ
ĠëıħìĿ¼ ìĸ´
Ġìŀĥ ìĿĢ
íĥľ ìĸĳ
Ġof f
ĠìĬ¤íİĺ ìĿ´ìĬ¤
ê³µìĤ° ëĭ¹
ĠìĬ Ĳ
Ġìĸ¸ ìĸ´ë¡ľ
ĠìĦłê±° ìĹĲ
ì ´¬ìĺģ
ê²° íķ©
íķĦ ëłĪìĿ´ìħĺ
Ġìłĳ íķĺê³ł
ì²´ìľ¡ ê´Ģê´ĳ
Ġìµľì¢ħ ìłģìľ¼ë¡ľ
i or
Ġê¸° ìļĶ
ĠìĦľ ìłģ
Ġë³´ìĬ¤ ëĭĪìķĦ
ĠìĤ¬ë¡ľ ìŀ¡
ìĦľ ë©´
Ġì²Ń ì£¼ìĭľ
íģ´ ë¡ľ
ĠìĿ´ ìĺ¤
Ġíĺķ ë²ķ
ĠìľĦì¹ĺ íķĺë©°
Ġê°ľë°ľ ëĲľ
ich ael
ìĻĶ ê³ł
ì¤ ¬
i ent
ìĦ± ìŀ¥
ë¯¸ìĪł ê´Ģ
ĠìĦ¸ ë¡ľ
æľĿ é®®
ìľł ìłģ
Ġìŀ¥ ëł¤
ĠìłĲ ìľł
ĠìĿĳ ìĽĲ
Ġë´ Ĳ
ìĪĺ ìĺģ
Ġíĺĳ ìłķ
ĠìĹ¬íĸī ìĿĦ
ìĿ¸ ìĤ¬
ĠìłĦ ìĦł
Ġê²½ ë¡ľ
Ġìĭ¬ìĤ¬ ìľĦìĽĲ
ĠìĹ° ë£¨
ĠêµŃ ìŀ¥
Ġë¶Ģìłķ ìłģìĿ¸
Ġ7 3
ĠíĽĦë°ĺ ìĹĲ
ë® Į
ĠíŀĮ ëĳĲ
Ġìłķ ì°°
ë³´ ëĿ¼
Ġë§Ī ìĺ¤
Ġì¡° ì¹ĺ
êµĲ ê°Ģ
ĠíĶĦ ëłĪìĬ¤
êµĲ ëĬĶ
ĠìķĦ ê¸°
ì¢ħ ë¥ĺ
Ġê¹Ģ ìľł
Ġë§¤ ê°ľ
ĠíķĻ ìľĦ
ĠëĮĢìĭł ìĹĲ
ê·¸ ë¦°
ìĥī ìĿ´
ĠìĽĢì§ģ ìĿ´ëĬĶ
Ġì¢ħë¡ľ êµ¬
Ð ´
ìĬ¤ íĨłë¦¬
ĠA T
ĠíĿ Ļ
or ge
íķĻëħĦ ëıĦ
ëĵľ ë¥´
ìĹ¬ ë¦Ħ
ìĭł ìĿ¸
Ġìĺ¤ ëłĮì§Ģ
íĺķ ìĹĲ
íĹĮ ë²ķ
ĠìĭľëĮĢ ìĹĲëĬĶ
íķĺ ìŀĦ
Ġê±° ìļ¸
ëļ ľ
Ġë¯¼ìĺģíĻĶ ìĹĲ
Ġë§ŀ ê²Į
Ġë§ī ëĮĢíķľ
ĠíĥĢìĿ´íĭĢ ê³¡
ìī Ĳ
ìĿ¼ ì²´
êµĲ ìĸĳ
ê³µ ê²©
ìĹ° ìĿ´
ë³ĳ ìĿĺ
Ġë°ķ íĥĪ
å· ¥
ra v
ìĺ¤ ë£¨
Ġì¡° ìĤ¬ë¥¼
ĠìĦ¸ ëĮĢ
Ġíķ´ ìŀĦ
ëħ¸ ëĬĶ
ĠìĥĿ ê¸°
å¥ ī
ĠìĹ° ìĪĺ
ìŀĳ ìĿĺ
ëĲľëĭ¤ ê³ł
ìĶ Ģ
Ġìĸ´ëĳĲ ìļ´
ĠìĿ´ ë¦¬
ìķĦ ìķ¼
ì¹¼ ë¦¬
Ġìĸ» ëĬĶ
Ġë¦¬ ìĿ´ëĭ¤
ĠëĶ° ë¥´ëĬĶ
ĠìĨį ìľ¼ë¡ľ
ĠìĿ´ê³³ ìĹĲìĦľ
Ġë¿Į ë¦¬
ĠI D
ãĤ ³
Ġë¶Ģë¥´ ë©°
íĮĮ ìĿ¸
ìĿ´ëĿ¼ ëıĦ
Ġëĭ¬ ë¦°
ain t
ĠíĬ¹ìĪĺ íķľ
19 23
ĠíŀĪ ëĿ¼
Ġìłľ íĬ¸
ëıĦ ìĦľ
Ġíķĺ ìĽĮëĵľ
ĠìĿ¼ ê¸°
ë°Ķ ë¥¸
íĮ¨ ë¡ľ
Ġìĸ´ëĵľ ë²¤ì²ĺ
ìĭ¬ íķľ
Ġê·¼ ìłĳ
Ġìĭ¤íĮ¨ íĸĪëĭ¤
ĠìĦľ ìĽĲ
íĭ° ëĬĶ
Ġê¸°ë¡Ŀ íķĺê³ł
Ġê³µ íľ´
ĠíĺĦ ëĮĢìĿĺ
ëĭ¬ ìĿĺ
Ġë©Ķ íĥĢ
Ġêµ¬ì²´ ìłģìĿ¸
ĠìķĮë°Ķ ëĭĪìķĦ
ìĦ ¹
ĠíĺĦ ìĿĺ
ĠìĹĺë¦¬ ë²łìĿ´
ĠRec ord
íĪ¬ ìŁģ
ë¶ģ ë©´
Ġíİĺ ìĸ´
ĠìĦŃ ì·¨
ĠìĹĲìĬ¤íĮĮ ëĥĲ
ë¶Ģ ë¦¬
ì²´ ìĹĲìĦľ
ĠëįĶ ê¸Ģ
Ġíıī ìĨĮ
ê·¸ ëłĪìĿ´
ĠC ity
Ġì¶ľìĭľ ëĲľ
Ġ189 8
Ġë§Ī ì°°
ëħĦëĮĢ ë¶ĢíĦ°
ëł¸ ëįĺ
ag es
ĠìľĮ ìĬ¨
Ġìĭł ì¡°
ĠìĥĿê°ģ íķĺëĬĶ
19 22
Ġë¯¸ ë§Į
Ġëª¨ ëĭĿ
ĠíĶĦ ëłĮ
Ġìĭ¤ ìĭľê°Ħ
ë¬¸íķĻ ìĥģ
ìĺ¤ëĬĺ ëĤł
Ġìĸ´ ëĳł
ì¤Ģ ìĿĺ
Ġê°Ģì§Ģ ê²Į
ĠìĽĲëŀĺ ìĿĺ
ĠìĿ´ìłģ íĸĪëĭ¤
Ġë°Ķê¿ Ķ
ĠíķĻêµĲ ìĹĲ
Ġì¡°ì§ģ ìĿĺ
Ġìłķë¦¬ íķľ
Ġìľł ìĭł
Ġë¶Ģ ìĿĺ
Ġì°½ ìĿĺ
ĠìĤ¬ë¬´ ìĨĮ
Ġê·¼ê±° ë¡ľ
Ġëĵ± ìĿ´ëĭ¤
Ġìĭľìŀĳ íķ´
ĠìĨĲ íķ´
ì¦Īë²ł íĤ¤ìĬ¤íĥĦ
Ġë°Ķ ê·¸
ĠìĨį ëıĦë¡ľ
Ġë¦¬ê·¸ ìĹĲ
ì§ĢëıĦ ìŀĲ
ĠëĳĲëĵľ ëŁ¬
ĠíĽ ¼ìĨĲ
ë§Ī ìĻĢ
Ġíķĺ ê±°ëĤĺ
Ġìĭł ëıĻ
Ġìĩ¼ êµ°
Ġíķĺ ìĽĲ
Ġê³³ ê³³
ĠìĥĿê°ģ íĸĪëĭ¤
Ġë¸ĮëĿ¼ ìļ°ìłĢ
Ġì¢Į íĳľ
ì½Ķ ì¿ł
ĠìĿ´ê³³ ìĹĲ
Ġìį ¬
ìĬ¤íĶĦ ëłĪìĬ¤
ĠìĬ¤ ë¦¬
ĠìĿ¼ë³¸ ìĿ´
Ġì§ĢìĹŃ ìĿ´ëĭ¤
Ġê±¸ ìĸ´
íķ į
ëıĦ ìĬ¤
ëĵ¤ ìĿ¸
Ġìĭľ íĺ¸ëĬĶ
Ġêµ° ëĮĢê°Ģ
ĠìĦł ìĿĦ
Ġëĭ¨ ì¶ķ
ë²Ī ìĿĦ
ĠìĨį ëıĦë¥¼
ĠíĻĺ ìĥģ
ĠìĦłêµĲ ìĤ¬
Ġ $
ĠëĤĺ ê°Ķëĭ¤
ĠëıĦ ìĭ¬
ol a
Ġê¸ī ì§Ħ
t op
Ġíı¬ ê´Ħ
re ak
Ġì¡°ìķ½ ìĿĦ
ê¸°ëħĲ ë¬¼
A I
ĠíĶĦëŀĳìĬ¤ ìĸ´
ĠëĪĦ ê³Ħ
Ġíĸīìłķêµ¬ìĹŃ ìĿ´ëĭ¤
Ġ ac
ìĬ¤ ëŁ¬
ëĲĺ ëĭ¤
ë¦´ ëĿ¼
åħ Ī
ë¨¼ ëĵľ
Ġìļ´íĸī ìĿĦ
ĠOff icial
è ĵ
Ġêµ¬ ë§Īëª¨íĨł
ìĺ¬ ëĿ¼
ĠëĪĪ ìĿ´
ĠìĽ ¬
ĠP ark
íĴį ìĿĺ
ĠëĲĺìĹĪ ìľ¼ëĤĺ
Ã ł
Ġê¸°ìĹħ ìĿĺ
th er
Ġë°©ìĭĿ ìĿĺ
Ġì´ī êµ¬
ĠìĿ´ìĻ¸ ìĹĲ
ĠíĶ¼ ìĸ´
ĠìĤ¬ëŀĳ íķĺëĬĶ
ĠìłľêµŃ ìĿ´
Ġíİ¸ ì§Ģ
ĠìĦ¸ ìħĺ
ìĽĮ ìĭ±íĦ´
Ġê¸Ī ìĦ±
ĠëĤ¨ìķĦ ìŀĪëĭ¤
Ġê³¼ê±° ìĿĺ
CA CAF
Ġìłķ ìŀ¬
Ġë¬´ ëł¥
Ġë¦¬ ë·°
íĺķ ê³¼
ĠíĥĢìĿ´íĭĢ ìĿĦ
ëħĦ ìĿĢ
Ġì¤ĳ ìĿ´ëįĺ
Ġë¶Ī ë§ĮìĿĦ
ĠB i
ĠíĶĦëŀĳ ìĬ¤ëĬĶ
Ġëª» íķł
Ġë£¨ ìĬ¤
ĠìĿ´ ì°½
Ġêµ¬ ëıĻ
Ġì°¨ ìŀ¥
Ġìĸ¸ ìĸ´ë¥¼
Ġìĭ±ê¸Ģ ìĿ´ëĭ¤
Ġë¨¹ ê³ł
èĻ Ł
éĮ «
íĤ¤ ìķĦìĿĺ
Ġì¸¡ ê·¼
ĠìķĮëł¤ ì§Ģì§Ģ
Ġê°ľíĨµ ê³¼
íĥĢìĿ´ìĻĦ ìĿĺ
ìĸ´ ëĸ
Ġìļ° ëĵľ
ì´Į ìĿ´
ìĪĺ ìłķ
ĠìłĦì²´ ìłģìľ¼ë¡ľ
Ġì¶Ķê¸° ê²½
ìĭľ ì¹´ê³ł
ĠìĬ¤ íķĢ
ìĨĮ ë¹Ħ
Ġì¶ľ ê°Ģ
ĠíĮ½ ì°½
+ +
Ġë¶Ģ ìĦľ
Ġìĭ¤ ë²Ħ
ì´Į ë¦¬
Ġ19 01
ri b
ë¯¸ ì¹ĺ
ìŀ¥ ì¹ĺ
ĠìĨĮ ìĭ¤
ĠêµĲ ìĦŃ
ì§ģ ìĹĲ
ëĦ¤ íĬ¸ìĽĮíģ¬
ĠìĥĿê°ģ íķĺê³ł
Ġìĭł íĻĶìĿĺ
ĠëĤ´ ë¶ĢìĿĺ
ĠKore a
R T
Ġìĭľ ê³Ħ
ĠìĨĲ ëħĢ
ĠìłĦíĪ¬ ê¸°
Ġìĩ¼íĬ¸ íĬ¸ëŀĻ
F eat
Ġìľł ìĤ°
Ġë¬´ ëĬ¬
Ġì¹´ ìŀĲíĿĲìĬ¤íĥĦ
íı´ ëŀĢëĵľìĿĺ
Ġíį¼ ìĭľíĶ½
Ġìĥģ ìĪĺ
ĠëĤ¨ íķ´
Ġëĭ¹ ìĤ¬
Ġê°ľëħĲ ìĿĢ
Ġëĭ¤ëĭĪ ëĬĶ
Ġëĭ¨ ì¢ħ
ĠìłĲ ìĦ±
é ĮĦ
ĠíĽĦë³´ ìĹĲ
å» ¶
é ī
ìĿĺ ê°Ģ
Ġ8 1
ĠìĤ¬ìļ© íķĺê¸°
ĠìķĦëĭĪ ë©°
Ġ ab
ëĭ¨ ìľĦ
Ġë¶ģ ìª½ìĹĲ
ĠíĴĢ ìĸ´
Ġë¿ Ķ
ìłģ ìĿ´ìĹĪëĭ¤
ìĺĢ ê¸°
Ġìłķ íķľ
Ġìłķ ëıĦê°Ģ
ë¯¸ ë¡ľ
Ġë¯¸ ë¶Ħ
ìĨĮ ìĬ¤
ĠìłĦíĪ¬ ìĹĲ
ì¶ľìĹ° ì§Ħ
ĠSp orts
ĠëĤĺ ë£¨
íķľ íħĮ
Ġìĭľìŀĳ ëĲľëĭ¤
ĠìĤ¬ìĿ´ ìĹĲëĬĶ
Ġhttp s
Ġìĭľ ìłĲ
ìĦ¸ ë¦¬ìĹĲ
Ġìķħ íĻĶ
Ġ189 9
Ġìŀīê¸Ģëŀľëĵľ ìĿ¸
ìĪĺ ìļķ
Ġëħ¸ ë¹Ħ
Ġ9 7
ĠìĥĿ ë°©ìĨ¡
ell o
Ġìĭľ ê¸°ìĿĺ
ĠêµŃ ìľł
ì°¨ ìłĦìĹĲìĦľ
ìŀĪ ê³ł
ĠìĿ´ë¡ł ìĿĢ
ìĿĮ ê³¼
Ġ10 3
ãĤ ª
ĠìĿ´ ë°ĺ
Ġì§Ħ ìĭ¤
ĠD C
íĳ¸ ìĬ¤
( "
Ġëĭ¤ ëª©ìłģ
Ġì£¼ íĸī
Ġë¹Ħ ê°Ģ
ë°Ķ ìĺ¤
le d
ĠíĬ¹ë³Ħ ê¸°íļį
Ġëª¬ íħĮ
ìĺ¤ìĬ¤íĬ¸ ë¦¬ìķĦ
h am
l a
ê°Ģ ìĿ´
Ġë§Ī ìķ½
Ġêµ° ëĮĢëĬĶ
Ġìķ¼ ê°Ħ
ìĥī ìĿĢ
Ġëĵ¤ìĸ´ ê°ĢëĬĶ
Ġë°Ķê¾¸ ìĹĪëĭ¤
ĠìłľëĦ¤ ë°Ķ
Ñ ı
ĠìĿ´ ìĦł
ì¹ ĻìĿ´
Ġì° Į
ëĤ´ ìĹĲìĦľ
Ġì¹ľ ì²Ļ
Ġê³³ ìĿ´
ìĭľì¼° ê³ł
ĠìļĶ ë¥´
Ġê·¸ë¦¼ ìĿĦ
ëıĦë¥´ íĶĦ
è§ £
ìĭľ ê¹Įì§Ģ
OV E
ĠìĹ ½
ĠìķĦ ë¹Ħ
ìĦĿ ìĹĲ
ĠíĻĶ ìĤ´
Ġë§¡ ê²Į
ìĿ´ìĸ´ ìĦľ
çľ ģ
ê³¼ ëĮĢíķĻêµĲ
Ġë§Ī ëħĢ
ĠìĬ¤ ëħ¸
ì¤ĳ ìĹĲìĦľ
Ġë¯¼ ìĤ¬
ĠìŀĲìĭł ê³¼
Ġì²Ń ìĽĲ
ë ½
ìĨĮ ê°ľ
ĠìĹ¬ ë¡ł
Ġë¡ľ ìĹ´
ĠìķĪ ëħķ
ĠìŀĳíĴĪ ìĹĲ
ĠìĹŃ ê³¼
Ġë¶Ģ íĮ¨
ĠA S
ĠìĿ¼ ìĹĲ
ìĹħ ë¬´
íĿ¬ ëĬĶ
ĠìĤ¬ ìĤ¬
íķĻ ìĹĲ
o e
v ent
ìĭľ ëª¨
Ġë¦ ¼
ëŀĢ ìĿĦ
ĠìĬ¹ ë¦¬ë¡ľ
Ġìĭľìŀĳ íĸĪìľ¼ë©°
Ġê¸įìłķ ìłģìĿ¸
ĠìĪĺ ì²ľ
ĠìĨĮ ëĤĺíĥĢ
ĠB ìĿĺ
Ġë¯¸ íĨł
Ġë°Ķ ë¥¸
Ġê¹Ģ ìĿ¸
ê¸Ī ìľ¼ë¡ľ
Ġì¶Ķ ìĤ°
ëĭĺ ìĿ´
ĠìĹ°ë°© ìĿĺ
ĠìĪĻ ì¢ħ
Ġì§Ģì§Ģ íķĺëĬĶ
Ġë¶ģíķľ ìĿĺ
Ġë©Ī ì¶Ķ
c ess
íĬ¸ íİĺ
ĠíĨµ ê·¼
ĠëıĮ ìĹ°
ĠìĦłìĸ¸ íĸĪëĭ¤
Ġê±° ëĳĶ
ì§Ģ ë°Ķ
ëłĪ ëĬĶ
Ġëį°ìĿ´ ë¹ĦìĬ¤
ë¯¸ ëĤĺë¯¸
ê·¸ ê°Ģ
íĶĦ ë¡ľìĬ¤
Ġì§ĳ ìľ¼ë¡ľ
um an
Ġìŀ¥ ìĿĺ
Ġë°©ìĺģ ëĲĺìĹĪëĭ¤
ìŀ¥ ë¡ľ
ĠëķĮ ë¡ľëĬĶ
Ġìķł êµŃ
ĠìĿ´ ê°Ģ
19 21
w ith
Ġì¢ħ ìłĦ
Ġ0 5
ĠSoci ety
o ff
ì§Ħ ë³´
ĠìķĦìĿ´ ìĬ¬
Ġì§Ģë°© ìŀĲì¹ĺ
èĢ ģ
ê²Ģ ìĿĢ
Ġëĭ¬ëŁ¬ ë¥¼
Ġê°Ģ ë²¼
ĠìĽĲ ìĤ°
Ġë¯¼ì£¼ íĻĶ
ĠíĿĳ ë°±
ì²´ ê³ł
ĠS E
Ġë¬´ ìĪł
Ġë´ī ìĤ¬
Ġíķľ ëıĻìķĪ
ë²Ħ ë¦°
ĠëĤ´ ê³ł
Ġë²ł ë¦¬
ê²¬ ìĿĦ
Ġíģ´ ë¦°
ëĶ ±
Ġìłľìŀĳ ëĲĺìĹĪëĭ¤
íķĻ ìĬµ
íı¬ ìĿĺ
Ġìĸ´ ë¥¸
ëĿ¼ìĿ´ ëĵľ
Ġëĵ¤ ìĿĢ
Ġëį°ë·Ķ ìłĦìĿĦ
Ġëª¸ ìĹĲ
æ² Ļ
ëłĪ ìķĦ
ëĶ §
ĠëıĻ ìĺģìĥģ
Ġëª© ìłģìĿĢ
ãĢį ,
ĠìĿ´ë¯¸ ì§Ģë¥¼
ĠìĪĺ ëł´
Ġíķĺ ìĭľ
Ġê·¸ëłĩ ì§Ģ
ë° ĭ
ìĿĮ ìĿĢ
Ġë¬´ ìĬ¹
ĠìŀĲìĭł ìĹĲê²Į
Ġíİĺë¥´ ëĤľ
Ġcol span
ĠìĹĲìĬ¤íĨł ëĭĪìķĦ
Ġìļ° ìļ¸
Ġì¹ľ ìłķ
her e
ĠíĽĮë¥Ń íķľ
íļĮ ìĻĢ
ë£¨ íĬ¸
Ġìķ¡ ì²´
íĶĮ ëŀĺ
ê³łëĵ±íķĻêµĲ ë¥¼
19 00
íĮĲ ìľ¼ë¡ľ
ì¤Ģ ë¹Ħ
Ġê¸°ìĪł ìĿ´
ì¿ ¤
Ġì´Ŀ ìĦłê±°
Ġë©´ ìĹĲìĦľ
å¯ Į
ip p
m ìĿ´ëĭ¤
ĠìĿ¼ë³¸ êµ°
Ġìķħ ê¸°
çĶ ²
ìŀ¡ ìĿ´
ĠëĿ¼ ëĬĶ
ĠN A
ìĺ¨ ìĿ´
Ġëª¨ëĳĲ ê°Ģ
ìļ´ëıĻ ìŀ¥
Ġê°Ŀ ê´Ģ
ĠìĦľ ìłķ
ĠíĨµ ìĺģ
ê³¡ ìĿĺ
ĠíĮ¨ ëĦĲ
Ġê³¡ ìĿĺ
ëıĻ íĻĶ
ĠS U
Ġìŀ¥ ëħĢ
Ġì¶Ķ ì¦Ŀ
ĠìĿ¸íĦ° ëĤ´ìħĶëĦĲ
Ġë°ĶìĿ´ ìĺ¤
íĮĮ ëĿ¼
Ġíķ© ë²ķ
Ġê¹Ģ ê·ľ
Ġíı¬ ìĬ¤íĦ°
ĠëĤ´ ë³´
Ġ7 4
Ġì» ¸
Ġíĺķíĥľ ê°Ģ
ä» »
ìĻ¸êµŃ ìĸ´
Ġíķĺ ëįĶëĿ¼ëıĦ
Ġìĺ¤ ê³ł
ì¦Ī ìĹĲ
Ġì±Ħ ë¬´
Ġë°ľìłĦ ìĹĲ
ĠìĬ¤ìľĦ ìĬ¤ìĿĺ
ìķ¼ ëĬĶ
Ġê·ľìłķ íķĺê³ł
ĠìĤ¬ ì¹´ìĿ´
ĠìĦ¸ ìĽĶ
Ġíĥĵ ìĹĲ
ê°Ģ ë¥´
Ġíķĺ ì°¨
ĠìĬ¤íĬľ ìĸ´íĬ¸
ì£¼ìĿ¸ ê³µ
L C
ç ²
ì§Ģ ìĥģ
íķ´ íĬ¼
íķĻ ìĪł
ĠìķĦ ìĿ¸
ĠëĴ¤ ìĿ¸
ìĤ¬ íĥľ
ĠìĽĲ ìŀĲë¡ľ
oc al
ëłĢ ê³ł
çı ¾
ê¸ĢëĿ¼ ëį°
ìĤ¬ ìļ°ìĬ¤
Ġê³µ ë¡ľ
Ġê³µ ëª¨
ĠM in
Ġê³łëĵ±íķĻêµĲ ìĿ´ëĭ¤
ĠìĿ¼ìľ¼ íĤ¤ëĬĶ
ĠìĦľìĭĿ íķľëĭ¤
Ġìĺµ ìħĺ
Ġê·¸ ëıĻìķĪ
Ġì¤ĳ ìĪľ
ĠìĹ¬ ëįŁ
ĠìĿ¼ìĸ´ ëĤł
T N
z a
ĠìĿ´ ê·ľ
ĠìĿ´ê¸Ģ ìĬ¤
ìĿ¸ ëĵ¤
Ġë°Ķ ìľĦ
ì§ģ íķł
Ġë¬¼ ìĹĲ
Ġì±Ħ ê¶Į
ĠëĳĺëŁ¬ ìĭ¼
Ġë¡ľ ìĿ´
Ġëĭ¤ë£¨ ê³ł
ĠâĹ ı
Ġì¡° ëĭ¬
Ġë¬´ ëĮĢìĹĲ
Ġì²ľ ìĤ¬
íķĺ ìĿ´ëĵľ
ĠëĮĢ ì±ħ
Ġìŀĳ ê³ł
ĠìĽĲ ë¦¬
Ġíıī íĸī
Ġë§¡ ìķĺìľ¼ë©°
Ġì¿ł ë¥´
ëį´ ë§Īíģ¬ìĿĺ
ow s
Ġì°¸ìłĦ íķľ
ĠìĦľìĦľ íŀĪ
ĠìĿ¸ ìĬ¤íĥĢê·¸ëŀ¨
ĠìĦ± ì§ĪìĿĦ
íĨµ ìĤ°
Ġì§Ħ íĿ¥
íı¬ ìĭľ
éĢ ł
ìŀĳ ìĿĦ
ĠìĥĿê°ģ íķľëĭ¤
Ġìķ¼êµ¬ ìŀ¥
19 25
ìŀĳ ìĹħ
ĠìłĦíĪ¬ ê°Ģ
ir d
ìĪĺ ìĨĮ
Ġê¸° ìĪĻ
Ġíı¬ ëĵľ
ĠëĤ´ ë¦¬
Ġêµ¬ì¡° ìĿĺ
ĠìķĦë§Ī ëıĦ
ëĨĢ ìĿ´
ĠíĻĶíķ© ë¬¼
E x
ĠìķĦ ë¶Ģ
ĠìĽĮ ëĦĪ
ĠìĦ¸ìĽĮ ì¡Įëĭ¤
Ġìķł íĭĢëŀľ
ĠìĦ± ë³Ħ
ĠC C
íĥĢ ìĻĢ
Ġê´Ģ íĺĦìķħ
ĠìĹ°êµ¬ íķĺëĬĶ
Ġìķ¨ë²Ķ ìĿĢ
Ġë¶Īë¦¬ ê¸°ëıĦ
ë¸Įë¦¬ ìĹĺ
l ish
ĠìķĦ ëĭ´
ãĤ Ĥ
Ġì·¨ ìŀ¬
Ġìļ°ìĬ¹ ìĹĲ
Ġìĺ· ìĿĦ
Ġìĭľ ë®¬
ĠíĬ¸ ëłĪìĿ´ëĵľ
Ġì¤ĳêµŃ ìĸ´
ĠìľĮë¦¬ìĹĦ ìĬ¤
Ġ ãĥ»
Ġê³¡ ìĿ´ëĭ¤
Ġì§Ģë°° ë¥¼
ìĹĲ íĶ¼ìĨĮëĵľ
ë§Ī ëĭĪìķĦìĿĺ
Ġì´Ī ê³¼
çĶ ¨
íģĲ ìĬĪ
ĠíķĺìĿ¸ ë¦¬íŀĪ
íĺĦ ìĹĲ
ĠìĦ±ê³µ ìłģìĿ¸
ĠBl ack
ĠíĬ¸ëŀľ ìĬ¤
ĠìķĦ ìļ¸ëŁ¬
ĠìºĦ ë³´
ãĤ¤ ãĥ
íĬĢë¥´íĤ¤ìĺĪ ìĿĺ
íĻĶ ìĦ±
id a
ĠT our
Ġê°ķ ìĤ¬
ib r
Ġë³´ ìĿ´ìĬ¤
ĠíļĮ ìĤ¬ëĬĶ
Ġë¬¼ ëŁ¬ëĤĺ
ĠìĪĺ íıī
19 26
ê¸Ī ì§Ģ
Ġíĺ¸ ì¹Ń
ëĿ¼ìĿ´ìĸ´ íĭ°
âĢ ¤
Ġì¶ķ íķĺ
ìŀĪ ìľ¼ë©°
Ġë¶Ħë¦¬ ëĲĺìĸ´
ĠìłĦ ìĹĲëĬĶ
om as
Ġìĭ¬ ìķ¼
ìºĲ ìĬ¬
Ġê¾ Ģ
ê¸° ëħĦ
åį ĥ
k r
ĠëĮĢ ì²ĺ
Ġ19 02
Ġìļ° ìłķ
íĥĦ ìĿĺ
Ġìĸ» ê¸°
ëĲĲ ê³ł
ê·¸ë¦¬ ìĬ¤ìĿĺ
ìĿ¸ ìĿ¸
ìķĪ ëĵľë¡ľìĿ´ëĵľ
Ġë¦¬ ìĺ¤
ol f
ĠO ut
ĠíĤ ´
ĠíĦ ±
Ġê¸°ìĹħ ìĿ´
Ġë°©ìĭĿ ìĿĢ
Ġë¹ĦìĬ· íķĺëĭ¤
O r
o int
ëıĻ ìĿ¼ë³¸
ĠëĮĢíķĻ ìĥĿ
ìŀĲ ì±ħ
ĠëĮĢ ìķĪ
ëħ¸ ìĬ¤ì¼Ģ
ëĤ¨ ëħĢ
íļ ¡
ì¸¡ ìĿĺ
ìĤ° ì´Īëĵ±íķĻêµĲ
Ġë¬¸ ìŀ¬ìĿ¸
Ġë¦¬ íĪ¬ìķĦëĭĪìķĦ
Ġìī¬ ìļ´
ë¦¬ì¡° ëĤĺ
Ġì ¯
ĠìĿ´ ìĭĿ
Ġì¡° ë°ĺ
10 1
ìĿĺ ë£Į
íĥĢ ìŀħ
ĠìŀĦ ê¸°
ĠëģĬ ìŀĦ
Ġì ĳ
ĠìĤ¬ ë£Į
am il
str ument
ãĢ ľ
Ġìĥģ ë°ĺ
ĠëĤ¨ ìª½ìĹĲ
Ġë²Ħì§Ģ ëĭĪìķĦ
ê³ł ë¬¸
ãģ ¤
íĺ¸ìĦł ê³¼
Ġëĭ¬ëŁ¬ ìĿĺ
ìłĦ ëıĦ
ë³¸ ìĿ´
íĥľ íĽĦ
Ġë°ķ ì§Ħ
ìķĮ ëĿ¼
ĠìĪĺë¡Ŀ ìŀĲ
Ġëĵ¯ íķľ
ĠìĦ± ë²½
Ġë°Ķ ê°Ģ
Ġíľ´ ìĬ¤íĦ´
ì§Ģ ë¶ķ
Ġìĭľ íĿ¥
íĨł íģ¬
ĠëĴ¤ ìĹĲëĬĶ
Ġë³ĳ ëł¥
Ġë³Ħ ìĿĺ
æĪ °
19 27
ĠìĿ¼ ëıĦ
ìł¸ ìĦľ
Ġìºł íį¼
Ġìĭľ ê¸°ëĬĶ
ëŀĮ ì¥Ĳ
ĠëģĿ ìĿ´
ĠëĨĢ ìĿ´
Ġêµīìŀ¥ íŀĪ
ĠìĤ¬ ë¥´
ëŁ ´ëĵľ
ĠìķĪ ìŀ¥
Ġëķħ ìĹĲ
ĠëıĦìĽĢ ìľ¼ë¡ľ
Ġìĭł ìĨį
Ġê°ĳ ìŀĳ
ĠìłĦ ë¡Ģ
ĠìĿĺ ìĽĲìĿ´
ĠíĺĦ ìĥģìĿ´
ìĹ´ ìĿ´
al es
ì¿ł ë²Ħ
Ġì²ľ ìŀ¬
Ġë§ĪìĿ´ ëĦĪ
Ġëĭ¤ ì¤ĳ
ëĤĺ ë¹Ħ
ê±´ ê°ķ
Ġì½Ķ ì¹ĺë¡ľ
ë§Ĳ ëłĪìĿ´
ê²¨ ìļ¸
íĬ¸íİĺ íħĮë¥´ë¶Ģë¥´íģ¬
Ġì£¼ ìĺ¤
Ġìµľê·¼ ìĹĲ
ìŀĲ ìĺĢëįĺ
ĠìłĦ ë¶ĢíĦ°
Ġëĭ¤ ëĤĺì¹´
er c
ĠëĳĲ ê°ľ
íķĻ ìĿĢ
ĠìĹ° ëıĦ
ëį° ëĿ¼
ê²© ìĿ´
Ġì§Ģ ë¯¸
ç¬ ¬
H e
] ,
Ġìļ© ìĿ´
ĠìĿ´ ìŀ¥
ìĻ¸ ìĿĺ
ĠìĬ¹ ë¬´ìĽĲ
ĠíĨł ëĮĢë¡ľ
Ġì¶© ì£¼
Ġê·¸ëłĩ ëĭ¤ë©´
G O
ìĥģ íĻ©
ĠíĮ ľ
ĠìĤ´ ëįĺ
ĠëģĿ ê¹Įì§Ģ
ĠíĺķìĭĿ ìĿĺ
ê³µ ê³µ
ĠëıĦ ë¯¸
ĠD on
íĻĺ ìĿĦ
Ġë¸Į ë¡ľëĵľ
Ġë§Ĳ íķĺìĺĢëĭ¤
Ġê²Ģ ì¦Ŀ
Ġê°ĢíĨ¨ë¦Ń êµĲëıĦ
rid ge
ìĿ´ ë¡ł
ìĿ¸ ëĵ¤ìĹĲê²Į
Ġìľł ì¶ľ
Ġë¶Ģ ë¥¼
Ġëª¨ ë¥´ëĬĶ
Ġê°ķ ëıĦ
ĠíĤ¤ ë³´ëĵľ
ìķĶ ëıĻ
é«ĺ çŃīåŃ¸æł¡
ug h
ë²łíĬ¸ëĤ¨ ìĿĺ
ê°Ģ ìĹĲìĦľ
Ġìĺģ ë¬¸
ĠëĶ ķ
Ġì´Ī ìĹ°
Ġì¤ĳìĭ¬ ìĿĺ
Ġì§Ħì¶ľ íĸĪëĭ¤
æ¹ ĸ
Ġìĺ ´
ìĨĮ ëĵĿ
ìŀĲ ë¦¬ìĹĲ
íĻĺ ìĿĺ
Ġy ou
Ġë¶Ħ ëĭ¹
ĠìķĦìĿ¼ëŀľëĵľ ìĿĺ
Ġê°ľìĭł êµĲëıĦ
ìĿĢ íķĺ
ĠìĤ¬ ìľ¡
Ġì§Ģ ìłĲìĹĲ
ìĹ¬ ìļ°
ĠìŀĲ ë°ľ
ĠìĿĺ ë³ĳ
ãĤ °
ĠìĤ¬ë§Ŀ íķĺê³ł
ĠìĤ¬ê³ł ê°Ģ
y e
ĠA t
ĠìĹĲ íĶ¼ìĨĮ
ë²ł ë¥¼ë¦°
ë¸Ķ ë£¨
Ġëª¨ëį¸ ìĿĦ
íĻĢ ë¦Ħ
ĠìĤ¿ íı¬ë¡ľ
X X
Ċ ĠĠĠĠĠĠĠĠ
ĠìĹ¬ ìĦ±ìĿ´
ĠíĻį ìĦ±
ĠB C
ĠìĻķ ë³µ
Ġìĸ´ëł¤ ìĽĢìĿĦ
ìĺ¤ ë²Ħ
Ġìļ° ì£¼ìĿĺ
Ġì°¨ ê°Ģ
ĠìĻĢ íĥĢëĤĺë²ł
ëĭ¨ ìĹĲìĦľ
Ġê²½ìļ° ë¥¼
ëĲĲ ìľ¼ë©°
ĠíĮĲê²° ìĿĦ
ĠìłĦ ìĿ¸
ë¯¼ ìĿĢ
Ġ7 1
åı ĥ
ìĩ¼ ìĻĢ
ĠíķĻìĥĿ ëĵ¤ìĿ´
æ¦ ®
ĠíĥĢ ì¿ł
Ġê¸¸ ê³ł
çİ Ħ
Ġë§ĪìĿĮ ìĹĲ
ë°Ľ ìĿĦ
ĠìłķíĻķ íķĺê²Į
O H
ĠíĶ¼íķ´ ìŀĲ
Ġì§ĢìĨį ìłģìĿ¸
æ© ĭ
ĠìĦł êµ¬
Ġìĥģ ëĭ´
íĮĮ ìļ¸
Ġë²ķ ìĿĦ
Ġë§Īì¼Ģ ëıĦëĭĪìķĦ
Ġ8 6
Ġëªħ ë°±
Ġë§ĪìĿĦ ìĿĺ
Ġì¡´ ê²½
ëĸ ¼
ì§ľ ë¦¬
ĠìĻ¸ ìķ¼ìĪĺ
Ġìŀħ ì²´
ê²¼ ê³ł
Ġê» į
íİĺ ìĬ¤íĬ¸
íĪ¬ ë¥¼
Ġë³´ê³ł ìĦľ
ìħĪ ë¶Ģë¥´íģ¬
Ġíķ´ ë°Ģ
Ġìļ© ìĿĺ
Ġëª©íĳľ ë¥¼
oot ball
ì§Ħ ìĹĲ
D R
Æ °
ĠìĹĨ ìľ¼ëĤĺ
ĠìĦ¼ ëĭ¤ìĿ´
ĠìĬ Į
ĠìĹĲ ëĶĶìħĺ
Ġ8 9
Ġìļ´íĸī íķľëĭ¤
ëĿ¼ìĹĲ ëª½
at ure
ĠìĦ¤ë¦½ íĸĪëĭ¤
Ġìłľìŀĳ ìŀĲ
Ġê±´ë¬¼ ìĿĦ
Ġìµľ ìĦ±
Ġìµľ íĽĦ
ĠíĺĦëĮĢ ìŀĲëıĻì°¨
ĠêµŃë¬´ ì´Ŀë¦¬
Ġëªħ ë¬¸
Ġê°Ĳ ìłķìĿĦ
ìľµ íķ©
ĠìķĦíĤ¤ ëĿ¼
ìĦľ ë¦°
ìĺ¤ ë¥¼
Ġê³ł ë¬´
Ġëĵ±ìŀ¥ íĸĪëĭ¤
ĠëĤ® ìķĦ
ĠíĿ¥ íĸī
ĠìĿ¸ê·¼ ìĹĲ
Ġì£¼ ìĸ´ì¡Įëĭ¤
Ġëħ¸ ëł¥ìĿĦ
Ġë¶Ī ê½ĥ
Ġê·¹ ìŀĳê°Ģ
ĠìķĦë¦Ħ ëĭ¤
Ġìłľ ë¡ľ
Ġíģ¬ ëĿ¼ìĿ´
ĠíĬ¸ ëŀĺ
Ġë§ĮëĤĺ ê²Į
Ġì§Ģ ìĸ´ì¡Įëĭ¤
ĠìķĦìĿ´ ëĵ¤
Ġíļ¨ ìĨĮ
ç ł
W A
Ġ19 03
Ġë°ľê²¬ ëĲĺëĬĶ
Ġíĥģ êµ¬
ĠìĪĺ ìĦ±
ĠìłĦ ëĳĲíĻĺ
çĶ ·
ë³µì§Ģ ìĦ¼íĦ°
Ġê³µ ìĿ¸
Ġëª¨ëį¸ ìĿĢ
ĠìĹŃìŀĦ íķľ
Ġë³¸ê²© ìłģìĿ¸
ìĵ ¸
ìĿ¼ ìŀĲ
ĠìĨį ëıĦê°Ģ
íĵ¨ íĮħ
iz ation
Ġê·¸ ëĤł
Ġë¬´ ëł¤
Ġì¦Ŀ ê¸°
Ġìĩ¼ ìĻĢ
ë§ĪìĿ´ íģ´
Ġê¹Ģìĺģ ìĤ¼
ĠM ac
Ġë¹ł ì§Ħ
ĠìķĦëŀĺ ë¡ľ
Ġë¶Ģ ìłģ
íĽĦ êµ°
ĠëĺĲ ëĭ¤ìĭľ
ìĻ¸ ìĦł
ĠD o
Ġë³Ħ ì¹Ń
ìķĦìĿ´ ëıĮ
ĠëıĻìķĦ ìĿ¼ë³´
Ġì¡° ìĹ°
ĠìĦľ ê²½
ìĦĿ ê³¼
ĠG S
ĠìĹ¬ê¸° ìĹĲëĬĶ
ä¼ Ĭ
ë¡ľ íĶĦ
ìĭľ ì¹´
Ġíķľ ë¯¸
Ġê´Ģ ìĬµ
ĠìĺģíĻĶ ìĥģ
Ġìŀ¬ íĻľ
Ġë§Ĳ ê¸°
íķŃ ìĿĢ
ë¶ģ íķľ
ìĹĲ ìĿĺ
ê³µ íķĻê³¼
ëŁ¬ ìĿĺ
Ġìĥģ ì²ĺ
ì´Ŀ ìĺģìĤ¬ê´Ģ
ë£¨ ìĿ´
ì¡± ê³¼
Ġëĵ¤ìĸ´ ìĺ¤
Ġê³¼ìłķ ìĿĢ
ĠíĽĦ ìķĪ
Ġê´Ģ ì¤ĳ
ĠI N
om y
ĠíķĻêµĲ ë²ķìĿ¸
ê²Į ìĿ´íĬ¸
Ġ >
ĠìĿ´ ëª¨
ëŀĢ ìĿ´
Ġëĭ¹ ìĿĺ
ĠR ock
ĠìĦ±ê³µ íķľ
íķĢ ëŀĢëĵľìĿĺ
ìłĦëĿ¼ ëĤ¨ëıĦ
R S
ĠìĤ¬ ëĤĺìĿ´
Ġìľł ìĨĮëħĦ
Ġìļ°ë¦¬ ëĤĺëĿ¼
Ġìĭ¤íĹĺ ìĿĦ
ĠTe am
Ġìłľì£¼íĬ¹ë³ĦìŀĲì¹ĺ ëıĦ
ĠìĿ´ ë°Ķ
ĠìĤ¬ ì»¤
ë§Į ìķ½
Ġíķ´ ë³Ģ
ĠìļĶ ê´´
ĠG T
ion al
ĠíĶĦëŀĳíģ¬ íĳ¸ë¥´íĬ¸
ìłĦ ìĹĲìĦľëĬĶ
ì½Ķ ìĻĢ
Ġíķ© ìŀĳ
ĠíķĦ ëĵľ
ĠíĻľìķ½ íķĺê³ł
ê±´ ìĿĢ
om an
ìĦ± ëĤ¨
Ġëĭ¤ ëħĢ
Ġê³ł ì¡°
Ġê³ł ëł¹
ì¤ĳ ìĹĲëĬĶ
Ġë°Ķ ìĭ¤
æ³ ī
Ġë¥´ëĦ¤ ìĥģ
íĶ¼ ëĬĶ
Ġê°ģ ê¸°
Ġì¤ĳìķĻ ìĹĲ
â Ħ
ìĪĺ ì§Ģ
Ġë¶Ģ íıī
Ġìĥģ íķĺ
ĠìĥĿ ê¸°ëĬĶ
ëĤ¬ ìĿĦ
Ġê´´ ë¡Ń
ëĶĶ ëĤĺ
ĠíķŃ ìĿ¼
ĠìķĦëĭĪ ì§Ģë§Į
Ġíķľ ê³Ħ
Ġë°ķ ìŀ¬
ãģ ł
ou n
éģ ł
Ġ189 4
Ġê³ł ìĪĺ
íŀĪ ëĿ¼
Ġê¹Ģ ëĮĢ
Ġìŀħ ìŀĲ
ĠìĬĪ íĮħ
íĥĢ ë¯¼
åĭ Ŀ
Ġëĭ¤ìĿ´ìķĦ ëª¬ëĵľ
ìĿĺ ìĤ¬
Ġë§ µ
Ġì¤ĳ ëıĦ
Ġë¦ Ń
Ġì¡´ìŀ¬ íĸĪëįĺ
ĠìķĦë²Ħì§Ģ ìĻĢ
Ġìķ¼ë§Ī ê°ĢíĥĢ
ĠSci ence
er g
er ence
ìĬ¤íĬ¸ ë¦¬
ĠëĮĢ íĸī
ë³´ ìľł
ĠìĹ° ê¸Ī
Ġìŀ¥ íķĻ
Ġ8 4
ĠC BS
ĠíļĮ ëĭ´
ĠíĻľìķ½ íķĺìĺĢëĭ¤
ìĦ± íķľ
Ġë§Ī ì½ĶíĨł
ĠA ng
ĠíĬ¹ ìľłìĿĺ
Ġë³¼ ë¦¬
i ed
ì½Ķ íĥĢ
ìĤ¬ ë¥´
ëĤĺ ìļ°
ìĨį ëıĦ
ĠìĭĿ ëŁī
Ġì£¼ ìĹĲìĦľ
ê²½ìĥģ ë¶ģëıĦ
ĊĠĠĠĠ ĠĠĠ
ìĹ° ìĦ¸ëĮĢíķĻêµĲ
ĠìĤ¼ ê³ł
å¸ ¸
ìĦ¸ ëĭ¤
Ġëį ¤
Ġê³µ ìĿµ
Ġ189 0
ĠíĮ¬ ìķĦë©Ķë¦¬ì¹¸
ìĭ¤ ê³¼
Ġëĵľ ëĿ¼
ĠìĿ´ìĥģ ìľ¼ë¡ľ
Ġì¡¸ìĹħ íķĺìĺĢëĭ¤
ĠëģĿ ëĤĺê³ł
ĠìķĦë¥´íĹ¨íĭ° ëĤĺìĿĺ
D B
Ġíĸ ĩ
ĠíĶĦë¡ľ ëłĪìĬ¬ë§ģ
ro ss
ê¸°ê´Ģ ìľ¼ë¡ľ
ë³´ë³ĳ ìĤ¬ëĭ¨
ĠìĬ¤íĮĮ ë¥´íĥĢ
s y
ê¸° ê°ĳ
íķ´ ì§ĢëĬĶ
Ġì¶ľ ìĤ°
it able
ord er
Ġì§Ģ ê°ģ
ĠìĦł ìĿ´
Ġë§ģ ì»¨
ìĺģíĻĶ ìĥģ
èŃ ·
ìºĺë¦¬íı¬ëĭĪìķĦ ì£¼
i et
Ġë¶Ħ ìŀ¥
Ġìķµ ì»¤
A G
ëĿ¼ ë¦¬
ëħ¸ íĬ¸
ĠC enter
ĠìĻ¸ ê³½
Ġp h
ĠëıĮìķĦ ê°Ķëĭ¤
ë¹Į ëĶ©
g ram
ìĿ´ ê±°ëĤĺ
íķ¨ ìĪĺ
ãĤ µ
ĠëıĻëĤ¨ ìķĦìĭľìķĦ
ĠìĿ´ íĭĢ
ëŁ¬ ê°Ģ
Ġëł ī
ìŀĪ ëįĺ
Ġìłķ ìĦł
Ġë§Ī ë¸Ķ
ì¸µ ìĿĢ
Ġì²Ń ë£¡
ì¹ł ë¦¬ìķĦ
Ġìľłë¡ľ íĮĮ
æ ¶
ê ½
Ġë¯¸ íĦ°
Ġêµ° ì²Ń
ìĬ¤ ëŁ°
ë©Ķ ëĭ¤
ìº ¡
Ġìĺģíĸ¥ ëł¥
èŃ ĺ
ìŀĲ ìĺĢëĭ¤
ìłķ ë¶ĢìĿĺ
ìĤ° ë¬¼
ĠìĺĪ ë°°
Ġìķ ĵ
ëıĻ ë¶Ģ
ĠìĦľ ëĤ¨
Ġìĭł ìĿ´
Ġì¶Ķ ìĸµ
ĠìłľìĻ¸íķĺê³ł ëĬĶ
ê°Ģ ì¿ł
ìŀ¬ ê°Ģ
Ġëĭ¤ìĿĮ ìĹĲ
éģ ĭ
ĠìłľìĿ´ ìĬ¨
y d
ĠêµŃ ìĸ´
íĻĶ íķĺê³ł
ì¡° ê°ģ
Ġê³ł íĨł
ë§Ŀ ìĿĺ
Ġê²°ê³¼ ìĹĲ
T r
Ġì§Ħ ëıĦ
Ġìŀ¬ íĮ¬
Ġì²łëıĦ ê°Ģ
iv al
åı ³
Ġë¬¼ë¦¬ ìłģ
ëªħ ì¹Ń
ë£¨ ëĥĲ
Ġ10 5
Ġëľ» ìĿĺ
Ġë¶ ĵ
ĠìĻ Ī
íı¬ ëŁ¼
ë¦Ħ ìĿĢ
Ġë³Ģ ëıĻ
m l
Ġê¸° ê°ĳ
ĠìĿĺ ìĤ¬ë¥¼
ĠìĤ¬ìļ© ëĲł
ë³µ íķ©
Ġìĸ´ëł¤ ìĽĢ
r and
ëĤ´ ë©´
Ġì¢ħ ê²°
Ġë¶Ģë¶Ħ ìłģìľ¼ë¡ľ
ĠíĻľìķ½ íķľ
Ġìĭł ëĿ¼ìĿĺ
ĠìķĬ ìĿĮ
Ġë³µ ìĦł
Ġì²¨ ê°Ģ
ìĿ¸ ìĪĺ
Ġ( "
ìłķ ìĪĺ
ĠìķĦ íı´
ĠíĨ Ī
ar s
ĠìķĪ íĭ°
Ġìŀ¬ ìĤ°ìĿĦ
ĠìĭĿ ëĭ¹
ĠHe art
ìļ° ë¦¬ëĬĶ
ĠìĬ¤ íı°
Ġë³¸ ê´Ģ
Ġê·¸ ëĥ¥
Ġê°Ģ ì§ľ
íķĺëł¤ ë©´
Ġì¶Ķìłķ ëĲĺëĬĶ
èª ª
íķľ ìĿĦ
ê°Ĳ íķľ
ë§ģ íĦ´
ëĨį êµ¬
ĠíĴĢ ëł¤
Ï Ĥ
ìľ ħ
ë¯¸ íĬ¸
íŀĪ ëį°
ì»¤ ëĭĪì¦ĺ
Ġê¹¨ ëĭ«
è Ħ
ĠìĨĮ íĸīìĦ±
Ġë°° ë¥¼
ë¸Į ë¥¼
ĠìĪĺíĸī íķĺëĬĶ
Ġê° ĩ
Ġêµ¬ ì¶ľ
Ġìħ Ī
ĠìĦ±ë¦½ íķľëĭ¤
ĠíĹ¤ë¥´ ì²´ê³ł
ëĮĢ ë¶Ģë¶Ħ
ĠìĿ¼ íĸĪëĭ¤
ĠëıĻ ë©Ķëĭ¬ìĿĦ
Ġìķ¤ ëįĶìĬ¨
ĠëĵĿ ìłĲìĿĦ
ĠíĻķìĿ¸ ëĲĺìĹĪëĭ¤
ĠìĨĮìľł íķĺê³ł
ëĭ¤ íģĲ
Ġê±° ê¸°ìĹĲ
ur ch
Ġëĳĺ ìĿĢ
ĠìĦ¸ìĿ´ ë¶Ģ
ĠíļĮìĿĺ ìĹĲìĦľ
ê³µë¦½ ë³´íĨµíķĻêµĲ
Ġì«ĵ ê²¨
ëıĻ ë§¥
Ġë§Ī ìķ¼
Ġë³µ ìłľ
Ġ14 0
Ġëĭ´ëĭ¹ íķĺê³ł
mm ìĿ´ëĭ¤
å½ ¢
Ġ en
ìļ° ë©°
Ġìĺģ ìĸ´ë¡ľ
íĨµ ìłľ
Ġìĭ¤ ë¦°
ĠëłĪ ìĬ¤íĨł
ĠìĭľìłĪ ë¶ĢíĦ°
ub e
Ġë¶Ī ì°¸
ĠJ apan
ĠëŁ¬ ìħĢ
ì¶©ì²Ń ëĤ¨ëıĦìĿĺ
íķĺ íĬ¸
Ġì£¼ ì¶ķ
er a
ìľł ëıĦ
ĠëĿ¼ íĮĮ
íĮĢ ìĿ¸
íĳ¸ ìķĦ
Ġê³µê°Ħ ìĿĺ
ĠìķĬìķĺ ê¸°
ĠíĥĿ ìĭľ
ĠëĮĢ ìĥģìĿĦ
Ġìĥģ ìĽĲ
Ġë¹ Ķ
Ġê³¼ìłķ ìĹĲ
ìĿ¼ë°ĺ ìłģìľ¼ë¡ľ
Ġì£¼ë§Ĳ ìĹ°ìĨįê·¹
êµĲ íĻ©
ìĹ° íĺ¸
ëĦ¤ ìĺ¤
ìķł íĭĢ
ãģ Ļ
Ġêµ¬ ìłľ
Ġë§Į ëĤĺëĬĶ
un n
Ġëħ¸ëŀĺ ëĬĶ
i j
Ġìĭľ ìłĲìĹĲìĦľ
Ġìĭł ëħĲ
ë²Ī ìĹĲ
Ġì§Ħíĸī ëĲľëĭ¤
íĬ¸ ëłĪ
Ġë°ľ ëĿ¼ëĵľ
Ġì½Ķ ìĬ¤íĥĢ
Ġíĺ¸ ìľĦ
ĠíĻ© ìłľê°Ģ
ĠìĹ°ìĨį ìľ¼ë¡ľ
Ġì°¾ìķĦ ê°Ģ
ìĤ¬ëŀĳ ìĿĺ
íĹĿê°Ģ ë¦¬
ëıĦ ë¹Ħ
Ġë¬´ ê¶ģ
Ġë°Ķ ëĭ·
Ġì¹´ íĥĢ
ìĿ´ìĹĪëĭ¤ ê³ł
Ġìłķë¶Ģ ìĻĢ
Ġêµ°ìĤ¬ ìłģ
ĠëĵĢ ìĸ¼
ĠìĿ¼ìĭľ ìłģìľ¼ë¡ľ
ê¸° íķĺ
ìĭĿ ìĹĲìĦľ
åľ Ĵ
ĠìĽĮ íģ¬
Ġìķ¼ë§Ī ëª¨íĨł
ë§Ī ì§Ģë§ī
ĠìķĪ ìª½
Ġì¡°ì§ģ ìĿĦ
íģ¬ë¡ľ ìķĦ
Ġì²´ ìłľë¥¼
Ġê·¸ë£¹ ìĿ´ëĭ¤
Ġìħ ¸
â ĳ
ĠìĦ¸ ëĿ¼
ë°ľ ìĤ¬
Ġm e
èĩ º
ĠìĿĺê²¬ ìĿ´
Ġê°Ģë©´ ëĿ¼ìĿ´ëįĶ
ìĿ¼ ì¦Ī
Ġê¸° ìĸ´
Ġì¡°ê±´ ìľ¼ë¡ľ
Ġì ŁĪ
Ġê¼ ´
sh ip
Ġìĭł íķĺ
Ġê¹Ģ íĻį
Ġë¶Ī ìĿĦ
ãĥ £
ĠìŀĪìĸ´ ìĦľëĬĶ
Ġì§Ħì¶ľ íķĺìĺĢëĭ¤
Ġê¸°ìĥģ ì²Ń
ë¹Ħ ìĸ¸
ìĤ° ìĹĲìĦľ
ĠëıĻ ë¡ľë§Ī
ë§¤ ë§¤
ĠêµŃë¦½ ê³µìĽĲ
Ġì°½ìĽĲ ìĭľ
Ġíĩ´ ìŀĦ
E d
ĠëıĻ ëªħìĿĺ
ĠB oy
Ġì£½ ìĿ´ê³ł
äº Ń
Ġw h
ĠìĥĪëĪĦë¦¬ ëĭ¹
ë¯¸ ìĬ¤íĦ°
Ġë³ĳ ìĹŃ
ĠìŀĲëıĻ ìľ¼ë¡ľ
Ġì¹¼ ëĿ¼
ĠìłľêµŃ ìĿĢ
Ġìķ¼ë§Ī íĨł
ĠTe chn
åĺ ī
ëĭĪ íĭ°
Ġë°Ľ ê¸°ëıĦ
Ġíĺķ ìĭĿìĿĦ
ĠìĪĺ ëħĢ
ìĥĿ ìľ¼ë¡ľ
Ġê³ł ë°ľ
ĠP re
ĠìĥĿê°ģ íķ´
ĠìĥģëĮĢ ìĭĿ
Ġê²½íĹĺ ìĿ´
I E
Ġìłķ ëıĻ
ì§Ħ ìľ¼ë¡ľ
ĠëĤĺ ìĿ´ê°Ģ
ê¹ ĥ
Ġë§ŀ ì¶Ķìĸ´
Ġìłľì£¼ ëıĦ
ìĹ°ëıĦ ë³Ħ
ĠìĤ¬ ì²ľ
Ġë¦¬ ìļ°
Ġì°¨ ìĽĲ
Ġë¶ģ ìª½ìľ¼ë¡ľëĬĶ
ĠìĪľ êµĲ
Ġv ol
Ġì§ĢëĤĺ ì¹ĺê²Į
ĠìĺĪìłķ ìĿ´ìĹĪìľ¼ëĤĺ
Ġìĺ Į
ì¸ł íģ¬
ĠìĨĮ ìļ¸
Ġê±° ë¦¬ê°Ģ
ëª© ìĿĺ
Ġ16 0
ë¸ĮëĿ¼ ì§Ī
Ġì¼ĢëĦ¤ ëĶĶ
ìķĦ ì§Ģ
ìłĦ ëĤ¨
Ġìłķ ê²½
ĠA nt
Ġv er
ĠìĦľìĭĿ ì§Ģ
ìķĦ ëŀį
êµ¬ ëĤĺ
Ġíĺĳ ìĿĺ
ê¸¸ ìĿ´
Ġë°ĺ ë°ķ
Ġìłģ ìłĪ
Ġëª° ëŀĺ
ìĤ¬ ëĿ¼
ĠìķĦ ìłľë¥´ë°ĶìĿ´ìŀĶ
ĠëıĻ ëıħ
Ġë¬´ ê±°ìļ´
ä¾ Ĩ
Ġë³´ìĹ¬ì£¼ ê³ł
ĠìĹŃ ìĹĲ
ĠëĪĦ ê°Ģ
ĠìĥĿê°ģ ëĲľëĭ¤
ĠíķľìĦ± ë¶Ģ
Ġìłķ ëł¬
Ġë¬´ ìĨĮìĨį
ê³¡ ìľ¼ë¡ľ
ĠëıħìĿ¼ ìĹĲìĦľ
ĠìķĦë¯¸ ëħ¸
us e
ĠëĤĻ ìĦł
íķľêµŃë°©ìĨ¡ ê³µìĤ¬ìĿĺ
ĠìłĦ íķľëĭ¤
ĠìľĦ ìŀĦ
íıī ë¡łê°Ģ
íĭ°ìĺ¤ íĶ¼ìķĦ
P l
t a
ìĦľ ë¦¬
Ġìłľ ìĪĺ
Ġìłķ ìĤ¬
Ġì§Ħ ê¸ī
ĠìĹĲ ìļ°
Ġì°¨ì§Ģ íķľ
æĻ ī
T e
ìĹĲ ìĬ¤
ĠëĤĺ ì¸ł
Ġì¹´ ìĿ´ìĤ¬
ìĬ¤ì½Ķ ë¦¬ìķĦ
ê²½ ë¹Ħ
Ġìŀ¥ ê±°ë¦¬
ìĽĮ ëĦĪ
ì§Ģë°© ìĦłê±°
è© ©
ĠìĤ¬ ìĥģìĿĦ
Ġìľł ìĿ´
ì¤ĳ ê³Ħ
ë¶Ħ ëį°ìĬ¤
Ġë§Į ëĤ¬ëĭ¤
Î ½
íĬ¸ ìĹĲìĦľ
ê³µ ìĿ´
Ġ8 3
Ġì¹ĺ ëªħ
ä½ į
b s
ĠìĦ± ìĿĢ
Ġê°Ħ íĺ¸ìĤ¬
ĠìĿĢ ë©Ķëĭ¬ìĿĦ
Ġê±´ì¶ķ ê°Ģ
Ġë¶Ħ ë°°
ab y
Ã ª
ì½ľ ë¡ľ
ê°Ģ íĨ¨ë¦Ń
ëĮĢíļĮ ìĹĲìĦľ
íķľ ìłķ
ë°± ìĿĦ
ĠìłķìĿĺ íķł
Ġì£Ħ ë¥¼
å² ©
ìĺ¤ ìĿ´
Ġ8 7
ĠT w
ĠëĪĦ ë¥´ê³ł
Ġë¹ĦìĬ· íķĺê²Į
ĠWill iam
19 17
Ġë§ ĳ
Ġì§Ģê¸Ī ëıĦ
ìĿ¸ìłĳ íķľ
ĠíħĮìĿ´ ë¸Ķ
Ġì§Ģ ëĬ¥
Ġë²ķ ë¬´ë¶Ģ
å¤§ å¤«
Ġëĭ¹ìĦł ìŀĲ
ĠìĿ¼ ëŁ¬ìĬ¤íĬ¸
Ġì¢ħ ìĿĺ
Ġìĺ¬ìĬ¤íĥĢ ìłĦ
ì§Ħ êµ¬
Ġë°ĺ ê³µ
D C
íķľ ìĦľ
ĠìľĦ ìŀ¥
ĠíĶĦ ë¡ł
ëī´ ì§Īëŀľëĵľ
ich ard
ĠíĬ¹ìĿ´ íķľ
D e
Ġíķľ ë°ĺ
Ġíķľ ìª½
ì½Ķ ë¡ľ
Ġìµľ ìłģ
ì²Ń êµ¬
ĠD a
ĠK ing
Ġëģ ĵ
Ġë¶Ħë¥ĺ ëĲľëĭ¤
19 12
ìľł ê¸°
æ §
ãģ Ĥ
ãĤ Ī
ëĤł ë¡ľê·¸
ç ³
Ġë³´ ìĻĦ
ĠìĦĿ íĥĦ
ç· ļ
9 00
ìĦ± ìłģ
ĠìĿ¸ ìĽĲ
ì²ł ëıĦê°Ģ
Ġì§ģ ìĦł
Ġì¡´ ì¤ĳ
Ġìļ°ìĬ¹ ìŀĲ
íĬ¸ë¡ľ ìĿ´íĬ¸
ĠíĶ¼ê²¨ ìĬ¤ì¼ĢìĿ´íĮħ
B e
Ġë³Ģ ìĪĺ
ëģ Ī
æľ ±
é §
ĠìĿ´ ìĿĺ
Ġìľł íĺ¹
ĠëĳĲ ë£¨
he d
Ġë§¤ ëĭ¬
Ġê¸°ë¡Ŀ ìĹĲ
Ġê´ĳ ëªħ
ĠíĶĦë¡ľê·¸ëŀ¨ ìĿ´
Ġíĺĳ ë°ķ
ê±° ë¦¬ëĬĶ
ĠìĦ± ëĭ¹
ê±´ ìĿ´
ĠG ood
Ġë¶Ħìķ¼ ìĹĲ
íĶĦë¦¬ ë¯¸ìĸ´
ìķĮ ëłī
Ġê°ķ ìłľë¡ľ
ĠíĨł ë¥´
ec ial
Ġìļ´ëıĻ ìĿ´
æĺ Ń
ĠìķĦì¼Ģ ìĿ´ëĵľ
êµ¬ ê°Ħ
ĠìĦľìļ¸ ìĹĲìĦľ
Ġë§ŀ ì§Ģ
ĠíĶĦë¦¬ ë©ĶëĿ¼
Ġê°Ģë§Ī ì¿łëĿ¼
ĠìĿ´ ë¥´ê³ł
ìĬ¬ ë¡ľë°ĶíĤ¤ìķĦ
Ġìĵ° ìĿ¸
Ġìį¨ ìĦľ
Ġíķ´ ì£¼
ĠI BM
Ġêµ¬ì¡° ëĬĶ
Ġë¦¬ë²Ħ íĴĢ
l ing
ìļ© ìĿ´
ĠêµŃ êµ°
Ġì°¨ë¡Ģ ë¡ľ
æĥ ³
ìķĦ ë¦Ħ
Ġê¸° ì°¨
ĠëĤĺìĺ¤ ì§Ģ
è± Ĭ
ëĮĢ ìļ°
Ġëĭ¤ ë¦¬ë¥¼
ĠA f
Ġë²ł ëĭĪ
Ġê²½ìľł ì§Ģ
Ġëľ¨ ê±°ìļ´
Ġìĭłíķľ ìĿĢíĸī
wik itable
ìĦł ë°ľ
ĠR NA
ĠH er
ĠíĬ¹ì§ķ ìĿĢ
ë¦¬ ëĭĪ
íķ´ ìĻĢ
Ġê°ģ ìĥī
ĠíĽĦë³´ ë¥¼
Ġê²ĢìĿĢ ìĥī
A m
Ġìŀ ¦
ì¹ĺ ë©´ìĦľ
Ġ9 3
ì²ľ ìķĪ
Ġê°Ħ íĺ¸
ì¹ĺ ëħ¸
ĠëĮĢíĨµëł¹ ìĿĦ
Ġìľł ì£Ħ
íŀĪ íĬ¸
íŀĪ ê°Ģìĭľ
Ġë³Ģê²½ íķĺìĺĢëĭ¤
Ġë©° ì¹ł
æ¤ į
ĠìĿ¼ ìŀĲ
ĠëĤľ ë¯¼
ì§ĢìĹŃ ìĿĺ
Ġ189 7
ëħ¼ ëŀĢ
ĠìĭŃ ìŀĲê°Ģ
H T
ê°ľ ìłķ
Ġíĩ´ ê°ģ
ìĭľ ì¦ĺ
ĠíĺĦ ìłĢ
ê¶Į ìĹĲìĦľ
Ġë³¸ ìĤ¬
ĠìĭĿ ìľ¼ë¡ľ
æ £
ê¸° ëĭĪ
ìĤ¬ ì¿ł
ĠT im
ĠíĮĮ ëŀĢìĥī
íĮĢ ìĿĺ
Ġì§Ħíĸī ëĲľ
ĠíĻľìķ½ íĸĪëĭ¤
ìĤ¬ ìĭ¤
ë¦¼ ìĿĺ
ĠíķĦ ëĿ¼ëį¸íĶ¼ìķĦ
ĠìĤ¼ ì²Ļ
Ġ0 7
åı °
ìķĦë¥´íĹ¨íĭ° ëĤĺìĿĺ
ìĦ± ìĿ¸
ĠíĻĶ ìłľê°Ģ
Ġì²´ ìĿ¸
ĠíĶĮ ëŀĳ
ĠíĴĪ ì§Ī
b o
Ġìĭľ ê³¨
Ġìĺģ ìĥģìĿĦ
Ġì§Ħ ëıĻ
Ġì¶Ķ ê²©
ãĤ ¦
æ ļ
Ġëħ¸ ëŀĢìĥī
Ġ9 00
ìķ½ ìĦ±
ĠìºĲ ë¡¤
Ġê¸ī ìĨį
Ġìĸ´ ìĽĮì¦Ī
ĠìĿ¼ë³¸ ìľ¼ë¡ľ
ìĶ¨ ìĻĢ
ê³µíĻĶ ëĭ¹
ìĹ° ë£Į
ĠN ot
íĿ ł
ĠíĶ¼ ì¸ł
ĠëĲľëĭ¤ ê³ł
Ġì¶© ê²©ìĿĦ
ĠëĲĺìĹĪ ì§Ģë§Į
å ¨
Ġê³¡ ìĿ´
Ġê¹¨ ëĭ¬
Ġì²Ļ ì¶Ķ
ìĥģ ìľ¼ë¡ľëĬĶ
íĶ¼ ìĿĺ
Ġê¶Į ê³ł
ĠìĨĮìŀ¬ ì§Ģ
íĻĶ íķĺìĹ¬
ĠìłĦíĪ¬ ëĬĶ
ê°Ģ ìłķ
ĠìĪĺ ëıĻ
Ġìľł ì§Ħ
ĠìĹ° íıīê·ł
in ter
ĠìĻķ ìľ¼ë¡ľ
ëª¨ ìĻĢ
Ġw idth
ĠëģĮ ëł¤
ë¶Ģìŀ¥ ê´Ģ
Ġì¡°ë³Ħ ë¦¬ê·¸
ëĵľ ë¦Ń
ë©Ķ ëĵľ
ìĪł ìĤ¬
Ġíİ¸ ë¦¬
ĠìłĦìŁģ ìľ¼ë¡ľ
ad a
Ġì¢Į ìłĪ
ê³µìĹħ ê³łëĵ±íķĻêµĲ
Ġëħ¸ë¬´ íĺĦ
K T
ê³¼ ë¡ľ
Ġë³´ ìĿ¼
ĠëıĻ ëħĦ
ëħĦëĮĢ ìĹĲëĬĶ
ìĤ¬ ë²ķ
ĠëĤĺ ìķĦ
Ġëª¨ ë°©
Ġë¦¬ ìĹĲ
ĠëłĪ ëħ¼
Ġê±´ëĦĪ ê°Ģ
O G
Ġíķĺ ëĤ¨
Ġë³´ ëĿ¼
ìĭ¬ ë¦¬íķĻ
ĠìĿ´ìĭľ ì¹´ìĻĢ
ê· Ħ
Ġë¹Ħ ë¡Ģ
Ġ9 2
Ġê±° ë¡ł
ëĦ¤ ëĬĶ
ĠëĲĺìĹĪ ìĿĦ
ìŀ¥ ìĪĺ
íİ¸ ìľ¼ë¡ľ
ĠíĥĲ ì§Ģ
ep t
ëľ ¨ë¦¬
Ġìĺģ ìĹŃìĿĦ
Ġê¹Ģ ìĿĢ
us h
ĠëĬĲ ê»´
ìĿĺ ë¡ľ
ĠìĹ° ê³łë¡ľ
ay s
ĠìĿ´ ëĤ¨
ëĭĪ ì½Ķ
ĠíĽĦ ë°°
ë³Ģ ìĿ´
Ġì¤ĳìļĶ íķĺëĭ¤
Ġê°Ģ ë§¹
ë¬¸ íķĻê³¼
Ġìĭľìŀĳ ëĲĺìĸ´
Ġì¤Ħ ìĹ¬ìĦľ
ëıĦ ìłĦ
ĠìĦ± ì·¨
Ġìłķìĭł ìłģ
ê²½ìĥģ ëĤ¨ëıĦ
Ġì¹´ë¥¼ ë¡ľìĬ¤
ê³łëł¤ ëĮĢíķĻêµĲ
Ġìĭłìŀħ ìĥĿ
ìĿ¸ íķľ
ĠìĦłìĪĺ ë¥¼
íĺĦ ëıĻ
ĠC EO
Ġë°Ľ ê¸°
Ġê°ľë°ľ ìĹĲ
Ġíıī ëĵ±
Ġì½ °
ĠíĤ ¥
ĠíķĻêµĲ ìĹĲìĦľ
ĠíĶĦë¦¬ ë¯¸ìĹĦ
ĠOp en
Ġì¡° ë¥´
Ġê¹Ģ ì£¼
ì§ģ ìĹĲìĦľ
Ġì¶Ķ ì¶ľ
Ġë§ĪìĿĦ ìĿĦ
Ġëª¬ íĬ¸ë¦¬ìĺ¬
åĬ ł
ĠìĥĿ ìĿ¼
Ġê´Ģê´ĳ ì§Ģ
çĥ Ī
ë¦° ìĿ´
ëĶ ª
Ġìłķì±ħ ìĹĲ
íĻĶ ìĤ°
Ġìĭľ ëħ¸
ĠìĿĮ ë£Į
Ġê²°íĺ¼ íĸĪëĭ¤
ê°Ģ êµ¬
ĠìĿĺ ìĽĲìĿĢ
ë¸Į ë¥´
é ĽĦ
ì§Ģ ìķĦ
Ġìĭľ íĤ¤
ĠìĹĲ ë°Ģ
Ġê°Ģ ìĿ´ëĵľ
ĠA N
Ġìŀħ ì£¼
Ġìĸ» ëĬĶëĭ¤
ĠìĨĮ ì§Ģ
ĠìĨĮ ìĪĺìĿĺ
ĠíĦ¸ ìĿ´
ĠInstit ute
P L
ĠìĿ´ ëĤ´
ĠëĤ ¼
Ġê°ķ ìĹ°
ud e
ĠíĥĢ ìŀĲ
Ġë§¤ ì²´
ê²° ìĤ°
Ġë²Ħ ëł¤
ì¸µ ìĿ´
ĠìĿ¼ íķĺëĬĶ
ĠI m
ĠíĹ¬ ë¡ľ
J R
ã Ī
Ġì§Ħ ìłķ
ĠìĤ¼ ì´Į
ĠìĿĮìķħ ìĿĺ
ĠìĿ´ìĥģ íķľ
ãĢĭ ...
ì²´ ê³Ħ
ë£¨ ìķĦ
ĠìļĶ ìłķ
Ġì»¨ íĬ¸ë¦¬
Ġìĥģì§ķ íķĺëĬĶ
C o
êµŃ ìĤ¬
ĠëĤ¨ ë¶ĢìĿĺ
ë¶Ħ íķ´
et s
ĠJ ournal
ĠëĮĢ ëł¹
ãĢĭ :
Ġìĺ¤ ëĿ¼
ĠìĹ°ê²° ëĲľ
Ġê²½ì°° ìĦľ
ä¿ Ĭ
ĠíĮĮë¦¬ ìĹĲìĦľ
ìĦ¸ ìŀĲ
ìľł ì§Ģ
ul a
ìľĦ ê¸°
Ġìŀħ ìĽĲ
Ġê¸Ģ ë¦¬
ìĬ Ń
ëĭĪ ì¦Ī
íķĺìĺĢëĭ¤ ëĬĶ
ìľł ìĨĮ
ĠìĦ¸ ë¦¬
ë§Ŀ ìĿ´
ĠìłĲ ìĿ´ëĭ¤
Ġëª©ë¡Ŀ ìĿĢ
Ġë©´ íĹĪ
ĠëĤľ ëĭ¤
ĠíķľêµŃ ìĹĲ
ĠìŀĪìĹĪëĭ¤ ëĬĶ
Ġì¡°ìĦł ìĿ¼ë³´
ĠëıĻ ëªħ
Ġíıī ì°½
Ġë¸ĶëĿ¼ëĶĶ ë¯¸ë¥´
ĠìĥĿ ëŀµ
ĠëĦ¤ ìĺ¤
ë§ī ê·¹
ĠìĿµ ìĬ¤
Ġì¹Ń ì°¬
Ġì«ĵ ìķĦ
C on
m in
Ġì¸¡ ë©´ìĹĲìĦľ
ĠìŀĦëªħ ëĲĺìĸ´
Ġìĺ® ê¹Ģ
Ġë³´ ì§Ģ
Ġìĭł ìĥĿ
ĠìĪĺëıĦ ìĽĲ
ìĥ¤ ë°Ķ
Ġê±´ë¬¼ ìĿĺ
Ġê·¸ëłĪìĿ´ íĬ¸
å¦ Ĥ
ĠìłĦ ëıĦ
Ġë¬¸ ëªħ
Ġìµľ ì§Ħ
Ġìķ¼ ë§Īëĭ¤
ĠìĦ¤ë¦½ íķĺìĺĢëĭ¤
Ġë£¨ íĦ°
ĠëĭĪ íĺ¼
ĠìĬ¬ ë¡ľë°ĶíĤ¤ìķĦ
ìĺ¤ìĬ¤íĬ¸ ë¦¬ìķĦìĿĺ
ĠI M
ĠìĿ¸ìłķ ë°ĽìķĦ
ìĦ¸ ìĹĲê²Į
ëª¨ ëª¨
ĠíĶĦëŀĳìĬ¤ ìĻĢ
ĠìĦ±ê²© ìĿ´
Ġì°° ë¦¬
V A
ĠìĤ¬ ê±°ë¦¬
ìŀ¥ ì¡°
ìĦ¸ ëĿ¼
Ġì´Ī ë¡Ŀ
us ic
ĠíıŃ íĴį
å¯ Ĩ
ëĭ¤ íħĮ
ĠC M
ĠíŀĪ ìĤ¬
Ġíķ¸ëĵľ ë³¼
ĠëıĻ ëĮĢë¬¸
ĠíĬĢ ë¥´íĤ¤ìĺĪ
ìłģ ìĿ´ì§Ģ
å° ĳ
ĠëĪĪ ë¬¼
ĠëĶĶë¹Ħìĭľ ìĺ¨ìĿĺ
ĠëĤĺ ë¥¼
Ġê¸°ë¡Ŀ ëĲľ
Ġë¶Ļ ìĿĢ
ĠìĿ¼ì»« ëĬĶ
Ġê·¸ëŀĳ íĶĦë¦¬
ê°Ģ ë©´
ìĻĢ ëĿ¼
Ġìłľ ëıħ
íĥĢ ìĿ´ëĵľ
ĠìĦľ ìŀ¬
ë°© ìĺģ
ëŀĳ ì¹´
íħĮ ìĿ´ìħĺ
ĠíĶĮ ëŀľ
ĠíĮ¨ íĬ¸ë¦Ń
ĠìĭłìĦ¤ ëĲľ
ìĺ ´
ĠìĬ¤ íĨ¡
Ġëĭ´ ê¸´
ĠëĤľ ìĿ´
íĨ¤ ìĿĺ
Ġì§Ģíľĺ ê´Ģ
ĠíĹĪë¦¬ì¼Ģ ìĿ¸
Ġê¶Į ìľĦ
ĠìĤ¬íļĮ ìĹĲ
Ġê¸Ģ ìĶ¨ëĬĶ
Ġê·¸ë¦¬ìĬ¤ ìĸ´
Ġì§ĵ ê³ł
Ġì£¼ ëıĦëĬĶ
Ġê²½ ìĤ¬
ë¬´ ê´Ģ
ìĦ¤ ì¹ĺ
Ġëª© ì¡°
ĠêµŃê°Ģ ìĹĲ
Ġë³ĳ íĸī
Ġìłķ íķ´
Ġíķľ ìĬ¤
ë²Ħ ëł¸ëĭ¤
ìĦ¤ ê³Ħ
ê¸¸ ìĿĦ
ìĥĪ ë¡ľìļ´
ĠìĨĮ ë§¤
Ġëªħ ìĦ±
Ġì¹´ ìļ°
Ġì¹ĺ ì¦Ī
ĠìłľíĴĪ ìĿĦ
ĠíĺĦì¡´ íķĺëĬĶ
ãĢĭ (,
íĪ¬ ê¸°
st er
Ġë§¤ ì§ģ
Ġìķ½ íĻĶ
ë¡ľë§¨ ìĬ¤
ĠëłĪìĬ¤íĨł ëŀĳ
ĠìĦ± ì¢ħ
Ġë°ķ ìĬ¤
Ġë©ľë¡ľ ëĶĶ
ĠìĹĲ ë¯¸
ëįĶ ëĬĶ
Ġì°¸ê°Ģ íķĺëĬĶ
Ġì¤ĳê°Ħ ìĹĲ
Ġí ĳ
ìĦľ ìĬ¤
ê³Ħ ì¢ħ
ìĦ¤ ìĿ´
ëħĦ ê°ĦìĿĺ
ëĮĢ ìĨĲ
ë°© ë²ķ
Ġë¶Ħ ê´ĳ
Ġë§¤ ì¶ľ
ìĹ´ ëĮĢ
Ġê³łëł¤ ìĿĺ
Ġëª¨ëĭĪ íĦ°
ìłĦ ë¦¬
ĠìĿ¸ ê²©
ì²ľ ìĿĦ
íķ¨ ìĿĺ
ĠIn c
ĠìļĶìĭľ ëĭ¤
ìķĦíĶĦë¦¬ì¹´ ê³Ħ
ëª¨ëį¸ ë§ģ
ioc ese
Ġ æĸ°
ëıĦ ëĿ¼
Ġíķ¨ ìľł
ìĸ´ë¦° ìĿ´
an o
ĠG roup
ĠìĽĮ íĦ°
Ġê´Ģíķł íķĺëĬĶ
ìĥĿë¬¼ íķĻ
ĠìĿ´ ìĸ´ì§Ħëĭ¤
ĠìłĦ ìķķ
Ġê°Ĳëıħ ìĥģ
Ġì¢Į íĮĮ
ĠìłĦíĨµ ìłģìľ¼ë¡ľ
ĠAss oci
ĠìĿ¼ ì¡°
) ()
ĠìĿ´ ë°©
ê°ķ íĻĶ
ĠëĤĺíĥĢ ëĤ¼
Ġì¡° ë¦¬
ĠëıĦ ë§Īë±Ģ
Ġê´Ģ ê³µ
ìĤ¼ ì§Ħ
ä¼ ļ
Ġìĭľ ëĦ¤ë§Ī
ìĹħ ìĿ´
ĠìĺģíĻĶ ìĹĲ
Ġê·¸ëŀĺ íĶĦ
ìķ¼ ê°Ģ
ìĨį ìĿĦ
ĠìºĲ ìĭľ
ĠìĭľìĬ¤íħľ ìĿ´
ĠR eg
ĠëĴ¤ ì§ĳ
ĠëĤł ìķĦ
ĠìłĦì²´ ê°Ģ
íĨ¨ ëłĪ
íķ´ ìĻĶëĭ¤
ĠëĮĢ ê´Ģ
ĠìķĦ ë²¨
Ġì§Ģ ìĭĿìĿĦ
Ġë°° ìĭł
ë²Ī ìľ¼ë¡ľ
Ġì§Ģìłķ ëĲľ
Ġê¸°ê°Ħ ìĹĲ
Ġìĥĺ íĶĮ
Ġì¤ĳ ìĹĲìĦľëĬĶ
ìľł ëĬĶ
Ġê´ĳ ìĸĳ
ĠëĶ¸ ìĿĦ
ĠíļĮìĽĲ êµŃ
ìĭ¤ë²łìĿ´ ëĭĪìķĦ
Ġê¸° ë¦Ħ
Ġëª¸ ìĿ´
n ess
Ġëĵ± ê·¹
Ġíķ´ ìĹŃ
ëĭ¬ ëĿ¼ê³ł
Ġì²ľ ë¬¸íķĻ
ãĢı ,
ëĮĢ ì£¼êµĲ
ëĦ¤ íĭ°
Ġì¤ĳìĭ¬ ìĿ´
ĠíĹĮ íĦ°
Ġë°©ë²ķ ìĿ´ëĭ¤
éł Ń
Ġë²¨ëĿ¼ ë£¨ìĬ¤
ëĤĺ ìĺ¤
ìķħ íķľ
ĠìĹ´ ê³ł
c us
ëĵľ ëŀĺê³¤
Ġìĭľ ê³µ
Ġë°Ķ íĢ´
Ġê²Į ìĿ´ì§Ģ
Ġì²´ ê³Ħë¥¼
Ġì»´ íķĦëłĪìĿ´ìħĺ
è» Ĭ
Ġê±± ìłķ
Ġì§Ģ ëªħìĿĦ
ìĹ° ìĪĺ
Ġë¶Ģì¡± íķľ
ĠìĹ°ìĺĪ ìĿ¸
íķ´ ìĦ¤
ĠìłĦ ëħĲ
Ġê³µ ìĤ¬ë¥¼
ĠìĥĿ ê²¼ëĭ¤
íķ¨ ëĮĢ
ĠíĻľëıĻ íķĺëĬĶ
ë¹Ħ ìĺ¤
Ġì¹´ ì¸ł
ëŁī ìľ¼ë¡ľ
ĠíĶĦëŀĳ ìĪĺìķĦ
Ġíĸ¥ íĽĦ
Ġíİĺë¥´ ëĶĶ
ĠëĮĢ ìľĦ
ìłĦ íĨµ
ë¦¬ìĬ¤ ëĬĶ
Ġíĺķíĥľ ëĬĶ
å§ ľ
ĠìĿ´ íĺ¸
Ġìŀ¬ ë°ľ
ìĻķ ê³¼
ĠH igh
ĠìĭłìĦ¤ ëĲĺìĹĪëĭ¤
ĠìĦł ëıĦ
ĠìŀĲ ì²´ëĬĶ
Ġê²ĥ ìĹĲìĦľ
ë°ĺ ìĹĲ
ĠìĿĮ ìĭĿìĿĦ
at ic
ëĨĵ ê³ł
ë¿ Į
à ¹
ëłĪ íĥĢ
Ġë£¨ ìĭľ
ĠìĿ¼ìľ¼ ì¼°
é¦ Ļ
ì§Ģ ìĭĿ
Ġì§Ģ íıĲ
Ġë³¸ ëªħ
ë´ī ìĤ¬
ê¸°ê´Ģ ìĿ´ëĭ¤
ĠíķĺìĺĢ ëĬĶëį°
Ġìµľìĥģ ìľĦ
ì ĮĢ
Ġëĭ¨ ëĭ¨
Ġì¶ľìłĦ íķ´
ì¹´ íİĺ
Ġìĥģ ìļ©
Ġì¶Ķ ìĥģ
Ġíĺ¸ íĶĦ
om ys
ì¶Ķ ëĬĶ
id ent
ĠìĦłê±° ë¥¼
åı Ĺ
ë§ĪìĿ´ íģ¬ë¡ľ
ìłľ ìŀĦìĬ¤
ĠìļĶ íģ¬
Ġê¸°ë°ĺ ìĿĺ
Ġëĥ Ħ
' )
ìĿ´ìĹĪ ê¸°
ĠíĦ° ì¹ĺ
ĠëĭĪì½ľ ëĿ¼
ç ĸ
Ġìĺģ ì¡°
Ġë²Į ê¸Ī
ĠìĨĮ íĨµ
ê·¼ ìĿĺ
ĠíĽĦë³´ ëĬĶ
ëĭĲ ëĿ¼
ìĭľì²Ń ë¥ł
A E
T E
ê° ±
ê°Ģ ê³Ħ
ĠëıĦ ì£¼
ĠL IVE
ĠëĮĢ íļĮìĿĺ
ìłķ íĿ¬
Ġêµ¬ì¡° ê°Ģ
ëĿ¼ ëĭĪ
ì¦Ŀ ìľ¼ë¡ľ
ĠìĪĺìĥģ íķľ
ĠëĪĦ ë¥´
ë¬´ìĬ¤ ë©Ķ
ì¶Ķ ê°Ģ
ĠëĤ «
ìŀ¬ ìĤ°
ë£¨ íĥĢ
ì§Ī ë¡ľ
ĠTV ì¡°ìĦł
íĶĮëłĪìĿ´ ìĺ¤íĶĦ
ìļ° íİ¸
íģ¬ ë¡ľìĬ¤
Ġì¤ĳ ëĮĢ
ì½Ķ ì¹ĺ
ĠëĤ´ ë¦°
Ġêµ° ìĿĦ
ĠìłĲ ìĪĺ
ĠìĭłìĿ¸ ìĥģ
éļ Ĩ
du ction
H L
Ġëª¨ ìľ¼
Ġë¬´ ê¸°ë¥¼
Ġíı¬ ìĬ¤
ĠìķĦ ì¿ł
ĠìķĦ ìĺĪ
ëł¤ ë©´
Ġì¹ĺ ìĹ´
Ġìĥģ ìĿ¸
ĠM net
Ġëĭ¨ ìľĦë¡ľ
Ġìĭ¤ ëł¤
Ġë¬¸íĻĶ ë°©ìĨ¡
Ġê²°ìłķ ëĲĺìĹĪëĭ¤
ĠìĤ¬ëĿ¼ ì¡Įëĭ¤
R o
Ġë Ĥ¬
ĠìĹĲ ìĿ´ì§Ģ
ĠìĻķ ìľĦë¥¼
ĠíķľêµŃ ìĭľë¦¬ì¦Ī
ĠíĮĢ ìĹĲ
ĠêµĲìĪĺ ê°Ģ
Ġê¹Ģ ë¯¸
Ġ !!
ĠëĶ° ë¥¸ëĭ¤
ëĳĲ ëĬĶ
ĠëĤĺ ìĦ°ëĭ¤
ĠìĤ¬ëŀĮ ê³¼
Ġêµ° ìĤ°
ĠD S
ì¸µ ìĿĦ
Ġì¤Ħ ê¸°
Ġë©° ëĬĲë¦¬
Ġë¶Ģ ëĶª
ìĹħ ìĹĲ
Ġìŀ¬ íĺĦ
Ġì´Ī ì°½
ĠìĬĪíį¼ ì»µ
ĠìĿ´ì§ĳ íĬ¸ìĿĺ
ĠëĤĺëĪ ł
Ġìĭ¤ì§Ī ìłģìĿ¸
ĠíĪ¬ ë¥´íģ¬
Ġê¸Ī íĺ¸
ëıħìĿ¼ ê³Ħ
ĠìĬ¹ë¶Ģ ì°¨
Ġê°ĢëĤľ íķľ
ç ´Ģ
ĠìĦ Ģ
Ġë¹Ħ ì¹ĺ
ë©Ķ ìĿ¸
ìĪł ìĿĺ
Ġë¸Į ëłĪìĿ´íģ¬
íķĦë¦¬íķĢ ìĿĺ
ìĭľ ìĹĲëĬĶ
Ġìĭľ ì¦Īìĺ¤ì¹´
Ġë°Ķ ê¾¼
íĺķ ìĿ´ëĭ¤
ĠëĿ¼ ìĬ¤íĬ¸
Ġìĭľì¦Į ìĹĲëĬĶ
Ġd u
ĠìĿ¼ìłľê°ķìłĲ ê¸°
ì§Ģ ê¸Ī
ìĦ± ë©´
Ġëª¨ ìĭľ
um b
ĠìĿ¸ë¬¼ ìĿĦ
æ¥ Ĭ
ë²¨ê¸°ìĹĲ ìĿĺ
į ìĬ¤
Ġì¼Ģ ëĥĲ
Ġìĭ±ê¸Ģ ë¡ľ
Ġì§ĢëĥĪ ìľ¼ë©°
Ġì¡° ìĺģ
ĠìķĮ ì½Ķìĺ¬
ĠìļĶ ìĨĮê°Ģ
ë³µ ìĿĮ
Ġì°½ ê±´
Ġê¸¸ ê²Į
Ġíķĺ ëıĻ
ad d
ĠíĿ¬ ê³¡
íĢĺ ìĸ´
Ġê³µ ìĤ¬ê°Ģ
ë³´ ìŀ¥
Ġê¸ī ìĭĿ
Ġì¤ĳê³Ħ ë°©ìĨ¡
L L
ëĿ¼ ë¥´
Ġìŀ¥ ìķĪ
Ġ7 9
ì´Ī ë¥¼
ĠìŀĳíĴĪ ìĥģ
å® ¹
ST ER
ìłĦëĿ¼ ë¶ģëıĦìĿĺ
T R
ìĦľ ìłģ
ê´Ģ íķł
Ġì¡´ìŀ¬ íķĺë©°
all y
Ġíķĺë£¨ ì¹´
ìĦľ ëıĦ
Ġëĭ¤ ë£¬ëĭ¤
íĥĢ ìļ°
íĥĢ ìĽĮ
ĠëĤĺ ìĿ´ì§Ģë¦¬ìķĦ
íŀĪ ìĤ¬
Ġëħ¸ ì¡°
Ġê´ĳ ìłĢìļ°
ë°ķ íķľ
ë¶Ī êµĲìĿĺ
ĠìĬ¹ë¦¬ íķľ
ë°Ķ ëĬĶ
ĠíļĮ ìĤ¬ë¥¼
Ġì¡°ê¸Ī ìĶ©
ì°½ ì¡°
íĥĢìĿ´ íĭĢ
Ġëĳ¥ ê·¼
ĠìĿ´ ê¸´
ìĥ ¨
Ġë¶Ģ ìĪĺ
Ġë¬¸ ìĦľëĬĶ
êµ¬ ëĿ¼
ìļ© ìĿĢ
ĠìŀĲ ìĦ¸íķľ
Ġì¶ľ ì²ĺ
ãĤ £
ĠìĪĺ íİĺë¥´
ìļ° íĬ¸
Ġëĭ¤ íħĮ
ìĺ¤ ìĦ¸
ĠT rans
ìĽĲ ìĿ¸
ë§Ī ë¡ľ
Ġì£¼ ë¥ĺ
ĠíĶĮ ëŁ¬
ĠëĮĢíķĻ ìĹĲ
Ġìłľ ê³±
Ġë¶Ģ ì±Ħ
ĠìĿ¸ë¬¼ ìĿ´
Ġëª° ëł¤
ĠêµŃ ìķħ
Ġë¬¸ ìĺĪ
ìĤ´ ìĿ¸
ĠíķľêµŃ ì²łëıĦ
Ġíķĳ íģ¬
al t
ĠìķĦ ìĹŃ
ĠìķĦ ëłĪëĤĺ
ê°ķ ìĹĲìĦľ
ĠìĨĮìĨį ëĲľ
ĠëĤĺëĿ¼ ìĹĲìĦľ
Ġê¶ģ ê·¹
iss ion
ĠìľĦíĺĳ ìĿĦ
Ġì¼Ī ë¦¬
ĠìĤ¬ëĭ¨ ë²ķìĿ¸
D on
ìĹĲ ìĸ´
Ġìłķ ë§Ĳ
Ġd i
f or
Ġìĺ¤ ë¥ĺ
ĠìĨ¡ íĮĮ
Ġë¯¸ìķ¼ ê¸°
Ġì½Ķ ë®Į
ĠìĦ¸ê³Ħ ìľłìĤ°
ĠëĭĪ ì½Ķ
ĠêµŃê°ĢëĮĢíĳľíĮĢ ìĿĺ
ê¼ ½
ìĥģ ìĦ¸
íĤ¤ ìĻĢ
Ġë³¸ ìĤ¬ë¥¼
Ġë¸Į ëŀľ
ĠìĿµ ìĬ¤íĶĦëłĪìĬ¤
Ġìłľ ê°Ī
ĠM art
ĠN BA
Ġë¹Į ëł¤
arl es
ĠìķĪíĨłëĭĪ ìĺ¤
íķĺ ê²łëĭ¤ëĬĶ
ot her
ĠíĺķìĦ± íķľëĭ¤
ĠìĤ¬ ìĬ¬
êµ¬ ìŀ¥
Ġê³ł ëĵł
ì¿ł ì¹ĺ
ĠìĨĮìĨį ìĿ´ëĭ¤
G e
ĠëĳĲ ê»ĺ
ĠìķĬìķĺ ìľ¼ëĤĺ
Ġê¸īê²© íŀĪ
ìĬ¤ íĥ
ê¸° ìĥģ
Ġë§Ĳ ìĶĢ
Ġë£ °
ìĬ¤ ì½ĺ
Ġë§Ĳ ê¸°ìĿĺ
it a
Ġë°Ģ ìĸ´
Ġë¯¿ ê³ł
ëĨĵ ìĿĢ
A B
ìŀ¬ ëĬĶ
ĠìĤ° ìĨĮ
ì½ ¥íĦ°
ĠìķĬëĬĶëĭ¤ ê³ł
Ġìĸ¼êµ´ ìĿĦ
Ġê°¤ ëŁ¬ë¦¬
ĠëŃ Ĳ
ëĭ¤ ì§Ģ
ë¦¬ ë²Ħ
ĠìĤ¬ íĹĮ
Ġëį° ëĵľ
ë¬¸íĻĶ ìľłìĤ°
ĠíĶĦë¦¬ë¯¸ìĸ´ ë¦¬ê·¸ìĿĺ
E l
ìŀĲ ëıĻ
ĠìĪĺ ìĥī
Ġìļ° ì¹ĺ
ĠìķĪ ë³´
Ġì¹Ń íĺ¸ë¥¼
Ġíı¬ë¥´íĪ¬ê°Ī ìĿĺ
éŃ ı
Ġ9 1
Ġìľł ìĸ¸
ĠëıĦ ëĳĳ
Ġë¬´ ì§Ģ
ĠìĿ¼ë³¸ ìĹĲìĦľëĬĶ
ĠëĮ Ĳ
ĠìĿ¼ì°į ìĿ´
ëħĦ ìĿ´ëĭ¤
Ġíķĺ ëĿ½
ĠìĦ¸ ìĥģìĹĲ
Ġë§¤ ìĤ¬ì¶ĶìĦ¸ì¸ł
Ġíĥľ ëıĦë¥¼
Ġê·¹ íŀĪ
Ġê²© íĩ´
ëłĪ ê¸°
íķĺìĺĢ ê¸°
Ġë°ľ ê¸ī
Ġê´Ģ ìķħ
Ġëĭ¤ìĿĮ ìĺģíĻĶ
ĠìĿ´ë£¨ ìĹĪëĭ¤
Ġë§¡ ìķĺê³ł
Ġë°Ŀ íĺĶ
Ġë²ĦìłĦ ìĿĺ
Ġìĥģ íĳľ
ĠìĦ± ëª¨
in ess
ĠN et
ĠíĸĪëĭ¤ ëĬĶ
ĠìĦ±ê³µ íļĮ
æĪ ĳ
Ġìĸµ ìķķ
olog ical
ê±° ë¦¬ë¥¼
ĠëĤ´ ë¬´
íķ ¸
ĠH T
Ġì§Ģë°© ìĹĲìĦľ
Ġì§Ģìĥģ íĮĮ
Ġë¹Ħìļ© ìĿĦ
íħĶëłĪ ì½¤
ĠìĿ¼ ëªħ
Ġì£¼ ìĻĢ
Ġë¯¸ ë£¨
ĠíĥĢìĿ´ ë²łìĿ´
ìģ ¨
Ġì£½ìĿĮ ìĿĺ
ê±° ìĿĺ
ìļ´ ëĭ¤
Ġê¸°ë¡Ŀ íķĺìĹ¬
ĠíĻķ ì§Ħ
ib le
Ġê°ģë³¸ ìĿĦ
um p
ĠìĿ¸ìłķ íķĺì§Ģ
u el
Ġê±° ë¶ģ
Ġìĸĳ ì£¼
Ġêµ¬ì¡° ë¡ľ
ĠêµĲìĪĺ ëĬĶ
ĠìĦ±ìļ° ìĿ´ëĭ¤
Ġ qu
ĠëĤ´ ìĹŃ
Ġëĭ¤ìĿĮ ìĿ´
Ġê°Ħ ìĿ´
ĠìŀĲìĭł ëıĦ
ĠìłľìĻ¸ íķĺë©´
Ġëĭ¤ ë§Ī
ĠìĦľ ë°ĶìĿ´
ë¸Į ë¦¬ìķĦ
ĠìĿĮ ëª¨
Ġê¿Ī ê¾¸
Ġëĭ¤ íķŃ
ĠíĹ Ĳ
Ġë¶ģ ë¶ĢìĹĲ
Ġì²ĺ ëħĢ
Ġê°ľíĺģ ìĿĦ
Ġìĭľ íĬ¸ì½¤
ìļ© ìĿ¸
ĠD avid
ĠíĿĶ íķľ
Ġê²ĥ ë³´ëĭ¤
Ġë¹Ħ ëĭ¨
ì²ĺ ìĿĮ
Ġìķł ë¹Ħ
ĠìĬ¬ ëĿ¼
Ġë°ĳ ìĹĲìĦľ
Ñ ĭ
Ġê²½ìļ° ìĹĲëıĦ
ĠíĮĲ ìłķ
Ġêµ¬ì²´ ìłģìľ¼ë¡ľ
ĠRo bert
ç º
ĠìłĦ ìłľ
Ġê³µ ë¯¼
íķĺìĺĢëĭ¤ ê°Ģ
ĠìĦłìĪĺ ëĵ¤ìĿ´
Ġ9 78
Ġê°ķ ìĿ´
ĠíĬ¸ë¡ľ íĬ¸
å°ĩ è»į
B L
Ġë¦¬ ìĤ¬
Ġë³¸ ìĿ¸ìĿĺ
ĠìĭľìłĪ ìĹĲëĬĶ
íıŃ íĴį
u y
Ġíķľ ëªħ
ĠëıĻ íĸī
ĠS erv
Ġìµľ ëĮĢíķľ
Ġë¶Ī ìĿ´
Ġê²Į ìĺ¤
Ġë¬¼ ê³ł
Ġì°¾ìķĦ ìĦľ
ĠìĦ¸ì¢ħ íĬ¹ë³ĦìŀĲì¹ĺ
æ ĳ
Ġê²° ì½Ķ
ê°Ĳ ìĹ¼
è¨ ±
ë¬´ ê°Ģ
ìĨį ìľ¼ë¡ľ
Ġìŀ¥ ìĿ¸
íĮĮ ìĽĮ
ëŀĢ íŀĪ
Ġë¶Ħ íĻĶ
Ġìŀ¬ íĺ¼
ĠíĥĪ íĻĺ
Ġíį¼ íı¬
Ġëª¸ë¬´ ê²ĮëĬĶ
ìĭ ¯
Ġê·¸ ëĮĢ
ĠëłĪ ë°Ķëħ¼
ir t
ĠìĦ¬ ìĹĲ
Ġì½ľ ëĿ¼
íŀĪë¡ľ ìĭľë§Ī
çģ «
Ġì¤ĳ ê¸°
Ġë°° ìĽłëĭ¤
C O
ëĮĢ ê¸°
ĠìĨĮ ë§Ĳ
ĠíĨł ë¯¸
ìī½ ê²Į
Ġ9 4
ĠíļĮ ìĤ¬ê°Ģ
ĠìĬ¹ ìĿ¸ìĿĦ
ë¬¸íĻĶ ë°©ìĨ¡
ĠëłĪìĿ´ ëĶĶ
ĠíĥĲ ìłķ
ĠëĮĢ ìĺģ
ë°© ìĭĿ
Ġë°©ìĨ¡ ëĲĺìĹĪëĭ¤
Ġë¯¸ìķ¼ ìŀĲíĤ¤
strument al
ìĽĲ ìĿ´ëĭ¤
ĠìķĦ ìĦ¸
I O
Ġìĭľ ì¼ľ
ìĺģ ìĹħ
it z
ĠíĦ° ë³´
N HK
ëıĦ ë§Īë±Ģ
Ġì¤ĳ íĩ´
ĠëĤ´ ìķ¼ìĪĺ
Ġì¹´ íĶĦ
Ġìŀ¬ ëĤľ
ĠìĬ¹ ìłĲ
un ction
Ġë¶Ģë¬¸ ìĹĲìĦľ
Ġë°´ëĵľ ëĬĶ
Ġê²½ ìĿ¸
re w
ĠìĦľìļ¸ ëĮĢ
um mer
ĠìĹ°ê²° ëĲľëĭ¤
ĠìķĦíĤ¤ íĥĢ
ìĬ¤ì½ĶíĭĢëŀľëĵľ ìĿĺ
ĠëĮĢ íĶ¼
ë³´ ìļ°
ĠìĹ¬ ë¶Ģë¥¼
Ġìĵ° ê¸°
ĠíĶ¼ìķĦ ëĭĪìĬ¤íĬ¸
ĠíĬ¸ë¦¬ íĶĮ
Ġìłķ ìľł
Ġìŀĳ ìĦ¼
íı¬ ë¦¬
Ġìĵ° ìĺĢëĭ¤
íķĻìŀĲ ëĵ¤ìĿĢ
íĹĪ ê°Ģ
ĠìĭľìĦ¤ ìĿ´
ĥ ì¥Ĳ
Ġë¶Ģ ìľĦìĽĲìŀ¥
ĠìķĶ íĿĳ
itt le
A ll
Ġâ ĸ
Ġë°Ľìķĺ ìľ¼ëĤĺ
Ġìľ ¨ë¦¬
ìĽĲ ìĤ¬
ê²½ ìľ¼ë¡ľ
ĠíĻľë°ľ íķľ
ĠëĳĺëŁ¬ìĭ¸ ê³ł
Ġìĺ¤ ë°Ķ
Ġs e
ĠìĿ´ ìĸ´ì§Ħ
ë¡ľ ì¿ł
Ġë¬¸ ë²ķ
Ġë¶Ī íĻķ
Ġíıī ë²Ķíķľ
ê°Ģ ê²Į
íķĻ ìľĦë¥¼
ê³µ ë¡ľ
ë¡ľë¶ĢíĦ° ìĿĺ
ìĥ¤ ìĺ¤
ĠìķĮëłī ìĬ¤
å½ ¦
i que
Ġ( ~
Ġë§Ī ì³¤ëĭ¤
al a
ĠíĮĮ ìĬ¤
Ġë¶Ī ìĸ´
Ġì¹´ ëĶĶ
ê°ķ ë¦ī
Ġíĺ¸ ì¶ľ
ĠìĿ¸ìłĳ íķľ
Ġíĺ¸ ì¿ł
Ġíĳľ ëªħ
êµ¬ìĿĺ íļĮ
ãĪ ľ
Y ou
Ġê¸° ê¸°
Ġíķ´ ë³ĳ
Ġìľł ìłĢ
ãĥ ķ
ëª© ìĿĢ
ĠG O
ë¹Ī ìĿĺ
Ġìĭ¸ ìĿ´
AR T
ê·¸ ëłĪìĿ´ëĵľ
ëįĶ ìĿĺ
ĠìºĲëĤĺëĭ¤ ìĿ¸
Ġì´Īë°ĺ ìĹĲ
ë§Ī ë²ķ
ëįĺ íĬ¸
Ġë¦¬ ë¹ĦìķĦ
ìĨĮ ìŀ¥
ìķĪ ë³´
Ġë¡ľ ìĸĦ
Ġêµ° ìĹĲ
ĠG N
å± ħ
ìĬ¤ ê¸°
Ġìĭł ì§Ģ
ë°© ìĹĲìĦľ
ĠìĭľìĦ¤ ìĿĦ
íħį ì²ĺ
B B
ìłķ ì§Ģ
ìłľ ì¡°
ĠS uper
ĠìĦĿ ì¡°
ĠíĶĦë¦¬ íģĲìĸ´
Ġê³Ħíļį ìĹĲ
Ġíŀĺ ëĵł
ĠíĬ¹ì§ķ ìľ¼ë¡ľ
çĽ ®
ìĺĪìĪł ëĮĢíķĻêµĲ
ë¶ īìĿĢ
ë²Ī ìĿĢ
Ġíıī ë©´
Ġì§ģ ê²°
ĠíĪ¬ êµ¬
ĠìĹŃìĤ¬ ìłģìľ¼ë¡ľ
ĠëĮĢíķĻ ìĿĦ
Ġë°Ķê¾¸ ìĸ´
ëĦ Ľ
ëĭ¨ ìŀ¥
Ġíı¬ ìŀ¥
ë°° ìĹŃ
am a
ĠìĿ´ë¡ł ìĿĺ
Ġê²½ ì£¼ìĭľ
Ġë¶Ģ ì§Ģ
ì¶ľ ìĥĿ
re g
Ġìľ¡ êµ°ìĿĺ
ì¹¸ ìĿĺ
ĠëĤ¨ ë¶ĢìĹĲ
ìĺĪ ëĬ¥
Ġ ar
ĠìĿ´ ë³Ħ
Ġìłľ ìķķ
ĠìŀĲ ê¸ĪìĿĦ
Ġì¡° ìĿ´
Ġë°ķ ìļ©
Ġëĵ¤ìĸ´ ê°Ħëĭ¤
ĠëĨĴ ê³ł
ĠíĶĦë¡ľìłĿ íĬ¸ë¥¼
Ġê¸° ìłĢ
ĠìĹ¬ íķĻìĥĿ
ĠW ith
Ġê³łìĸĳ ìĭľ
Ġì¡° íĺĦ
re et
ëģ Ĺ
ëĲĺ ì§ĢëĬĶ
ĠìŀĪëĬĶ ì§Ģ
íĮĮ ëĭĪ
Ġì´Ī ìĽĶ
Ġê°ľë°ľ íķĺê³ł
ĠëĦ£ ê³ł
íĮ Ł
ëħ¸ ë²¨ëĿ¼
ì¸ł ì¹´
ìĸ¸ ìĬ¤
ĠO CN
Ġìļ© ìĸ´ë¥¼
ìłķ ê¸°
ìļ° ê¸°
Ġì¶ľ íĨł
ĠìķĮ ëł¸ëĭ¤
íĮĲ ìĤ¬
Ġë§¤ ìŀħ
Ġìĭľì¦Į ìĿĺ
Ġëħ¸ìĦł ìĿĺ
ìĺĪìĪł ê³łëĵ±íķĻêµĲ
Ġì»¤ë®¤ëĭĪ ì¼ĢìĿ´ìħĺ
Ġìłķ ìĦ±
ìĭł ëĭ¹
Ġìĭł íĺ¸ë¥¼
ì°¨ ëĵľ
ë§Ĳ ìĿĺ
ap t
Ġê²½ìĥģ ëĤ¨ëıĦìĿĺ
Ġê¸°ëĬ¥ ìĿĢ
ĠëĵľëŁ¬ ë¨¸
Ġê¸° ìĺ¨ìĿĢ
ëłĪ ë¸Ĳ
Ġê°ľ íĻĶ
Ġë¶Ī íİ¸
ï¼ ŀ
P M
Ñ Į
Ġê°ķ íĿ¬
TV ìĹĲìĦľ
ëĭĪ ê°ĢíĥĢ
Ġìķł ìĬ¬
ĠíıĲ ìľĦ
íĹ¤ ëĵľ
ĠRef erence
ëĤ ®
ìķĦ ì£¼
ĠëĮĢ ìĬ¹
Ġì¶Ķ ì²¨
ìĽĮ íģ¬
ĠìłĦìŁģ ìĿĢ
Ġê´Ģë¦¬ íķĺëĬĶ
ë¦¬ ìķ¼
Ġìŀ¬ ë¯¸
Ġì£¼ìŀ¥ íķĺê³ł
ĠíĸĪ ìĿĦ
Ġë¯¸ìĸĢ ë§Ī
ìĥģ ê·ľ
Ġëª¨ ë¥¸ëĭ¤
ë¶Ħ ë¶ĢíĦ°
Ġìĸ´ íľĺ
Ġìľłëŀĺ íķľ
Ġìĺ¤ë¦¬ ìĺ¨
Ġëĥī ê°ģ
é½ ĭ
ê± Ģ
Ġë° Ł
Ġë§ ·
êµĲ ë¥ĺ
íĥĢ ì¹ĺ
ë£¨ ìĭľìķĦ
Ġëªħ íĥĲìłķ
ĠìĻ¸ ìĨĲ
Ġì°¸ìĹ¬ íķĺëĬĶ
A nd
ĠìĦľ ìª½ìĹĲ
Ġëĵ¤ìĸ´ ìĺ¨
oc ial
ĠíĹĮ ìłķ
éį ¾
Ġìłľ ëĦĪ
Ġë§Ī ìĬ¤íģ¬
ìĭĿ ìĬ¤
Ġë°ľ íĺĦ
ĠíĽĦ ìĿ¼
Ġë¸Į ë£¨ìĬ¤
ĠìĤ¼ìĦ± ìłĦìŀĲ
Ġì²ŃìĻĢ ëĮĢ
å ŀ
ë¡ľ ìĿ´ëĵľ
ê°Ģ ìĬ¤ì¹´
ë¯¸ ëĦ¤
ĠíĮĮ ìĿ¸
Ġíĸī ìĦ±ìĿĺ
Ġìķ¼ ëĭ¹
ĠëĤĺëĪ Į
à ¤
ë²Ī ëĮĢ
Ġì»¬ ëłīìħĺ
ìĤ¬ ìľł
ĠëĮĢ ëįķ
Ġê²½ íĺ¸
ĠìĿ¼ë³¸ ìĿĦ
ì»¤ ëĬĶ
Ġp r
ĠìĭľìłĪ ìĿĺ
æĥ ł
Ġë§ ı
íı¬ ëĬĶ
ĠíĨµ íĭĢ
ê°Ĳ ê³¼
ĠëĨĵ ìĿĢ
ĠìľĦ ê¸°ë¥¼
ĠêµŃ ìĨĮ
íĸī ë³µ
Ġë¬´ ìĥģ
ĠêµŃê°Ģ ë¡ľ
ĠíĻľëıĻ ìĿĢ
Ġì°¸ìĹ¬ íķĺê³ł
ĠëĦ¤ìĿ´ë²Ħ ìĺģíĻĶ
ĠCON CACAF
å ©
íĺĦ ìĭ¤
ĠíĨł ëģ¼
ĠìĦ¤ëªħ íĸĪëĭ¤
ìĿ¼ ìĹĲìĦľ
ìļ° ìĪĺ
ê³¡ ìĿĢ
Ġê¸°ìĪł ìĿĺ
ĠìºĦë³´ ëĶĶìķĦ
Ġê¹Ģ ëıĦ
ĠìĺĪ ê³ł
Ġì¤ĳìĭ¬ ê¸°ìķķ
ĠY ear
ìķ¡ ìĿĺ
Ġëħ¸ëıĻ ì¡°íķ©
Ġì¹´ë¥¼ ë¡ľ
II I
åĵ ¡
ë£¨ë¯¸ ëĬĦ
c es
íģ¬ ë¦¬íĬ¸
ëĭ¨ íİ¸
ëª© ìĿ´
ĠìĦľìļ¸ íĬ¹ë³ĦìĭľìĿĺ
çĽ Ĭ
Ġê·¼ì²ĺ ìĹĲìĦľ
ëłĪ ìĬ¤íĬ¸
Ġëĭ¹ ìĿ¼
Ġë¡ľ ë²Ħ
Ġì¹ĺëŁ¬ ì§Ħ
Ġ1 19
ìķĦ ë²Ħ
ê³¼ ìłķìĿĦ
19 08
Ġì¤ĳ ì¢ħ
ĠëıĻ ëĦ¤
Ġë¬´ ìĬ¨
Ġìµľ ê°ķ
ĠìĤ¬ìĿ´ ë¨¼
Ġê°ľë°ľ ëĲĺìĹĪëĭ¤
Ġê¸°ìŀĲ íļĮ
ĠìķĻ ë¦¬
I F
Ġìĭľ ë¶Ģ
ĠìŀĲ ìĿĺ
ĠíķľêµŃ ìłĦìŁģ
ĠíķĢëŀĢëĵľ ìĿĺ
è ´
ìĦ± ìĿ´ëĭ¤
Ġê¸° ìłĲìľ¼ë¡ľ
Ġìłķ ë°Ģ
ĠA ct
ìłĲ ìĿ´ëĭ¤
ĠìŀĪìĹĪ ìĿĦ
Ġê´Ģëł¨ íķľ
Ġì¹¨ íĪ¬
ĠìĦ±ê³µ íķĺìĺĢëĭ¤
æĦ ı
ì² ĻìĿ´
Ġêµ¬ íķ´
ĠR ed
ĠìŀĦ ìļ©
ĠG od
ĠìĤ¬íļĮ ë¥¼
Ġì¿ł ë¡ľ
Ġëª¨ëį¸ ìĿ´
Î ¹
íķľ ìĸĳ
ĠìĨĮ ê¸Ī
ì²´ ìĿ´ëĭ¤
Ġê·ľ ê²©
ĠíĿ¬ ê·Ģ
ì µ¸
ĠëĮĢ ëªħ
ìłĦ ê³µ
ê·¸ ëĿ¼ìļ´ëĵľ
ĠëĤ¨ ìķĦìŀĪëĬĶ
íı¬ ê°Ģ
ĠM et
ê²ĥ ëıĦ
Ġìĸ´ë¨¸ëĭĪ ìĿĺ
Ġì§Ģ ê³ł
íŀĪ ìĸ´ë¡ľ
Ġë°ķ ìĶ¨
is on
Ġì£¼ìĿ¸ê³µ ìľ¼ë¡ľ
Ġë īĺ
ë¦¬ ì¿ł
ìĿ¼ ìĭĿ
ĠìķĦ íĻī
ĠìĦ± ì£¼
ĠìĦłìĪĺ ìĿ´ë©°
ëĤ´ ìĸ´
Ġìĸ» ê³ł
row n
ĠíĮ °
Ġìĭł ìŀĦ
ëħĦëĮĢ ìĿĺ
íĺĳíļĮ ìĥģ
ëĤĺ ëĵľ
íĮĲ ê³¼
Ġêµ° ëĮĢìĿĺ
Ġê²Į ë¦¬
ĠìĿ´ëĵ¬íķ´ ìĿ¸
Ġêµ° ìĿĢ
ë¶ģ ë¶Ģ
Ġíĺ¸ ì¡°
Ġì¤ĳëĭ¨ ëĲĺìĹĪëĭ¤
u es
ì§Ģ ìĬ¤
ĠìĿ´ ë¹¨
Ġì§Ģì§Ħ ìĿ´
ì²´ìľ¡ ëĮĢíļĮ
ĠChrist ian
ëĶ°ëĿ¼ ìĦľ
ĠìĤ¬ ìĻĢ
Ġíķĺ ë¹Ħ
ĠM SL
ê²½ì°° ì²Ń
Ġíİł ë¦¬
ĠìĤ¬ë²Ķ ëĮĢíķĻ
evel op
S e
ìĦľ ìķ¼
êµŃ ë°©
Ġìĺ¤ íķĺìĿ´ìĺ¤
Ġë¹Ħ ìĺ¤
ĠíķĺëĤĺ ìĿ´ë©°
Ġì°¸ìĹ¬ íķĺìĹ¬
ĠìĿĢíĩ´ ë¥¼
ibr ary
Ġê·¸ ë£¨
Ġíķ´ ë¥¼
ĠìĹĦ ê²©
D D
Ġê³µ ìłĦ
Ġë¯¸ ëĵ¤
Ġê²ĥìľ¼ë¡ľ ìĦľ
Ġì¡°ìĦł ìĿ¸
ĠìĪľ íļĮ
F ran
Ġìĺ¤ íĶ¼
Ġìŀ¥ ì¹ĺë¥¼
ĠìĪ Ģ
ĠíļĮ íĻĶ
ìķł ë¯¸
ĠíŀĪ ë©Ķ
c a
¾ ¨
ë¯¸ ìĭľ
ëĭĪ íģ¬
ì§Ħ ì£¼
ĠM ay
Ġëį° ìĬ¤íģ¬
ìĺĪ ìĪĺ
ĠW ay
ad y
ĠëĤŃ ë§Į
Ġë§ ĺ
ìŀĲ ê¸Ī
Ġê¼Ń ì§ĵ
ëĮĢì±ħ ìľĦìĽĲíļĮ
ìĿ¸ ì¹Ń
ĠV al
Ġê±´ë¬¼ ë¡ľ
éĿ Ī
ĠìĻľ ëĥĲ
ĠìĮĵ ìķĦ
èĻ ķ
å¡ Ķ
U M
ëĤĺ ì½Ķ
il ity
ì¹ľ ìĻķ
ĠìļĶêµ¬ íĸĪëĭ¤
ĠìĤ¬ê³ł ë¥¼
ĠìĿ´ ì²ľ
Ġíı¬ íļį
Ġì¹¸ ìĿĺ
ìĪĺ íĺ¸
ê³Ħ ê¸ī
ĠìŀĲ ìĦł
ì¡° ë¦¬
Ġëĭ¹ ì£¼
Ġë£¨ ìĿ´ì§Ģ
ĠëĭĪì½ľ ëĿ¼ìĿ´
ĠìĨĮ ëĤĺë¬´
ìķ¼ ë¥¼
ĠM at
ĠH ol
ĠW ind
km ìĿĺ
H O
Ġê¸° ë¦¬ê¸°
ë§Ī ëĿ¼
Ġíķĺ ìĿ´ëĵľ
ĠëĲĺ ì§Ģë§Į
Ġë¯¼ ìĺģ
ĠìĦłë³´ ìĺĢëĭ¤
ìŀĦ ìĹĲëıĦ
íİĺ ìĺ¤ëĤĺ
Ġë¬¼ ìĸ´
ĠëĤľ ì§ķ
Ġë§Īë¥´ ì½Ķ
Ġê¸īìłľ ìŀĲ
ĠìĦł ë¡ľ
ê¹ Ĳ
Ġì¿ ¤
ĠìĥĪê²¨ ìł¸
ĠíħĶëłĪ ëħ¸ë²¨ëĿ¼
Ġë³´ ìĿ¸
Ġì£¼ ë¥¼
íĦ´ ìĿĺ
Ġë°ľë§¤ íķĺìĺĢëĭ¤
ĠAl bum
Ġê°Ģ ë¸Įë¦¬ìĹĺ
ìĦł íĺķ
ê»ĺ ìĦľ
ĠëĶĶ ì§Ģ
Ġíĸ¥ íķĺëĬĶ
Ġìĸ´ë¨¸ëĭĪ ê°Ģ
ľ ì°®
ĠìłĢ ëªħíķľ
ìĭľíĤ¤ ë©°
Ġì¤Ģìļ°ìĬ¹ ìĿĦ
c le
ĠìĤ¬ ëª¨
ì½Ķ ë¡ľëĤĺ
ĠìĦľìļ¸ ìĿĺ
ĠìĪľ ìĪĺíķľ
ĠCl ass
ict ion
Ġë¹¨ê°Ħ ìĥī
Ġë¹ĦìŀĶ íĭ°ìĽĢ
B E
ëĵľ ë¦¼
Ġìľł ìĹ°
ĠM or
ĠíĶĮ ëĿ¼ìĿ´
ĠëĦ£ ìĹĪëĭ¤
ç« ¹
Ġì°¨ ìĽĲìĹĲìĦľ
Ġê·¸ëŁ¬ ìŀĲ
b urg
Ġê²½ ìĭł
ĠìĿĺ ìĭĿìĿĦ
ĠìĦľ ëĮĢë¬¸
Ġíİ Į
Ġc ont
ĠìĿĺë¯¸ ìĿĺ
ĠìķĶ ìĭľ
ĠíķĻêµĲ ìĿĺ
Ġë¹ĦíĮĲ íĸĪëĭ¤
ĠíĶĦë¡ľìĦ¸ ìĦľ
Ġê°ķëĤ¨ êµ¬
Ġì±Įë¦° ì§Ģ
« ¼
Ġíķ´ ëĤ¨
ä¸ ģ
æĽ ²
æ Ĵ
19 05
ĠìĦ¤ íĥķ
Ġë¶ģ ìľĦ
R C
é Ĩ
íĬ¸ ë£¨
íĥľ êµŃìĿĺ
ë´ī ìĿĦ
ì ı
Ġ art
ìĿ´ ë©´ìĦľ
ìĤ¬ ë¡Ģ
Ġëı ĭ
ëª¨ ìħĺ
Ġíĳľ ë³¸
ĠêµĲìľ¡ ë¶Ģ
ĠíĻĺê²½ ìĿĦ
ĠíļįëĵĿ íķľ
ĠìĿ½ ëĬĶ
Ġëħ¸ë¥´ ìĽ¨ìĿ´ìĿĺ
ĠìŀĲë³¸ ì£¼ìĿĺ
ë¦¬ ëĵľ
Ġë³´ ëĵľ
ì²ľ êµ°ìĿĺ
Ġíĺ¸ íıīìĿĦ
ë¦¬ìĬ¤ íĥĢ
Ġëĭ´ ê²¨
ĠëĮĢìĭł íķĺìĹ¬
Ġë¨¹ ìĿ´ë¥¼
ĠìĨĮë¹Ħ ìŀĲ
ìķĦìĿ¼ëŀľëĵľ ê³Ħ
Ġìķ¼ì¿ł ë¥´íĬ¸
ĠìĻĢìĿ´ë²Ī ìĬ¤
ĠìĪĺ ìŀ¥
Ġì§Ģ ìĪĺ
ĠëĶĶ ìĺ¤
Ġìķħ ë§Ī
å¾ Ĺ
ĠìķĦë¬´ ëıĦ
i ous
Ġì§ ±
Ġìĺģ ìľł
ì¤ĳ ì£¼
ĠêµĲ ìĻ¸
ĠìĿ´íĽĦ ë¶ĢíĦ°
ìĨ ľ
Ġê°Ģ êµ¬
ë³´ ì»¬
Ġìĭł ìŀĲ
Ġìĭł ìĦł
on es
ëŀĮ íļĮ
Ġìĵ° ì§Ģ
Ġê°Ģì¡± ìĿĺ
åĵ ģ
íĨµíķ© ëĭ¹
Ġë¶ Ĳ
ìĤ ¿
ĠëıĻ ìª½ìĹĲ
Ġíĳľ ì§Ģ
Ġë¨¸ ìĭł
ĠìŀĲìľł íķľêµŃëĭ¹
êµĲìľ¡ ìĿĦ
ĠìĪĺ ìĪłìĿĦ
Ġì§ģ ìŀ¥
Ġì¤Ģ ë¹Ħë¥¼
ëĬĲ ëŁ¬
ĠìķĬìķĺëĭ¤ ê³ł
Ġìķķ ëĳĺ
Ġì¡°ê±´ ìĿ´
ëłĪ ìĬ¤ë¥¼
ĠíĻĶ ê°ķ
Ġê¸°ìĹħ ìĿ´ëĭ¤
Ġì¤ĳìĨĮ ê¸°ìĹħ
Ġë²Ī ìĭĿ
Ġë¸Į ë£©
ìĬ¤íħ Ĳ
Ġì½ĺ ìĨĶ
çµ ±
in es
Ġìµľ ìĺģ
ì¶ľ ëł¥
Ġìķ½ íĺ¼
ĠíķĺëĤĺ ìĺĢëĭ¤
ĠìĺģêµŃ ìĿĢ
Ġìŀĥ ìĹĪëĭ¤
ire ct
êµ° ìĪĺ
Ġëª¨ ë¦¬ìĬ¤
ĠêµĲ ëŁī
ĠíĶ¼ ë¡ľ
Ġì§ģ ë©´
Ġë²Ħ ëł¸ëĭ¤
ĠëĿ¼ìĿ´ë¸Į ëŁ¬ë¦¬
Ġê°Ģ ì¶ķ
ĠìŀĲ íĥĿ
Ġëª¨ íĭ°ë¸Į
it ch
íĿ¬ ê°Ģ
ëĦĲ íĭ°
íĦ´ ìĿĢ
Ġíŀĺ ìŀħ
Ġì¶ľíĮĲ ìĤ¬
ìĭľ ìĿ¸
ĠìĦłìĪĺ ëĬĶ
ì²Ń ì£¼
Ġìļ© ìĸ´ë¡ľ
ĠìºĲ ë¦¬
Ġv on
ĠíķĻìĥĿ ìĿ´
Ġê¼¬ ë§Ī
Ġëŀľ ëĵľ
ìĥģ ëıĦ
ì¸ł ê°Ģ
íģ ĺ
Ġì§Ģìłģ íĸĪëĭ¤
http s
ĠìĺĪìĤ° ê²°ìĤ°
ê ´
Ġëĭ¤ ìĿ´ìĬ¤ì¼Ģ
ëŁ¬ íĶ¼ìĸ¸
ĠìľłëĭĪ ë²ĦìĬ¤
Ġë»Ĺ ìĸ´
ìĺ¤ íĨł
Ġìĺ¤ ë¹Ħ
ëłĪìĿ´ íĬ¸
Ġë£ ¸
ĠìĥĿìĤ° íķĺëĬĶ
ìĻĶ ìľ¼ë©°
ener al
ìĿ¸ ëĶĶ
ìŀ¥ ìĤ¬
Ġìľł ëıĻ
Ġë°° ìĪĺ
Ġê±° ê¸°ìĦľ
Ġì´Ī ë¹Ļ
Ġëĭ´ ë°°
ĠìĤ¬ëŀĳ ìĹĲ
ĠìķĦ íģ¬
Ġê°ķ ëıĻ
Ġë°°ìļ° ìŀĲ
ĠL i
Ġìĵ° ìĿ´ê³ł
ĠìłĦêµŃ ëıĻìĭľ
Ġê¸īìłľ íķĺìĹ¬
o z
ĠìĿ´ íĥĢ
Ġìłķ ìĿ¸
ëĤľ ìĦ±
ĠëĤł ì¹´
Ġê²ĥ ìĿ¸ê°Ģ
ë°Ķ ìľĦ
íķ¨ ë§Ī
Ġíĺĳ ëıĻ
ĠëıĦì°© íķľ
P ar
Ġê°ľ ìļĶ
Ġë°ķ ê²½
ê»ĺ ëģ¼
Ġê·¹ ëıĻ
Ġê²°ìłķ ìłģìĿ¸
Ġì°¨ëŁī ìĿĦ
ä¼ ¯
ĠìķĦë²Ħ ì§Ģë¥¼
Ġë¬´ê¶ģ íĻĶ
A X
ìĿ´ ë¯¸
ìĸ´ ì§ĢëĬĶ
ĠìĿĺ ê³¼ëĮĢíķĻ
Ġëĭ¨ ìĽĲ
Ġë³Ħ ëĭ¤ë¥¸
å¯ Ł
ìłĿ íĬ¸
Ġìľłíĺķ ìĿĺ
ìķĦ ìļ°
ìķ¼ ë§Į
íı¬ ìĿ¸íĬ¸
ãĥ ī
Ġì·¨ íķŃ
Ġë¶Ģ ëĮĢë¥¼
Ġê³ł ìĿ¸
Ġêµ¬ ìĬ¤íĥĢ
ob al
ĠëĶĶìŀĲìĿ¸ ìĿĦ
ë¬´ ëĬĶ
ëª¨ ìĿĮ
Ġë¦¬ ëª¨ëį¸ë§ģ
ĠìĹĲ ë°ĺ
ĠìĥĿê°ģ íķł
Ã º
ĠìŀĲ ì²´ë¥¼
ĠìĨĮ ìħľ
ĠëĤĺ ê°ĢëĬĶ
ê¹Į ì§Ģë§Į
ê¹Ģ íķ´
ìĦ¬ ìĹĲ
Ġíĥľê·¸ íĮĢ
Ġë°ľ íĬ¸
Ġíĸ¥ ìĿĦ
Ġê²¬ íķ´
Ġì¾Į ìĨį
Ġìĭł ìłķ
Ġëħ¼ ë¬¸ìĿĦ
ĠëĮĢ ì¹ĺ
Ġì§ģ ìłĦìĹĲ
ë³Ģ íĺ¸ìĤ¬
íĶĦëłĪ ëĵľ
Ġìºłíİĺ ìĿ¸
Ġê¸° ìłģ
Ġë² µ
ëªħ ìĿ´ìĹĪëĭ¤
it er
Ġf l
ĠìłĦ ëĤł
19 07
ë¹Ħ ìĦľê´Ģ
Ġë¶Ī íıī
ĠíĽĦì¿ł ìĭľë§Ī
Ġì¤ĳ ìľĦ
Ġìĺ¤ ë¥¼
ìĽĮ ìĦľ
Ġì¿ł íį¼
ĠìĦ¤ëªħ íķľëĭ¤
Q u
ĠìĿ´ ìĤ°íĻĶ
ìłĦ ìļ©
ìĺ¤ íĶĪ
ëĤĺëĿ¼ ìĹĲ
ad em
ĠColle ge
ĠìłĦêµŃëıĻìĭľ ì§Ģë°©ìĦłê±°
ìĪĺ ìĨ¡
om b
Ġ0 6
ĠìĹĦ ê²©íķľ
Ġíĥ¤ ëŁ°íĬ¸
ĠìĹ° ìĥģ
Ġê´Ģ ëħĲ
ìĭ¬ ë¦¬
Ġë¶Ģë¶Ħ ìĿĺ
Ġëħ¸ë²¨ ìĥģ
èµ ·
ìĦ± ì§Ī
ìĸĳ íķ¨
Ġì§Ħ íķ´
ê´ĳ ìŀ¥
ë¶ģ êµ¬
ĠE C
åĬ Ľ
ĠìĬ¤ì½ĶíĭĢëŀľëĵľ ìĿĺ
Ġë¶Ħëªħ íŀĪ
Ġë Ńī
íķĺ ë¡ľ
ĠA G
ĠíĮ¨ ëŁ´
Ġìķ¨ë²Ķ ìĿ´ëĭ¤
íıŃ íĥĦ
ĠíĬ¹ì§ķ ìĿ´
ìĺĢ ìĿĦ
Ġíı¬ ë¥´ëħ¸
Ġë°ĺ íķ´
ëł¸ ìľ¼ëĤĺ
Ġë´ī ìĩĦ
ĠíĶĮëŀĺ ìĭľ
íķĺ ëĵľ
Ġê°Ģ ì£½
ë¥´ ì§Ģ
ìłľ íķĻ
ĠìĹĨ ìĸ´ì§Ħ
ç§ ĭ
Ġë¯¸ ëĶĶ
åĦ Ģ
ìĤ¬ ìłģ
ëıĻ ì´Īëĵ±íķĻêµĲ
ìĦ¸ ìĿ¸
ĠP aul
ĠSt ory
ĠìĿ´ëħ¸ ìļ°ìĹĲ
ë¶Ģ ìĥģ
ĠëĤĺ ìĺ¬
Ġ17 0
Ġë²łëĦ¤ ëĶķ
ĠìłĢìĪł ê°Ģ
Ġê³ł ì¿ł
Ġê¶Į ìŀ¥
Ġê°Ī ìķĦ
Ġêµ¬ìĹŃ ìĿ´ëĭ¤
ĠëĤ¸ ëĭ¤
ì£¼ ë¨¸ëĭĪ
Ġìľł ì¹´
ãĥ ¥
ĠíķŃ ìĨĮ
Ġì°¸ê°Ģ íķĺê³ł
æķ ¸
Ġìĩ Ħ
æ¬ ¡
O n
ëĿ¼ ë¦¬ê°ĢìĿĺ
ë§Ī ëĭĪ
TV ìĿĺ
ê°Ģì§Ģ ìĿĺ
éĿ ŀ
ograp h
åĬŁ èĩ£
f ile
ìķĦ ì¦Ī
ëįĶ ëĭĪ
Ġì²Ń ìĨ¡
ê° ĸ
Ġì§Ģ ì£¼
ê³Ħ ë¦¬
ëĥ Ħ
Ġê´Ģë¦¬ íķĺê³ł
ĠìĹ¬ ë°°ìļ°
ĠêµĲ ìĸĳ
Ġë§Į ìĿĺ
ĠëĤ´ ë¶ĢìĹĲ
ĠêµŃê°Ģ ëĬĶ
Ġì§ģìłĳ ìłģìľ¼ë¡ľ
ĠìĪŃ ë°°
Ġê¸° ìĬµ
íļĮ ì´ĪìĹĲ
ë¬¸ ìĦľ
ë§Į ëħĦ
Ġë§Ī ì¹´
ëĦ¤ íĬ¸
Ġì¤ĳìķĻ ìľĦìĽĲíļĮ
ĠìĹ¬ë¦Ħ ìĹĲ
Ġê²ª ìĹĪëĭ¤
ĠìłĦ ë¬´
Ġë°ľ ìĿĦ
Ġê¸°ë¡Ŀ íķĺë©´ìĦľ
Ġê°Ģì§Ģ ë©°
ĠíĤ¤ íĥĢ
Ġê°ĢëĤĺ ê°ĢìĻĢíĺĦ
ĠìĿ´ ëĪĦ
Ġìµľ ìķħìĿĺ
Ġíį¼ ìĬ¤íĬ¸
ĠíĢ´ ì¦Ī
ëłĪíĭ° ì½Ķ
Ù Ħ
å Ļ
ëĤĺ ìĿ´íĬ¸
Ġê±° ë¦¬ëĬĶ
ìĻķ ìłĦ
Ġì¤ĳêµŃ ìĿ¸
ĠìķĦëĭĪ ëĿ¼ê³ł
ĠìĿ´ìľł ë¥¼
ìļ´ ìĿĺ
ìħ ´
Ġë¬´ ìĦľ
Ġì¶ķ ì¶ľ
ĠìĨ¡ ìĭľ
ra w
Ġì°¨ëŁī ìĿĢ
Ġë°Ģìłĳ íķľ
ìĥģ íĽĪ
Ġê°Ģ ëĦ¤
Ġë³´ ëł¹
ĠêµŃ ë³´
ap e
ĠM il
ĠC S
ê°ķ ê³¼
Ġìľłì§Ģ íķĺëĬĶ
ĠìķĦìĭľ ì¹´ê°Ģ
íĶĦë¦¬ë¯¸ìĸ´ ë¦¬ê·¸ìĿĺ
ëĭ¹ íķĺìĺĢëĭ¤
Ġë°ľ ìĽĲ
ĠA re
Ġìĭ¤ ëł¥
ĠíĻ© íķ´ëıĦ
ë¦´ ëŀľëĵľ
ì½ľ ë¦¿
æ³ ¢
Ġìı ŁìķĦ
Ġë©Ķìĭľ ì§Ģë¥¼
íı¬ë¥´íĪ¬ê°Ī ìĿĺ
Ġë¬¸ ê²½
Ġì°¨ëŁī ìĿ´
Ġëĭ¬ìĦ± íķĺìĺĢëĭ¤
ëłĪ ë¥¼
ĠìĿ¸ íĺķ
ì¤ĳ ìĿĢ
ĠA ë§¤ì¹ĺ
Ġíĭ ¸
å° į
ëĭ¥ íĦ°
ì¹´ ìĵ°
Ġê²½ê¸° ëıĦìĿĺ
ĠìĤ¼ ê°ģíĺķ
ĠìłľìķĪ ìĿĦ
ìľ¼ ëł¤ê³ł
.. ..
ĠìŀĲìľł ì£¼ìĿĺ
ĠëıĦìŀħ ëĲĺìĹĪëĭ¤
ĠìĤ¬ëĿ¼ ì§Ħ
ëĮĢêµ¬ ê´ĳìĹŃìĭľ
Ġë°ĳ ìĹĲ
ĠìĿ´ëŀĺ ë¡ľ
r ac
êµ¬ ë¬´ìĬ¤ë©Ķ
ìłĦ ë¶ģ
íĺĦ ê³¼
Ġìŀ¥ ë©´ìĿĦ
Ġê°Ħ ìĤ¬ìĿ´
ĠíĶĮ ëŁ¬ìĬ¤
ĠëĦ£ ìĿĢ
ĠíĮĮìĿ¼ ëŁ¿
íİĺìĺ¤ëĤĺ íĪ¬
íĬ¸ ë¥¨
ëıĻ ë¬¸
ëłĪ ìĬ¤ìĿĺ
Ġê²° ë¡ł
Ġëĵľ ë¬¸
ìķł íĶĮ
op le
íĹĿê°Ģ ë¦¬ìĿĺ
íķĻ ìľĦ
ìĽĲ ìĪĺ
íģ¬ ë¦¼
ĠìĹŃ ìĦ¤
Ġì¡´ ìĨį
Ġë°Ģ ëŁ¬
ìļ°íģ¬ëĿ¼ìĿ´ ëĤĺ
ë¡ľ ëĿ¼
Ġì¶ķ ìłģ
ĠëĤľ ì¹´ìĿ´
Ġìĸ¸ìĸ´ ìĿĺ
Ġë¶ĪêµĲ ìĿĺ
ìļ°íģ¬ëĿ¼ìĿ´ ëĤĺìĿĺ
I X
ë¦¬ ì¹ĺ
ìĺ¤ ê¸°
ĠëĳĲ ìĸ´
ĠìĨ¡ ëıĦ
ĠíĳľíĺĦ ìĿĦ
ĠìłĦìŀĲ ê¸°
ë¶Ģ íĤ¤
ìĦĿ ìĤ¬
Ġëĸ¨ìĸ´ ì§ĢëĬĶ
ĠëĬĳ ëĮĢ
íĺ ¹ìĿĢ
íĦ° ë¡ľ
Ġì¤ĳ íķ©
Ġìľł ëł¹
Ġë§Ī ê°Ģ
Ġì¹´ ë¡¤
ëįĶ ë¸Ķ
Ġíķłë¦¬ ìļ°ëĵľ
( -
Ġìłķ ë©´
in ce
ëħ¸ ìĹĲ
Ġê²ĮìŀĦ ìĿ´
Ġì¤ĳìķĻ ëĮĢíķĻêµĲ
ê³¼íķĻ ëĮĢíķĻ
ĠìĬ¤ìĬ¤ë¡ľ ë¥¼
ĠìĿ¼ìĸ´ëĤĺ ìŀĲ
ìĭľ íĬ¸ì½¤
Ġê°Ģ ëıĻ
íĺĦ íĻ©
Ġê¶Į ì´Ŀ
ĠV ideo
Ġë¹Ī ê³¤
Ġë¶Ħëį°ìĬ¤ ë¦¬ê°Ģ
j a
íķľ íĻĶ
ìļ° íļĮ
ìĦł íĥĿ
Ġì£¼ ìĤ¬
ĠëĶĶ ìŀĲ
ĠíĪ¬ ìĺ¥
ëħĦ ëıĻìķĪ
Ġì§Ģ íĤ¤ëĬĶ
Ġíķĺ ë¶Ģ
ĠìĿĺ íļĮìĿĺ
00 00
ä» Ĭ
ĠCl ub
Ġìŀĳ ìľĦë¥¼
Ġê¹Ģ ìĹ°
Ġìĺ¨ íĥĢë¦¬ìĺ¤
Ġë¯¸ëŀĺ ìĿĺ
èĹ ı
êµ¬ìĦ± ìĽĲ
íħĮìĿ´ ëĦĪ
ìĥģìĹħ ê³łëĵ±íķĻêµĲ
Ġê°± ìĭł
ĠëĤĺ ë¹Ħ
ĠëıĦ ëĦĲëĵľ
íķ© ìĦ±
t vN
Ġìĭ £
Ġê°ľ íķŃ
Ġë¡ľ ê·¸
ï¼ į
Ġì»¨ ìħī
ìļ ĺ
Ġìĭ¤ ìłĦ
ĠìĿ´íĽĦ ë¡ľëĬĶ
ì§ĳ ìĹĲ
Ġë²Ħ ëĿ¼ìĿ´ìĸ´íĭ°
ìļķ ìĿĦ
Ġìĭľë®¬ ëłĪìĿ´ìħĺ
1 21
ĠìķĦ ëĤłë¡ľê·¸
ĠíĻ ī
ìĺ¤ íĤ¤
ĠìĹĲ ìĸ´ë¡ľ
ê°Ĳ ìĹĲ
Ġë¬¸ìłľ ìĿĺ
ĠíĶ¼íķ´ ê°Ģ
Ġìłľëª© ìĿĺ
ĠìĿ´ ë¸Į
Ġëĭ¨ ê¸°
Ġìłķë¶Ģ ë¡ľë¶ĢíĦ°
ĠëĤł ìĹĲ
Ġê±°ì£¼ íķĺê³ł
Ġë¸ĮëĿ¼ì§Ī ìĿ¸
ĠìŀĲ íģ¬
Ġìĺ¤ íĶ¼ìĬ¤
ĠíĻĺê²½ ìĹĲìĦľ
Ġíį¼íı¬ ë¨¼
Ġíķ´ ìĨĮ
ĠìĹĶ íĦ°
ĠìķĦëĤĺ íĤ¤
ĠíĹĿê°Ģ ë¦¬ìĿĺ
Ġê² ģ
Ġë¶Ģ ê°Ģ
íı¬ ëĭĪ
() "
åı į
ĠPr es
ìĿ´ì¦Ī ë¯¸
Ġíķĺ íĥĢ
Ġê¹Ģ ìĨĮ
or a
Ġëª© ìļĶìĿ¼
Ġíĺ¸ ìĿĺ
Ġìłķë³´ íĨµìĭł
Ġëį°ë·Ķ ë¥¼
att le
ìĸ´ëĸ ¤
ëĦ¤ ìĭľ
Ġì¶© ìłĦ
ë¸Ķ ëŀľëĵľ
ĠëĦĺ ë²Ħ
Ġì¢ĭìķĦ íķľëĭ¤
ĠSe ason
Ġì ©
Ġíķľ ìĿ¸
íİĺ ëįĶ
Ġì¦ī ê°ģ
ĠíĶĮëłĪìĿ´ ìĸ´ê°Ģ
ĠìĨĶ ë£¨ìħĺ
áĦ ĴáĨŀ
Ġr es
ĠëĮĢ ê±°
Ġìĭł íķĻêµĲ
Ġíķ´ íĥľ
ìĸĳ ìŀĲ
Ġëªħ ìĹĲ
Ġëĭ¨ ë§īê·¹
ë²Ī ìĹŃ
ê» į
ĠìĦ¬ ìĭĿ
Ġìĸĳ ê¶ģ
ĠìĤ¬ë§Ŀ ìŀĲ
Ġê¸°ê´Ģ ì°¨
ëĤĺê³ł ìķ¼
Ġê¹ĢìĿ¼ ìĦ±
ìĥĿ ìĿ´
Ġë°° ìĥģ
ìŀīê¸Ģëŀľëĵľ ìĹĲ
ĠíŀĪëį° ìļĶìĭľ
ĠìŀĪ ìľ¼ë©´ìĦľ
ĠI V
ĠëĮĢíķľë¯¼êµŃ ìĹĲ
ĠìĨĲ ìľ¼ë¡ľ
ë¨¼ ìĿĢ
Ġëħ¸ë¶Ģ ëĤĺê°Ģ
Ġìŀ¬ëĭ¨ ë²ķìĿ¸
èį ī
Ġì§Ģ ëħ
Ġíķĺ ìļ°
Ġì±Ħ ìĽĮ
ĠìĿ´ê³³ ìĿĢ
angu age
e el
Ġìĭľ ìŀ¥ìĹĲ
ìĭł ëıĦ
ìķ¡ ìħĺ
Ġì¶ľìĭľ íķľ
ĠìĦ¤ëªħ íķĺëĬĶ
ef ef
Ï ģ
ĠìĪĺ ë©´
Ġìłķ ì§Ħ
Ġì¡°ìĦł ìĿ¸ë¯¼
ĠíĶĦë¡ľê·¸ëŀ¨ ìĹĲ
Ġì¤Ħ ìĸ´
ĠìĽĢì§ģ ìŀĦìĿĦ
Ġê°Ģ ìŀĲ
ìłľ ìķ½
Ġë¬´ ìĸ´
Ġë°± ê³¼
Ġë®¤ ì§Ģìħĺ
ĠíĥĲ êµ¬
Ġê¸°ê°Ħ ìĿĦ
ĠíĶĦëŀĢ ì²´
Ġ3 50
íĴį ìĨį
æ· ĳ
ĠëĪ Į
A F
Ġê°Ĳëıħ ê³¼
ìĨĮë°© ìĦľ
ĠìĻľëĥĲ íķĺë©´
ìĦ± êµ°ìĿĺ
Ġì´Ŀ ëĮĢì£¼êµĲ
Ġë§ŀ ìĿĢ
Ġê¶ģ ìłĦ
enc y
Ġìłģíķ© íķľ
ìĿ´ìķ¼ ê¸°
ìĪĺìļķ ìŀ¥
ìķĦ ì¹¨
ãĢĭ .
ĠìłĪ ì°¨
ĠAn n
Ġì¦Ĳ ê²¨
C F
D E
Ġë°Ķ ëĤĺ
ê·¹ìŀ¥ íĮĲ
ĠëĬĲëĤĮ ìĿĦ
Ġê¸° ì¦Ŀ
ë£¨ ìĻĢ
ëĦ¤ ê°Ī
ìķ½ íķľ
Ġê°Ħ ìĦł
ë°± íĻĶìłĲ
ĠìĭľëĮĢ ë¶ĢíĦ°
Ġìłķ ìĿį
ĠìĦ± ìĦľ
Ġì§Ħ ì§Ģ
Ġì¹´ ë¦¬ë¸Į
ĠíĮĢ ìľ¼ë¡ľ
Ġë¶Ļ ìĿ¸
ĠìĬ¤íħĮ ìĿ´ìħĺ
ĠìĻĦë²½ íķľ
ç °
Ġìłķ ì¡°
ìĺģ ë¦¬
ê±° ìĬ¤
ì´Ī ë¡ľ
ĠN E
ĠìłĦì²´ ìĹĲ
Ġìļ°ëĿ¼ ëĬĦ
é ¼
Ġë©Ķ ì»¤ëĭĪì¦ĺ
ĠìĦľìĭĿ íķĺëĬĶ
Ġíģ¬ë¦¬ìĬ¤íĭ° ìķĪ
Ġê¸° ê°ģ
ë§Ī ëĭ¹
ìľł ìĹĶ
ĠìĿĺíļĮ ëĬĶ
ĠRes earch
ì²´ìľ¡ê´Ģê´ĳ ë¶Ģ
ĠìĪĺ ìĬµ
Ġë¹Ħ ìľł
Ġê´Ģ ë¦¬ë¥¼
Ġë°°ìļ° ìĿ´ìŀĲ
Ġë°ķ ì¤Ģ
ĠìĿ´ìľł ê°Ģ
ĠìĬ¬ íĶĶ
T O
ĠìĤ¬ ìĤ´
ĠìĿ¼ ë°©
ic o
Ġíģ´ ëĿ¼íģ¬
ĠëĮĢíĨµëł¹ ìĹĲ
ìķ¡ ìĿĢ
ĠíĶĦëŀĢ ì¸ł
N o
P art
e um
Ġë§Ī íķĺ
Ġìĥģ ê³µ
ĠíĺĦ ì¢ħ
Ġë°°ìļ° ë¡ľ
ĠíĮĢ ìĿ¸
ĠìĬ¹ê²© ëĲĺìĹĪëĭ¤
Ġíİ¼ ì³¤ëĭ¤
ëłĲ ëĿ¼
Ġíİĳ íģ¬
r ich
ar th
Ġíķ¨ ìľ¼ë¡ľìį¨
ìĹĲë¥´ íĨłë¦¬
ĠìĤ¬ìļ´ëĵľ íĬ¸ëŀĻ
Ġíļ¡ ëĭ¨
ê·¸ëħĢ ëĬĶ
ì¢ĭ ìĿĢ
ì¹´ ì¦Ī
ĠëıĻ ì°½
ĠìĨĮ ë¦¬ê°Ģ
Ġì¢ħ ìĿĢ
Ġm an
Ġê°Ģë²¼ ìļ´
ë¯ Ģ
íĬ¸ ëŀľ
Ġêµ¬ íķł
Ġì¢ħ ì¡±
ĊĊ ĠĊ
Ġê³µê²© ìĹĲ
Ġì£¼ìŀ¥ íķľ
Ġì¸¡ ìĿĺ
ĠìĤ¬ ìłķ
ìĤ° ìĹ¼
Ġê³ł ê¸°
Ġìłģ ê³ł
Ġíİĺ ëĦĲíĭ°
íļĮë§Ĳ ìĹĲ
ĠíĮĮ ìĿ¼ìĿĦ
Ġê³Ħ ëª½
ĠìĹĶ ìł¤
Ġëĭ´ ìŀĦ
Ġë°©ìĭĿ ìĿ´
Ġë§Ĳ ìĿĺ
Ġì°¸ ê³łë¡ľ
ë§¤ ìĿ¼
Ġ/ /
Ġê¸°ìĪł ìĿĢ
ìĦłìĪĺê¶Į ëĮĢíļĮ
S H
ìķł ë¥¼
ìĬ¤ íĥľíĶĦ
ĠìĿ´ ê±´
ìĥ ¬
ìĥ ¹
ì£¼ ìŀĲ
ĠíĥĢ ì¸ł
å® ĩ
ĠìŀĲìĹ° ìĬ¤ëŁ½ê²Į
Ġìĥī ìĿĦ
Ġê·ľëª¨ ëĬĶ
ëŀĢ ìĿĢ
ëĳĲ ë¦¬
id s
ê³ł êµĲ
ìĦ± ê³µ
Ġìĭľ ë°Ķ
Ġìĸ ½
ĠS im
Ġë³¸ ìĿ¸ìĿ´
is ch
ĠëĦ¤ íĬ¸ìĽĮ
ê¸°ê´Ģ ìĿĺ
Ġ188 4
ìĭľ ëĿ¼
Ġìĭľ ìŀ¥ìĿĦ
ë°ĺ ìĿ´
Ġì°½ ëħķ
æ ª
Ġëĵľ ëŀĺ
ĠìĦ¼ ê³łì¿ł
Ġì²´íı¬ ëĲĺìĸ´
ìĽĶ ê³¼
ìĻĢ ì¹´
êµ° ì£¼
ë¡ł ìĹĲìĦľ
å¾ ŀ
ĠìĽĶëĵľì»µ ìĹĲìĦľ
ĠíĻĺê²½ ìĹĲ
ìķĦíĶĦë¦¬ì¹´ ìĿĺ
ìķĦë¥´íĹ¨íĭ° ëĤĺ
ìĿ¼ ìľ¼
ëĵ± ê¸°
id d
Ġë³´íĺ¸ ë¥¼
éĸ Ķ
Ġíķľìĸĳ ëĮĢíķĻêµĲ
L ove
ìķĦ ëĭĪìķĦ
ëĶĶ ìĬ¤íģ¬
Ġì¶Ķ ì¡´
ĠìĨ¡ ìĭł
ĠíĥĲ ìĥī
Ġìłķìĭł ìĿĦ
ìĪĺ ëıĻ
ë§Į ìĹ¬
Ġë¯¸ ìĭľê°Ħ
ect ion
ĠëĮ ĵ
ĠìĹ ¿
Ġê³µ ê³¼ëĮĢíķĻêµĲ
ĠëıħìĿ¼ ìĿĢ
Ġì§Ħì¶ľ ìĿĦ
Ġê³ĦìĨį ëĲĺìĹĪëĭ¤
ĠìĪł ìĿĦ
Ġìĺ¤ìĤ¬ì¹´ ë¶Ģ
¾° ë¥¸
! )
ĠìĿ´ ë´ī
ëĤĺ ê°Ķëĭ¤
Ġë³´ ìłĦ
Ġì¡° ìĸ¸
ĠêµĲ ìĹŃ
Ġë¬´ ì¡°ê±´
íİĺ ìĸ´
ĠG reat
ĠìĿ´ë¦Ħ ìĿ¸
Ġìļ°ìĬ¹ íķľ
Ġë²ĦìłĦ ìĿ´
Ġë¹Ħ ìłĦ
íĴĪ ìĿĺ
ì§Ģë°© ëıĦ
Ġê°ľíĨµ ëĲĺìĹĪëĭ¤
ĠêµĲíļĮ ìĹĲ
ĠíĹ¬ ë¦¬
Ġë³ĢíĻĶ ìĹĲ
ëıĦ ì¿ł
19 11
ëłĪ ì¦Ī
ê³Ħ ìĬ¹
ë°© ìľ¼ë¡ľ
íĸĪ ìĬµëĭĪëĭ¤
ĠìĿ´ë£¨ìĸ´ ì§Ģê³ł
Ġë¹Ħíĸī ê¸°
Ġë¬¼ì§Ī ìĿĦ
pr ess
Ġë¬´ë¹Ħ ìĬ¤íĬ¸
ìŀĲ ëĵ¤ê³¼
ì£¼ ë³Ģ
Ġê·¸ ë¦ĩ
Ġìľł ëĿ¼
Ġì¡° ìĦ¸
ì°¨ ìĿ´ëĤĺ
Ġìļ©ìĿ¸ ìĭľ
ìĤ¼êµŃ ì§Ģ
19 06
Ġì§Ħ ìĪĺ
Ġì¢ħ ì°©
Ġìļ°ìĬ¹ íķĺìĺĢëĭ¤
æĥ ħ
ĠìĦ¸ ì¡°
íĨł ì¿ł
ì½Ķ ìĸ´
Ġì¢Į ìĦĿ
ĠëĬĲ ê¼
ìĿ´ ì¼Ģ
ĠìĬ¤ íħĶ
ĠìĻĦ íĻĶ
Ġëıħë¦½ ëĲľ
ê°Ĵ ìĿĦ
Ġê´Ģê³µ ìĦľ
19 04
Ġì£¼ ì°¨
ë³´ ëĭĪ
ĠíķľêµŃ ìĹĲìĦľëĬĶ
Ġëĭ¤ìĸĳ íķĺëĭ¤
ë©´ ìłģ
ë°° ì¹ĺ
Ġë¬¼ ìĿĺ
ĠìŀĳìĦ± ëĲľ
ìĬ¤ íĬľ
ĠìĦ± ìŀ¥ìĿĦ
íı¬ ì¼ĵëª¬
ĠM ic
Ġíĺĳëł¥ íĶĦë¡ľëĵĢìĦľ
ĠíĶĮëĿ¼ìĬ¤ íĭ±
Ġìĭľ ëª¬
Ġìľł íĿ¬
Ġê³ł ì²´
ĠêµĲ ë¦¬
ë¦¼ ìĿ´
Ġê²½ê¸° ìĹĲìĦľëĬĶ
Ġëĵ¤ìĸ´ ê°Ī
æĪ ¦
æ± ł
ëĪ Į
ìłľ ì²ł
åį Ģ
Ġê¸°ê´Ģ ì´Ŀ
Ġíıīê·ł ìŀĲì±ħ
åĭ Ļ
Ġ am
Ġëĭ ¦
iv es
ĠìĺģêµŃ ìĿ¸
ĠíĴį ìŀĲ
ë¡ľë°Ķ íĤ¤ìķĦìĿĺ
o i
ë²Ī ì£¼
íıī ë©´
and er
Ġë§ĪìĿĮ ìĿĺ
ĠëĵĢ ìĺ¤
ver y
Ġë£© ìħĪë¶Ģë¥´íģ¬
ìłĦ ëł¥
Ġìĥģ ë¥ĺ
ĠìĺģíĻĶ ê°Ĳëıħ
ë©Ķ ìĿ´íĬ¸
ĠA D
ĠíĻ© ì¡±
Ġìķ¨ë²Ķ ìĿĺ
íķĺ ê²Ĳ
Ġê³ł ìĬ¤íĬ¸
ëĤ¨ ë¶ģ
íķŃ ìĿĺ
ĠìºĲ ìĦľë¦°
íĴį ìĿĦ
ĠëĮĢ íķ©
ĠìĪĺ ëł¨
Ġë¹ĦëĤľ ìĿĦ
ĠìŀĲ ì¹Ń
Ġëĵ¤ ëł¤
Ġë°©ìĭĿ ìĿ´ëĭ¤
ĠíĨµíķ© íķĺìĹ¬
r ad
ĠìĦł ìĤ¬
ë°Ķ íĢ´
ë°ľ ìĿ´
Ġì¶ľìłĦ íķľ
ç¢ ĳ
ĠìķĦ ëĭ¤
ëĤ¨ ëıĻ
Ġêµ¬ê°Ħ ìĿĺ
ä¹ ħ
ĠìļĶì²Ń ìĿĦ
AT A
ìĤ¬ìļ° ë£¨
ĠíĻķìĭ¤ íŀĪ
ìĿĺ ìĭĿ
íĨł íĶĦ
ĠE U
ĠìĹħ ê·¸ëłĪìĿ´ëĵľ
ĠìłĢìŀĳ ê¶Į
ĠìĹĲ íĭ°ìĺ¤íĶ¼ìķĦ
Ġìĭľê°Ħ ëĮĢ
Ġin t
Ġëįĺ ìł¸
ĠìĻ¼ ìĨĲ
ĠëĭĮ ìŀĲ
å¦ ĥ
ìĹ¬ ëŁ¬
ĠìĿ¼ ì»¬
ë¹Ħ ë°Ģ
Ġë¯¸ ìħ¸
Ġìĸĳ ìĭĿìĿĦ
ĠëıĦìĭľ ê°Ģ
ĠëıĦìŀħ ëĲľ
åĴ ¸
ìķĦ íĭĢ
ĠìĥĿ ìĭĿ
ĠìĤ¬ê±´ ìĿ´ëĭ¤
ĠëĶ¸ ìĿ¸
Ġì°¾ìķĦ ë³¼
Ġë²łíĬ¸ëĤ¨ ìĿĺ
Ġê¸° ìĤ¬ë¥¼
ì½Ķ ëĦĪ
) âĢĿ
ìĥģ ìĨĮ
Ġìľł ë¯¸
Ġì§Ģë°© ìĿĦ
ì£¼ ì§Ģ
Ġê³µ ë¡ľë¡ľ
Ġ10 2
at ab
ê°Ī ìĥī
ëĭ¤ ìĸĳ
ĠìĿ¼ë³¸ ê³¼
ìĭ¬ ìĹĲìĦľ
ĠìĻĢ ì¤ĳìĹĲ
Ġìĸ¼ ìĿĮ
ë¯¸ìĤ¬ ìĿ¼
ëĿ¼ íĭ´
ìłķ ë¹Ħ
Ġê³ł ì³Ĳ
Ġê´ĳ ëĳ¥
Ġëĸł ìĺ¬
ĠìĿ´ëŀĢ ìĿĺ
ĠëĤĺíı´ ë¦¬
ë¡ľëıĻ ëĭ¹
Ġ it
Ġìĭľ ê¸°ë¥¼
ë¹Ħ ìķĪ
Ġìĭł íĥģ
ìĸĳ êµ¬
Ġíı¬ ëŁ¼
Ġì¹´ ìĤ¬
18 95
ĠìķĦìĿ´ ì¹ĺíĺĦ
Ġì§Ģ ìľĦ
Ġë¯¸ ì¹ľ
Ġê°ķ ê³¼
íĥľ ìļ°
ĠF ootball
íĶĮ ë¦¬
Ġíģ´ ëĿ¼ìĿ´ìĸ¸
ê³ł ìłĦ
ì§Ģ ê¸ĪìĿĺ
Ġë¶Ģë¶Ħ ìľ¼ë¡ľ
Ġê²°ìłķ íķľëĭ¤
Ġìĥģíĥľ ìĿĺ
ëĬĶ ê°Ģ
Ġìĥģ ìĦ¸
ë°ĺ ìĿĢ
ĠìĹĲ ì½°
Ġì¢ħ ìĨį
Ġë£¨ ì¹´
ìľ¼ë¡ľë¶ĢíĦ° ìĿĺ
Ġë¨¹ ìĿĦ
Ġê·¸ë¦¬ìĬ¤ ëıĦìĿĺ
Ġìĭ¤íĮ¨ ë¡ľ
ĠìĹĶì§Ħ ìĿĢ
ĠíĴĪ ê³ł
ê°Ķ ìľ¼ë©°
Ġíŀĺìŀħ ìĸ´
Ġìĸ´ ê¸ĭ
ĠíĮĲ ë¡Ģ
ĠìĿĢ ë©Ķëĭ¬
ĠìĬ¤íĬľëĶĶìĺ¤ ìĹĲìĦľ
Ġê·ł íĺķ
ĠìĦ± ë¶Ħ
Ġíķ´ ë³ĳëĮĢ
âĸ ł
h Pa
ĠìĿ´ ë°ĶëĿ¼íĤ¤
Ġê¸° ë²ķ
ĠìŀĲ ìĺ¤
Ġë¬¸ ê³¼ìĹĲ
Ġë§¤ ì¹ĺ
ĠìĹħ ìłģìĿĦ
Ġì§Ģíľĺ ìŀĲ
ĠìĿ´ ì²ĺëŁ¼
Ġì§Ģ ì¿ł
Ġìłķ íķ´ì§Ħ
íĮĮ íĤ¤ìĬ¤íĥĦ
Ġëª© ìĿĦ
le v
Ġë²Ħ íģ´ë¦¬
ìĭľê°Ħ ìĿ´
ê³łëĵ± ë³´íĨµíķĻêµĲ
ĠEn c
ëģĦ ëŁ¬ìļ´
Ġë¯¸ ìĹĲ
ĠëĤĺ ìĿ¸
Ġíķ´ ë¦¬ìĬ¤
ì¢ħ ê³¼
Ġë¶ģ ë¶ĢìĿĺ
ì¦Ŀ ìĿĺ
Ġë³Ħ ëªħìĿĦ
ĠìĦĿ íĥĳ
ìļ°ìĬ¤ ê°Ģ
Ġìŀ¡ ìĿĢ
âĪ Ĵ
â ħ
ëĵ± ìľ¼ë¡ľ
Ġìĸĳ ìĿ´
ĠíĻĶ ìĪľ
ĠíĪ¬ ëªħ
Ġìĭ¶ ëĭ¤
ĠìķĦìĿ´ìĬ¬ ëŀĢëĵľ
ĠìĬ¤ íı¬
íĸī ìľĦë¥¼
Ġì²ľ ëıĦ
Ġìĭľì¦Į ìĿ´
ĠíıŃ íĸī
ĠëĪĦ ìĿ´
ĠëĿ¼íĬ¸ ë¹ĦìķĦ
ĠìĹ¬ ìļ´
ê°ľ ìĨĮ
ëį° ë·Ķ
ĠN T
Ġë¬¼ ê±´ìĿĦ
ìĤ° ë¡ľ
ĠB L
Ġì¢ħ ìľ¼ë¡ľ
íĭĢ ë¦¬
æŀ ľ
æ¯ į
Ġ }
íķĺ ë¥´
ĠëĮĢ ê°Ģ
ĠìķĦ ëŀ«
ë§Į ê³¼
ĠëĤĺ ë¯¸
Ġê°Ĳ ë¦¬
ë²Ī ìĿ´
ĠW eb
Ġì°¨ëŁī ìĿĺ
ĠìŀĲê²© ìľ¼ë¡ľ
Ġìº¡ íĭ´
ìĬ¤ì½ĺ ìĭł
ê°ķ ìĿ´
Ġíģ´ ëĿ¼ìĿ´
ĠëĳĲê°ľ ê³¨
ìĿ´ íķľ
ìĬ¤ ë¯¸
ĠìĹ° ê¸°ë¥¼
ëĭ¹ íķ´
ê°ľ ìĻĢ
ĠìĽĲ ì¡°
ì§ĳ ìĿ´
Ġì²ĺìĿĮ ë¶ĢíĦ°
ìĤ¬ ìļ´ëĵľ
Ġìļ© ëıĦë¡ľ
ĠìłľêµŃ ìĿĦ
ĠìłľìķĪ íĸĪëĭ¤
íĬ ¬
Ġëĭ¹ ëĮĢ
Ġíķ¨ ëĮĢ
ĠíĶ¼ íķĺê¸°
Ġìĭľìŀĳ íķĺìĺĢê³ł
ĠëĦ¤ íĮĶ
åł ±
Ġë¹Ħ íıī
ĠìĨį ëıĦëĬĶ
ent s
ĠìļĶêµ¬ ë¥¼
ĠìĿ¼ìľ¼ íĤ¬
åħ¬ æ´¾
ĠëĲĺëıĮ ìķĦ
ĠìĿ´ íķľ
ìķĦ ëĭĪ
ĠìłĦ ì§Ģ
ìĸĳ ìĿĢ
ĠìĿĮ ìĽĲ
Ġíĥľ íıī
Ġì²Ń ìĨĮ
Ġì¤ĳêµŃ ìĹĲ
Ġìļ´ëıĻ ìĿĢ
æĪ ¿
Ġë§ĪëĿ¼ íĨ¤
Ġê±°ëĬĲ ë¦¬ê³ł
P r
ë§Ī ë¦¬ìķĦ
ĠìĨ ľ
Ġìĺģ ìĿĺìłķ
Ġì¤ĳ ìŀ¬
Ġì£¼ ê°Ģ
Ġê°Ģë¦¬ íĤ¤
ĠëĿł ê³ł
ë¶Ģ ìłķ
ëĤĺ ê°ĢëĬĶ
ì²´ íĹĺ
ë¬¼ ìĿ´ëĭ¤
ë°ľ íĬ¸
15 0
ĠëĮĢíļĮ ìĹĲìĦľëĬĶ
Ġì¼Ģ ìĿ´íĬ¸
ĠìłĦëĿ¼ ëıĦ
ĠëĴ· ë°Ľì¹¨
Ġìĭł ì£¼ì¿ł
ìŀĦ ìĿĢ
ĠíķĻ ìŀĲëĵ¤ìĿĢ
ë¹Į ë¦¬
ĠíĮĮëĿ¼ ê³¼
g o
Ġê°Ģ ì¿ł
19 13
Ġìĭł ì¤ĳ
ê±° ëĬĶ
Ġì²ł íļĮ
ĠìķĦìĿ´ ìĸ¸
M E
ĠìĦľ ê·Ģ
ê´ĳ ë³µ
Ġì¡´ìŀ¬ ê°Ģ
os p
Ġì²´ìľ¡ ê´Ģ
m as
Ï Ħ
ë© §
íķ´ ì£¼ëĬĶ
Ġì¹´ ëĦ¤
Ġê³¼ ìĿ¼
Ġê±¸ ë¦°
Ġëĭ´ ìķĦ
Ġê¸Ģ ìŀĲ
Ġë¬¸ ê³ł
ĠM em
ëķĮ ë¬¸ìĹĲ
īê¸Ģ ë¦¬ìĭľ
u z
ĠìĿ¼ ìĿ´ëĭ¤
ĠìĬ¤ íħ
Ġê°Īëĵ± ìĿĦ
ë¦¬ ëĿ¼
ëĤĺ ëıĦ
ĠìĦł ìĽĲ
Ġë¶Ģ ìľłíķľ
ĠM ark
ĠC G
Ġì°¨ ì¢ħ
ìĺĪ ìĤ°
Ġì¤ĳêµŃ ê³¼
Ġê°ľë°ľ ìĿ´
Ġë²łìĿ´ ë¹Ħ
Ġìĸ´ëł¤ ìĽĮ
ìĦ¸ ìĿ¸íĬ¸
ë³ĳ ìĹĲ
Ġì»¤ ëĦĲ
ĠëłĪìĿ´ ëįĶ
Ġ188 5
æī ĭ
íĶĦëŀĳìĬ¤ ìĸ´
Ġìłģê·¹ ìłģìĿ¸
ĠìĿ¼ì»« ëĬĶëĭ¤
ĠAssoci ation
Ġëª «
Ġì¡° ë¦½
Ġëĭ¹ ìĭł
Ġì¹´ ëĵľë¥¼
ĠìĻ¸ ëŀĺ
Ġê²°ìłķ íķĺëĬĶ
ĠìłĦíĨµ ìĿĦ
ëĮĢ ì¡°
ĠëĮĢ ë¶Ģ
íĦ° ìĻĢ
ëłĪ ëĭĪ
Ġì£¼ ëĭĪì¹ĺ
íı¬ ëıĦ
Ġê°ķ ì²ł
Ġì§ĢìĹŃ êµ¬
ĠìĪĺëıĦ ìĿ¸
ë³¸ë¶Ģ ìŀ¥
Ġì´ī ë§¤
ëļ ±
ìĬ¤íħĮë¥´ ëĭ´
Ġìµľ ìŀ¬
ĠB el
Ġê·ľ ìłķìĹĲ
ĠìĿ¸ìłķ íķĺê³ł
. ãĢİ
Ã ´
ëĭ¤ ë§Į
ë¶ ĵ
åĮ º
ìĿ´íĥĪë¦¬ìķĦ ê³Ħ
Ġì½ĺìĬ¤íĥĦíĭ°ëħ¸ íı´ë¦¬ìĬ¤
Ġëĭ¨ ìŀ¥
ĠF ri
ì¿ł ë°Ķ
Ġì´Ŀ ë¦¬ê°Ģ
ë¦¬ìĹĲ ìĿ´
ëĵ¤ê³¼ ëĬĶ
Ġìĥģíĥľ ìĺĢëĭ¤
arch ive
ëªħ ëĭ¹
ĠD F
Ġëĳ Ķëĭ¤
Ġb l
Ġíĩ´ ìĹŃ
Ð° Ð½
ìĭľ ë¸Į
ĠëĮĢ ìĽħ
íĺ¸ ë¦¬
Ġìĸĳ êµŃ
Ġíĥľ ë°±
ë¬ĺ íķľ
ê°Ģ ì¹ĺ
Ġì§ ĻìĿĢ
Ġìĥģ íĬ¸íİĺíħĮë¥´ë¶Ģë¥´íģ¬
Ġê±° ìłľ
ĠëĶ° ìĺ¨
ãĤ Ħ
Ġì²´ íģ¬
ìĸ´ ì´Į
Ġë³´ íķľëĭ¤
Ġë¶Ģ ìĭľ
ìĺģ ê³¼
ì¸µ ìľ¼ë¡ľ
ens e
Ġë¶ĪëŁ¬ ìĿ¼ìľ¼
å§ ĭ
ĠRem ix
â Ķ
ë¡ľ ë²ĦíĬ¸
ĠìĹ ®
Ġì¡° ìĿ¸
Ġ18 71
ĠE nd
ì»¤ ìĿĺ
ĠìĦłê±° ëĬĶ
ĠìķĦë¦Ħ ëĭµ
ìĪĺ ìĿ¸
ìĹ° ìĿĢ
in us
Ġìŀ¥ êµ°ìĿĺ
ĠìĤ¬ìļ© ëĲĺë©°
ĠìĿĺë¯¸ ìĹĲìĦľ
Ġë¶ģìª½ ìĿĺ
ĠìĥĮ ëĵľ
ç ±
ĠO x
Ġëıħë¦½ ìłģìĿ¸
Ġê²½ì°° ìĹĲ
ĠìķĦ ìĤ°
ëıĻ ë°©
ĠS N
ëħ¸ ê°Ģ
Ġê¸°ë¡Ŀ íķĺëĬĶ
Ġìķ °
ĠìĿ´ ëĮĢ
ĠS k
Ġìļ¸ íĶĦ
Ġë°°ì¹ĺ ëĲĺìĸ´
èĥ ½
Ġê°Ģ ìĺ¤
Ġê°Ģ ëŁī
ê·¸ ëŁ°
ĠëĤ¨ ìŀĳ
Ġê¹Ģ êµ¬
Ġíĸī ìĤ¬ë¥¼
ĠëĶ¸ ë¡ľ
ĠìķĦì¹´ëį°ë¯¸ ìĥģ
ĠIs land
ë° ¸
Ġë¶Ī ë¦¬ê³ł
ìĨĮíĶĦíĬ¸ ìĽ¨ìĸ´
f ont
ìłķ ê´Ģ
ĠìķĦ ë¦¬ìķĦ
un t
ĠìĦłìłķ íķľ
ìĤ¬ìĹħ ìĿĦ
Ġíı¬ìĬ¤íĬ¸ ìĭľì¦Į
ĠìµľìĹ° ìĨĮ
m on
ëĤĺ ë¡ľ
Ġìłľ ëıĦê°Ģ
ĠìĿ¼ ë¦¬ëħ¸ìĿ´
Ġêµ¬ ë¦ī
ë§ī ìĿĦ
Ġì¤Ħ ë¦¬ìķĦ
ì ŁĪ
ĠìĿ´ ìĻĦ
ìĤ¬ ëĭ¤
ĠìķĦ ìľł
Ġì£¼ ìĸ´ì§Ħëĭ¤
ĠS D
Ġìļ° ë¥´
ĠìĹ°êµ¬ ìĽĲ
ĠíĮĢ ìĹĲìĦľ
Ġë¹Ħë¡ľ ìĨĮ
ìĤ¬ ëıĦ
ĠM ov
ë§ģ ìĿĦ
ĠìŀĲìľł ë¡ľìļ´
Ġíĺķíĥľ ìĿ´ëĭ¤
ì²Ļ ìĿĺ
Ġë§ĪìĿĦ ìĹĲ
ide a
- )
ĠìĿ´ ë£¬
ìĭł ëĿ¼ìĿĺ
Ġì½ĺ ìĦľ
Ġì¡°ë¬¸ ìĿ´ëĭ¤
ìĦ¸ ìĨĲ
ĠíĶĦ ëłĪìĿ´
Ġë°° ëĭ¬
Ġë³¸ ìĤ¬ëĬĶ
ì¶©ì²Ń ë¶ģëıĦìĿĺ
! (
ĠëĤ¨ ê¸°ê³ł
Ġë°ĺ ê²½
íĶĮ ëĿ¼ìĿ´
Ġìĥī ì±Ħ
ĠêµŃëĤ´ ìĻ¸
Ġíĺľ íĥĿ
Ġë¶Īê°ĢëĬ¥ íķĺëĭ¤
ìŀ¥ìķł ìĿ¸
ìŀ¬ ìłķ
ag ue
ìĦłìĥĿ ëĭĺ
m ìĹĲ
Ð ³
ê³ł ìĻĢ
Ġë¶Ģ ëĮĢëĬĶ
Ġ18 80
Ġì¢ħ ìĿ´ëĭ¤
le g
ĠìĤ´ ìķĺëįĺ
Ġd el
Ġë³Ħ ìŀĲë¦¬
ì¤ĳíĻĶ ë¯¼
áĨŀáĨ ¯
íĨ¨ëłĪ ë§ĪìĿ´
N e
W e
ë²Ħ ìłĦ
ìłĢ ìĶ¨
Ġt rans
Ġì¶ľìĭł ìĿ¸
Ġì¹ĺ ìķĪ
ëłĮ ìĬ¤
ĠìĨ¡ ì¶ľ
ĠìĬ¤íĶ¼ëĵľ ìĬ¤ì¼ĢìĿ´íĮħ
Ġê·¸ ì³¤ëĭ¤
ĠëĳĲ ëĬĶ
ĠíĹĪ ëĵľ
ëĵ¤ìĹĲê²Į ëĬĶ
Ġë¶Īë¦¬ ê²Į
ĠìĬ¬ë¡ľ ë²łëĭĪìķĦ
u ff
ĠìĻķ ìĿĢ
18 96
ĠíħĮ ëĿ¼
Ġs ite
ĠìķĦëŀĺ ìĹĲìĦľ
Ġìŀ¥ê´Ģ ìĿĦ
éĦ ķ
ìĸ´ ëĬĲ
ĠëĮĢ ëıĦìĭľ
Ġìĭľ ìľĦë¥¼
Ġìłģ íĺĢ
Ġì£¼ìŀ¥ ìĿĢ
Ġìłķë³´ ê°Ģ
ìĬ¤íĤ¤ ëĬĶ
ĠëĭĪê°ĢíĥĢ íĺĦ
Ġ `
íĭ° ìĸ´
Ġìĸĳ íĺ¸
Ġê·Ģ ì¤ĳíķľ
Ġë°´ëĵľ ìĿ´ëĭ¤
Ġì§Ģêµ¬ ìĹĲìĦľ
áĨ ¡
Ġìµľê·¼ ìĿĺ
éĹ ľ
ĠíĨµíĭĢ ìĸ´
P R
r d
ĠìĪĺ ì¶ķ
íĥĢ ê³ł
Ġíĺķ ìĥģ
Ġìķ¼ ìĻ¸
ĠìĦ¤ì¹ĺ íķľ
ëĸ ¡
ĠìĨĮìĨį ìĿ´
s ize
ìĽĮ ìĬ¤
ed er
ëĪĦ ìĬ¤ëĬĶ
ĠìĦ¤ì¹ĺ ë¥ĺìĿĺ
ì¡°ìĦłë¯¼ì£¼ì£¼ìĿĺ ìĿ¸ë¯¼ê³µíĻĶêµŃ
amb ridge
ë§ ĺ
íĮ ľ
íĺĦ ì§Ģ
Ġë¬¸ ìĦľë¥¼
ĠìĤ¬ëŀĳ ê³¼
u f
íĺ¸ ë¥´
Ġëª¨ ìŀĲ
Ġì§ģ íĨµ
Ġì£½ ìĿ´
ê¶ģ ìĿĺ
Ġìĸ¸ê¸ī íĸĪëĭ¤
ĠìĿ´ìĬ¤ëĿ¼ìĹĺ ìĿĺ
ĠìĦ±ëĬ¥ ìĿĦ
ëħ¸ë¥´ ìĽ¨ìĿ´ìĿĺ
. :
ê³ ¶
ìĤ¬ ë²Ķ
Ġê¸° ìģ¨
ĠU SS
Ġëĭ¤ëħ Ķëĭ¤
Ġê²ĥ ìĿ¸ëį°
Ġp er
Ġì£¼ë¯¼ ëĵ¤ìĿ´
Ġê°Ģìł¸ ìĻĶëĭ¤
Ġì£¼íĮĮ ìĪĺ
ë ¤
Ġê³ł íĨµìĿĦ
ĠìķĬ ìľ¼ëĤĺ
ĠF irst
ê¸Ī ìĨį
ĠíļĮ ìĪĺ
ĠíĻ© ìłľë¡ľ
Ġë¬¼ì§Ī ìĿĺ
ã Ĥ¬
ìĽĶ ê°Ħ
íĺ¸ ë§Ī
Ġê°ģ ìŀĲ
Ġíĭ° ì¼ĵ
Ġëª©ìĨĮ ë¦¬ë¥¼
ìł ĬìĿĢ
Ġìĺ ³
Ġìłľ ë¦¬
ë¯¼ ìłķ
Ġê³ł ìķĦ
Ġë¹Ħ ì£¼ìĸ¼
ĠS ound
ëª¨ ëĭĿ
ĠìĽĲ ìĿ¸ìĿĢ
ĠíĽĦì§ĢìĻĢ ëĿ¼ëħ¸
Ġì² ¸
ìļĶ ë¥´
Ġìļ° íĺ¸
Ġë¦¬ ì¡°
Ġìĸ´ ë¢°
Ġë¯¸êµŃ ìĹĲìĦľëĬĶ
íģ´ ëłĪìĺ¤
Ġê·¸ë£¹ ìĿĢ
ì½ľ ë¡¬
Ġì¹ľêµ¬ ëĵ¤
Ġíĩ´ ìłģ
ê´Ģê³Ħ ê°Ģ
çķ °
ìľł ìĺĪ
Ġìŀ¥ ë©´ìĿ´
ĠE m
Ġë²ķ ê³¼ëĮĢíķĻ
1 000
Ġì¤ĳ ìĤ°
ĠìĤ° ìļĶ
ĠìĦ±ìļ° ì§Ħ
Ġê·ľëª¨ ë¡ľ
Ġìķī ìķĦ
íİĺëįĶ ëłĪìĿ´ìħĺ
ĠìķĦ ì¹´ìĿ´
Ġê°Ģ ëĵľ
Ġì§Ħ êµ°
Ġìĺ¬ ëĵľ
ĠíĶ¼ ìĿĺ
ĠíķĻ ëªħ
Ġì±ħ ìĿĺ
Ġë¥ĺ íģĲ
Ġë¶Ģ ìŀĳìļ©
ëĦ¤ ë¥´
ì§Ī ìĿĢ
ĠëĮĢíķľ íķŃê³µ
Ġì´Ŀ ì¹Ń
ãĤ Ģ
ìĬ¤ì¹´ ìķ¼
ĠìĹ¬ê¸° ìĹĲìĦľ
ĠëĬĺ ìĸ´ëĤĺ
ëĭ¤ ëĵľ
ìĬ¤íĬ¸ ìĿĺ
ëĳĲ ìĿĺ
ì¸ł ë¥¼
Ġíĺ¸ íģ¬
ãĥ Ĳ
ĠG DP
ëħĢ ë¥¼
íļĮìĿĺ ìĹĲìĦľ
Ġì½ľ ë¦°
ë» Ĳ
< /
ëĤĺ ì¹ĺ
ëłĪ ê°Ģ
Ġê³µ ê°Ĳ
ìĤ´ ìĿĺ
ìª½ ìĿĢ
Ġíĺ¼ ëĭ¤
ìľĮ ë¦¬ìĹĦ
Ġìłľ ìĻķ
Ġë°ľ ìĸ¸ìĿĦ
âĢ ķ
ĠC at
Ġê°ĢìĪĺ ë¡ľ
op hy
íķĺìŀĲ ë©´
Ġê±´ìĦ¤ ëĲĺìĹĪëĭ¤
ĠëĤĺë¨¸ ì§ĢëĬĶ
éĲ µ
Ġì°¨ ìĿ´ëĬĶ
Ġê°Ī ë¦´
Ġíľ´ ìĭĿ
Ġë¸ĶëŀĻ íĻĢ
æģ ©
ê¶Ĳ ìĦłê±°
ĠA BC
ĠíļĮ ë¡ľ
Ġt e
ĠíŀĪ ì¹´
ĠìºĲ ìĬ¤íĦ°
ĠìĤ¬íļĮ ìĹĲìĦľ
Ġë³´ìľł íķľ
Ġë» Ķ
ë°©íĸ¥ ìľ¼ë¡ľ
ĠëĤ ļ
Ġê·¸ ëĭ¤ì§Ģ
Ġë°ľ ëĿ¼
Ġë§Į ìĦ¸
Ġê¸°ë¡Ŀ íķ´
ĠíĻĺ ìĺģ
Ġë¯¼ì¡± ì£¼ìĿĺ
Ġê¹¨ ëģĹ
Ġê°Ħëĭ¨ íŀĪ
Ġìłľìŀĳ ìĿĦ
ĠìĻľ ê³¡
ì¡°ì°¸ íĮĲ
y a
ĠìĨĮ íĶ¼ìķĦ
ĠëıĦ ëĿ¼ìĹĲëª½
íķŃ ìĹĲ
ãĥ Ĭ
Ġìĭľ ë²łë¦¬ìķĦ
ĠìĪĺ ìļĶìĿ¼
ĠëıĻ ë©Ķëĭ¬
Ġë°© íĮ¨
íĮĮ íĭ°
ĠìĹ´ ìĭ¬
ìŀĪ ìĹĪëĭ¤
ê·¼ ìĿ´
Ġêµ¬ìĦ± ëĲĺìĹĪëĭ¤
Ġï¼ ľ
Ġì¡° ìĤ¬ìĹĲ
ĠìĦ¤ ëıĦ
Ġì¹¼ ëŁ¼
Ġë¹Į ëĿ¼
Ġë§¥ ëĿ½
ĠìĦ±ëĤ¨ ìĭľ
íĻĶ ë¬¸
ìłľ ê³±
ĠìŀĲ ìĦľ
ĠìķĮ ë£¨ë¯¸ëĬĦ
Ġê°Ħ ìĤ¬
Ġíķ© ìĬ¤ë¶Ģë¥´íģ¬
Ġë°ľìĥĿ íķĺìĹ¬
ìĤ¬íļĮ ì£¼ìĿĺ
Ġê¿ Ģ
ìļ°ìłķ ì¶ľìĹ°
êµĲ ìĻĢ
ì²ľ ìĹ¬
ĠìĻķ ìľĦìĹĲ
Ġìº ī
ëıĻ ìĽĲ
ìŀ¬ íķ´
Ġê²Ģ ì¶ľ
æ° £
åį °
Ġíİĺë¥´ëĶĶ ëĤľ
ê²Į ìĨĮ
er r
ë²Ħ ë¥¸
ì¢ħ ëª©
ì²Ń ìĹĲ
Ġë°± ìĥī
åı ¯
ĠëĨĵ ìķĺëĭ¤
Ġì¿łëį° íĥĢ
ĠìĬ¤íĥĪ ë¦°
Ġìĭľ ìŀ¥ìĹĲìĦľ
Ġì¡° ê°Ĳëıħ
íĽĦ ìĿ´
Ġ12 8
ĠìĤ° ì¶ľ
ĠìĽĮ ëĵľ
é¡ ¯
Ġê·¸ëłĪ ê³ł
in ae
ë°Ķ ëĳĳ
ëĤ¨ ìķĦíĶĦë¦¬ì¹´
ìĬ¹ ì§Ģ
Ġì²ĺ ë¶Ħ
Ġê°Ī ìĪĺë¡Ŀ
ìĩ¼ íķĳ
Ġì»¨ íİĺëįĶëłĪìĿ´ìħĺ
Ġê°ľëħĲ ìĿ´
ĠëŁ°ëįĺ ìĹĲìĦľ
ê¸° ë¦¬
ĠS l
ĠìĽĶ íĦ°
ĠëĮĢíĨµëł¹ ìľ¼ë¡ľ
åľ ĺ
Ġìŀ¡ íĺĢ
G A
f efef
ëıĦ íĺ¸
Ġê°ľ ì¢ħ
íı¬ ëıĻ
Ġìĺ¬ëĿ¼ ê°Ħëĭ¤
Ġê±°ì§ĵ ë§Ĳ
æ© Ł
æŁ ±
åĻ ¨
fefef e
ëĭĪ ë¥¼
ĠìĿ´ ë¶ģ
êµĲ ìĹĲ
Ġì§Ģ ë¥ĺ
ĠìŀĪ ê±°ëĤĺ
Ġê°ľ ì¶ķ
Ġê³ł ìĤ°
Ġëª© íļĮ
ĠíĻ© íķ´
íĤ¬ ë¡ľë¯¸íĦ°
ĠíĿ¥ ìĦł
ĠíķĺëĬĲ ëĭĺ
ê³ł ìĸĳìĿ´
ìĦ¸ êµ°ëĭ¤
ì´Ī ëĮĢ
ĠëıĮ ê²©
Ġì¶Ķê°Ģ ìłģìĿ¸
Ġì¡° ìĬ¹
Ġì¶Ķ ìĦĿ
ĠìłĲ ìĪĺë¥¼
un k
Ġìĸ¸ê¸ī íķľ
Ġêµ¬ëĭ¨ ìĿĢ
ĠComp any
Ġë°©ìłķ ìĭĿ
Ġíķĺ ë°ĺ
er ing
ë£¨ ìĹĲ
Ġìłģ ëĭ¤
Ġëª©íĳľ ëĬĶ
ĠìĿ¸ê·¼ ìĿĺ
Ġìĭľ ìĺ¤
ìĨĮ íĨµ
Ġë¬´ ëĮĢë¥¼
Ġëĭ¨ ìłĪ
ì¸¡ ìĹĲ
B T
íĬ¸ ëĦĺ
Ġìĭľ ì¢ħ
ê³µ êµ°
ĠìľĦ ëĵľ
íĶ¼ íĦ°
Ġê°Ĳ ìĪĺ
Ġì¢ħ ìĺģ
ĠE urop
Ġëĭ¤ì¹´ ëĿ¼
ĠëŁ°ëįĺ ìĿĺ
ĠìĤ¬ë¡Ģ ê°Ģ
íĻĭ ì¹´ìĿ´ëıĦ
A Y
ĠìķĦ ìĨĮ
ìĹ° ìķł
ê°ģ ìĿ´
ë£¨ ìĹĲìĦľ
ìĹ´ ìĿĢ
Ġm y
ì¸¡ ìĿĢ
ëī´ ìĸ¼
Ġin ter
Ġê¸´ íħĮìĵ°
ìĦľ ìĿ¼ë³¸
ìķĦ ë¯¸
ìłĦ íĻĺ
Ġì§Ģ ìĦł
ĠëĤĺ ëħ¸
ĠíĺĦ ìķħ
ĠìĹĨ ìĸ´ìĦľ
ãĤ ¨
ì°½ ìĿĺ
ĠìĬĪ íĬ¸
Ġê²© íĪ¬
ĠìĿ´ë¡ł ìĹĲ
åķ Ĩ
Ġê°Ģ ëł¤
Ġì£¼ ì²´
íĶĦ íĦ´
ĠG old
Ġìĭľì¦Į ìĿĢ
ĠíĥĦ ëıĦ
ĠìĪĺíĸī íķł
ĠìĦłìĸ¸ íķĺìĺĢëĭ¤
è ĩ´
ĠìłĦ ìłģ
ĠìłĦ ê²©
Ġê³µ ìĭł
Ġëĵ± ì§ĢìĹĲìĦľ
ĠE N
Ġìĭľë¦¬ì¦Ī ë¥¼
g er
íĶĦ ë¦°
Ġê³ł ëŀĺ
Ġë¬´ ìĦ±
ëıħ íķľ
ìĦ¸ê¸° ë¶ĢíĦ°
ìĽ¨ ìĸ´ë¥¼
Ġìĺ¨ ëĭ¤
ĠìĿ´ìļ© íķľëĭ¤
ĠìŀĲë¦¬ìŀ¡ ê³ł
íĭ° ëĦĺ
Ġë¶Ħ ë¹Ħ
íıī ëıĻ
ç¥ Ń
Ġë§Īë¥´ íĭ°
Ġíģ´ëĿ¼ìļ° ëĵľ
êµ ½
ĠìĿ¼ ì²´
Ġê°ľ ìĨĮ
ĠíĺĦ ê¸Ī
íĶĦëĿ¼ìĿ´ ì¦Ī
ëĬ ĳ
íķĻ ìłģìľ¼ë¡ľ
ëĭ¹ íķľëĭ¤
ì¤ĳ ì¶Ķ
Ġê¹Ģ ìĺ¥
ĠíļĮ ìĿĺë¥¼
ĠìłĪ ëĭ¨
Ġë¹Ħìľ¨ ìĿĢ
Ġì§Ģë°Ķ íĺĦ
Ġê¹Ģ ë³´
ë³ĳ ê³¼
Ġë¸Į ëŀĢ
ĠìĿĮìķħ ìĹĲ
Ġì¤ĳìĭ¬ ì§ĢëĬĶ
ĠìĿ´ìķ¼ ê¸°ëĬĶ
Ġê³µìĤ° ì£¼ìĿĺìŀĲ
Ġë²łëĦ¤ìĪĺìĹĺ ëĿ¼
Ġë¥´ëĦ¤ìĥģ ìĬ¤
ĠìĦ¸ ìĨį
Ġë¬¸ ê³¼
ĠìĿ´ë¦Ħ ìĹĲìĦľ
Ġë²łìĿ´ ì»¤
ycl op
ìŀ¥ íķľ
Ġìĭľ ìĻĢ
ĠìĿ¼ ìļĶ
ëįĶ ë¶Īìĸ´
íį¼ ëŁ°ìĬ¤
ĠìĹ°êµ¬ ìĿĺ
Ġì»´ íĵ¨íĮħ
ĠìĿ´ ê°ķ
ĠìŀĲ ë¥¼
ĠìĿ¸ ìŀ¬
Ġì£¼ ë¶Ģ
Ġë°Ģ ë¦¬
Ð¸ Ð½
ê° ĵ
Ġì¡° ë³ĳ
Ġëª¨ ìĿĢ
ë³¸ ìĦł
ìľł ê³µ
ĠM TV
Ġíı¬ íĨł
ëĳĲ ë¥¼
ĠëĿ ¤ëĭ¤
ëĤĺ íĮĮ
ë°° ìĥģ
ĠìŀĦ ê´Ģ
om en
ëħ¸ëıĻ ëĭ¹
ĠíĥĢìĿ´ê±° ìĬ¤
ĠëģĬìŀĦ ìĹĨìĿ´
Ġê³ł ìĤ¬
Ġìĥģ ìĿĳ
ê±° ë¥¼
Ġì¶ķêµ¬ ëĭ¨ìĿĺ
Ġì¦Ŀ ìĥģ
ëł¸ ëĬĶëį°
Ġìłķì¹ĺìĿ¸ ìľ¼ë¡ľ
Ġìłľì¡° ìĹħ
Ġë°ľëłĮ ìĭľìķĦ
Ġê²Įë¥´ ë§Į
ê°Ģ ëĿ¼
ê³µ ë¬´
Ġìĵ° ìĭľë§Ī
Ġâ ħ
Ġê²°ìłķ ëĲľëĭ¤
Ġì¢ħë¥ĺ ê°Ģ
ĠëĮĢ ìĻķ
ìŀĦ ìĭľ
Ġë¬¸ ìŀĲë¥¼
Ġìļ° ì¦Īë²łíĤ¤ìĬ¤íĥĦ
if t
Ġê³µê°Ħ ìĿ´
ĠìĥĪë¡ľ ìĿ´
ë©´ ìĹĲëĬĶ
Ġìľł íĥĢ
Ġêµ¬ ëĭ¨ìĿĺ
ê±´ ë¬¼
ĠëłĪ ìĺ¨
ĠR et
ĠìłĢ ê²©
Ġìŀ¡ ìķĺëĭ¤
ë²łìĿ´ ì§ķ
Ġë¹Ľ ìĿ´
ĠìĿ¼ì¢ħ ìľ¼ë¡ľ
ê³łëĵ± ë²ķìĽĲ
ìĿ¼ ìĥĿ
ĠìĦ± ìķħ
ëħ¸ ë²¨
ĠìĽ¨ ìĿ¼
ian a
ê³µ ìŀĳ
Ġìĭ¤íĮ¨ íķĺìĺĢëĭ¤
ĠëıĦë©Ķ ìĿ¸
ê·¸ ëŀĳ
ĠC R
íĿ ī
ĠìľĦì¹ĺ ëĬĶ
Ġìŀħ ìĸĳ
Ġê¸°ë¡Ŀ íĸĪê³ł
ĠíıŃ ëĦĵ
i ro
ìĹĲ ëĵľ
ĠìĿ´ ëĤ´ìĹĲ
ĠìłĦ ê¸°ìĿĺ
ìĭł ìłķ
Ġë§Ī ë¦°
ĠìĥĿ ê²¼
ê·¼ ìĿĢ
ĠíķĦë¦¬íķĢ ìĿĺ
ë³ į
ì¹´ ë¥´íĥĢ
Ġìĸ´ ì´Į
ì³¤ ìľ¼ë©°
íĴĪ ìĿ´
Ġ18 60
ĠíıŃ ë¡ľ
ìĹ°ê¸° ìĥģ
ĠìĿ´ ëĭĿ
ĠìĹ¬ ì§Ħ
ë¬´ ìĿĺ
ìĿµ ìĿĦ
íİľ íķĺê²Ĳ
è³ ĩ
U E
ê³µ ìĿĢ
Ġì¡´ìŀ¬ íķĺê³ł
ĠìĿ´ëģ Ī
íĺ¹ íķľ
ĠìĦłê±°êµ¬ ìĿ´ëĭ¤
ĠìķĮëłīìĤ°ëĵľ ë¥´
ĠìĬ¤ ê¸°
Ġëį§ë¶Ļ ìĹ¬
ì§Ģ ìĪĺ
19 16
ĠëĤĺ ìĿĢ
Ġìĭ¤ ëł¥ìĿĦ
ì¤Ģ ìĿĢ
Ġë§İ ìľ¼ë©°
ĠìľłìĤ¬ íķĺëĭ¤
ru ct
ĠíĹĮìķ¡ ìŀĲ
ĠìĤ¬ ëĤ´
ìĨĮ ìŀ¬
Ġìĺ¤ ê¸°
íĨł ìĻĢ
ĠêµĲ ìłĦ
ĠT R
ãĥ ĭ
ê³¨ ëĵľ
Ġìĭľë¦¬ì¦Ī ìĹĲìĦľ
Ġìľłì§Ģ íĸĪëĭ¤
Ġê²½ì°° ìĿĢ
ĠìĤ¬ ê´Ģ
ĠìĦ¸ ë¯¸
ĠR el
ĠE p
Ġìĺ¨ ê°ĸ
Ġê·¹ ëĮĢ
ìĹĦ ë§Ī
ĠìĦłì¶ľ íĸĪëĭ¤
ĠëĤ¨ìª½ ìĿĺ
ĠMus eum
Ĺ íĨłë¦¬
ĠìķĦ ëĭĲ
ĠP ower
Ġê·¸ë¦¼ ìŀĲ
ĠCon c
C ar
ê² Ł
ĠS un
ãĥ Ł
ig inal
ê²¨ ëłĪ
Ġìŀĳê°Ģ ìĿĺ
Ġê´ ľì°®
ĠìĦł ì¢ħ
ë§ģ íģ¬
Ġë¶Ģë¶Ħ ìĹĲìĦľ
ìºĲ ë¦ŃíĦ°
Ñ ĩ
ë¡ľ ìĽĮ
ìĿ¸ ìļ©
Ġë§Ī ìļ°ìĬ¤
ëĭ¬ ìķĦ
ĠìŀĦ ìĽĲ
ĠìļĶìĭľ ëħ¸
ìķ ī
ìĿ¸ êµ¬ìĿĺ
ĠíĻĺ ìŀĲìĿĺ
ĠìĽ¹ ëĵľëĿ¼ë§Ī
íĳ¸ ë¥¸
Ġì§Ģíľĺ íķĺëĬĶ
Ġë°©ë¬¸ íķľ
Ġëĭ« íŀĮ
ìŀ¥ ë¹Ħ
ê³¨ ë¡ľ
p os
t d
ìŀ¥ ìĦ±
Ġëĭ¨ ìĸ´ëĬĶ
ĠìĤ¬ìļ© íķĺë©´
ĠìļĶ ìķ½
Ġë²Į ìĸ´ì¡Įëĭ¤
Ġë°ľìłĦ ìĨĮ
ĠìŀĶ ë¥ĺ
ç§ ¦
íĶĮë¡ľ ë¦¬ëĭ¤
ĠìĹŃ ê¹Įì§Ģ
ë°ľ ë¡ľ
ê¶Į ìŀĲ
ê²° ìĦł
åı ĭ
ĠíĳľíĺĦ íķĺëĬĶ
Ġì¦Ŀê±° ê°Ģ
Ń ê·Ħ
ĠìĿ¸ íħĮë¥´
Ġë°Ķ ìĺ¤ë¡ľ
Ġì¹´ ì§Ģ
ĠB ack
Ġë²Ħ íİĦ
ëĿ¼ìļ° ëĵľ
è² ´
Ġíķĺ íĶĦ
Ġë§Ĳ íķĺë©´
ĠK h
ĠìľĦíĹĺ ìĿĦ
d ay
ĠìĿ´ ëį°
ë¹Ħ ìļ©
Ġë¬´ ë£Įë¡ľ
ëĳĲ ìĹĲ
Ġì½Ķ ëĵľë¥¼
Ġìĸĳ íĤ¤
Ġìŀħ êµ¬
Ġìĭ¸ ìļ°ëĬĶ
ìĿ´ ëĭĪ
ĠìĿ¼ ëĮĢìĹĲ
ìļĶ ìĽĲ
ĠìķĮ ì§Ģ
Ġë³¸ ê±°
è« ¸
Ġëĭ¨ê³Ħ ìĹĲìĦľ
Ġìĺ¤ìĬ¤ íĭ´
ĠëĥĦ ìĥĪ
Ġìľł íķ´
ì¹´ ì¿ł
ìĿĮ ìĿ´ìĿĺ
ĠìĿĺ ëł¹
å® Į
ĠíĹĪ ìľĦ
ì·¨ ê¸ī
ê²½ìłľ íķĻ
ĠìĤ¬ ë°Ķ
ìĥģ ëĭ´
ë³´ ì¡´
ëĳĲ ë¡ľ
Ġëį° ëĭĪìĬ¤
Ġëĭ¬ ë¦¬ëĬĶ
Ġíĺĳ ìĥģìĿĦ
Ġê²ĥ ìĿ¸
ĠëıĦ ëĬĶ
Ġë°© ì½ķ
ìĪĻ ì¢ħ
é«ĺ éºĹ
Ġìĺ¬ëŀĲ ê³ł
Ġìŀ¬ëĬ¥ ìĿĦ
W S
Ġìłķ ê¸Ģ
Ġë°© ê¸ĢëĿ¼ëį°
ĠW ork
Ġíļ¨ ê³łíĺĦ
ĠìłķëıĦ ìĺĢëĭ¤
ĠíĶĦëŀŃ íģ´ë¦°
Ġ ä¸ī
Ġí Ĳģ
Ġê¸° íļĮê°Ģ
ĠìĹĨ ìĹĪê¸°
ĠíĥĢ ê²©ìĿĦ
Ġìŀħ ìĦ±
Ġê°Ģê¹Į ìĽĮ
ĠëĤ³ ìĿĢ
Ġì¤ĳíĻĶë¯¼ êµŃìĿĺ
åĨ ħ
ĠëĦ¥ ìĦ¼
z y
ĠìĦł íĸī
ĠìłĢ ìŀĲ
ĠëıħìĿ¼ ìĿ´
ĠìĬ¹ê°ķ ìŀ¥ìĿĢ
ĠìĤ¬ ë©´
ë§Ī íĥĢ
Ġìĥģ íķ´
Ġ18 00
Ġì§ģ íķł
Ġë³Ħ ìĿ´
ĠíļĮìĤ¬ ìĿ´ëĭ¤
Ġë¬¼ëŁ¬ ëĤ¬ëĭ¤
Ġì»¨íİĺëįĶëłĪìĿ´ìħĺ ìĬ¤ì»µ
Ġëªħ ìĿ¸
ìĬ¨ ê³¼
ìĺĪìĪł ëĮĢìĥģ
ĠíĪ¬íĳľ ë¥¼
Ġë³µê·Ģ íķĺìĺĢëĭ¤
çĲ ĥ
å ¶
ëĭ¤ ìĺ¤
ìŀ¥ ê¸°
ì²Ń ì¶ĺ
ĠP ri
ĠìķĦìĿ´ íı°
å³ °
ê¸°ë¡Ŀ ìĿĦ
ĠìĿ¼ëłī íĬ¸ë¡ľ
1 12
Ġì§Ģ ë¶Ģ
ì¹´ ìĭľ
ĠC P
ëĤ´ ë©°
Ġê°Ĳ íĸī
Ġë´ī ê±´
ëŀŃ íģ¬
ìĿ¸ì²ľ ê´ĳìĹŃìĭľ
çµ Ĳ
ãİ ¡
ìĻ¸ ê³¼
ëĶĶ ëĵľ
ĠíĺĦ ë¦½
Ġíĸī ì§Ħ
Ġê²ĮìŀĦ ìĹĲ
Ġê²ĮìŀĦ ìĹĲìĦľ
ìļ´ëıĻ ìĿĺ
ĠìĿ¸ìłķ íķĺëĬĶ
ĠìłĦìĦ¤ ìĿĺ
ë¯¼ ìĿĦ
Ġìłķ ë¦½
Ġê³µ ë¶Ģë¥¼
ë³´ ë¬¼
Ġíķ´ ìłĢ
Ġìĺ¬ ë¦¬ê³ł
Ġì²´ ë¥´
Ġìĭľê°Ħ ìĿĺ
ĠìĻ¸êµŃ ìĸ´
ĠìķĦë§Ī ì¡´
Ġë°Ķê¾¸ ëĬĶ
Ġíķ©ë¥ĺ íĸĪëĭ¤
ĠColle ction
ĠìĪĺìĪĺ ê»ĺëģ¼
ìĭľ ìĻ¸
ëłĪ ë¯¸
Ġê²ĥ ìŀĦìĿĦ
ëª¨ ìĬ¤íģ¬ë°Ķ
Ġì¹´ ìĬ¤íĭ°
Ġëĵ¤ ìĿĦ
íķĻìŀĲ ìĿ¸
Ġì¼Ģ ìĿ´ìĬ¤
W ill
u le
ìĺ Ĩ
ëĶĶ ë¶Ģ
ĠA v
Ġ188 8
ĠìºĶ ìŀĲìĬ¤
íĺĳ ìłķ
íĽĪ ìĿĺ
ĠëĤ´ìļ© ìľ¼ë¡ľ
Ġë§ĪìĿĦ ìĹĲìĦľ
Ġì¦Ĳ ê±°
19 15
ĠìķĪ ëĵľ
íĮĲ ìĹĲìĦľ
ĠL ight
ìĨĶ ë¡ľ
åĵ ²
ĠëĶ°ëľ» íķľ
ĠìĿ´ ëł¥
ëĮĢ ëıĻ
ĠìĦ¸ ê¸Ī
ëĤ´ ì§Ģ
Ġì¶© ìĦ±
Ġë°Ŀ íŀĮ
ĠíĶĮëłĪìĿ´ ìĸ´ëĬĶ
ian o
ĠìķĦìĿ´ëĶĶ ìĸ¼
Ġì¹ľ ìĻķ
Ġ189 3
Ġëĭ´ëĭ¹ íĸĪëĭ¤
éł ĺ
íķĻêµĲ ìĹĲ
ĠL ee
ĠëıĻìķĪ ìĿĺ
Ġë²Ķ ìľĦë¥¼
ĠìĻķêµŃ ìĿĦ
ì§Ģ ëĬĶëį°
íĮ į
ĠA ust
Ġíģ¬ ë¡¬
ĠíĮ¨ íķľ
Ġë¸Ķ ë¡ľ
Ġë°Ŀ íŀĪê³ł
Ġì§Ģêµ¬ ë¥¼
ĠìĬ¤ìľĦ ì¹ĺ
Ġì¤ĳìļĶ ìĦ±ìĿĦ
Ġë¦¬ëįĶ ìĭŃ
ìļ´ ìĿĦ
ìļĶ ë¯¸
ĠëķĮ ê°Ģ
ĠëĤ´ ìķ¼
Ġë¶ģ ë°©
Ġë¹Ħìľ¨ ìĿ´
C ol
ĠìŀĪ ê¸°ëıĦ
Ġìľł ëŁ¬íĶ¼ìĸ¸
Ġì¡° ìħī
Ġë¹Ħ ìĹĶ
Ġë§¤ ê±°ì§Ħ
ĠíħĮ ì¸ł
ĠìľłëĤĺìĿ´ íĭ°
ĠìĿ´ íĿ¬
ë¥´ ë©°
al th
ë¸Į ëĬĶ
ĠëĲĺìĹĪëĭ¤ ê°Ģ
ê·¼ ëĮĢ
ìĹ´ ìĹĲ
ëª¨íĨł ëħ¸
Ġì£¼ë¯¼ ëĵ¤ìĿĢ
Ġìĺ¹ ë¦½
ĠìĿ´ ìĤ°
ë¶Ģ ìĽĲêµ°
ĠìķĦ ëĿ¼ë¹ĦìķĦ
ĠìŀĲ êµŃ
Ġì£¼ ìłľë¥¼
ĠìķĪ ìľ¼ë¡ľ
ãģ Ī
ĠH ouse
Ġê·ľ ë²Ķ
ag on
Ġë²Į ìĿ¸
ĠëĦĺ ìĸ´ê°Ģ
S ch
ìĿ´ ìłľ
ì§Ī íĻĺ
ëŁī ê³¼
åħ ±
ëįķ ìĻķ
ìľĦìĽĲíļĮ ë¥¼
ĠëģĿ ëĤł
Ġìĸ» ì§Ģ
è¡ ĵ
ĠìĿ¼ìłľ ê°ķìłĲê¸°ìĿĺ
Ġê°Ģ ë³į
Ġë°Ķ ë¹Ħ
ĠëĤ´ ë¦¬ëĬĶ
ĠO ver
Ġë²¨ê¸°ìĹĲ ìĿĺ
Ġì¶¤ ìĿĦ
ĠìĤ¬ ìłĪ
ìłķ ì£¼
ĠD ie
ê°Ĳ ìľ¼ë¡ľ
ĠìĤ´ ìķĦìŀĪëĬĶ
ĠëıħìĿ¼ ê³¼
ìļ´ëıĻ ìĹĲ
ĠíĮ¨ë°° ë¥¼
Ġë¶Īê°ĢëĬ¥ íķľ
ìĭľìĿĺ íļĮ
åħ ¥
Ġì¹ľêµ¬ ê°Ģ
ìį ¬
ĠÄ Ĳ
ìĪĺ ëĭ¨
íļĮ ê³Ħ
Ġì¡° ê²½
ĠS oul
ĠM ix
Ġëĵľ ëĬĶ
Ġëĵľ ë¦¬
Ġë§¤ ì¹´íĬ¸
ing ton
å¤ ¢
ìĭľíĤ¤ ì§Ģ
Ġê°Ŀ ìĽĲ
Ġëĵľë¬¼ ê²Į
ĠìĺĪìĤ°ê²°ìĤ° íĬ¹ë³ĦìľĦìĽĲíļĮ
Ġë°Ľ ì¹¨
ĠìĿ´íĥĪë¦¬ìķĦ ìĹĲìĦľ
åį ļ
Ġìŀĳê°Ģ ìĿ´ëĭ¤
Ġë¶Ģëª¨ ëĭĺ
ĠíĦ°íĤ¤ ìĿĺ
Ġë°ĺëıĦ ì²´
ĠNA SA
k s
ĠëĮĢ ìĹŃ
Ġíķľ ë¯¼ì¡±
ĠìĿ¼ ëĮĢë¥¼
ì°¨ ë¥´íĬ¸
ë°Ķ ìĿ¸
ëª¬ íĬ¸
é¡ ŀ
Ġë· Ķ
ëĮĦ ìĬ¤
ìķĮëłī ìĤ°
ìŀĲ ìĤ´
ĠëĮĢ ê°Ģë¡ľ
ĠìłĦ íĸĪëĭ¤
ĠA V
ĠìķłìĬ¬ ëłĪíĭ±
Ġ2 20
ĠìĪĺ íĻķ
Ġì§ĳ ìķĪìĿĺ
Ġëĸ ¡
ë²½ ìĿĦ
atab ase
Ġíı¬ ë³ĳ
ĠH ow
Ġìłķë¶Ģ ìĹĲìĦľ
ĠíĬ¸ë¡ľ ìĿ´
1 17
ëĤĺ ìĦľ
ë³¸ ìĿĺ
Ġ10 6
Ġë²ł ëĵľë¡ľ
Ġíĥľ ê·¹
ìº £
ä» ¥
Ġì¦Ŀê°Ģ íĸĪëĭ¤
ĠíĻĢ ë¦¬
ìľłëĭĪë²Ħ ìĦ¤
ëį° ìŀĲ
íģ´ëĿ¼ íĺ¸ë§Ī
E V
íļĮ ìĤ¬ë¡ľ
ë¯¸ êµ°
Ġìłķ ëıĦë¥¼
Ġë¯¸êµŃ ìĿĦ
ãĥ Ĩ
ĠíĤ¤ ê°Ģ
ĠêµĲìľ¡ ìĿĺ
ĠíĮĶ ëĿ¼
Ġë¹Ľ ëĤĺëĬĶ
Ġê³¤ ëŀĢ
Ġì½¤ íĮ©íĬ¸
U T
ìĦľ ëĭĪ
ìĭ¬ íĮĲ
íĮĢ ìĿĦ
ĠíļĮìĤ¬ ìĿ¸
ĠìķĦìĺ¤ ëª¨ë¦¬
ĠìĭľìĤ¬ êµĲìĸĳ
b it
ì§Ģ ëĭ¤
Ġê³¡ ìĦł
ìłķë³´ íĨµìĭł
íĺĦìŀ¬ ëĬĶ
Ġì¹ľìĿ¼ ìĿ¸ëªħìĤ¬ìłĦ
ĠìĿ´ ë¬¸
êµ¬ ìĬ¤
Ġìłľ ìĤ¬ë¥¼
Ġìĸ´ ëł¸ìĿĦ
Ġë¶Ī íĻĶ
ĠìķĪ ì¹ĺ
ëĿ¼ìĿ´ íĶĦ
ìĵ° ë§Ī
ĠíĤ¤ ëĵľ
ë°©ìĨ¡ êµŃ
Ġì§Ħíĸī ëĲĺê³ł
Ġê±´ìĦ¤ ìĿĦ
ĠíĶĦë¦° ìĦ¸ìĬ¤
ĠìłľëĭĪ íį¼
íķĺ íĥĢ
ìķĦ ìĭľ
19 09
ĠìŀĲ ìķĦ
ĠìĽĲ ì²ľ
ĠëįĶ ë¹Ħ
Ġê°Ģì§Ģ ê°Ģ
ĠìĹŃìĤ¬ ìĿĺ
Ġëŀ ´
Ġë°Ģ ì§ĳ
ĠëıĦìļĶ íĨłë¯¸
Ġë¨¸ë¬¼ ëłĢëĭ¤
ĠìĤ¬ìĿ´íĥĢë§Ī íĺĦ
è ½
ĠìĿ´ ì°¨
ë¯¸ ì¹´
ĠìĿ¼ íķĺê³ł
Ġì£¼ ëıĦë¡ľ
Ġê²½ íĿ¬ëĮĢíķĻêµĲ
ìĺ¤ ìĺ¤
ãģ ĳ
ĠìĨį íķĺë©°
ì¶ĺ ì¶Ķ
ëĨį íĺĳ
ĠíĶĦë¡ľìłĿ íĬ¸ìĿĺ
ĠìĦľë¹Ħ ìĬ¤ëĬĶ
Ġëĭ¤ì¼Ģ ëĭ¤
ìĿ¼ ìĿ´ëĭ¤
Ġë§Ī ëĤĺ
Ġì§Ħ ê³µ
ëĲĺìĸ´ ìŀĪëĭ¤
ĠëĿ¼ ë§Ī
ĠíļĮ ìŀ¥ìĿĦ
ĠíĪ¬ ë¥´
ĠëıĮ ìŀħ
ĠíĤ¤ íĶĦë¡ľìĬ¤
Ġê³¼ìłķ ìĿ´
o om
íķ´ íĶ¼
ĠìķĦ ëıĮíĶĦ
ĠëıĦ ë£¨
Ġë¦¬ ë²ł
Ġë³ĳ ìľ¼ë¡ľ
ĠìĹŃìĤ¬ ìĹĲ
Ġëį°ìĿ´ ë¹Ħ
ìŀ¡ ì§Ģ
Ġë¬¸ìĦľ ìĿ´ëĭ¤
Ġëį® ìĹ¬
ĠìķĶíĺ¸ íĻĶ
Ġê±° ìĿ¸
ĠL aw
Ġíĸīìłķ ë³µì§ĢìĦ¼íĦ°
Ġë³¼ ë¡ľ
Ġëļľëł· íķľ
ëıĦ ìļĶ
Ġê°ķ ë³Ģ
Ġíķ¨ ë¶Ģë¥´íģ¬
ê²° ê³¼ë¥¼
ĠìĹŃìĤ¬ ìłģìĿ¸
Ġíĭ ´
ĠCh urch
ĠëıĻìĥĿ ìĿ¸
Ġìŀĳìļ© ìĿĦ
ê±°ëŀĺ ìĨĮ
ĠEng lish
ê· ¤
Ġíķ´ ê³ł
ĠM a
ĠìķĮ ëŀĺìĬ¤ì¹´
ĠK e
ĠìĦľìļ¸ ì¤ĳìķĻ
Ġìĭ¤ìĭľ íķľ
ëĮ Ĳ
ê¸° ìĥĿ
ìķĦ ëıĻ
ë§Ī ëĵľë¦¬
ë©Ķ ìĬ¤
Ġë§¤ ë§¤
ĠìķĦë²Ħì§Ģ ìĿ¸
Ġê²¬ íķ´ë¥¼
ë¡Ń ê³ł
ĠëıĻìĿ¼ íķĺëĭ¤
u ro
ê¸° ê²Į
Ġê³ł ìĨĮ
ìķ¼ ìĻĢ
íķł êµ¬
Ġëĭ¨ ìĸ´ë¥¼
ĠëĳĲ êº¼
ĠëıĮ ì¶ľ
Ġì¤Ħ ë¬´ëĬ¬
Ġì½ľë¡ľ ëĿ¼ëıĦ
S m
ĠìĿĺ ê²°
ĠìĦľ ìĬ¤
ĠíĶ¼ ìĭł
ì§ĳ ìĿĺ
Ġì»´ íį¼ëĭĪ
Ġë¯¼ì¡± ë¬¸ìłľ
nd er
åĸ ľ
Ġì¶Ķì¸¡ ëĲľëĭ¤
Ġê°ľ ìĿ¸ìĿ´
ĠêµŃ ìĺģ
ĠB O
ĠB us
ìŀħ êµ¬
Ġê¸¸ ìĿ´ìĿĺ
Ġì²ľìĹ° ê¸°ëħĲë¬¼
ìĦ± ìĤ¬
ì¡° íķľ
Ġê²ĥ ëĵ¤ìĿ´
Ġëª¨ íķĺ
íĺķ ë¬¸íĻĶìŀ¬
Ġëĭ¹ ìĹ°íŀĪ
Ġê°Ĳ ìķĪ
äº ¤
Ġê¸°ì¤Ģ ìĿĦ
Ġë§ŀ ê³ł
Ġìļ´ìĺģ ìĿĦ
man n
ĠìĹĺë¦¬ íĬ¸
Ġëı¼ ì§Ģ
ĠìĿ´ ëĿ¼ê³ł
ìĭľ ê¸°
ĠìĦł ë¹Ħ
Ġíķľ íķ´
ĠìĹ¬ ìļ°
ëª¨ ìĸĳ
ĠíĪ¬ ìĸ´ë¥¼
ĠëįĶê¸Ģ ëŁ¬ìĬ¤
ì£¼ ìłľê°Ģ
Ġì¡° ë¡ľ
ĠëĮĢíķľë¯¼êµŃ ê³¼
Ġì²´ ë¥ĺ
ĠìłĲ ìĹĲ
Ġì·¨ ìĹħ
ag o
Ġ ev
Ġìĭľ ì¹łë¦¬ìķĦ
Ġê¸° íļĮ
Ġëħ Ģ
Ġë°° íĦ°ë¦¬
Ġë°Ķ ìļ°
ĠM BN
ĠP ubl
ĠíĻĶ ìļĶìĿ¼
Ġë©Ķ ìĨĮ
ëĥĲ ëĬĶ
ĠìĽ¨ ìĬ¤íĦ´
ĠíĬĢ ëĭĪ
ĠëĬĲëĤ Ģ
ĠìĿĺ ìĦĿ
Ġíķ¨ ìĪĺìĿĺ
Ġíĺ¸ ë¦¬
Ġíģ¬ ê¸°ë¥¼
ĠíļĮ ìĥģ
ĠìľłíĬľ ë²Ħ
ê¶¤ ëıĦ
ì¹ĺ íŀĪ
Ġë³´ ìĿĢ
ĠB as
ĠL ong
ë¯¼ ë²ķ
Ġì¡° íĺķ
ì²ľ ìĿį
íħĮ ë©´
ìĺĪ ê°Ģ
Ġëĭ¤ìĿĮ íķ´
ĠJ ames
Ġì¡´ìŀ¬ íķł
ìĤ¬ìĿ´ ë²Ħ
ĠìĿ´ ê³ł
ìĤ¬ ìĤ¬
Ġìĺģ ì§Ģ
ĠìĿ¸ ëªħ
ĠëĤĺ ì¤ĳìĹĲëĬĶ
ĠëıĦ ë°ķ
ĠëķĮ ìĹĲëıĦ
ĠìĤ¬ëŀĮ ëıĦ
Ġìķŀ ìĿĺ
Ġë§ī ë¶ĢìĿĺ
ì¾Į íķľ
ĠìĤ¬ ìĦľ
Ġì§ģ íĸī
íĮ¨ ìĬ¤
ĠìŀĲìľł íĺķ
ì¢ Ģ
ë¹Į ë¡ľ
Ġê°Ģì¡± ìĿĢ
Ġíı¬íķŃ ìĭľ
Ġìłľ ì£¼ìĭľ
íĶĦ ìĹĲ
Ġêµ° ëĮĢìĹĲ
ic us
Ġê²ĮìŀĦ ìľ¼ë¡ľ
Ġê½ĥ ìĿ´
è¼ ī
ĠAP I
ĠëĿ¼ìĿ´ìĦł ìĬ¤
ĠíķŃê³µëª¨ íķ¨
ìĹ° ìŀ¥
ë°© ìĿĢ
Ġë§Į ìĦ±
ë°ľ ìĥĿ
íħĮ ë¦¬ìķĦ
Ġì¹ĺ ë¥¸
å® ¤
Ġëª¸ ìĿĺ
çĽ §
ë¯¼ íĦ´
Ġë¶Ģ ì´Ŀ
Ġì¡° ì¡°
ĠìĦľ ë©´
Ġ12 5
ëŁī ìĹĲ
Ġê°Ħ ì²©
Ġì§Ħíĸī íķĺê³ł
Ġì¶ľìłĦ íķĺìĺĢëĭ¤
ĠíĸīëıĻ ìĹĲ
ĠìĪ« ìŀĲëĬĶ
é ¶
ìĿ´ íģ¬
ĠìłĦ íķĺëĬĶ
íĨµ ê³¼
ĠL eg
Ġì§Ħíĸī ëĲĺëĬĶ
ê¹Ģ ìĺģ
Ġë³´íĺ¸ íķĺê¸°
ĠìĿ´ì¦Ī ë¯¸
ëŀ ¬
Ġìĭľ íģ¬
ĠìĪĺ ìĹĲ
ĠìĪľ ìľĦë¥¼
íĽĪ ìĿĢ
Ġìľ¤ ë³´
ĠìĽĶëĵľì»µ ìĹĲ
ĠëłĪìĿ¸ ìłĢ
ĠìĨĮìĨ¡ ìĿĦ
Ġë¸Įë¤¼ ìħĢ
K O
Ġìĭľ ì½Ķì¿ł
ëĭĪ ìĺ¤
Ġê¹ ľ
Ġëĭ¨ ìĭĿ
Ġì¦Ŀ ìĦ¤
ĠìłĦì²´ ìłģìĿ¸
ĠìĶ¨ ìĿĺ
Ġìĺ¬ë¦¬ ë²Ħ
ë§Ī ëĶĶ
ê°ľ ìµľ
Ġê°ķ ìĦ±
ìĭ¬ ìľ¼ë¡ľ
Ġë¨¸ ë¦¬ìĹĲ
Ġë¯¼ì¡± ìĿĺ
ĠìĿ´ ìĦĿ
ĠìĤ¬ ëĭ¹
Ġìŀħ ìĿĦ
ĠìłĢ ëł´
Ġê´´ ë¬¼
ĠìĦ±ë¦½ íķĺìĺĢëĭ¤
ëĮ ģ
Ġì¡° ëĭĪ
ë°© ê³¼
ĠO F
Ġì»¤ ë¦¬
ĠìµľìĨĮ íķľ
Ġíĸīë³µ íķľ
f ess
ĠìĤ° ëŀĢ
çī Ī
Ġë·° íĭ°
Ġë§Ī ìĿ¼
ĠìĽĲ ê²©
ĠìŀĲìĭł ëĵ¤ìĿ´
ìľĦìĽĲ ìľ¼ë¡ľ
Ġìķ¤ ëĶĶ
ĠêµĲíĻ© ìĿĺ
ê¸° ì´Ī
ìĭľ íķľ
ĠìłĦ ìĪĺ
Ġë³´ ìĦĿ
Ġìĺ¤ ìĬ¤ì¹´
Ġì²Ń ëŁī
ĠêµŃìłľ ìłģìĿ¸
ĠìĿ´ë£¨ìĸ´ ì§ĢëĬĶ
êµŃë¯¼ ìĿĺ
Ġìĭ¤íĮ¨ íķľ
ĠìĿ½ ê¸°
ìłĦë¬¸ ëĮĢíķĻ
ĠìĿ¸ê³µ ì§ĢëĬ¥
áĨŀáĨ «
ĠëıĻ ìĺģ
Ġë°© íĻĶ
Ġê¹Ģ ìĦ¸
ê°ķ ìĿĢ
Ġë§¤ ëł¥
Ġì½ ķ
Ġë°Ľìķĺ ì§Ģë§Į
Ġê°Ħì£¼ ëĲľëĭ¤
ìķłëĭĪ ë§¥ìĬ¤
ĠëŁŃ ë¹Ħ
ì§Ģ ì§Ħ
Ġì¡° ë¥ĺ
ë§Ŀ ìĹĲ
ĠìĦ¤ì¹ĺ íķĺê³ł
Ġëį°ë·Ķ íķľ
Ġìĺ¤ìĿ´ íĥĢ
ĠëıĦë¯¸ëĭĪ ì¹´
ĠìŀĲ ìĤ°
ĠëĤĺ ì£¼
ĠëĨĴ ê²Į
Ġê¸°ì´Ī ë¥¼
ĠìłĦìĹŃ ìĹĲ
ì¶©ì²Ń ëĤ¨ëıĦ
J TBC
ç £
ĠìĿ¼ ìĤ°
ë¹Ħ ëħ¸
Ġë¦¬ ëĤĺ
ĠìĺĪ íķĺ
Ġëĭ¬ íķľëĭ¤
ĠìĺĪìĦł ìĹĲìĦľ
D r
n o
p en
íķ´ ë¦¬
ë¬¸ ê³ł
Ġëį° ìĿ´íĬ¸
ìĬ¤íĦ° ìĿĺ
ĠìķĮëł¤ ì§Ģê²Į
ĠìĦĿ íļĮ
Ġê²°ìłķ íķĺìĺĢëĭ¤
ĠíķĦë¦¬ íĶĦ
Ġíķ´ê²° íķĺê¸°
ĠêµŃíĨł êµĲíĨµ
Ġë°Ķíĭ° ì¹¸
Ġ ),
ìķĪ êµ°ìĿĺ
Ġ18 70
ĠSt ate
ĠìĥĿìĤ° ìĿĦ
ä» Ļ
Ġê²°íĺ¼ íķĺìĹ¬
Ġë³µê·Ģ íĸĪëĭ¤
Ġë³´ëıĦ íĸĪëĭ¤
Ġìľł ë£Į
ê³µ íı¬
íİ Į
ĠìĿ¼ë³¸ ìĭĿ
and s
éģ º
Ġíıīê°Ģ íĸĪëĭ¤
Ġë¹ĦíĮĲ ìĿ´
ĠìłĦìĹŃ ìĹĲìĦľ
Ġìľłë¡ľíĮĮ ë¦¬ê·¸
i os
ìĿ¼ ë¦¬ëħ¸ìĿ´
ëĲĺ ëıĦë¡Ŀ
Ġìĺģ ìĽĶ
Ġì¡° ìĪĺ
ìĺģ ìĸĳ
ĠíķĦ ìĤ¬
Ġì§Ī ëŁīìĿĢ
Ġíľĺ íķĺìĿĺ
ìŀĲë£Į ìĭ¤
ë¶ĢìĤ° ê´ĳìĹŃìĭľìĿĺ
éº »
Ġê·¸ëłĪ ê³łë¦¬
Ġê°Ģ ìĤ°
íĶ¼ ìĹĲ
ĠìľĦíĹĺ ìĿ´
Ġì²¨ ëĭ¨
ê¸° ì¡´
Ġë³´ ê²Į
Ġë°° ëł¤
ĠìĽĲ ìĿ¸ìĿĦ
Ġë§Ĳ ê¸°ìĹĲ
Ġêµ° ìĿ´
íĭ± ìĬ¤
ë®¤ì§ģ ë¹ĦëĶĶìĺ¤
Ġê¹Ģ ìłķìĿĢ
ìķħ ëĭ¨
Ġíĳľ ë©´ìĹĲ
ì´Į ëıĻ
ĠìĦłíĥĿ íķł
é½ Ĭ
S D
Ġì°¨ ìĿ´ë¡ľ
ĠL P
Ġê²ĥìĿ´ ë¯Ģë¡ľ
Ġê³³ ìĿĺ
Ġëĳ¥ ê¸Ģ
çĳ ŀ
ìĿ´ ìĬ¹
ë¶Ģ ìĹ¬
êµ¬ ìĤ¬
ĠìķĪ ìł¤
íĶ¼ íĬ¸
íĶ¼ íģ¬
ĠF re
Ġì¹´ íħĮ
Ġë°ķ ì°¬
Ġë©´ ìłľ
Ġìľ¡êµ° ìĤ¬ê´ĢíķĻêµĲ
ìĿ´ëŀĢ ìĿĺ
ĠëĮĢìĿĳ íķĺëĬĶ
Ñģ ÑĤ
ĠPl ay
Ġë¶ĦìľĦ ê¸°ë¥¼
ĠíĮĶëłĪ ìĬ¤íĥĢìĿ¸
ëĵ¤ ìĹ¬
ĠìĹ¬ íĮĮë¡ľ
ĠëĮĢíķĻêµĲ ìĹĲ
è¡ ¨
ĠìĪĻ ë¶Ģ
ĠëĤĻ ëıĻ
u a
Ġê³µ ìĿĺíļĮ
ĠíĬ¸ ëłĮ
Ġìĺ¤ë¥¸ ìĨĲ
íķľ ìĿ´
Ġ1 200
ĠìĽĲ ìĿĦ
ìĪľ ìĿ´
Ġë°´ëĵľ ë¥¼
Ġëĸ¨ìĸ´ ì¡Įëĭ¤
Ġêµ¬ë¶Ħ ëĲľëĭ¤
ĠìĪĺì¤Ģ ìľ¼ë¡ľ
Ġë¦´ ë¦¬
ë¯¸ íķľ
Ġë¶Ģ ìŀ¬
Ġíģ´ ëłĪìĿ´
å´ ĩ
Ġê°ķìĪĺ ëŁīìĿĢ
íĶĮëłĪ ìŀī
ìĦ± ëıĻ
Ġê²½ ê³¼
ĠíĶ¼ ë¥¼
ê²ĥ ìĿĦ
ìłĦ íĬ¸
Ġì¤ĳ ê²¬
ĠìĿ¸ ì¦ĿìĿĦ
Ġì¡° íĻĶ
Ġìĥģ ëıĻ
Ġìĥģ ê¸ī
íĽĦ ê¸°
ìļĶ ìĿĺ
ĠíĮĮ ë¦¬ìĿĺ
íĶ¼ íķ´
ãĤ ı
ĠĠĠĠ Ġ
Ġìľ¤ ìĦĿ
ce pt
Ġíĳľì¤Ģ FM
ĠìĪĺìĽĲ ìĭľ
ĠìĿ¸ ìĥģìĿĦ
Ġì» ·
ĠìĤ¬ë§Ŀ íķĺìŀĲ
ìĺ µ
Ġì£¼ ìľĦ
íĸī ìĿ´
Ġê´Ģ ì§ģìĿĦ
ëª¨ ë°ĶìĿ¼
Ġíĥľ ìŀĲ
Ġë°± ìĥģ
ë¶Ī ìĿĦ
éĿ Ĵ
Ġìĭ¤ì§Ī ìłģìľ¼ë¡ľ
ĠAmer ica
' m
ĠëĮĢ ì¶ľ
Ġì¤ĳ ëĮĢíķľ
Ġë¬¸ ìĿ¸
ĠëĶ ¥
Ġë²Ħ ìłĦìĿĦ
ĠìĤ¬ë§Ŀ ìŀĲê°Ģ
A V
ìĭľ ê°ģ
Ġê²ĥ ìĿ¸ì§Ģ
ĠT OP
ë£¨ ì¦Ī
Ġë§Į ìĿ¼
ĠíĮĮ ìĤ°
le ment
ì¶© ëĤ¨
Ġê°Ĵ ìĿ´
Ġê·¸ëł¤ ì§Ħ
Ġë¶Ģê·¼ ìĹĲ
ĠíĹ¬ë¦¬ ì½¥íĦ°
ìĿ´ ìĬ¤íĬ¸
ëĤĺ ìĹĲ
íĨł ë¦¬ìķĦ
ë¦½ íĬ¸
Ġíİ¸ ìĹĲ
ëĤĺëĿ¼ ê°Ģ
Ġê´Ģëł¨ íķ´
ĠìĻĢ íĥĢ
Ġë³´ëĤ´ ê³ł
ĠíĶĦëłĪ ëį°
ç¦ ª
ĠìĦľë¹Ħ ìĬ¤ê°Ģ
Q L
ĠêµŃ ìłģ
ê°ľ ìĦł
ĠëĤ´ ìĻ¸
ëĬ¥ ëł¥ìĿĦ
ëĭ¬ ëĿ¼
ĠN orth
Ġë¦¬ê·¸ ë¥¼
Ġë³Ħ ê°ľìĿĺ
Ġìłĳê·¼ íķł
G o
êµĲ ë¦¬
ìĤ Ĳ
ì¡° ì¹ĺ
ĠìĨĮ ëª¨
Ġíı¬ íĦ¸
ë°ľ ëłĪ
ĠìłĢ ê¸°ìķķ
ãĢī ()
íĺĳ ëıĻ
êµ¬ìĿĺ ìĽĲ
ìĬ¤íİĺ ëŀĢ
ëĮĢë¶Ģë¶Ħ ìĿĺ
ĠìłĦ ëĭ´
ìłľ ìĸ´
Ġê³µ ìĪĺ
ĠìĦľ ìĤ¬
Ġíĥľ ìĥĿìĿĺ
ìĽ¨ ìĿ¼ìĬ¤
ë¯¼ì£¼ ëĭ¹ìĿĺ
åį ¿
Ġìķ¤ëĵľ ë¥ĺ
Ġìŀĥìĸ´ë²Ħ ë¦°
ĠìĿ´ ìĿ´
ëĿ¼ íĨ±
ë§Ī ê·Ģ
Ġê²½ ë³µ
Ġë°ľ ë³ĳ
ìĪ į
ĠS L
at s
ìĭ¬ ìĿĢ
25 0
ëĭ¤ íİĺìĬ¤íĬ¸
ĠìłĦ ëł¥ìĿĦ
Ġë¯¸ ëĦ¤ìĨĮíĥĢ
ìĨĮ ìĭľ
Ġëª¨ìĬµ ìĿĢ
ĠìłķìĿĺ íķľëĭ¤
Ġì§Ģêµ¬ ìĻĢ
ĠìĬ¤íĬ¸ëĿ¼ìĿ´ ì»¤
Ġê·¸ ëĵ¤ìĹĲê²Į
Ġìĭľ ìķłíĭĢ
ĠìĦł ìļ°
ê³Ħ ìķ½ìĿĦ
ì¡° ìŀĳ
ì§Ħ íĻĶ
ĠëĤ´ ëłĪìĿ´ìħĺ
ĠR adio
Ġì·¨ íķĺê³ł
ĠìĦ¬ ìĿĦ
ĠìĹŃìŀĦ íķĺê³ł
ĠìĬ¤íĬ¸ëĿ¼ìĿ´ íģ¬
íķĺ ëĦ¤ìĬ¤
Ġê°ľ ê°Ģ
Ġê°Ĳ ë§Ī
Ġíıī íĻĶë¥¼
Ġì£¼ìŀ¥ íķĺë©°
ĠìĬ¹ê°ķ ìŀ¥ìĿ´
Ġì ī´
ìļ© ìĤ¬
íĨł íħĶëłĪ
Ġìĭ¤ ë§Ŀ
le ction
Ġì§Ī ë¬¸
å± Ģ
av a
ĠìŀĲëıĻì°¨ ëıĦ
Ġê¸°ì´Ī ë¡ľ
êµ¬ ì¶ķ
Ġì§Ģ ìĤ¬
ê²© íĪ¬ê¸°
Ġì¢ħ ë§Ĳ
Ġëıħ ìĦľ
ìĶ¨ ë¡ľ
Ġì½ĺ íģ¬ë¦¬íĬ¸
Ġk t
íķľ ìĭł
ì²´ ì½Ķ
Ġíķ´ ìĿ¸
Ġë¡ľ íİĺ
íĶ¼ ìķĦìĿĺ
ĠíĨł ìĭľ
Ġì°½ ì¶ľ
æĸ Ĺ
ëį´ ë¶Ģë¥´íģ¬
ĠëĶ¸ ìĿ´ëĭ¤
Ġìŀł ìĭ¤
íĶĦë¡ľ ìĦ¸
ĠìĿ¸ê°Ħ ìĿĦ
å² ¡
ë¥´ê¸° ìĬ¤
ĠíĢĺ ë²¡
íķ´ ìĺ¨
íĳľ ê°Ģ
Ġê°Ħ ê²©ìľ¼ë¡ľ
Ġìķķ ëł¥ìĿĦ
åĢ ī
Ġê³µíľ´ ìĿ¼
ìĭľ íĤ´
ĠìĤ¬ íķĺ
Ġë¯¸ ëĦ¤
ëĭ¹ íķĺëĬĶ
Ġë°ľ ê°ģ
ìļĶ ìĭľìĿĺ
ĠëĿ¼ ìĺ¤
Ġíķ´ëĭ¹ ëĲľëĭ¤
Ġê¸Ģ ëłĮ
Ġ189 2
æ· ³
Ġ10 8
Ġë°ķ ìĿĢ
ĠL ibrary
ĠíĨł ë¦¬ëħ¸
ĠëĮĢíĨµëł¹ ê³¼
ëį´ ë§Īíģ¬
ìĤ¬íļĮ ìłģ
Ġëª¨ìĸĳ ìĿ´
æģ Ń
Ġë³´ ìĦ±
ìĹ° ì£¼
Ġêµ¬ ë¶Ģ
ĠëĮĢíķľë¯¼êµŃ ìĿĢ
æı Ĳ
ĠíĮ¨ëŁ´ ë¦¼íĶ½
b r
ì ¥
Ġìŀ İìĿĢ
Ġìľł ëħĦ
ĠëįĶ íķ´
ìķĺëĭ¤ ê³ł
Ġëĭ¬ ê±Ģ
Ġì£½ ìĸ´
Ġê·¸ê³³ ìĹĲ
i ol
Ġëĭ¤ ë¦Ħ
ë¹Ħ ì¸ł
Ġë¯¸ ì³¤ëĭ¤
Ġìĭł íĺķ
Ġìĥģ ìĤ¬
Ġíķ´ ìĥģìĹĲìĦľ
ĠìķĪ ìĹĲëĬĶ
ĠP al
Ġë©Ķ ì¹´
Ġìļ© ë³ĳ
Ġì£½ ìĺĢëĭ¤
ìĬ¤ì½Ķ ê·¸ëŀĺíĶ¼
Ġê°Ģê³ł ìĭľë§Ī
m s
ìĸ´ ì§Ģê³ł
ĠìĤ¬ ìķ¼
Ġê¸° ìĬŃ
ìĹŃ ê¹Įì§Ģ
Ġê³ł ìĽĲ
ì²´ ì½ĶìĿĺ
Ġìŀ¥ êµ°ìĿ´
Ġëĭ¬ ìĿ´
Ġë°± ìĭł
Ġì¶© ìĭ¤
Ġìłĳ ìĪĺ
ĠíĤ¬ ë¡ľë¯¸íĦ°
íĬ¹ìĪĺ íķĻê¸ī
ç Ĺ
Ġê¸° ìĤ¬ëĭ¨
ĠìĦ¸ ë¡Ģ
Ġê°ķ ìĦľ
Ġì´Ī ì½ľë¦¿
Ġíĳľ ë°©
el y
Ġê³µê°ľ íĸĪëĭ¤
Ġëĥ Ī
Ġê°ľë´ī ëĲĺìĹĪëĭ¤
ĠíĻįì½© ìĿĺ
ĠìĿ¸ëĶĶ ìķłëĤĺ
íķĺ ìŀĲëĬĶ
ĠìĿ´ ìĨ¡
ĠìĿĮë°ĺ ìľ¼ë¡ľ
ìłĦëĿ¼ ë¶ģëıĦ
ĠEd ition
ĠìľłëĭĪë²Ħ ìĦ¤
Ġìŀ¡ìķĦ ë¨¹
ëĬĶ ì§ĢëĬĶ
ìĭľ ê²½
Ġìĭľ íķ©
Ġì¤ĳ ìłĲìĿĦ
Ġê°ľ ë¥¼
ur t
Ġê¸°ë°ĺ íķľ
ĠìŀĳìĦ± íķľ
Ġë¹Ħìļ© ìĿ´
ĠíĬ¸ëŁ¼ íĶĦ
ëĿ¼ ëĿ¼
Ġë¹Ħ ìŀĲ
ĠìĺģíĻĶ ê°Ģ
Ġê¹Ģ ìłľ
íĶ¼ ê°Ģ
ëŁ° ìĿĺ
ëħ¼ ë¬¸
Ġì§ķ ë³ĳ
èª ¿
Ġë§Īë²ķ ìĤ¬
Ġìĥģê´Ģ ìĹĨìĿ´
Ġì¤ĳ ëĵ±
ì½Ķ ë§Ī
Ġê¹ İ
ĠìĺĪ ìĪĺìĿĺ
Ġìĭľê¸° ìĹĲëĬĶ
F l
Ñ ħ
ìĤ° ìĿį
Ġë°ľ ì¹¸
ë³µ ìĿĺ
íį¼ ëłĪìĿ´ìħĺ
Ġìĭľì¦Į ìĿ´ëĭ¤
ĠëĮĢíļĮ ê°Ģ
ì²ľëħĦ ë¯¼ì£¼ëĭ¹
ë¯¼ ìĨį
ìķħ ìŀ¥
Ġìļ°íģ¬ëĿ¼ìĿ´ ëĤĺìĿĺ
ĠìĤ´ìĿ¸ ìĤ¬ê±´
ìĹĲ ìĵ°
íĤ¤ ë¥¼
ìĦ¼ ìĬ¤
ìº ī
Ġëĭ¤ìĿ´ ëħ¸ìĬ¤
ew s
Ġë³ĢíĻĶ ëĬĶ
enc es
m ar
Ġìłķ ì¢ħ
Ġì§Ħíĸī íķĺëĬĶ
ĠìĦ¬ ìĿ´ëĭ¤
ĠìĹ¬ê°Ŀ ì²łëıĦê°Ģ
ìĽł ê³ł
ĠìĨĶë¡ľ ëª¬
Ġë³´ê±´ ë³µì§Ģ
ê¸° ë³ĳ
ĠìĦł ê³¼
ĠìĦ± ìĪĻ
Ġë¦¬ ì°¨ëĵľ
Ġëį° ë¯¸
ĠD ec
Ġê°ľìĿ¸ ìłģìĿ¸
ĠíĹ¬ ìĭ±
Ġë©Ķìĭľ ì§Ģ
d a
ĠëĮĢ ë§Ī
Ġì§Ģ ë¦Ħ
ĠìłĦ íķ¨
ê²Į ë¥´
ĠìľĦ íĹĮ
ë°© ì§Ģ
ì§ģ ìĹħ
ê²° êµŃ
ìłĪ ìĿĺ
Ġëĵ±ìŀ¥ íķĺìĺĢëĭ¤
Ġëĭ¤ìĿ´ ë¹Ļ
íĶĦëŀĳ íģ¬
çĽ Ľ
ĠìķĦë¬´ ê²ĥëıĦ
ëį°ìŀĲ ëĦ¤ìĿ´
M ac
Ġê°Ģ ìĭł
Ġê°Ģ ìĺ¥
ë¬´ ìĤ¬
ĠìĦłìĪĺ ìĿĺ
ĠíĺĦìŀ¬ ìĹĲ
Ġëŀ Ħ
ĠëĤĺíĥĢ ëĤ¸
ĠìĿĺë¯¸ ëĬĶ
ĠìĥĪê²¨ ì§Ħ
Ġìľł ìĺģ
ĠëıĻ êµŃëĮĢíķĻêµĲ
ĠëıĦ ë´ī
ĠC ambridge
ĠíĮĮ ëĤĺ
ĠW il
éĿ ĸ
Ġê²¬ ìĿ¸
Ġê°ĳ ìĺ·
éĤ ĳ
ì§ĦíĿ¥ ìĽĲ
Ġë¶Ģëĵľ ëŁ¬ìļ´
ëĦ¤íĭ° ì»·
Ġë¶Ģ ìĤ¬
Ġìµľ ìłķ
ì§Ī ëŁ¬
Ġë£¨ íĤ¤
Ġìĺģíĸ¥ ìĿ´
Ġìľłëŀĺ ëĲľ
Ġì£¼ëª© íķł
Ġì¤ĳë°ĺ ìĹĲ
ĠëĵĿíĳľ ìľ¨ìĿĦ
ëħ ľ
ĠìĦ± ìĤ¬
íĨµ ìĿĺ
Ġê¸Ī íĨł
Ġê²°íĺ¼ íķĺìĺĢëĭ¤
ì§ĢìĹŃ ìĹĲ
ĠìĶ Į
éĢ £
ê·¸ë£¹ ìĿĺ
Ġë§Įì¡± ìĭľíĤ¤ëĬĶ
ç® ¡
u it
Ġìłķ íķĺëĬĶ
Ġìłģ ì§Ģ
Ġìĵ° ì´¨
Ġì¹¨ ë¬µ
ìĦ¬ ìľł
our ce
Ġëª¬ íħĮëĦ¤
Ġì¶ĺ ì¶Ķ
ëłĪ ëĶĶ
at ing
Ġ11 1
ìłĪ ìĿ´
Ġì¼Ģ ìŀĦë¸Įë¦¬ì§Ģ
Ġìłľëª© ìĿĢ
ìŀĲ ëıĦ
ĠíĶ¼ ìĺ¤
ĠìĿ´ìĻĢ íħĮ
è Ĵ
Ġìľł íķĻìĿĦ
Ġìĥģ ì²ĺë¥¼
ìļ´ ìłĦ
Ġìŀħ ê°ģ
ĠëĤ¨ìŀĲ ìĿĺ
ĠêµŃìłľ ìłģ
ë§Ĳ ëł¤
Ġëª©ë¡Ŀ ìĹĲ
Ġì§Ħíĸī íĸĪëĭ¤
Ġë´ī ìķĪ
ĠêµŃë¯¼ íĪ¬íĳľ
Ġê¸Ģë¡ľë¸Į ìĥģ
Ġìł Ĭ
Ġíı¬ ë¥´íĪ¬
ĠT ri
ì¶ķ ìĤ°
ĠìĨĲ ìĭ¤
Ġê³łëł¤ íķĺìĹ¬
éĽ ¨
ĠìĹĳìĬ¤ ë°ķìĬ¤
ê³µ ìłķ
ĠìĦľ ë¯¼
Ġëĭ¹ ì§Ħ
ë°± ìłľ
Ġë¬¸íĻĶ ê°Ģ
ĠìĭľìĬ¤íħľ ìĹĲ
ê°ģ ë³¸
ĠìľĦì¹ĺ íķĺëĬĶ
ì¦Ŀ ìĿĢ
ur ing
ëĨ Ģë¡ľ
ĠìĻĢ ìĿ¸
G S
ëĵ¤ ëŁ¬
ĠìŀĲ ë¦¿
íĨł ë¡ľ
ì½Ķ ë¥¼
ì»¨ ëĮĢ
ç ª
ëĲĺ ë¯Ģë¡ľ
ìĹ° ìĪĺìĽĲ
ĠìĿĺ ë¬¸
ìĭ¤ ìĹħ
ĠF ilm
ĠìļĶ ìĿ¸
íķĢ ëŀĢëĵľ
Ġìĭ¤ìĭľ íķĺê³ł
Ġê¹Į ëĭŃ
ìĿ¸ ìĤ°
ìĺģ ëıĻ
ĠìĦ¸ ìĥģìĿĺ
ĠS ol
ĠìĥĿ ì²´
Ġì¶Ķ ë¦¬
ãĤ º
ĠíĹĪ ê°Ģë¥¼
æĶ ¯
Ġêµ¬ì¶ķ íķ¨
Ġê³łìľł ìĿĺ
Ġëĺĳ ê°ĻìĿĢ
b a
p p
é ı
ĠíĽĦ ìŀĳ
Ġëħ¸ ìĽĲ
ëłĪìĿ´ ìĬ¤
Ġìĸĳ ìľ¡
ĠíļĮ íĶ¼
ĠìĨĲ ê¼½
Ġìĭľë¦¬ì¦Ī ëĬĶ
ĠìĿ´ë£¨ìĸ´ ì§Ģì§Ģ
ĠëıĻìĿ¼ íķĺê²Į
éŃ ļ
ìĿ´ ëŁ°
Ġëĭ ¥
íĺĦ ìĪĺ
Ġìļ©ìĸ´ ìĿ´ëĭ¤
Ã §
êµ° ìĿ¸
Ġêµ¬ íķĺê¸°
íĸī ìĿĺ
Ġìĥģ ê²½
ë²ķ ìĥģ
ĠP at
ìłĢ ìŀĳ
om a
ĠìĿ¼ìĸ´ ëĤ¬
ĠìĦ¬ ìľ¼ë¡ľ
Ġn ot
Ġìłľíķľ ëĲľ
Ð¾ ÑĢ
ĠíļĮê³ł ë¡Ŀ
ĠìĤ¬ ìĿ¸
ìĥģ íĴĪ
re y
ãĤ ģ
ëĸ ¨
Ġì§Ħì¶ľ íķľ
Ġh ist
Ġê³µ ìĬµ
Ġìľł ìĿĺ
Ġì¶Ķ ìĦľ
ä» ²
ĠìłľêµŃ ìĹĲ
ìĨĶ ë¦°
ëģĦ ëŁ¬
ĠìĭľìĻ¸ ë²ĦìĬ¤
ìĿ¼ ìļĶìĿ¼
Ġë°ķ íĥľ
Ġë£¨ ëıĮíĶĦ
ìĻĶ ëįĺ
Ġë¸Įëŀĺ ëĵľ
ìĿ´ ë²Ī
íģ¬ íĬ¸
ĠìĬ¤ ìĻĪ
íĭ° ê°Ģ
Ġê²° ë¡łìĿĦ
ì²Ń ìĤ¬
Ġëªħ ìĤ¬
Ġê´ĳ íķĻ
ĠFC ë¡ľ
åĽ ł
Ġê°ĢìĻĢ ìĤ¬íĤ¤
Ġê³µ ë°©
ì§Ħ ìĺģ
íĺ¸ ëĮĢ
ĠS an
Ġë¬´ íķ¨ë§Ī
ĠíķĻ ê¸ī
Ġì§Ģìłķ íķĺìĹ¬
ì© Ķ
ĠíĽĦìŀĦ ìľ¼ë¡ľ
Ġì¤Ħ ìĹ¬
Ġëį°ìĿ´ ë¸Į
ĠìĤ¬ìĹħ ìĹĲ
Ġê²© íķĺ
ĠìŀĳìĹħ ìĹĲ
Ġë°Ķë¥´ ìĥ¤ë°Ķ
íħį ìĬ¤
ĠMan ag
ĠìĤ¬ìļ© ëĲĺì§Ģ
ic ation
ìľ¡ ìĥģ
Ġë©Ķ ëī´
ì±ħ ìľ¼ë¡ľ
ìĿ´ íĺĦ
ĠêµĲ ìĤ¬ë¡ľ
Ġìŀ¥ ëįķ
ë©Ķ íĬ¸ë¡ľ
ĠìĹĨ ìĹĪ
íĿ Ļ
Ġì°¨ ìļ©
ĠëıĦìĭľ ìĹĲ
Ġìľ¤ ì¢ħ
ĠìĽ¨ ìĿ¸
ĠìĿĳ ìĭľ
Ġìĭ¸ ìĽĢìĿĦ
Ġì¡°ìķ½ ìĹĲ
Ġìĭľ íĺ¸ë¥¼
Ġì§Ģ íıī
Ġê³ł íĬ¸
ĠíĽĦ ìĺĪ
ê°ķ ëıĦ
ĠëķĮë¬¸ ìĿ´ëĿ¼ê³ł
ĠìķĦìĿ´ ê°Ģ
ĠìĹŃìĤ¬ ìĻĢ
ìķĶ ìĿĺ
íĻķ ìĿ¸
Ġê³ł ëª¨
íĿ °
ĠìĹ´ì°¨ ìĿĺ
1 14
ì Ń
ìĿ¸ ëĭ¹
ìķĪ ìľ¼ë¡ľ
Ġì¹´ ì¹´ìĺ¤
ĠíĥĢ ëĭ¹
Ġë°ľê²¬ íķĺìĺĢëĭ¤
ëĭĮ ëĭ¤
ĠìĦ¤ëªħ íķł
ĠëĵĿíĳľ ìľ¨
é ¬
Ġë¶Ģ ëıĦ
ĠS outh
ëł¸ ì§Ģë§Į
Ġì¿ł ìĽ¨ìĿ´íĬ¸
Ġë°ĸ ìĹĲëıĦ
ĠNew s
ĠìĪĺìĿµ ìĿĦ
Ġíķ´ë°Ģ íĦ´
Ġìľł ìłķ
ĠìĦ¸ ê¸°
Ġìŀħ ìĥģ
ìĻĦ ìłĦ
ĠëĮĢì¤ĳ êµĲíĨµ
ĠSh ow
Ġìĸ ķ
ë£¨ ë¸Į
ì¤ĳ ëŁī
Ġìĸ´ ìĹħ
Ġì¡° ìłķìĹĲ
Ġìŀ¥ ë¹Ħë¥¼
Ġê¹Ģ ìĦĿ
ì²ľ ë¬¸
ĠíħĮ ë¦¬
ì¸µ ìĹĲìĦľ
ĠêµĲìľ¡ ê³¼
âĢĿ ,
ĠìķĮëł¤ìł¸ ìŀĪëĭ¤
Ġë¯¿ ëĬĶ
ĠìĪĺ ëł¹
Ġì§Ģ ëıĦë¥¼
ĠìłĦ ë³µ
Ġíķľ ìĥģ
ëĭ¨ ë°±ì§Ī
ĠíĮĮ ëıĻ
it or
ì²ł ìĿĢ
ĠìłĦë°ĺ ìĹĲ
Ġë²½ ëıĮ
ĠëĭĪì½ľ ëĿ¼ìĬ¤
ê°ĢëĬ¥ íķľ
Ġ7 08
ĠìłĢ ì£¼
Ġíŀĺ ìľ¼ë¡ľ
ì·¨ ë¥¼
ĵ Į
ìĥ µ
ìĦ± ë¦¬
Ġë°° ê°Ģ
es c
ĠìĻķ ìĿĦ
Ġëĵ¤ ìĿ´
ìĪľ ì²ľ
Ġì°¨ì§Ģ íķĺë©°
ì½ĺ íħĲì¸ł
ĠìĦ±ê²© ìľ¼ë¡ľ
âĢĶ ||
i ence
Æ ¡
Ġê°ķ ê°Ħ
ì²ĺ ë¶Ħ
Ġ|| âĢĶ||
ë§ģ ìĿĢ
Ġì»´ ë°±
ĠìĤ°ìĹħ ìĿĺ
Ġíı¬ê¸° íķĺê³ł
Ġëĭ® ìĿĢ
Ġìĺģëĵ± íı¬
é ĳ
ì¹ĺ ì¹´
Ġë¯¸ ì£¼ë¦¬
as c
Ġë§ī ìĭľ
Ġê¶ģ ìłķ
ĠìłĲëł¹ íķľ
çĪ ¶
amil y
A KB
ĠM r
ì¿ł ë§Ī
Ġë½ĳ ìķĦ
íķĺ ìĻĢ
ëł Ĳë¦¬
ìĹ¬ ëªħìĿĺ
Ġë³´ íĹ¤
ë§¤ ìĤ¬ì¶ĶìĦ¸ì¸ł
ìĭ¬ ìĥģìĨĮ
ê·¹ ëĭ¨
Ġê¸¸ ìĹĲ
Ġê³µê²© ìľ¼ë¡ľ
ug ust
ĠBr it
Y P
ì ¨
ìŀĲ ìłĦ
Ġíķľ ë¦¼
ĠëıĻ ëł¥
Ġê²ĥ ìŀħëĭĪëĭ¤
ê±° ë¦¬ê°Ģ
ãĥ ĸ
ĠìķĦìĿ´ ì¦Ī
ëħĦëĮĢ ìĻĢ
Ġë°ĶìĿ´ íĤ¹
Ġìļ°ë£¨ê³¼ ìĿ´
ìĿ´ ìĬ¬ëŀĮ
ìĽĲ ì£¼
Ġê³ł ê°ľ
ëĬ¥ íķľ
Ġê¶Į ìľł
Ġê³Ħíļį ìĿ´ëĭ¤
ĠíķĻìĥĿ ëĵ¤ìĿĢ
sy ch
ê°Ģ ìĿĦ
Ġíķľ ì¸µ
Ġë³´ ë¦¬
ĠìķĮ ìĿĦ
Ġê³Ħ ìĪĺ
ĠíĶ¼ ìħĶ
ìłĢ ëĬĶ
av en
Ġ189 1
Ġìĭľíĭ° ì¦Į
ĠëłĮ ì¦Ī
ĠìĹ´ìĭ¬ íŀĪ
y r
íķĺ ë²Ħëĵľ
Ġê³µ ì²ľ
ĠìŀĲ ê¸°ìĿĺ
Ġìĺ¤ ëĿ½
Ġìĥģ íĸī
ìļ´ íķŃ
ĠìĻ¸ ìĹĲëĬĶ
Ġìŀħ ìŀ¥ìĹĲìĦľ
ĠíĻķ ìĭł
ĠíĻķìĭ¤ íķľ
Ġì§ĢëĥĪ ê³ł
C P
Ġ %
ĠìķĦ ìĬ¤ì¹´
ĠìĬ¤ íĨ°
ìľł ìłĦ
ĠìĦłìĪĺ ëĵ¤ìĿĦ
ĠêµĲ ìĽĲ
Ġë§Ĳ ê¹Įì§Ģ
ĠëĿ¼ìĿ´ ëįĶ
ì¹ľìĿ¼ ìĿ¸ëªħìĤ¬ìłĦ
Ġëĭ¤ì¹´ëĿ¼ ì¦Īì¹´
L D
Ġìľł ìŀ¬
ĠìĥĿ ëª°ëħĦ
Ġê²½ê¸° ë¡ľ
ìĹĶ ì§Ħ
Ġì¢ħêµĲ ê°ľíĺģ
Ġë¬´ ìŀĳ
Ġíĥľ êµŃìĿĺ
ĠìĤ´ ëł¤
Ġë¹Ħë°Ģ ë¦¬ìĹĲ
Ġì£¼ ë¨¸ëĭĪ
ĠëĤĺ ëŀĢíŀĪ
ĠìĦłìĪĺ ëĵ¤
Ġë°ĺ ìłĦ
íĥľ ì¢ħ
ĠB M
Ġìŀĺ ëĿ¼
Ġê²½ìĥģ ëıĦ
Ġê°Ģë¥´ ìĭľìķĦ
è© ¦
ĠíĽĦì¿łìĺ¤ì¹´ íĺĦ
1 18
à ½
ĠìłĦ ì£¼ìĭľ
Ġë¶Ī ëŁī
ĠD iv
Ġë²Ī ìĹĲ
ë°Ģ íķĺê²Į
Ġê´Ģê³Ħ ìĹĨìĿ´
Ġëħ¸ìĦł ìľ¼ë¡ľ
Ġë¹Ī ë²Ī
ĠìĹ°ê·¹ ìĺģíĻĶ
Ġíļ¨ê³¼ ìłģìľ¼ë¡ľ
Ġë°Ķëĭ¤ ìĿĺ
ë¦¬ ë§Ī
ë§Į ìŀ¥
íĸĪ ìĿĮìĿĦ
Ġì°¨ ë¥¼
ĠìĤ° íķĺìĿĺ
Ġëª¨ëĳĲ ë¥¼
ĠíĺķìĦ± íķĺëĬĶ
Ġì§Ģêµ¬ ìĹĲ
Ġëĺĳ ê°ĻìĿ´
E n
Ġëĭ¤ ìĵ°
Ġì½Ķ ì¹´
Ġë°ķ íķ´
Ġì§Ī ë¬¸ìĹĲ
Ġê¸°ëıħêµĲ ìĿĺ
ĠìĿ½ ìĸ´
ĠìĦľ ì§Ģ
ĠëĤ¨ ë§¤
Ġ10 4
ì£¼ìĿĺ ê°Ģ
Ġíģ´ ëŁ¬
Ġì¿ ¡
ĠëĮĢíĳľ ìłģ
Ġëĭ´ëĭ¹ íķľëĭ¤
è§ Ĵ
Ġìľłê²© ìĪĺ
ìĭľ ê³Ħ
Ġíķĺ ìĹĲìĦľ
Ġì£¼ ìŀĲ
ĠíĶĦëŀĳìĬ¤ ìĹĲ
ĠìľĪ ëıĦ
ê¸°ëħĲ ìĿ¼
ëķ ĥì¥Ĳ
ĠíĥĢ ë§Ī
ìĤ¬ìĿ´ íģ´
ult ure
Ġë¶ĻìĹ¬ ì§Ħ
ĠíĮ¨ëŁ¬ ëĶĶ
ĠìĦ¸ë¦¬ ìĿ´
Ġìłķ ìĦľ
ë¹Ħ íģ¬
Ġê³ł ìĦ±êµ°
ĠìĪĺíĸī íķľëĭ¤
Ġ188 3
ëĤ´ìļ© ì£¼
ĠìĿ´ ìĸĳ
Ġëħ¸ ë°Ķ
ĠM ichael
ĠL OVE
ĠìĿĮìķħ ìĿĢ
ĠìĽĮ ì»¤
ĠëĮĢìĭł íķ´
Ġì°¨ë¡Ģ ìĿĺ
ĠBl ue
´ ëĭ¤
íķĺ ëıĻ
ëĮĢ ìĬ¹
Ġì§Ģ ëĤĺëĬĶ
ĠíĽĦ ë¯¸
Ġíķ´ ëªħ
Ġíı¬ ìĿ¸
Ġ16 00
Ġê²Ģ ê±°
Ġëī´ìļķ ìĿĺ
íĴĢ ìĿ´
ĠìĿ´ ëıĦ
Ġê°Ģ ìĤ¬ë¥¼
ë³´ ì¡°
ĠE r
ĠëĿ¼ìĿ´ ëĦĪ
ĠíĺķìĦ± íķĺê³ł
Ġ188 6
íĭ°ìķĦ ê³ł
T HE
Ġë°° ìĨį
Ġëħ¸ ë³´
Ġê²½ê¸° ìĿĺ
ĠìľĦìĽĲ íļĮìĿĺ
Ġì¹ł ê³¡
ish ing
ĠíĶĦë¡ľê·¸ëŀĺ ë¨¸
Ġìį ¸
Ġíģ´ëłĪ ë©ĺ
Ġìĺ¤ íķ´
íĨµ ìĿ´
ê°Ĳ ìĿĢ
ĠìĿ´ë£¨ ë©°
Ġê²¬ ìłľ
ĠíĽĦì¿ł ìĭľë§ĪíĺĦ
ĠìĿ´ ë²Ķ
ë§Į ì£¼
ë¬´ ì§Ģ
ì¤ĳ ìĦ¸
Ġìĺ¬ ë°Ķë¥¸
Ġê¸°ë¡Ŀ ìľ¼ë¡ľ
ìĿµ ìĬ¤íĶ¼
Ġê¸°ì¡´ ìĹĲ
ĠìŀĳìĹħ ìĿ´
ĠëĦ· ì§¸
y g
ê³ §
ĠìĦł ëıĻ
Ġë¯¸ ìĬ¤ì½Ķë¦¬ìķĦ
Ġë§Ī ì¹´ìĺ¤
ĠíĽĦ ë£¨
ĠS am
ì¤Ģ ìĿ´
Ġë°©ìĨ¡ ëĲĺëĬĶ
Ġë°©ìĨ¡ ëĲĺìĹĪëįĺ
Ġë§Īë¥´ íĭ´
i as
ëĿ¼ ë°°
ìĻĢ ëıĦ
Ġíķľ íģĲ
ĠëĤĺ ìļ°
ĠíĹ Ľ
ĠW est
ĠíķĻìĥĿ ëĵ¤ìĿĺ
Ġê³łëĵ±íķĻêµĲ ë¥¼
Ġë¶Ħë¦¬ ëĲľ
ĠìĦ¸íı¬ ìĿĺ
Ġê³łêµ¬ëł¤ ìĿĺ
ĠëĳĺëŁ¬ìĭ¸ ìĹ¬
Ġìłľ ì¹ĺê³ł
ĠìĿ¼ ê°Ħ
ĠìĿĺ ìķ½íĴĪ
ĠíĶĦ íĨ¨ëłĪë§ĪìĿ´
ìĬ¹ ìľ¼ë¡ľ
Ġëį° ëª¨
Ġë§ī ìĬ¤
ĠëĦĺ ê²Į
ëħ¸ëıĻ ì¡°íķ©
èĻ İ
ĠìĿ´ ìĸ¸
ĠìĿ¸ ê³¼
Ġíķ´ ìłĦ
íħĮ ëĿ¼
íĻĺ ìĿ´
id er
Ġê·¸ëħĢ ìĹĲê²Į
ĠìľĮ ë¦¬
Ġë§º ìĿĢ
ĠíĻĶìŀ¥ ìĭ¤
F or
ìĿ´ ëķĮ
ìĬ¤ ì¹´ìĿ´
ëıĻ ëĦ¤
Ġê³µ íĳľ
ĠìľĦ ì¦Ī
Ġêµ¬ ìĿĺ
ĠìĦ¸ íĤ¤
ìĻķ íĽĦìĿĺ
ìķĮ ë°Ķ
Ġìķķ ëł¥
ëį°ìĿ´ ë¹Ħëĵľ
Ġëį¸ íĥĢ
Ġë¬¸ìĭł ìĿ´ëĭ¤
ĠìĿ´ íĺľ
Ġì¡° êµŃ
ì¶ľ ìĨĮ
ë°Ľ ê²Į
Ġf eat
ĠìĥĿê°ģ ìĿ´
ĠìŀĲë¬¸ ìľĦìĽĲ
ĠìĿ´ ê²¨
ĠíĮĮ ë²Į
es ter
Ġê°Ĳ ìĭ¸
ĠëĶĶ íĬ¸ë¡ľìĿ´íĬ¸
ĠìĦ¤ì¹ĺ íķĺìĺĢëĭ¤
13 0
ĠìłĪ ì°¨ë¥¼
Ġë¯¸ìĭľ ìĭľíĶ¼
N G
ìĿĺ ìĹĲ
ë¹Ħ ë¥´
ĠëıĻ ìĿ¸
at o
Ġìĺ¨ ëıĦê°Ģ
Ġë°Ľìķĺëĭ¤ ê³ł
Ġêµ¬ëĭ¨ ìĿ´
ç³ »
ĠëĤ¨ ìļ°ì¡°ìĹ°ìĥģ
íĭ° ì¦Į
íĺķ ìĿ¸
ĠëıĦìĭľ ìĹĲìĦľ
ìĺ¬ ë¦¬
Ġê²½ìłľ ìĿĺ
ĠìĪ¨ ìĸ´
åİ ¿
ìºł íĶĦ
Ġë¯¸ìĵ° ë¹Ħìĭľ
evelop ment
ìĿ´ ë°ĶëĿ¼íĤ¤
ìĭľ ì¦Īìĺ¤ì¹´
Ġë§Ī ì§Ģ
Ġíı¬ ë¡ľë¡ľ
it ies
ĠíķĦ íĦ°
Ġë°©ë²ķ ìĹĲ
Ġê²½ì°° ìĿ´
ç© ¶
Ġì ¾°ë¥¸
ĠëıĻ ìľĦ
Ġë¡ľ ë¹Ħ
Ġìĭ¤ ë¬´
Ġë°ķ ìĽĲ
ì²ł íķĻìŀĲ
ìŀĪ ê²Į
Un ivers
ĠëĮĢ ì¢ħ
ìłĦ íĻĶ
Ġê°Ģ ëĭ¤
ë§Ī ì¼ĵ
Ġì¤ĳ ìĿ¼
ê³µ ëĮĢ
Ġìŀ¥ ìĽĲ
Ġëī´ ìłĢì§Ģ
ëĪĦ ìĬ¤ìĿĺ
Ġì¤ĳ ìĥĿ
Ġê²½ ìĿĺ
Ġë¯¸ ìĨĮ
ê·¸ ë§Ī
Ġìĭł ìĺģ
ëĤ¨ ë§¤
ìłģìľ¼ë¡ľ ëıĦ
ìĺ¨ ëĿ¼ìĿ¸
ill a
Ġì¶ľíĮĲ ëĲĺìĹĪëĭ¤
Ġì£¼ ê³ĦìĹ´
ĠìľĦ ì´ī
Ġìĭł ìĽĲ
ë²Ī ê¸¸
ĠD isc
Ġê·¸ëŁ¬ ëįĺ
ĠìĹ´ë¦° ëĭ¤
Ġì·¨ìŀĦ íĸĪëĭ¤
ĠìĪĺë¡Ŀ ëĲĺìĹĪëĭ¤
ĠìķĪìłĦ íķľ
ëĩ °
ĠRo ad
H S
ìłģ ìĹĲ
Ġíķĺ ëĭĪ
ë°Ķ ë¸Į
Ġë°Ķ ìĬ¤
Ġì´Ŀ íļĮ
ĠìĿĮë°ĺ ìĹĲ
ĠìĤ¬ê±´ ê³¼
Ġê²°ìłķ ìłĦ
ĠìĹ°ê²° ëĲĺëĬĶ
Ġê°Ģ ìĥģìĿĺ
ìĦł ìĿ´ëĭ¤
Ġìĺģ ëįķ
Ġë¹Ħ íĥĢë¯¼
Ġíķ´ ë¶Ģ
ì¤ĳ ë¶Ģ
Ġë© į
Ġë¬´ ëĮĢë¡ľ
Ġê²½ì°° ìĿĺ
ìķĦë©Ķë¦¬ì¹´ ìĿĺ
ĠìĦŃ ìłķ
Ġë°Ķê¿ Ģ
ĠíĥĲíĹĺ ê°Ģ
ĠìĬ¤íħ Ŀ
w are
ĠìĦľ êµ¬ìĿĺ
ì¤ĳ ì¢ħ
ìĨį ìĹĲìĦľ
ĠìĤ¬ëŀĮ ëĵ¤ê³¼
ãĥ ¡
ĠìĥĪ ìłķì¹ĺ
ì į¼
Ġê ¶
ê¸° ìķĦ
Ġìĭľ ëĬĶ
Ġê°Ģ ê³µìĿĺ
Ġê³µ ìĿĺ
Ġë¦¬ ìĺ¹
Ġì¹´ íĥĢë¥´
Ġíģ¬ ë¦¬ìĹĲìĿ´
ĠJ r
ĠìĹ¬ìĦ± ìĿĢ
ĠìĿ´ìĹĲ ìķ¼
Ġê²½ì°° ê´Ģ
Ġìĸ¸ìĸ´ ëĬĶ
éĽ »
Ġíĥľìĸĳ ìĿĦ
ìŀīê¸Ģëŀľëĵľ ê³Ħ
Ġ188 7
Ġ us
ê¸° ìĭľ
ĠíħĮ ë¥´
ĠìķĦëĭĪ ëĿ¼ëĬĶ
Ġë¸Ķ ëŁ¬ëĵľ
Ġë¶ĦìĦĿ ìĿĦ
Ġë§Īëĭ¤ ê°ĢìĬ¤ì¹´
Ġìłľ ìĤ¬
Ġì¡° ë¡Ģ
ĠìĹ° ìĨĮ
ëĤ¨ ìĿĺ
íĶ¼ ìĺ¤
ĠìĹĨ ëįĺ
å¤ ľ
êµŃë¯¼ íļĮìĿĺ
OU R
ì¹´ ìĹĲ
en z
Ġë§Ĳ ë¦¬
Ġê°Ħ ìĭł
ë¥´ê²Į ìĿ´
p e
w idth
ëĵľ ìĹĲìĦľ
ìļ´ ìĿ´
Ġë³ĳ ìĿĦ
Ġ188 2
æ¾ ¤
Ġìłķ ê¶ĮìĿĺ
ĠêµŃ ê¸°
Ġíķ´ ìĿĺ
Ġë§Į ë£Į
ĠìĤ° íķĺìĹĲ
ĠëĤĺìĺ¤ ê³ł
çļĩ å¸Ŀ
íķ´ ìĻ¸
ĠëĮĢ íĻĶë¥¼
Ġìĺģ ìĤ°
ĠìŀĲ ìŀĳ
ìĨĮ ìľł
Ġìĺ¤ ë¯¸
ĠìĬ¤ ì¿¼
Ġìŀ¥ ìĤ¬
Ġê¸Ī ìłķ
Ġë³Ħ ìĿĢ
Ġì¹Ń íĺ¸
ph a
Ġê°Ģê¹Ŀ ëĭ¤
Ġë§ĪìĹĲ ëĭ¤
ĠìĿ´ ëĿ¼
ĠìķĦ ë©Ķ
ëªħ ëł¹
Ġì¡° ëĤĺ
Ġì¶ľ ìĦĿ
al ity
ìķĺ ê¸°
ĠëĿ¼ ì¿ł
ĠD igital
íĮĢ ìĹĲ
ë¶Ī ìĿĺ
Ġìķ¼êµ¬ ëĭ¨
ëª¨ ëĳĲ
ìĹ´ ë¦°
ì¶Ķ ë¦¬
ë¬¸íĻĶ ë°©ìĨ¡ìĿĺ
Ġê¸´ ìŀ¥
ëħ¹ ìĿĮ
ĠOx ford
Ġíķĺ ì½Ķ
íĨµ ì¹ĺ
íĮĮ ìĬ¤
ĠìĥĿ ë¦¬íķĻ
Ġì½Ķ ìļ°
ĠìĦ¤ë¦½ ëĲĺìĹĪìľ¼ë©°
Ġë³Ģê²½ íĸĪëĭ¤
ĠëŁ¬ìĭľìķĦ ìĿ¸
Ġë§Īë¥´ ìĦ¸
ĠíĶĮëŀĺ íĭ°ëĦĺ
Â ²
Ġìľł êµĲ
ë³´ ìĻĢ
ê·¸ ëłĩ
Ġì²Ń ìĤ°
åı ĸ
ĠPar is
ĠìĬ¤íĨ¡ íĻĢë¦Ħ
ìĿ¼ ëĿ¼
ìŀĲ ìĿ´ë©°
Ġìłķ ìŀĳ
ĠìĹ° ë´ī
íĨł ì§Ģ
ë²ķ ì¹Ļ
Ġê¸°ê°Ħ ìĿĢ
ĠìĿ´ ìĬ¤íĥĦ
ìłĦ ëĭ¬
ëıĻ ìĤ°
ê²½ ìĿ¸
ë³¸ ìľ¼ë¡ľ
Ġìŀ¬ íļĮ
ĠD is
Ġê¸Ģ ê¼´
ĠìĿ½ ê³ł
é¶ ´
ë¡ľ íı°
ĠëıĻ ìłĲ
êµ° ìĿ´ëĭ¤
Ġì¡° íļĮ
ì°¨ ìĻĢ
íĭ° ìĭľ
Ġì¡°ì§Ģ íĶĦ
ĠRev iew
íķľ ê¸Ģ
íĶĦ íĦ°
ĠìķĮ ë¦¬ëĬĶ
ĠĠĠĠ ĠĠ
ĠìŀĲìľł ë¯¼ì£¼ëĭ¹
Ġíĺ¼ ìĦ±
G l
Ġìĺģ ìŀ¥
ĠìŀĲ ëŀĲëĭ¤
ĠìĹ° ëıĻ
ëĭ¨ ì¡°
Ġë²Ħ ëĵľ
Ġê°Ģì¡± ìĿĦ
Ġìłľìĭľ íķľ
ific ation
ĠìĿ¼ ëŀĮ
ìľĦ ë°ĺ
ĠìĹ¬ ìĦ±ìĿĦ
ë¹Į ëĿ¼ìĿ´
Ġê·¼ë¬´ íĸĪëĭ¤
Ġê¸°ìĸµ ìĿĦ
ĠìĪĺíķĦ ê°Ģ
ìĪĺ ìŀħ
ìļ° ë¡ľ
Ġìĥ Ĳ
Ġëĭ¤ êµŃìłģ
Ġë³µ ìĭ±
ĠìĿĢ íĺľ
ĠëĵľëŁ¬ ëĤ¬ëĭ¤
Ã¼ r
ĠìĹ° ë§Ĳ
ë¶Ħ ê¸°
íĬ¹ ê¸ī
ĠìĭľíĹĺ ìĿĦ
Ġìŀ¬íĮĲ ìĿĦ
O ST
Ġìĭľ ìŀ¥ìĿĺ
ë©Ķ íĬ¸
Ġê°Ħ íĨł
ìĭ± ê°Ģ
Ġë¯¸ìĤ¬ ìĿ¼ìĿĦ
Ġíĥģ ìĽĶ
Ġëªħëªħ ëĲĺìĹĪëĭ¤
ì Ńī
ìĦ¸ ê¶Į
ĠëıĦ ìĻĶëĭ¤
ìĻķ êµŃ
Ġê´ĳ ë¬¼
ĠìĤ¬íļĮ ë³µì§Ģ
ĠìĥĿë¬¼ íķĻìłģ
ĠìŀĲìĦ¸ íŀĪ
íĮĮìļ¸ ë£¨
A ìĿĺ
Ġë¯¸ ìĦ¸
ĠíĮ ¡
ê´Ģ ì¸¡
an i
ë¶Ħ ìĹ´
ĠF est
ìłĢ ëĦĲ
Ġê°ľíĨµ íķľ
Ġíķ©ë³ĳ íķĺìĹ¬
ç¿ ¼
ĠìĤ¬íĹĮ ë¶Ģ
B r
k o
ĠëıĦ ìķ¼ë§Ī
Ġë°ľ ëł¹
ĠìĤ Ĳ
ĠP R
Ġì¶ľìĭł ìĿ´ë©°
Ġíİĺ ëĭĪ
ĠíĶĦëŀĳìĬ¤ ê°Ģ
ĠëĮĢìłĦ ìĿ´
ĠëĦĪ ë¨¸
ë§ µ
ëĵ¤ ë³´ëĭ¤
Ġìĭľ ì´Ī
ĠìĬ¤ ì¦Ī
íĺķ ìĭĿ
ìĬ¤íĬ¸ ë¦¼
ê²© ìĿĺ
ĠìķĪ ëıĦ
ëħĢ ìĿĺ
Ġì±Ħ ì·¨
um ber
Ġc m
ë²¨ íĬ¸
ìħĢ ëŁ¬
ĠìĺģìĽĲ íŀĪ
Ġ are
ĠìĪĺ ìĹ¼
Ġë¯¸ ëĿ¼
Ġê´Ģ ìĦ¸
ì§Ī ëĿ¼
ĠëĽ°ìĸ´ ëĤĺ
ĠíĽĦìĨį ìŀĳ
ìĽĲ ìłľ
ĠìĿĺ ë¥ĺ
Ġë°ľ ëıĻ
ë°Ķ ìĬ¤íĭ°
Ġë¦¬ ë§Į
ĠìºĲ ëħ¼
ĠìĦ¤ì¹ĺ íķĺìĹ¬
Ġê·¸ëłĩ ì§Ģë§Į
Ġê³łíĸ¥ ìĿ¸
ëıĻ ê³Ħ
ĠìłĦ ìĤ°
ĠìĦľ ìĤ°
Ġì¹ľêµ¬ ìĿ¸
ëĭ· ì»´
ì§Ģ ì§Ģë§Į
ĠìĤ¬ ë¦¬
ĠìķĦ íĶĦ
ìŀ¬ ë£Į
18 98
ĠìĦĿ ê°Ģ
Ġì£¼ìŀ¥ ìĹĲ
íĶ¼ìķĦ ëħ¸
åħ¬ ä¸»
ç Ģ
ìĺģ íĸ¥
ìļ´ ìļ©
ë¶Ħ ìŀĲ
ĠD el
ĠìľĦì¹ĺ ë¡ľ
ou ble
ĠëĲĺìĸ´ ìŀĪëĭ¤
ĠìĶ¨ ìķĹ
Ġæ ķħ
ĠìĦ±ê²© ìĿĺ
Ġë Ľ
ëıĦ ë¶Ģ
an th
ĠëĤ¨ ê²Į
ĠP ublic
ĠíĻį ìĪĺ
ìľ¤ ë¦¬
éĤ Ĭ
ìłķ íĻĶ
ĠìĿ¼ íĻĶ
ĠëıĦ ì¹´ìĿ´ëıĦ
Ġê³ł ëĭ¤
ë²Ħ ìĿĺ
Ġì§Ħ ë£Į
Ġë³¸ ìĿ¸ìĿĢ
íķĦ ë¦Ħ
Ġì¦īìľĦ íķľ
Ġì§ĢíĤ¤ ê¸°
ì©Į ëĳ¥
S E
k i
ìĪĺ ìĹ¼
ìĥģ ê³µ
ìĦł ìĤ¬
Ġì£¼ ë¨¹
er ry
ĠíĺĦ íĸī
ì²Ń ìľ¼ë¡ľ
18 94
Ġë°ľê²¬ ëĲĺìĸ´
ĠíķĻìĥĿ ëĵ¤ìĿĦ
Ġê¸°ê°Ħ ìĿ´
Ġìĭ¸ ìĽĮ
ĠëĮĢì²´ ëĲĺìĹĪëĭ¤
Ġëį¸ ëĿ¼
ĠìĤ¬ ê°Ħ
Ġìĭł ê¸°
íĨł ëģ¼
Ġìĥģ ë¶Ģ
íĮĮ ìĿ¼ëŁ¬
ĠìķĪ ê²½
Ġë³µ ìļ©
Ġê·Ģ ìĹ¬
Ġê³Ħìķ½ ìĿ´
Ġì½ĶìĬ¤íĥĢ ë¦¬ì¹´
ë¯¸ ê²½
ìĬ¤íĬ¸ ëĬĶ
ĠT BC
ĠíĪ¬ ìĹ¬
Ġëħ¸ìĦł ìĿ´ëĭ¤
ĠíĨµê³¼ íķĺëĬĶ
ĠìĤ¬ ìłĦìĹĲ
Ġìłķ ìłľ
Ġë¯¸ ìĭĿ
ĠìĹ° ê½ĥ
Ġë°ľ íķ´
ê°ľ ê·¸
íķł ìķĦë²Ħì§Ģ
ĠëłĪ ì¦Ī
ĠU SA
ĠìĿĮìķħ ìłģ
Ġë§ŀ ëĮĢ
Ġê³µê²© íķĺëĬĶ
ĠìºĲë¦ŃíĦ° ë¥¼
ĠìĦłì¶ľ ëĲľ
Ġë¶Ģëĵľ ëŁ½
ĠëĨĢëĿ¼ ìļ´
A ì¡°
Ġê² Ķ
ĠìĦ¸ ìŀĲ
ì°¨ ìĿ´ì¦Ī
íħĮ ìĺ¤
ëĭ¬ ë§Ī
ĠíĤ¤ ìĽĮ
íĽĪ ìĿĦ
ĠíĹĮ ìĭł
Ġë³´ìĹ¬ ì¤Ģ
Ġê°Ģë¡ľ ì§Ģ
ĠëĬĲëģ¼ ê³ł
ĠìĤ¬ íĤ¤
ëłĪ ì§Ģ
ìĹ° ê¸Ī
ìĺģ ì¡°
ĠëįĶ ìĿ´ìĥģ
ãĥ ģ
Ġìĭľìŀĳ íķĺë©´ìĦľ
Ġë°± ìłľìĿĺ
ĠìĹ°êµ¬ íķĻêµĲ
Ġìłĳ íķĺë©°
åı ¥
Ġìĭľë¦¬ì¦Ī ìĹĲ
ëª¬ íħĮ
å° ī
ĠìĿ´íķ´ íķł
ĠCF ìĿĺ
p ut
ë¦¬ ì¸ł
ĠìĹ¬ ë¶Ģ
íĴĪ ìľ¼ë¡ľ
ĠìķĪ ëĵľë¡ľ
Ġê³Ħ ëĭ¨
ĠëĶ° ìĻĶëĭ¤
ĠK im
ĠCh amp
ëĿ¼ë°° ë§Ī
êµŃ ìĸ´
Ġë°ľ ìĿĺ
ìĹħ ìŀĲ
ĠìĦ± ëªħ
ĠíĨł ëª©
ĠíĨł ì§Ģë¥¼
ë¹Ī ìĿĢ
Ġë¯¸ëŀĺ ë¥¼
æĸ° ç¾ħ
ĠëĮĢ ëĳĲ
Ġì£¼ ìŀħ
ĠëıĻ ì°¸
ĠëıĦ ëĦ¤
ë°ľ íĳľ
Ġê°Ĳ ì°°
íħĮ ë¥¸
ìķĶ ìĿĢ
ìĹĺ ë¦¬
Ġì¤ĳìķĻ ìłķë³´
Ġìŀł ìłķ
Ġíĺ¸ë¥´ ëª¬
ëĭ¤ ëŀĮì¥Ĳ
Ġê²½ ë¡ľë¥¼
Ġìľł ë¹Ħ
ì½Ķ ëª¨
ĠëĦĵ ê²Į
ĠìĬ¤íĬ¸ ëłĪìĬ¤
Ġë¯ Ģ
Ġë³´ ì¦Ŀ
ĠëķĮ ìĿ¸
Ġê¹Ģ ì²ľ
Ġëĭ¹ íķĺê³ł
Ġìĭ¤ ì¡´
ĠìĹ°êµ¬ ìĹĲìĦľ
ëĭĮ íħĲëıĦ
ìĬ¤íİĺìĿ¸ ìĸ´
ìĽĲìŀĲ ëł¥
ĠìĬ¤ íĤ¬
Ġë°° íĬ¸ë§¨
ĠëĪĦêµ¬ ëĤĺ
Ġì¹´ë©Ķ ë£¬
Î »
Ġìłķ ëªħ
ë¬¸ íĬ¸
Ġë¹Ħ ìĺģë¦¬
ìķĪ ë©´
ìĵ° íĤ¤
p op
Ġìĭł ìĦ¸ê³Ħ
Ġê¹Ģ íĺ¸
ëįĶ ë§¨
ĠìĹ´ì°¨ ë¥¼
ĠSK íħĶëłĪì½¤
A FC
T H
ĠìŀĲ ë©ĶìĿ´
ĠìĿĺ ìĽĲìĿĦ
ê°ľ ë¯¸
Ġê°ķ ìĿĢ
ëĤ´ ë¦¬
Ġì¹´ ëĭĪ
ĠìĺĪ ìķ½
ĠìĤ´ ëĿ¼
Ġë¦¬ê·¸ ìĿ¸
ĠíĶĦë¡ľê·¸ëŀ¨ ìľ¼ë¡ľ
Ġíıīê°Ģ ëĲľëĭ¤
Ġíĺģ ëªħìĿĺ
ĠUn ited
Ġê½ĥ ìĿĢ
Ġê³¨ëĵľ ì»µ
ê°Ģ ìĬ´
Ġìķ ³
Ġìĺ¤ íģ´ëŀľëĵľ
Ġêµ¬ íķĺëĬĶ
ëħ¸ ë¯¸
Ġê°Ĳ ê¸Ī
ë§ģ ê²Ĳ
Ġê²Ģ ìłķ
Ġm od
ĠíĿĲ ë¦ĦìĿĦ
Ġë¯¼ê°Ħ ìĿ¸
ĠëĬ¦ ê²Į
Ġë° Ń
ĠìĿ´ ì¿ł
Ġë³´ ëĭ¤ëĬĶ
ë¹Ħ ìĥģ
ĠëĤĺ ìĿ´ëĬĶ
ĠF ree
Ġíķ¨ ìĸĳ
Ġê°Ģì§Ģ ìĿĺ
ĠêµĲíļĮ ë¥¼
ĠëģĮ ê³ł
ĠHist or
1 19
e ed
Ġê¸° ìĪĺ
ĠìĦ¸ ëł¥ìĿĺ
Ġìķħ ìĿĺ
ra ft
Ġê°Ģë¥´ ì¹¨
èĤ ²
ê³ł ìĬ¤
ë§Į ìĽĲìĿĦ
Ġìĭł ì¢ħ
Ġë°© ì¹¨
íŀĪ ì§Ģ
ĠìŀĲë£Į ê°Ģ
ĠìĹ°íķ© ìĿĺ
Ġë¸Ķë£¨ ìľĻ
eat h
Ġì½ĺìĬ¤íĥĦ íĭ°
Ġì²´ì½Ķ ìĬ¬ë¡ľë°ĶíĤ¤ìķĦ
ĠRecord s
êµ¬ ëĭ¨
Ġìĺ¤ ìĤ°
ê°ģ ìĿĢ
íĺĦ ë¦¬
ĠD em
ent al
cm ìĿ´ëĭ¤
Ġë²łìĬ¤íĬ¸ ê·¹ìŀ¥
ì¡° ê³Ħì¢ħ
Ġëª¨ ìļ©
ëª¨ íĹĺ
Ġë§Ĳ ë¯¸
Ġì§ĳ ì°©
ìĬ¤íĥĢ ìĿ¼
ëĸ ł
æŃ »
Ġíķĺë£¨ ìĹĲ
ĠìĿĢíĩ´ íĸĪëĭ¤
Ġë¡ľëłĮ ìĬ¤
Ġë¦¬ ë¸Į
Ġë°©ìĨ¡ ìĿ´
Ġë°©ìĨ¡ ìĤ¬
ĠìĪľ ìľ¼ë¡ľ
Ġìĺ¬ë¦¼íĶ½ ìĿĺ
Ġëħ¸ëŀĺ ê°Ģ
Ġê³µê²© íķĺìĹ¬
ëĮĢíķľ ìłľêµŃìĿĺ
Ġê²© ëł¬íķľ
åº Ħ
Ġëī´ìļķ ì£¼
ë¡ľë§Ī ì¹ĺ
ric k
ìºĺë¦¬íı¬ëĭĪìķĦ ì£¼ìĿĺ
ĠëĮĢ ê¸°ìĹħ
Ġê°Ģ ìĿĺ
19 01
Ġì£¼ ìľĦìĹĲ
ĠíĶ¼ íģ¬
ì°½ ìĿĦ
Ġëĭ¤ìĿ´ ìĸ´
ĠEng ine
) ãĢĭ,
ë¬¸ ìĹĲìĦľ
Ġë³´ ìĿ´ì§Ģë§Į
ĠS o
ĠíĻľëıĻ ê°Ģ
ĠíĶĦë¡ľê·¸ëŀ¨ ìĿ¸
ĠìłĦíĪ¬ ìĻĢ
æ´ Ļ
ĠìĤ¬íķŃ ìĿĦ
ĠìľĦíĤ¤ ë°±ê³¼
ĠìĦ±ê·łê´Ģ ëĮĢíķĻêµĲ
W ith
ìłľ ë¹Ħ
Ġëĭ¤ ë¥¼
Ġë°Ķ íĿĲ
Ġê·¹ ìŀ¥ìĹĲìĦľ
we et
Ġìĺ¤ ë¡ľì§Ģ
íĶĦ ëĿ¼ëħ¸
Ġê°ķ íķĺëĭ¤
íĮĲ ìĹĲìĦľëĬĶ
ëłĪìĿ´ ë£¨
Ġìĭľìŀĳ íķł
ëĿ½ ìĿ´
ê³µë¦½ ìĭ¬ìĥģìĨĮ
Ï ĥ
íĺ¸ ê¸°
ĠM i
Ġìļ°ìĬ¹ íĸĪëĭ¤
ĠíĺĦëĮĢ íĻĶ
Ġìľłì§Ģ íķĺê¸°
Ġëī´ìļķ ìĹĲìĦľ
Ġë²ĦìłĦ ìľ¼ë¡ľ
ĠìĹĶì§Ħ ìĿ´
ĠìĹ° ëª»
Ġ18 68
ĠL ED
Ġë³ĳ ìĽĲìĹĲìĦľ
ĠìĿĺë¯¸ íķĺë©°
ht ml
Ġìłģìļ© ëĲĺìĹĪëĭ¤
ĠìķĦëŀį ìĹĲë¯¸
çį »
ĠìķĦíı´ ë¡ľ
m ìĹĲìĦľ
ëĤĺ ìŀĩ
Ġìĺ¤ íģ¬
ĠE lect
Ġì£½ ìĿ¸
Ġë©´ ìĿ´
Ġëį°ë·Ķ íķĺìĺĢê³ł
Ġì¹¼ ë±ħ
çĩ Ł
ëĭ¤ ìĬ¤
ëĮĢ ìĦľìĸĳ
ing er
Ġì¹ĺ ê³ł
Ġë¬¸ìłľ ìĻĢ
ĠíĴį ê²½
ĠíĳľíĺĦ íķľ
Ġìĺ¥ ìĬ¤íį¼ëĵľ
ĠìļĶì²Ń íĸĪëĭ¤
ìĿ´ ê²ĥìĿĢ
Ġê·¸ ëł¸ëĭ¤
Ġìłķ ì£¼
Ġë¶Ģ ìĹĲ
ëĶĶ ìķĦìĿĺ
ë²Ħ ëĬĶ
ëŀĢ ìĬ¤
ĠìĽĲ ìĿĺ
ĠíĮĮ ìĨĲ
Ġíĺ¸ ìĿĳ
ĠíĻĶìĦ± ìĭľ
ìĹ¬ ì§Ħ
ëłĪ ëĭĮ
ĠìŀĲ ì²´ìĿĺ
Ġì£¼ ìľĦë¥¼
Ġìļ° ìľł
ë³µ ë¬´
ou d
Ġìłģìļ© ëĲľëĭ¤
ìłķì±ħ ìĿĦ
ĠëĿ¼ìĿ´ìĺ¨ ìĬ¤
M an
Ġíķĺ íĸī
Ġì¹´ íĨł
Ġìŀ¬ ìĿ¼
he ad
ĠK n
Ġìĵ° ëĤĺë¯¸
Ġê°Ģì¡± ê³¼
Ġë°©ìĺģ íķľ
In strumental
Ġìłķì°¨ íķľëĭ¤
Ġíı¬ì¼ĵëª¬ ìĬ¤íĦ°
Ġìłķë¥ĺ ìŀ¥
ìłľ ìĿ¸
Ġëª¨ ìĿ¸
ìķĪ ìĸĳ
Ġë¶Ħ ì¶ľ
íħĮ ëŁ¬
ĠìĤ¬ë¬´ ìĭ¤
Ġê°Ģìłķ ìĹĲìĦľ
ĠíĤ¬ ëŁ¬
éŁĵ åľĭ
ĠAir port
êµŃ ìķħ
ĠëıĻ ìļĶ
Ġìĸĳ ì²ľ
Ġíıī ìłķ
Ġì¡°ì§ģ ìĿ´
ìķ¡ ìĿ´
ëĮĢ íĸī
ĠìĤ¬ ìĹĲ
ĠëĮĢ ê°ģ
ë³´ íĽĪ
Ġëĵ± ìļ©
Ġì¸¡ ìĹĲ
col span
Ġê¶¤ ëıĦë¥¼
ĠìķĦìĺ¤ ìĿ´
ĠíıīìķĪ ëĤ¨ëıĦ
ĠìĭŃìŀĲ êµ°
íļĮ ìĤ¬ìĿĺ
ĠìĬ Ľ
ìĭł ê¸°
ĠìĹĲ ë¦¬
Ġë²ķ ìĿĺ
Ġìłķì¹ĺ ë¥¼
ĠìłĦìŁģ ê³¼
Ġìķ¨ ë¦¬
ĠëĪĦ ë¦¬
ĠìĿ¼ìĸ´ ëĤĺê³ł
Ġê°Ģê²© ìĿ´
ĠëĮ Ī
ĠÂł ĠÂł
Ġì¡° ëª¨
Ġê¹Ģ ìļ°
ĠD own
Ġíĺ¸ ëŀĳìĿ´
ê·¹ ìĿĺ
ĠìĿĮìķħ ê³¼
ĠìķĦì¹¨ ëĵľëĿ¼ë§Ī
Ġë¶Ģê·¼ ìĹĲìĦľ
Ġì ª
ë¶Ģ ìĭľ
Ġë§Ī ìħľ
Ġëª¨ ë²Ķ
Ġìŀ¥ ìĨĮë¡ľ
Ġë¬¸íĻĶ ìĻĢ
Ġê·¸ë£¹ ìĹĲ
Ġì½ľ ëĵľ
Ġëĭ¤ì¹´ íķĺìĭľ
ìļ°ë¦¬ ëĭ¹
ê¶ Ī
Ġëª©ìĨĮ ë¦¬ê°Ģ
. ),
íĻĶ íķł
ìĥģ ë¸Ķ
Ġìĭľ íķłêµ¬
ĠëĦ Ĳ
Ġë°ķ ë¯¼
Ġìķŀ ìŀ¥
Ġê²°ìłķ ìĹĲ
Ġíģ¬ë¦¬ìĬ¤ íĭ´
ì¶ķêµ¬ íĺĳíļĮ
Ġì£¼ìĹ° ìĿĦ
ĠĠĠĠĠĠĠĠĠĠĠĠĠĠĠĠ ĠĠĠĠĠĠĠĠĠĠĠĠĠĠĠĠ
ĠìķķëıĦ ìłģìĿ¸
ĠìĿ´ ëįķ
ĠêµŃ ìĻķìĿĺ
Ġíı¬ ì°©
ar b
Ġíĺĳ ìłķìĿĦ
ĠëģĮ ìĹĪëĭ¤
ĠìĨĮë§Ĳ ë¦¬ìķĦ
Ġë¶Ģ ì²ľìĭľ
ì¼Ģ ìĿ´ëĵľ
Ġìļ¸ ë¦ī
ĠìĨĮìŀ¥ íĴĪ
Ġê·ł íĺķìĿĦ
ĠíĻķìłķ ëĲĺìĹĪëĭ¤
Ġë¹Ħìľ¨ ë¡ľ
Ġë¯¸ì¹ĺ ì§Ģ
Ġë°´ ì¿łë²Ħ
ĠìķĦìĬ¤ ëĦĲ
T F
Ġë ¾°
Ġê°Ģ ìĹ´
Ġì¡° ê´ĳ
Ġê°ķ ë¯¼
ĠìķĬìķĦ ìĦľ
ĠìĦłìĥĿ ìĿĺ
è´ Ĭ
p ar
ĠëĤ´ ìĹĲìĦľëĬĶ
Ġë°ĺ ê³ł
Ġëªħ ìĿ´ëĭ¤
ìĿ´ìĹĪ ìĿĦ
Ðµ Ð½
ÑĢ Ð°
U P
Ġë³´ ëĤ¸ëĭ¤
ĠìĿ¸ ëł¥
ĠìĬ¤ ìĻĢ
ĠìĨĮ ë¬¸ìĿ´
ê°ľ ëħĲ
ĠíĮĮ ì»¤
ìĪĻ ìĿĺ
Ġ ä¸Ń
ĠìłĦ ìĿ´
ĠìŀĲ ìĥĿ
Ġê±° ëĴ
ĠìĥĪ ë§ĪìĿĦ
Ġë³Ħ ìĦ¸
ì¤Ħ ê¸°
ĠëıĦìŀħ íķĺìĺĢëĭ¤
ĠTh is
ĠìĺģìĹħ ìĿĦ
ì¤Į ë§Ī
I t
Ð ·
ĠëĮĢ ìĿĺìĽĲ
Ġê¸° íķĺìĹ¬
Ġìļ° íļĮ
Ġë¦¬ ë¯¹ìĬ¤
ĠëĤ´ ë¬´ë¶Ģ
ĠìļĶ ìłľíĶĦ
ìĻķ ìĹĲ
ĠíıĲì§Ģ íķĺê³ł
Ġê°ľëħĲ ìľ¼ë¡ľ
Ġëĭ¨ëıħ ìľ¼ë¡ľ
ç¯ Ħ
íķ ı
ìĹ¬ ìĪĺ
ìĺģ ì£¼
Ġê´Ģ ìłĲ
ĠìĤ° ìĿĺ
ì¤ĳìķĻ ëĮĢíķĻêµĲ
O ne
Ġê³µ ìĺĪ
Ġìľł íķĻìŀĲ
Ġë§Ī ëĪĦìĹĺ
ë³¸ ëŀĺ
ë¦° ìĿĦ
ìĬ¹ ìĿĺ
íķ© ìĿĺ
ĠìĺĪ ìĿ´ëĭ¤
ĠëįĶìļ± ìĿ´
Ġë³¸ëŀĺ ìĿĺ
Ġì§Ģ ëĤĺê°Ģ
on a
ë²Ħ ìĬ¤ìĿĺ
ĠL ine
íĻĺ ìĿĢ
ê³łëĵ±íķĻêµĲ ë¡ľ
Ġëª° ìĪĺ
ĠìķĮìķĦ ì°¨
ĠComm un
ĠìĦľë°ĶìĿ´ ë²Į
ìĭľ ìĺ¨
ĠìĪĺ ìŀĶ
ë°© ìłķ
ic es
Ġëª© ìĦ±
Ġê¸°ë¡Ŀ ëĲĺìĹĪëĭ¤
Ġì¤Ģ ìĪĺ
Ġì§Ħì¶ľ íķľëĭ¤
ĠìĹ°íķ© êµ°
ĠìĹ°ê·¹ ë°°ìļ°
Ġê¸°ë³¸ ìľ¼ë¡ľ
Ġì§ĢëĤĺ ë©´ìĦľ
ìŀĲìĽĲ ë¶Ģ
fer ence
ĠìĪĺ ëĭ¨ìľ¼ë¡ľ
íĭ° ë¯¸íĦ°
Ġë¬´ ì²Ļ
ëĳĲ ê·¼
ĠìĤ¬ìĿ´ ë¡ľ
ĠĊĊ ĠĊĠĊĠĊ
ĠìĺģêµŃ ìĹĲ
Ġê°ĸ ì¶Ķìĸ´
Ã¢ n
ê°Ģ ìķ¼
ìĭľ ëıĦ
ìŀĲ ë¦¬ë¥¼
Ġìĭľ ë¯¸ì¦Ī
ìĦ¤ ëªħ
ĠP an
ĠìĤ° íĺ¸
ì²ł ìĪĺ
íĶĮ ëłĪìĿ´ìħĺ
Ġë°©ìĨ¡ ìľ¼ë¡ľ
Ġë¬¸íĻĶ ìĺĪìĪł
Ġë§ŀ ì¶ĺ
Ġíĸīìłķ ëĮĢíķĻìĽĲ
Ġê·¸ë£¹ ìĿ´
ist er
Ã³ n
Ġìķłë¹Ħ ëī´
ĠëĮĢ ìĨĮ
Ġìľł ì½Ķ
ë³´ ìĬ¤íĦ´
ĠìĨĮ ìĥĿ
Ġë°° íĽĦ
íĺĦ ì¢ħ
íķĺê¸° ëĬĶ
Ġëıħ ì°½
Ġìŀħ êµŃ
Ġì²´ ìĬ¤
ä¸ ¹
Ġì§Ħíĸī íķľëĭ¤
Ġê³¼ê±° ìĹĲëĬĶ
ĠêµĲíļĮ ëĬĶ
ĠìĹ ĩ
ê¸° ëĳ¥
ìĸ´ ìĤ¬
ì²´ ë¥¸
ĠìĦľ ìĿ¸
íĮĮ ëħ¸
íĥľ ë¥¼
am m
Ġì¦Ŀê°Ģ íķĺê³ł
Ġìľłëŀĺ íĸĪëĭ¤
çī §
ëĩ ½
Ġth at
Ġì½Ķë¯¹ ìĬ¤
Ġë°°ëĵľ ë¯¼íĦ´
ëĬ ¦
ëıĦ ë¥´ìĿĺ
ĠìĬ¤ íı¬ë¥´
Ġêµ¬ ìĻĢ
ĠìĽĲ ìĿ¸ìľ¼ë¡ľ
ìĽĮ ì¹ĺ
ĠH all
ĠO P
Ġë¨¸ ë¦¬ì¹´
ì»¨ íĬ¸ë¦¬
Ġë¬¼ì§Ī ìĿ´
Ġre t
Ġê²½ê³Ħ ë¡ľ
) =
ĠìĤ¬ ìĭł
êµ¬ ì²Ń
ĠìĿ¸ ë¥ĺìĿĺ
ìķĪ ê³¼
ĠëĤ¨ ê¶ģ
ĠìĹ´ ìĩł
ìĿ¼ë³¸ ìĹĲ
éĻ °
ä½ ı
ĠPart y
ĠíĬ¸ëŀľ ìĬ¤íı¬
ĠëĿ¼íĮĮ ìĹĺ
ìĿ´ ìĶ¨
ê²½ ìĦ±
íĪ¬ ë¥´
ë°ķ ìĿ´
Ġì¡°ìĦł ë¡ľëıĻëĭ¹
ëĮ ĵ
ĠìĦ¹ ìĬ¤
ëĮĢ ë¹Ħ
Ġê³µ ìĨĲ
ĠS il
Ġë°ķ ìĪĺ
Ġë¯¼ ë³ĳ
ĠE con
ê°Ĳ ìĿĺ
ĠëĨį ìŀ¥
os eph
Ġë²¼ìĬ¬ ìĿĦ
ëĿ¼ ëĤĺ
ĠìķĦ ë°Ķ
ĠìĿ¼ ìŀĲë¦¬
Ġìĥģ ìłĲ
Ġ18 76
Ġê³¼ ë°ĺ
Ġìĭ¬ íķ´
ĠìķĬìķĦ ëıĦ
Ġì¦Ĳ ê¸¸
Ġì²´íı¬ ëĲĺìĹĪëĭ¤
ĠíĽĦì§ĢìĻĢ ëĿ¼
ĠìĹĲì½° ëıĦë¥´
íĳľ ëĬĶ
Ġìĺ¬ ë¦¬ëĬĶ
Ġê°ģ êµŃìĿĺ
ĠíĤ¤ ì¦Ī
Ġê³¡ ëĵ¤ìĿĢ
ĠìłĪ ì¹ľ
Ġê¸´ íĤ¤
ĠìĬ¤íİĺìĿ¸ ìĸ´
ĠVol ume
Ġëªħ ëª©
ĠíĻĶ ë¥¼
ì²ł ìĿ´
Ġë§¥ ì£¼
ĠìĻĦìĦ± ëĲľ
ĠìĮĵ ìĿĢ
ëŃ Ħ
ëĭ¤ ìĿ´ìĬ¤
ë² ħ
Ġ4 50
ë²ķ ìĹĲìĦľ
ê°ķ íķľ
Ġë¯¼ ìĦł
åħ ·
ï¼ ı
ĠëĤĻ íķĺ
íĦ° ìĹĲ
ĠëĤ¨ ìĦ±ìĿĺ
Ġë¶Ī ë¦°
ìĦĿ ìĹĲìĦľ
Ġìłķì¹ĺ ìĹĲ
Ġë§ŀ ì¶¤
og le
Ġíľ´ ìłĦ
Ġê·¸ëŀĺ ëıĦ
Ġë¹ĦíĮĲ íķĺìĺĢëĭ¤
Ġìłķëĭ¹ ìĿĢ
Ġê°Ģìł¸ ìĺ¨
E B
ëĮĢ ì¹Ń
ë¯¼ ìĬ¤íĦ°
Ġë¬¸ ìłķ
Ġìĸ´ ì©Ķ
ĠF ound
Ġì´Ī íļĮ
ê¸Ī ê°ķ
Ġë§¤ ìĪĺ
Ġìļ°ëł¤ ê°Ģ
B ì¡°
U R
Ġì£¼ ì£¼
ĠìĹ¬ ëĬĶ
Ġì¢ħ ìĹħ
ĠëĴ¤ ìĹĲëıĦ
ĠIn formation
ëĭĽ íı°
ìĭľì¼° ìľ¼ë©°
T BS
h r
t s
Ġë¬´ ìĸ¸
Ġë²ł íĭ°
Ġíĺĳ ì¡°
Ġê·¸ë£¹ ìĿĦ
ä¹ Ļ
Ġê±´ìĦ¤ ëĲľ
ĠEn ter
ĠìķłíĭĢëŀľ íĥĢ
19 03
ĠS NS
íĭ° ëª¨ìĸ´
Ġëĭ¨ ë§Ĳ
ëĲĺìĸ´ ìĦľ
Ġìŀħ íĹĮ
ĠíĻľ ì£¼ë¡ľ
Ġë°± ìķħ
Ġíĺĳ ëł¥ìĿĦ
Ġì¶ľìĹ° íķĺìĹ¬
ĠìĪĻ ì²Ń
ĠìłĲëł¹ íķĺê³ł
ĠìĿ´ê³³ ìĿĦ
u v
Ġê°Ģ íĨł
Ġëª¨ ìĬ¤
ë¬´ ìļ©
ĠìĦľ ì§Ħ
ĠêµĲ ìłķ
Ġë¬´ ëĦ¤
íĥľ ìĪĺ
Ġë¡ľ ìĿ´ëĵľ
Ġì¡°ìĦł ìĹĲ
ìĦ¬ ê³¼
Ġë¶Ļ ìĹĪëĭ¤
æĪ ¶
ĠíĿ¥ ë¯¸
ĠSp ecial
åĿ ª
éĬ Ģ
Ġì¹´ ë¯¸
ĠëĲĺìĹĪëĭ¤ ëĬĶ
Ġê´ĳ ì£¼ìĭľ
Ġìĭľì¦Į ìĹĲìĦľ
Ġp age
íĿĲ íĬ¸
Ġë¶Ļ ìĺĢëĭ¤
ĠíĹĮë²ķ ìĹĲ
é» ¨
ìľĦ ìĥģ
Ġê°ķ ëĭ¹
ĠF r
ĠìŀĲìľł ìĿĺ
åĲ ı
ĠìĤ¬ëŀĳ íķ´
w ood
ĠìĿ´ íļ¨
íĥĢ ìłĲ
íħĮ ëłĪ
ì¤Ģ íĺ¸
ìĺĪ ë¹Ħ
Ġë³ĳ ìĽĲìĹĲ
ĠìĿ¼ìľ¼ íĤ¨ëĭ¤
ëĵľë¦¬ ê²Į
Ġì§§ ê³ł
Ġì§Ģ ì¶ľ
ĠC O
Ġì¹´ ë¥´íĥĢ
Ġìŀ¬ íİ¸
Ġìĸĳ ìĿĦ
ĠR ain
ëĦĪ ê°Ģ
Ġì¦Ŀ íĽĦêµ°
Ġì£½ ëĬĶëĭ¤
Ġë´ī ê¸°
Ġë°ĽìķĦ ìķ¼
Ġë¬ĺìĤ¬ íķľ
ĠìķĮíĮĮ ë²³
L B
M M
Ġíķĺ ëıĦë¡Ŀ
Ġìłķ ìĿĢ
ĠìĿĺ ë¬´ë¥¼
Ġìļ° ì§Ģ
Ġìĸĳ ë°ĺ
ĠG en
Ġë²Ħ ë¦°ëĭ¤
íĮĢ ìľ¼ë¡ľ
and ard
ĠìĦłë°ľ ë¡ľ
Ġê±°ë¶Ģ íķĺê³ł
Ġì²ľìķĪ ìĭľ
ĠìĿ´ íļĮ
ìĤ¬ íĺķ
ìĸ´ êµ°
ì¹ĺ ì¿ł
ĠìĦľ ìĹ´
ĠíĥĢ ìĿ¸ìĿĺ
Ġ18 48
ĠëĤ¨ìŀĲ ê°Ģ
Ġë§ŀ ë¶Ļ
çİĭ åĲİ
è¶ ³
ys is
Ġë¯¸ëĤĺ ëª¨íĨłëħ¸
g y
ìļ° ë¦¬ê°Ģ
ĠìĥĿ ëªħìĿĦ
ĠíĮĮ ê¸°
ê¸ī ìĿĦ
ĠL ab
ĠG erman
ë°Ľ ìķĺê³ł
Ġs ub
os h
ĠìĬ¹ê°ķ ìŀ¥ìĿĦ
ĠìĿ´ëķĮ ë¶ĢíĦ°
èĪ į
Ġë´ ¤
ìĿ´ íĻĶ
ĠìĪĺ ì¤ĳ
ĠìŀĲ ëŀĢ
ar ia
íħĮ ìĿĺ
Ġê±´ ë¥Ń
Ġë°ķ íĹĮ
ĠíĹĪ ë¦¬
æµ ©
ĠìķĦíĤ¤ íħįì²ĺ
ìĺ¤ íķĺìĿ´ìĺ¤
Ġêµ¬ íĺķ
ĠíĮĢ ê³¼
ot o
Ġê°ľëħĲ ìĿ´ëĭ¤
Ġë§¨ íķ´íĬ¼
Ġë¸ĮëĿ¼ì§Ī ëłĪìĿ´ë£¨
ĠëłĪëĵľ ìĤŃ
ĠìĬ¬ëĿ¼ ë¸Į
ĠëıĦ íĤ¤
Ġìļ° ì¸¡
ĠëĤ´ ìłķ
ìĭ¬ ê³¼
ĠV ersion
Ġíĸīìłķ íķĻ
Ġê²½ìłľ ëĬĶ
ĠìķĶ ìĬ¤íħĮë¥´ëĭ´
Ġë§ĪìĿ´ ìķłë¯¸
Ġê°¤ ëŁ¬
Ġê°ľê·¸ ë§¨
ìĥģ ìĸ´
Ġìłľ íį¼
Ġìĺģ ìķĶ
ë¹Ħ ë¡Ŀ
Ġìĭ¤ ìŀ¥
Ġíıī íıī
ol it
ĠìķĦìĿ´ ì½ĺ
ĠìĭľëĮĢ ê°Ģ
ĠìłķìĿĺ ëĲľëĭ¤
ĠìĬ¹ê²© íķĺìĺĢëĭ¤
åĭ ³
ĠìłĦëŀµ ìĿĦ
ìŀĲ ëĵ¤ìĹĲ
ìĽĶ ìĹĲìĦľ
Ġíķľ ì¤ĳ
ĠìĹ° ë¦½
Ġìŀ¥ íĿ¥
Ġê¹Ģ ì¹ĺ
Ġê¹Ģ ëĳĲ
Ġë¦¬ ë³´
Ġë¶Ī ê·ľì¹Ļ
Ġê°ĻìĿĢ íķ´
ìĺ¬ ë¦¼
ĠëĶ¸ ìĿ´
ĠìĥģíĻ© ìĿĢ
ĠëĲĺìĹĪ ëįĺ
Ġë°Ķëĭ¤ ìĹĲ
Ġê²½íĸ¥ ìĿĦ
1 15
C R
ëĿ¼ ë°Ķ
ëĤĺ ì£¼
Ġê¸° íķ´
ë¹Ħ íıīê°Ģ
ìļ© ìĸ´
Ġì¡° ìĬĪ
Ġë¹Ħ íķĺìĹ¬
ĠS al
íĭ° ëĦ¨
ĠB en
ĠD ance
ë³ĳ ìĿĢ
ë°Ģ íŀĪ
ìĹ°êµ¬ ìĨĮìĿĺ
íĹ¤ ë¥´
if f
Ġì¦Ī ìĿĮ
Ġê°Ģ ë¦¬ì§Ģ
ìŀĦ ìĿĺ
ĠìĥĿ ëª¨
ë¥ĺ ìĿ´ëĭ¤
ĠíĿĶ ìłģìĿ´
ĠíķĺëĬĺ ìĿĦ
Ġìĵ°ìĹ¬ ì§Ħ
íĨłë¡ł íĨł
Ġì§Ģ ìĺ¤
íĥĢ ë°Ķ
ì¹´ ë©Ķ
ĠëĤĺ ëĿ¼ëĬĶ
ĠíĶĦë¡ľ ëª¨ìħĺ
Ġê°Ģì§Ģ ë¡ľ
ĠëıĮ ìĿĦ
Ġëĭ¤ìĸĳ ì²´
Ġì§Ĳ ìŀĳ
ĠìĥĿê¸´ ëĭ¤
è ħ
ĠìĹ° íĿ¬
ĠìĹ¬ ê³ł
ëĤ¨ ìĸĳ
ĠëĦĺ ìĸ´ìĦľ
Ġë¨¹ ìĿ´
æħ §
ĠëĬĲëģ¼ ëĬĶ
ìĿ´ìĬ¤ëĿ¼ìĹĺ ìĿĺ
Ġëª¨ ê±´
ĠìĨĮìĨį ìĤ¬
íĥĢìĬ¤ íĭ±
ĠìĿ´íĻĶ ìĹ¬ìŀĲëĮĢíķĻêµĲ
I ST
L ive
ì§Ģ ìĹĪëĭ¤
ĠìĦ± ëıĦ
ĠëĲĺ ëıĦë¡Ŀ
Ġë¡ Ń
Ġì± Ļ
ëįĶ ê°Ģ
Ġìłķì¹ĺ ìłģìĿ¸
ĠíĮĢ ìŀ¥
ìķĶ ìĿ´
ĠíĥĪ ëĭ¹
éĻ ¸
ĠìŀĪìĸ´ìĦľ ìĿĺ
Ġì°¬ ìĸĳ
ĠìĻķêµŃ ìĿĢ
AC K
Ġë©ĭ ì§Ħ
ìĬ¤íĬľ ëĶĶìĺ¤
ë¤ ĺ
? ãĢĭ
o ice
ìĿ´ ëħ¸
êµ¬ ëıĻ
Ġê²° ìĦł
ì²ľ ì´Īëĵ±íķĻêµĲ
Ġì¶Ķ ì¢ħ
Ġê°ģ ë£Į
Ġ24 0
å· ĸ
é¦ ĸ
Ġê·¸ ìłĢ
ëªħ ìĺĪ
íĥĢ ìĪĺ
Ġì¶ľ êµ¬
Ġëª¨ íĺ¸
Ġëªħ ì¢ħ
Ġë¸Į ëłĮ
18 97
íĶĮ ë¦ŃìĬ¤
Ġì¶ľìĹ° ìŀĲ
Ġì¶ľíĮĲ ëĲľ
ë©¸ ìĿĺ
Ġìłľê¸° ëĲĺìĹĪëĭ¤
ĠíĶĦë¡ľìĦ¸ ìĬ¤
Ġê²ĥ ìĿ¼
ĠíĮĮ ëĤĺë§Ī
Ġìĭ¬ íķĺê²Į
ĠíĻĪ êµ¬
ĠëĤ´ìļ© ìĹĲ
Ġìļ°ì£¼ ìĦł
ER S
Ġ188 1
Ġë°©ë¬¸ íķĺìĹ¬
æ· µ
éĺ ²
Ġëª¨ë¡ľ ì½Ķ
íķľìĸĳ ëĮĢíķĻêµĲ
ìĽĲ ìŀĳ
ĠìĪĺ ëĿ½
Ġ11 2
ĠíĪ¬ ìĪĺê°Ģ
íĶĮ ëłīìĬ¤
Ġëª©ë¡Ŀ ìĿĦ
ĠëĤĺíĥĢ ëĤ´ê³ł
Ġì·¨ìŀĦ íķĺìĺĢëĭ¤
Ġìĭ¸ ìĽłëĭ¤
êµŃìłľ ìĺģíĻĶìłľ
ê°ľìĽĶ ê°Ħ
ì§ģíķł ìĭľ
Ġì¹ĺìĹ´ íķľ
m ë¡ľ
ĠìĿ´ ëĵĿ
ë© ĭ
ì£¼ ëıĦ
ìłĦ ëıĻ
ĠìķĦ ëį°
Ġì° ¢
Ġê±° ìłĲ
ĠíĹ ¥
Ġëª» íķĺìĹ¬
Ġê·ľ ìłķìĿĦ
ĠëĮĢíĳľ ìłģìľ¼ë¡ľ
íĺ¸ìĦł ìĿ´
ĠêµŃë¯¼ ëĭ¹
Ġë°ĶëĢ Ĳ
çľ Ł
Ġì²© ë³´
1 16
Ġ all
íĻĶ ìŀ¥
ë£ »
ìĺ¤ ëĿ½
ĠëıĻ ëĵ±íķľ
Ġë¬´ ìķĪ
ĠO B
ĠíĮ¨ íĤ¤ì§Ģ
âĢĿ (
Ġë°Ķê¾¸ ê³ł
ë®¬ ëŁ¬
ĠìĹ°ê³ł ì§Ģë¡ľ
a ff
ê¸° ë°ĺ
ĠëĮĢ ì§Ħ
ìĪĺ ìĦĿ
ĠìĪĺ íį¼
ĠìłĦ íĻĶë¥¼
Ġì§ĳ íļĮ
ĠìĹ°êµ¬ ìĻĢ
ĠìŀĲê²© ìĿ´
Ġìłķê¸° ìłģìľ¼ë¡ľ
ĠëıĦëįķ ìłģ
ĠëĮĢëĭĪ ìĸ¼
A s
n y
ìĥģ íķĺìĿ´
ĠìķĮ ìłľë¦¬
ì°¬ ìĿĦ
Ġìħ ľ
ĠìµľëĮĢ íĴįìĨį
Ġê°Ģë¬¸ ìĿĢ
Ġë¶Ģë¥´ê³ł ëī´
ĠíĶĦëŀľ ìĭľìĬ¤
Ġìĸĩ ìĿĢ
ìĤ° êµ¬
Ġëª¨ ì°¨ë¥´íĬ¸
Ġì¦Ŀ ì¡°ë¶Ģ
ri an
ĠíĳľíĺĦ íķł
Ġst ation
Ġë©Ķëĭ¬ ìĿĦ
Ġç Ł³
Ġì£½ìĿĮ ìĹĲ
Ġì¹´íĥĪ ë£¨ëĥĲ
Ġìłľ ì²ľ
ìĦ¸ ìĿ´ëĭ¤
ĠìľĦ ì£¼ë¡ľ
ĠëĤ¨ ë¯¸
ĠìĤ¬ìļ© ìŀĲìĿĺ
íİ¸ ìĿĢ
ĠìĤ° ì§Ģ
ëĤĺëĿ¼ ë³Ħ
Ġë°ľê²¬ íķĺê³ł
Ġì¤ĳìĭ¬ ìĹĲ
åį Ķ
Ġê³µê°Ħ ìĿ´ëĭ¤
Ġëª½ ê³ł
ìķĦë¦Ħ ëĭ¤ìļ´
ĠìĤ¬ ìĤ¬íĤ¤
Ġíķĺ ì¿ł
ĠìĿ¼ ì¡±
ĠíķĻ ë¬¸ìĿĦ
Ġë³¼ ìħ°
ĠìĬ¤íĥĢ ìĿ¼ìĿĦ
ë²¤ ìħĺ
èĳ ī
Ġê´Ģíķ´ ìĦľëĬĶ
Ġê·¸ëłĪê³ł ë¦¬ìĺ¤
ìĤ¬ íļĮìĿĺ
ĠìķĦ ëĭĺ
Ġìłķ ìĶ¨
ĠíĮĮ ëŀĢ
íħĮ ìĿ¼
ìĿµ ëĮĢíķĻêµĲ
çĶ £
íı´ ëłĪ
ĠëĬĲëĤ Ħ
Ġë³¼ë¦¬ ë¹ĦìķĦ
ìŀĲ ì¹´
19 02
íĺ¸ íĶĦ
ëį° ìĿ¼
Ġìĸ´ ë¦¬
Ġìĸĳ ìŀĲë¡ľ
Ġë²Ħ ê·¸
om ic
ĠìĦ¤ë¦½ ìŀĲ
ë´ī ìĿĺ
ĠìĥĿìĤ° ëĲľ
ĠìķĦë¥´ ë°ĶìĿ´íĬ¸
ĠìŀĦëªħ ëĲľ
å§ ĵ
çļĩ åĲİ
Ġì¯ Ķ
Ġìłķ íĺľ
Ġë§Ī ë¦¬ìĿĺ
ĠS ur
Ġëħ¸ ë©´
ĠíĻĶ ëŀĳ
ìĹ´ ìłĦ
ĠìĤ´ ê²Į
ë³Ģ ìĿĺ
Ġíļ¨ê³¼ ìłģìĿ¸
az z
ĠEnc yclop
l ess
êµ¬ ë©į
ãĢĭ )
ĠìĤ° ìĦ±
ĠR ichard
ê·¼ ìĿĦ
Ġë¬¼ ì²´ìĿĺ
Ġìķł ë¦¬ì¡°ëĤĺ
Ġì²Ń ëıĻ
ĠíĮĲë§¤ íķĺëĬĶ
ëĲ¨ ìľ¼ë¡ľìį¨
Ġë¹ħíĨł ë¥´
èĺ ĩ
ĠâĪ ¼
Ġëĭ¤ ìľĪ
Ġê²ĥ ìĿĺ
ĠìĦ± ìĿ´
ol y
ĠíĮ¨ ìĬ¤
åħ ĭ
Ġìķ½ìĨį ìĿĦ
Ġì²Ń ìĤ¬
Ġìłľìŀĳ ìĤ¬
ang er
ĠìĺĪìĪł ìĿĺ
Ġë°ĺìĿĳ ìĿ´
Ġìª½ ìĿĢ
Ġê³¼ëıĦ íķľ
F S
Ġ ad
Ġ10 7
ĠK B
ìĺĪ ë°©
ëįĶ ë¥¼
ĠH ot
ìķł íĭĢëŀľ
Ġì£½ ê²Į
ìĹ°êµ¬ íļĮ
Ġì¢ħë£Į ëĲĺìĹĪëĭ¤
Ġì¤ĳê³Ħë°©ìĨ¡ ìľ¼ë¡ľ
ìĤ¬ ëĭ¹
ĠìĤ¬ ëªħ
Ġìłľ ëıĦìĹĲ
ë¬´ íķľ
Ġìŀĳ ìķĦ
Ġê°ķ íĴį
et a
ĠíķĺìĿ´ íį¼
ĠíĶĦë¡ľìłĿ íĬ¸ëĬĶ
ĠPl an
Î µ
Ġìĸ ¹
Ġì§ĳ ê²°
ĠìĪľ ì¡°
ĠëĮĢíĳľ ê°Ģ
ë²Ħì§Ģ ëĭĪìķĦ
ìĦ¬ ìĿĦ
ĠíĮĲë§¤ ë¥¼
ĠìĦľìª½ ìĿĺ
ĠìĿĺíĺ¹ ìĿĦ
ĠìĿ´ì¼Ģ ëĭ¤
Ġê²½ ìŀĳ
ĠìĿĺ ìłķ
ìĹħ ìľ¼ë¡ľ
ìķĪ ëħķ
Ġë¦¬ ë°Ķ
en ry
Ġì²Ń ì·¨
AN D
Ġì¦Ŀê±° ë¥¼
ĠíĶĦëŀĢì²´ ìĬ¤ì½Ķ
ìķ¼ ìłĦ
ì½Ķ íĬ¸
íı¬ ìĻĢ
ĠêµŃíļĮìĿĺ ìĽĲìĿĦ
Ġì¶Ķêµ¬ íķĺëĬĶ
ĠìłĦ ìĽĲìĿ´
Ġëħ¸ ëŀĢ
ĠP ort
Ġë§¤ ëĵľ
ĠR ob
ĠìłĢ íķĺ
Ġì¹ĺ ëĬĶ
ĠíĸĪ ìĹĪëĭ¤
ĠìĿĳ ê¸ī
Ġìĭ¤íĮ¨ íķĺê³ł
ëĥĪ ê³ł
Ġê²ª ê³ł
ç¨ ®
èµ ¤
ì£¼ ìľłìĨĮ
Ġìĥģ ëĮĢë¥¼
Ġë°Ķ ìł¤
ĠíĺĦ ì§ģ
ĠA I
Ġìļ´ ëªħ
ĠëĮĢíķĻêµĲ ë¥¼
Ġì§Ī ìĦľ
AT O
ëĪ Ķ
Ġì°į ìĿĢ
ĠëłĪìĺ¤ íı´
âĺ ħ
k t
Ġìķ Ĺ
ĠìĿ¼ ëĮĢìĿĺ
ëħ¸ íĤ¤
Ġë°© ë©´ìľ¼ë¡ľ
10 5
Ġìĭľì¦Į ë¶ĢíĦ°
ĠíıŃ íĮĮ
ĠíĦ ´
Ġê²¹ ì³Ĳ
ĠAg ain
ìķĦìĤ¬ íŀĪ
Ġëª¨ëĭĿ êµ¬ë¬´ìĬ¤ë©Ķ
ìĿ´ íĶĦ
Ġë¶Ģ íķ©
Ġìĺ¤ ë¥´ëĬĶ
Ġì¹´ íĪ°
Ġì°¨ ìĿ´ëĤĺ
as y
Ġìŀĳìļ© íķĺëĬĶ
ĠìĬ¤íĬ¸ë¦¬ ë°į
ĠìĹ¬ìĿĺ ëıĦ
ìķĪ ìĹĲìĦľ
Ġì¦Ŀ ìĥģìĿ´
ĠJ ul
ìķĶ ë©´
ĠìĿ´ìłĦ ê¹Įì§Ģ
ê°Ģì§Ģ ê°Ģ
Ġê°Ģì¡± ìĿ´
ê¸°ëıĻ ìłĦìĤ¬
âĦ ĥ
ë¶Ħëį°ìĬ¤ ë¦¬ê°ĢìĿĺ
å ļ
ëĿ¼ ì¿ł
ĠëıĻ ì¡°
Ġë¦ ½
ĠíĨµ ìļ©
ìĦ¤ ìĹĲ
Ġìŀ¬ ë³´
ĠB ig
Ġêµ° ìļ©
ĠìŀĳíĴĪ ìĹĲìĦľ
Ġê¸Ģ ë£¨
ĠìĤ¬ë¬´ ë¥¼
ìĿ¸ëıĦ ëĦ¤ìĭľìķĦìĿĺ
Ġê²Ĳ ì§Ģ
ĠìĹ´ëĮĢ íıŃíĴį
Ġë²ķìłķëıĻ ìĿ´ëĭ¤
f ul
Ġìłľ ëıĦëĬĶ
Ġêµ° ë§Ī
Ġë°ķ íĺĦ
ĠSt reet
Ġìľłì§Ģ íķł
ST AR
Ġíķ´ì²´ ëĲĺìĹĪëĭ¤
ê³ł ê°ľ
ìĿ¸ ìĬ¹
ìĤ¬ ëĤĺ
Ġìłķ ê¶ĮìĿ´
íĸī ìłģ
ĠP ap
Ġìĸĳ ìŀ¬
Ġì§ĢìĹŃ ìĿ¸
Ġì¼Ģ ìĿ¸
ĠìłĪ ë§Ŀ
ĠìŀĲìľł ëĭ¹
ĠíĶĦëłĪ ëĵľ
ee k
Ġ á
Ġ el
ĠìĿ´ ì²ł
ĠìķĦ ì¹ĺ
ĠìĿ¸ íĶĦëĿ¼
íķł ë¨¸ëĭĪ
ĠíĬ ¼
ë¸Į ëŁ¬
ĠìĹĲ íĶ¼
ëħĦëĮĢ ê¹Įì§Ģ
ĠëĬĲ ë¦°
Ġì£¼ìĸ´ì¡Įëĭ¤ ê³ł
] )
ìĬ¤ ë§ĪíĬ¸
Ġê°Ģ ëĬĺ
Ġê°Ģ ìĨĶë¦°
Ġìľł íķĻìĥĿ
ê³µ ë£¡
[...]
