{"<|endoftext|>":0,"!":1,"\"":2,"#":3,"$":4,"%":5,"&":6,"'":7,"(":8,")":9,"*":10,"+":11,",":12,"-":13,".":14,"/":15,"0":16,"1":17,"2":18,"3":19,"4":20,"5":21,"6":22,"7":23,"8":24,"9":25,":":26,";":27,"<":28,"=":29,">":30,"?":31,"@":32,"A":33,"B":34,"C":35,"D":36,"E":37,"F":38,"G":39,"H":40,"I":41,"J":42,"K":43,"L":44,"M":45,"N":46,"O":47,"P":48,"Q":49,"R":50,"S":51,"T":52,"U":53,"V":54,"W":55,"X":56,"Y":57,"Z":58,"[":59,"\\":60,"]":61,"^":62,"_":63,"`":64,"a":65,"b":66,"c":67,"d":68,"e":69,"f":70,"g":71,"h":72,"i":73,"j":74,"k":75,"l":76,"m":77,"n":78,"o":79,"p":80,"q":81,"r":82,"s":83,"t":84,"u":85,"v":86,"w":87,"x":88,"y":89,"z":90,"{":91,"|":92,"}":93,"~":94,"¡":95,"¢":96,"£":97,"¤":98,"¥":99,"¦":100,"§":101,"¨":102,"©":103,"ª":104,"«":105,"¬":106,"®":107,"¯":108,"°":109,"±":110,"²":111,"³":112,"´":113,"µ":114,"¶":115,"·":116,"¸":117,"¹":118,"º":119,"»":120,"¼":121,"½":122,"¾":123,"¿":124,"À":125,"Á":126,"Â":127,"Ã":128,"Ä":129,"Å":130,"Æ":131,"Ç":132,"È":133,"É":134,"Ê":135,"Ë":136,"Ì":137,"Í":138,"Î":139,"Ï":140,"Ð":141,"Ñ":142,"Ò":143,"Ó":144,"Ô":145,"Õ":146,"Ö":147,"×":148,"Ø":149,"Ù":150,"Ú":151,"Û":152,"Ü":153,"Ý":154,"Þ":155,"ß":156,"à":157,"á":158,"â":159,"ã":160,"ä":161,"å":162,"æ":163,"ç":164,"è":165,"é":166,"ê":167,"ë":168,"ì":169,"í":170,"î":171,"ï":172,"ð":173,"ñ":174,"ò":175,"ó":176,"ô":177,"õ":178,"ö":179,"÷":180,"ø":181,"ù":182,"ú":183,"û":184,"ü":185,"ý":186,"þ":187,"ÿ":188,"Ā":189,"ā":190,"Ă":191,"ă":192,"Ą":193,"ą":194,"Ć":195,"ć":196,"Ĉ":197,"ĉ":198,"Ċ":199,"ċ":200,"Č":201,"č":202,"Ď":203,"ď":204,"Đ":205,"đ":206,"Ē":207,"ē":208,"Ĕ":209,"ĕ":210,"Ė":211,"ė":212,"Ę":213,"ę":214,"Ě":215,"ě":216,"Ĝ":217,"ĝ":218,"Ğ":219,"ğ":220,"Ġ":221,"ġ":222,"Ģ":223,"ģ":224,"Ĥ":225,"ĥ":226,"Ħ":227,"ħ":228,"Ĩ":229,"ĩ":230,"Ī":231,"ī":232,"Ĭ":233,"ĭ":234,"Į":235,"į":236,"İ":237,"ı":238,"Ĳ":239,"ĳ":240,"Ĵ":241,"ĵ":242,"Ķ":243,"ķ":244,"ĸ":245,"Ĺ":246,"ĺ":247,"Ļ":248,"ļ":249,"Ľ":250,"ľ":251,"Ŀ":252,"ŀ":253,"Ł":254,"ł":255,"Ń":256,"Ġì":257,"ìĿ":258,"Ġë":259,"íķ":260,"Ġê":261,"ìĹ":262,"ëĭ":263,"Ġí":264,"ìĿ´":265,"ìĿĺ":266,"ëĭ¤":267,"ìĹĲ":268,"ê³":269,"ìĦ":270,"ëĬ":271,"ë¡":272,"ëĬĶ":273,"ìł":274,"ê°":275,"ë¡ľ":276,"ìŀ":277,"êµ":278,"ĠìĿ":279,"ëħ":280,"íķĺ":281,"ë¦":282,"ì§":283,"ëħĦ":284,"ìĭ":285,"ë¥":286,"ìľ":287,"ìĿĦ":288,"íķľ":289,"Ġìŀ":290,"Ĥ¬":291,"ĮĢ":292,"ìĬ":293,"ëı":294,"ìķ":295,"¸°":296,"Ġ1":297,"ìĽ":298,"Ġìł":299,"ë¦¬":300,"ê³ł":301,"ëĵ":302,"ê°Ģ":303,"ìĦľ":304,"ìĬ¤":305,"ìĿĢ":306,"ìļ":307,"ì§Ģ":308,"Ġê°":309,"Ġë°":310,"Ġ2":311,"ĠìĹ":312,"ê¸°":313,"Ġìķ":314,"Īëĭ¤":315,"ĠìĦ":316,"ìľ¼":317,"ìĺ":318,"Īĺ":319,"ĠìĿ´":320,"ìĸ":321,"ëĤ":322,"ë§":323,"ë¥¼":324,"Ŀ¼":325,"ê²":326,"ë¶":327,"ëıĦ":328,"ìĭľ":329,"ëł":330,"£¼":331,"ìĿ¸":332,"ëĿ¼":333,"ìĿ¼":334,"Ġìĭ":335,"ë°":336,"ë©":337,"Ġë§":338,"Ġê²":339,"êµŃ":340,"ìĤ¬":341,"ìĥ":342,"Ġìĺ":343,"ì¹":344,"ëĲ":345,"ëĮĢ":346,"ìľ¼ë¡ľ":347,"ìŀĲ":348,"·¸":349,"ëŀ":350,"ìĸ´":351,"ìĻ":352,"ìĹĲìĦľ":353,"Ġê³":354,"íĻ":355,"ë³":356,"ë¯":357,"ë¬":358,"ë¶Ģ":359,"Ġì§":360,"ìĽĶ":361,"ĠìĤ¬":362,"ìķĦ":363,"ãĢ":364,"íķ´":365,"Ġêµ":366,"ĠëĮĢ":367,"Ġëĭ":368,"ĠĊ":369,"íĸ":370,"ê³¼":371,"íĺ":372,"íĬ":373,"Ġ(":374,"Ġ20":375,"íķĻ":376,"ëĤĺ":377,"Ġìľ":378,"ì£¼":379,"ìĪĺ":380,"Ġëı":381,"ë²":382,"ĠëĤ":383,"ëª":384,"ì²":385,"íĥ":386,"Ġë³":387,"êµ¬":388,"íĬ¸":389,"ìĨ":390,"íĻĶ":391,"Ġë¶":392,"ìŀ¥":393,"Ġê·¸":394,"ëĵľ":395,"ìłķ":396,"ëį":397,"Ġ19":398,"ìĽĲ":399,"ëĵ¤":400,"¡°":401,"ìĿ´ëĭ¤":402,"Ġëª":403,"ëĲĺ":404,"¹Ħ":405,"ìĻĢ":406,"ìĥģ":407,"ëŁ":408,"ìłĦ":409,"Ġì¶":410,"ìĦ±":411,"¤ĳ":412,"ļĮ":413,"Ġìĭľ":414,"ĠìĪĺ":415,"êµĲ":416,"ĠìķĦ":417,"ìłģ":418,"ìļ°":419,"Ġì§Ģ":420,"Ġê¸°":421,"Ġê°Ģ":422,"20":423,"Ġ-":424,"íĶ":425,"Ġìłľ":426,"ëıĻ":427,"ĠìłĦ":428,"´Ģ":429,"ë¥´":430,"íĦ":431,"ìłľ":432,"ģ¬":433,"ìĹĪëĭ¤":434,"íļĮ":435,"ê²Į":436,"ìĤ":437,"Ġìĥ":438,"Ġëĵ":439,"ìĺĢ":440,"ĠìŀĪ":441,"ì¹ĺ":442,"ë§Ī":443,"ì°":444,"íĨ":445,"19":446,"Ġìļ":447,"ë©°":448,"ë¯¼":449,"Ġíķĺ":450,"ĠìĨ":451,"Ġíĺ":452,"ìĹ¬":453,"Ġë¬":454,"ĽĦ":455,"íĦ°":456,"ĠìĬ":457,"Ġë¯":458,"ë¯¸":459,"ë£":460,"ĠìĦł":461,"ĠíĻ":462,"Ġìłķ":463,"Ġíķľ":464,"Ġëĭ¤":465,"Ġì²":466,"Ġ3":467,"ëĭĪ":468,"íģ¬":469,"ĠìĿ¼":470,"ìĦł":471,"Ġìĺģ":472,"ë¬¸":473,"ĠíĶ":474,"Ġë²":475,"ë©´":476,"ĠìŀĪëĭ¤":477,"ëªħ":478,"íĮ":479,"ìĹŃ":480,"Ġì¤ĳ":481,"Ġë³´":482,"ë§Į":483,"ìĭł":484,"Ġíķ":485,"ë¹Ħ":486,"ìļ©":487,"ëłĪ":488,"ê³Ħ":489,"±°":490,"Ġê³µ":491,"íĥĢ":492,"ĠìŀĲ":493,"ĠìĿ¸":494,"Ġ:":495,"Ġì£¼":496,"ĠìĹŃ":497,"Ġìĸ":498,"ê¸":499,"Ġê²½":500,"Ġíı":501,"ìĦ¸":502,"ìľĦ":503,"ĠãĢ":504,"íı":505,"Ġì°":506,"Ġ201":507,"Ġìľł":508,"ìĺ¤":509,"ìĤ°":510,"Ġë¯¸":511,"ëĲľ":512,"ì¹´":513,"ì¡°":514,"íķĺìĺĢ":515,"ìĨĮ":516,"ì¶":517,"íķĺëĬĶ":518,"êµŃìĿĺ":519,"íĸĪëĭ¤":520,"ĠëıĻ":521,"ê³µ":522,"ëŁ¬":523,"ì¦":524,"êµ°":525,"½Ķ":526,"ĠìľĦ":527,"ì§Ħ":528,"ãĢĭ":529,"Ġê²ĥ":530,"ë³´":531,"íĤ":532,"Ġ200":533,"ëĦ":534,"ê·¸":535,"Ġë¶Ģ":536,"Ġì¹":537,"Ġë§Ī":538,"ĠëĲ":539,"ìĹ°":540,"ê²½":541,"Ġíĥ":542,"íķĻêµĲ":543,"ĠíĮ":544,"ê´Ģ":545,"Ġìĺ¤":546,"ĠìĻ":547,"Ġì¡°":548,"ĠìĹ°":549,"ĠìĬ¤":550,"ìĥĿ":551,"Ġê°ľ":552,"¢ħ":553,"ĠìĨĮ":554,"íĭ":555,"ìŀ¬":556,"ìĭĿ":557,"ĠëĤĺ":558,"Ġëĵ±":559,"ìĺģ":560,"ĶĶ":561,"ĠãĢĬ":562,"íĶĦ":563,"ĠìĽ":564,"Ġì¶ľ":565,"íķĺê³ł":566,"íĺ¸":567,"ĠêµŃ":568,"Ġëį":569,"Ġëª¨":570,"Ġ4":571,"ê°Ħ":572,"ĠëıĦ":573,"ìĿĮ":574,"Ġê³ł":575,"ĠìĿĺ":576,"ë³¸":577,"ĠìĹ¬":578,"ëĭ¨":579,"íĤ¤":580,"Ġêµ¬":581,"ëĭ¹":582,"Ġë°ľ":583,"ìŀĳ":584,"ì²´":585,"ìĹħ":586,"ê·":587,"ë¬´":588,"er":589,"ê°ģ":590,"ĠíĶĦ":591,"íķĺìĺĢëĭ¤":592,"ĳľ":593,"ĠíĨ":594,"ê°ľ":595,"ì¡":596,"ìľł":597,"íİ":598,"íķĺìĹ¬":599,"íĸī":600,"ĠìĦľ":601,"ë¬¼":602,"ìĹĪ":603,"íķľëĭ¤":604,"ĠìĦ¸":605,"ìķ¼":606,"ŀĪ":607,"íķľë¯¼":608,"Ġë¹Ħ":609,"ëį°":610,"Ġëħ":611,"Ġìĭł":612,"Ġ5":613,"´Ī":614,"íĨł":615,"ĳĲ":616,"âĢ":617,"Ġìĥģ":618,"ìŀĦ":619,"íĽĦ":620,"ê±°":621,"ë°ĺ":622,"ķĮ":623,"ë°©":624,"¸Į":625,"ìĪ":626,"ë£¨":627,"ìľ¼ë©°":628,"ĠìĦ±":629,"ìļ´":630,"ê¹":631,"±´":632,"ëĲĺìĹĪëĭ¤":633,"ĠìĤ":634,"ĠíĽĦ":635,"ëŀĺ":636,"ì°¨":637,"ìķĪ":638,"ëł¥":639,"Ġê´Ģ":640,"an":641,"Ġë°°":642,"ìĻ¸":643,"Ġíĸ":644,"ìļĶ":645,"ĠìĦłìĪĺ":646,"ì½Ķ":647,"in":648,"ìĹĲëĬĶ":649,"ëĶĶ":650,"Ġíķ´":651,"ĠS":652,"ĠìĺģíĻĶ":653,"on":654,"íħ":655,"ëł¤":656,"µľ":657,"íķł":658,"00":659,"ëŀĮ":660,"ĠëĤ¨":661,"ì¤ĳ":662,"ĠêµĲ":663,"Ġê¹":664,"Ġìŀĳ":665,"ëįĺ":666,"ĠëĲĺ":667,"ë¡Ŀ":668,"201":669,"ëħ¸":670,"ëª¨":671,"Ġ~":672,"íı¬":673,"ì¦Ī":674,"íĨµ":675,"ĠëķĮ":676,"ë²Ħ":677,"Ġë°©":678,"íĭ°":679,"ìĸĳ":680,"íĺĦ":681,"ë¦½":682,"ìĨį":683,"Ġ6":684,"ë°Ķ":685,"ì¢ħ":686,"ĠíĬ":687,"ë¶Ħ":688,"Ġìŀ¥":689,"¶Į":690,"Ġë¬¸":691,"íŀĪ":692,"íĴ":693,"ĠìŀĪëĬĶ":694,"Ġë¦":695,"Ġë©":696,"Ġìļ°":697,"ìħ":698,"Ġë¬´":699,"ì¸":700,"Ġë°Ķ":701,"íĳľ":702,"Ġê¸":703,"ë¶ĢíĦ°":704,"Ī¬":705,"Ġ7":706,"Ġëħ¸":707,"íĮĮ":708,"Ġê¹Ģ":709,"Ġì¶ķ":710,"ëĵ±":711,"ê¹Į":712,"ë²ķ":713,"ĠM":714,"íĹ":715,"Ġ8":716,"ĠìĤ¬ëŀĮ":717,"Ġìµľ":718,"ĠíĺĦ":719,"Ġ199":720,"ëĤ¨":721,"Ġ10":722,"Ġíı¬":723,"200":724,"ĺĲ":725,"´ĳ":726,"ĠíĨµ":727,"Ġë§Į":728,"Ġë¦¬":729,"ë¥¸":730,"Ġíİ":731,"ĠìķĬ":732,"Ġê·":733,"ì§Ģë§Į":734,"íĸĪ":735,"¤Ģ":736,"Ġë¡":737,"ĠC":738,"ĠëĤ´":739,"Ġ9":740,"Ġê²°":741,"Ġì§Ħ":742,"íĺķ":743,"ë¦°":744,"Ġìĸ´":745,"Â·":746,"ë©Ķ":747,"Ġ\"":748,"ëŀĢ":749,"ĠëĶ":750,"ì¿":751,"ìĬ¤íĬ¸":752,"Ġê±°":753,"ì¶ľ":754,"en":755,"ì¼":756,"or":757,"ìĦ¤":758,"ĠT":759,"ìĬ¹":760,"ì²ľ":761,"ìĹĲê²Į":762,"Ġì¶ķêµ¬":763,"ĠA":764,"al":765,"ar":766,"ĠëĺĲ":767,"ë¸Į":768,"ìĭ¤":769,"ëŀĳ":770,"ĠìĽĲ":771,"ê¹Įì§Ģ":772,"Ġê°ķ":773,"ëĤ´":774,"ë°ľ":775,"íķ©":776,"ĠìĥĿ":777,"ìķĺ":778,"),":779,"íķľë¯¼êµŃìĿĺ":780,"Ġë§ģ":781,"ĠìĦ¤":782,"ĠìĿĮ":783,"ĠíĮĮ":784,"ëıħ":785,"Ġê°Ļ":786,"Ġë§ģíģ¬":787,"ê²©":788,"íĴĪ":789,"ìĻ¸ë¶Ģ":790,"ìĨ¡":791,"Ġë¶Ī":792,"Ġë¶Ħ":793,"ìĿ´ëĿ¼":794,"ĠìĹĲ":795,"ìłĲ":796,"ì»":797,"ĠìķĮ":798,"ìłģìĿ¸":799,"ĠëĦ":800,"Ġ12":801,"ê¶Į":802,"Ġëĭ¹":803,"at":804,"ìłģìľ¼ë¡ľ":805,"ìļ¸":806,"ì§ģ":807,"Ġë°ĺ":808,"ëł¹":809,"íĥľ":810,"ì²Ń":811,"ë¦¬ìķĦ":812,"ëĦ¤":813,"Ġ'":814,"ĠíĹ":815,"Ġë¡ľ":816,"ĠìķĪ":817,"ì´Ī":818,"ìĪł":819,"Ġê³Ħ":820,"´Ŀ":821,"es":822,"íĶ¼":823,"ĠĠ":824,"ĠíĶĦë¡ľ":825,"ë¥ĺ":826,"ĠìĹĨ":827,"Ġë°ı":828,"Ġëªħ":829,"Ġëĭ¨":830,"íĿ":831,"ê°ģì£¼":832,"ĠF":833,"Ġì¹´":834,"ë£Į":835,"Ġìĭ¤":836,"ĠìĤ¬ìļ©":837,"ìĦĿ":838,"ëĲĺìĸ´":839,"ê±´":840,"Ġìŀ¬":841,"ĠìĿ¼ë³¸":842,"Ġ11":843,"ĠëĿ¼":844,"ĠëĶ°":845,"Ġì°¨":846,"ĠìĺĪ":847,"íĮĲ":848,"Ġë§Ĳ":849,"ëĳĲ":850,"Ġê°Ĳ":851,"Ġì½Ķ":852,"Ġì°¸":853,"ê°ķ":854,"íķ¨":855,"ĠìļĶ":856,"íħĮ":857,"ë¨":858,"ê¸ī":859,"Ġëł":860,"ì¡±":861,"ĠĊĠĊ":862,"ë¦Ħ":863,"íİĺ":864,"Ġëį°":865,"ë¦¼":866,"ĠëĳĲ":867,"ë²Ī":868,"ë¡ł":869,"Ġíķ¨":870,"Ġíħ":871,"Ġì¡":872,"ĠB":873,"ĠP":874,"ì¤Ģ":875,"ì¿ł":876,"Ġë°Ľ":877,"ĠíĬ¹":878,"ë²ł":879,"ĠíĥĢ":880,"he":881,"ĠâĢ":882,"Ġ198":883,"Ġ18":884,"Ġêµ°":885,"ë§¤":886,"ĠëłĪ":887,"ì£¼ìĿĺ":888,"ëĵ¤ìĿ´":889,"ê³¡":890,"Ġì¢ħ":891,"íĪ¬":892,"Ġì´Ī":893,"ìĹĲìĦľëĬĶ":894,"ë©´ìĦľ":895,"íķŃ":896,"ê¸Ī":897,"ĠëĨ":898,"ìħĺ":899,"Ġë°°ìļ°":900,"ģ´":901,"íķĺê¸°":902,"Ġê²Į":903,"ë³Ħ":904,"ëħĦìĹĲ":905,"ìĭ¬":906,"ĊĊ":907,"Ġíķľëĭ¤":908,"st":909,"ì¸ł":910,"ëĵ¤ìĿĢ":911,"ĠëįĶ":912,"ìŀħ":913,"ìķħ":914,"ic":915,"Ġëĵľ":916,"ë§Ŀ":917,"Ġë¹":918,"Ġìĺ¬":919,"199":920,"it":921,"Ġì¦":922,"íķĺê²Į":923,"ìĤ´":924,"Ġëª©":925,"ĠD":926,"ëŀľ":927,"ĠìĿ´íĽĦ":928,"BS":929,"le":930,"Ġê±´":931,"ê´ĳ":932,"ì§Ī":933,"Ġìļ´":934,"ĠK":935,"Ġëıħ":936,"Ġì¶Ķ":937,"ìĸ¸":938,"ìķ½":939,"Ġíĸī":940,"ĠìĻ¸":941,"()":942,"Ġì±":943,"ë³ĳ":944,"Ġë²ł":945,"ĵ°":946,"į¼":947,"ĠëĮĢíķľ":948,"ª½":949,"ĠìĪ":950,"ëĬ¥":951,"´ī":952,"Ġë°ķ":953,"ëĤľ":954,"ĠíĶ¼":955,"Ġë§¤":956,"ëłĪìĿ´":957,"íİ¸":958,"ëĵ±íķĻêµĲ":959,"ìĭľìķĦ":960,"Ġë³Ģ":961,"ĠL":962,"Ġë¯¸êµŃ":963,"Ġìĸĳ":964,"íĸ¥":965,"Ġíĥľ":966,"íķľë¯¼êµŃ":967,"ìķĺëĭ¤":968,"ëĭ¬":969,"Ġìŀħ":970,"ë¹":971,"ë°°":972,"ë¶ģ":973,"Ġíĺ¸":974,"ìĺĪ":975,"ìłĢ":976,"Ġíģ¬":977,"ĠíĻľ":978,"Ġíĺķ":979,"ãĥ":980,"ĠíĿ":981,"ĠíĻĶ":982,"ëł¨":983,"ĠìĤ°":984,"ìľ¡":985,"ê²°":986,"ìĺĢëĭ¤":987,"ĻìĿ´":988,"ãģ":989,"ìª½":990,"ìĻķ":991,"ëª©":992,"ëįĶ":993,"ëŁī":994,"ì§ĳ":995,"ê¸Ģ":996,"Ġì§ĢìĹŃ":997,"Ġíıī":998,"Ġ)":999,"ĠíļĮ":1000,"Ġëĭ¤ìĿĮ":1001,"Ġë³¸":1002,"ĠìĬ¹":1003,"ëĲĺìĹĪ":1004,"Ġê³¼":1005,"Ġë§İ":1006,"ĠI":1007,"ìľ¼ëĤĺ":1008,"ëĵł":1009,"ĠìĻķ":1010,"Ġì²ł":1011,"ì²ĺ":1012,"Ġë©Ķ":1013,"Ġì´Ŀ":1014,"ê»":1015,"ì¼Ģ":1016,"¸Ķ":1017,"ro":1018,"ëĲľëĭ¤":1019,"ĠR":1020,"Ġëĭ¤ë¥¸":1021,"ĠìŀĦ":1022,"||":1023,"ĠìľĦíķ´":1024,"Łģ":1025,"Ġë²Ī":1026,"Ġìłģ":1027,"ìĬ¤ìĿĺ":1028,"ì²ł":1029,"ìĦ¸ê¸°":1030,"Ġë³´ê¸°":1031,"Ġê²½ê¸°":1032,"ë³µ":1033,"ìĶ":1034,"ĠìĹ´":1035,"ëĮĢíķľë¯¼êµŃìĿĺ":1036,"ìŁģ":1037,"Ġê°ĻìĿĢ":1038,"ĠëĲĺìĹĪëĭ¤":1039,"ìĿ´ë©°":1040,"ìĽĮ":1041,"ê»ĺ":1042,"ĠëĲľ":1043,"ëĦĪ":1044,"Ġì»":1045,"Ġt":1046,"Ġë¶ģ":1047,"ê°ĻìĿ´":1048,"Ġìĭľìŀĳ":1049,"ĠìŀĳíĴĪ":1050,"Ġìķ¼":1051,"ĠíķĻ":1052,"Ġì¶ľìĥĿ":1053,"Ġ197":1054,"21":1055,"ĠG":1056,"íĻĺ":1057,"ĠH":1058,"íļ":1059,"ëĬĶëį°":1060,"ëĿ¼ìĿ´":1061,"ĠíķľêµŃ":1062,"Ġìº":1063,"ì±":1064,"íıī":1065,"ëĵ¤ìĿĺ":1066,"ì§¸":1067,"Ġíĳľ":1068,"is":1069,"ëŀľëĵľ":1070,"ĠëķĮë¬¸":1071,"Ġê·¸ë¦¬":1072,"ìŀĪ":1073,"ì¶ķ":1074,"Ġë¯¼":1075,"ĠëĮĢíķľë¯¼êµŃ":1076,"ìķł":1077,"·¨":1078,"Ġê°ģ":1079,"ì½":1080,"ëĿ¼ë§Ī":1081,"ĠE":1082,"ion":1083,"Ġ15":1084,"Ġê·¸ëĬĶ":1085,"ëħĢ":1086,"Ġëĭ¬":1087,"Ġë¸Į":1088,"ĠìĤ¬ìĿ´":1089,"Ġíķ¨ê»ĺ":1090,"ìłĪ":1091,"ĠíĨł":1092,"ĠN":1093,"ĠêµŃê°Ģ":1094,"ìł¸":1095,"ë¨¸":1096,"ol":1097,"ì¡Į":1098,"Ġëĵ¤":1099,"Ġíİ¸":1100,"ĠìĨį":1101,"ī´":1102,"ĠëĶ°ëĿ¼":1103,"Ġê°Ħ":1104,"ê·¼":1105,"ëĵ¤ìĿĦ":1106,"íĻ©":1107,"198":1108,"ê·¹":1109,"Ġì¶ľìĭł":1110,"re":1111,"ëĿ¼ëĬĶ":1112,"Ġë¬¼":1113,"íķĺë©°":1114,"ìĺ¨":1115,"íį¼":1116,"Ġê²½ìļ°":1117,"íĥĪ":1118,"..":1119,"18":1120,"Ġì§ģ":1121,"Ġìķł":1122,"ĠëĶĶ":1123,"ĠíķŃ":1124,"ĊĠ":1125,"Ġìķ½":1126,"Ġì²ĺ":1127,"ĠìĥĪ":1128,"Ġê²ĮìŀĦ":1129,"ĠìłĢ":1130,"Ġì§ĳ":1131,"ìĥī":1132,"ĪĦ":1133,"ĠìĦ¸ê³Ħ":1134,"ëĿ¼ê³ł":1135,"Ġ16":1136,"ĠìŀĲìĭł":1137,"ãĤ":1138,"Ġì²´":1139,"Ġì²Ń":1140,"Ġì¡´":1141,"Ġo":1142,"ê°Ĳ":1143,"ë²Ķ":1144,"íķĺëĭ¤":1145,"íķĺì§Ģ":1146,"ì¦Į":1147,"ĠW":1148,"ëıĦìĿĺ":1149,"Ġì²ľ":1150,"Ġê¸°ë¡Ŀ":1151,"el":1152,"ëŁ½":1153,"ĠíĪ¬":1154,"ëĮĢíķĻêµĲ":1155,"ĠëĮĢíķľë¯¼êµŃìĿĺ":1156,"ĠìĿ´ë¦Ħ":1157,"ĶëłĪ":1158,"ac":1159,"ìĶ¨":1160,"Ġ196":1161,"Ġë²ķ":1162,"Ġê´ĳ":1163,"ĠëĬ":1164,"Ġë£":1165,"íĬ¹":1166,"Ġ||":1167,"Ġê¸Ī":1168,"ĠëĺĲëĬĶ":1169,"ìĭľìĿĺ":1170,"Ġì¢":1171,"íĹĺ":1172,"ìŀĪëĬĶ":1173,"ĠíĬ¸":1174,"ìľĦìĽĲ":1175,"ä¸":1176,"ĠíĺĦìŀ¬":1177,"ĠíķĺëĤĺ":1178,"ing":1179,"ì°½":1180,"ĠëĺĲíķľ":1181,"Ġë²Ħ":1182,"ĠìĿĺíķ´":1183,"Ġ17":1184,"ĠíĻķ":1185,"ĠìĹ¬ìŀĲ":1186,"ĠëĴ":1187,"ĠìľĦì¹ĺ":1188,"ou":1189,"Ġëģ":1190,"íĶ½":1191,"ê²¬":1192,"´Į":1193,"ìĿ´ëĤĺ":1194,"Ġê°Ĳëıħ":1195,"Ġë³µ":1196,"ì³":1197,"ĠìĦľìļ¸":1198,"ì°¸":1199,"ìĿ´ìĬ¤":1200,"Ġof":1201,"Ġê°Ģìŀ¥":1202,"íĥĦ":1203,"ìĹ´":1204,"Ġíķ©":1205,"ĠíķĦ":1206,"ĠíŀĪ":1207,"Ġê·¸ëŁ¬":1208,"ĠìłĲ":1209,"ĠëķĮë¬¸ìĹĲ":1210,"íĮĢ":1211,"ë¹ĦìłĦ":1212,"ëŀ¨":1213,"ëĲĺëĬĶ":1214,"ëŁ°":1215,"ìĿ¼ë³¸":1216,"ìĹĲëıĦ":1217,"ë¯¸êµŃìĿĺ":1218,"om":1219,"ì°°":1220,"Ġê²ĥìĿĦ":1221,"Ġìĭ¬":1222,"Ġì¦Ŀ":1223,"ê¸°ëıĦ":1224,"Ġ/":1225,"íĿ¬":1226,"ĠO":1227,"Ķëĭ¤":1228,"ĠU":1229,"ĠìĤ¼":1230,"ĠíĶĮ":1231,"ĠíĮĲ":1232,"10":1233,"Ġë¨":1234,"íĶĮ":1235,"ĠëĦ¤":1236,"Ġìĸ¸":1237,"ĠìĤ¬ë§Ŀ":1238,"Ġ14":1239,"ëĥ":1240,"ĠëıĻë¬¸":1241,"Ġì½":1242,"ëĦĲ":1243,"ĠëŁ":1244,"Ġì°½":1245,"Ġíİĺ":1246,"ĠĊĊ":1247,"£½":1248,"ìĿ´ì§Ģ":1249,"ĽĪ":1250,"ë°ķ":1251,"ig":1252,"Ġì¹ĺ":1253,"ìĽ¨":1254,"ë°±":1255,"ĠíĻ©":1256,"Ġê·¸ìĿĺ":1257,"et":1258,"am":1259,"il":1260,"ìĿ¼ìĹĲ":1261,"ĠëĴ¤":1262,"ĠíĻľëıĻ":1263,"ëĶĶìĺ¤":1264,"ĠìĿĮë°ĺ":1265,"ìķĻ":1266,"ĠëĲľëĭ¤":1267,"ĠíĶĦëŀĳ":1268,"ĠíĤ":1269,"ê·¸ëŀ¨":1270,"ĠìĤ´":1271,"ë¦¬ìĬ¤":1272,"ë¦¬ëĬĶ":1273,"BC":1274,"ìĬµ":1275,"Ġ13":1276,"Ġê²ĥìľ¼ë¡ľ":1277,"ĶëłĪë¹ĦìłĦ":1278,"ìĪľ":1279,"Ġëª»":1280,"Ġë°±":1281,"us":1282,"ëĭĪìķĦ":1283,"Ġì·¨":1284,"ĠJ":1285,"íģ´":1286,"ãĢī":1287,"ĠìŀĪìľ¼ë©°":1288,"ìĿ´ëĿ¼ê³ł":1289,"ĠìĦ¤ë¦½":1290,"Ġì°¸ê°Ģ":1291,"ĠìŀĪìĹĪëĭ¤":1292,"ìĿ´íĬ¸":1293,"ì¹Ń":1294,"Ġíģ´":1295,"Ġê²ĥìĿ´":1296,"å¤":1297,"Ŀ½":1298,"Ġì¶©":1299,"and":1300,"as":1301,"Ġì¡°ìĦł":1302,"Ġë£¨":1303,"ë³Ģ":1304,"ĠìĿĮìķħ":1305,"Ġì²«":1306,"ìĬ¬":1307,"ì¶Ķ":1308,"ĠìĻĦ":1309,"ê·ľ":1310,"ĠëĤ¨ìŀĲ":1311,"Ġìłķì¹ĺ":1312,"ĠíĸĪëĭ¤":1313,"ìķĦìŀĪëĬĶ":1314,"ĠìĽĶ":1315,"ê¸°ë¥¼":1316,"ch":1317,"Ġê·¼":1318,"âĢĻ":1319,"ë¡Ģ":1320,"ĠíĨµíķ´":1321,"ê¸°ìĹĲ":1322,"å®":1323,"Ġ194":1324,"Ġê°Ģì§Ģ":1325,"id":1326,"Ġëĭ¹ìĭľ":1327,"ë´ī":1328,"ë¦¼íĶ½":1329,"197":1330,"Ġìļ©":1331,"Ġìĭľì¦Į":1332,"Ġë¦¬ê·¸":1333,"¤Ħ":1334,"Âł":1335,"ì¡´":1336,"ëĿ½":1337,"ì¦Ŀ":1338,"ë¦¬ê·¸":1339,"ë¶Ī":1340,"ãĢĬ":1341,"íļĮìĿĺ":1342,"ëĤł":1343,"ì´Į":1344,"Ġë°©ìĨ¡":1345,"ĠíħĶëłĪë¹ĦìłĦ":1346,"íĭĢ":1347,"ĠëıĮ":1348,"Ġíķł":1349,"Ġ195":1350,"ìĵ°":1351,"ìĤ´ìķĦìŀĪëĬĶ":1352,"Ġ0":1353,"ĠíĶĦë¡ľê·¸ëŀ¨":1354,"ĠìķĦìĿ´":1355,"ì¡Įëĭ¤":1356,"ëĬĶëĭ¤":1357,"Ġíļ":1358,"Ġíı¬íķ¨":1359,"ĠíĮ¨":1360,"ĠìĪľ":1361,"ìĿ´ìħĺ":1362,"åħ":1363,"ĠìĿĢ":1364,"ë¦¬ë¥¼":1365,"ë¦Ń":1366,"ëŁ¼":1367,"ì±ħ":1368,"Ġì¤Ģ":1369,"íĻľ":1370,"ĠíħĮ":1371,"ĠëĵľëĿ¼ë§Ī":1372,"ĠëıĦìĭľ":1373,"ëĶ":1374,"Ġìłľìŀĳ":1375,"ìĬ¨":1376,"ëģ":1377,"Ġë¯¸êµŃìĿĺ":1378,"ĠìĹ°êµ¬":1379,"Ġìĵ°":1380,"Ġë³ĳ":1381,"ĠìĿ¼ë¶Ģ":1382,"Ġëľ":1383,"±¸":1384,"Ġê¶Į":1385,"ĩ¼":1386,"Ġê·¸ë¦¬ê³ł":1387,"ì§ĢëĬĶ":1388,"ed":1389,"íļį":1390,"Ġì¹ľ":1391,"Ġì²łëıĦ":1392,"Ġê·¸ëŁ¬ëĤĺ":1393,"ĠíķĺëĬĶ":1394,"ê²ĥ":1395,"ĠìĹŃìĤ¬":1396,"ĠìĨĲ":1397,"ë¸Ķ":1398,"ĠâĢĺ":1399,"ìĦ¼":1400,"ĠêµŃìłľ":1401,"Ġëĵ¤ìĸ´":1402,"ë§Ĳ":1403,"ĠíĮĢ":1404,"Ġ30":1405,"¸ìĹħ":1406,"ìĿ´ëĿ¼ëĬĶ":1407,"Ġì±Ħ":1408,"Ġë§Įëĵ¤":1409,"ëĮĢë¡ľ":1410,"ĠëĨĴ":1411,"ë§ī":1412,"Ġì£½":1413,"ĠìºĲ":1414,"ìº":1415,"Ġë§İìĿĢ":1416,"ent":1417,"Ġ2010":1418,"ĠíĴ":1419,"íĦ´":1420,"Ġê²ĥìĿ´ëĭ¤":1421,"íĺģ":1422,"ĠãĢĪ":1423,"12":1424,"ĠíıĲ":1425,"ëĤ¬":1426,"ĠëĮĢíķ´":1427,"æĿ":1428,"km":1429,"íĹĮ":1430,"Ġíģ":1431,"ëĲĺê³ł":1432,"un":1433,"ĠìĤ¬íļĮ":1434,"ĠìĿ´ìĥģ":1435,"Ġëĸ":1436,"15":1437,"íĥĿ":1438,"ĠV":1439,"ĠìĭĿ":1440,"Ģë¡ľ":1441,"Ġëī´":1442,"ëħĦëĮĢ":1443,"Ġì¼":1444,"ê²¨":1445,"ĩ´":1446,"Ġìĺ¬ë¦¼íĶ½":1447,"ëıĦë¡ľ":1448,"ì³Ĳ":1449,"16":1450,"ì§ķ":1451,"íķĺë©´ìĦľ":1452,"Ġëĭ¤ìĭľ":1453,"íķĻìŀĲ":1454,"Ġ2012":1455,"ë¦¬ì¹´":1456,"ëħĲ":1457,"(,":1458,"ĠëıħìĿ¼":1459,"17":1460,"ĠíĤ¤":1461,"Ġ2014":1462,"ëĳ":1463,"ĠíĻį":1464,"Ġëľ»":1465,"ĠìłĦìŁģ":1466,"ĠíĹĪ":1467,"ìĿ´ìĹĪëĭ¤":1468,"ì´Ŀ":1469,"ĠìŀĪìĹĪ":1470,"íĸĪê³ł":1471,"ìĿ´ìŀĲ":1472,"196":1473,"ìµľ":1474,"ìĬ¤ëĬĶ":1475,"Ġì¤ĳêµŃ":1476,"ì»¤":1477,"ĠìĪĺìĥģ":1478,"ìĬ¤íĦ°":1479,"Ġë°ľë§¤":1480,"ĠëĮĢíķĻ":1481,"Ġthe":1482,"íĺĳ":1483,"ëĭ´":1484,"ê°ľìĿĺ":1485,"ĠëŁ¬":1486,"ë¡ľìĦľ":1487,"íķĦ":1488,"000":1489,"ë³´ëĭ¤":1490,"íķĺìĺĢê³ł":1491,"Ġëª¨ëĳĲ":1492,"22":1493,"Ġê³µìĭĿ":1494,"ĠìķĦëĭĪ":1495,"ê³¨":1496,"ĠìĹ¬ëŁ¬":1497,"Ġ2008":1498,"ëĮĢíĳľ":1499,"ĠìľĦíķľ":1500,"ĠĠĠĠ":1501,"ëįķ":1502,"íĽĪ":1503,"Ġëª¨ëĵł":1504,"ìĬĪ":1505,"Ġ2013":1506,"Ġ2011":1507,"Ġëĭ¤ìĿĮê³¼":1508,"Ġê·ľ":1509,"ìĿ´ê³ł":1510,"íĺ¼":1511,"Ġíģ°":1512,"Ġ<":1513,"ìĹĶ":1514,"ëł¸":1515,"ë¨¼":1516,"íĮ¨":1517,"ëŀĢëĵľ":1518,"Ġ2009":1519,"ìłĳ":1520,"ĠìĦłê±°":1521,"Ġìłķë¶Ģ":1522,"ë§ģ":1523,"Ġì¿":1524,"éĩ":1525,"íĨµëł¹":1526,"ì»µ":1527,"Ġd":1528,"Ġìĺ¨":1529,"Ġìľ¡":1530,"ë°Ľ":1531,"ë°©ìĨ¡":1532,"Ġ25":1533,"Ġì¡¸ìĹħ":1534,"ìĤ¬ë¥¼":1535,"ĠëĮĢíĳľ":1536,"Ġìļ°ìĬ¹":1537,"ì¹ľ":1538,"ìĿ´ëĬĶ":1539,"ì¸µ":1540,"ìķĶ":1541,"Ġ2015":1542,"ë¦¬ìĹĲ":1543,"Ġêµ¬ìĦ±":1544,"ëĤĺëĿ¼":1545,"ĠíĻĺ":1546,"ëıĮ":1547,"ë£¹":1548,"æľ":1549,"ëį¸":1550,"êµ°ìĿĺ":1551,"Ġê²°ê³¼":1552,"Ġë¬¸íĻĶ":1553,"ĠíĻĪ":1554,"Ġë¸Ķ":1555,"äº":1556,"Ġs":1557,"ìŀ¥ìĿĦ":1558,"ëĪĦ":1559,"Ġê¸¸":1560,"Ġê²Ģ":1561,"ëĮĢìĿĺ":1562,"Ġíĺĳ":1563,"ĠëĨį":1564,"ë·":1565,"ãĢĭ(":1566,"ur":1567,"ìľĦìĽĲíļĮ":1568,"ë¦¬ì¦Ī":1569,"14":1570,"ĠìĿ¸êµ¬":1571,"ìĥģìĿĦ":1572,"ëĨ":1573,"Ġëĵ±ìĿ´":1574,"ìľĦë¥¼":1575,"ìĦ±ìĿĦ":1576,"ad":1577,"ĠìĦ¤ì¹ĺ":1578,"ĠìĿ´ìļ©":1579,"Ġ2007":1580,"ìĸ´ì§Ħ":1581,"Ġ2016":1582,"ê±°ëĤĺ":1583,"íĬ¹ë³Ħ":1584,"Ġì²ĺìĿĮ":1585,"Ġì¸":1586,"ëłĮ":1587,"ìĺģíĻĶ":1588,"ìŀĲê°Ģ":1589,"ìĭľìĹĲ":1590,"ìĽĢ":1591,"ê¸°ìĿĺ":1592,"íĤ¨":1593,"ĠìķĮëł¤":1594,"Ġì¡´ìŀ¬":1595,"iv":1596,"Ġê±¸":1597,"Ġê°ĢëĬ¥":1598,"ìĿ¸ìĿĺ":1599,"¶ģ":1600,"íĥĪë¦¬ìķĦ":1601,"ë°Ģ":1602,"11":1603,"ì°¸ê³ł":1604,"ì§Ģë¥¼":1605,"ĠíĶĦëŀĳìĬ¤":1606,"Ġ2018":1607,"Ġê°ľë°ľ":1608,"ation":1609,"ëĮĢíķĻ":1610,"ë¦¬ê°Ģ":1611,"Ġëħ¼":1612,"ï¼":1613,"ìĿ´ìĹĪ":1614,"ĳ¸":1615,"ĠëģĿ":1616,"Ġê´Ģê³Ħ":1617,"ê³łëĵ±íķĻêµĲ":1618,"Ġìľ¤":1619,"Ġìĭ±":1620,"ì°©":1621,"Ġëª©ë¡Ŀ":1622,"ìĨĲ":1623,"åŃ":1624,"Ġëŀ":1625,"ëħĦë¶ĢíĦ°":1626,"ìĿĳ":1627,"ĠëĮĢíĨµëł¹":1628,"ëĵĿ":1629,"Ġ193":1630,"ë²Į":1631,"Ġë¬¸ìłľ":1632,"ĠìŀĪìĸ´":1633,"ìĬ¤íĥĢ":1634,"Ġê°ĢìĪĺ":1635,"Ġm":1636,"ê°Ŀ":1637,"Ġ2017":1638,"ĠìĤ¬ê±´":1639,"Ġâ":1640,"ĠìĺģêµŃ":1641,"Ġp":1642,"ĠìŀĲìĭłìĿĺ":1643,"ĠìĨ¡":1644,"ĠëĮĢíļĮ":1645,"ìĤ¼":1646,"ĠíķĺìĺĢëĭ¤":1647,"Ġê¸°ì¤Ģ":1648,"ĠìĿ´ë£¨":1649,"um":1650,"Ġìķŀ":1651,"Ġëĵ±ìĿĺ":1652,"ëł¥ìĿĦ":1653,"íľ":1654,"Ġíŀ":1655,"ĠKBS":1656,"ĠìĹĶ":1657,"Ġê´Ģëł¨":1658,"ĠëĤĺíĥĢ":1659,"ë¶Ģë¶Ħ":1660,"Ġ2006":1661,"ĠëıĻìķĪ":1662,"Ġì¦ī":1663,"íĶĦíĬ¸":1664,"®¤":1665,"ë¡ľìļ´":1666,"ë¬¸íĻĶ":1667,"Ġ24":1668,"ĠìĿ¼ë°ĺ":1669,"Ġë³Ħ":1670,"op":1671,"ĠìĬĪ":1672,"ìľ¨":1673,"íķľêµŃ":1674,"ìĺ¬":1675,"Ġë°Ģ":1676,"Ġë§ŀ":1677,"Ġíĸīìłķ":1678,"íģ":1679,"Ġc":1680,"ĠìĻĢ":1681,"´´":1682,"ĠëĮĢíķĻêµĲ":1683,"ì¶©":1684,"Ġíĸ¥":1685,"Ġê·¹":1686,"Ġëĳ":1687,"ĠëĤł":1688,"13":1689,"Ġf":1690,"195":1691,"Ġê²ĥìĿĢ":1692,"Ġìłĳ":1693,"Ġì§Ħíĸī":1694,"ë¹ĦìķĦ":1695,"ĠêµĲìľ¡":1696,"ĠíıŃ":1697,"Ġëħ¸ëŀĺ":1698,"ìĹĺ":1699,"ì°¬":1700,"į¨":1701,"ĠëĭĪ":1702,"ot":1703,"ĠìĦĿ":1704,"Ġëĭ´":1705,"Ġë²Īì§¸":1706,"ëĤ¨ëıĦ":1707,"Ġì§Ģë°©":1708,"FA":1709,"Ġë°ľíĳľ":1710,"ë¦¬ìĿĺ":1711,"...":1712,"Ġë§¡":1713,"ë¡ľë¶ĢíĦ°":1714,"ĠíĹ¤":1715,"Ġìķ¨":1716,"Ġ23":1717,"ëĭĪë©Ķ":1718,"ì´Īëĵ±íķĻêµĲ":1719,"194":1720,"ĠëĿ¼ìĿ´":1721,"ìŀĲìĿĺ":1722,"Ġê³³":1723,"ê°Ī":1724,"ĠìłĦíĪ¬":1725,"Ġë³¼":1726,").":1727,"Ġë°ľê²¬":1728,"Ġíľ":1729,"Ġb":1730,"ìĬ¤íħ":1731,"ĠíĦ":1732,"ë¥ł":1733,"Ġìŀĺ":1734,"Ġê¸°ìĹħ":1735,"Ġëĵ±ìŀ¥":1736,"Ġì¤ĳìĭ¬":1737,"Ġì¢ĭ":1738,"Ġ2019":1739,"ìļ°ìĬ¤":1740,"ë²Ħì§Ģ":1741,"ĠìĹĨëĭ¤":1742,"ëķĮ":1743,"ë¯¼ì£¼":1744,"Ġê·Ģ":1745,"Ġë©´":1746,"ag":1747,"ê¸¸":1748,"ĠTV":1749,"Ġì¶ľìĹ°":1750,"íķĺë©´":1751,"Ġê³µê²©":1752,"ëĭĮ":1753,"Ġ21":1754,"Ġ28":1755,"Ġìĭľê°Ħ":1756,"ëĤ¬ëĭ¤":1757,"ëıĦë¡Ŀ":1758,"ìĭľíĤ¤":1759,"ê´ĳìĹŃ":1760,"Ġ2005":1761,"ëĭĪë©ĶìĿ´ìħĺ":1762,"ĠìĿ´ìłĦ":1763,"Ĳëĭ¤":1764,"|-":1765,"Ġë°ľìĥĿ":1766,"ĠìĿ¼ë³¸ìĿĺ":1767,"ì¸¡":1768,"ê¹Ģ":1769,"Ġ22":1770,"ë²Īì§¸":1771,"ĠìĿ´ìĸ´":1772,"ëŁ¬íķľ":1773,"Ġê°ĸ":1774,"ëªħìĿĺ":1775,"Ġê²½ìłľ":1776,"Ġíļ¨":1777,"Ġì£¼ìŀ¥":1778,"ê·ł":1779,"ĠìĿĺë¯¸":1780,"Ġê°Ļëĭ¤":1781,"=\"":1782,"ìĿµ":1783,"Ġë§ī":1784,"íĿ¥":1785,"ĠëĪĦ":1786,"Ġë³Ģê²½":1787,"em":1788,"ì¶ľìĹ°":1789,"Ġ26":1790,"ëĵ¤ê³¼":1791,"ëħĦìĹĲëĬĶ":1792,"ê¸°ê°Ģ":1793,"ëĸ":1794,"Ġì±ħ":1795,"íĸĪìľ¼ë©°":1796,"Ġì¿ł":1797,"Ġì»¤":1798,"Ġì¤ĳìķĻ":1799,"ë¡ľëĬĶ":1800,"ĪĪ":1801,"Ġì¼Ģ":1802,"Ġëĵ±ìĿĦ":1803,"ĠìĨĮìĨį":1804,"ë²¨":1805,"íļ¨":1806,"ê¸°ëĬĶ":1807,"Ġìĺģíĸ¥":1808,"£Ħ":1809,"TV":1810,"ri":1811,"Ġ27":1812,"Ġê³¨":1813,"ìĹŃìĤ¬":1814,"ì¿Ħ":1815,"Ġì°¸ìĹ¬":1816,"Ġë²Ķ":1817,"íĻĶêµŃ":1818,"Ġíķĺê³ł":1819,"Ġì¤Ħ":1820,"ĠìĿ´ëĬĶ":1821,"Ġand":1822,"íĴį":1823,"Ġ2020":1824,"Ġë°Ŀ":1825,"ëĭĪëĭ¤":1826,"Ġê³¡":1827,"ĠëĲĺìĸ´":1828,"ĠìĬ¤íĥĢ":1829,"ë¹Ī":1830,"ìĸµ":1831,"Ġìļ´ìĺģ":1832,"Ġ2004":1833,"ìĦľëĬĶ":1834,"):":1835,"Ġê¸°ìĪł":1836,"âĢĿ":1837,"ĠìĿ¸ë¬¼":1838,"ë§¹":1839,"ut":1840,"ìĻĢìĿĺ":1841,"os":1842,"ec":1843,"æĸ":1844,"Ġíĥľìĸ´":1845,"ay":1846,"ìĭ±":1847,"ĠìĽĶëĵľ":1848,"Ġë´ī":1849,"ĠThe":1850,"Ġìµľì´Ī":1851,"ìĤ¬ê°Ģ":1852,"êµ¬ìĿĺ":1853,"ìĿ´ëĵľ":1854,"ers":1855,"Ġê·¸ë£¹":1856,"ìłķìĿĦ":1857,"ìľ¤":1858,"ì¹¨":1859,"Ġëį°ìĿ´":1860,"ĠëŁ¬ìĭľìķĦ":1861,"Ġëıħë¦½":1862,"ir":1863,"ĠìķĶ":1864,"ëī´":1865,"ìĦľìļ¸":1866,"ìĽĶìĹĲ":1867,"ë¥´íģ¬":1868,"Ġíķĺì§Ģë§Į":1869,"ê·Ģ":1870,"ìĤ¬ìĿĺ":1871,"ìĦ±ìĿ´":1872,"ëħĦê¹Įì§Ģ":1873,"ĠìłĪ":1874,"ĠíĥĢìĿ´":1875,"Ġë¨¸":1876,"ĠìĿ´ëŁ¬íķľ":1877,"ìĹĲìĦľëıĦ":1878,"ul":1879,"íĮħ":1880,"íĩ´":1881,"ìĪĻ":1882,"od":1883,"ãĢį":1884,"ĠìķłëĭĪë©ĶìĿ´ìħĺ":1885,"ĠìĿ¸íķ´":1886,"Ġì§ĢìĽĲ":1887,"ĠëĮĢë¶Ģë¶Ħ":1888,"2010":1889,"ë¦´":1890,"ë§¨":1891,"Ġì§Ī":1892,"Ġíĭ":1893,"ĠíĸĪ":1894,"ìį¨":1895,"ìķ¼ë§Ī":1896,"Ġìłķë³´":1897,"ĠìĭľëĮĢ":1898,"Ġ2000":1899,"ĠìķĦëĵ¤":1900,"ĠìľĦì¹ĺíķľ":1901,"ĠìŀĲìľł":1902,"ì»¬":1903,"åı":1904,"ì¡°ìĦł":1905,"Ġê°Ī":1906,"Ġë§ĪìĿ´":1907,"ë¨¸ëĭĪ":1908,"ë·Ķ":1909,"ëĲĺìĹĪê³ł":1910,"ìĬ¤ë¥¼":1911,"Ġìĸ»":1912,"ĠMBC":1913,"ĠíĥĪ":1914,"ëĬĲ":1915,"ëĵ¤ìĹĲê²Į":1916,"ĠìĿ´ë¥¼":1917,"ia":1918,"Ġë¡ľë§Ī":1919,"im":1920,"Ġ29":1921,"ĠìĪĺëıĦ":1922,"ìĻĦ":1923,"ëĬĺ":1924,"ë³¼":1925,"ë¶ģëıĦ":1926,"ìĬ¤íħľ":1927,"ì¹¸":1928,"ìŀĲë¥¼":1929,"ìĺ¥":1930,"ê³¼ìĿĺ":1931,"ĠâĢľ":1932,"ap":1933,"ĠìĥĿê°ģ":1934,"Ġin":1935,"ĠìľłëŁ½":1936,"ìŀĲëĬĶ":1937,"Ġìķ¼êµ¬":1938,"Ġêµ¬ì¡°":1939,"ìļķ":1940,"íĭ´":1941,"īê¸Ģ":1942,"ĠìŀĲë£Į":1943,"ëłī":1944,"ìĬ¤íģ¬":1945,"Ġìĩ¼":1946,"Ġíķ´ëĭ¹":1947,"ìĭľì¼":1948,"ëĤĺëĭ¤":1949,"ë¦¬ìĬ¤íĬ¸":1950,"ĠFC":1951,"ĠìĥĪë¡ľìļ´":1952,"Ġë¶Ģë¶Ħ":1953,"ìļĶíķľ":1954,"ìĿ¼ë³¸ìĿĺ":1955,"ì±Ħ":1956,"Ġê²°ìłķ":1957,"ìĹĪê³ł":1958,"oc":1959,"ĠìĿ¼ìĸ´":1960,"Ġì½ĺ":1961,"åľ":1962,"ëł¸ëĭ¤":1963,"ìĿ¸ë¯¼":1964,"Ġì¸¡":1965,"æ°":1966,"Ġì²łëıĦìĹŃ":1967,"Ġëĭ¤ìĸĳ":1968,"Ġ2003":1969,"Ġìĭľë¦¬ì¦Ī":1970,"ëª¬":1971,"ê°Ģì§Ģ":1972,"åĲ":1973,"Ġì¹¨":1974,"ìĬ¤ê°Ģ":1975,"ëį´":1976,"th":1977,"ëĭĺ":1978,"ìľ¼ë¡ľëĬĶ":1979,"Ġíĺķíĥľ":1980,"ĠíĥĦ":1981,"ì¢":1982,"ter":1983,"Ġ...":1984,"Ġì§Ģìłķ":1985,"Ġê°ĻìĿ´":1986,"ĠëĤľ":1987,"ëıĦë¥¼":1988,"Ġìķħ":1989,"Ġíı´":1990,"çĶ":1991,"íı´":1992,"ĠìĬ¤íİĺ":1993,"å·":1994,"ë¥´ëĬĶ":1995,"ìķĮ":1996,"Ġíĺ¼":1997,"êµĲìľ¡":1998,"Ġë°°ê²½":1999,"ëĲł":2000,"ĠíķĻêµĲ":2001,"ĠìĿ´íĥĪë¦¬ìķĦ":2002,"Ġìŀ¡":2003,"ìļ´ëĵľ":2004,"ë¶ĢìĿĺ":2005,"ĠêµĲìĪĺ":2006,"ìĭľë§Ī":2007,"íĺ¸ìĦł":2008,"íķĺìĺĢìľ¼ë©°":2009,"ĠĊĠ":2010,"íĸĪëįĺ":2011,"ĠìĤ¬ìĭ¤":2012,"ì¹´ìĿ´":2013,"Ġê·¸ëħĢ":2014,"Ġ2002":2015,"īê¸Ģëŀľëĵľ":2016,"ĠìĹ¬ìĦ±":2017,"ìŀĲë¡ľ":2018,"Ġìħ":2019,"Ġìĭ±ê¸Ģ":2020,"ê±°ë¦¬":2021,"ĠíĦ°":2022,"ĠêµŃê°ĢëĮĢíĳľ":2023,"Ġìµľê³ł":2024,"01":2025,"ĠìĹħ":2026,"ĠSt":2027,"ĠìĹĨëĬĶ":2028,"Ġê¸ī":2029,"ìĹ¼":2030,"ĠìĤ¬ëŀĳ":2031,"åį":2032,"Ġìļ´ëıĻ":2033,"Ġìĥģíĥľ":2034,"ë²ĦìĬ¤":2035,"Ġëį°ë·Ķ":2036,"ì²ĺëŁ¼":2037,"Ġëħ¸ìĦł":2038,"íĻį":2039,"ĠíĬ¹íŀĪ":2040,"ĠìĿ´ìĹĲ":2041,"ìĹĦ":2042,"ĠìľĦìĽĲ":2043,"ĠY":2044,"30":2045,"ë¯Ģë¡ľ":2046,"ê´ĳìĹŃìĭľ":2047,"ìĿ¸ìĿ´":2048,"¥Ĳ":2049,"ĠëĮĢìłĦ":2050,"ëĲĺìĹĪìľ¼ë©°":2051,"Ġì°¾":2052,"íĺľ":2053,"å¤§":2054,"ëªħìĿĦ":2055,"ìºĲ":2056,"å±":2057,"ĠâĢĵ":2058,"ê²½ê¸°":2059,"ì¤ĳíķĻêµĲ":2060,"25":2061,"Ġë°Ľìķĺëĭ¤":2062,"ìĹ°êµ¬":2063,"ê°ĢìĻĢ":2064,"2014":2065,"Ġë¥":2066,"ĠìĦ¬":2067,"Ġë²Į":2068,"íŀ":2069,"ĠëĦĺ":2070,"Ġê²½ìĥģ":2071,"Ġ,":2072,"ow":2073,"ĠìĹĺ":2074,"Ġê°Ģì§Ģê³ł":2075,"Ġë°ĽìķĦ":2076,"Ġê¸Ģ":2077,"ëłĪìĬ¤":2078,"Ġìĸ´ëĸ":2079,"2012":2080,"Ġì§Ħì¶ľ":2081,"ìĹĲìĦľìĿĺ":2082,"å°":2083,"ëĮĢë¥¼":2084,"ĠìĦ±ê³µ":2085,"ëĵľëĿ¼ë§Ī":2086,"ê¶ģ":2087,"2011":2088,"íķĻê³¼":2089,"íľĺ":2090,"łëĭ¤":2091,"ìŀĲìĿ¸":2092,"íİĺìĿ´ì§Ģ":2093,"ìĭĿìĿĦ":2094,"Ġì¹¼":2095,"ĠìķĦë²Ħì§Ģ":2096,"íĺĢ":2097,"Ġìķ¨ë²Ķ":2098,"Ġìŀĳê³¡":2099,"Ġì£¼ë¡ľ":2100,"ĠìĿ¸íĦ°":2101,"ìĥĪ":2102,"2008":2103,"ìľ¼ë¡ľìĦľ":2104,"Ġê³ĦìĨį":2105,"ëªħìĿ´":2106,"Ġë¸ĮëĿ¼":2107,"Ġë§¤ìļ°":2108,"ĠíıĲì§Ģ":2109,"ĠìĥĿìĤ°":2110,"ĠíĶĦë¦¬":2111,"07":2112,"ĠìŀĪê³ł":2113,"ëŀĻ":2114,"ê¸´":2115,"ìĸ´ë¡ľ":2116,"éģ":2117,"2015":2118,"ĠìĨĮìŀ¬":2119,"ĠëłĪìĿ´":2120,"ĠëĶ¸":2121,"ĠìĿ´ê²ĥ":2122,"ëŀµ":2123,"ĠêµŃë¯¼":2124,"ĠëıĮìķĦ":2125,"ĠìŀĪëįĺ":2126,"âĢĵ":2127,"Ġê³łëł¤":2128,"¿Ĳ":2129,"Ġ[":2130,"ht":2131,"ì£Ħ":2132,"Ġ100":2133,"ëĲĺì§Ģ":2134,"2009":2135,"ê´´":2136,"ì¶ĺ":2137,"Ġë¹Į":2138,"Ġëª¨ëį¸":2139,"ĠíĹĮ":2140,"ce":2141,"ĠìķĬìķĺëĭ¤":2142,"ìĦ¬":2143,"ĠìĭľìłĪ":2144,"ìļ´ëıĻ":2145,"íı¬ì¸ł":2146,"Ġì»´":2147,"Ġìłľê³µ":2148,"Ġì¡°ì§ģ":2149,"2013":2150,"ĠìĦ¼":2151,"ê¸°ë¡ľ":2152,"03":2153,"ìŀ¥ìĿ´":2154,"og":2155,"2016":2156,"Ġ2021":2157,"ìĽĲìĿĺ":2158,"Ġ31":2159,"Ġê³µëıĻ":2160,"ìĿį":2161,"ìķķ":2162,"Ġê±°ì£¼":2163,"ĠíĽĦë³´":2164,"Ġ2001":2165,"ĠìĿ´ìķ¼":2166,"Ġê¸°íĥĢ":2167,"KBS":2168,"Ġë¶ĢìĤ°":2169,"ê²Ģ":2170,"Ġìļ¸":2171,"íķ´ìĦľ":2172,"ov":2173,"Ġê±´ì¶ķ":2174,"Ġêµ¬ê°Ħ":2175,"ë¦¬ìĺ¤":2176,"ĠíĻĪíİĺìĿ´ì§Ģ":2177,"ì¹Ļ":2178,"23":2179,"ëĤ¸":2180,"ì¢Į":2181,"ĠìķĦëĭĪëĿ¼":2182,"ëĤĺëĬĶ":2183,"ìĩ¼":2184,"Ġì¢Į":2185,"ìĦ±ìĿĺ":2186,"ìĪĺìĿĺ":2187,"ĠìĿ´ìľł":2188,"ë¡ľìĬ¤":2189,"ä¹":2190,"íĶĦë¦¬ì¹´":2191,"ìĿ¸ë¯¼ê³µ":2192,"éĩĳ":2193,"ĵ¨":2194,"ë¦¬ê³ł":2195,"ab":2196,"´ëĵľ":2197,"ĠìĨĮìĦ¤":2198,"ĠëĤ´ìļ©":2199,"24":2200,"Ġê³Ħíļį":2201,"ëĦ·":2202,"Ġíŀĺ":2203,"Ġì°¨ì§Ģ":2204,"Ġë®¤":2205,"°ëĭ¤":2206,"ìĬ¤ì½Ķ":2207,"ĠíķŃê³µ":2208,"ëıĦëĬĶ":2209,"æĺ":2210,"ĠêµŃê°ĢëĮĢíĳľíĮĢ":2211,"ìĽĲìłĦ":2212,"ĠìłĦì²´":2213,"Ġë°©ë²ķ":2214,"ĠìķĬê³ł":2215,"ĠIn":2216,"ëıĦê°Ģ":2217,"Ġìŀł":2218,"Ġëªĩ":2219,"ìłĦìĿĦ":2220,"ì§Ģë§ī":2221,"íĨ¤":2222,"ë¦¬ì§Ģ":2223,"ĠìķĬëĬĶëĭ¤":2224,"Ġë°ĶìĿ´":2225,"Ġê´Ģíķľ":2226,"Ġëĭ¤ìĿ´":2227,"ĠêµĲíĨµ":2228,"ĠìĭľìĬ¤íħľ":2229,"ìĭľê°Ħ":2230,"ìĸ¼":2231,"ë¥´íĬ¸":2232,"2007":2233,"Ġë¹ł":2234,"éĻ":2235,"art":2236,"ë¹Į":2237,"å¾":2238,"193":2239,"ĠëĬ¥":2240,"ëĭĿ":2241,"ìĿ¼ë¶ĢíĦ°":2242,"ist":2243,"ìĥ¤":2244,"ĠìĽĮ":2245,"2017":2246,"Ġëĳĺ":2247,"Ġw":2248,"Ġëħ¹":2249,"ë¡¯":2250,"ìļ±":2251,"éĥ":2252,"å¯":2253,"Ġì£¼ìļĶ":2254,"ìĭŃ":2255,"íĥķ":2256,"ĠëĪĪ":2257,"ëıĻì°¨":2258,"ì½ľ":2259,"Ġëĸ¨":2260,"ie":2261,"ìĽĲìĿĦ":2262,"2006":2263,"Ġê°ľìµľ":2264,"ĠãĢĮ":2265,"ĠìĦ±ìļ°":2266,"ìĿĮìĿĦ":2267,"Ġë¶Ħë¥ĺ":2268,"Ġìĸ¼":2269,"ìŀ¡":2270,"ĠëĶ°ë¥´":2271,"Ġëĸł":2272,"ë²¤":2273,"06":2274,"íĻĶë¥¼":2275,"ĠíĺĦëĮĢ":2276,"ĠìĹ°ê²°":2277,"Ġë°°ê²½ìľ¼ë¡ľ":2278,"Ġ|":2279,"ì½ĺ":2280,"ì·¨":2281,"ë¶ĢìĹĲ":2282,"íķĻê¸ī":2283,"ack":2284,"05":2285,"íķĺê¸°ëıĦ":2286,"ìĤ¬ëĬĶ":2287,"ĠìĻ¸êµŃ":2288,"ê¶ĮìĿĦ":2289,"ìĿ¸ëĭ¤":2290,"íĶ¼ìĸ¸":2291,"íĻķ":2292,"ess":2293,"ĠìĽ¹":2294,"Ġëª¨ìĬµ":2295,"Ġ1999":2296,"Ġíį¼":2297,"ĠìĹŃíķł":2298,"ë¹ĦìĬ¤":2299,"2018":2300,"Ġì¶Ķê°Ģ":2301,"íĶĦëŀĳ":2302,"æĿİ":2303,"ĠâĨ":2304,"Ġë§İìĿ´":2305,"ĠëıĦë¡ľ":2306,"ëĵľëĬĶ":2307,"ë§¥":2308,"Ġv":2309,"íĶĦë¡ľ":2310,"íķĺìŀĲ":2311,"íĳ¸":2312,"ĠíĿ¬":2313,"ĠìĿ¸ê°Ħ":2314,"ìļ´ëį°":2315,"ĠSBS":2316,"ĠíĶĮëłĪìĿ´":2317,"Ġëª¸":2318,"02":2319,".)":2320,"ĠìĤ¬ìĹħ":2321,"íħĲ":2322,"ëĮĢíķľ":2323,"½ĥ":2324,"íĹ¤":2325,"ĠíĬ¹ë³Ħ":2326,"Ġ1998":2327,"ìĪĺë¥¼":2328,"ĠíĮĶ":2329,"íĬľ":2330,"Ġë§Īì§Ģë§ī":2331,"íģĲ":2332,"íĬ¸ë¡ľ":2333,"íĦ¸":2334,"ì¥Ĳ":2335,"ë£¡":2336,"ĠìĿ´ë¯¸":2337,"Ġë¯¼ì£¼":2338,"ìĤ¬ê´Ģ":2339,"ĠìĹ´ë¦°":2340,"ĠëıĦì¿Ħ":2341,"Ġê²°êµŃ":2342,"¾¸":2343,"Ġëĭ¤ìĸĳíķľ":2344,"Ġë§¥":2345,"êµ´":2346,"ĠìķĦëŀĺ":2347,"Ġ1996":2348,"ìĿ´ìĿĺ":2349,"Ġ&":2350,"ãĢı":2351,"ìĬ¤íĥĦ":2352,"ra":2353,"ìĤ¬ë¡ľ":2354,"Ġê³µê°ľ":2355,"Ġê³¼ìłķ":2356,"Ġíĭ°":2357,"íĨ¨":2358,"ìķ¡":2359,"ê°ĢëĬĶ":2360,"ê³³":2361,"íķĢ":2362,"Ġê²©":2363,"ĠCh":2364,"ìľ¼ë¡ľë¶ĢíĦ°":2365,"íĿĲ":2366,"ëª¨íĨł":2367,"ìłĲìĿĦ":2368,"ĠìĹĦ":2369,"Ġìľłì§Ģ":2370,"ĠìĽĶëĵľì»µ":2371,"ĠíķĦìļĶ":2372,"Ġìľłëªħ":2373,"çİ":2374,"íĥģ":2375,"Ġê°Ģì§Ħ":2376,"ä»":2377,"Ġìłķì¹ĺìĿ¸":2378,"Ġë¬ĺ":2379,"Ľ°":2380,"ign":2381,"Ġë³´ê³ł":2382,"ìĥģìĿĺ":2383,"Ġê¸°ëĬ¥":2384,"ĠìłĦëĿ¼":2385,"ë©Ķëĭ¬":2386,"ëĥĲ":2387,"ë¥Ļ":2388,"ī¬":2389,"ĠíĴį":2390,"ìľ¼ë¡ľìį¨":2391,"09":2392,"Ġìĺ¤ìĬ¤íĬ¸":2393,"Ġì±Ķ":2394,"Ġë¬¸íĹĮ":2395,"Ġëª°":2396,"ĠĊĠĊĠĊĠĊ":2397,"08":2398,"ĠíĳľíĺĦ":2399,"ĠìĥĿíĻľ":2400,"Ġìļ´íĸī":2401,"ìĿ´ê°Ģ":2402,"íĵ¨":2403,"íı°":2404,"Ġê°Ģìļ´ëį°":2405,"ĠìķĦë¥´":2406,"ìŀ¥ìľ¼ë¡ľ":2407,"ĠìĽ¨":2408,"Ġê±°ìĿĺ":2409,"êµ°ìĿĢ":2410,"ĠíķĺìĹ¬":2411,"Ġst":2412,"Ġê°Ģë¦¬":2413,"ĠìĿ´ëģ":2414,"Ġl":2415,"2000":2416,"ĠFI":2417,"ĠëĨĴìĿĢ":2418,"Ġë§Įëĵ¤ìĸ´":2419,"ìĸ´ë¥¼":2420,"ìł¤":2421,"ìłľë¡ľ":2422,"íĹĪ":2423,"ìŀ¥ìĿĢ":2424,"ĠìķĬìĿĢ":2425,"Ġíķĺê³Ħ":2426,"ëĶ©":2427,"Ġê°ģê°ģ":2428,"ëłĩ":2429,"æŃ":2430,"Ġê²¸":2431,"Ġê²½ê¸°ëıĦ":2432,"28":2433,"Ġíľ´":2434,"Ġê´Ģë¦¬":2435,"ĠìłľêµŃ":2436,"ëĥĪëĭ¤":2437,"Ġ1997":2438,"íķĺëł¤":2439,"Ġì½ľ":2440,"ĠìĿĳ":2441,"å¹":2442,"Ġì¶ľìłĦ":2443,"26":2444,"ĠëĮĢìĥģ":2445,"04":2446,"Ġìĸ´ë¨¸ëĭĪ":2447,"ìĦ¼íĦ°":2448,"ĠÂ·":2449,"íķĺëįĺ":2450,"ĠìĿ¸ìłķ":2451,"ëĭ¤ê°Ģ":2452,"ĠìĿ¸ëıĦ":2453,"2019":2454,"ëĮĢíķľë¯¼êµŃ":2455,"ì§ĢìĿĺ":2456,"Ġìĸ´ë¦°":2457,"ìħĶ":2458,"ëł¥ìĿ´":2459,"Ġ1995":2460,"å±±":2461,"2020":2462,"ĠìŀĳìĿĢ":2463,"íķ´ìķ¼":2464,"Ġì±ĶíĶ¼ìĸ¸":2465,"ìĽĲìĿ´":2466,"æ´":2467,"est":2468,"íĬ¹ë³Ħìĭľ":2469,"Ġìķ¤":2470,"Ġê°ľêµĲ":2471,"Ġìĺ¤ë¸Į":2472,"ì²Ļ":2473,"2005":2474,"Ġìĥ¤":2475,"Ġìĺģíĸ¥ìĿĦ":2476,"Ġë°ľìłĦ":2477,"ê°ľìļĶ":2478,"Ġíıīê°Ģ":2479,"¹ìĿĢ":2480,"´¬":2481,"ìĿ´ìĸ´":2482,"ĠìĮ":2483,"ĠëĶ°ë¥´ë©´":2484,"ĠëĤĺëĿ¼":2485,"ĠëĮĢìĭł":2486,"Ġì§ģìłĳ":2487,"´Ħ":2488,"ê³¤":2489,"ĠíķĻìĥĿ":2490,"Ġê±´ìĦ¤":2491,"Ġë¹ĦëĶĶìĺ¤":2492,"ĠìłĦêµŃ":2493,"ìĿ¼ìĿĺ":2494,"ĠìĿ´ë¦ĦìĿĦ":2495,"ìĬ¤ìĻĢ":2496,"Ġì£¼ë³Ģ":2497,"50":2498,"ine":2499,"27":2500,"ĠìĿ´ë£¨ìĸ´":2501,"ìĤ¬íļĮ":2502,"ìĺĢëįĺ":2503,"ëģ¼":2504,"Ġìŀĳê°Ģ":2505,"íıŃ":2506,"Ġê²°íĺ¼":2507,"íħĶ":2508,"ity":2509,"ì¹´ìĻĢ":2510,"Ġì§Ģíķĺ":2511,"ĠëĤ¨ìķĦ":2512,"ĠìĥģíĻ©":2513,"Ġë²¨":2514,"ìŀĲìĻĢ":2515,"The":2516,"ĠìŀĲìĹ°":2517,"ĠìĿ´ëıĻ":2518,"ì£¼ìĭľ":2519,"ĩĮ":2520,"´¬ìĺģ":2521,"29":2522,"Ġë¨¹":2523,"åº":2524,"ä½":2525,"ĠìłķìĿĺ":2526,"íķĺì§Ģë§Į":2527,"è¡":2528,"ìĬ¤ë¡ľ":2529,"ard":2530,"ĠìĬ¬":2531,"Ġê·¸ê²ĥ":2532,"ĠìĦłìłķ":2533,"ëĵĢ":2534,"ìĩ":2535,"av":2536,"Ġê¼":2537,"ì³¤":2538,"ĠìŀĦëªħ":2539,"ëĭ¤ëĬĶ":2540,"Ġ1990":2541,"ct":2542,"ë°ĶìĿ´":2543,"Ġê±´ë¬¼":2544,"ë¯¸ëĶĶ":2545,"ì§ĢìĹĲ":2546,"Ġë³´ìĹ¬":2547,"ĠìĿ´ë¡ł":2548,"ĠëıĻë¬¼":2549,"ĠêµŃíļĮìĿĺ":2550,"Ġë°©ìĭĿ":2551,"ë¡¤":2552,"éķ":2553,"ĠíĽ":2554,"ê¸°ê´Ģ":2555,"ìĻĶëĭ¤":2556,"Ġêµ¬ìĹŃ":2557,"Ġíĳ¸":2558,"ìĿ¸ìĿĦ":2559,"ìĪĺìĥģ":2560,"ĠëĲĺëĬĶ":2561,"íıĲ":2562,"Ġìķķ":2563,"ìĪĺê°Ģ":2564,"ĠìķĬëĬĶ":2565,"ĠëĽ°":2566,"ê³µíķŃ":2567,"ëıħêµĲ":2568,"ell":2569,"Ġå":2570,"Ġê²½ì°°":2571,"ê³¼íķĻ":2572,"2004":2573,"ìŀĪëĭ¤":2574,"ill":2575,"ìłľê°Ģ":2576,"ìłľë¥¼":2577,"ì§Ģê³ł":2578,"ìĥĿìķł":2579,"íĸĪì§Ģë§Į":2580,"ak":2581,"ĠëĬĲ":2582,"Ġìĥī":2583,"ëĨį":2584,"if":2585,"ëłĢ":2586,"ĠìķĮëł¤ìł¸":2587,"ì¤Ħ":2588,"ê²¼":2589,"Ġë°´ëĵľ":2590,"Ġë¶Ļ":2591,"ìłķë¶Ģ":2592,"Ġë§ĪìĿĦ":2593,"ĠìĬ¤íı¬ì¸ł":2594,"Ġìĸ¸ìĸ´":2595,"ĠìłĦë¬¸":2596,"ìĤ¬ìĹĲ":2597,"Ġì§ĢëıĦ":2598,"Ġê·¸ë¦¬ìĬ¤":2599,"ĠëĤĺìĺ¤":2600,"¤ë²Ħ":2601,"Ġì¶ľìĭľ":2602,"ìĤ¬ì¹´":2603,"ìĦłê±°":2604,"ì¼ĵ":2605,"ë¯¸êµŃ":2606,"Ġn":2607,"Ġíķµ":2608,"ì¹ĺëĬĶ":2609,"all":2610,"und":2611,"ìĽ¨ìĸ´":2612,"ìŀ¥ìĿĺ":2613,"ëĳ¥":2614,"ì²łëıĦ":2615,"ĠFIFA":2616,"ìľĦìĹĲ":2617,"ĠX":2618,"ë²½":2619,"ë©ĺ":2620,"Ġê¸´":2621,"ëłĪìĿ¼":2622,"ĠíĽĪ":2623,"Ġ50":2624,"ĠìķĦìĭľ":2625,"íĵ¨íĦ°":2626,"ëł¬":2627,"ĠìĻĦìłĦ":2628,"ĠíĥĲ":2629,"Ġ1994":2630,"åĪ":2631,"ĠëĮĢêµ¬":2632,"ĠíĺķìĦ±":2633,"ëĮĢìĹĲ":2634,"ST":2635,"ëŁ¬ìĬ¤":2636,"ìĿ¸ìĿĢ":2637,"Ġì·¨ìŀĦ":2638,"ì½Ķëĵľ":2639,"ĠëĶ°ëĿ¼ìĦľ":2640,"ëĤĺìĿ´":2641,"êµ°ìĹĲ":2642,"ëįľ":2643,"íĺĦìĿĺ":2644,"íĤ¨ëĭ¤":2645,"ë¨¼íĬ¸":2646,"ìĦ¸ìĿĺ":2647,"Ġê³¼íķĻ":2648,"ĠìłķëıĦ":2649,"ĠìĦľë¡ľ":2650,"ĠíĽĦìĹĲ":2651,"ĠëĤ®":2652,"ç¾":2653,"ì§Ģë¡ľ":2654,"ìĹ¬ìŀĲ":2655,"ķħ":2656,"êµ°ìĿ´":2657,"Ġê³µê°Ħ":2658,"ĠìķĦëĭĮ":2659,"ĠìķĬìķĺ":2660,"Ġëħ¸ëıĻ":2661,"Ġë§Ĳíķľëĭ¤":2662,"Ġêµ°ìĤ¬":2663,"ëĵ¤ìĹĲ":2664,"ë§Īëĭ¤":2665,"ëĮĢíļĮ":2666,"ìª½ìľ¼ë¡ľ":2667,"ìĹĨ":2668,"ĠìľĮ":2669,"ìļĶìĿ¼":2670,"ìłĦìĹĲ":2671,"Ġëªħì¹Ń":2672,"Ġë¹Ī":2673,"Ġëĭ¨ì²´":2674,"Ġë§Įëĵł":2675,"íĬ¸ë¦¬":2676,"Ġì§Ģê¸Ī":2677,"ì§Ģê°Ģ":2678,"Ġê³µìĹ°":2679,"Ġì§Ģêµ¬":2680,"Ġê¸°ê´Ģ":2681,"íģ¬ë¡ľ":2682,"ĠìłľìĻ¸":2683,"Ġì¶©ì²Ń":2684,"Ġì´¬ìĺģ":2685,"æĪ":2686,"ìłķë³´":2687,"ĠìĺģíĻĶìĿ´ëĭ¤":2688,"ëĲĲëĭ¤":2689,"ĠëıĻìĭľìĹĲ":2690,"ìĺ¤ì¹´":2691,"Ġìłķì±ħ":2692,"ĠíĻľìķ½":2693,"ëĭ¨ìĿĺ":2694,"ì§Ģë°©":2695,"ĠìĥģëĮĢ":2696,"ê³Ħë¥¼":2697,"ë¬ĺ":2698,"ĠíĨµíķ©":2699,"íĭ±":2700,"ìĦłìĿĺ":2701,"Ġê¸°ë°ĺ":2702,"ì§ĢìĹŃ":2703,"Ġê¸°ê°Ħ":2704,"ĠìĹ°íķ©":2705,"ë¦°ëĭ¤":2706,"Ġì¤ĳìļĶíķľ":2707,"Ġê°ľìĿ¸":2708,"ë¥¸ëĭ¤":2709,"ìĿ¼ê¹Įì§Ģ":2710,"'s":2711,"ex":2712,"ë¶Ģë¥¼":2713,"Ġìĭ¸":2714,"ìĬ¤íĤ¤":2715,"ev":2716,"ìĽĲìľ¼ë¡ľ":2717,"ub":2718,"ĠìĤ¬ìĿ´ìĹĲ":2719,"yle":2720,"Ġê¸°ëħĲ":2721,"ĠìĹ°ê·¹":2722,"ìłľìĿĺ":2723,"ì¹¼":2724,"íķĺëĿ¼":2725,"ì¹ĺë¥¼":2726,"ep":2727,"ĠìĶ":2728,"2002":2729,"Ġ189":2730,"ìĽĲìĿĢ":2731,"ĠíĮĲë§¤":2732,"ĠìļĶêµ¬":2733,"ìĽħ":2734,"Ġì¹ľêµ¬":2735,"ì½©":2736,"Ġê¸°ë³¸":2737,"Ġê³łëĵ±íķĻêµĲ":2738,"Ġìĭ¤ìĭľ":2739,"ìĬ¤íħĮ":2740,"ĠìĿ¼ìľ¼":2741,"ì§Ħëĭ¤":2742,"ĠìĿĺíķľ":2743,"ĠëĦĪ":2744,"ëĤĺìĿĺ":2745,"ĠëıĦìŀħ":2746,"Ġë§Ŀ":2747,"ĠìĿ¸ì²ľ":2748,"Ġë°ĺëĮĢ":2749,"ì£¼ìĹ°":2750,"ë©Ķë¦¬ì¹´":2751,"å¸":2752,"Ġê²½ëł¥":2753,"ang":2754,"ìĤ¬ìĻĢ":2755,"ãĢĭ,":2756,"ĠìĤ°ìĹħ":2757,"ëĵľë¦¬":2758,"ì¹ł":2759,"ĠìĪĺíĸī":2760,"íĬ¼":2761,"Ġë¹Ħë¡¯":2762,"Ġì¤ĳíĻĶ":2763,"ìĿ¼ëŀľëĵľ":2764,"ë¦¬ìķĦìĿĺ":2765,"Ġa":2766,"ĠìŀĪëĬĶëį°":2767,"ìĬ¤íĭ°":2768,"ĠìĹŃìĭľ":2769,"ĠíĬ¹ì§ķ":2770,"Ġë¿Ĳ":2771,"ĠìĪĺë¡Ŀ":2772,"Ġíĩ´":2773,"çĽ":2774,"Ġê³Ħìķ½":2775,"Ġíģ¬ê²Į":2776,"ìĿ´ë¥¼":2777,"Ġê°Ģì¡±":2778,"íĹ¨":2779,"Ġê¸°ì¤Ģìľ¼ë¡ľ":2780,"íĬ¸ìĿĺ":2781,"Ġíĺģ":2782,"Ġìĺ¥":2783,"ĠìĦ¤ë¦½ëĲľ":2784,"Ġíģ¬ë¦¬ìĬ¤":2785,"ĠìºĲëĤĺëĭ¤":2786,"ìĬ¤ì¹´":2787,"Ġíİ¸ìĦ±":2788,"ë²łìĿ´":2789,"Ġë©¤ë²Ħ":2790,"ëĮĢê°Ģ":2791,"ìłĦìĹĲìĦľ":2792,"ìĤ¬ìĹħ":2793,"Ġê·¸ê°Ģ":2794,"ë¦ī":2795,"ĠìĹ°ìĨį":2796,"ìŀĦìĿĦ":2797,"Ġ1992":2798,"ìĤ¬ìĿ´":2799,"Ġ=":2800,"éĿ":2801,"Ġë¯¼ì¡±":2802,"align":2803,"ian":2804,"ĠìĹ°ì£¼":2805,"Ġìļ°ì£¼":2806,"æĹ":2807,"Ġ1993":2808,"ëĵľë¡ľ":2809,"Ġê·¸ëŀĺ":2810,"ĠìĻ¸êµŃìĿ¸":2811,"ëħ¼":2812,"ê¸°íĥĢ":2813,"Ġì°¨ëŁī":2814,"ĠìĹ°ë°©":2815,"ĠìĭľìĦ¤":2816,"nd":2817,"ìķĦìĿ´":2818,"Ġëį°ìĿ´íĦ°":2819,"2003":2820,"ĠìłĦê¸°":2821,"FC":2822,"ìĨĮëħĦ":2823,"ìĬ¤íİĺ":2824,"ĠíĻĺê²½":2825,"ĠìĭľìŀĳíĸĪëĭ¤":2826,"ew":2827,"æ³":2828,"ê°ĳ":2829,"ì¶ķêµ¬":2830,"MBC":2831,"Ġìĸ´ëĸ¤":2832,"ìĨĮë¥¼":2833,"ìĦľê´Ģ":2834,"ĠëĲĺìĹĪ":2835,"Ġê°ľíĨµ":2836,"ë¬¸ìĿĦ":2837,"Ġê²¬":2838,"ëĲĺë©°":2839,"ĠìĬ¤ìľĦ":2840,"íıīê°Ģ":2841,"ëĿ¼ìĿ¸":2842,"48":2843,"ĠëĿ¼ëĶĶìĺ¤":2844,"ëĤĺë¬´":2845,"ĠìĤ¬ê³ł":2846,"ê¸°ìĪł":2847,"íĤ¹":2848,"ĠëĨĵ":2849,"ìŀ¥ìĹĲ":2850,"êµŃë¯¼":2851,"Ġíĥĳ":2852,"Ġì°©":2853,"ì¦ĺ":2854,"ëįľëŀĢëĵľ":2855,"Ġê°ľìĿĺ":2856,"åŁ":2857,"ëĲĺë©´ìĦľ":2858,"Ġë¹ĦíĮĲ":2859,"ip":2860,"ĠíŀĪë¡ľ":2861,"¢°":2862,"Ġìľ¡êµ°":2863,"ìĭľì½Ķ":2864,"Ġ1991":2865,"çİĭ":2866,"ber":2867,"íĻĶêµŃìĿĺ":2868,"Ġë¯¸ìĪł":2869,"Ġìłķëĭ¹":2870,"ì£¼ëĬĶ":2871,"ë£¨ìĬ¤":2872,"ĠìĨĮíĶĦíĬ¸":2873,"íĻĶê°Ģ":2874,"ìłĿ":2875,"ĠëĤĺê°Ģ":2876,"ĠìĹŃíķłìĿĦ":2877,".\"":2878,"íĮĶ":2879,"ì²´ìĿĺ":2880,"Ġë³´íĺ¸":2881,"ĠìŀĪìĿĦ":2882,"Ġëĭ´ëĭ¹":2883,"ive":2884,"ëĭī":2885,"Ġê±°ì³Ĳ":2886,"Ġë©Ķëĭ¬":2887,"Ġì´Īê¸°":2888,"ĠìĤ¬ë¬´":2889,"ĠìĦ¤ëªħ":2890,"ĠìĿ¸êµ¬ëĬĶ":2891,"Ġíģ´ëŁ½":2892,"ëĺĲ":2893,"ëĤĺê°Ģ":2894,"ìŀĶ":2895,"íĨłë¦¬":2896,"Ġê¶ģ":2897,"ĠëĤĺë":2898,"ëª½":2899,"ĠìĬĪíį¼":2900,"Ġ2022":2901,"Ġê¸°ì¡´":2902,"ĠìŀĪëĭ¤ê³ł":2903,"ud":2904,"ë¥´ê²Į":2905,"ìłģìĿĢ":2906,"ê´Ģë¦¬":2907,"Ġìµľì´ĪìĿĺ":2908,"ĠãĢİ":2909,"Ġì§ĢìĹŃìĿĺ":2910,"ìŀ¥ìĹĲìĦľ":2911,"Ġë°°ìļ°ìĿ´ëĭ¤":2912,"Ġì²ĺìĿĮìľ¼ë¡ľ":2913,"íĬ¸ëĤ¨":2914,"Ġì¢ħêµĲ":2915,"ae":2916,"ç¥":2917,"ĠìĽĲëŀĺ":2918,"Ġëľ»ìĿĢ":2919,"ĠíĮ¬":2920,"ë¡Ń":2921,"ë¶ĢëĬĶ":2922,"ëª°":2923,"íĺĦìŀ¬":2924,"ĠìĨĮëł¨":2925,"our":2926,"Ġê³µíķŃ":2927,"ĠíĸīëıĻ":2928,"ëĮĢëĬĶ":2929,"ìłł":2930,"Ġíĺ¹ìĿĢ":2931,"Ġíĥľìĸ´ëĤ¬ëĭ¤":2932,"ĠìłĦíĨµ":2933,"ãĥ»":2934,"Ġìŀīê¸Ģëŀľëĵľ":2935,"ĠëĵĿ":2936,"ìĪĺëĬĶ":2937,"Ġëĭ¬ë¦¬":2938,"ĠìĹ¬ê°Ŀ":2939,"íķĺìĿ´":2940,"Ġì¹¸":2941,"ì¤ĳìĹĲ":2942,"ìĿ´ìĹĪëįĺ":2943,"ìłķíķľ":2944,"ë®¤":2945,"Ġìĺ®":2946,"ĠêµŃë¦½":2947,"ìĸ´ëĬĶ":2948,"ĠìĹ¼":2949,"ìĬ·":2950,"ìĬ¤íĦ´":2951,"íĤ¬":2952,"ì£¼ìļĶ":2953,"æ²":2954,"ë°į":2955,"ìłķìĿĺ":2956,"ìĪĺë¡ľ":2957,"eb":2958,"Ġ1980":2959,"60":2960,"ê°Ķëĭ¤":2961,"Ġë°Ķë¡ľ":2962,"ĠêµŃíļĮìĿĺìĽĲ":2963,"ë¦¬íķĻ":2964,"ë¦¬ìĻĢ":2965,"íĺĶëĭ¤":2966,"Ġíķľíİ¸":2967,"Ġë²łìĿ´":2968,"ê²©ìĿĦ":2969,"ĠìľĦíķĺìĹ¬":2970,"2001":2971,"íķĺëĬĶëį°":2972,"ĠìĨĶ":2973,"íĬ¸ë¥¼":2974,"Ġìłģìļ©":2975,"ëªħìĿĢ":2976,"íĢ":2977,"íĸĪìľ¼ëĤĺ":2978,"Ġë¯¸êµŃìĿ¸":2979,"ĠíķĺìĺĢ":2980,"ĠíĶ¼íķ´":2981,"ĠíĴĢ":2982,"Ġë§ĪìĿĮ":2983,"ĠĠĠĠĠĠĠĠ":2984,"Ġì¦Ŀê°Ģ":2985,"Ĳë¦¬":2986,"ë¢°":2987,"ĠëĲł":2988,"æĽ":2989,"ëĵľìĿĺ":2990,"ëĿ¼ìĿĺ":2991,"Ġë°©ìĺģ":2992,"ë¬¼ìĿĦ":2993,"Ġg":2994,"ĺë¦¬":2995,"ëĿ¼ìĬ¤":2996,"Ġìķ¡":2997,"ĠêµŃëĤ´":2998,"ĠìĹŃìŀĦ":2999,"Ġì»¨":3000,"ë¥´ê³ł":3001,"ãģ®":3002,"Ġê°ĳ":3003,"ìħĢ":3004,"Ġìĵ":3005,"ĠìĿ´ìĤ¬":3006,"ìĦľë¥¼":3007,"ort":3008,"ìħľ":3009,"íİľ":3010,"Ġ1987":3011,"Ġë¹ĦìĬ·":3012,"ĠìļĶìĭľ":3013,"êµ°ìĿĦ":3014,"ant":3015,"Ġë³´íĨµ":3016,"ìĿ¸ë¯¼ê³µíĻĶêµŃ":3017,"Ġì»´íĵ¨íĦ°":3018,"ìĦŃ":3019,"ĠìľłìĿ¼":3020,"Ġëįķ":3021,"ĠìĪĻ":3022,"ĠëĲĺê³ł":3023,"ĠìµľëĮĢ":3024,"Ġíķĺë©°":3025,"ĠìĹ´ì°¨":3026,"ë£¬":3027,"ith":3028,"Ġê³¼ê±°":3029,"Ġì§Ģíľĺ":3030,"ìĿ´ê¸°ëıĦ":3031,"ìĦłìĿĦ":3032,"ê°ĦìĿĺ":3033,"ìĩĦ":3034,"Ġì£¼ìĹ°":3035,"ĠìĦłíĥĿ":3036,"ìĹŃëĮĢ":3037,"ĠìĿ´ìķ¼ê¸°":3038,"2021":3039,"ĠìŀĳìĹħ":3040,"ë¯¼ì£¼ì£¼ìĿĺ":3041,"Ġì°¾ìķĦ":3042,"ìĦ±ìĿĢ":3043,"ëĵ¬":3044,"Ġê¸°ëıħêµĲ":3045,"ê³¼ëĬĶ":3046,"Ġë°¤":3047,"ë°°ìļ°":3048,"ëıĦìĹĲ":3049,"ĠìĨĮìŀ¬ë¡ľ":3050,"Ġê²½ê¸°ìĹĲìĦľ":3051,"ĠíĻķìĿ¸":3052,"ĠìĬ¹ê°ķ":3053,"êµĲíĨµ":3054,"éĽ":3055,"ìķ¤":3056,"æµ":3057,"Ġíļį":3058,"ĠëĤĻ":3059,"ĠìĤ¬ìĥģ":3060,"ì²´ë¥¼":3061,"Ġ40":3062,"Ġ?":3063,"Ġë©ĶìĿ´":3064,"íĺĳíļĮ":3065,"éģĵ":3066,"ë¦ŃíĦ°":3067,"íĨ¨ë¦Ń":3068,"ìĿ¸ë¬¼":3069,"ight":3070,"ìłģìĿĦ":3071,"Ġ.":3072,"ìľµ":3073,"Ġì§ĢëĤĺ":3074,"Ġëª¨ìĸĳ":3075,"ĬìĿĢ":3076,"ìĭľìķĦìĿĺ":3077,"Ġë°ĽìĿĢ":3078,"ft":3079,"EFA":3080,"íķĺìĺĢìľ¼ëĤĺ":3081,"ëĭ¹ìĿĺ":3082,"ìĤ¬íĤ¤":3083,"íķĺê±°ëĤĺ":3084,"ĠìĹĨìĿ´":3085,"ìĭľëĮĢ":3086,"ìī¬":3087,"Ġìµľì¢ħ":3088,"ìĭľì¦Į":3089,"ìĤ¬ìĿ´íĬ¸":3090,"Ġì§Ģë°°":3091,"ìĦ¸ê³Ħ":3092,"ìľĪ":3093,"Ġë¶Ģë¬¸":3094,"ĠìĹ°ê¸°":3095,"ê¾¸":3096,"ê²Ĳ":3097,"ĠìĺĪìĪł":3098,"qu":3099,"Ġ1988":3100,"æĸĩ":3101,"ë¦¬ë¡ľ":3102,"ĠìķĦëĤĺ":3103,"mm":3104,"êµĲíļĮ":3105,"ëľ":3106,"ĠêµŃìłľê³µíķŃ":3107,"Ġ1989":3108,"ĠêµĲíļĮ":3109,"ìłķìĹĲ":3110,"ìĺĪìĪł":3111,"Ġë¹ĦêµĲ":3112,"Ġë°©íĸ¥":3113,"ìĸ´ê°Ģ":3114,"æĻ":3115,"ìľĦë¡ľ":3116,"Ġìļ°ë¦¬":3117,"ĠìĬ¤íİĺìĿ¸":3118,"ê²½ìłľ":3119,"ĠíķĺìĿ´":3120,"Ġë¡Ŀ":3121,"Ġëī´ìļķ":3122,"ë²łë¥´":3123,"ĠëĮĢíķĺìĹ¬":3124,"40":3125,"ĠíĿĳ":3126,"ì¡°ìĿĺ":3127,"ĠìķĦìĭľìķĪ":3128,"ìĽ¨ëį´":3129,"ìļ°ìĬ¹":3130,"ë©ĶìĿ´":3131,"ĊĊĠ":3132,"ĠëłĪì½Ķëĵľ":3133,"ä¸Ń":3134,"Ġë¨¼":3135,"ĠìĺĽ":3136,"NA":3137,"row":3138,"Ġì´Īëĵ±íķĻêµĲ":3139,"ĠìľĪ":3140,"up":3141,"Ġìī":3142,"ìľ¼ë©´":3143,"Ġì£¼ìĿ¸":3144,"Ġì¶Ķìłķ":3145,"ì§ĢíĦ¸":3146,"ĠëĦĵ":3147,"sp":3148,"Ġìķ¼ë§Ī":3149,"ìĿĺë¥¼":3150,"Ġë°ĸ":3151,"ìķĦìĿĺ":3152,"ëĮĢìłĦ":3153,"ìĽĮëĵľ":3154,")Â·":3155,"ĠìŀĲê¸°":3156,"ĠíĶĦë¡ľëĵĢ":3157,"ķìĭľì½Ķ":3158,"ì§ĢìĽĲ":3159,"íĸīìłķ":3160,"Ġëª½":3161,"1999":3162,"¶¤":3163,"Ã©":3164,"ĠĠĠ":3165,"ff":3166,"ĠâĨĴ":3167,"Ġì¡°ì§Ģ":3168,"ëħĦìĿĺ":3169,"ĠìĿ´ëģĮ":3170,"ëĿ¼ìļ´ëĵľ":3171,"Ġë¶Ħìķ¼":3172,"ìŀĲë¦¬":3173,"Ġê±°ì£¼íķľ":3174,"ëĭ¤ê³ł":3175,"ĠêµĲíĻ©":3176,"ëıĻìķĪ":3177,"ĠìŀĪëĭ¤ëĬĶ":3178,"ìĭľì¼°ëĭ¤":3179,"åŃ¸":3180,"Ġê·ľëª¨":3181,"ĠìĺĪìłķ":3182,"ĠëŁ°":3183,"ĠìŀĪì§Ģë§Į":3184,"ĠíĽĦë°ĺ":3185,"ĠíĿĶ":3186,"íĺĪ":3187,"ë±":3188,"ì¢ħìĿĺ":3189,"ìĸ´ìĿĺ":3190,"ëŀ«":3191,"ìĽ¨ìĿ´":3192,"ran":3193,"êµŃê°Ģ":3194,"Ġíĥľìĸĳ":3195,"æł":3196,"Ġë³´ëĤ´":3197,"Ġë¶Ħë¦¬":3198,"ĊĠĊ":3199,"å¿":3200,"ast":3201,"ëªħìĿ´ëĭ¤":3202,"ĠíĶĦë¡ľìłĿ":3203,"ë¬¼ê´Ģ":3204,"ê²łëĭ¤":3205,"ìŀīê¸Ģëŀľëĵľ":3206,"íĺ¸ë¥¼":3207,"Ġíĳľì¤Ģ":3208,"ìĬ¤ì¼Ģ":3209,"Ġìĥģëĭ¹":3210,"cm":3211,"Ġê±´ì¶ķë¬¼":3212,"ĠìĦłë°ľ":3213,"Ġìĭ¤íĮ¨":3214,"ìĨįëıĦë¡ľ":3215,"Ġëĸ¨ìĸ´":3216,"ëĿ¼ëıĦ":3217,"Ġì¡°ìĤ¬":3218,"íĥĳ":3219,"ë¶Ģë¥´íģ¬":3220,"ĠëĮĢì²´":3221,"ĠìĿµ":3222,"êµ¬ìĹŃ":3223,"íĥĢìĿ´":3224,"ĠëªħìĿĺ":3225,"Ġê°ľëħĲ":3226,"éĸ":3227,"Ġì¤ĳìĭ¬ìľ¼ë¡ľ":3228,"ìĿ´ëŀĢ":3229,"ĠìŀĲì¹ĺ":3230,"íļĮìĤ¬":3231,"ĠìŀĲìĭłìĿ´":3232,"1998":3233,"ë¬´ëĿ¼":3234,"ĠìĤ¼ìĦ±":3235,"ĠìĿ´ìĥģìĿĺ":3236,"íģ¬ìĿĺ":3237,"Ġê´ĳì£¼":3238,"Ġì¶ľíĮĲ":3239,"íŀĮ":3240,"ĠìĿ´ìĻĢ":3241,"ë¦¿":3242,"ìĬ¤íĨł":3243,"ER":3244,"ĠìĺģêµŃìĿĺ":3245,"ĠìĿ¼ë°ĺìłģìľ¼ë¡ľ":3246,"ĠìĦľìļ¸íĬ¹ë³Ħìĭľ":3247,"Ġê°Ģê¹Į":3248,"ìĽĥ":3249,"Ġì´ĪëĮĢ":3250,"ĠìĪĺìĥģìŀĲ":3251,"¿Ī":3252,"ìĦłìĪĺ":3253,"íķĻìłģ":3254,"Ġë§Īë¥´":3255,"íĤ¤ëĬĶ":3256,"Ġh":3257,"ong":3258,"ìĿ´ì§Ģë§Į":3259,"ëĭĪìĬ¤":3260,"Ġìĸ´ëĬĲ":3261,"Ġì§Ģì§Ģ":3262,"ĠíĹ¬":3263,"Ġê°ľìĭľ":3264,"ĠìºĲë¦ŃíĦ°":3265,"êµŃìłľ":3266,"ë¥´íĪ¬":3267,"ĠíĢ":3268,"ry":3269,"Ġê´´":3270,"ĠìĿ´ìłģ":3271,"åĮ":3272,"Ġë°Ķíĥķ":3273,"ĠìĤ¬ì§Ħ":3274,"ìĨĶ":3275,"Ġíķ´ìĻ¸":3276,"ìĿ´ì¹ĺ":3277,"ĠìŀĶ":3278,"35":3279,"ĠìĹ¬ê¸°":3280,"é«":3281,"ĠìĿ´ëķĮ":3282,"Ġstyle":3283,"Ġë²ĦìłĦ":3284,"Ġìĭľë¯¼":3285,"80":3286,"SBS":3287,"ë¸":3288,"Ġto":3289,"Ġë¥ĺ":3290,"ĠëķĮë¬¸ìĿ´ëĭ¤":3291,"Ġê·¸ë¥¼":3292,"ë¬´ë¥¼":3293,"ê¼":3294,"Ġëĥ":3295,"Ġê³µíĻĶêµŃ":3296,"Ġíļ¨ê³¼":3297,"1996":3298,"Ġë°Ľìķĺ":3299,"ĠíļįëĵĿ":3300,"Ġë°Ľê³ł":3301,"ĠìľłëĭĪ":3302,"Ġì¢ħë¥ĺ":3303,"ĠíļĮìĤ¬":3304,"ne":3305,"Ġì¢ĭìķĦ":3306,"ĠìķĦíĤ¤":3307,"íĶĦë¦¬":3308,"1990":3309,"ĠìĿ´ë¥´":3310,"ì²´ê°Ģ":3311,"Ġì¢ĭìĿĢ":3312,"ìĦ±ê³¼":3313,"ĠìĿ´ê²ĥìĿĢ":3314,"ê±¸":3315,"ĠëıĻìĿ¼":3316,"Ġìĺ¤ëĬĺ":3317,"ë²ĦíĬ¸":3318,"ok":3319,"ë¯¼ì£¼ëĭ¹":3320,"Ġë¶Īê°Ģ":3321,"ĠìĶ¨":3322,"Ġìĸ¸ê¸ī":3323,"ëĭ¨ìĿĦ":3324,"ĠìĿĺìĽĲ":3325,"íķĳ":3326,"Ġì¢ħë£Į":3327,"íĺ¸ë¡ľ":3328,"Ġë§¨":3329,";\"":3330,"Ġë°ĺìĿĳ":3331,"Ġìĺ¬ëĿ¼":3332,"ĠìķĦì¹´":3333,"ë¡ľìĿĺ":3334,"ĠëĤĺìĿ´":3335,"ë¹Ļ":3336,"ial":3337,"ëłµ":3338,"Ġëį´":3339,"ëĮĢìĥģ":3340,"ìĿ´íĥĪë¦¬ìķĦ":3341,"ìĽĢìĿĦ":3342,"ê¸°ìĻĢ":3343,"ë©¸":3344,"Ġë§ĮíĻĶ":3345,"ĮĦ":3346,"Ġ1970":3347,"íĻĢ":3348,"ĠìłĦìŀĲ":3349,"ë¬¸íķĻ":3350,"ĠêµĲìŀ¥":3351,"ë¡±":3352,"ëıĦìĭľ":3353,".(":3354,"íĸĪëĭ¤ê³ł":3355,"ë¸Ĳ":3356,"ìĿ¼ìĿĦ":3357,"ass":3358,"Ġë³ĢíĻĶ":3359,"åŃĲ":3360,"Ġë¸ĮëĿ¼ì§Ī":3361,"ĠìķĦìĭľìķĦ":3362,"Ġë³¸ìĦł":3363,"ĠìĨĮìľł":3364,"Ġde":3365,"ĠìĮį":3366,"íĬ¸ìĽĮ":3367,"Ġê¸°ìĽĲìłĦ":3368,"ĠìĦľë¹ĦìĬ¤":3369,"ĠìŀħíķĻ":3370,"Ġ1986":3371,"Ġì§ķ":3372,"ĠFCìĿĺ":3373,"ĠëıĪ":3374,"ord":3375,"ĠĊĊĠ":3376,"íľ´":3377,"ĠíĺĦìŀ¬ìĿĺ":3378,"ng":3379,"Ġíıīê·ł":3380,"ìĤ°ìĹħ":3381,"ĠìĹĲëĦĪ":3382,"Ġê´Ģíķł":3383,"Ġê²°ìĬ¹":3384,"Ġê³§":3385,"Ġfor":3386,"ĠëĬĺ":3387,"ĠìĬ¤íħĮ":3388,"ãĥ¼":3389,"íķĻëħĦ":3390,"éĩĮ":3391,"ê·¸ëŀĺ":3392,"ìª½ìĹĲ":3393,"íĺ¸ëĬĶ":3394,"ëŁ¬ëĤĺ":3395,"ìĿĮìķħ":3396,"ëıĪ":3397,"ĠíĿĲ":3398,"ë©´ìĹĲ":3399,"Ġì¡°ê±´":3400,"ĠêµŃëıĦ":3401,"Ġëķħ":3402,"ĠìļĶë¦¬":3403,"Ġì¹Ń":3404,"ĠìĦłì¶ľ":3405,"ì¤ĳìķĻ":3406,"Ġì¡°ìķ½":3407,"ob":3408,"ĠìŀĲëıĻì°¨":3409,"ëĤľëĭ¤":3410,"ĠëĦ£":3411,"Ġë©Ķëĭ¬ë¦¬ìĬ¤íĬ¸":3412,"Ġê°ĢíĨ¨ë¦Ń":3413,"ìĦ¯":3414,"ëıĦìļ°":3415,"ë¥´ìĿĺ":3416,"CA":3417,"ĠìĬ¹ë¦¬":3418,"Ġìłķê·ľ":3419,"ìĥģìĿ´":3420,"ĠìĭĿë¬¼":3421,"ens":3422,"æ°ı":3423,"Ġíķĺëĭ¤":3424,"Ġë³´ìĿ¸ëĭ¤":3425,"íķĻìĥĿ":3426,"Ġëĭ¤ì¹´":3427,"íĬ¸ëĬĶ":3428,"ĠíĺķìĭĿ":3429,"ĠZ":3430,"1997":3431,"ĠìĨĮíĶĦíĬ¸ìĽ¨ìĸ´":3432,"ĠìĹĶì§Ħ":3433,"ê³ĦìĿĺ":3434,"ain":3435,"ëĵľë¥¼":3436,"ë§ĪìĿ´":3437,"Ġë¶Ģì¡±":3438,"Ġìĸ¸ë¡ł":3439,"ĠìĿ´íķ´":3440,"ĠìĦ¸íı¬":3441,"ìĬ¤ìĹĲ":3442,"Ġê°ķìĽĲ":3443,"ìĦ¸ìĿ´":3444,"Ġëĵ±ìĹĲ":3445,"ì¹ĺê°Ģ":3446,"Ġê°ľìĹħ":3447,"å¼":3448,"Ġê·¸ë¦¼":3449,"ĠíĿ¥":3450,"ĠAl":3451,"ìĭľì¼ľ":3452,"Ġ1984":3453,"ìłľëĬĶ":3454,"ik":3455,"ĠëĽ°ìĸ´":3456,"ëĢ":3457,"ë¦¬ê·¸ìĿĺ":3458,"ĠìŀĪìĸ´ìĦľ":3459,"Ġê±¸ì³Ĳ":3460,"ont":3461,"ê°ľìĽĶ":3462,"Ġë¬¸íķĻ":3463,"ìĽĲìĹĲ":3464,"ĠëĳĲê³ł":3465,"ĠII":3466,"ëŁŃ":3467,"ĠíĻķìŀ¥":3468,"ë¶Ģê°Ģ":3469,"ìĦ±ìĹĲ":3470,"ìĤ¬ëĭ¨":3471,"æķ":3472,"ĠíĻľëıĻìĿĦ":3473,"ìĭ¬ìĿĦ":3474,"ĠìĪĺëĬĶ":3475,"Ġ1985":3476,"ĠUn":3477,"ĠìĿ´ë¦ĦìĿĢ":3478,"ĠTh":3479,"Ġíľĺ":3480,"íļĮë¥¼":3481,"Ġìłķìĭł":3482,"ìłĦìŀĲ":3483,"ë¬¸íĻĶìŀ¬":3484,"íĴĢ":3485,"Ł³":3486,"ëłĩê²Į":3487,"éĢ":3488,"com":3489,"ëį¤":3490,"Ġìŀĥ":3491,"ë·°":3492,"ĠíĹĮë²ķ":3493,"ìĶ©":3494,"ìłķìĿ´":3495,"ëłĪìĿ´ìħĺ":3496,"ĠëĿ":3497,"Ġê²½ìĺģ":3498,"Ġë¶ĦìĦĿ":3499,"ìļ°ë¦¬":3500,"ëĭ¤ìĿ´":3501,"Ġíķĺë£¨":3502,"ON":3503,"¨ë¦¬":3504,"ìĦ¸ê°Ģ":3505,"Ġê°ľë´ī":3506,"ect":3507,"ìľłëŁ½":3508,"Ġìłľì¡°":3509,"ì³¤ëĭ¤":3510,"êµ¬ìĹĲ":3511,"Ġè":3512,"ë¶Īìĸ´":3513,"eg":3514,"1995":3515,"ìĺģìĸ´":3516,"round":3517,"íĸĪëĬĶëį°":3518,"Ġêµ°ìĿ¸":3519,"Ġìµľì´Īë¡ľ":3520,"Ġê°ĲëıħìĿĺ":3521,"éķĩ":3522,"ëª¨ë¦¬":3523,"ê²ĮìŀĦ":3524,"ĠìĦłìĸ¸":3525,"Ġç":3526,"ìĹ°íķ©":3527,"ory":3528,"ì°¨ìłĦ":3529,"ì§ĢìĻĢ":3530,"ĠìĬ¤íĬľ":3531,"31":3532,"ìĭľíĤ¤ëĬĶ":3533,"ëį°ìĿ´":3534,"ĠëĲĺìĹĪê³ł":3535,"ĠìĬ¤íĬ¸":3536,"ĠìłĦìĹĲ":3537,"å¥":3538,"Ġëªħëł¹":3539,"1994":3540,"ê°Ĳëıħ":3541,"ëĤĺë¯¸":3542,"íħĮìĿ¸":3543,"Ġë¹ħ":3544,"ĠìĽĢ":3545,"ĠìľłìĤ¬":3546,"Ġë°ĶëĢ":3547,"ì§Ģì»¬":3548,"ĠëĮĢë¶Ģë¶ĦìĿĺ":3549,"ĠìķĮëłī":3550,"Ġ188":3551,"ĠìĹĨìĹĪëĭ¤":3552,"Ġëª©íĳľ":3553,"BO":3554,"ìĿĢíĸī":3555,"äºº":3556,"Ġìłľíķľ":3557,"å·ŀ":3558,"ìĿ¸íĬ¸":3559,"Ġì£¼ë¯¼":3560,"ĠìķĦíĶĦë¦¬ì¹´":3561,"ëĶĶìķĦ":3562,"Ġê³µìĤ°":3563,"Ġì§ĢìĨį":3564,"áĨ":3565,"Ġëª¬":3566,"ê·¸ë£¹":3567,"Ġë®¤ì§ģ":3568,"ĠìĤ¬ìĿ´ìĿĺ":3569,"Ġì¢ħíķ©":3570,"ìĦ¸ëĬĶ":3571,"ĠìĨįíķĺëĬĶ":3572,"ìŀĦìĬ¤":3573,"hy":3574,"Ġìĺģìĸ´":3575,"ĠìĽ¹ìĤ¬ìĿ´íĬ¸":3576,"ĠìĤ¬ìļ©íķĺëĬĶ":3577,"Ġë§ĪìĤ¬":3578,"ĠëĶĶìŀĲìĿ¸":3579,"Ġì´Į":3580,"ĠìĻľ":3581,"Ġë°ľë§¤ëĲľ":3582,"ìķĦìĭľìķĦ":3583,"ĠíĶĦëŀĳìĬ¤ìĿĺ":3584,"ĠíķĺëĤĺìĿ´ëĭ¤":3585,"ĠíĽĦì¿ł":3586,"ĠëĦ¤ëįľëŀĢëĵľ":3587,"ìĤ¬ê±´":3588,"ĠìĿ´ëŁ°":3589,"ĠìĬ¹ê²©":3590,"Ġì±ĦëĦĲ":3591,"İìĿĢ":3592,"Ġíı´ëŀĢëĵľ":3593,"Ġì½Ķë¯¸ëĶĶ":3594,"åľĭ":3595,"ì§ľ":3596,"ĠìłľíĴĪ":3597,"ary":3598,"è¨":3599,"ĠëĤ´ëł¤":3600,"Ġon":3601,"æĿ±":3602,"ìĨĮê°Ģ":3603,"ĠíĮĮìĿ´":3604,"nt":3605,"ìĺ¹":3606,"Ġíķĺì§Ģ":3607,"ëĤ´ëĬĶ":3608,"Ġë¹Ħíĸī":3609,"ê³µìĤ¬":3610,"Ġê²½ìĥģë¶ģëıĦ":3611,"Ġì°¬":3612,"36":3613,"ĠëĶĶì§ĢíĦ¸":3614,"37":3615,"ìŀĲëĵ¤ìĿĢ":3616,"íĸĪìĿĦ":3617,"íĺ¹":3618,"ë¦¬ìĹĦ":3619,"Ġëª¨ìĬµìĿĦ":3620,"ĠìķĦë§Ī":3621,"ĠíĨµê³¼":3622,"Ġê²¨":3623,"ĠìŀĪìĹĪëįĺ":3624,"45":3625,"Ġë²ķë¥ł":3626,"íķĺëıĦë¡Ŀ":3627,"Ġì¹ł":3628,"íı¬ëĭĪìķĦ":3629,"ë´":3630,"Ġê½ĥ":3631,"Ġìºł":3632,"ê²¼ëĭ¤":3633,"íĭ¸":3634,"ĠSp":3635,"ĠíĻĢ":3636,"ëĲĺìĹĪëįĺ":3637,"íķľëĭ¤ëĬĶ":3638,"ge":3639,"Ġ1981":3640,"íĶ¼ìķĦ":3641,"ê¸°ìĹħ":3642,"ëªħìľ¼ë¡ľ":3643,"Ġë¯¿":3644,"ë¸ĮëĿ¼":3645,"ëłĢëĭ¤":3646,"Ġìĸ´ëł¤":3647,"Ġì¹ĺë£Į":3648,"ì£¼ë¥¼":3649,"Ġ1983":3650,"ĠíĬ¹ìĪĺ":3651,"ëŀŃ":3652,"ĠìĨĮë¹Ħ":3653,"ëĳĶ":3654,"Ġë¹Ľ":3655,"ĠíķĢ":3656,"ĠëĮĢì¤ĳ":3657,"ib":3658,"Ġìĭ¤íĹĺ":3659,"íĪ":3660,"ĠAr":3661,"ĠìŀĪê²Į":3662,"Ġëĵ±ìľ¼ë¡ľ":3663,"Ġìŀ¥ê´Ģ":3664,"ĠìĦłìĪĺê¶Į":3665,"ìļĶìĭľ":3666,"Ġëī´ìĬ¤":3667,"ĠëįĶìļ±":3668,"Ġê°ķíĻĶ":3669,"ìłľìŀĳ":3670,"ĠìĺĪìĦł":3671,"ìĿĺíļĮ":3672,"Ġë¶Īêµ¬":3673,"ide":3674,"ä¿":3675,"Ġæ":3676,"ĺë¦¬íı¬ëĭĪìķĦ":3677,"ìĿ¼ìĹĲëĬĶ":3678,"ĠìĤ¬ëĿ¼":3679,"ëıĻìĹĲ":3680,"Ġìŀħëĭ¨":3681,"ëĲ¨":3682,"íķĻëł¥":3683,"Ġìľłíĺķ":3684,"íķµ":3685,"ĠìłľìŀĳëĲľ":3686,"Ġìľłë¡ľ":3687,"ich":3688,"Ġë§º":3689,"êµ¬ë¥¼":3690,"Ġíı¬íķ¨íķľ":3691,"å®ī":3692,"Ġë§ĲíĸĪëĭ¤":3693,"ë¡¬":3694,"ëį°ë¯¸":3695,"ĠìĦłìĪĺìĿ´ëĭ¤":3696,"Ġë¶ģíķľ":3697,"ate":3698,"ĠìĿ´ìľłë¡ľ":3699,"ì¤ĳêµŃ":3700,"Ġì§Ģíķĺì²ł":3701,"ìĦ¸ë¥¼":3702,"ê½ĥ":3703,"Ġë²¤":3704,"Ġìĭľíĸī":3705,"ìŀĲë£Į":3706,"ĠìĿĮìķħê°Ģ":3707,"ì»´":3708,"ìĤ¬ëŀĳ":3709,"ĠíĶĦëłĪ":3710,"Ġê°Ģë¦¬íĤ¨ëĭ¤":3711,"Ġê²ĥìĿ´ëĿ¼ê³ł":3712,"Ġì§ĢìĹŃìĹĲ":3713,"ĠëĤĺìĺ¨":3714,"ĠëıħìĿ¼ìĿĺ":3715,"1992":3716,"ì»¨":3717,"ìłģìĿ´":3718,"ê°ľë°ľ":3719,"ĠêµŃíļĮ":3720,"ìĨĮìĿĺ":3721,"Ġë°ĿíĺĶëĭ¤":3722,")(":3723,"ìĽłëĭ¤":3724,"ì°¨ë¡ľ":3725,"ë§ĮìĿĦ":3726,"ĠìĭłìĦ¤":3727,"ìĹ½":3728,"ĠíĺĪ":3729,"ĠìĹĲìĿ´":3730,"70":3731,"ground":3732,"end":3733,"Ġíİĺë¥´":3734,"ë§ĮìĿ´":3735,"ĠëĤĺì¹´":3736,"back":3737,"ĻìĿĢ":3738,"ĠíĴĪ":3739,"ìľĦìĿĺ":3740,"Ġ1982":3741,"Ġê·¸ëĵ¤ìĿĺ":3742,"Ġëĭ¬ìĦ±":3743,"Ġìľłëŀĺ":3744,"ì§Ģì§Ģ":3745,"Ġì§Ģìĥģ":3746,"99":3747,"ëŀĲëĭ¤":3748,"ĠìŀĲë¦¬":3749,"ore":3750,"Ġë¶Ģë¥´":3751,"Ġê²°íķ©":3752,"ĠìĦ¤ê³Ħ":3753,"å»":3754,"ë¯¸ìķ¼":3755,"Ġê¸°íļį":3756,"Ġk":3757,"Ġìłľì£¼":3758,"ë¶Ģë¡ľ":3759,"Ġêµ¬ëĭ¨":3760,"ìŀĲì¹ĺ":3761,"íģ¬ëĿ¼ìĿ´":3762,"ĠĊĠĊĠĊ":3763,"åįĹ":3764,"ĠìłĲëł¹":3765,"ĠìĹ¬íĸī":3766,"ë¶ĢìĤ°":3767,"ìĦ±ìļ°":3768,"íĶĪ":3769,"Ġë°©ë¬¸":3770,"ĠìĿ¸íĦ°ëĦ·":3771,"ëĿ¼ìļ°":3772,"ê¸°ìĽĲìłĦ":3773,"Ġë²łíĬ¸ëĤ¨":3774,"ì¡°ìĹ°":3775,"íĦ°íħĮìĿ¸":3776,"ĠìĦ±ìŀ¥":3777,"ìĭľë¡ľ":3778,"Ġì¼ĢìĿ´":3779,"ëħĦìĿĦ":3780,"ĠëªħìĺĪ":3781,"ĠìĨĮê°ľ":3782,"io":3783,"ĠëıĻìĥĿ":3784,"íĶĦëŀĳìĬ¤ìĿĺ":3785,"íķ¨ìľ¼ë¡ľìį¨":3786,"Ġíİľ":3787,"íķ´ìĿĺ":3788,"AR":3789,"ê·¸ëĬĶ":3790,"ĠìĿĢíĩ´":3791,"ĠìķĮëł¤ì§Ħ":3792,"åĬ":3793,"åŁİ":3794,"Ġì§Ģì§Ħ":3795,"ure":3796,"Ġê²°ìĦ±":3797,"ìĽĲìĹĲìĦľ":3798,"ë¹ł":3799,"Ġê²½ìĥģëĤ¨ëıĦ":3800,"ite":3801,"íıīìĸĳ":3802,"ĠìĿ´ë¦Ħìľ¼ë¡ľ":3803,"íĭ°ìķĦ":3804,"ìĿ¸êµ¬":3805,"ä¸ī":3806,"1993":3807,"Ġê°Ģë¬¸":3808,"ld":3809,"ë¥´íĪ¬ê°Ī":3810,"Ġë©Ģ":3811,"Ġìĭ¤ìłľ":3812,"Ġì¤Ģìļ°ìĬ¹":3813,"ĠUEFA":3814,"Ġêµ¬ë¶Ħ":3815,"Ġê²½íĹĺ":3816,"Ġê³ĦìĹ´":3817,"ĠPro":3818,"ëĭµ":3819,")'":3820,"Ġìĵ´":3821,"íĦ°íħĮìĿ¸ë¨¼íĬ¸":3822,"æī":3823,"Ġê·¸ëħĢëĬĶ":3824,"ëıĻìĿĦ":3825,"ï¼ī":3826,"íģ¼":3827,"ĠëŁ°ëįĺ":3828,"ìĻĶ":3829,"ust":3830,"ëŁ´":3831,"Ġê·¸ë¦°":3832,"33":3833,"Ġë²łìĿ´ìĬ¤":3834,"Ŀê°Ģ":3835,"ëĩĮ":3836,"íĶĮëłĪìĿ´":3837,"ê°ĢìĿĺ":3838,"ë¹Ħë¥¼":3839,"ĠìłĦëĿ¼ëĤ¨ëıĦ":3840,"ĠìĿĺë¯¸íķľëĭ¤":3841,"ĠëįĶë¶Īìĸ´":3842,"íķĺìĿĺ":3843,"Ġë¶ĢìĹ¬":3844,"ìĸ´ìĦľ":3845,"ĠìķĦëĤ´":3846,"man":3847,"ìĿ¸ìľ¼ë¡ľ":3848,"é«ĺ":3849,"ĠìĦ¼íĦ°":3850,"Ġì§ĢìłķëĲĺìĹĪëĭ¤":3851,"ç¦":3852,"ê¸ĪìĿĦ":3853,"ĠìĽĢì§ģ":3854,"Ġê¸°ìŀĲ":3855,"ï¼Ī":3856,"ĠìŀĲì£¼":3857,"Ġëĭ¤ìĿĮìĿĦ":3858,"ì¿łëĿ¼":3859,"ĠìłľìķĪ":3860,"ĠëģĮ":3861,"íĬ¸ìĽĮíģ¬":3862,"ìĬµëĭĪëĭ¤":3863,"Ġìµľê·¼":3864,"Ġë°ľë§¤ëĲĺìĹĪëĭ¤":3865,"Ġë¶Īêµ¬íķĺê³ł":3866,"ĠëĤĺë¨¸":3867,"Ġê²ĥìĹĲ":3868,"ëĭ¥":3869,"Ġê³łëĮĢ":3870,"SS":3871,"ĠìĹĺë¦¬":3872,"ĠìĪĺì¤Ģ":3873,"ëĭĪìĭľ":3874,"ìĿ¸ì§Ģ":3875,"ê²½ì°°":3876,"ì¼ľ":3877,"ef":3878,"Ġíİ¸ìŀħ":3879,"ĠíĶĦë¡ľëĵĢìĦľ":3880,"ë¡ľë§Ī":3881,"Ġê°ľì¹Ń":3882,"Ġìłĳê·¼":3883,"ĠíķĺëĤĺìĿĺ":3884,"ĠìķĮê³ł":3885,"ìĽĶë¶ĢíĦ°":3886,"ì´ī":3887,"èĩ":3888,"ĠíĻ©ìłľ":3889,"Ġê¹¨":3890,"ëĲĺê¸°":3891,"75":3892,"ĠìĻ¸êµĲ":3893,"38":3894,"ãĢĪ":3895,"ì²´ëĬĶ":3896,"her":3897,"Ð°":3898,"ĠëĨĢ":3899,"ĠëĿ¼ìĿ´ë¸Į":3900,"32":3901,"åĽ":3902,"Ġë°Ķíĥķìľ¼ë¡ľ":3903,"ĠìłľêµŃìĿĺ":3904,"ĠìłķíĻķ":3905,"ì¹ĺê³ł":3906,"Ġë²Ķì£Ħ":3907,"ëĿ¼ëħ¸":3908,"ìŀĲëĵ¤ìĿ´":3909,"background":3910,"ìª½ìľ¼ë¡ľëĬĶ":3911,"ĠìĻĦìłĦíŀĪ":3912,"1991":3913,"Ġë¬¼ë¦¬":3914,"Ġìĭ¶":3915,"age":3916,"ĠìĤ¬ëŀĮìĿ´":3917,"ìĭľìĦ¤":3918,"34":3919,"65":3920,"ë¶Ģë¬¸":3921,"Ġë¯¸ëŀĺ":3922,"Ġë¬¼ì§Ī":3923,"64":3924,"åħ¬":3925,"ì§ĢëıĦ":3926,"ies":3927,"uc":3928,"å¤©":3929,"Ġìľ¡ìĥģ":3930,"Ġë©¸":3931,"Ġë§¡ìķĺëĭ¤":3932,"åĭ":3933,"ey":3934,"ìĿ´íĽĦ":3935,"ĠìķĻ":3936,"ìĿ¸ëį°":3937,"Ġìĺ¤ìĬ¤íĬ¸ëłĪìĿ¼":3938,"Ġëĭ¬ëŁ¬":3939,"ical":3940,"ìłķìĿĢ":3941,"ĠìĺĪë¥¼":3942,"ëĭĪìĸ´":3943,"ĠìķĦì§ģ":3944,"Ġë§ĮëĤĺ":3945,"Ġì¤ĳìĹĲ":3946,"rom":3947,"ĠíĮĮê´´":3948,"ç§":3949,"ìĹŃìĿĦ":3950,"íķŃê³µ":3951,"ëŀį":3952,"ĠìĪł":3953,"ue":3954,"Ġíķ©ë³ĳ":3955,"ìĭ¸":3956,"íķĺë§Ī":3957,"ĠìĹ¬ë¦Ħ":3958,"ĠìĿĺìĤ¬":3959,"ë²ķìĿĦ":3960,"ĠíķĺëĤĺë¡ľ":3961,"Ġ1960":3962,"39":3963,"ì°¬ê°Ģì§Ģ":3964,"ĠPr":3965,"ĠìŀĳìĤ¬":3966,"ĠìĬ¤ìĽ¨ëį´":3967,"Ġë¹Ħíķ´":3968,"ìĤ°ìĭľ":3969,"Ð¸":3970,"Ġì°¨íĬ¸":3971,"Ġì¤ĳíķĻêµĲ":3972,"ë¦¬ìĸ´":3973,"ĠìŀĦìĭľ":3974,"ë³¸ë¶Ģ":3975,"1988":3976,":#":3977,"Ġë¯¸ìĤ¬":3978,"ĠìĤ¬ìĿ´íĬ¸":3979,"ĠìķĬìķĦ":3980,"ĠíĬ¹ìłķ":3981,"Ð¾":3982,"ì£¼ë¡ľ":3983,"ly":3984,"ĠìĬµ":3985,"Ġì¶Ķì§Ħ":3986,"ëŀĦ":3987,"ĠëķĮê¹Įì§Ģ":3988,"Ġ60":3989,"ìľĦê°Ģ":3990,"Ġì£¼ìĿ¸ê³µ":3991,"Ġê±°ëĳĲ":3992,"Ġìŀĩ":3993,"78":3994,"ĠìĪĺìļ©":3995,"ê°ĲìĿĦ":3996,"Ġëħ¼ëŀĢ":3997,"ìķĦê°Ģ":3998,"ĠìĿ´ëĵ¤ìĿĢ":3999,"iz":4000,"ĠCom":4001,"ĠíļĮìŀ¥":4002,"ĠìļĶì²Ń":4003,"ìĥģìĿĢ":4004,"ivers":4005,"å®Ĺ":4006,"ìĿ¸ë¯¼ê³µíĻĶêµŃìĿĺ":4007,"ìĹ°íĺģ":4008,"ë°ĶëĿ¼":4009,"Ġë¶ĢìĿ¸":4010,"Ġë¶ĪêµĲ":4011,"ìĹĪìľ¼ë©°":4012,"ond":4013,"ì£¼ìĹĲ":4014,"ê´Ģëł¨":4015,"ê·ľëª¨":4016,"ìłĲìĿ´":4017,"ìĭĿìĿ´":4018,"ëĶĺ":4019,"ëĤĺëĿ¼ìĿĺ":4020,"è»":4021,"1989":4022,"ĠìłķìĭĿ":4023,"Ġê¸°ì´Ī":4024,"ĠìłķëıĦë¡ľ":4025,"ê´ĢìĿĢ":4026,"ĠìľĦíĹĺ":4027,"Ġíĳľìĭľ":4028,"ê°Ħëĭ¤":4029,"Ġì¡´ìŀ¬íķľëĭ¤":4030,"55":4031,"ë¬¼ìĿĺ":4032,"Ġë°ľëĭ¬":4033,"ĠìĿĺíķĺìĹ¬":4034,"ìľ¼ë¯Ģë¡ľ":4035,"OS":4036,"ëħĦê°Ħ":4037,"ĠìĻķêµŃ":4038,"ĠìĦ±ê²©":4039,"ĠìŀĪëıĦë¡Ŀ":4040,"ìķĦë¥´":4041,"Ġê°Ģë¥´":4042,"ì§ĵ":4043,"ëĶĶìĸ´":4044,"Ġ1979":4045,"Ġë°°ì¹ĺ":4046,"Ġê¿Ī":4047,"Ġìłľìĭľ":4048,"Ġì´ī":4049,"ë¡ľëĵľ":4050,"Ġë¹Ħë°Ģ":4051,"ìĥģìĹĲ":4052,"ĠëĦ¤ìĿ´":4053,"Ġìĺ¤ë¥¸":4054,"ĠìľĮë¦¬ìĹĦ":4055,"Ġê·¸ëĵ¤ìĿĢ":4056,"Ġë²ĪìĹŃ":4057,"ìĤ°ìĿĦ":4058,"íĹ¨íĭ°":4059,"Ġìŀĳê³¡ê°Ģ":4060,"Ġë©ľ":4061,"Ġë¯¸ìĥģ":4062,"ĠìĺģìĹħ":4063,"ë¯¸ëĦĲ":4064,"ì²ľìĭľ":4065,"Ġê¸°ìŀ¬":4066,"Ġìŀĳìļ©":4067,"ĠíĪ¬íĳľ":4068,"ãĥ³":4069,"ë§İìĿĢ":4070,"ĠìĺģíĨł":4071,"ì¦ĪìĿĺ":4072,"å¹³":4073,"ç¤":4074,"ĠìĭŃ":4075,"ëĵ¤ë¡ľ":4076,"ĠíĺĦìŀ¬ëĬĶ":4077,"Ġë°ľíĸī":4078,"ĠìĹ¬ê²¨":4079,"íĨµìĭł":4080,"íĻĶìĿĺ":4081,"Ġíģ´ëŀĺ":4082,"Ġê·¸ëŁ°":4083,"Ġë§Īì°¬ê°Ģì§Ģ":4084,"íĺķìĿĦ":4085,"ĠíĨµìĿ¼":4086,"Ġê²½ìŁģ":4087,"Ġìĺ¤ìĤ¬ì¹´":4088,"íı¼":4089,"ëĤ¨ëıĦìĿĺ":4090,"ìĹĨìĿ´":4091,"Ġê³µìŀĳ":4092,"ëĥ¥":4093,"íĺ¸ìĤ¬":4094,"ace":4095,"col":4096,"Ġëĭ¹ìĽĲ":4097,"Ġìī½":4098,"Ġê°ķëł¥":4099,"ìĬ¤ìĹĲìĦľ":4100,"ĠìĦ±ë¦½":4101,"ç«":4102,"ìĹĪëįĺ":4103,"Ġë³µê·Ģ":4104,"ì²łëıĦìĿĺ":4105,"Ġíİ¸ì§ĳ":4106,"ì½¤":4107,"Ġìĥģíĺ¸":4108,"ĠëĤĺë¬´":4109,"ì£½":4110,"Ġì¤ĳëĭ¨":4111,"ĠëıĻê³Ħ":4112,"oh":4113,"Ġê´Ģê´ĳ":4114,"ĠíķĦë¦¬":4115,"ĠìĿĺíļĮ":4116,"ĠìĪĺë¹Ħ":4117,"Ġê°ľíĺģ":4118,"ĠìĿ¸íķľ":4119,"Ġ+":4120,"ê²½ëł¥":4121,"Ġ35":4122,"íĭĢëŀľëĵľ":4123,"Ġê¸°ìĹ¬":4124,"Ġíķ´ê²°":4125,"Ġíķ´ìĦĿ":4126,"ìĨĮë¦¬":4127,"ĠìĥĿìĦ±":4128,"íķľêµŃìĸ´":4129,"ìľĦëĬĶ":4130,"ìĥĿíĻľ":4131,"ĠìĤ¬ìļ©íķľëĭ¤":4132,"ĠìĿĮë°ĺìĿ´ëĭ¤":4133,"ê³¼ìĹĲ":4134,"ìĿ´ê¸°":4135,"ìķĦíĶĦë¦¬ì¹´":4136,"ë²ķìĽĲ":4137,"ë¯¹":4138,"Ġê°ĸê³ł":4139,"ëŀĺíĶĦíĬ¸":4140,"ê³¨ìĿĦ":4141,"se":4142,"ìĭłìĿĦ":4143,"ê°Ģì¡±":4144,"ĠìĤ¶":4145,"ä¹¡":4146,"ĠíĮ¨ë°°":4147,"Ġê·¸ëĮĢë¡ľ":4148,"ì²´ìľ¡":4149,"ìĿ´ìĻĢ":4150,"ĠìĦľìĭĿ":4151,"Ġë¬¸íĻĶìŀ¬":4152,"ĠíĶ¼ìķĦ":4153,"98":4154,"ĠëĤ¨ë¶Ģ":4155,"ìĭłìĿĺ":4156,"ĠìĬ¤ìĬ¤ë¡ľ":4157,"ational":4158,"ì¡°ìĦłìĿĺ":4159,"Ġíı°":4160,"Ġê°ĢëĬ¥íķĺëĭ¤":4161,"Ġìĺ¤ëŀĺ":4162,"ĠìłľëıĦ":4163,"68":4164,"Ġì£¼ìĿĺ":4165,"Ġê³µë¦½":4166,"ìĽĶìĹĲëĬĶ":4167,"ìĺ¤íĶĦ":4168,"ĠìĪ¨":4169,"Ġë¯¸êµŃìĹĲìĦľ":4170,"ĠìľĦìĹĲ":4171,"ìĨĮëĬĶ":4172,"ìĿ¸ê°Ģ":4173,"AT":4174,"ĠëĬĶ":4175,"ìĿ´ìĤ¬":4176,"Ġ1973":4177,"Ġì¤ĳìļĶ":4178,"ĠìĹ°ìŀ¥":4179,"ìŀī":4180,"ĠìĿĦ":4181,"Ġíķ´êµ°":4182,"Ġë¶Īë¦¬":4183,"Ġì§§":4184,"ê³ĦìĹĲ":4185,"Ġë¸ĶëŀĻ":4186,"çĻ":4187,"Ġëĭ¹ìĦł":4188,"íĭ°ë¸Į":4189,"ë§ĮìĿĺ":4190,"Ġë°ĿíĺĢ":4191,"Ġë¥´":4192,"Ġìĥģì§ķ":4193,"ìĿ¸ê³¼":4194,"Ġì§ĳíķ©":4195,"ence":4196,"ĠQ":4197,"Ġë²łë¥´":4198,"ìłĦìŁģ":4199,"ìĺ¤ìĬ¤íĬ¸":4200,"Ġíģ¬ë¡ľ":4201,"è¦":4202,"ì§ĢìĹĲìĦľ":4203,"íĮĮìĿ´":4204,"Ġë°ķìĤ¬":4205,"ëħķ":4206,"Ġëª»íĸĪëĭ¤":4207,"ìļ´ìĦľ":4208,"ĠíĪ¬ìĪĺ":4209,"Ġê°ľíİ¸":4210,"íĶ¼ìĨĮ":4211,"ĠìĿ½":4212,")ãĢĭ":4213,"Ġê°ģë³¸":4214,"Ġê³¤":4215,"Ġre":4216,"Ġë°Ķë¥´":4217,"Ġì²´ê²°":4218,"ì§ģìĿĦ":4219,"Ġë°ĶëĢĮ":4220,"ĠìĦ¸ìĽĮ":4221,"Ġë¶Ħíı¬":4222,"\",":4223,"Ġì°¨ë¡Ģ":4224,"ĠìłĦë°ĺ":4225,"ì§Ģìħĺ":4226,"ê¸°íļį":4227,"Ġìĭłë¬¸":4228,"Ġì²ľíĻ©":4229,"ìłķì¹ĺ":4230,"Ġìĭľì²Ń":4231,"AN":4232,"ìĿ¼ë°ĺ":4233,"ĠíĽĦì§Ģ":4234,"Ġíİ¼":4235,"ĠëĦĲë¦¬":4236,"ĠíĶĦë¡ľìłĿíĬ¸":4237,"ĠìķĦë¬´":4238,"ê°ĢíĥĢ":4239,"ĠìĽĲìŀĳ":4240,"Ġby":4241,"Ġëĵ±ë¡Ŀ":4242,"ìĺģêµŃìĿĺ":4243,"Ġë¶Ģìłķ":4244,"ĠìĭľëĮĢìĿĺ":4245,"Ġëħ¹ìĿĮ":4246,"Ġê³łìĸĳ":4247,"íĬ¸ëĿ¼":4248,"ĠìķĦìĿ¼ëŀľëĵľ":4249,"Ġê¸Ģë¡ľ":4250,"ëĭ¨ì²´":4251,"ĠëĶ°ë¥¸":4252,"ëĭ¨ìĹĲ":4253,"æ±":4254,"Ġì£¼ëıĦ":4255,"ìĿ¼ëŁ¬":4256,"Ġê¶¤":4257,"ĠëĤĺëī":4258,"ìłķì±ħ":4259,"ìĥģìľ¼ë¡ľ":4260,"ĠíĿ¡":4261,"Ġë§İëĭ¤":4262,"Ġì£½ìĿĢ":4263,"ê´ĢìĿĦ":4264,"%)":4265,"ëĤĺì¹´":4266,"ë¡ľë¥¼":4267,"ëĵ¤ëıĦ":4268,"ë²ķìĿ¸":4269,"ĠìĭĿë¯¼":4270,"47":4271,"95":4272,"Ġìª½":4273,"Ġë°Ķëĭ¤":4274,"90":4275,"ë¿Ĳ":4276,"Ġìĺ¤ëĬĺëĤł":4277,"Ġì²ĺë¦¬":4278,"ëª»":4279,"ĠìĤ¬ëŀĮëĵ¤ìĿ´":4280,"ë¯¼ì¡±":4281,"Ġe":4282,"ìĻķìĿĺ":4283,"ĠìŀŃ":4284,"åİ":4285,"ìĭľíĭ°":4286,"ìĺ¤ëĬĶ":4287,"ĠìĭľíĹĺ":4288,"ìĿ¼ë³´":4289,"IN":4290,"ìĻĢëĬĶ":4291,"2022":4292,"St":4293,"ĠìķĪìłĦ":4294,"ëĨĵ":4295,"ìĤ¬ë¬´":4296,"ìŀ¥ê³¼":4297,"ĠìĦłìĪĺë¡ľ":4298,"Ġë©ķìĭľì½Ķ":4299,"êµ¬ëĬĶ":4300,"ãĢĮ":4301,"Ġì¤ĳê°Ħ":4302,"ĠìŀĳìłĦ":4303,"ĠìĿ´ì£¼":4304,"ê²½ìĿĦ":4305,"Ġê·¼ì²ĺ":4306,"ëªħíķľ":4307,"mer":4308,"ëĵľê°Ģ":4309,"ĠìĬ¤íĬľëĶĶìĺ¤":4310,"Ġê°Ģìł¸":4311,"íĻĶëĲľ":4312,"ĠìłĦíķ´":4313,"ĠìķĦìĤ¬":4314,"ĠíļĮìĽĲ":4315,"ìºĲëĤĺëĭ¤":4316,"Ġë¹Ħë¡¯íķľ":4317,"Ġ1978":4318,"ind":4319,"ä¸Ģ":4320,"ëĵ¬íķ´":4321,"ë§ĪìĬ¤":4322,"1980":4323,"Ġê³¼ìłķìĹĲìĦľ":4324,"ï¼ļ":4325,"Ġì¡¸ìĹħìĭĿ":4326,"ĠìĿ´ê³³":4327,"ë¬´ìĽĲ":4328,"Ġì»¬":4329,"ìĭĿìĿĺ":4330,"Ġê²½ìļ°ê°Ģ":4331,"ĠëĩĮ":4332,"ì£¼ìĿĺìŀĲ":4333,"Ġìĭľê¸°":4334,"ĠíĽĪëł¨":4335,"ê³łë¥¼":4336,"æĹ¥":4337,"Ġat":4338,"Ġ32":4339,"ĠìĦ¸ìĿ´":4340,"ë¯¸íĦ°":4341,"Ġíĺĳëł¥":4342,"Ġë®¤ì§Ģì»¬":4343,"ë©´ìĿĦ":4344,"ĠìĿ´ë¡ľ":4345,"ìĪĺë¡Ŀ":4346,"ëĭ¨ìĿĢ":4347,"Ġìļ°ìĬ¹ìĿĦ":4348,"Ġkm":4349,"æĸ°":4350,"Ġê¸Īë©Ķëĭ¬":4351,"ìĸ´ì§Ħëĭ¤":4352,"Ġì¡°ê°ģ":4353,"íķĻìĿĦ":4354,"ĠÐ":4355,"ph":4356,"Ġë¬¸ìĦľ":4357,"ëĤĺê³ł":4358,"Ġ1950":4359,"1987":4360,"ĠìķĬëĭ¤":4361,"Ġëĵ±ê³¼":4362,"46":4363,"Ġë¸Ķë£¨":4364,"ì§Ģê²Į":4365,"Ġì§ĢëĤľ":4366,"Ġë©´ìłģìĿĢ":4367,"ĠìķĦëĤĺìļ´ìĦľ":4368,"Ġìŀ¬íĮĲ":4369,"ĠíıĲì§ĢëĲľ":4370,"Ġë³´ìľł":4371,"å·Ŀ":4372,"Ġë²ĦìĬ¤":4373,"ĠìłĦíĻĺ":4374,"Ġê´Ģì¸¡":4375,"Ġê·¼ê±°":4376,"ê²½ìĥģ":4377,"Ġìľłëªħíķľ":4378,"ĠíĺķìĤ¬":4379,"ìĸĢ":4380,"ëıħìĿ¼ìĿĺ":4381,"ug":4382,"ĠëĮĢìĿĳ":4383,"ìħĶëĦĲ":4384,"ĠìĤ¬ìļ©íķł":4385,"Ġëħ¸ë¥´":4386,"ìĦ¸ëĮĢ":4387,"Ġê±°ë¶Ģ":4388,"ish":4389,"ãĢĭ()":4390,"ìĭľëĬĶ":4391,"ĠìĬ¤ìľĦìĬ¤":4392,"ëĳĳ":4393,"Ġëĭ¨ìĪľ":4394,"Ġ1972":4395,"Ġ1945":4396,"èª":4397,"ĠíĨµì¹ĺ":4398,"Ġíĺģëªħ":4399,"éł":4400,"ìĦľíĬ¸":4401,"Ġì§ĢìĹŃìĹĲìĦľ":4402,"ear":4403,"Ġ1974":4404,"Ġê¸Īì§Ģ":4405,"Ġë¨¼ìłĢ":4406,"áĦ":4407,"Ġìŀ¥ìķł":4408,"Ġê°Ģìłķ":4409,"ëĲĺìĹĪìľ¼ëĤĺ":4410,"íĽĦìĿĺ":4411,"ìŀīê¸ĢëŀľëĵľìĿĺ":4412,"Ġëĵ¤ìĸ´ê°Ģ":4413,"ĠëıĦì°©":4414,"ëŁīìĿ´":4415,"ç¤¾":4416,"ìĦ±êµ°":4417,"Ġë§ĮìĹĲ":4418,"ìĪŃ":4419,"ìĭĿìĿĢ":4420,"Ġìļ¸ìĤ°":4421,"77":4422,"ĠìĹ°íĺģ":4423,"Ġê´Ģëł¨ëĲľ":4424,"ĠìĿ´ìĻ¸":4425,"Ġìĸµ":4426,"ìĦłìĿ´":4427,"ĠëĵľëŁ¬":4428,"ĠëĤ¨ìĦ±":4429,"ëį°ìĬ¤":4430,"ëł¥ìĿĢ":4431,"Ġì¤Ģë¹Ħ":4432,"ìĭľìĺ¤":4433,"íģ´ëŁ½":4434,"ëŁ¬ìļ´":4435,"åł":4436,"ĠëĤ´ê°ģ":4437,"êµ¬ê°Ģ":4438,"Ġìĭľíĭ°":4439,"Ġë¶Īë¦¬ëĬĶ":4440,"Ġì¡°ìĦłë¯¼ì£¼ì£¼ìĿĺ":4441,"Ġëĭ¤ë¥´":4442,"íĮĮíĬ¸":4443,"ove":4444,"ìĤ¬ëł¹":4445,"ë©Ķë¦¬":4446,"ĠìĤ¬ìļ©ëĲľëĭ¤":4447,"ĠëĤ¨íİ¸":4448,"Ġê°ĢëĬ¥íķľ":4449,"ëıĦì¿Ħ":4450,"ìĿ´ìĹĲ":4451,"Ġê¸°ë¡ĿíĸĪëĭ¤":4452,"ĠíĮĮë¦¬":4453,"ë¸Įë¦¬":4454,"ĠìłľìŀĦìĬ¤":4455,"ĠëķĮëĬĶ":4456,"Ġë§Īë¦¬":4457,"ê°Ģë¥¼":4458,"ĠíĥĢìĿ´íĭĢ":4459,"Ġëį¸":4460,"ëĥĪ":4461,"Ġê·¸ëħĢìĿĺ":4462,"ë°Ľìķĺëĭ¤":4463,"ìŀĲìĹĲ":4464,"ĠíĻľìļ©":4465,"Ġ()":4466,"ĠìŀĲëıĻ":4467,"íĭ°ëĵľ":4468,"Ġ1971":4469,"ëĭ¤ë¥¸":4470,"çī":4471,"ìļ°ëĬĶ":4472,"ĠìĹĳ":4473,"ĠëĤĺë¨¸ì§Ģ":4474,"ìĿ´ì¦Ī":4475,"ëıĻìĥĿ":4476,"èŃ":4477,"ëĭ¤ìļ´":4478,"ìŀĲìĿ´ëĭ¤":4479,"Ġì¡°ìĦ±":4480,"ital":4481,"ĠSh":4482,"Ġê¼¬":4483,"left":4484,"æĶ":4485,"ĠìĿ¼ìĿĦ":4486,"ëĿ¼ìĹĺ":4487,"Ġë¶ģë¶Ģ":4488,"Ġë¡ľìĬ¤":4489,"ĠìĻķì¡°":4490,"ëłĪìĿ¸":4491,"íŀĪë¡ľ":4492,"Ġë¡¯":4493,"ĠìĿ¼ìłľ":4494,"ment":4495,"íķľëĭ¤ê³ł":4496,"ĠëĦ¤íĬ¸ìĽĮíģ¬":4497,"eat":4498,"ĠìłĦëĭ¬":4499,"Ġìĺ¤íĽĦ":4500,"Ġê¹Ģìĺģ":4501,"ëĭĪìķĦìĿĺ":4502,"åħĥ":4503,"ĠìĹĶíĦ°íħĮìĿ¸ë¨¼íĬ¸":4504,"Ġíĳľê¸°":4505,")\"":4506,"ĠAn":4507,"ĠìĿ´ìĬ¤":4508,"íħį":4509,"ë¹Ľ":4510,"íĥĲ":4511,"ĠìĬ¤íĶ¼":4512,"ìĿĺìĽĲ":4513,"ĠíĻįì½©":4514,"ĠìĦłìĥĿ":4515,"Ġë¶ĢìŀĦ":4516,"Ġì¼Ħ":4517,"Ġ500":4518,"44":4519,"ìłĦìĿĺ":4520,"ë§ĪíĬ¸":4521,"ìĨĮìĪĺ":4522,"ĠëħĦ":4523,"ĠìĬ¤ì½Ķ":4524,"Ġê°ķìĽĲëıĦ":4525,"íķĻíļĮ":4526,"Ġë°ľìĤ¬":4527,"Ġ1975":4528,"íİł":4529,"ĠêµŃë°©":4530,"Ġë²½":4531,"ëĿ¼ë¹ĦìķĦ":4532,"Ġíķ´ìķĪ":4533,"Ġì¶©ì²ŃëĤ¨ëıĦ":4534,"ì£¼êµĲ":4535,"ĠìĤ´ìķĦ":4536,"1986":4537,"ìŀĲìľł":4538,"Ġ1976":4539,"ëªĩ":4540,"Ġì£Ħ":4541,"Ġë°ĺëŀĢ":4542,"Ġë¹ĦìĬ·íķľ":4543,"Ġê·¹ìŀ¥":4544,"ë¡ľê·¸":4545,"Ġê·Ģì¡±":4546,"ĠLG":4547,"ĠìĤ´íķ´":4548,"ìĿ¸ëıĦ":4549,"ìŀĳìļ©":4550,"Ġìĸ´ë¦°ìĿ´":4551,"Ġë§Īì°¬ê°Ģì§Ģë¡ľ":4552,"ĲìĿĺ":4553,"Ġì²ŃìĨĮëħĦ":4554,"ë´ĩ":4555,"Ġëª©ìłģìľ¼ë¡ľ":4556,"ĠìĥĿë¬¼":4557,"ë§Īíģ¬":4558,"Ġì¦Ĳ":4559,"Ġê·ľìłķ":4560,"ss":4561,"ëĨĢ":4562,"ìĦ¸íı¬":4563,"íķĺê¸°ë¡ľ":4564,"ĠìĭľëıĦ":4565,"Ġë°©ìĸ´":4566,"Ġì§Ģëªħ":4567,"ĠĊĊĠĊ":4568,"Ġë°Ķê¾¸":4569,"íı¬ë¥´":4570,"ĠìĻĦê³µ":4571,"Ġê²ª":4572,"~)":4573,"íķĺëĤĺ":4574,"ĠìĿ´ìĬ¹":4575,"åī":4576,"ë³´ëĵľ":4577,"Ġë°ĶëŀĮ":4578,"Ġì¤ĳêµŃìĿĺ":4579,"76":4580,"ĠëıĻë§¹":4581,"Ġì²´íı¬":4582,"Ġëĭ¤ëĭĪ":4583,"ĠìĿ´ëĵ¬íķ´":4584,"ëĭ¨ìĿ´":4585,"58":4586,"ê³µìĿĺ":4587,"Ġë¶ķ":4588,"Ġêµ¬ìĦ±ëĲĺìĸ´":4589,"Ġê²ĥê³¼":4590,"ĠíıīíĻĶ":4591,"æħ":4592,"ĠâĨĶ":4593,"ĠíĮĮê²¬":4594,"span":4595,"ww":4596,"īìĿĢ":4597,"Ġì°¸ìĹ¬íķĺìĺĢëĭ¤":4598,"ä¼":4599,"act":4600,"Ġë²łìĬ¤íĬ¸":4601,"ëĮĢêµ¬":4602,"ĠíļĮìĿĺ":4603,"Ġì¹´ë¥¼":4604,"ëĲĺê¸°ëıĦ":4605,"ĠíķľêµŃìĿĺ":4606,"ĠìĹ°ë§¹":4607,"Ġë¦°":4608,"ĠëĵĢ":4609,"Ġì¶ľìĭłìĿĺ":4610,"Ġ1969":4611,"æĿĳ":4612,"ìķĦë²Ħì§Ģ":4613,"ĠìĿ¸ìĪĺ":4614,"ĠìŀĪìľ¼ëĤĺ":4615,"ê³łëł¤":4616,"ìĨĮë¡ľ":4617,"æĺİ":4618,"ë§ĪìĿĦ":4619,"ìĤ¬ìļ°":4620,"Ġë³´ëĭ¤":4621,"ë¥ĺìĿĺ":4622,"èģ":4623,"//":4624,"',":4625,"Ġìļ°ìĪĺ":4626,"ìģ":4627,"ĠìĥģëĮĢë¡ľ":4628,"Ġìĺ¤ìĬ¤íĬ¸ë¦¬ìķĦ":4629,"Ġì£¼ìĹ°ìľ¼ë¡ľ":4630,"Ġë¸Įëŀľëĵľ":4631,"æł¡":4632,"ëĭĲ":4633,"ë¡ľëĤĺ":4634,"Ġíķ´ì²´":4635,"olog":4636,"ê³µìĹħ":4637,"ëĮĢíķĻìĽĲ":4638,"ark":4639,"ëıħìĿ¼":4640,"66":4641,"Ġì¶ĺ":4642,"Ġì°°":4643,"çļ":4644,"ìĹĲë¥´":4645,"ĠìłģìĿ´":4646,"ĠìĻĦìĦ±":4647,"Ġì§ĢëĥĪëĭ¤":4648,"Ġê°ĦìĿĺ":4649,"Ġ1977":4650,"íĸĪëĭ¤ëĬĶ":4651,"ĠìķĦì¹¨":4652,"ĠìĹĲëĵľ":4653,"íķ¨ìĿĦ":4654,"Ġì¤Ģê³µ":4655,"Ġìµľìļ°":4656,"enter":4657,"Ġêµ°ì£¼":4658,"ìĨĮìĹĲ":4659,"Ġê²ĥìĿ´ìĹĪëĭ¤":4660,"ĠíķĦìļĶíķľ":4661,"êµ°ê³¼":4662,"ê·¹ìŀ¥":4663,"à¸":4664,"ê·¸ëŁ¬ëĤĺ":4665,"Ġíĺķíĥľë¡ľ":4666,"Ġë¶Ģëª¨":4667,"ĠìĿ´ëĵ¤":4668,"ĠëĤ©":4669,"49":4670,"Ġë¿":4671,"íĬ¸ê°Ģ":4672,"Ġê¸°ìĤ¬":4673,"ê°ķìłĲ":4674,"ì¼ĢìĿ´":4675,"Ġëįĺ":4676,"Ch":4677,"ĠìķĪìłķ":4678,"ì¡Įê³ł":4679,"ìĹ°ëĮĢ":4680,"ì¤Ģëĭ¤":4681,"ëŁīìĿĦ":4682,"äºĭ":4683,"ëĭ¤ìĿĮ":4684,"ìĭľê°Ģ":4685,"Ġê°Ĵ":4686,"Ġíĺľ":4687,"ee":4688,"æĽ¸":4689,"ìĭľë¥¼":4690,"ĠìĻ¼":4691,"Ġê¾¸":4692,"ìĨĮíĶĦíĬ¸":4693,"ì¡°ì§ģ":4694,"ĠìĹŃëĮĢ":4695,"ĠìľĦíķ´ìĦľ":4696,"ĠëĮĢíķ´ìĦľ":4697,"Ġë¬ĺìĤ¬":4698,"ë¶ķ":4699,"å½":4700,"ĠëģĿìĹĲ":4701,"1985":4702,"1984":4703,"ì¹ĺìĿĺ":4704,"ëĺĲíķľ":4705,"Ġê°ĢëĬĶ":4706,"ĠëĤ´ë¶Ģ":4707,"ĠìŀĪê¸°":4708,"æŃ£":4709,"Ġì¤ĳìĹĲìĦľ":4710,"ĠìľłìĿ¼íķľ":4711,"Ġì²ľë¬¸":4712,"¤¼":4713,"Ġ1968":4714,"Ġë³´ëıĦ":4715,"êµŃìĿ´":4716,"ĠìħĢ":4717,"Ġê²ĮìĿ´":4718,"Ġìľłë¦¬":4719,"ìĭ±íĦ´":4720,"ĠYou":4721,"orm":4722,"ãĢģ":4723,"íķĺëĭ¤ê°Ģ":4724,"ëĤ¸ëĭ¤":4725,"ice":4726,"Ġë³´ì¡´":4727,"ĠìĦ±ìłģ":4728,"èĢ":4729,"Ġëª»íķľ":4730,"ĠëĤ¨ìª½":4731,"Ġì§ĢìĹŃìĿĦ":4732,"ver":4733,"Ġê°ķíķľ":4734,"ëł¤ê³ł":4735,"orld":4736,"ĠìĿ¸ìĭĿ":4737,"Ġìĭľìŀĳíķľ":4738,"ì¡¸ìĹħ":4739,"ìĮ":4740,"é»":4741,"íĶĦê°Ģ":4742,"Ńī":4743,"Ġëĭ¤ë£¨":4744,"ëħ¸ëıĻ":4745,"ork":4746,"ìłĦíŀĪ":4747,"ìĬ´":4748,"ìŀĲìĿ´":4749,"ìłĦë¬¸":4750,"ê°ĻìĿĢ":4751,"ĠìŀĪìĹĪê³ł":4752,"ĠìĪĺë§İìĿĢ":4753,"ìĬ¬ëŀĮ":4754,"ë¶ģëıĦìĿĺ":4755,"ê´Ħ":4756,"ë¦¬íŀĪ":4757,"Ġëĵ£":4758,"ëĭ¹ìĿĢ":4759,"IA":4760,"Ġìĩ":4761,"ìĭľìŀ¥":4762,"Ġ45":4763,"ë¹Ħëĵľ":4764,"Ġë¶Ģë¥¸ëĭ¤":4765,"ĠëıĻë¶Ģ":4766,"æ³ķ":4767,"ìłĲìľ¼ë¡ľ":4768,"ĠìĥĪë¡ľ":4769,"ĠìłĦëŀµ":4770,"ĠëĦĪë¬´":4771,"è³":4772,"ĠSK":4773,"Ġê·¼ë¬´":4774,"ĠìµľìĨĮ":4775,"Ġë´Ħ":4776,"ìŀĲíĤ¤":4777,"êµ¬ì¹ĺ":4778,"Ġë³´ìĪĺ":4779,"ĠìķĮëłīìĤ°":4780,"Ġr":4781,"ĠíĮĢìĿĺ":4782,"ĠìĿ´ë¦ĦìĿ´":4783,"ĠìĦłê±°êµ¬":4784,"88":4785,"ì»·":4786,"ĠìĿ¼ì¢ħ":4787,"ì¼Ħ":4788,"ĠíĮĮìĿ¼":4789,"EC":4790,"íķĻìĿĺ":4791,"Ġê°Ģìŀħ":4792,"Ġì´¬ìĺģíķľ":4793,"Ġìłľê±°":4794,"92":4795,"ĠìĿĺíķĺë©´":4796,"ë°Ķë¥´":4797,"ë°ĸ":4798,"ll":4799,"Ġìĭľìłķ":4800,"Ġìĺ¤ë¦¬":4801,"Ġìłľëª©":4802,"Ġë¶ģìª½":4803,"ë¶Ģìŀ¥":4804,"ì²ľêµ°":4805,"ĠìĥĮ":4806,"ĠìľłëĮĢ":4807,"íĺķìĿĺ":4808,"oy":4809,"ĠëıĻë£Į":4810,"ê´ĢìĿ´":4811,"ost":4812,"ĠìĿ´ì§ĳ":4813,"Ġëĭ¤ë§Į":4814,"ìĹŃìľ¼ë¡ľ":4815,"ĠíĻįë³´":4816,"Ġë§Īìĵ°":4817,"ë©ĶëĿ¼":4818,"ë¦¬íĬ¸":4819,"Ġ70":4820,"Ġë§ĪìĿ´íģ¬ë¡ľ":4821,"Ġìµľê³łìĿĺ":4822,"ĠëĮĦ":4823,"è²":4824,"ëıĦë¥´":4825,"Ġë³´ìĿ´":4826,"ä¾":4827,"Ġì°¸ìłĦ":4828,"ĠíķŃìĥģ":4829,"ëıĦìĻĢ":4830,"Ġë²Ĺ":4831,"ĠìķĦëĭĪëĭ¤":4832,"ĠêµŃìĻķ":4833,"ë®":4834,"ë¡Ńê²Į":4835,"AC":4836,"per":4837,"è¥":4838,"iss":4839,"ĠìĿĢíĸī":4840,"Ġë¡¯ëį°":4841,"ê¶ĮìĿĺ":4842,"ê°Ģìĭľ":4843,"ìĤ¬ì§Ħ":4844,"ë¥ľ":4845,"ĠìĦľë¹Ħ":4846,"Ġìłľê¸°":4847,"ah":4848,"ĠìłĦì²ł":4849,"ĠìĿ¼ìĸ´ëĤĺ":4850,"Ġìłķë¦¬":4851,"çĶ°":4852,"ĠìĦľë¶Ģ":4853,"Ġê²½ìļ°ìĹĲëĬĶ":4854,"ìĺĢìľ¼ë©°":4855,"ëĶ°":4856,"ëĤĺìĻĢ":4857,"ĠëĤ³":4858,"ĠìķĪìĹĲ":4859,"Ġë§¹":4860,"ĠìĨĮëħĢ":4861,"ê´Ģê³Ħ":4862,"Ġì§Ģìłģ":4863,"ìłľêµŃ":4864,"ĠìŀĳìĦ±":4865,"ĠìķĦì¹´ëį°ë¯¸":4866,"ìŀĳíĴĪ":4867,"Ġê¸°ê³Ħ":4868,"ĠìŀĪì§Ģ":4869,"Ġê±´ê°ķ":4870,"96":4871,"ĠìĹ°ì¶ľ":4872,"ĠBl":4873,"ìķ¨":4874,"ëĭĽ":4875,"ë£©":4876,"íĥĢë§Ī":4877,"íĶĦëŀĳìĬ¤":4878,"ìĸ´ì¡Įëĭ¤":4879,"ëł¥ìĿĺ":4880,"ì½ĶìĿĺ":4881,"ìłĲìĹĲìĦľ":4882,"Ġíķ©ë¥ĺ":4883,"ĠíĤ¹":4884,"ìķ¤ìł¤":4885,"Ġë§ĲìĿĦ":4886,"ingle":4887,"Ġë§ĪìĿ´íģ´":4888,"ĠìĺģíĻĶë°°ìļ°":4889,"ĠìĿ¸ë¯¼":4890,"íķĺìĺĢëĬĶëį°":4891,"ĠCl":4892,"Ġë³´ì»¬":4893,"AM":4894,"Ġë¯¸ëĵľ":4895,"æº":4896,"Ġ1963":4897,"ìķĦìĿ¼ëŀľëĵľ":4898,"42":4899,"çĲ":4900,"ìĹĲìĿ´":4901,"ĠìĭľìĿ¸":4902,"Ġìĭłê²½":4903,"ĠìłĦìĭľ":4904,"Ġê³µíı¬":4905,"çľ":4906,"ëĳĲê³ł":4907,"è¶":4908,"ĠìĻĶëĭ¤":4909,"ĠìłĦìĦ¤":4910,"Ġíı¬ë¥´íĪ¬ê°Ī":4911,"ì¿¨":4912,"Ġìļ°íģ¬ëĿ¼ìĿ´":4913,"OR":4914,"Ġê¸°ìŀ¬ëĲľ":4915,"ile":4916,"ë¯¸ìĸ´":4917,"Ġê³ĦìĬ¹":4918,"Ġêµ´":4919,"ëĦ¬":4920,"ìĺ¬ë¦¼íĶ½":4921,"Ġê²ĥëıĦ":4922,"ĠëĤ®ìĿĢ":4923,"Ġê°Ŀ":4924,"Ġê³µê¸ī":4925,"Ġì¢ħëª©":4926,"ìķĺê³ł":4927,"Ġìĺ¤ë¥´":4928,"ê³µìĽĲ":4929,"ire":4930,"ĠìĹħë¬´":4931,"âĪ":4932,"ë¡ľê°Ģ":4933,"ëįĶìĬ¤":4934,"ìĿĮë°ĺ":4935,"ìĤ°ìĿĺ":4936,"è«":4937,"Ġê°ĲìĨĮ":4938,"ç¶":4939,"tern":4940,"ì²©":4941,"Ġìĸ¼êµ´":4942,"tp":4943,"Ġì¸ł":4944,"ĠëĵĿìłĲ":4945,"ĠìĿĺê²¬":4946,"ìĦłìĿĢ":4947,"ĠëĮĢíķ´ìĦľëĬĶ":4948,"Ġëŀĺ":4949,"å³":4950,"íĤ¤ìķĦ":4951,"ood":4952,"))":4953,"ĠìĿ¼ìĸ´ëĤľ":4954,"ĠìĭłìĿ¸":4955,"Ġêµ¬ì¶ķ":4956,"Ðµ":4957,"ĠìĬ¹ê°ķìŀ¥":4958,"Ġ38":4959,"IC":4960,"aw":4961,"\"(":4962,"ĠëıĻìª½":4963,"Ġìĭ¤íĸī":4964,"1982":4965,"æ¨":4966,"ĠëĮĢë¥Ļ":4967,"ìľłíĤ¤":4968,"Ġë²łëĦ¤":4969,"67":4970,"Ġìłķë¶ĢëĬĶ":4971,"ix":4972,"ê³±":4973,"Ġê²ĢìĤ¬":4974,"ĠêµĲì²´":4975,"ìĹĩ":4976,"ìĺĢê³ł":4977,"1983":4978,"ì£¼ìĹĲìĦľ":4979,"ìķĦë©Ķë¦¬ì¹´":4980,"ìľ¼ë©´ìĦľ":4981,"ĠUnivers":4982,"Ġë°ķë¬¼ê´Ģ":4983,"Ġë¹¼":4984,"Ġê´Ģê³Ħë¥¼":4985,"ìķĪìĿĦ":4986,"ìĽĶê¹Įì§Ģ":4987,"ĠìķĦë¦Ħ":4988,"Ġê´Ģì°°":4989,"íĶ¼ìĨĮëĵľ":4990,"æľ¬":4991,"ĠìĤ¬ëŀĮìĿĢ":4992,"Ġê²½ê³Ħ":4993,"94":4994,"íĹ¬":4995,"åĸ":4996,"ê³łìĨįëıĦë¡ľ":4997,"ì¤ĳêµŃìĿĺ":4998,"åĳ":4999,"ĠëĤ¨ë¶ģ":5000,"Ġìĸ¼ë§Ī":5001,"ì¹ĺë¡ľ":5002,"Ġ1967":5003,"Ġëª»íķĺê³ł":5004,"Ġì¶©ëıĮ":5005,"Ġì¦īìľĦ":5006,"pt":5007,"Ġëª¨ë¦¬":5008,"é¦":5009,"æµ·":5010,"æĥ":5011,"Â°":5012,"ë±ħ":5013,"Ġë¯¸ìķ¼":5014,"éĿ¢":5015,"íĻĶìĹĲ":5016,"ëĮĢìĤ¬":5017,"ĠNew":5018,"100":5019,"ìĿ¸ì²ľ":5020,"Ġê¸°ìĸµ":5021,"Ġ80":5022,"Ġì§ģíĽĦ":5023,"íħĮë¥´":5024,"ĠíĥĢì¹´":5025,"é¾":5026,"êµ¬ì¡°":5027,"ìĥģê³¼":5028,"ë¶ĦìĹĲ":5029,"Ġìĺ¤ìĬ¤íĬ¸ëłĪìĿ¼ë¦¬ìķĦ":5030,"ĠìŀĲìĿ´":5031,"æ¼":5032,"êµĲëıĦ":5033,"æĪĲ":5034,"ĠìľĪëıĦìļ°":5035,"ern":5036,"Ġë±":5037,"ĠíĨµìĭł":5038,"åĲĽ":5039,"ĠìĿ´ìĭľ":5040,"ĠìĤ¬ìļ©íķĺìĹ¬":5041,"íķ´ì¡Įëĭ¤":5042,"åĴ":5043,"ä¸Ĭ":5044,"ction":5045,"97":5046,"Ġë¬¸ìłľë¥¼":5047,"Ġíı¬ì§Ģìħĺ":5048,"ĠìĪĺìĽĲ":5049,"Ð½":5050,"ĠíĬ¸ë¦¬":5051,"Ġê²½ê¸°ë¥¼":5052,"ĠíĹĪìļ©":5053,"ĠìĤ¬íķŃ":5054,"IV":5055,"!!":5056,"ë¥´íĥĢ":5057,"ìĨĮìĦ¤":5058,"ë¶ĦìĿĦ":5059,"ë¶ĢìĿ¸":5060,"ĠìĥģìĹħ":5061,"Ġê°ľìłķ":5062,"ê³¼ë¥¼":5063,"ãģĦ":5064,"ĠìľłëĤĺìĿ´":5065,"Ġê±°ë¦¬":5066,"ë°±ì§Ī":5067,"ĠìĨĮëħĦ":5068,"http":5069,"ĠìĤ¬ëł¹":5070,"igital":5071,"SA":5072,"Ġê°ģì¢ħ":5073,"ĠìĭľìŀĳíķĺìĺĢëĭ¤":5074,"ĠëĨįìĹħ":5075,"ĠìĤ¬ìĿ´ìĹĲìĦľ":5076,"vN":5077,"ĠìĭłëĿ¼":5078,"ëı¼":5079,"ĠëĦĺìĸ´":5080,"ê°Ģë¡ľ":5081,"ìłģìĿ´ê³ł":5082,"ì¶Ķìĸ´":5083,"Ġë°ĳ":5084,"ĠìłĦìļ©":5085,"://":5086,"ëī´ìļķ":5087,"ì¹´ìĿ´ëıĦ":5088,"ĠíĺĳíļĮ":5089,"Ġëĸ¨ìĸ´ì§Ħ":5090,"ĠìĺĨ":5091,"ë§ĮìĹĲ":5092,"Ġìłķì°©":5093,"ĠìĿ¸ê·¼":5094,"ĠëĤĺëĪĦ":5095,"57":5096,"te":5097,"ĠíĥľíĴį":5098,"ĠìķĦìļ°":5099,"Ġëħ¸ëł¥":5100,"Ġê°Ģê¹Įìļ´":5101,"Ġê³³ìĹĲ":5102,"íĦ°ë¦¬":5103,"Ġìĺ¨ëĿ¼ìĿ¸":5104,"ëĮĢìĻĢ":5105,"ĠìĺģìĹŃ":5106,"ìĥĿë¬¼":5107,"ç¸":5108,"¼Ī":5109,"å£":5110,"ìĿ¼ìĿĢ":5111,"Ġë³´ìĹ¬ì£¼":5112,"Ġëĭ¨ê³Ħ":5113,"ìĭľíĤ¤ê³ł":5114,"ĠìłľìĻ¸íķľ":5115,"ê°Ķ":5116,"íķĺìĹĲ":5117,"ìĸ´ëĤĺ":5118,"ĠìŀĲì²´":5119,"ê¸°ëħĲ":5120,"æ¥":5121,"Ġì±ħìŀĦ":5122,"ëĲĲ":5123,"1981":5124,"Ġsc":5125,"ĠìłĬìĿĢ":5126,"ê°ĢìĿ´ëĭ¤":5127,"Ġë§Įëĵ¤ìĹĪëĭ¤":5128,"ìħ°":5129,"Ġìī¬":5130,"ĠëĮĢíķĻìĽĲ":5131,"Ġìı":5132,"ëŁ¬ë¦¬":5133,"ĠëĸłëĤĺ":5134,"41":5135,"ĠìľłëıĦ":5136,"å¤ª":5137,"ëĵ±ìŀ¥":5138,"ock":5139,"æ´ŀ":5140,"ĠìĦ¤ìłķ":5141,"ÃĹ":5142,"ĠìĿ¸ëĶĶ":5143,"ĠPart":5144,"Ġì§ĳì¤ĳ":5145,"ĠëĦ¤ìĿ´ë²Ħ":5146,"¾Į":5147,"ë¥¼ë¦°":5148,"Ġìĭľìŀ¥":5149,"ê´ĳìĹŃìĭľìĿĺ":5150,"ì¤":5151,"ĠìĦ¸ì¢ħ":5152,"Ġìŀ¥ê¸°":5153,"Ñģ":5154,"ç¾©":5155,"Ġê°¤":5156,"Ġìłľìłķ":5157,"ĠCD":5158,"ëĵ¤ëª©":5159,"éķ·":5160,"ë©ľ":5161,"ë³µì§Ģ":5162,"ì¹ĺìĽĲ":5163,"ìĽł":5164,"ëŁīìĿĢ":5165,"ëĤ´ê³ł":5166,"Ġê³ĦìĤ°":5167,"ë§ĪìĿĺ":5168,"ĠëĮĢìĤ¬":5169,"Ġëĥī":5170,"ìĿ¸ìłĳ":5171,"Ġë¬¸ìłľê°Ģ":5172,"Ġì¡°ìłķ":5173,"ĠëĮĢíĳľìłģìĿ¸":5174,"ĠëĨįêµ¬":5175,"êµŃë¯¼íķĻêµĲ":5176,"ìĭľìĬ¤íħľ":5177,"ĠìĦľìª½":5178,"êµĲìĿĺ":5179,"íĢ´":5180,"ĠëĴ·":5181,"ĠìļĶì½Ķ":5182,"1970":5183,"Ġê¸°íĽĦ":5184,"ric":5185,"Ġë§ĮëĵľëĬĶ":5186,"Ġìłķì¹ĺìłģ":5187,"ĠíĶ½":5188,"Ġëªĩëªĩ":5189,"ìĭľíĤ¨":5190,"Ġìłķìĥģ":5191,"Ġì²Ļ":5192,"ĠìĤ¬ìļ©ëĲĺëĬĶ":5193,"Ġìħ°":5194,"ĠìĮĵ":5195,"ĠìłĦëĿ¼ë¶ģëıĦ":5196,"ê¸°íĽĦ":5197,"Ġíķĺê¸°":5198,"Ġì§ĳëĭ¨":5199,"ĠëĳĶ":5200,"Ġê°ľìĹħíķľ":5201,"Ġìĺ¤íĶĪ":5202,"ìĬ¤íģ¬ë°Ķ":5203,"Ġë¬´ìĹŃ":5204,"ĠìĹ¬ìłĦíŀĪ":5205,"ĠìľĦìĿĺ":5206,"íĶĦëłĪ":5207,"íķ´ë¥¼":5208,"ë¦¬ëħ¸":5209,"ĠìĤ¬ìĭ¤ìĿĦ":5210,"Ġ1964":5211,"Ġì¶ľë°ľ":5212,"ĠìĪĺìĺģ":5213,"íĶĦëĬĶ":5214,"Ġìĺ¤ìĬ¤":5215,"ĠëĤĺì¤ĳìĹĲ":5216,"ĠíĻķëĮĢ":5217,"son":5218,"ëľ¨":5219,"Ġëļ":5220,"ì¡°ëĬĶ":5221,"íĥĢë¡ľ":5222,"ĠìłĦìĤ¬":5223,"íĤ¤ìĬ¤íĥĦ":5224,"ĠìĿ´ëŀĺ":5225,"ë¹ĦëĶĶìĺ¤":5226,"ext":5227,"Ġê²½ê¸°ìŀ¥":5228,"ĠìĦ¸ë¥´":5229,"Ġë¶Īë¦°ëĭ¤":5230,"ëŁīìĿĺ":5231,"ìłĦìĿ´":5232,"ope":5233,"ĠìĿ´ëłĩê²Į":5234,"ĠìłĦì°¨":5235,"Ġë°ĺë©´":5236,"Ġê²¨ìļ¸":5237,"Ġê°ĲìĹ¼":5238,"43":5239,"ĦëĬĶ":5240,"ĠëĤĺëĵ¤ëª©":5241,"ĠìĿ´ìļ©íķĺìĹ¬":5242,"ĠëıĦìĦľê´Ģ":5243,"Ġì½©":5244,"ĠíĨµìĤ°":5245,"Ġìį¼":5246,"ĠíĻĶíķĻ":5247,"è¥¿":5248,"ìŀĲëıĻì°¨":5249,"Ġê·¸ëłĪìĿ´":5250,"ĠëĴ¤ìĹĲ":5251,"Ġì£¼ëª©":5252,"ìĿ´ë¡ľ":5253,"Ġ36":5254,"éļ":5255,"ìĦ±ìľ¼ë¡ľ":5256,"Ġì£¼ëĬĶ":5257,"æĢ":5258,"ìĹĲê²ĮëĬĶ":5259,"Ġë¡ľë²ĦíĬ¸":5260,"ĠìĨĶë¡ľ":5261,"Ġìĭľìłķì´Į":5262,"Ġì½Ķëĵľ":5263,"Ġêº":5264,"ë¹Ħê°Ģ":5265,"ĠíĬĢ":5266,"ë³ĳìĽĲ":5267,"éĦ":5268,"ĠìķĮìķĦ":5269,"æŀ":5270,"ëıĦìĦľê´Ģ":5271,"ĠíĸīìĤ¬":5272,"ĠìĪĺê°Ģ":5273,"ìĭ¤ìĿĦ":5274,"ì§Ģë¦¬":5275,"ê¸°ê³ł":5276,"Ġì§Ģë¦¬":5277,"Ġì²´ê³Ħ":5278,"Ġì£½ìĿĮ":5279,"ĠìķĦë©Ķë¦¬ì¹´":5280,"ì¡°ìĤ¬":5281,"ĠëĳĺëŁ¬":5282,"Ġë¶ĦìŁģ":5283,"ĠìĪ²":5284,"85":5285,"Ġ1962":5286,"ĠëĭĪìĭľ":5287,"ì§Ģë§Ī":5288,"êµŃìĿĢ":5289,"Ġìĺ®ê²¨":5290,"ĠSc":5291,"Ġê°ľìĦł":5292,"Ġ1966":5293,"êµ¬ëł¤":5294,"Ġë§Īëĵľë¦¬":5295,"az":5296,"ĠíĻĪëŁ°":5297,"ĠíĥĦìĥĿ":5298,"ç´":5299,"ĠìĨĮìŀ¥":5300,"Ġíķ¨ìĪĺ":5301,"Ġê°ķì¡°":5302,"Ġê¹Ģìłķ":5303,"ĠìĤ¬ëŀĮìĿĦ":5304,"ì¼Ī":5305,"ĠìľłìłĦ":5306,"ĠìĤ¬ë§ĿíķĺìĺĢëĭ¤":5307,"ë¦¬ê¸°":5308,"Ġë¬¼ë¡ł":5309,"ìľĦìĽĲìŀ¥":5310,"Ġë¯¼ê°Ħ":5311,"Ġìłķë¶ĢìĿĺ":5312,"íĺ¸ê°Ģ":5313,"ĠíķĺëĬĺ":5314,"Ġì£¼ë§Ĳ":5315,"ĠìĿ¸ìĤ¬":5316,"ĠìĿ¼ìĿ´":5317,"ê´Ģìľ¼ë¡ľ":5318,"ë©Ķë¦¬ì¹¸":5319,"ĠëĿ¼ìĿ¸":5320,"ìłģìľ¼ë¡ľëĬĶ":5321,"ì¦ĪíĤ¤":5322,"ĠíĮĿ":5323,"Ġì¦Ŀê±°":5324,"Ġë§Īë²ķ":5325,"ook":5326,"å¾·":5327,"ãĢİ":5328,"Ġê´Ģë£Į":5329,"Ġëŀľ":5330,"ëĿ¼íģ¬":5331,"íĻľëıĻ":5332,"å¯º":5333,"Ġë¬´ìŀ¥":5334,"Ġì¸¡ìłķ":5335,"Ġíĥĳìŀ¬":5336,"ê¾":5337,"IS":5338,"Ĩį":5339,"ê°ľë¥¼":5340,"ìĭľìĬ¤":5341,"ìĦľìļ¸íĬ¹ë³Ħìĭľ":5342,"ĠìłľìĿ´":5343,"ê¶ĮìĿ´":5344,"Ġëģ¼":5345,"ëĲĺìŀĲ":5346,"In":5347,"ìĦĿìĿĦ":5348,"áĨŀ":5349,"Ġìĭ¤ìłľë¡ľ":5350,"ëĭ¹ìĿ´":5351,"ĠëłĪëĵľ":5352,"ê¹Įì§ĢìĿĺ":5353,"Ġê³łëĵ±":5354,"Ġì¶ķêµ¬ëĭ¨":5355,"ĠíķŃëª©":5356,"ìĬĪíĥĢ":5357,"ĠìĬ¤íĥ":5358,"Ġê¸°ëĬ¥ìĿĦ":5359,"ĠíķĻìĤ¬":5360,"ìĭłìĿ´":5361,"ìĦ¸ìĹĲ":5362,"Ġì¤ĳíĻĶìĿ¸ë¯¼ê³µíĻĶêµŃ":5363,"Ġë§Īë¦¬ìķĦ":5364,"ĠìľĦì¹ĺíķ´":5365,"ĠìĪĺë¦½":5366,"ĠìĿ´ìĬ¬ëŀĮ":5367,"ëĿ¼ìĿ´ìĸ¸":5368,"ĠíĹĿê°Ģ":5369,"ĠìĤ¬íļĮìłģ":5370,"ĠíĶ¼ìķĦëħ¸":5371,"ìĻľ":5372,"íĥĢì¹´":5373,"VD":5374,"Ġê²ĢìĿĢ":5375,"ëŀ«íı¼":5376,"åºľ":5377,"Ġê´ĳê³ł":5378,"71":5379,"ëł´":5380,"ĠìķĦë¥´íĹ¨íĭ°":5381,"ach":5382,"86":5383,"Ġìĺ¬ëŀĲëĭ¤":5384,"ĠíķĦë¦¬íķĢ":5385,"Ġìĭľê°ģ":5386,"ĠíĮĲëĭ¨":5387,"Ġëª½ê³¨":5388,"Ġë§Įëĵ¤ìĸ´ì§Ħ":5389,"Ġë¡¤":5390,"56":5391,"ĠìĽĲìŀĲ":5392,"ë©´ìĿĺ":5393,"ĠìĪĺìłķ":5394,"ìĿ¸ëĵ¤ìĿ´":5395,"ìĬ¤íĮĮ":5396,"ĠĠĊ":5397,"Ġê·¸ëłĩ":5398,"ëĮĢìĤ¬ê´Ģ":5399,"ìĹ°êµ¬ìĨĮ":5400,"ë§Īë¥´":5401,"Ġìŀ¥êµ°":5402,"ÑĢ":5403,"ĠìĹĨìĸ´":5404,"ìī":5405,"ì¢ħíķ©":5406,"Ġ1965":5407,"ĠìĿ¸ê°Ģ":5408,"int":5409,"ĠìŀĲìĭłìĿĦ":5410,"Ġëĵ±ìŀ¥íķĺëĬĶ":5411,"ë¡ľìĦľìĿĺ":5412,"è»į":5413,"ĠMe":5414,"'(":5415,"ìĦľë¡ľ":5416,"one":5417,"Ġë½":5418,"ëŀĲ":5419,"ëĵ¯":5420,"Ġì±ĶíĶ¼ìĸ¸ìĬ¤":5421,"Ġì£¼ìĹĪëĭ¤":5422,"ìŀĲëĵ¤ìĿĺ":5423,"ìłĢìļ°":5424,"ĠëĤĺíĥĢëĤĺ":5425,"Ġì¢Ģ":5426,"Ġìļ©ìĸ´":5427,"ĠìłľìŀĳìĹĲ":5428,"Ġíİ¸ê³¡":5429,"éĻ¢":5430,"ĠìĦłê³ł":5431,"êµŃìľł":5432,"ì§Ĳ":5433,"Ġì¢ħì¢ħ":5434,"Ġë§Īëł¨":5435,"ĠìłĢíķŃ":5436,"ĠìĬ¤ë¯¸":5437,"ë²Ħê·¸":5438,"íĮĮìĿĺ":5439,"ìĭłë¬¸":5440,"ë¡ľëıĦ":5441,"Ġìĺ¹":5442,"£ł":5443,"ĠIS":5444,"ìłĦëĿ¼":5445,"89":5446,"ĠìĦłìĿĺ":5447,"ëłĪìĿ´ëĵľ":5448,"ĠìĤ¬ë¡Ģ":5449,"éŁ":5450,"ëłĽ":5451,"Ġê¹Ĭ":5452,"ĠìĭľëĤĺ":5453,"íĺ¸ìĿĺ":5454,"»ê²Į":5455,"Ġê±´ëĦĪ":5456,"ëħ¸ìĬ¤":5457,"ëĿ¼ê³łëıĦ":5458,"ĠíķĢëŀĢëĵľ":5459,"ĠëĬĲëĤ":5460,"Ġíķ´ëĭ¹íķľëĭ¤":5461,"íĶĦìĿĺ":5462,"Ġìķ¡ìħĺ":5463,"Ġë¯¸ëĶĶìĸ´":5464,"ê¹¨":5465,"ë¡łìĿĦ":5466,"åħī":5467,"ìĬ¤íı¬ì¸ł":5468,"ĠíĨµíķĺìĹ¬":5469,"Ġë¶ĪëŁ¬":5470,"êµ¬ë¡ľ":5471,"ĠâĢĶ":5472,"Ġì·¨ê¸ī":5473,"ĠìĭľëĤ´":5474,"Ġë°ľíĳľíĸĪëĭ¤":5475,"åĮĹ":5476,"Ġíĺ¸íħĶ":5477,"¥íĦ°":5478,"å´":5479,"Ġ90":5480,"51":5481,"ëħĦëĮĢìĹĲ":5482,"çĦ":5483,"íķľíİ¸":5484,"ëħĦê³¼":5485,"ë¦¬ëĤĺ":5486,"å¹´":5487,"Ġ300":5488,"Ġì£¼ìĭĿ":5489,"ĠíĨµê³Ħ":5490,"Ġê³µê³µ":5491,"ĠìľĦíĺĳ":5492,"ìŀł":5493,"ann":5494,"1979":5495,"ê¾¼":5496,"Ġë¶ķê´´":5497,"79":5498,"ìĿ´íĥĪë¦¬ìķĦìĿĺ":5499,"Ġê³µìľł":5500,"Ġê°Ħì£¼":5501,"Ġë¬´ê¸°":5502,"org":5503,"ĠíĿ°":5504,"íį¼ëĵľ":5505,"Ġ1949":5506,"Ġì´Ŀë¦¬":5507,"ê°Ģê°Ģ":5508,"ìĺ¤ë¦¬":5509,"ĠìĪ«":5510,"ìķ¤ìł¤ëłĪìĬ¤":5511,"ĠíĻķë³´":5512,"Ġìłķë³´ë¥¼":5513,"ĠìķĦìĿ´ëıĮ":5514,"ëĪ":5515,"ĠìłĦì£¼":5516,"ë¹Ħì¹ĺ":5517,"ĠìľłìĹĶ":5518,"rop":5519,"ĠìľĦìĽĲíļĮ":5520,"å§":5521,"ë¡ľë¡ľ":5522,"Ġë³¸ëŀĺ":5523,"ë³´ëĭ¤ëĬĶ":5524,"ìķ¼êµ¬":5525,"Ġìŀ¬ì§ģ":5526,"ĠìĤ¬ìŀ¥":5527,"ëĭĪìĿĺ":5528,"ëł¥ìľ¼ë¡ľ":5529,"Ġë°©ìĨ¡êµŃ":5530,"ìŀĲê¸°":5531,"èĹ":5532,"íĮ¬":5533,"ìºĲëĤĺëĭ¤ìĿĺ":5534,"Ġê²Ĳ":5535,"ê¿":5536,"ĠìĬ¤íĭ°":5537,"ĠìŀĪìĹĪì§Ģë§Į":5538,"ĠíŀĪëį°":5539,"Ġìļķ":5540,"ult":5541,"Ġìłģê·¹":5542,"ĠìĬ¤íİĺìħľ":5543,"íŀĺ":5544,"ìĹ°ìĨį":5545,"ĠìĿ´ë£¨ìĸ´ìł¸":5546,"Ġìĺģìĥģ":5547,"Ġë¬¸ìŀĲ":5548,"Ġê¸°ë¡ĿìĿĦ":5549,"Ġì±ĦíĥĿ":5550,"ìĺģêµŃ":5551,"ëłĲ":5552,"éĤ":5553,"ĠìĿ´ë²Ī":5554,"sh":5555,"Ġíħį":5556,"ìĬ¤íĮħ":5557,"Ġê³łìłķ":5558,"Ġì¶©ë¶Ħ":5559,"ĠìĿ´ìĬ¤ëĿ¼ìĹĺ":5560,"å®¶":5561,"ĠíĥĪëĿ½":5562,"ĠìĿ´íĽĦìĹĲ":5563,"ĠìĦ±ìĿ¸":5564,"ĠSingle":5565,"ê²°ìĬ¹":5566,"ĠìĪĺìŀħ":5567,"ĠìĿ´ëŀĢ":5568,"Ġê¸Īìľµ":5569,"ê²ĮìĿ´":5570,"Ġê·ł":5571,"éĻ½":5572,"ì¡°íķ©":5573,"íĸīìĿĦ":5574,"Ġìī½ê²Į":5575,"Ġëĭ¤ìĦ¯":5576,"Ġê·¸ëł¤":5577,"ĠìĤ´ìĿ¸":5578,"53":5579,"Ġ1948":5580,"ĠêµĲíĨł":5581,"Ġë³´ë©´":5582,"ë¶ĢìĻĢ":5583,"ëĦ¤ìĬ¤":5584,"ëĭĪëĬĶ":5585,"ĠUniversity":5586,"ĠíŀĺìĿĦ":5587,"ĠìĹĲëĦĪì§Ģ":5588,"II":5589,"ëĦ¤ìĭľìķĦ":5590,"Ġë¬´ëłµ":5591,"ìļ°ëĵľ":5592,"Ġëĵ±ìŀ¥ìĿ¸ë¬¼":5593,"ë¦¬ì¼Ģ":5594,"ë¬¼ìĿ´":5595,"ĠìĤ¬ëĬĶ":5596,"Ġ1961":5597,"ãĢĢ":5598,"500":5599,"Ġ1946":5600,"ëĿ¼ëĶĶìĺ¤":5601,"Ġwith":5602,"ìķĦíĤ¤":5603,"ëĭ¹ìĿĦ":5604,"Ġë°ĽìķĦëĵ¤":5605,"ëŁ¬ìĭľìķĦ":5606,"ĠìľĦì¹ĺíķĺê³ł":5607,"íį¼ìĬ¤":5608,"åľ°":5609,"ìĿĺìĿĺ":5610,"ĠíĨµíķľ":5611,"54":5612,"ĠíıŃë°ľ":5613,"Ġìµľìļ°ìĪĺ":5614,"ìŀĲìĹĲê²Į":5615,"ĠíĶĮë¡ľ":5616,"ëĭ¹íķľ":5617,"ĠìĿ¼ìĽĲ":5618,"ê²½ìĿĺ":5619,"Ġê¸°ì¡´ìĿĺ":5620,"åĿ":5621,"ì¢ħìĿ´":5622,"ĠëĭĽ":5623,"ë¬¸ìĹĲ":5624,"èĪ":5625,"ë²łìĿ´ìĬ¤":5626,"åİŁ":5627,"ìĮį":5628,"Ġìµľëĭ¤":5629,"ĠCon":5630,"íİĺë¥´":5631,"Ġê²½íĸ¥":5632,"ĠìĿ´íĥĪë¦¬ìķĦìĿĺ":5633,"ì§ĪìĿĺ":5634,"ê³łë¡ľ":5635,"ê¸°ë¡Ŀ":5636,"Ġë°©ìĭĿìľ¼ë¡ľ":5637,"Ġìĸ´ëĸ»ê²Į":5638,"íĻĪ":5639,"ì¡Įìľ¼ë©°":5640,"Ġì´Īë°ĺ":5641,"ë¨¸ìĬ¤":5642,"Ġê°ķëł¥íķľ":5643,"íĬ¸ëŀĻ":5644,"ìĶ¬":5645,"ä¸ĸ":5646,"ĠìĿĺë£Į":5647,"ĠìĿ¸íĦ°ë·°":5648,"ĠìłĢìŀ¥":5649,"íķĺëĭ¤ê³ł":5650,"HK":5651,"ĠëĤĺìĺ¤ëĬĶ":5652,"Ġìºĺë¦¬íı¬ëĭĪìķĦ":5653,"ĠëģĬ":5654,"Ðº":5655,"Ġë©ĶìĿ´ìłĢ":5656,"íķĺìĭľ":5657,"Ġê¹Į":5658,"Ġíĥľìĸ´ëĤľ":5659,"ĠìĦŃ":5660,"ëł¥ê³¼":5661,"72":5662,"Ġë¹Ħìļ©":5663,"ëĦ¤ìĿ´":5664,"éĥ¡":5665,"ĠìĿ¼ë°ĺìłģìĿ¸":5666,"Ġíĥľíıīìĸĳ":5667,"ĠìĤ¬ìļ©íķľ":5668,"CD":5669,"ë¹ĦìĿĺ":5670,"ĠìĤ¬íļĮì£¼ìĿĺ":5671,"íķĺëł¤ëĬĶ":5672,"Ġê³µê²©ìĿĦ":5673,"ìĤ°ë¦¬":5674,"ë¨¹":5675,"ìĿ´ëĿ¼ê³łëıĦ":5676,"ë¶ĦìĿĺ":5677,"ìķĪìłĦ":5678,"--":5679,"color":5680,"ĠìĿ¸íķĺìĹ¬":5681,"á»":5682,"59":5683,"Ġë°ĸìĹĲ":5684,"ì£¼ê°Ģ":5685,"ê³Ħíļį":5686,"74":5687,"ĠíĨ°":5688,"ëĤĻ":5689,"ĠëĮĢíļĮìĹĲìĦľ":5690,"ëĤ©":5691,"ëĩ":5692,"ë¹Ħìĭľ":5693,"Ġë§Ľ":5694,"æŃ¦":5695,"Ġê¸¸ìĿ´":5696,"ê³łëĵ±":5697,"ìĤ¬ìĿ¸":5698,"Ġë¶Ģê·¼":5699,"Ġë¿Ĳë§Į":5700,"ë°ĸìĹĲ":5701,"ĠìĦľìļ¸ëĮĢíķĻêµĲ":5702,"pl":5703,"1973":5704,"ë°ĽìĿĢ":5705,"ĠëĤ´ìĹĲìĦľ":5706,"Ġì¶ľìŀ¥":5707,"ìĤ°êµ°":5708,"ĠìĻ¸ìĹĲëıĦ":5709,"çĶŁ":5710,"Ġìĭľê¸°ìĹĲ":5711,"ĠìĹ°ìĺĪ":5712,"ohn":5713,"Ġì§Ĳ":5714,"æĦ":5715,"ĠìķĬìĿĦ":5716,"ìĿ¼ë¡ľ":5717,"ì§Ģê¸°":5718,"ëıĻìĿĺ":5719,"Ġì»µ":5720,"ĠìķłíĶĮ":5721,"Ġìŀ¬ìłķ":5722,"è§":5723,"ë²łë¥´íģ¬":5724,"ĠíļĮë³µ":5725,"ĠìłĦíĪ¬ìĹĲìĦľ":5726,"Ġìĺ¤íĨł":5727,"ĠìĤ¬ëŀĮìĿĺ":5728,"âĨ":5729,"62":5730,"kg":5731,"ìĤ¬ìĬ¤":5732,"ëŀĺê³¤":5733,"ìĸ´ëıĦ":5734,"Ġíİł":5735,"ĠìĤ¬ìļ´ëĵľ":5736,"Ġì½ĺìĦľíĬ¸":5737,"ĠìĤ¬ëŀĮëĵ¤ìĿĢ":5738,"Ġê·¸ëŀĺìĦľ":5739,"ĠíĶĮëŀ«íı¼":5740,"Ġì¹¨ê³µ":5741,"ë¯¸ëĭĪ":5742,"ìĹ°ë§¹":5743,"ĠíĻķìłķ":5744,"ëĳĺ":5745,"Ġë¹¨":5746,"ç¥ŀ":5747,"ë¶ĢìĹĲìĦľ":5748,"ĠìľłíĬľ":5749,"ê³µíĻĶêµŃ":5750,"Ġëª©ìłģ":5751,"Ġíķľìłķ":5752,"ê³łê¸°":5753,"Ġê·¸ê³³":5754,"ĠìķĶìĤ´":5755,"Ġêµ¬ì¡°ë¥¼":5756,"ìĸ´ìĬ¤":5757,"Ġë°ĽëĬĶ":5758,"ëĭĪë²ĦìĬ¤":5759,"ìĹŃìĿ´ëĭ¤":5760,"ier":5761,"ëĲĺìĹĪì§Ģë§Į":5762,"ĠëĨĴìĿ´":5763,"ëĮĢìĹĲìĦľ":5764,"ãĨį":5765,"Ġ33":5766,"ì§ĪìĿĦ":5767,"Ġíı¬ìľł":5768,"Ġë§Įìķ½":5769,"ID":5770,"ĠíĬ¸ë¡ľ":5771,"Ġíĺķìłľ":5772,"æ¬":5773,"íİĻ":5774,"ìķĹ":5775,"Ġìĵ°ìĿ¸ëĭ¤":5776,"ìĤ°ìľ¼ë¡ľ":5777,"ĠìłĦê°ľ":5778,"ĠìŀĲë³¸":5779,"ìĿ¸ìĹĲ":5780,"Ġì±ĶíĶ¼ìĸ¸ìĭŃ":5781,"1978":5782,"ì£¼êµ°":5783,"ê°Ĵ":5784,"Ġìĩł":5785,"rist":5786,"ë¯¸ìĿĺ":5787,"ë°ķë¬¼ê´Ģ":5788,"åŃ¸æł¡":5789,"ëĲĺìĹĪëĬĶëį°":5790,"BA":5791,"ëıĻìľ¼ë¡ľ":5792,"ì¡°ë¥¼":5793,"ĠëŁ¬ìĭľìķĦìĿĺ":5794,"ãĢī,":5795,"ĠíĬ¸ëŀĻ":5796,"ìłĲìĹĲ":5797,"ĠíŀĲ":5798,"ĠëĲĺìĹĪìľ¼ë©°":5799,"Ġê¹ĢìĦ±":5800,"Ġê³Ħìķ½ìĿĦ":5801,"ĠìľłëĤĺìĿ´íĭ°ëĵľ":5802,"61":5803,"cl":5804,"ì°¨ë¥¼":5805,"ìŀ¬íĮĲ":5806,"ĠìľłíĤ¤":5807,"Ġëĭ¨ë°±ì§Ī":5808,"ê³¼ëĮĢíķĻ":5809,"ĠìĭľìŀĳëĲĺìĹĪëĭ¤":5810,"íĥĢëĬĶ":5811,"ĠìĥĿíĻľìĿĦ":5812,"63":5813,"íĥĢì§Ģ":5814,"ëĿ¼ëĵľ":5815,"ìĹħìĿĦ":5816,"ìĦłìĹĲ":5817,"Ġìĭ±ìĸ´":5818,"ĠëĮĢíĺķ":5819,"ìĦ¸ê¸°ìĹĲ":5820,"ìĿ¸ìĿ´ëĭ¤":5821,"ìĦľìĿĺ":5822,"ì²´ë¡ľ":5823,"ĠëĤĺëĬĶ":5824,"ĠíĹ¤ìĿ´":5825,"Ġìŀ¥ì°©":5826,"Ġì¡°íķ©":5827,"ê³¼ìłķ":5828,"Ġê³łíĸ¥":5829,"52":5830,"EN":5831,"ìĤ¬ìłĦ":5832,"Ġê³łìļ©":5833,"ë©´ìĹĲìĦľ":5834,"ĠìĹĲìĸ´":5835,"ë¹ĦëĬĶ":5836,"Ġë°ķìłķ":5837,"ĠìĪĺì¶ľ":5838,"Ġì°½ìĦ¤":5839,"Ġìļ°íģ¬ëĿ¼ìĿ´ëĤĺ":5840,"ëļ":5841,"Ġìŀ¥ì¹ĺ":5842,"ĠìĪĺíķĻ":5843,"ë©´ìĿ´":5844,"Ġë¶Īê°ĢëĬ¥":5845,"ìĺ¤ìĬ¤":5846,"Ġëĵ±ìĹĲìĦľ":5847,"ĠìĬ¤íģ¬":5848,"Ġê´Ģìĭ¬ìĿĦ":5849,"Ġì¡±":5850,"íİĺëĿ¼":5851,"\"|":5852,"íģ¬ëŀĺíĶĦíĬ¸":5853,"íĻĺê²½":5854,"Ġíķĺëĵľ":5855,"ìĿ¸ëĵ¤ìĿĢ":5856,"Ġê²½ìļ°ëıĦ":5857,"æľĿ":5858,"ĠíĤ¬":5859,"êµĲìĪĺ":5860,"Ġê³µêµ°":5861,"êµŃìĿĦ":5862,"ìĨĮìĪĺìŀĲ":5863,"ĠëĤŃ":5864,"íĨ±":5865,"Ġë³´ìĿ´ëĬĶ":5866,"íķľêµŃìĿĺ":5867,"ãħ":5868,"ics":5869,"Ġê°ľìĭł":5870,"ĠSch":5871,"Ġë³Ģíĺ¸ìĤ¬":5872,"ĠìķĦëŀį":5873,"1972":5874,"ĠíĶĦëŀĢ":5875,"ì§Īëŀľëĵľ":5876,"Ġì¶©ì²Ńë¶ģëıĦ":5877,"93":5878,"ĠíķĺìŀĲ":5879,"Ġì°½ë¦½":5880,"ĠìĿ´ìłĦìĹĲ":5881,"Ġë§Īíģ¬":5882,"ì£¼ëħĦ":5883,"ĠCol":5884,"Ġì£¼ìŀ¥íĸĪëĭ¤":5885,"æľ´":5886,"Ġëħ¸ë¶Ģ":5887,"Ġìŀĺëª»":5888,"ëĮĢìŀ¥":5889,"ĠìłĦìĹŃ":5890,"ĠìŀĲë¦¬ë¥¼":5891,"ĠPl":5892,"ê´ĢìĿĺ":5893,"íĻĶëĬĶ":5894,"Digital":5895,"Ġê·¸ê²ĥìĿĢ":5896,"Ġë²łìĿ´ì§ķ":5897,"ìĭľìĻĢ":5898,"ĠëĭĪì½ľ":5899,"Ġë§Įì¡±":5900,"Ġëĵ¯":5901,"ê¸°ê°Ħ":5902,"ĠìĪĺìĹ¬":5903,"ê´Ģê´ĳ":5904,"Ġì¤ĳíĻĶë¯¼":5905,"íħĮëĦ¤":5906,"73":5907,"ĠíĪ¬ìŀĲ":5908,"è¡Į":5909,"Ġë¹Ħìľ¨":5910,"ìķ½ìĿĦ":5911,"ĠìĿ´ë¯¼":5912,"ìĿ´ëįĺ":5913,"ì¹´ê³ł":5914,"ĠPh":5915,"Ġëĸ¨ìĸ´ìł¸":5916,"Ġíķĺê²Į":5917,"Ġ1955":5918,"Ġíĥģ":5919,"ìłĦìĿĢ":5920,"ĠëĤĺíı´":5921,"ëĿ¼ìĿ´íĦ°":5922,"íĪ°":5923,"Ġëħ¸ë²¨":5924,"TBC":5925,"Ġë¯¸ëĵľíķĦ":5926,"ìĬ¤íı¬":5927,"ĠìĬ¹ë¦¬ë¥¼":5928,"æ°´":5929,"ung":5930,"ĠëĮĢìĥģìľ¼ë¡ľ":5931,"IT":5932,"ë£¸":5933,"Ġì²ŃëħĦ":5934,"ĠìĹ¬ê¸°ìĦľ":5935,"Ġ1000":5936,"ount":5937,"ê´ĳì£¼":5938,"ë°ĽìķĦ":5939,"Ġ01":5940,"ĠëĴ¤ë¥¼":5941,"çµ":5942,"ëĶĶìħĺ":5943,"íĺķìĿ´":5944,"Ġ1940":5945,"Ġì¹´ìļ´":5946,"Ġë§¤ëħĦ":5947,"Ġì¤ĳìĿĺ":5948,"Ġì¡°ìĦłë¯¼ì£¼ì£¼ìĿĺìĿ¸ë¯¼ê³µíĻĶêµŃ":5949,"ä¸»":5950,"ĠëłĮ":5951,"çķ":5952,"Ġëĭµ":5953,"ëıĻë¬¼":5954,"Ġìĺ¬ë¦¬":5955,"ĠíĨłë¡ł":5956,"ìĽ°":5957,"ë¦¬íĭ°":5958,"Ġëĭ¨ìĿ¼":5959,"ĠëĿ¼íĭ´":5960,"ì¤Ħê±°ë¦¬":5961,"Ġë¯¸ëĵľíķĦëįĶ":5962,"ëł¥ìĹĲ":5963,"ĠWorld":5964,"ìķĺìľ¼ë©°":5965,"ëĬĦ":5966,"ìĿ´ìĹĪìľ¼ëĤĺ":5967,"ì²´ìĹĲ":5968,"Ġëª¨ìĬ¤íģ¬ë°Ķ":5969,"íĸīìľĦ":5970,"íĸĪê¸°":5971,"Ġë¬»":5972,"ĠíĺĲìĿĺ":5973,"ìĸ´ìĻĢ":5974,"Ġêµ¬ìĦ±ëĲľ":5975,"Ġ1941":5976,"Ġì¶ľìĹ°íķĺìĺĢê³ł":5977,"Ġê°Ģê²©":5978,"ĠHe":5979,"ĠMar":5980,"ìĪĺìĿ´ëĭ¤":5981,"ĠìķĦìĿ´ìĬ¤":5982,"íĮ©":5983,"69":5984,"«ĵ":5985,"ĠìłĲì°¨":5986,"ĠìĪľìľĦ":5987,"ì¡±ìĿĺ":5988,"ëĭ¨ìľ¼ë¡ľ":5989,"ĠëŁ¬ë¸Į":5990,"Ġê³łêµ¬ëł¤":5991,"ë³´íĨµ":5992,"Ġíıīìĸĳ":5993,"ĠìĦĿìĤ¬":5994,"ĠíĮĲê²°":5995,"ĠìĽĮìĭ±íĦ´":5996,"ica":5997,"ĠëĮĢê·ľëª¨":5998,"ĠìĨįìĹĲìĦľ":5999,"ëł¨ìĿĺ":6000,"éİ":6001,"ìłľìĹĲ":6002,"ĠìĿ¸ê°ĦìĿĺ":6003,"1976":6004,"Ġì§ĢìĭĿ":6005,"Ġë¨¸ë¦¬":6006,"ëĵľëĿ¼":6007,"ìłķëıĻ":6008,"ë¡ľë°Ķ":6009,"ìļ©ìľ¼ë¡ľ":6010,"ĠêµŃë¬´":6011,"Ġë¯¼ì£¼ëĭ¹":6012,"ìĸ´ëĵ¤":6013,"ĠëıĦìĽĢ":6014,"ë¥ĺë¥¼":6015,"íļĮìŀ¥":6016,"Ġëĵ±ìĿĢ":6017,"ëĮĢìĭł":6018,"ĠìĿ¸ê¸°":6019,"Ġìŀłìĭľ":6020,"ë¦¬ì¦ĺ":6021,"Ġì¡°ê¸Ī":6022,"ëĴ":6023,"Ġì¦Ŀëªħ":6024,"ëĮ":6025,"ìĤŃ":6026,"Ġì§ģìĽĲ":6027,"ĠíĺĦìĭ¤":6028,"íĿ¡":6029,"Ġê°Ģë¡ľ":6030,"ë²ķìĹĲ":6031,"ĠìĿ´ìŀ¬":6032,"Ġì§ĵ":6033,"ì§Ģêµ¬":6034,"ëıħë¦½":6035,"Ġë³µìŀ¡":6036,"ìļ°ëĿ¼":6037,"ĠíĥĢê³ł":6038,"ĠìķĦì£¼":6039,"Ġë¶Ħíķł":6040,"ë¤Ħ":6041,"ìĦłìĹĲìĦľ":6042,"ëłĺ":6043,"Ġìĺ¬íķ´ìĿĺ":6044,"ase":6045,"ëŁ¬ìĭľìķĦìĿĺ":6046,"are":6047,"ë¹ĦìķĦìĿĺ":6048,"ĠíĦ¸":6049,"Ġy":6050,"èĭ":6051,"ĠìĤ¬ìļ©ëĲĺìĹĪëĭ¤":6052,"ĠKë¦¬ê·¸":6053,"ìĤ¬ìĹĲìĦľ":6054,"ë²ĪìĿĺ":6055,"|}":6056,"ĠÎ":6057,"ĠìĹŃìľ¼ë¡ľ":6058,"Ġë°±ìŀĳ":6059,"ëª¨ëį¸":6060,"ĠëıĦìĽĢìĿĦ":6061,"1968":6062,"Ġì²¨":6063,"Ġìĺ¤ìłĦ":6064,"ĠíĻĭ":6065,"ì§ĦìĿĦ":6066,"ë¦¬ëĭ¤":6067,"ĠìĽĲì¹Ļ":6068,"éĥ¨":6069,"idae":6070,"ìŀħëĭĪëĭ¤":6071,"ĠìĨįìĹĲ":6072,"ĠìŀĲê²©":6073,"ìĿ¸ëªħ":6074,"ĠìŀĲìĿ´ìĸ¸":6075,"ë¥´íĤ¤":6076,"ë°ķì¥Ĳ":6077,"ĠíĦ°íĤ¤":6078,"ìĭľëĮĢìĿĺ":6079,"1960":6080,"ĠìĿ´ë£¨ìĸ´ì§Ħ":6081,"Ġë¶Īê³¼":6082,"HE":6083,"ĠëķĮìĹĲëĬĶ":6084,"ĠëŀŃ":6085,"Ġëĳ¥":6086,"ï½":6087,"Ġíķĺë©´ìĦľ":6088,"ĠëĽ°ìĸ´ëĤľ":6089,"ìĥģìĹĲìĦľ":6090,"ä»ģ":6091,"æ·":6092,"ìĺ¤ìĬ¤íĬ¸ëłĪìĿ¼":6093,"AP":6094,"ë¯¸ìĪł":6095,"Ġì°¸ìĦĿ":6096,"%,":6097,"Ġê³łìłĦ":6098,"ì§ĢìĤ¬":6099,"ĠìķŀëĳĲê³ł":6100,"ĠìłĦíĺĢ":6101,"ĠTe":6102,"Ġì¤ĳë°ĺ":6103,"Ġíķľëĭ¤ëĬĶ":6104,"Ġê°Ģë¦¬íĤ¤ëĬĶ":6105,"ĠíĺķíĥľìĿĺ":6106,"Ġ1954":6107,"ìĿ¸íĦ°":6108,"íħĲì¸ł":6109,"ĠìºĦ":6110,"Ġê³¨ëĵł":6111,"Ġì§§ìĿĢ":6112,"Ġíķ´ë°©":6113,"Ġê³¼ìłķìĿĦ":6114,"ĠêµĲì°¨ë¡ľ":6115,"ĠëıĦìĭľë¡ľ":6116,"ition":6117,"íģ¬ëĬĶ":6118,"yst":6119,"1974":6120,"ĠìĹĲíĶ¼ìĨĮëĵľ":6121,"ĠíĥĢìĿ´ê±°":6122,"ick":6123,"ì¡°ê°Ģ":6124,"ë¤¼":6125,"íķ´ì§Ħ":6126,"ĠìĿ´ìĦ±":6127,"Ġìĺ·":6128,"ìĭľíĹĺ":6129,"Ġìłķì°¨":6130,"íĬĢ":6131,"Ġì¹´ëĵľ":6132,"Ġê³łìĨį":6133,"Ġë³´ìķĪ":6134,"land":6135,".,":6136,"ĠëĮĢë¦½":6137,"Ġê¶Įíķľ":6138,"Ġë®":6139,"ëł¤ëĬĶ":6140,"ëĬ¬":6141,"ìļ°ì£¼ìĹ°":6142,"¥¬":6143,"íĨłëĭĪ":6144,"íķĺê³łìŀĲ":6145,"ĠìĿĺíķ´ìĦľ":6146,"ìĭ¬ìĿ´":6147,"ĠëıĻìĿ¼íķľ":6148,"Ġê³Ħê¸ī":6149,"1977":6150,"Ġìľłíĺķë¬¸íĻĶìŀ¬":6151,"ĠìĿĮìĭĿ":6152,"íĥĢë¥´":6153,"Ġ1956":6154,"Ġë§ĲìĿ´ëĭ¤":6155,"ĠìĿ¼ìłķ":6156,"ê¹Įì§ĢëĬĶ":6157,"ĠìĨĮìĪĺ":6158,"ĠìĤ¬ëŀĮëĵ¤":6159,"ì°į":6160,"Ġë¶ĢíĻľ":6161,"ĠìĿĮëł¥":6162,"ë¬¸ìĿ´":6163,"Ġë¿Į":6164,"ĠìĹł":6165,"Ġìľµ":6166,"ĠìĥģíĴĪ":6167,"ë¦¬ìĸ¸":6168,"Ġë°ĺë³µ":6169,"ë¦ŃìĬ¤":6170,"Ġ1958":6171,"Ġi":6172,"ĠìĹĨê³ł":6173,"éŁĵ":6174,"íŀĲ":6175,"ìĬ¤ìľĦ":6176,"ĠìĿ´ëģĦëĬĶ":6177,"BN":6178,"ì¹´ëĵľ":6179,"ĠíĴĭ":6180,"ĠLove":6181,"rap":6182,"Ġë£¨ìĿ´":6183,"ìĿ´ìĹĪê³ł":6184,"ĠìĿĺìĥģ":6185,"ĠFA":6186,"ì£¼ë¯¼":6187,"Ġëį®":6188,"íĭ°ìĬ¤íĬ¸":6189,"ĠìĥĿëªħ":6190,"ìĦľìĹĲ":6191,"Ġê³łìľł":6192,"ê³µíķĻ":6193,"ĠMus":6194,"ê¶":6195,"ìłģìĿ´ëĭ¤":6196,"ĠìĬ¤ì½ĶíĭĢëŀľëĵľ":6197,"Ġ1944":6198,"Ġë¶īìĿĢ":6199,"OM":6200,"ĠíĮĮìĽĮ":6201,"Ġíķľëĭ¤ê³ł":6202,"èĻ":6203,"Ġê±´êµŃ":6204,"Ġíĸīìłķêµ¬ìĹŃ":6205,"ram":6206,"ìĹĪì§Ģë§Į":6207,"ë°ĺëıĦ":6208,"è©":6209,"ëĦĺ":6210,"Ġëĭ¹ìĭľìĿĺ":6211,"íĺķìĿĢ":6212,"Ġíķ©ê²©":6213,"ê¼¬":6214,"èī":6215,"ë¶Ļ":6216,"Ġë³´ì¡°":6217,"ĠíĸīìĦ±":6218,"ĠíĿĺ":6219,"íķĺëł¤ê³ł":6220,"old":6221,"84":6222,"ìĪĺìĻĢ":6223,"ĠëĤ¨ëıĻ":6224,"ç©":6225,"Ġíķ´ìĸĳ":6226,"íķľìĿĺ":6227,"Ġê³łìĨįëıĦë¡ľ":6228,"Ġë¯¸ìĤ¬ìĿ¼":6229,"ĠìĭľëĮĢìĹĲ":6230,"íĥĢë¥¼":6231,"ĠíĽĦìĨĲ":6232,"ìĹĪëĬĶëį°":6233,"ĠíĽ¨":6234,"Ġê°ľë´īíķľ":6235,"ëĤ¬ìľ¼ë©°":6236,"ĠìĥĿì¡´":6237,"Ġì§ĢìĹŃìĿĢ":6238,"Ġ34":6239,"Ġ1930":6240,"ëĤ¼":6241,"çŁ³":6242,"Ġë³´ëĬĶ":6243,"ìĶ¨ëĬĶ":6244,"íģ´ë¦¬":6245,"FM":6246,"ì°Į":6247,"ìĨĮìĹĲìĦľ":6248,"íķ¨ìĹĲ":6249,"ĠíĮĢìĿĢ":6250,"ë¡łê°Ģ":6251,"ãĤ¹":6252,"ìºł":6253,"Ġìļ´ìłĦ":6254,"ìĿ¼ìłľ":6255,"ĠìĦ¸ìļ´":6256,"ìķĪìĿĺ":6257,"ĠìĤ´ê³ł":6258,"ax":6259,"ëĿ¼ê°Ģ":6260,"ìĹĲë§Į":6261,"Ġë°ľìĥĿíķľ":6262,"Ġì°į":6263,"ĠíĶĮëłĪìĿ´ìĺ¤íĶĦ":6264,"ĠìĽĲìłķ":6265,"Ġë²¨ê¸°ìĹĲ":6266,"åĴĮ":6267,"Ġê¸°ë°ĺìľ¼ë¡ľ":6268,"å²":6269,"Ġë¶ģìĦľ":6270,"æ°¸":6271,"ê·¸ë¦¬":6272,"ĠëĤ´ìļ©ìĿĦ":6273,"82":6274,"ëĭ¹ìĭľ":6275,"ĠêµŃê²½":6276,"ĠíĶĮëĿ¼":6277,"Ġì°¨ì§ĢíĸĪëĭ¤":6278,"ru":6279,"ĠtvN":6280,"Ġê°ĸì¶ĺ":6281,"Ġì£¼êµĲ":6282,"ĠíĽ¨ìĶ¬":6283,"Ġë¡ľë§¨":6284,"ìłĲìĿĢ":6285,"Ġ1959":6286,"ìĭľíĤ¬":6287,"ĠìĻĦë£Į":6288,"Ġìļ°ìĦł":6289,"Ġëį°ìĿ´ë¹Ħëĵľ":6290,"ëĪĦìĬ¤":6291,"ê±´ìĦ¤":6292,"91":6293,"ĠìĿ¸ê¸°ë¥¼":6294,"Ġíķ©ìĿĺ":6295,"èı":6296,"ëıĻìĿ´":6297,"Ġê³µë¶Ģ":6298,"ë¬´ë¶Ģ":6299,"ĠìĿ´ê²ĥìĿ´":6300,"ĠëĤĺìĻĢ":6301,"Ġìļ´ìļ©":6302,"ĠìķĦìĺ¤":6303,"ĠìķĦë¯¸":6304,"é¾į":6305,"ìĽĲê³¼":6306,"Ġ1952":6307,"ĠìĪĺìĤ¬":6308,"ì¶©ì²Ń":6309,"Ġëıħë¦½ìļ´ëıĻ":6310,"ë¬´ëĦ¤":6311,"arl":6312,"1969":6313,"Ġê°ĢëĬ¥ìĦ±ìĿ´":6314,"Ġ1920":6315,"Ġê°ĸì¶Ķ":6316,"ìĬ¤ëŁ¬ìļ´":6317,"ë£¬ëĭ¤":6318,"ç¸£":6319,"Ġê·¸íķ´":6320,"ys":6321,"Ġê°ľìµľëĲľ":6322,"83":6323,"Ġë¬¸ìĭł":6324,"ê³µë¦½":6325,"ê²½ìĺģ":6326,"âĹ":6327,"Ġëª¨íĹĺ":6328,"ĠMC":6329,"ED":6330,"ì¶ľíĮĲ":6331,"íĺĦëĮĢ":6332,"Ġëľ»íķľëĭ¤":6333,"ĠìĤ¬ìĭ¤ìĥģ":6334,"ìŀĲëĵ¤":6335,"ĠíĸĪì§Ģë§Į":6336,"Ġì³":6337,"Ġë¶ĢìĤ°ê´ĳìĹŃìĭľ":6338,"Ġìŀīê¸ĢëŀľëĵľìĿĺ":6339,"ĠìĤ¬íĽĦ":6340,"åĥ":6341,"ĠëĤĺëīĺ":6342,"Ġìķ½ìĨį":6343,"íĬ¹ë³ĦìŀĲì¹ĺ":6344,"Ġê°ľêµŃ":6345,"ĠìĹĲëıĦ":6346,"çĦ¡":6347,"íĬ¸ìĻĢ":6348,"ìķĺëįĺ":6349,"ĠíĥĢìĿ´ìĻĦ":6350,"ĠìĹĦë§Ī":6351,"Ġë¯¸ëĭĪ":6352,"ĠìĿ´ì¤ĳ":6353,"ai":6354,"au":6355,"ĠëĤ´ìĹĲ":6356,"Ġë¹ĦêµĲìłģ":6357,"ãĤ¤":6358,"ĠëĤĺìĦľ":6359,"AS":6360,"ĠëĿł":6361,"éĺ":6362,"ĠíĶ¼íĦ°":6363,"ëįĶëĿ¼ëıĦ":6364,"ĠPC":6365,"ĠìľĦë°ĺ":6366,"Ġê°ľê´Ģ":6367,"ĠìĻ¸ìĹĲ":6368,"ìĬ¤ëŁ½":6369,"ĠìľĦìĽĲìŀ¥":6370,"ê¶ĮìĹĲ":6371,"Ġìĥĺ":6372,"ĠìĹ°ìŀ¬":6373,"ë²ķìĿĺ":6374,"ë²Īíĺ¸":6375,"ĠíĻĶë¬¼":6376,"ĠRe":6377,"Ġíı¬ì§ĢìħĺìĿĢ":6378,"ìĹĪìľ¼ëĤĺ":6379,"Ġì²´ìľ¡":6380,"Ġì§ĳíĸī":6381,"ĠìĬ¤íĨł":6382,"ĠAFC":6383,"ë§Īë£¨":6384,"ìķĦìĦľ":6385,"ìĨ¡ëĿ¼ìĿ´íĦ°":6386,"ìħī":6387,"1971":6388,"íĻĶë¡ľ":6389,"ĠìĤŃ":6390,"Ġë²łë¥¼ë¦°":6391,"ëħģ":6392,"ìĭľíĤ¨ëĭ¤":6393,"íĨµê³Ħ":6394,"ĠìķĪëĤ´":6395,"ë¥¨":6396,"ìļ°ìĿĺ":6397,"ì©":6398,"ê²łëĭ¤ê³ł":6399,"ĠëĲĺì§Ģ":6400,"Ġë¹ĦëĤľ":6401,"ĠìĹ¬ê°Ŀì²łëıĦ":6402,"Ġë¶ģëıĻ":6403,"êµ¬ìĻĢ":6404,"ĠìłķëıĦìĿĺ":6405,"ìŀĳê³¡":6406,"ĠìĸĳìĦ±":6407,"ĠìĿ´ìłķ":6408,"ĠOST":6409,"ĠíĮĮëĿ¼":6410,"Ġì·¨ëĵĿ":6411,"ĠìĿĢíķĺ":6412,"ium":6413,"íĶ¼ìĬ¤":6414,"ëĦ¨":6415,"ĠìłģìĿĢ":6416,"ìĤ°ìĿĢ":6417,"Ġê°Īëĵ±":6418,"åĵ":6419,"ĠëĮĢíķŃ":6420,"Ġë¡ľëĵľ":6421,"Ġíģ´ëŀĺìĭĿ":6422,"ĠìĽ¨ìĬ¤íĬ¸":6423,"Ġë½ĳ":6424,"íĽ":6425,"ĠìĹ´ëĮĢ":6426,"Ġìłķë³µ":6427,"ĠìłĢì§Ģ":6428,"Ġìĭ±ìĸ´ìĨ¡ëĿ¼ìĿ´íĦ°":6429,"ê²Ķ":6430,"ĠìĺĪìĥģ":6431,"Ġë§¡ê³ł":6432,"ĠìŀĦëªħëĲĺìĹĪëĭ¤":6433,"ì²ĺëĵľ":6434,"ĠìŀĪìĹĪìľ¼ë©°":6435,"Ġë³´ê¸ī":6436,"Ġìĺ¤íĶĦ":6437,"ìĤ¬ëŀĮ":6438,"ĠìķĦë²Ħ":6439,"Ġë¦¬ëįĶ":6440,"Ġ1953":6441,"ãĥ¼ãĥ":6442,"Ġíķµìĭ¬":6443,"ëĮĢì¤ĳ":6444,"ĠìĭłìĦ±":6445,"ìĤ°ë©´":6446,"ĠëĲĲëĭ¤":6447,"å°¹":6448,"ĠíĶĦë¦¬ë¯¸ìĸ´":6449,"ëłĪìĺ¤":6450,"Ġìĭ¬ê°ģ":6451,"ĠíĿ¡ìĪĺ":6452,"Ġscope":6453,"Ã£":6454,"Ġìĺ¤íŀĪ":6455,"íħĶëłĪë¹ĦìłĦ":6456,"Ġ1947":6457,"Ġë¦´":6458,"Ġìĭľê°ĦìĿ´":6459,"ëĭĺìĿĺ":6460,"Ġë³¸ê²©":6461,"ert":6462,"Ġëħ¼ìŁģ":6463,"ĠìĪŃ":6464,"ëħ¹":6465,"ëĦĪìĬ¤":6466,"Ġêµ¬ì²´":6467,"ĠLe":6468,"èĬ":6469,"ĠíĿ¬ë§Ŀ":6470,"ì¤ĳíĻĶ":6471,"æģ":6472,"é¡":6473,"ĠBe":6474,"ë¬¸ìĿĺ":6475,"ĠìĦ¸ìĽłëĭ¤":6476,"ìĬ¤íĬ¸ëĿ¼":6477,"æľĪ":6478,"ĠíĪ¬ìŀħ":6479,"íĽĦì¿ł":6480,"ĠìĦ¤ì¹ĺëĲĺìĸ´":6481,"ĠëĭĮ":6482,"Ġë§Įíģ¼":6483,"ìŀĲëĵ¤ìĿĦ":6484,"íĽĪìŀ¥":6485,"Ġê³µíĻĶêµŃìĿĺ":6486,"ĠëıĦìļĶ":6487,"ĠíĹ¨ë¦¬":6488,"ĠìĹŃìĤ¬ìĥģ":6489,"ìĽĲêµ°":6490,"att":6491,"ĠêµŃë¯¼ìĿĺ":6492,"ĠìĹŃìĿĦ":6493,"87":6494,"ĠìĻĶ":6495,"ë®¤ëĭĪ":6496,"ĠëķĮìĹĲ":6497,"ê³µìĭĿ":6498,"ìľ¼ë¡ľëıĦ":6499,"ĠíĥĿ":6500,"Ġ37":6501,"ìĸĳìĿĺ":6502,"Ġê·ĢêµŃ":6503,"rowspan":6504,"Ġë£Į":6505,"Ġì±ĶíĶ¼ìĸ¸ìĬ¤ë¦¬ê·¸":6506,"Ġfrom":6507,"Ġë¬´ìĹĩ":6508,"ìķ¼ìĭľ":6509,"Ġì¹´ìĿ´":6510,"ì§ĦìĿĺ":6511,"ìļ°ê³ł":6512,"ubl":6513,"ism":6514,"center":6515,"ì¢ħìĿĢ":6516,"pr":6517,"Ġëħ¸ìĺĪ":6518,"Ġê°ĢëĤĺ":6519,"ous":6520,"éĥ½":6521,"Ġê³µìĤ¬":6522,"ĠíĬ¸ëŀľ":6523,"ä½¿":6524,"ĠìŀĪìĹĪìľ¼ëĤĺ":6525,"Ġìħĭ":6526,"ĠëıĦëĭ¬":6527,"Ġìłľì¶ľ":6528,"ĠìĦ¸ê³ĦìĹĲìĦľ":6529,"ë©Ķëĭ¬ë¦¬ìĬ¤íĬ¸":6530,"81":6531,"Ġìį¨":6532,"ata":6533,"ëħĦê²½":6534,"1945":6535,"ìĭłìĿĢ":6536,"bert":6537,"ìķ¨ë²Ķ":6538,"ĠìļĶìĨĮ":6539,"ë§Īìĵ°":6540,"ĠíĨµìłľ":6541,"ĠëıĻìķĦ":6542,"Ġë°©ì¶ľ":6543,"ĠìĤ½":6544,"è¡Ĺ":6545,"ĠíĬ¹ì§ĳ":6546,"ĠìĨĲìŀĲ":6547,"Ġì½ĶíĮĮ":6548,"orn":6549,"ëĭĪìĭľë¦¬ì¦Ī":6550,"ì²¼":6551,"ĠìĽĲëħĦ":6552,"Ġê²½ìľł":6553,"ë§Įíģ¼":6554,"ĠìĬ¹ìĿ¸":6555,"Ġì²łíķĻ":6556,"ìłĦìľ¼ë¡ľ":6557,"ëĦĮ":6558,"ìĹĨëĬĶ":6559,"ì°¨ë¡Ģ":6560,"å¤«":6561,"ĠìŀĲìĤ´":6562,"ìļ´ìĺģ":6563,"ĠìŀĲëħĢ":6564,"ĠìĬ¤íĤ¤":6565,"Ġê±°ëĮĢíķľ":6566,"ì²¨":6567,"ë¶ĦêµĲ":6568,"Ġì¶ľìŀħ":6569,"Ġê¸īìłľ":6570,"ĠìĨĮë°©":6571,"ìĬ¬ë§ģ":6572,"ê°ľíĺģ":6573,"ê³½":6574,"Ġê³½":6575,"íĹ¤ìĿ´":6576,"íĬ¹ë³ĦìĭľìĿĺ":6577,"ìĹĲíĬ¸":6578,"Ġ*":6579,"ĠìĤ¬ìľł":6580,"ĠìķĦëĿ¼":6581,"Ġë³´ê±´":6582,"ëĭ¹ìĹĲ":6583,"ĠíķĺëĬĶëį°":6584,"éĸĢ":6585,"ĠìĿ¼ë³¸ìĹĲìĦľ":6586,"ê¶ĮìĿĢ":6587,"ath":6588,"Ġíı¬ìľłë¥ĺ":6589,"Ġ400":6590,"Ġê±°ìłĪ":6591,"ĠìłĪëĮĢ":6592,"Ġê°ķìłľ":6593,"ë¬¼ë¡ľ":6594,"Ġì¶ĶìłķëĲľëĭ¤":6595,"ĠìļĶíķľ":6596,"å¸Ŀ":6597,"ĠìĤ¬íĨł":6598,"ina":6599,"ĠìĿ¸ê³µ":6600,"ĠìĿ´ì§ĳíĬ¸":6601,"ì§Ģë©´ìĦľ":6602,"ĠíĥĪì¶ľ":6603,"Ġê¹Ģì¢ħ":6604,"ì£¼ìĻĢ":6605,"1975":6606,"PS":6607,"ance":6608,"ìĬ¨ìĿĢ":6609,"ë¦¬ìķĪ":6610,"ë°ĶìĿ¼":6611,"Ġìłķë¶Ģê°Ģ":6612,"ĠFM":6613,"íĥĢìļ´":6614,"íķĺëĭ¤ëĬĶ":6615,"ì¦ĿìĿĦ":6616,"ĠMan":6617,"ëĪĪ":6618,"ĠëĲĺë©´ìĦľ":6619,"Ġì¤ĳê³Ħ":6620,"Ġì§ĢëĭĮ":6621,"ì¹ĺìķĦ":6622,"ĠìĿ¼ì¢ħìĿ´ëĭ¤":6623,"íķĦëĵľ":6624,"ë³´ë³ĳ":6625,"Ġê²°ê³¼ë¥¼":6626,"gcolor":6627,"ET":6628,"ëĵľëłĪ":6629,"Ġ1951":6630,"ëĤŃ":6631,"ĠíĮĮíĬ¸":6632,"ìĥīìĿĦ":6633,"ìĿ¼ìĿ´":6634,"Ġêµ¬ë³Ħ":6635,"ìĬ¹ìĿĦ":6636,"Ġë¦¬ê·¸ìĿĺ":6637,"ĠBr":6638,"Ġê·¼ëĮĢ":6639,"Ġê·¸ìĹĲ":6640,"ĠìĿ´ìķ¼ê¸°ë¥¼":6641,"ĠíĶĦë¦°":6642,"ĠìĬ¤íĥł":6643,"Ġë©¸ë§Ŀ":6644,"ĠìķĮê²Į":6645,"Ġ1957":6646,"net":6647,"ĠìĪĺíĽĪ":6648,"ĠíĶĦë¡ľìĦ¸":6649,"íĪ¬ìĬ¤":6650,"ĠíĪ¬ìĸ´":6651,"ìºĺë¦¬íı¬ëĭĪìķĦ":6652,"Ġìĺ¤ëŀľ":6653,"Ð¾Ð":6654,"ìĭľì²Ń":6655,"ìĪĺìĹĲ":6656,"ĠíĶĦë¡ľê·¸ëŀ¨ìĿ´ëĭ¤":6657,"ĠíĸĪìľ¼ëĤĺ":6658,"ool":6659,"ĠEd":6660,"ĠíħĮëŁ¬":6661,"ĠìĤ¬ë²ķ":6662,"Ġê°ľìĦ¤":6663,"ĠìĺĪë¹Ħ":6664,"ĠëłĪìłĦ":6665,"ĠíĮ¨ìħĺ":6666,"Ġì°½ì¡°":6667,"ìĿĮìĹĲëıĦ":6668,"ê²Ģì°°":6669,"íĻĶíķĻ":6670,"ĠìĿ´ìĿµ":6671,"amp":6672,"Ġë¹Ļ":6673,"ĠëĵľëĿ¼ìĿ´":6674,"ìĿ´ìĥģ":6675,"Ġìŀ¥ëĤ¨":6676,"Ġì¶Ķì¸¡":6677,"ĠìĦ±ìĨĮìĪĺìŀĲ":6678,"ê°ľìĿ¸":6679,"Ġìķ½ê°Ħ":6680,"Ġì§ĢëıĦìŀĲ":6681,"ë³´ìĿ´":6682,"ĠíĿĶíŀĪ":6683,"ology":6684,"ĠìķŀìĦľ":6685,"ĠêµĲìĤ¬":6686,"íĨµíķ©":6687,"ë¦¬ì§ĢëĦĲ":6688,"èĪĪ":6689,"ìĪłìĿĦ":6690,"Ġê¸Ģë¡ľë²Į":6691,"ë¦´ëŁ¬":6692,"Ġíĸīë³µ":6693,"ĠìĭľìĤ¬":6694,"ì¸łíĤ¤":6695,"Ġê³µíĻĶ":6696,"ĠEx":6697,"ĠëĲ¨":6698,"ĠìĻĢìĿ´":6699,"ë°¤":6700,"ìĿĮìĿ´":6701,"Ġëĭ¤íģĲ":6702,"Ġê·¸ê²ĥìĿĦ":6703,"Ġì¸µ":6704,"ĠTr":6705,"ĠêµŃê°ĢìĿĺ":6706,"ĠëıĦì¤ĳ":6707,"éº":6708,"Ġê²½ì£¼":6709,"Ġìĸ´ëłµ":6710,"Ġì§Īë³ĳ":6711,"ëĮĢëĮĢ":6712,"Ġìĸ»ìĹĪëĭ¤":6713,"ë©´ìľ¼ë¡ľ":6714,"Ġíķ´ìĦ¤":6715,"ìĿ´ìļ©":6716,"ĠíĻķìĭ¤":6717,"Ġë§Īì¼Ģ":6718,"out":6719,"ound":6720,"ëī´ìĬ¤":6721,"Ġìĭľê°ĦìĿĦ":6722,"ë°Ľê³ł":6723,"ì¹´ìĿĺ":6724,"ë¡ĢëĮĢíĳľ":6725,"ìĹĲê²ĮìĦľ":6726,"ë³´ëĬĶ":6727,"ĠìĤ¬ë§ĿíĸĪëĭ¤":6728,"âĪ¼":6729,"Ġìľłëªħíķĺëĭ¤":6730,"íķ´ëıĦ":6731,"ìłģìĿĺ":6732,"Ġì¶ľë§Ī":6733,"1950":6734,"Ġì£¼ìĸ´":6735,"ĠìºĶ":6736,"ìŀĳê°Ģ":6737,"çı":6738,"ĠìłĦê³µ":6739,"ime":6740,"Ġíķ´ëĭ¹íķĺëĬĶ":6741,"ĠíĮĢìĿ´":6742,"ĠìľłíĬľë¸Į":6743,"Ġê·¸ëłĪ":6744,"ìĹ¬ìĦľ":6745,"Ġíı¬íķ¨ëĲĺìĸ´":6746,"Ġê³łë¬¸":6747,"ĠìĥĿê²¨":6748,"Ġì½Ķë¡ľëĤĺ":6749,"ë¶ĦìĿ´":6750,"ìħĢë¡ľ":6751,"AD":6752,"ĠìľĦì¹ĺíķľëĭ¤":6753,"OV":6754,"Ġìĥģëĭ¹íŀĪ":6755,"Ġê±":6756,"able":6757,"Ġë°°ìĹŃ":6758,"ĠíĸĪê³ł":6759,"Ġíı¬ê¸°":6760,"Ġëĭ¨íİ¸":6761,"ìĬ¤íİĺìĿ¸ìĿĺ":6762,"ìľłìĤ°":6763,"ì¿łìĬ¤":6764,"ĠëĮĢê³µ":6765,"Ġë¡ľë´ĩ":6766,"Ġ03":6767,"êµ¬ìĦ±":6768,"Ġëªħëªħ":6769,"Ġìŀ¡ì§Ģ":6770,"ĠëĦĵìĿĢ":6771,".âĢĿ":6772,"ĠëıĦë§Ŀ":6773,"ĠëĬ¥ëł¥ìĿĦ":6774,"ìĭľë¦¬ì¦Ī":6775,"Ġìłľìĸ´":6776,"Ġ1943":6777,"Ġìĺ¤íŀĪëł¤":6778,"ìħĪ":6779,"ä¸ĭ":6780,"Ġì¼Ī":6781,"ĠëıĻìĿĺ":6782,"ĠìĤ¬ìļ©íķĺê³ł":6783,"Ġë³ĳìĤ¬":6784,"ĠíĹ¤ë¥´":6785,"Ġì«ĵ":6786,"Ġë¶Ģìĥģ":6787,"ê°Ģë¯¸":6788,"ĠEP":6789,"ĠìŀĲìĿ´ìĸ¸ì¸ł":6790,"íĻĶìĻĢ":6791,"ê°ĦìĹĲ":6792,"ĠëłĪìĺ¤":6793,"Ġë§Īëĵľë¦¬ëĵľ":6794,"ĠìĦľë²Ħ":6795,"Ġì½Ķì¹ĺ":6796,"ĠíħĮìĿ´":6797,"ron":6798,"ìĬ¬ëŁ¬":6799,"ĠìĿ´ìļ©íķľ":6800,"Ġë²łìĿ´ìĬ¤ë³¼":6801,"Ġê¼Ń":6802,"Ġê±´ë¦½":6803,"æ²³":6804,"Ġíķľë²Ī":6805,"ĠìĤ¬ë¦½":6806,"æľĥ":6807,"ree":6808,"ĠëıĦì¿ł":6809,"ĠíħĮë§Ī":6810,"ĠìĪĺì§ĳ":6811,"1964":6812,"ĠìĿ´ìļ©íķ´":6813,"Ġë²¡":6814,"Ġìĺ¤ëŀĺëĲľ":6815,"ĠìļĶìĥĪ":6816,"ĠíĬ¹ë³Ħíķľ":6817,"ĠìłĲìĹĲìĦľ":6818,"ĠëıĻìŀĳ":6819,"ë¡ľìļ°":6820,"ole":6821,"ëĵľìĭľ":6822,"Ġ1938":6823,"ì¼ĵëª¬":6824,"ĠíĻ©ê¸Ī":6825,"ĠëĤ¨ìĦľ":6826,"Ġì°½ìĽĲ":6827,"Ġìķ¼ìĬ¤":6828,"ĠìĬ¤ë§ĪíĬ¸":6829,"ĠìĦ¸ìĿ¸íĬ¸":6830,"Ġíĥľìĸ´ëĤĺ":6831,"ìłĦê¸°":6832,"Ġì°¨ìĿ´ê°Ģ":6833,"isc":6834,"êµŃìĹĲ":6835,"Ġë³´ë¬¼":6836,"ê°ķìłĲê¸°ìĿĺ":6837,"Ġê°ĢìĻĢ":6838,"ë²ķìĿĢ":6839,"Ġíķ©ìĦ±":6840,"ĠíİĺìĿ´ì§Ģ":6841,"Ġêµ¬ìĨį":6842,"íĸĦ":6843,"ìĦ¸ë¡ľ":6844,"ìļ°ì£¼ìĹ°ìĥģ":6845,"Ġì§ĢìĽĲìĿĦ":6846,"Ġê°ĢìĿĦ":6847,"ĠìŀĪìĹĪëĬĶëį°":6848,"ìĶ¨ìĿĺ":6849,"ìļ°ì¹ĺ":6850,"ìĬ¤íĶ¼":6851,"ìķĪìĹĲ":6852,"íĬ¹ë³Ħì¶ľìĹ°":6853,"ĠíķŃë³µ":6854,"ë¦¬ì½Ķ":6855,"Ġê³ĦíļįìĿĦ":6856,"Ġìĺ¤ì¹´":6857,"ì°¸ì¡°":6858,"Ġê²ĥì²ĺëŁ¼":6859,"Ġë£¨ìĿ´ìĬ¤":6860,"ĠìĻ¼ìª½":6861,"ĠìĿ¸ìĥĿ":6862,"Ġë¶Ģíķĺ":6863,"ĠìĿĳìļ©":6864,"ë³´ê³ł":6865,"1967":6866,"ì¶°":6867,"Ġíķ´ìĤ°":6868,"ĠëĮĢë¹Ħ":6869,"íĶĦëĿ¼":6870,"MS":6871,"ìĭĿìľ¼ë¡ľ":6872,"Ġê¸ĪìĨį":6873,"Ġë°ĺìĺģ":6874,"Ġê²½ê¸°ìĹĲ":6875,"ëł¹ìĿĦ":6876,"ìķĪêµ°":6877,"ë©ķìĭľì½Ķ":6878,"ĠìľłëĭĪë²Ħ":6879,"Ġê²½ìĦ±":6880,"1965":6881,"éŃ":6882,"ê·¸ìĿĺ":6883,"ëĭ¹íĸĪëĭ¤":6884,"ĠìĭĿë¯¼ì§Ģ":6885,"Ġë³´ìĺĢëĭ¤":6886,"erv":6887,"ë¥´ëħ¸":6888,"ame":6889,"ĠëĤĺëĪ":6890,"ì£¼ìĭľìĿĺ":6891,"ĠìĤ¬ê±´ìĿĦ":6892,"åı¸":6893,"çļĩ":6894,"ĠëĲĺë©´":6895,"Ġë§ĲëłĪìĿ´":6896,"ĠíķĻìĪł":6897,"ìĺĮ":6898,"ĠëĮĢìŀ¥":6899,"Ġê±°ëŀĺ":6900,"ĠMy":6901,"ĠìĿ´ìłľ":6902,"ëªħê³¼":6903,"ĠìĥĿê¸´":6904,"ĠìĬ¤íİĺìĿ¸ìĿĺ":6905,"ì§Ģìłķ":6906,"ì¦ĪëĭĪ":6907,"ìĸ¸ìĿĦ":6908,"ĠíĶĮëŀĺ":6909,"Ġë¸Įë£¨":6910,"íĭ°ìĬ¤":6911,"ëĤ¨ìŀĲ":6912,"ìĨĮìĨ¡":6913,"ĠíĢ¸":6914,"ë©į":6915,"Ġë²Īì§¸ë¡ľ":6916,"Ġë·":6917,"Ġíķĺë©´":6918,"íĻĶíķľ":6919,"ĠíĽĦê¸°":6920,"ĠìĿ´íķĺ":6921,"íĨłìĿĺ":6922,"Ġíķ´ìĦľ":6923,"ì§Ģë©°":6924,"ìĿ¸ëĵ¤ìĿĺ":6925,"ê²ł":6926,"Ġê¸°êµ¬":6927,"Ġëĭ¨ëıħ":6928,"íģ¬ìĬ¤":6929,"Ġë¨¸ë¬¼":6930,"ë£Įë¥¼":6931,"Ġë°ľê²¬ëĲľëĭ¤":6932,"Ġë³Ģê²½ëĲĺìĹĪëĭ¤":6933,"ê±°ìļ´":6934,"ìĬ¤íħĮìĿ´ìħĺ":6935,"æĶ¿":6936,"Ġì§ĢëĤ¸":6937,"ìĦłìľ¼ë¡ľ":6938,"Ġì¶ľê°Ħ":6939,"ĠíķĻìĬµ":6940,"ëħĦìĹĲìĦľ":6941,"Ġëľ»ìĿĦ":6942,"ox":6943,"ì¼°ëĭ¤":6944,"Ġê³¨ëĵľ":6945,"ĠìĺģìĽħ":6946,"íħľ":6947,"ë¬µ":6948,"ì¹´ë¯¸":6949,"íĪ¬ëĭĪë²ĦìĬ¤":6950,"Ġíı¬íķŃ":6951,"ĠëĮ":6952,"ìĦľê°Ģ":6953,"ĠíĶĦë¡ľê·¸ëŀĺ":6954,"æ¸":6955,"ii":6956,"Ġì§ģìĹħ":6957,"ĠìĦłêµĲ":6958,"ê³łìĿĺ":6959,"ĠìĦłê±°ìĹĲìĦľ":6960,"iew":6961,"ë°¥":6962,"ĠìĿ´ë¥´ëĬĶ":6963,"ĠëıĻëĤ¨":6964,"ĠVol":6965,"Ġíļ¡":6966,"Hz":6967,"ìĿ¼ë¦¬":6968,"Ġì§Ģê¸ī":6969,"ì²´ìĬ¤íĦ°":6970,"ìĤ°ìĿ´":6971,"Ġì°¸ê°Ģíķľ":6972,"ĠìĽĶíĻĶ":6973,"RE":6974,"ĠSe":6975,"çŁ":6976,"ĠíĥĢìŀĦ":6977,"ĠìłĲìĿĦ":6978,"Ġì¡°ìŀĳ":6979,"Ġê°ķìĿĺ":6980,"ĠOr":6981,"sc":6982,"ìĪĺìĽĲ":6983,"Ġì§Ħìŀħ":6984,"Ġx":6985,"Ġê³µìĽĲ":6986,"ë°Ķë¡ľ":6987,"Ġë¬´ëį¤":6988,"íķĻìĽĲ":6989,"æīĢ":6990,"Ġìĭłì²Ń":6991,"ĠëĮĢíĳľíĮĢ":6992,"ëıĦìĹĲìĦľ":6993,"ĠPress":6994,"íĬ¹ì§ķ":6995,"ë°ķìĬ¤":6996,"ìľ¨ìĿĦ":6997,"ä¹ĭ":6998,"ëģĶ":6999,"1963":7000,"ìĿ¸ì¦Ŀ":7001,"å¦":7002,"ĠëķĮë¶ĢíĦ°":7003,"ĠëłĪìłĦëĵľ":7004,"ë±Ģ":7005,"ĠìĬ¤íĨłë¦¬":7006,"ë¯¸ëĶĶìĸ´":7007,"å°ı":7008,"ê°ķìĿĺ":7009,"Ġëĵ±ìŀ¥íķľëĭ¤":7010,"íĴĪìĿĦ":7011,"ëŀĢëĵľìĿĺ":7012,"Ġíķ«":7013,"ĠìĨįíķľëĭ¤":7014,"ä¸į":7015,"ĠìĿ´ëģĮê³ł":7016,"Ġë©ĶìĿ¸":7017,"Ġë¸ĮëĿ¼ìļ´":7018,"Ġë°Ķëĳĳ":7019,"ê¸°ìķķ":7020,"ëĭ¤ë©´":7021,"ĠìĤ°ë§¥":7022,"æ¯":7023,"ĠìłĦíĽĦ":7024,"çĽ¸":7025,"ĠíĶĦëŀŃ":7026,"Ġë¶Īë²ķ":7027,"Ġì¹ľìĿ¼":7028,"Ġìĸ´ìĽĮëĵľ":7029,"ĠìĬ¤ë¦´ëŁ¬":7030,"ìĬ¤íİĺìĿ¸":7031,"Ġë¹łìł¸":7032,"ëĭ¨ê³Ħ":7033,"Ġë°©íĸ¥ìľ¼ë¡ľ":7034,"ê°ľê°Ģ":7035,"ĠêµĲíĻĺ":7036,"Ġê±´ì¡°":7037,"ĠEn":7038,"Ã¡":7039,"ĠìĿ´ìľłëĬĶ":7040,"ë¥Ń":7041,"íļĮê°Ģ":7042,"ĠìĿĺì¡´":7043,"ĠìłĢëħģ":7044,"Ġëĭ¤ì¼Ģ":7045,"Ġê·ľì¹Ļ":7046,"Ġë¯¸ì¹ĺ":7047,"ì§Ŀ":7048,"Ġì¡°ì¢ħ":7049,"Ġì¥Ĳ":7050,"ĠìĿ´íĽĦìĹĲëĬĶ":7051,"1966":7052,"ì°¨ìĽĲ":7053,"ìĺĢìľ¼ëĤĺ":7054,"Ã¼":7055,"Ġê·¸ìĹĲê²Į":7056,"íĶĦëŀĢ":7057,"ĠíĻĶê°Ģ":7058,"Ġëĵ±ê¸ī":7059,"ĠíĺĦíĻ©":7060,"ĠKBO":7061,"Ġì²ľìĹ°":7062,"ĠìĪĺìĨ¡":7063,"Ġê¹ĬìĿĢ":7064,"Ġì§Ģê¸ĪìĿĺ":7065,"Ġìłķì¹ĺìĿ¸ìĿ´ëĭ¤":7066,"ìŀ¥ìķł":7067,"åı²":7068,"ìĭľì¼°":7069,"ë²łíĬ¸ëĤ¨":7070,"Ġë³´ìŀ¥":7071,"ĠìŀĲëĬĶ":7072,"ĠìĭłìķĻ":7073,"Ġì½Ķë¦¬ìķĦ":7074,"ĠëĿ¼ìĿ´ìĺ¨":7075,"ìļ°ìĹĲ":7076,"Ġë»":7077,"ìĸĳêµ°":7078,"ìĩł":7079,"Ġì£¼ê´Ģ":7080,"ìĦĿìĿ´":7081,"ĠíİĺìĿ´ìĬ¤":7082,"Ġëĳĺì§¸":7083,"ãģª":7084,"Ġì£¼ê³ł":7085,"Ġpro":7086,"ì£¼ìĿ¸":7087,"ë¦¬ìĭľ":7088,"íļĮëĬĶ":7089,"ĠíĽĦì¿łìĺ¤ì¹´":7090,"Ġë³ĳìĽĲ":7091,"ëĦ¤ëįľëŀĢëĵľ":7092,"è¼":7093,"ĠìĿĺë¬´":7094,"ì°¨ê°Ģ":7095,"ĠëķĮìĿĺ":7096,"Ġëĭ¤ìļ´":7097,"ĠíĽĦìĨį":7098,"Ġëľ»ìĿ´":7099,"Ġë¹łë¥¸":7100,"ìĺ¤ìĿĺ":7101,"Ġì¡°ì¹´":7102,"ìĺģìĿĺ":7103,"ê°ģíĺķ":7104,"Ġë¶ĢëĮĢ":7105,"ìķµ":7106,"íķĻë¶Ģ":7107,"ì§ĢìŀĲ":7108,"ĠíĨµíķ´ìĦľ":7109,"ĠìĹĨëĭ¤ê³ł":7110,"ë²Ħëĵľ":7111,"ĠìķŀìĹĲ":7112,"ê¶¤":7113,"Ġê²Ģì°°":7114,"ĠìľĦìĦ±":7115,"ëłĪëĤĺ":7116,"ĠíŀĪìĸ´ë¡ľ":7117,"ĠíķľëķĮ":7118,"ĠíĺĦìŀ¬ê¹Įì§Ģ":7119,"ĠíĻľë°ľ":7120,"ìĸ´ìł¸":7121,"ë¹Ĺ":7122,"Ġë°©ë²ķìĿĦ":7123,"äºĶ":7124,"ħìĬ¤":7125,"êµŃìľ¼ë¡ľ":7126,"ĠìłĢìĪł":7127,"ĠëĤ¸":7128,"ale":7129,"ê°ĢìĹĲ":7130,"Ġë³¸ê´ĢìĿĢ":7131,"ìĤ°íĻĶ":7132,"Ġbgcolor":7133,"Ġë¥¼":7134,"íĥĢìĿĺ":7135,"ĠìĬ¤íĶĦ":7136,"Ġë³´ëĥĪëĭ¤":7137,"Ġê²ĮìĬ¤íĬ¸":7138,"Ġì²łíķĻìŀĲ":7139,"æ±Ł":7140,"ëª¨ë¥¼":7141,"íĭĢëŁ¬":7142,"ì£ł":7143,"ëħĦìĿ´":7144,"ĠìŀĩëĬĶ":7145,"ìĿ´ìĭľ":7146,"íŀĪëĬĶ":7147,"Ġë°Ľì§Ģ":7148,"itt":7149,"è¶Ļ":7150,"Ġëĭ¬ëĿ¼":7151,"ĠìķĮíĮĮ":7152,"Ġê¸°ìĹħìĿ¸":7153,"Kë¦¬ê·¸":7154,"ĠëĿ¼ìĿ´íĬ¸":7155,"Ġë°ľíĳľíķľ":7156,"ìĹ°êµ¬ìĽĲ":7157,"Ġë§Īì¸ł":7158,"ĠìĹĦì²Ń":7159,"ĠìĿ´ê¸°":7160,"Ġ48":7161,"ìĿ´ìĹĪìľ¼ë©°":7162,"ict":7163,"ĠíĻĶìĿ´íĬ¸":7164,"Ġal":7165,"yp":7166,"Ġë§Īì¹¨":7167,"ations":7168,"Ġìĭłíĺ¸":7169,"Ġìĺ¬ìĬ¤íĥĢ":7170,"AL":7171,")âĢĻ":7172,"Ġëĵľëŀĺê³¤":7173,"ĠìŀĳíĴĪìĿĦ":7174,"ë©´ìĿĢ":7175,"ĠìĻ¸ë¶Ģ":7176,"ĠëĮĢìĦ±":7177,"ãĢĤ":7178,"CC":7179,"Ġìŀ¥êµĲ":7180,"Ġë³ĢíĻĺ":7181,"ĠìľĦíķ´ìĦľëĬĶ":7182,"ĠëıħìŀĲ":7183,"ĠìłĦì§ģ":7184,"ìĹ¬ìĦ±":7185,"ì¡°ìĹĲ":7186,"Ġê¸°ìĪłìĿĦ":7187,"OL":7188,"ìĦ¸ìĻĢ":7189,"íĮĲìĿĦ":7190,"VP":7191,"ÑĤ":7192,"íķĺìľĦ":7193,"Ġíķ´ë¦¬":7194,"ĠìĥģìĬ¹":7195,"ë¿":7196,"Ġëªħëĭ¨":7197,"íģ°":7198,"ì§ĦíĿ¥":7199,"Ġíĸ¥ìĥģ":7200,"ĠìĬ¤íĭ°ë¸Ĳ":7201,"Ġ1939":7202,"ê±°ëŀĺ":7203,"ĠìºĲëĤĺëĭ¤ìĿĺ":7204,"ĠëĵĿíĳľ":7205,"ĠíĦ°ëĦĲ":7206,"Ġê°Ķëĭ¤":7207,"æ¼¢":7208,"ĠíŀĪë¡ľìĭľë§Ī":7209,"ê¸°ìĦľ":7210,"Ġì¡°ìłĪ":7211,"ëŁ¼ë¹ĦìķĦ":7212,"US":7213,"Ġëį´ë§Īíģ¬":7214,"Ġ1942":7215,"Ġê¸¸ìĿ´ëĬĶ":7216,"Ġë¸Įë¦¬":7217,"ĠíķĺìĺĢê³ł":7218,"Ġëĭ¥íĦ°":7219,"ìļ°ì£¼":7220,"ë¥ĺê°Ģ":7221,"Ġê³µíĨµ":7222,"Ġë°°ì¶ľ":7223,"ëĲĺë©´":7224,"Ġê¸°ìĥģ":7225,"éĦŃ":7226,"ĠìĨĮìĨįìľ¼ë¡ľ":7227,"ĠìĦľë¹ĦìĬ¤ë¥¼":7228,"Ġìĭľì¦ĮìĿĦ":7229,"Ġìłķì§Ģ":7230,"ĠìľłìĤ¬íķľ":7231,"ëĭ¤ìĿĮìĿĢ":7232,"Th":7233,"ë²Īì§¸ë¡ľ":7234,"ìĨĮìĻĢ":7235,"Ġë³´ìķĦ":7236,"ìĦ¸íķľ":7237,"ë²łìĬ¤":7238,"Ġíĺ¼ëŀĢ":7239,"íĺ¸ì¿ł":7240,"æŀĹ":7241,"Ġì£¼ëĳĶ":7242,"Ġë²ķì¹Ļ":7243,"Ġìį":7244,"ë³´íĺ¸":7245,"Ġìłķê¸°":7246,"ë¥´ê¸°":7247,"OP":7248,"åĨ":7249,"ĠìĹ°ëĮĢ":7250,"ë®¤ì§ģ":7251,"ĠëĦĺëĬĶ":7252,"Ġê°Ħëĭ¨":7253,"Ġ1914":7254,"ĠìłĦìŁģìĿĦ":7255,"Ġë¶ĻìĹ¬":7256,"Ġë¬´ê²Į":7257,"Ġê¸°ë¡Ŀíķľ":7258,"çĻ½":7259,"Ġì¶ľë²Ķ":7260,"ê¸°ìĹĲìĦľ":7261,"ìĿ¸ì¡°":7262,"ĠíķĺëĤĺëĬĶ":7263,"Ġìŀ¥ìķħ":7264,"Ġìŀ¬ê°ľ":7265,"Ġìķµ":7266,"ĠìĦ±ëĬ¥":7267,"Ġëĭ¤ë¥´ëĭ¤":7268,"UN":7269,"ĠìķĪëıĻ":7270,"ëł¸ê³ł":7271,"íĶĮë¡ľ":7272,"ê¸°ìĹĲëĬĶ":7273,"Ġë³µíķ©":7274,"oci":7275,"Ġìľ¨":7276,"ê³¡ë¦¬":7277,"ĠìĺĪì¸¡":7278,"ìĽĶëĵľ":7279,"Ġì§ĢëĭĪ":7280,"ê°ķìĽĲ":7281,"ê¸°ëıħêµĲ":7282,"Ġ55":7283,"ì¦Īì¹´":7284,"íĿĳ":7285,"ĠíģĲ":7286,"ĠìĿ¼ìĿ¼":7287,"ë¯¸ê°Ģ":7288,"ĠìĭľëĤĺë¦¬ìĺ¤":7289,"ë¯¸ë¥¼":7290,"ĠìĿ´ë¥¸":7291,"ë¶ĢëĮĢ":7292,"ìĨĮëħĢ":7293,"ëĶĶìĬ¤":7294,"ĠìĥģíķĺìĿ´":7295,"ĠìłĢìŀĳ":7296,"Ġê¸°ëĮĢ":7297,"ĠíĿī":7298,"íĶĦë¥¼":7299,"ãĥ©":7300,"ĠëĤĺíĥĢëĤ´ëĬĶ":7301,"ĠìĭľìĹĲ":7302,"ë¿Ĳë§Į":7303,"ìĭľìĬ¤ì½Ķ":7304,"ë¡łìĿĺ":7305,"ĠíĽĦìĹĲëĬĶ":7306,"ĠíķľêµŃìĸ´":7307,"Ġìĸ»ìĸ´":7308,"XÃ£":7309,"Ġë©ĺ":7310,"Ġìŀ¥ìĭĿ":7311,"Ġì§ĦíĻĶ":7312,"âĺ":7313,"Ġì§Ģë°©ìĿĺ":7314,"Ġì¤ĳìĿ¸":7315,"Ġì¤ĳìĿ´ëĭ¤":7316,"ĠìĦ¤ì¹ĺëĲĺìĹĪëįĺ":7317,"ĠIs":7318,"íļĮìĹĲ":7319,"ĠëªħìĿ´":7320,"ĠìĸĳìŀĲ":7321,"Ġê¹ĢëıĻ":7322,"ĠíĸīìľĦ":7323,"ĠíĮĢìĿĦ":7324,"ìĺģìĥģ":7325,"oll":7326,"ĠìĭľìĿĺ":7327,"Ġìłľê³µíķľëĭ¤":7328,"ĠëĮĢìĪĺ":7329,"ìĦ±íĻĶ":7330,"ĠìķĦíĭ°ìĬ¤íĬ¸":7331,"ĠìĹ¬ê°Ŀì²łëıĦìĿĺ":7332,"ë³´ë¥¼":7333,"Ġì°¨ìĿ´":7334,"ìĦ¸ëĮĢíķĻêµĲ":7335,"Ġìĭłë¢°":7336,"ĠíĿ¬ìĥĿ":7337,"SP":7338,"Ġì°½ëĭ¨":7339,"ê³łìĨį":7340,"ome":7341,"ëĭ¤ë¦¬":7342,"Ġë°ĺëĵľìĭľ":7343,"Ġëħ¼ìĿĺ":7344,"Ġì°°ìĬ¤":7345,"ĠìĿ´ìłĦìĿĺ":7346,"ë¬¸ìłľ":7347,"ìķĦëĤĺ":7348,"Ġë¦¬ì²ĺëĵľ":7349,"Ġê²°ë°©":7350,"Ġìŀ¬ìľĦ":7351,"ì¡°íĮĲ":7352,"ĠJTBC":7353,"ĠëĤĺê³ł":7354,"Ġëĺ":7355,"Ġìĵ°ëĬĶ":7356,"ì½ĶìĬ¤":7357,"æľī":7358,"íķĺë£¨":7359,"ĠìĿ´ì¢ħ":7360,"ĠíĸĪìľ¼ë©°":7361,"Ġë¹łë¥´ê²Į":7362,"KBO":7363,"Ġíķ¸":7364,"Ġê³³ìĹĲìĦľ":7365,"íĨ¡":7366,"Ġê·¸ëŁ¬íķľ":7367,"ĠíķľëĤĺëĿ¼":7368,"ëħĦëıĦ":7369,"ĠëĬĺìĸ´":7370,"ĹëĤł":7371,"Ġìĺ¤ë¥¸ìª½":7372,"ton":7373,"Ġì§ĢíĤ¤":7374,"ĠìĹŃìŀĦíĸĪëĭ¤":7375,"OC":7376,"ì²«":7377,"ĠíĮĲíĥĢì§Ģ":7378,"ĠíĶĦëĿ¼":7379,"ĠëıĻìĦ±":7380,"ê³µìĤ°":7381,"ì´Ŀëıħ":7382,"Ġë¶Ħê¸°":7383,"íĺģëªħ":7384,"ĠDe":7385,"Ġê²½ìļ°ëĬĶ":7386,"ĠíļĮìłĦ":7387,"ê°ĢëĿ½":7388,"âĨĴ":7389,"Ġì·¨ìĨĮ":7390,"ĠëŀĢ":7391,"Ġê³µìĭĿìłģìľ¼ë¡ľ":7392,"å¿ł":7393,"yl":7394,"Ġìķ¤ëĵľ":7395,"ë§ĮìĿĢ":7396,"ìĨĮìĨį":7397,"ĠìĺĪìĤ°":7398,"ç¾ħ":7399,"Ġvs":7400,"Ġë¯¸ëĤĺë¯¸":7401,"ĠìĪĺìĥģíĸĪëĭ¤":7402,"å³¶":7403,"Ġì½ĶëĦĪ":7404,"ild":7405,"ìłĦíĪ¬":7406,"ë°Ģë¦¬":7407,"ĠìĿ¸ê¶Į":7408,"ĠìłĦíĮĮ":7409,"Ġê²½ê¸°ëĬĶ":7410,"íķ´êµ°":7411,"Ġë³´ë³ĳ":7412,"ìĦĿìĿĺ":7413,"Ġì¹´ë©ĶëĿ¼":7414,"Ġì¡´ìŀ¬íķĺëĬĶ":7415,"íĦ°ìĬ¤":7416,"Ġì°¸ì¡°":7417,"ĠíĺĦìĹŃ":7418,"own":7419,"Ġë§Īì¹ĺ":7420,"Ġì¢ħë¥ĺìĿĺ":7421,"ëĵ¤ìĸ´":7422,"ĠíĻĶìŀ¬":7423,"Ġë©Ķìĭľ":7424,"ĠìĬ¤ì¹´":7425,"ìķ¼ìĿĺ":7426,"Ġê¹Ģíĥľ":7427,"Ġëĭ¨ìľĦ":7428,"ê³µìĹ°":7429,"ê²½ê¸°ìĹĲ":7430,"ife":7431,"ìłķìľ¼ë¡ľ":7432,"Ġì¢ģ":7433,"Ġê½":7434,"Ġë°ĽëĬĶëĭ¤":7435,"Ġì½¤":7436,"Ġì»¤ë®¤ëĭĪ":7437,"ĠìĿ´ìĪĺ":7438,"å¾Į":7439,"Ġìĺģìŀħ":7440,"Ġë³´ê´Ģ":7441,"ìĹŃìĿ´":7442,"íı¬ë¡ľ":7443,"ë¯¸ë¥´":7444,"ĠHist":7445,"ĠëĬ¦":7446,"ĠëĮĢë¦¬":7447,"Ġê°ķëĤ¨":7448,"ĠëłĪìĿ¸":7449,"Ġê³µê°ľëĲľ":7450,"Ġë°ĶëĿ¼":7451,"ìŀ¥ê´Ģ":7452,"ì¦Ĳ":7453,"Ġì´Ŀëıħ":7454,"íĬ¹ìĪĺ":7455,"íĤ´":7456,"æ®":7457,"Al":7458,"ĠìĻķêµŃìĿĺ":7459,"ĠíĦ°ë¯¸ëĦĲ":7460,"ãģĹ":7461,"æĺĮ":7462,"ĠìĿ´ëĭ¤":7463,"ëħ¸ë¯¸ìķ¼":7464,"ãģ¨":7465,"Ġê²½ëĤ¨":7466,"Ġì±Ħìļ©":7467,"ì¦ĪëĬĶ":7468,"Ġ39":7469,"Ġë¶ĪìķĪ":7470,"Ġë¶Ģë¥´ëĬĶ":7471,"ìĹ°ìĨįê·¹":7472,"Ġê±´ëĭ´":7473,"IM":7474,"ĠKT":7475,"ì´Īëĵ±íķĻêµĲëĬĶ":7476,"Ġë¡ľì¼ĵ":7477,"íİĺìĿ´":7478,"Ġìĭľìĥģ":7479,"1962":7480,"ise":7481,"Ġê°ľë°ľíķľ":7482,"ĠíĴĭë³¼":7483,"ãĢī(":7484,"ĠëıĻìĽĲ":7485,"Ġì²ĺìĿĮìĹĲëĬĶ":7486,"Ġë³´ëĤ¸":7487,"ans":7488,"å®ĺ":7489,"ĠíĶ¼íķ´ë¥¼":7490,"ĠëĤĺìĿ´íĬ¸":7491,"Ġìŀ¡ìķĦ":7492,"WE":7493,"Ġì¹´ë¥´":7494,"è¡Ĺéģĵ":7495,"ìĹĲìĦľë§Į":7496,"êµĲë¥¼":7497,"æĿ¾":7498,"Ġê·¹ìŀ¥íĮĲ":7499,"Ġch":7500,"ìĭłê²½":7501,"ë²łë¦¬":7502,"ĠìĦ±ëĤ¨":7503,"Ġth":7504,"ĠìĤ¬ê±´ìĿ´":7505,"Ġì²łëıĦìĿĺ":7506,"ìķĦì¹´":7507,"Ġìĺ¤íİĺëĿ¼":7508,"Ġë°©ìĤ¬":7509,"Ġê¹ĢìĿ¼":7510,"Ġì¡°ë³Ħ":7511,"ê²Ģì°°ì²Ń":7512,"Ġì£¼ê°Ħ":7513,"Ġëī´ì§Īëŀľëĵľ":7514,"ëĮĢë¬¸":7515,"íħĮìĿ´":7516,"ĠìĤ¬íĥľ":7517,"ĠëĤ¨ìĿĢ":7518,"ĠëĬĲëģ¼":7519,"ìģľ":7520,"ìĪ¨":7521,"ĠëĤ´ìĿĺ":7522,"ĠëıĦìłĦ":7523,"Ġì²ľìķĪ":7524,"ĠíĭĢ":7525,"ì²¸":7526,"ĠëĪĦêµ¬":7527,"ĠìĤ¬ëĭ¨":7528,"Ġë§¤ìĿ¼":7529,"Ġì£¼íĥĿ":7530,"ìĤ°ëıĻ":7531,"ìĿ¸ê°Ħ":7532,"ìĬĪíį¼":7533,"Ġë°¥":7534,"Ġìĵ¸":7535,"Ġì´Īëĵ±íķĻêµĲìĿ´ëĭ¤":7536,"Ġì²´ìłľ":7537,"Ġì¡°ëªħ":7538,"ash":7539,"ë°Ķëĭ¤":7540,"ìĤ¼ê±°ë¦¬":7541,"êµ°ìľ¼ë¡ľ":7542,"ãĥ«":7543,"ĠëĤĺì¹ĺ":7544,"Ġê°ĪëĿ¼":7545,"ëĶķ":7546,"ĠìłľëĮĢë¡ľ":7547,"ĠNHK":7548,"ìŀİ":7549,"ë¥´íĤ¤ìĺĪ":7550,"SL":7551,"Ġìĸ¸ìłľ":7552,"ĠìĿ´ì¦Ī":7553,"ë¦¬ê²Į":7554,"Ġìĸ´ëĶĶ":7555,"ĠìĿ´ë¤Ħ":7556,"Ġëª©íĳľë¡ľ":7557,"Ġê³µì£¼":7558,"ì¡°ì§Ģ":7559,"ëħ¸ë¥´":7560,"ë¦¬ê°ĢìĿĺ":7561,"1948":7562,"ãģŁ":7563,"ìłĦìĤ¬":7564,"ë¯¸ëĬĶ":7565,"Ġìĺ¤ìĺ¤":7566,"ĠëĨĴìķĦ":7567,"ĠìķĦìĤ¬íŀĪ":7568,"ë¹ĦìĹĲ":7569,"Ġë°ĽìĿĦ":7570,"æĸ¹":7571,"ĠëĤĺìĻĶëĭ¤":7572,"ĠìĺģíĻĶìłľ":7573,"ëĭĪìĬ¤íĥĦ":7574,"ãģĭ":7575,"ĠìĬ¤ì¼Ģ":7576,"ĠíĹĿê°Ģë¦¬":7577,"iel":7578,"íĨµìĿĦ":7579,"ë¹ħ":7580,"ĠëĬ¥ëł¥":7581,"Ļíķ©":7582,"ìķłëĭĪ":7583,"Ġì¶ľìĭłìľ¼ë¡ľ":7584,"Ġ42":7585,"ĠìķĦëĵ¤ìĿ´":7586,"Ġë§ĪìĿ´íģ¬ë¡ľìĨĮíĶĦíĬ¸":7587,"ĠìĤ¬ìļ°":7588,"ë§ĪëĭĪìķĦ":7589,"ê·¸ë¦¬ìĬ¤":7590,"Ġë°ĺë°ľ":7591,"ĠëĳĲìĹĪëĭ¤":7592,"SC":7593,"ons":7594,"ĠìĦłìĪĺê°Ģ":7595,"íĬ¸ë¦Ń":7596,"Ġì²łëıĦìĹŃìĿ´ëĭ¤":7597,"ë°ľìłĦ":7598,"Ġê³¼íķĻìŀĲ":7599,"Ġë´":7600,"ĠìķĬìķĺê³ł":7601,"KB":7602,"Ġë¬´ëĮĢ":7603,"ĠìłľìĻ¸íķĺê³ł":7604,"ìĹ¬ìŀĲê³łëĵ±íķĻêµĲ":7605,"ëģĦ":7606,"åĩ":7607,"Ġëĭ¤ë¦¬":7608,"ë²ķìĿ´":7609,"æ°ĳ":7610,"èģĸ":7611,"ç¯":7612,"ĠìĿ¼ë¶Ģë¥¼":7613,"ĠìłĦìŁģìĿ´":7614,"ĠìķĦë¥´íĹ¨íĭ°ëĤĺ":7615,"ĠìłľìĿ¼":7616,"Ġëħ¼ë¬¸":7617,"Ġë§ŀìĿ´":7618,"åĸĦ":7619,"ëłĪìĿĺ":7620,"Ġë¯¸ìĬ¤íĦ°":7621,"Ġë¯¸ëĭĪìĭľë¦¬ì¦Ī":7622,"ëĳ¥ìĿ´":7623,"ĠìĪĺíĽĪìŀĲ":7624,"ëĵŃ":7625,"ĠíĺĦìĥģ":7626,"ì´Ŀë¦¬":7627,"Ġë°©ìĺģëĲľ":7628,"Ġìĸ´ëĸł":7629,"Ġíı¬íķ¨íķľëĭ¤":7630,"ĠìĿ¸ì²ľê´ĳìĹŃìĭľ":7631,"ĠíĶĦëĿ¼ìĿ´":7632,"Ġëľ»íķĺëĬĶ":7633,"ĠíĸĪëįĺ":7634,"é¤":7635,"æħ¶":7636,"ĠëįĶë¸Ķ":7637,"ĠìĿ´íĽĦë¡ľ":7638,"ĠìĬ¹ê°Ŀ":7639,"ìĥģíĥľ":7640,"ĠìĪĺëª©":7641,"ç¿":7642,"Ġë°ľíĳľíķĺìĺĢëĭ¤":7643,"ë©ĺíĦ°ë¦¬":7644,"ë¬´ë¦¬":7645,"Ġìĥģë¥Ļ":7646,"çŃī":7647,"ĠìĿ´ìĺģ":7648,"ĠìĦłë³´":7649,"íĪ¬ìķĦ":7650,"ì½§":7651,"ë°©ìĿĺ":7652,"ìłľë¥´":7653,"ìĥīìĿĺ":7654,"Ġë¯¸ëĤĺ":7655,"ì¢ħìĿĦ":7656,"ail":7657,"Ġë°ľê²¬ëĲľ":7658,"ĠìķĬìľ¼ë©°":7659,"Ġê³Ħê¸°ë¡ľ":7660,"=#":7661,"ìĤ¬ë§Ŀ":7662,"ĠìŀĳíĴĪìĿ´ëĭ¤":7663,"ĠëıĮìķĦê°Ģ":7664,"Ġì°¨ë³Ħ":7665,"Ġì½ĺìĬ¤íĥĦ":7666,"Ġ120":7667,"ë°ĶìĿĺ":7668,"ĠĠĠĠĠĠĠĠĠĠĠĠĠĠĠĠ":7669,"ĠìĹ°ê´Ģ":7670,"ĠComp":7671,"äºĮ":7672,"ĠìĹ°ì£¼ìŀĲ":7673,"Ġì§Ħë³´":7674,"Ġìļ°ëł¤":7675,"Ġë³´ìĬ¤":7676,"ìľłìĿĺ":7677,"ì£¼ìĿĺë¥¼":7678,"ìľ¼ëĭĪ":7679,"ê¸ĪìĿĺ":7680,"Ġë¹¼ìķĹ":7681,"ĠíĻĶìĦ±":7682,"êµŃìŀ¥":7683,"ĠìĪĺìĦĿ":7684,"Ġê´Ģíķłíķľëĭ¤":7685,"ìľ¼ë¡ľìĦľìĿĺ":7686,"è¾":7687,"ĠëĮĢëŀµ":7688,"ë³´ê¸°":7689,"MC":7690,"ë¹Ħíĸī":7691,"Ġì²ŃëĤĺëĿ¼":7692,"Ġëĭ¤ëĭ¤":7693,"ìĽĮì¦Ī":7694,"ì§ĢìĿ´ëĭ¤":7695,"ĠìĿ´ê²ĥìĿĦ":7696,"Ġì¶ľìĹ°íķĺìĺĢëĭ¤":7697,"Ġìĭ¬ë¦¬":7698,"ĠìĿ´íĺ¼":7699,"êµŃìĹĲìĦľ":7700,"íĺķìľ¼ë¡ľ":7701,"FF":7702,"ìĦłê³¼":7703,"ë¹ĦíĬ¸":7704,"ĠWh":7705,"ìºĶ":7706,"êµ¬ë¦¬":7707,"yn":7708,"anc":7709,"ìĹĲë¥¸":7710,"ĠìĿ´ì¹ĺ":7711,"ake":7712,"ìĻķíĽĦ":7713,"ìĻĢìĿ´":7714,"é¦¬":7715,"åĤ":7716,"Ġê°ĢìĬ¤":7717,"Ġ64":7718,"ìĻķìĿ´":7719,"ĠíĶĦë¡ľê·¸ëŀ¨ìĿĦ":7720,"ĠNo":7721,"me":7722,"Ġíıīê°Ģë¥¼":7723,"íĥĢëĤĺ":7724,"ä½ľ":7725,"ĠíĪ":7726,"Ġíģ¬ë¡ľìķĦ":7727,"ê²¸":7728,"Ġê³µìĿĦ":7729,"ĠDVD":7730,"Ġê·¸ìĻĢ":7731,"ĠìķĦë¦Ħëĭ¤ìļ´":7732,"ë¬¼ìĿĢ":7733,"Ġì¹´ìļ´íĭ°":7734,"æ¢":7735,"ley":7736,"íĭ°ìĺ¤":7737,"ĠëĮĢê¸°":7738,"Ġìĭľìŀĳìľ¼ë¡ľ":7739,"ë£°":7740,"íĸīìĦ±":7741,"Ġìŀī":7742,"Ġë°Ľê²Į":7743,"ĠëĤĺìĺ¨ëĭ¤":7744,"çĪ":7745,"ĠëģĿëĤľ":7746,"ĠìĭľìŀĳíķĺìĹ¬":7747,"ject":7748,"ĠëıĻíķ´":7749,"ĠìĨįìĿĺ":7750,"è¨ĺ":7751,"Ġì¡°ìĦłìĿĺ":7752,"ì¯":7753,"ternational":7754,"Ġì¶Ķì²ľ":7755,"Ġ150":7756,"ìĦľìĸĳ":7757,"ĠìĿ´ì§Ģ":7758,"ĠíĬ¸ìľĦ":7759,"Ġíı¬ìľĦ":7760,"Ġ1919":7761,"Ġì§Ħìķķ":7762,"ë£Įë¡ľ":7763,"ĠìĨĮìĦ¤ê°Ģ":7764,"ĠìĨįíķľ":7765,"ìĿ¼ìĬ¤":7766,"Ġê°ĢìĦľ":7767,"ê±´ìĿĦ":7768,"Ġìŀ¥ìĨĮ":7769,"ĠìĤ¬ìļ©ëĲĺê³ł":7770,"Ġë§Īíĭ´":7771,"ìŀĲìĹ°":7772,"Ġíļ¨ìľ¨":7773,"Ġì¤ĳë¶Ģ":7774,"ĠëĤĺíĥĢëĤľëĭ¤":7775,"Ġìĺ¤ë¦¬ì§ĢëĦĲ":7776,"ìĹ°íŀĪ":7777,"Ġëĵ±íĮĲ":7778,"ĠìĨĮë¹ĦìĹĲíĬ¸":7779,"áº":7780,"Ġì¶¤":7781,"Ġê²ĥìĿ´ë©°":7782,"Ġê°ĸëĬĶ":7783,"ĠìĹ´ëł¸ëĭ¤":7784,"ë¼Ī":7785,"çĲĨ":7786,"ìĬ¨ìĿĺ":7787,"ê·¸ëłĪ":7788,"ĠAd":7789,"Ġë¸Ķë¡ľê·¸":7790,"Ġê°Ģê²Į":7791,"ĠíĻľëıĻíĸĪëĭ¤":7792,"íİĻíĬ¸":7793,"íĻĶëĲĺìĸ´":7794,"Ġë§Īì§Ģë§īìľ¼ë¡ľ":7795,"Ġë²¼":7796,"Ġëľ»ìľ¼ë¡ľ":7797,"ott":7798,"Ġì£¼ìµľ":7799,"íİ¸ìĦ±":7800,"åħ¨":7801,"uk":7802,"ĠíĻĶìĤ°":7803,"ĠìĿ¼ì¹ĺ":7804,"Ġê·¸ëŀĺíĶ½":7805,"å¿ĥ":7806,"çĩ":7807,"Ġëħ¼ëŀĢìĿ´":7808,"ë°©íĸ¥":7809,"íĭ°ëħ¸":7810,"Ġíı¬íķ¨íķĺìĹ¬":7811,"ëĵ±ê¸ī":7812,"ĠOn":7813,"ĠíĻĭì¹´ìĿ´ëıĦ":7814,"ìĺ¨ìĿĺ":7815,"Ġíı¬ëıĦ":7816,"ìĬ¤íĭ°ë²Į":7817,"Ġì§Ģì¼ľ":7818,"ìĪĺíķľ":7819,"æ¿":7820,"ë¶ĢíĦ°ëĬĶ":7821,"ĠìĽħ":7822,"ĠìĪĺíķĻìŀĲ":7823,"enc":7824,"ëĿ¼ìĿ´ëįĶ":7825,"ì§ĦìĿ´":7826,"ĠìĬ¤íĬ¸ë¦¬":7827,"ĠìĥĿìķł":7828,"Ġíķ´ìĹĲ":7829,"ëĲĺìĹĪìĿĦ":7830,"Ġì²´ì½Ķ":7831,"ê¸°êµ¬":7832,"ĠìĿ¼ìĭľ":7833,"ëłĪìĿ´íģ¬":7834,"ì§ĢìĿ¸":7835,"Ġìŀ¥ë¹Ħ":7836,"ìĿ´ë¯Ģë¡ľ":7837,"ê³¡ìĿĦ":7838,"enn":7839,"ç¶ĵ":7840,"Ġíķĳ":7841,"Ġê°ľë§ī":7842,"ìĸ´ë²Ħ":7843,"ëŁŃìĭľ":7844,"íĨłë¯¸":7845,"Ġìĵ°ê³ł":7846,"ëĶĶìĽĢ":7847,"ĠìĿ¼ë¶ĢëĬĶ":7848,"ê°ľë¡ľ":7849,"Ġíĸ¥íķ´":7850,"ëŁ¿":7851,"íģ´ë¦°":7852,"ĠëıħíĬ¹":7853,"ìĿ´ëĭĿ":7854,"Ġíı¬íĬ¸":7855,"Ġë°ĺëıĦ":7856,"ĠìĿ¸ëıĦëĦ¤ìĭľìķĦ":7857,"ë§Īíģ¬ìĿĺ":7858,"ë°Ķìĭľ":7859,"Ġê¸°ë¡ĿíķĺìĺĢëĭ¤":7860,"ĠëĮĢíĨµëł¹ìĿ´":7861,"ìĹ¬ê°Ŀ":7862,"å®ļ":7863,"Ġìłķë¹Ħ":7864,"Ġê°Ģì¹ĺ":7865,"ĠìĿĺìĭĿ":7866,"ĠìŀĦì§Ħ":7867,"ìĪĺëıĦ":7868,"Ġ1936":7869,"Ġëĭ¤ìĿ´ë¬ĺ":7870,"ìĻľëŀĢ":7871,"Ð¹":7872,"Ġíģ¬ë£¨":7873,"Ġê³µìĹħ":7874,"Ġêµ¬íĺĦ":7875,"Ġ?)":7876,"Ġë¹Ħìĥģ":7877,"ĠìĦ¸ê³ĦìĿĺ":7878,"ĠíķĻë¬¸":7879,"ì»¤ìĬ¤":7880,"ĠìŀħíķĻìĭĿ":7881,"ĳ¤":7882,"Ġì§Ģìĸ´":7883,"ĠìĭłíĻĶ":7884,"ìĬ¤ìĽ¨ëį´":7885,"êµ°ìĤ¬":7886,"1961":7887,"ĠDNA":7888,"ĠëĮĦìĬ¤":7889,"ĠìĿ¸ì¢ħ":7890,"ìłĪíķľ":7891,"Ġìį¼ëĭ¤":7892,"ê¸°ê¹Įì§Ģ":7893,"íĥ±":7894,"Ġê°ģê°ģìĿĺ":7895,"íİĺìĿ´ìĬ¤":7896,"Ġë°ĢëıĦëĬĶ":7897,"íĨ°":7898,"ê³µëıĻ":7899,"ê·¸ë¦¬ê³ł":7900,"ë°©ìĿĦ":7901,"ode":7902,"ë³´íĹĺ":7903,"ĠíİĺìĿ´":7904,"ĠSF":7905,"Ġë¡ľìĬ¤ìķ¤ìł¤ëłĪìĬ¤":7906,"Ġê°ĲìĤ¬":7907,"ĠâĢ»":7908,"ëĵľë¡ľìĿ´ëĵľ":7909,"ĠìĽĥ":7910,"Ġìŀİ":7911,"ĠìķĮëł¤ì¡Įëĭ¤":7912,"ìĦ¼íĬ¸":7913,"Ġcl":7914,"å¸Ĥ":7915,"ĠìĬ¤íĮĮ":7916,"ë¥´ê°Ģ":7917,"êµŃê°ĢëĮĢíĳľ":7918,"íĻĶëĲĺìĹĪëĭ¤":7919,"Ġë¬¶":7920,"Ġìľłê¸°":7921,"Ġìĭ¤ì§Ī":7922,"ĠìļĶì½Ķíķĺë§Ī":7923,"OW":7924,"ĠìĿ´ëĵ¤ìĿĺ":7925,"ê³łê°Ģ":7926,"êµŃëĮĢíķĻêµĲ":7927,"è±":7928,"ëĭ¨ì§Ģ":7929,"ĠST":7930,"ĠìĿ´ë²¤":7931,"Ġë¶Ħëħ¸":7932,"ìĬ¤ì»µ":7933,"ìŀ¬ë¥¼":7934,"íļĮìĹĲìĦľ":7935,"ë¯¸ëĤĺ":7936,"Ġê°ľì¡°":7937,"ĠìĦ¸ëł¥":7938,"Ġë¬´ìĭľ":7939,"ìłķë¦¬":7940,"ĠëıĻìĿ¼ë³¸":7941,"Ġê³łìĭľ":7942,"Ġêº¾":7943,"Ġë§ĪìĬ¤íĦ°":7944,"ìĬ¤ì¼ĢìĿ´":7945,"ê¸°ëĬ¥":7946,"ĠëıĦìĻĢ":7947,"Ġë¯¸ìĵ°":7948,"Ġê°ĢìĿ´":7949,"Ġêµ°ëĮĢë¥¼":7950,"ĠëĲĺìŀĲ":7951,"Ġëĭ¤ìĪĺìĿĺ":7952,"ĠíıĲìĩĦ":7953,"Ġë§Įì£¼":7954,"ystem":7955,"ĠëĤĺíĥĢëĤ¸ëĭ¤":7956,"Ġìĸ´ëĸłíķľ":7957,"ĠìĤ¬ëĥ¥":7958,"ius":7959,"ëĭĪìĬ¤íĬ¸":7960,"ì²´êµŃ":7961,"Ġìļ´ëıĻìĿĦ":7962,"ìĹĪëĭ¤ê³ł":7963,"Ġë¹Ħë¡Ŀ":7964,"Ġëľ¨":7965,"ìĭľíĥĢ":7966,"Ġì¹ĺëŁ¬":7967,"Ġì½Ķë¯¹":7968,"Ġê¸°ìĽĲ":7969,"ê³Ħê°Ģ":7970,"Ġìľłíĸī":7971,"Ġì¶ľìĭľëĲĺìĹĪëĭ¤":7972,"ìĦĿìĿĢ":7973,"ëĿ¼ìĿ´íĬ¸":7974,"Ġìĥģëĭ¹íķľ":7975,"ĠíĮĮìķħ":7976,"ì£¼ìĿĺìĿĺ":7977,"ë®¬":7978,"ëª°ëħĦ":7979,"ĠìĭľìľĦ":7980,"Ġê°Ģì¡Įëĭ¤":7981,"ê¹Ķ":7982,"ìĭ¤ìĿĺ":7983,"ê²łëĭ¤ëĬĶ":7984,"Ġê°ĢìĬ´":7985,"Ġì£¼ëĭĪìĸ´":7986,"Ġì§ķìĹŃ":7987,"ê³łë¦¬":7988,"ĠíĴįë¶Ģ":7989,"ĠìĹŃìĤ¬ìłģ":7990,"Ġë°´":7991,"Ġìĥ¤ë¥¼":7992,"ë¶ĢìĤ¬":7993,"oot":7994,"ë§Īë¦¬":7995,"ì²ĺìĬ¤":7996,"1959":7997,"ëªħìĹĲ":7998,"ĠíħĮìĬ¤íĬ¸":7999,"Ġëį°ìĿ´íĦ°ë²łìĿ´ìĬ¤":8000,"å¼µ":8001,"Ġê²½ìļ°ìĹĲ":8002,"ëıĻìĿĢ":8003,"Ġìłĳì´ī":8004,"Ġë§¤ëĭĪ":8005,"ĠìłĲìłĲ":8006,"Ġìłľìŀĳíķľ":8007,"BM":8008,"ese":8009,"Ġë¯¸êµ°":8010,"ĠìĤ¬ìļ©ìŀĲ":8011,"ĠìĿ¸ìłĳ":8012,"ĠìĨĮìĨ¡":8013,"å®®":8014,"íĦ°ë¥¼":8015,"ĠíķĺëĤĺìĿ¸":8016,"ĠìĿ´íĽĦìĿĺ":8017,"Ġë¶ĦìľĦ":8018,"ê³¼ê±°":8019,"Ġë¬¸ìłľë¡ľ":8020,"Ġëª¨ìĸĳìĿĺ":8021,"ìłľìŀĳì§Ħ":8022,"ìĹł":8023,"ĠìķĦë¦¬":8024,"1955":8025,"Ġì¤ĳìĦ¸":8026,"ĠëĨįë¯¼":8027,"ĠìĤ¬ëŀĳìĿĦ":8028,"íĮ¨ë¥¼":8029,"Ġì½Ķë¥´":8030,"Ġì½Ķë¬´ëĦ¤":8031,"Ġëħ¹ìĥī":8032,"ê³Ħìķ½":8033,"Ġìĭľìŀĳíķľëĭ¤":8034,"ĠìŀĪìĿĮìĿĦ":8035,"ê¶Ĳ":8036,"íķĺìĺĢì§Ģë§Į":8037,"ìŀĲìĽĲ":8038,"ĠìŀĦëĮĢ":8039,"ìĹĲìĦł":8040,"íķĺìļ°ìĬ¤":8041,"Ġë§Ĳìķĺëĭ¤":8042,"æľ¨":8043,"íĥĢìŀĦ":8044,"Ġ41":8045,"Ġê¹Ģìŀ¬":8046,"ìĦ¤ìĿĦ":8047,"ì¹ĺê¸°":8048,"ĠíĽĦìĽĲ":8049,"ĠìłķíĻķíķľ":8050,"1946":8051,">,":8052,"ëĭ¤ìĭľ":8053,"Ġíķĺìļ°ìĬ¤":8054,"ìĹĳ":8055,"Ġìĭľë¦¬ì¦ĪìĿĺ":8056,"íĳ":8057,"ĠìĨĮë©¸":8058,"ĠìĦľìĸĳ":8059,"ins":8060,"ĠìĿ´ë¦ĦìĿĺ":8061,"Ġì§Ħì£¼":8062,"æĩ":8063,"Ġê°ķë¦ī":8064,"Ġê¹Ģì§Ģ":8065,"Ġëıķ":8066,"Ġíĺķíĥľë¥¼":8067,"rans":8068,"è·":8069,"Ġê·¸ëĵ¤ìĿ´":8070,"ì¡°ìĦłë¯¼ì£¼ì£¼ìĿĺ":8071,"Ġj":8072,"ĠëĲĺë©°":8073,"ĠIt":8074,"Ġìĭľëĵľ":8075,"ëĭ¹ê³¼":8076,"ĠëĳĺëŁ¬ìĭ¸":8077,"Ġë°Ķê¿":8078,"é©":8079,"Ġê¹Ģë¯¼":8080,"ëĦĪë¨¼íĬ¸":8081,"ëĩ¨":8082,"ë£¨ìĿĺ":8083,"âĢĺ":8084,"ëĮĢìĽĲ":8085,"åĢ":8086,"Ġê¹ĢìĶ¨":8087,"ĠìĤ¬ìłĦ":8088,"Ġëı¼":8089,"ĠFor":8090,"ç·":8091,"ĠëĮĢë¶Ģë¶ĦìĿĢ":8092,"ĠìķĦìķ¼":8093,"ìĪĺìĤ°":8094,"ìħĭ":8095,"ĠíĻĶìŀ¥":8096,"Ġìľłíķľ":8097,"ĠìķĦëĵ¤ë¡ľ":8098,"ìĥĿìĿĺ":8099,"ĠëıĶ":8100,"ĠìĿĺíĺ¹":8101,"ë²łë¥´íĬ¸":8102,"ĠíĬ¸ìľĪ":8103,"ĠëªħíĻķ":8104,"ĠìĹĲëĵľìĽĮëĵľ":8105,"ì¶ľìĭł":8106,"Ġhttp":8107,"Ġëį§":8108,"ĠìĦľêµ¬":8109,"ĠìłĢìĦľ":8110,"ĠíĬ¸ëłĪìĿ´":8111,"ĠìĺĪìĪĺ":8112,"Ġ1937":8113,"ward":8114,"ìķłëĤĺ":8115,"ĠíĽĪìŀ¥":8116,"ĠìĭłíķĻ":8117,"ĠìŀĳíĴĪìĿĢ":8118,"Ġë§¡ìķĦ":8119,"ĠìĿ¸ì§Ģ":8120,"ĠìŀĲê·¹":8121,"ĠìķĬê²Į":8122,"ìĽĶìĿĺ":8123,"1954":8124,"1956":8125,"ĠìĬ¹ì§Ħ":8126,"ĠìĿĺíķĻ":8127,"ìľłëĮĢ":8128,"ìĿ´ìĦ¼":8129,"ìĽĶíĺ¸":8130,"Ġì¤ĳíĻĶë¯¼êµŃ":8131,"OT":8132,"ç¾İ":8133,"ëª¨ëĵł":8134,"1958":8135,"ìĭĿë¬¼":8136,"íı´ë¦¬":8137,"ĠêµĲíĸ¥":8138,"ãĥª":8139,"íŀĪì½Ķ":8140,"Ġë¬´ìĤ¬":8141,"ĠìķĮë°Ķ":8142,"íĻįì½©":8143,"ĠìľłìĿ¼íķĺê²Į":8144,"ĠìĿ´ìĤ¬ìŀ¥":8145,"Ġëª¨ìĹ¬":8146,"Ġìĭłì¶ķ":8147,"Ġìĭľì¹´ê³ł":8148,"ream":8149,"ĠíĨµìĥģ":8150,"ĠíħĲ":8151,"Ġê±°ì§ĵ":8152,"Ġì§Ģë¶ķ":8153,"ĠíĶĦë¡ľíĨł":8154,"Ġíķ©ì³Ĳ":8155,"ĠWar":8156,"ĠëĮĢíķĻêµĲìĹĲìĦľ":8157,"Ġë°Ľìķĺê³ł":8158,"Ġê·¸ëłĩê²Į":8159,"ëĭĪê°Ģ":8160,"ì¹´íĥĢ":8161,"ĠìĹ°êµ¬ë¥¼":8162,"Ġê°ľìĽĲ":8163,"ëĮĢì±ħ":8164,"ĠëłĪì½ĶëĵľìĹĲ":8165,"íķ´ê°Ģ":8166,"ĠìĹ¬ëıĻìĥĿ":8167,"ĠìĹĨëĭ¤ëĬĶ":8168,"ëĵľìĻĢ":8169,"ĠëĶĶìĬ¤íģ¬":8170,"åı¤":8171,"Ġìĭ¬ìĤ¬":8172,"èĥ":8173,"ĠOp":8174,"1957":8175,"ĠìĦłë°ķ":8176,"ìĭľë¯¼":8177,"åīį":8178,"Ġê´Ģê³Ħê°Ģ":8179,"ĠìĽ¨ìĿ´":8180,"ĠíĮĮíģ¬":8181,"ì¡°ìłķ":8182,"ë§ŀ":8183,"ì¡¸":8184,"Ġë³Ģíĺķ":8185,"ìĿĺìłķ":8186,"Ġë¹ħíĨł":8187,"ìĸ´ë¦°":8188,"ĠìĹĨìľ¼ë©°":8189,"ãĤī":8190,"ë¦ĦìĿĦ":8191,"ĠíĻľëıĻíķĺìĺĢëĭ¤":8192,"Ġìĭ±ê°Ģ":8193,"ĠíķĺìľĦ":8194,"Ġê¸ĢìĿĦ":8195,"ìłķê·ľ":8196,"ãĤĭ":8197,"Ġìłķì±ħìĿĦ":8198,"ĠìĹ¬ê¸°ìĹĲ":8199,"ery":8200,"ìķłëĭĪë©ĶìĿ´ìħĺ":8201,"Ġë¶Ģìŀ¥":8202,"ĠíĸīëıĻìĿĦ":8203,"ì¦ī":8204,"Ar":8205,"ĠìĥģìľĦ":8206,"Ġë§ĲìĹĲ":8207,"Ġìĭłì²´":8208,"ë³ĳìĿĦ":8209,"ĠìĪľê°Ħ":8210,"Ġì²ľì²´":8211,"ë¶ĪêµĲ":8212,"ìĿ´ìĹĪì§Ģë§Į":8213,"Ġë°ľëªħ":8214,"å´Ķ":8215,"1940":8216,"åĮĸ":8217,"www":8218,"ê³łëĬĶ":8219,"íĨµìĿ¼":8220,"Ġë¦¬ë²Ħ":8221,"iam":8222,"åįģ":8223,"ë²¡":8224,"äº¬":8225,"ìľĻ":8226,"1949":8227,"Ġ1935":8228,"Ġìĭľë¦¬ìķĦ":8229,"ãĢį(":8230,"æĻĤ":8231,"Ġë¶ĦìĹ´":8232,"ë°°ê²½":8233,"íĨłìĭľ":8234,"ĠíĻķë¥ł":8235,"ëĵ¤ìĿ´ëĭ¤":8236,"ĠìłĦìŁģìĿĺ":8237,"èĲ":8238,"ìłľëıĦ":8239,"ĠíĽĮ":8240,"ê¹¥":8241,"íĪ¬íĳľ":8242,"ìķ¼ìĪĺ":8243,"ĠíĻĶíķ©":8244,"ual":8245,"ê³µìĭł":8246,"ĠìĨĮë¦¬":8247,"ĠìĿ´ë¦ĦìĿ´ëĭ¤":8248,"íĦ°ìĿĺ":8249,"Ġíķ´ìĥģ":8250,"Ġë°ĺëĮĢë¡ľ":8251,"ë¨¸ë¦¬":8252,"íĮ¡":8253,"ĠíĥĲìĤ¬":8254,"ĠìĹŃìĿĢ":8255,"Ġë°ľêµ´":8256,"ëıĻë§¹":8257,"Ġíķľê¸Ģ":8258,"íĽĪëł¨":8259,"ëĭīìĬ¤":8260,"ëĺĲëĬĶ":8261,"Ġë°©ìłķ":8262,"ĠëĤĺìĿ´ë¡ľ":8263,"ìĭľìķĪ":8264,"Ġê¸į":8265,"ĠëĤ´ìħĶëĦĲ":8266,"ëĿ¼ëĶĶ":8267,"Ġìĺ¤ë²Ħ":8268,"ê³ĦìĹĲìĦľ":8269,"Ġê¹Ģìļ©":8270,"ĠìŀĳìĹħìĿĦ":8271,"Ġê°ĲëıħìĿĦ":8272,"ĠêµĲìľ¡ìĿĦ":8273,"Ġìłľê³µíķĺëĬĶ":8274,"ìłľìĿ´":8275,"ĠìĿ´ìĶ¨":8276,"Ġíĺ¼íķ©":8277,"ìĤ°ìĹĲ":8278,"ĠíĬ¹ìĿ´":8279,"Ġë°ľê²¬ëĲĺìĹĪëĭ¤":8280,"Ġ43":8281,"ìĺĢì§Ģë§Į":8282,"Ġê¹Ģì§Ħ":8283,"Ġë¶ĢìĨį":8284,"Ġìļ©ìĿ¸":8285,"reat":8286,"LE":8287,"(),":8288,"ìŀĲìĿ´ëĦĪ":8289,"ĠìĿĮìķħìĿĦ":8290,"Ġìŀ¥ìĪĺ":8291,"ëĴ¤":8292,"âĢ¦":8293,"ĠìķĦìĿ´ëĶĶ":8294,"Ġë¶ĪëłĢëĭ¤":8295,"æ¡":8296,"ê´ĢìĹĲ":8297,"ĠìĺĪëĬ¥":8298,"Ġíı¬ìĬ¤íĬ¸":8299,"ĠìĿ´ë£¬ëĭ¤":8300,"Ġëĭ¤ìĪĺ":8301,"Ġê¹ĢíĺĦ":8302,"Ġìŀ¬ë°°":8303,"ìĹŃìĿĺ":8304,"ĠìĦ±ê²½":8305,"ĠëĶĶë¹Ħìĭľ":8306,"Ġëĭ«":8307,"ê³ĦìĹ´":8308,"Ġíģ¬ë¡ľìĬ¤":8309,"Ġì´ĮìĿ´ëĭ¤":8310,"ĠëĦ·":8311,"Ġíģ´ëĿ¼":8312,"ëĿ¼ë©´":8313,"ì¹ľêµ¬":8314,"ì¢ħêµĲ":8315,"Ġëª¨ìķĦ":8316,"Ġì¤Ģëĭ¤":8317,"ĠëĬĲëĤĮ":8318,"ê³µì£¼":8319,"Ġê·¸ëŁ°ëį°":8320,"ìŀĩ":8321,"ĠìĿĺë¯¸ë¥¼":8322,"ĮíĹ¨":8323,"Ġìĭľì¦ĮìĹĲ":8324,"íĮĲìĿ´":8325,"ì§ĪìĿ´":8326,"ĠëĨĴìĿ´ëĬĶ":8327,"ĠíĮ½":8328,"ĠìĦ¸ë¥´ë¹ĦìķĦ":8329,"Ġì§ĢìĿĢ":8330,"Ġê°ĲëıħìĿ´":8331,"ìĬ¬ëĿ¼":8332,"Ġëª¨íĨł":8333,"Ġíģ¬ê¸°":8334,"ëĭ¤ìĿ´ëĿ¼":8335,"Ġë³´ìľłíķĺê³ł":8336,"ĠìĻķìŀĲ":8337,"Ġë©ľë¡ľ":8338,"Ġ#":8339,"Ġ44":8340,"íı¬íĬ¸":8341,"Ġê°Ħíĸī":8342,"igh":8343,"ìĤ¼êµŃ":8344,"ë§Īì¹ĺ":8345,"íĽĦë³´":8346,"ëĤ´ìļ©":8347,"ìĭľíĤ¤ê¸°":8348,"ì²ŃëħĦ":8349,"ĠëĤĺìĿĺ":8350,"Ġìĺ¬ëł¤":8351,"Ġê³ĦíĨµ":8352,"ĠìĬ¤íĥĢíģ¬ëŀĺíĶĦíĬ¸":8353,"ĠìĿ´ê¸Ģ":8354,"Ġì²ĺíĺķ":8355,"Ġëħ¸ëŀĺë¥¼":8356,"ĠìĽĲìĨĮ":8357,"ìĺ¤ìĤ¬ì¹´":8358,"ê¸Īìľµ":8359,"ì¶ľì²ĺ":8360,"ĠSS":8361,"ĠìĤ¬ë§Ŀíķľ":8362,"ĠJohn":8363,"ĠíĺĲìĿĺë¡ľ":8364,"Ġë©ĶíĥĪ":8365,"ĠìŀĦìĿĺìĿĺ":8366,"Ġì²ĺë²Į":8367,"ĠìŀłìĪĺ":8368,"Ġì°¸ê³ł":8369,"ç¨":8370,"Ġìĺ¤íĤ¤":8371,"ĠìĤ¬ëŀĮëĵ¤ìĿĺ":8372,"ĠìĿ´ë£¨ìĸ´ì¡Įëĭ¤":8373,"MA":8374,"çŁ¥":8375,"Ġìĥģíĥľë¡ľ":8376,"Ġìĭľê²Į":8377,"Ġê°Ģì§ĢëĬĶ":8378,"Ġë¹ĦíĬ¸":8379,"ì±ĦëĦĲ":8380,"Ġê³µìŀ¥":8381,"ĠRo":8382,"Ġíģ¬ë¦¬":8383,"ìķĦë§Ī":8384,"cc":8385,"ë¸Įë¡ľ":8386,"UEFA":8387,"Ġì¹¼ë¦¬ì§Ģ":8388,"Ġë°Ķë¥´ìħĢë¡ľ":8389,"ĠìłĦëĤ¨":8390,"å£«":8391,"íķĺíĤ¤":8392,"ĠìłĦë¶Ģ":8393,"ìłľìĻĢ":8394,"PC":8395,"ä¿¡":8396,"ĠìĿ¼ë¶Ģê°Ģ":8397,"Ġëħ¸ì¶ľ":8398,"ĠìķĦë²Ħì§ĢëĬĶ":8399,"ìļ¸ìĤ°":8400,"Ġìŀ¬ëĭ¨":8401,"ìłķëĭ¹":8402,"ĠPD":8403,"Ġê²ĥìĿ´ëĿ¼ëĬĶ":8404,"ĠìķĦëıĻ":8405,"Ġìļ°ìĹĲ":8406,"ì£¼ê³ł":8407,"Ġê¸¸ìĿĦ":8408,"íĤ¤íį¼":8409,"Ġì§ĢëĤ´":8410,"Ġë°©ë²ķìľ¼ë¡ľ":8411,"Ġìĭ¤íĺĦ":8412,"ìķĦëŀĺ":8413,"ìŀĳìłĦ":8414,"ë£¨ê°Ģ":8415,"ãĥĪ":8416,"èĩ£":8417,"Ġê²½ë¶ģ":8418,"ìłĢìĬ¤":8419,"è°":8420,"Ġì£¼ìŀ¬":8421,"Ġíģ¬ê³ł":8422,"ìį":8423,"íģ¬ë¥¼":8424,"ìĿ¼ê³¼":8425,"Ġíı¬íķ¨íķĺê³ł":8426,"1952":8427,"Ġëĭ¨ìĸ´":8428,"ĠìŀĲìĭłëĵ¤ìĿĺ":8429,"ëĿ¼ìĻĢ":8430,"ëĤ´ìĹĲ":8431,"ìĭľìķĦëĵľ":8432,"ĠìĹ°ìĬµ":8433,"Ġìĵ°ìĿ´ëĬĶ":8434,"ĠëĶĶìĬ¤":8435,"ĠìĿ´ëªħ":8436,"ĠëĶľ":8437,"ĠìłĦëıĻì°¨":8438,"å¢":8439,"Ġë¬µ":8440,"Ġë©Ģë¦¬":8441,"ĠëıĻë°©":8442,"Ġê²½ìłľìłģ":8443,"Ġê°ľìŀħ":8444,"ìĹŃìĿĢ":8445,"ìŀ¬ëĭ¨":8446,"ĠìĤ¬ìļ©ëĲľ":8447,"ĠíķĻìľĦë¥¼":8448,"Ġëĭ¹ì´Ī":8449,"ĠìĦ±íĸ¥":8450,"ì±ħìĿĦ":8451,"ìĤ¬ê¸°":8452,"ëĵ¤ë¡ľë¶ĢíĦ°":8453,"ìĹŃìĹĲìĦľ":8454,"Ġìŀ¬ê±´":8455,"ĠíĿ¬ê·¹":8456,"ĠìĺĪìłķìĿ´ëĭ¤":8457,"Ġëª¨ë°ĶìĿ¼":8458,"Ġë¶Ģë¶ĦìĿĦ":8459,"ĠìĹĲìĬ¤":8460,"ĠíĺĪìķ¡":8461,"ĠìĿ¸êµ¬ìĿĺ":8462,"ĠíĽĹëĤł":8463,"ê´ĳê³ł":8464,"ĠíķľêµŃìĹĲìĦľ":8465,"ëį°ë¥´":8466,"ĠëĿ¼ê³ł":8467,"ĠìĦłìłķëĲĺìĹĪëĭ¤":8468,"ink":8469,"Ġìĭ«":8470,"ĠìĪĺë¦¬":8471,"ä¹Ŀ":8472,"ĠëĮĢêµ¬ê´ĳìĹŃìĭľ":8473,"ê²ĢìĤ¬":8474,"íĥĢëĭĪ":8475,"ë²ĶìľĦ":8476,"Ġ1934":8477,"ãĤĵ":8478,"Ġëĵ¤ìĸ´ìĦľ":8479,"ĠìķŀìĹĲìĦľ":8480,"Ġë¬´ëĦĪ":8481,"Ġë¶Ģì¹ľ":8482,"íĺĳìĿĺíļĮ":8483,"Ġê³¡ìĿĢ":8484,"ĠìĿ¸ìĩĦ":8485,"Ġë°Ķê¹¥":8486,"Ġ47":8487,"Ġê¹Ģíķ´":8488,"ĠëĿ¼ìĿ´íĶĦ":8489,"ĠEBS":8490,"ĠìłĦíĨµìłģìĿ¸":8491,"300":8492,"ings":8493,"TC":8494,"ĠìĿĮë°ĺìĿĢ":8495,"Ġê±°ëĳĲìĹĪëĭ¤":8496,"ĠìĭĿíĴĪ":8497,"Ġìĭľëª¨":8498,"ĠĊĠĠĊ":8499,"ìĸĳìĿ´":8500,"è£":8501,"ìĤ¬ë¬´ìĨĮ":8502,"ĠìĦŀ":8503,"ĠìłĦëĭ¹":8504,"ĠëıĦëª¨":8505,"ì¢ħìľ¼ë¡ľ":8506,"Ġì»¤ë²Ħ":8507,"êº":8508,"ì§Ģìĸ´":8509,"ĠìłĦëł¥":8510,"Ġì²łìĪĺ":8511,"Ġëĭ¹ìĭľìĹĲëĬĶ":8512,"å¥³":8513,"rid":8514,"Ġê²ĥìĿ´ëĿ¼":8515,"ĠìķĦìĬ¤":8516,"íħĶëłĪ":8517,"Ġê³µì¤ĳ":8518,"ì¹ĺìĺ¤":8519,"íķĺìĺĢëĭ¤ê³ł":8520,"ëĤ´ìħĶëĦĲ":8521,"ĠíŀĻíķ©":8522,"ìĪĺìĤ¬":8523,"ìĦľìļ¸íĬ¹ë³ĦìĭľìĿĺ":8524,"ĠìľłëŁ½ìĿĺ":8525,"éĮ":8526,"ëħ¸ìĦł":8527,"Ġì¶Ķêµ¬":8528,"íİĢ":8529,"Ġê·¸ëķĮ":8530,"ìĭĿíĴĪ":8531,"ë³´íĨµíķĻêµĲ":8532,"ëŀ«ëıĻìķĪ":8533,"ĠëĤĺëīľ":8534,"ĠìĨįëıĦ":8535,"ìĿ¼ìłľê°ķìłĲê¸°ìĿĺ":8536,"Ġê¸°ìļ¸":8537,"ĠíĶĦëŀĳíģ¬":8538,"ute":8539,"íĤ·":8540,"ë³µìĿĦ":8541,"ê°ĢëĬ¥":8542,"ìłĦê³¼":8543,"Ġìłķì²´":8544,"eng":8545,"ì§ĦìĿĢ":8546,"amb":8547,"ĠíŀĪíĬ¸":8548,"text":8549,"ì´Īê¸°":8550,"ìĤ¬ëł¹ë¶Ģ":8551,"Ġê¸°ë¡ĿìĿ´":8552,"Ġì§Ģìĭľ":8553,"åĲĮ":8554,"íı´ë¦¬ìĬ¤":8555,"ĠìĹĳìĬ¤":8556,"ë¦¬ë¸Į":8557,"ĠìĿ´ìĽĥ":8558,"ëĿ¼ìĹĲ":8559,"ĠìĥĪê²¨":8560,"res":8561,"ĠìłĦíĻĶ":8562,"Ġì¹¨ìŀħ":8563,"ëķħ":8564,"ãģ«":8565,"Ġë§Ŀëªħ":8566,"Ġë§¤ì£¼":8567,"æķİ":8568,"ĠFl":8569,"ì§Ħíĸī":8570,"Ġ46":8571,"Ġê°ķëĵ±":8572,"Ġë©Ķëª¨ë¦¬":8573,"Ġ1933":8574,"Ġë¬´íķľ":8575,"Ġë²ĪìĿĺ":8576,"Ġëª»íķĺëĬĶ":8577,"Ġë§Įëĵ¤ìĸ´ì¡Įëĭ¤":8578,"ê³ĦëĬĶ":8579,"ãĤ¢":8580,"ĠìĿ´ìĿĢ":8581,"ĠìĥĪë¡Ńê²Į":8582,"ĠìłĦìĭł":8583,"ç¥ĸ":8584,"Ġìĺ¤ëĭ¤":8585,"Ġë°ľìĿĮ":8586,"Ġê¼½":8587,"ĠíĶĦë¡ľê·¸ëŀĺë°į":8588,"ĠìĿĺëıĦ":8589,"icial":8590,"ê°ĢìĪĺ":8591,"íĮ½":8592,"Ġë§ĪìĿĮìĿĦ":8593,"ĠëĿ¼ìļ´ëĵľ":8594,"ìĺĪë¥¼":8595,"Ġíģ´ëłĪ":8596,"Ġê³¡ìĿĦ":8597,"ä»£":8598,"Ġë©°":8599,"Ġêµ¬ìĦ±ìĽĲ":8600,"ĠëĭĽíı°":8601,"ìĭľìĹĲìĦľ":8602,"Ġì²Ńì£¼":8603,"form":8604,"ĠìķĪìĹĲìĦľ":8605,"Ġíİľìĭ±":8606,"\")":8607,"ĠChrist":8608,"ĠìĿ¼ì°į":8609,"ĠìĿ¸ìļ©":8610,"Ġëĭ¤ë¥´ê²Į":8611,"Ġëª©ìĨĮ":8612,"Ġë°°êµ¬":8613,"ì²ľë§Į":8614,"ìĭĿìĹĲ":8615,"ĠíĥľêµŃ":8616,"ìĺ¬ë¦°":8617,"Ġíĥľìĸ´ëĤ¬ìľ¼ë©°":8618,"Ġëĵ£ê³ł":8619,"ĠìĹ¬ìĻķ":8620,"Ġìĸ´ê¹¨":8621,"ĠëıĪìĿĦ":8622,"ê¸°ì§Ģ":8623,"êµ¬ë¯¸":8624,"Ġê°ľìĭłêµĲ":8625,"ĠëĮĢìĤ¬ê´Ģ":8626,"ëĭĪì¹ĺ":8627,"ãĥĥ":8628,"ìĦ¸ìĬ¤":8629,"å¡":8630,"ì¾Į":8631,"ê°Ģê³µìĿĺ":8632,"Ġë§ĲíķĺëĬĶ":8633,"ade":8634,"ĠìĥģíĻ©ìĹĲìĦľ":8635,"ĠìĤ¬ìŀĦ":8636,"Ġë¡±":8637,"ĠíĥĪíĩ´":8638,"ë§¥ìĬ¤":8639,"ë¯¸ìĤ¬":8640,"Ġíķ´ìķ¼":8641,"ĠìķĮë¦¬":8642,"ìķĦëĿ¼":8643,"af":8644,"ëĮĢêµĲ":8645,"ĠíĨłëª¨":8646,"Ġìĺ¤ìĬ¤ë§Į":8647,"ëĭ¤ìĿĺ":8648,"ĠíıĲêµĲ":8649,"Ġ09":8650,"ì¸µìĿĺ":8651,"ëĤ¬ê³ł":8652,"Ġë¬¸íĻĶìŀ¬ìŀĲë£Į":8653,"Ġìĸ»ìĿĢ":8654,"íĺĶ":8655,"Ġë°ĶëĢĮìĹĪëĭ¤":8656,"ë§ĪìĹĲ":8657,"æ©":8658,"Ġê´Ģëł¨ìŀĲ":8659,"Ġë°ľìĥĿíķĺëĬĶ":8660,"ĠìĭľìŀĳëĲľ":8661,"ĠìĹĦì²ŃëĤľ":8662,"ìķĦë¦¬":8663,"Ġíı´ë¦¬":8664,"Ġê¹ĥ":8665,"Sh":8666,"ìĪĺíķĻ":8667,"ë²Ķì£Ħ":8668,"çĨ":8669,"Ġêµ¬ìŀħ":8670,"Ġíģ¬ëłĪ":8671,"ĠíĮĮíĭ°":8672,"Ġì¹¨ëŀµ":8673,"Ġê·ľëª¨ìĿĺ":8674,"Ġìłģíķ©":8675,"Ġëĺĳ":8676,"Ġëħ¸ìĬ¤":8677,"ìĥĿìĤ°":8678,"An":8679,"ìľłëĭĪ":8680,"ican":8681,"Ġë°ķìĺģ":8682,"ê¸°ìĤ¬":8683,"êµŃìľłì²łëıĦìĿĺ":8684,"ë³´ìĤ´":8685,"ìĪĺë¦¬":8686,"ĠìĹ°ê²°íķĺëĬĶ":8687,"ê°ģìĿĦ":8688,"ìľłì¹ĺìĽĲ":8689,"ĠíĽĦê³Ħ":8690,"Ġìĺ¬ëŀĲ":8691,"OU":8692,"les":8693,"ë²łíĬ¸":8694,"ìĹ´ì°¨":8695,"íķĺìĺĢëįĺ":8696,"Ġë°ľë°ľ":8697,"Ġ75":8698,"Ġëĭ¤ìĬ¤":8699,"ìłĲìĿĺ":8700,"ĠIC":8701,"ì£¼ìĹĪëĭ¤":8702,"ì¡°ë¡ľ":8703,"Ġì°¸ê°ĢìŀĲ":8704,"ê²©íķľ":8705,"ĠíĻľëıĻíķĺê³ł":8706,"Ġíģ´ë¡ľ":8707,"Ġalign":8708,"Ġì°½ìŀĳ":8709,"ìĤ¼ìĦ±":8710,"Ġë¸ĮëłĪ":8711,"ê²©ìľ¼ë¡ľ":8712,"Ġíıīë¡łê°Ģ":8713,"Ġìĸ´ëł¤ìļ´":8714,"ĠìĦ¸ìĥģìĿĦ":8715,"Ġì¾Į":8716,"Ġì§Ŀ":8717,"ĠìłĦë©´":8718,"ë¬´ëĬ¬":8719,"Ġíģ¬ëĿ¼":8720,"êµĲìľ¡ì²Ń":8721,"ĠíķĺìĺĢìľ¼ëĤĺ":8722,"Ġëĭ¬ëł¤":8723,"ìłķìĽĲ":8724,"ë°±ë§Į":8725,"Ġì¡´ìŀ¬íķĺì§Ģ":8726,"Ġê°Ģë¬¸ìĿĺ":8727,"Ġë¡ľë§ĪìĿĺ":8728,"Ġì¢ħë¡ľ":8729,"ìŀ¥ìĿ´ëĭ¤":8730,"Ġëĵ¤ê³ł":8731,"Ġíİ¸ì°¬":8732,"ĠíķŃìĦ±":8733,"è°·":8734,"Ġê¹ĢìĪĺ":8735,"ĠìĬ¹ëł¤":8736,"(:":8737,"ê¿Ī":8738,"ê²½ìĿ´":8739,"ëŀ´":8740,"Ġì§ĢëĥĪ":8741,"ĠìĦ±ìĶ¨":8742,"éĩİ":8743,"Ġ1932":8744,"íķ´ìł¸":8745,"Ġì²¼":8746,"åĦ":8747,"ëĿ¼ë©°":8748,"ĠìĺģíĻĶëĬĶ":8749,"Ġë°°ê¸ī":8750,"ëł¹ìĿ´":8751,"Ġíķ¨ëĿ½":8752,"Ġê´Ģëł¨ìĿ´":8753,"Ġë¡ł":8754,"è¿":8755,"ĠëĦ¥":8756,"ĠUS":8757,"Ġìĭ¬ê°ģíķľ":8758,"ìķŀ":8759,"ìĤ¬ìĿ´ëĵľ":8760,"Ġë³ĢíĻĶë¥¼":8761,"Ġëļľ":8762,"ëĭ¨ê³¼":8763,"ograp":8764,"Ġë§Īì¹¨ëĤ´":8765,"ĠìĤ¬ëŀĮëĵ¤ìĿĦ":8766,"Ġë§¡ìĿĢ":8767,"ĠArt":8768,"Ġê·¼ë³¸":8769,"ìĦ°ëĭ¤":8770,"ĠìĿį":8771,"port":8772,"Ġëŀ©":8773,"ì¶ľìĹ°ìŀĳ":8774,"Ġë°Ķëĭ¥":8775,"íķ¨ê³¼":8776,"PU":8777,"ìĭ¼":8778,"ëĮĢë¶Ģ":8779,"èµ":8780,"ĠìĿ´ë¯¸ì§Ģ":8781,"ĠíķĺìĺĢìľ¼ë©°":8782,"ê¹Ŀ":8783,"Ġì§Ģê¸ĪìĿĢ":8784,"ĊĠĠĠĠ":8785,"ĠíĽĦë³´ë¡ľ":8786,"ĠìĹ°íĺ¸":8787,"Ġì¡¸ìĹħìĥĿ":8788,"Ġë°°íı¬":8789,"ëŀĢìĥī":8790,"ĠìĬ¤íħĮìĿ´ì§Ģ":8791,"íĶĦëŀĢìĭľìĬ¤ì½Ķ":8792,"éĢļ":8793,"ìķĦìĽĥ":8794,"ĠíĻķë¦½":8795,"Ġíı¬ì¼ĵëª¬":8796,"ê³łëĮĢ":8797,"ĠìķĦíĮĮíĬ¸":8798,"ĠìĹŃìĿ´ëĭ¤":8799,"ĠëĤ´ëł¸ëĭ¤":8800,"Ġìŀ¬ì¦Ī":8801,"ì°¾":8802,"ĠíķľìĦ±":8803,"Ġë§Įëĵłëĭ¤":8804,"Ġì£¼ìŀ¥íķľëĭ¤":8805,"ëĭ·":8806,"ìŀĦìĿ´":8807,"ĠëĶ°ë¡ľ":8808,"Ġë¬´ìĭł":8809,"ĠíĢ´":8810,"Ġì§ĳìķĪ":8811,"Ġcom":8812,"MI":8813,"ìĬ¤ëŁ½ê²Į":8814,"ĠìĿ¼ìľ¼íĤ¤":8815,"Ġê¶¤ëıĦ":8816,"ìłľì£¼":8817,"Ġë§İìķĦ":8818,"æĢ§":8819,"Ġê°ľëªħ":8820,"ë°ĶëĤĺ":8821,"ĠíĮĮë¥´":8822,"EP":8823,"æ´ª":8824,"Ġìº¡":8825,"ĠìĤ¬ë§Ī":8826,"Ġë£¨íĬ¸":8827,"ìĦľìļ¸ëĮĢíķĻêµĲ":8828,"ĠìĿ¼ìĸ´ëĤ¬ëĭ¤":8829,"ĠìłĪë°ĺ":8830,"ĠìķłëĭĪ":8831,"åŃĿ":8832,"Ġê°Ģì§Ħëĭ¤":8833,"Ġë¶ĢìĥģìĿĦ":8834,"ìłľíĴĪ":8835,"éĽĨ":8836,"ê²°ê³¼":8837,"âĢĻ(":8838,"ĠíŀĪê°Ģìĭľ":8839,"íĶĦê°ĢëĭĪìĬ¤íĥĦ":8840,"ution":8841,"ĠëĤĺíı´ëłĪ":8842,"Ġë¶Ħëªħ":8843,"ĠìĻĦê³µëĲľ":8844,"Ġë§Īì²ľ":8845,"Ġìĺ¤ëŀ«ëıĻìķĪ":8846,"ë³Ħë¡ľ":8847,"ìłķê³¼":8848,"ëħ¸ëŀĺ":8849,"Ġê°ģë³¸ê°Ģ":8850,"íģ¬ë¦¬ìĬ¤":8851,"Ġê°Ĳëıħìľ¼ë¡ľ":8852,"Pa":8853,"ìĤ¬ìĥģ":8854,"Ġê´ĢìĹ¬":8855,"ĠMVP":8856,"ĠìĦ¤ë¦½ëĲĺìĹĪëĭ¤":8857,"ĠìĬ¤íĥĢëĶĶìĽĢ":8858,"Ġan":8859,"ĠìĦłìłĦ":8860,"Ġì£¼ìŀ¥íķĺìĺĢëĭ¤":8861,"ĠëĤ´ìļ©ìĿĢ":8862,"ĠìłĦë¶ģ":8863,"ĠíĨłëĦĪë¨¼íĬ¸":8864,"Ġì¢ĭìķĦíķĺëĬĶ":8865,"ĠìĹĲë¥´":8866,"íĻ©íĽĦ":8867,"ëĶ¸":8868,"Ġ1931":8869,"Ġê³¨íĤ¤íį¼":8870,"ett":8871,"Ġì§ĦíĸīëĲĺìĹĪëĭ¤":8872,"red":8873,"ĠìŀĲìłĦ":8874,"Ġë³Ģíĺ¸":8875,"ë³´ê±´":8876,"Ġì¹´ëĿ¼":8877,"ement":8878,"inal":8879,"ĠëĳĲëł¤":8880,"ìĤ¬ìļ©":8881,"ê³µê°Ħ":8882,"ĠĊĠĊĠ":8883,"lect":8884,"ky":8885,"Ġë°©ì§Ģ":8886,"ìĭ¬ìĿĺ":8887,"Ġê¸Īë©Ķëĭ¬ë¦¬ìĬ¤íĬ¸":8888,"ĠìłĦë¬¸ê°Ģ":8889,"íĦ°ëĬĶ":8890,"ë¡ľìĻĢ":8891,"ì½ĶíĶĦ":8892,"Ġíİ¼ì³Ĳ":8893,"é½":8894,"ĠíķĦë¦½":8895,"ì»´íĵ¨íĦ°":8896,"Ġê·¸ë¡ľ":8897,"ĠìĹ°ê°Ħ":8898,"ĠëıħíĬ¹íķľ":8899,"Ġì½ĺíħĲì¸ł":8900,"Ġê²°ìĦ±ëĲľ":8901,"ĠìķĦë©Ķë¦¬ì¹¸":8902,"ëĶĶìŀĲìĿ¸":8903,"íķ©ëĭĪëĭ¤":8904,"Ġëĭ¨ì§Ģ":8905,"ì½ķ":8906,"ëĿ¼íĬ¸":8907,"Ġë°ľê°Ħ":8908,"Ġëªħì¹ŃìĿĢ":8909,"ĠìĪĺëıĦê¶Į":8910,"Ġê¹Ģê¸°":8911,"æ·¸":8912,"ĠGu":8913,"ĠëıĦìĭľìĿ´ëĭ¤":8914,"ëį©":8915,"Ġê³Ħê³¡":8916,"1947":8917,"Ġëħ¸ë¥´ìĽ¨ìĿ´":8918,"ĠìķĦíĭĢ":8919,"Ġì¶ķìłľ":8920,"Ġì£½ìĹĪëĭ¤":8921,"Ġíĵ¨":8922,"ìļ°ê°Ģ":8923,"ĠëĶĶìŀĲìĿ´ëĦĪ":8924,"ãİ":8925,"Ġ~)":8926,"Ġëª©ìĨĮë¦¬":8927,"ĠDJ":8928,"íķĺë¯Ģë¡ľ":8929,"FI":8930,"ĠëįĶë¶Īìĸ´ë¯¼ì£¼ëĭ¹":8931,"ĠìĹĺë¦¬ìŀĲ":8932,"ĠìĬ¤íĶĦë§ģ":8933,"ĠëĵľëŁ¼":8934,"ìĦłìĥĿ":8935,"Ġê²Ģìĥī":8936,"Ġê¸įìłķ":8937,"ĠìŀĲë§¤":8938,"Ġë³´ìĹ¬ì¤Ģëĭ¤":8939,"Ġëķ":8940,"ì¹´ëĿ¼":8941,"ĠíĨ±":8942,"ĠìĥģìĨį":8943,"ìŀ¥êµ°":8944,"1944":8945,"Ġë°ĶìĿ´ëŁ¬ìĬ¤":8946,"Ð»":8947,"íĮĮëĬĶ":8948,"ëĤ´ê¸°":8949,"Ġì³Ĳ":8950,"ìĪĺë¡Ŀê³¡":8951,"ĠíķłìķĦë²Ħì§Ģ":8952,"urn":8953,"Ġë¦¬ëĵľ":8954,"ëª©ìłģ":8955,"Ġë§Įëĵ¤ê³ł":8956,"ĠìĭłìĤ¬":8957,"Ġë¬¼ë¦¬íķĻ":8958,"eth":8959,"ĠìĹŃìĤ¬ê°Ģ":8960,"erm":8961,"Ġê³µìĹ°ìĿĦ":8962,"íİĦ":8963,"åĲī":8964,"ames":8965,"ìĬ¤íĬ¸ë¡ľ":8966,"ĠìķĬì§Ģë§Į":8967,"ì´ĪìĿĺ":8968,"ì£¼ìĿĺìłģ":8969,"ê´Ģë¦¬ìľĦìĽĲíļĮ":8970,"ĠAll":8971,"ĠíķĦìļĶíķĺëĭ¤":8972,"Ġì£¼ìĭĿíļĮìĤ¬":8973,"Ġê³µíĹĮ":8974,"ê°¤":8975,"ì§Ģëªħ":8976,"Ġë©Ķë¦¬":8977,"ĠìĦ¸ê³ĦëĮĢìłĦ":8978,"ë°ķìĤ¬":8979,"ĠìĦ¹":8980,"ì²´ìĻĢ":8981,"ĠìĦ±ìĿĦ":8982,"ĠCount":8983,"ĠëªħìĿĦ":8984,"ìłĢìĦľ":8985,"Ġê³µë¬´ìĽĲ":8986,"ĠìĹŃìĿ´":8987,"é³":8988,"ĠìĥģìŀĦ":8989,"Ġì¦Ī":8990,"ĠìŀĦë¬´":8991,"ĠìķĦíĬ¸":8992,"Ġë§Īë¥´íģ¬":8993,"ĠìĿĺìłķë¶Ģ":8994,"ì¤ĳìĿ¸":8995,"ĠìĹ°êµ¬ìĨĮ":8996,"Ġì¤ĳêµ¬":8997,"íĮĮë¦¬":8998,"ê³¼íķĻê¸°ìĪł":8999,"ìĿ¼ëĵľ":9000,"ES":9001,"Ġê°¤ëŁŃìĭľ":9002,"ower":9003,"Ġê°ĢìļĶ":9004,"ĠíķĦìļĶê°Ģ":9005,"éİŃ":9006,"ìĦ¸ë¥´":9007,"Ġêµ¬ë¡ľ":9008,"ĠíŀĮ":9009,"ëĵľë¦¬íŀĪ":9010,"çĶº":9011,"Ġê²¹":9012,"ëĤĺë¥´":9013,"ĠíĥĢê²©":9014,"ìķĦìĬ¤":9015,"Ġê¸°íļĮë¥¼":9016,"ë§Īê°Ģ":9017,"Ġìĺ¬ëł¸ëĭ¤":9018,"æŁ":9019,"ìĬ¤íĶĦ":9020,"ì§Ģë©´":9021,"Ġ1910":9022,"Ġê°ĢìĪĺìĿ´ëĭ¤":9023,"Ġì§Ģê¸Īê¹Įì§Ģ":9024,"ĠìĭľìĬ¤íħľìĿĦ":9025,"ë¸ĮëłĪ":9026,"Ġìŀħìŀ¥ìĿĦ":9027,"ĠìķĮê³łë¦¬ì¦ĺ":9028,"ìĹĪìĿĦ":9029,"ìĿ¸ìĹĲê²Į":9030,"ëĲĺìĹĪëĭ¤ê³ł":9031,"íĢĺ":9032,"ìķĦíĮĮíĬ¸":9033,"ĠìĤ¬ìĭ¤ìĿ´":9034,"ĠĊĠĊĠĊĠĊĠĊ":9035,"ĠìĭĿë¬¼ìĥģ":9036,"Ġë°ĽìķĦëĵ¤ìĹ¬":9037,"ĠíķĺìĹĲ":9038,"str":9039,"íı¬ìĬ¤":9040,"PG":9041,"Ġë°ľëłĪ":9042,"Ġì´ĿìĦł":9043,"ìĭ¤ìĿĢ":9044,"Ġêµ°ìĿĺ":9045,"Ġíĳľì°½":9046,"ĠìĤ¼êµŃ":9047,"1953":9048,"Ġ1928":9049,"ìĤ¬ê³ł":9050,"ĠëıĻìĸĳ":9051,"ì¡°ê±´":9052,"ì¹´ìĺ¤":9053,"ĠëĤ¨ìķĦíĶĦë¦¬ì¹´":9054,"ë°±ê³¼":9055,"Ġêµ¬ë§¤":9056,"Ġëŀĺíį¼":9057,"ĠêµĲë¥ĺ":9058,"ì¶¤":9059,"íķ¨ìĿ´":9060,"ĠëģĿëĤĺ":9061,"Ġêµ¬ê¸Ģ":9062,"ĠìĬ¬ë¡ľ":9063,"ĠíĮĮíĬ¸ëĦĪ":9064,"Ġëĭī":9065,"Ġëĭ¤ìĿĮëĤł":9066,"ĠíĻĺìĬ¹":9067,"ĠìĦ¤ëĵĿ":9068,"Ġì°½ê°Ħ":9069,"Ġë³ĳíķ©":9070,"Ġíļ¨ê³¼ë¥¼":9071,"Ġëĭ¤ìĨĮ":9072,"Ġë¶ĢëıĻ":9073,"ple":9074,"ĠAmer":9075,"ãĤ¯":9076,"OD":9077,"Ġê³łê°Ŀ":9078,"co":9079,"ìķĦëĬĶ":9080,"Ġìĸ´ëĵľ":9081,"ĠìķĮëłĪ":9082,"ìķĦë©Ķë¦¬ì¹¸":9083,"Ġë°©íķ´":9084,"ëĲĺìĸ´ìķ¼":9085,"ĠLa":9086,"Ġê·¼ìľ¡":9087,"ë¡łìĿĢ":9088,"Ġìĭ¸ìĽĢ":9089,"ì°¨ëŁī":9090,"ĠìĨĮëł¨ìĿĺ":9091,"Ġë¯¹":9092,"Ġíİ¸ìĿ´ëĭ¤":9093,"1941":9094,"ëĤĺíĥĢ":9095,"ĠìŀĳëıĻ":9096,"ëŁ°ëįĺ":9097,"ĠëĮĢê°ľ":9098,"Ġ1924":9099,"Ġì¢ħìĤ¬":9100,"ĠëĤ´ê°Ģ":9101,"oph":9102,"íĹĿê°Ģ":9103,"que":9104,"ĠëĮĢíĻĶ":9105,"ĠíĺĦì§Ģ":9106,"íŀĪê³ł":9107,"ĠìĥģëĮĢìłģìľ¼ë¡ľ":9108,"Ġê¹Ģìĥģ":9109,"Ġê±°ëĵŃ":9110,"ë²łë¦¬ìķĦ":9111,"åĽĽ":9112,"ëĭĪì¦ĺ":9113,"Ġê²ĮìŀĦìĿĦ":9114,"Ġìłł":9115,"ĠìĿ´íĨł":9116,"ĠíıīìķĪ":9117,"ĠíĨłì§Ģ":9118,"Ġíĺ¼ìŀĲ":9119,"ĠìķĬìľ¼ë©´":9120,"ìĿ´ë©´":9121,"ĠìĹ°ìĤ°":9122,"Ġis":9123,"ãģĨ":9124,"Ġìŀ¥ë¥´":9125,"ì½°":9126,"ĠíıŃíĥĦ":9127,"âĺĨ":9128,"ĠìĪĺìĿĺ":9129,"ĠìĪĺìĿµ":9130,"ĠëĳĲìĤ°":9131,"ì§ĳíķ©":9132,"ë°ĽëĬĶ":9133,"Ġìĥģê´Ģ":9134,"Ġì´Īì²Ń":9135,"íĶĦë¡ľëĵĢ":9136,"ìĿ´ìķ¼":9137,"ĠìĦłìŀĦ":9138,"ĠìķĪìĸĳ":9139,"æĺ¥":9140,"ĠìĻĦìłĦíķľ":9141,"ĠTHE":9142,"Ġíĺ¸ìĨĮ":9143,"Ġ1929":9144,"ìľĦìĻĢ":9145,"Ġì¡°ìĦłì´Ŀëıħ":9146,"èĤ":9147,"ëĪĦë¦¬":9148,"ĠìĽĲìĿ¸":9149,"Ġë²Įìĸ´":9150,"EBS":9151,"ĠíĹ¨":9152,"Ġíĸīëł¬":9153,"åłĤ":9154,"ëĵ±ìĿĺ":9155,"ëĭ¬ëŁ¬":9156,"Ġì¹´íİĺ":9157,"ĠíĪ¬ìŁģ":9158,"Ġì§ĢìĹŃìľ¼ë¡ľ":9159,"ì¡¸ìĹħìĥĿ":9160,"ĠëıĻìĭľ":9161,"Ġì¤ĳìĹĲëĬĶ":9162,"ull":9163,"ĠìŀĲìĽĲ":9164,"ank":9165,"Ġì²ľì£¼êµĲ":9166,"ĠëĮĢíĨµëł¹ìĿĺ":9167,"Ġìĭľì²Ńë¥ł":9168,"Ġ1918":9169,"Ġë³´ìķĺëĭ¤":9170,"íĮĮë¥¼":9171,"irl":9172,"Ġì§ĢìľĦë¥¼":9173,"IP":9174,"íļ¨ê³¼":9175,"ĠìłĦíĺķ":9176,"ĠPar":9177,"ìĹ°ê¸°":9178,"ìºĦ":9179,"ĠìĦ¤ì¹ĺëĲľ":9180,"ë©Ķëĭ¬ìĿĦ":9181,"ĠìĪĺíĺ¸":9182,"ĠìĪĺìļĶ":9183,"ì¹´ê°Ģ":9184,"ĠíħįìĤ¬ìĬ¤":9185,"ëıĻê³¼":9186,"ĠìĬ¤íĮĮìĿ´":9187,"ĠëĨĴëĭ¤":9188,"Ġë®ĮíĹ¨":9189,"Ġíĺ¸ìĪĺ":9190,"Ġë§ŀìķĦ":9191,"ĠìĿ´ëĿ¼íģ¬":9192,"ëĲĺìĹĪëĭ¤ê°Ģ":9193,"å¸«":9194,"ĠëıĦì¿ĦëıĦ":9195,"Ġì§ľ":9196,"Ġë²ķë¬´":9197,"ĠìĿ´ëĵ¤ìĿĦ":9198,"ĠëĦ¤ìĿ´ìħĺ":9199,"ìĺ¤ëĬĺ":9200,"ĠìĹŃìĤ¬ë¥¼":9201,"Ġìĺµ":9202,"ĠëĮĢê²°":9203,"Ġë°ľìĸ¸":9204,"íĥľíıīìĸĳ":9205,"ì¹ľëĭ¤":9206,"ĠìĿ¼ë³¸ìĹĲ":9207,"ĠíķĻìĤ´":9208,"Ġì¤ĳì¶Ķ":9209,"Ġíķ´ëıĦ":9210,"íİ¸ê³¡":9211,"DP":9212,"ï½ŀ":9213,"ëıĦë¦¬":9214,"ĠëĪĪìĹĲ":9215,"Ġìĸ»ìĿĦ":9216,"ĠíħĶëłĪ":9217,"īģ":9218,"íĳľë¥¼":9219,"ĠQu":9220,"rit":9221,"ë°´ëĵľ":9222,"Ġ49":9223,"ìĸ´ìķ¼":9224,"Ġì½ĶìĬ¤":9225,"Ġê°ĳìŀĲê¸°":9226,"MP":9227,"ìĺģíĻĶìłľ":9228,"ean":9229,"ym":9230,"ĠëĨĵê³ł":9231,"ĠìĿ´íĥĪ":9232,"ìĭŃìŀĲ":9233,"ë²¨ëĿ¼":9234,"Ġëħ¸ìĦłìĿĦ":9235,"áĨŀáĨ":9236,"Ġë¶Ģëĭ´":9237,"ê²½ìĹĲ":9238,"ĠìľłìłĦìŀĲ":9239,"Ġê³łì¢ħ":9240,"ĠíĬ¹ìłķíķľ":9241,"ĠëĤĺíĥĢëĤĺëĬĶ":9242,"ê°ĢìĬ¤":9243,"ĠìłĦê¹Įì§Ģ":9244,"íķĺì§ĢëĬĶ":9245,"ìĺ¤ìĬ¤íĬ¸ëłĪìĿ¼ë¦¬ìķĦìĿĺ":9246,"ĠëĮĢë²ķ":9247,"ĠìĦľìĿ¼ë³¸":9248,"Ġìľłìłģ":9249,"Ġê´ĳìĹŃ":9250,"oul":9251,"ìĿĮìĿĺ":9252,"ĠìĹ¬ê²¨ì§Ħëĭ¤":9253,"íķ´ìĸĳ":9254,"ë²³":9255,"ãĤĬ":9256,"íĬ¹ë³ĦìľĦìĽĲíļĮ":9257,"ĠëĮĢíĳľíķĺëĬĶ":9258,"åħ«":9259,"Ġê¹Ģê²½":9260,"ĠìĤ¬ìĹħìĿĦ":9261,"ì¡°ë¶Ģ":9262,"we":9263,"Ġìľłíļ¨":9264,"ìĹ°ì¶ľ":9265,"ĠêµĲëªħ":9266,"ĠìĪľíĻĺ":9267,"ĠìĿ¸êµ¬ê°Ģ":9268,"ve":9269,"Ġë°±ìłľ":9270,"Ġëĭ¤íģĲë©ĺíĦ°ë¦¬":9271,"íĦ°ê°Ģ":9272,"íģ¬ê°Ģ":9273,"ê²½ê¸°ëıĦ":9274,"Ġë¶Ģë¶ĦìĿ´":9275,"Ġê³µìĤ°ì£¼ìĿĺ":9276,"ĠíĬ¹ìĦ±":9277,"íĺĳëł¥":9278,"Ġë¬¼ëŁ¬":9279,"ìĹ°ìĿĺ":9280,"ëħ¸ë¦¬":9281,"ĠìĥĿíĥľ":9282,"arch":9283,"ìĺģìĿĢ":9284,"Ġ51":9285,"ĠìĤ¬ìļ©íĸĪëĭ¤":9286,"ĠHD":9287,"Ġë°ĶìĿ´ìĹĲë¥¸":9288,"ìĹ£":9289,"Ġë§Īë¬´ë¦¬":9290,"Ġëª©ë¡ĿìĿ´ëĭ¤":9291,"ensis":9292,"íĮĮìĿ´ìĸ´":9293,"ĠìĦ±ìłģìĿĦ":9294,"Ġë¡ľëłĮ":9295,"Ġë¡ľë¹Ī":9296,"ìĦľë¹ĦìĬ¤":9297,"ë¬¸ìĿĢ":9298,"ĠìŀĲë¦¬ìĹĲ":9299,"Ġì£¼ìłĦ":9300,"ĠAm":9301,"Ġíĸ¥íĨł":9302,"ÑģÐº":9303,"ëĦĲëĵľ":9304,"ìĹĪê¸°":9305,"ìĭ¤ìĿ´":9306,"tt":9307,"ëĤĺë¦¬":9308,"ĠìĿ¸ì¦Ŀ":9309,"ìĸ´ë¦¬":9310,"íĻĶë¬¼":9311,"Ã¤":9312,"ì¹ĺê²Į":9313,"Ġê°Ģë©´":9314,"ĠìľĦë¡ľ":9315,"ìŀĳìĿĢ":9316,"Ġë©ĶìĿ´ì§Ģ":9317,"Ġêµ¿":9318,"ĠìķĦìĽĥ":9319,"Ġìļ´ìĺģíķĺëĬĶ":9320,"Bl":9321,"IG":9322,"ĠìĹ°êµ¬ìĹĲ":9323,"Ġë°Ľìķĺìľ¼ë©°":9324,"ìĺ¤ìĻĢ":9325,"Ġë¶Ģíĥģ":9326,"Ġë©Ģíĭ°":9327,"íģ´ëĿ¼":9328,"ĠìķĶíĺ¸":9329,"ĠìĥģíĥľìĹĲìĦľ":9330,"Ġì¤ĳì§Ģ":9331,"íĤ¤ìĿĺ":9332,"ìĶ¨ê°Ģ":9333,"Ġ52":9334,">(":9335,"ĠSC":9336,"Ġì¹´ì¦Ī":9337,"ĠìĽĶíĻĶëĵľëĿ¼ë§Ī":9338,"ìĹĲëĦĪ":9339,"ê°Ģë£¨":9340,"Ġì²łê±°":9341,"ĠìĿ¼ìĸ´ëĤĺëĬĶ":9342,"íıīê·ł":9343,"ĠìłĦìĨ¡":9344,"Ġëª¨ëĵľ":9345,"ëĵ±ìĿĦ":9346,"Ĳģ":9347,"íķĦë¦¬":9348,"Ġê¸°ìĨĮ":9349,"Ġê°Ģëĭ´":9350,"ĠìĿ´ë¥´ëŁ¬":9351,"Ġ65":9352,"Un":9353,"ĠìĬ¤íĶ¼ëĵľ":9354,"ëĵ¯ìĿ´":9355,"ë§Įìľ¼ë¡ľ":9356,"ĠíĿĺëŁ¬":9357,"ëĵ¤ìĹĲìĦľ":9358,"ìĨĮë°©":9359,"Ġì§ĳê¶Į":9360,"Ġë³µë¬´":9361,"Ġâĳ":9362,"Ġíģ¬ë¦¬ìĬ¤íĭ°":9363,"ĠìĦĿìľł":9364,"ìŀĺ":9365,"ìĤ¬ê±°ë¦¬":9366,"ĠìĸĳìĿĺ":9367,"ì²ĺë¥¼":9368,"ê°ĢìļĶ":9369,"ìŀĲë¡ľìĦľ":9370,"ĠëĤĺìķĦê°Ģ":9371,"ì¤ĳìĿĺ":9372,"ìĬ¤íĨ¤":9373,"Ġê¸Īë©Ķëĭ¬ìĿĦ":9374,"Įë¦°":9375,"Ġì°¸ìĹ¬íĸĪëĭ¤":9376,"ì¹´ìĬ¤":9377,"ìŀĳìĤ¬":9378,"ìĹ¬ìŀĲëĮĢíķĻêµĲ":9379,"ĠìĪĺë¹ĦìĪĺ":9380,"ĠíĢĺ":9381,"ìĸĳìĿĦ":9382,"ĠìĹĨìĿĦ":9383,"Ã¶":9384,"Ġëįľ":9385,"Ġì¡°ì§ĢìķĦ":9386,"íķĺìĹ¬ìķ¼":9387,"Ġë°©ë©´":9388,"Ġë¬´ìļ©":9389,"Ġë¶Ħíķ´":9390,"ì´":9391,"ëĲĺëĬĶëį°":9392,"Ġì²ľë¬¸ëĮĢ":9393,"Ġet":9394,"ĠìĹ¬ìĦ¯":9395,"Ġë¹Įë³´ëĵľ":9396,"ë¶Ħìľ¼ë¡ľ":9397,"ĠìĹĲë¦Ń":9398,"ĠíķŃêµ¬":9399,"ĠÂ":9400,"ĠRes":9401,"Ġì§ĳìĹĲ":9402,"ëĿ½ìĿĦ":9403,"ĠíĬ¹ì§ķìĿ´ëĭ¤":9404,"Cl":9405,"ë¯¸ìķĦ":9406,"Ġed":9407,"ĠìłķìĪĺ":9408,"ë¹Ħë¡ľ":9409,"Ġê²ĢíĨł":9410,"ë¡łìĿ´":9411,"ë¦ĩ":9412,"Ġë·°":9413,"mìĿĺ":9414,"Ġìŀħê³ł":9415,"Ġìĸµìłľ":9416,"TS":9417,"ìĭĿê³¼":9418,"Ġêµ³":9419,"ìĦ¸íĬ¸":9420,"Ġëħ¼ë¦¬":9421,"ìĦ¸ì¢ħ":9422,"ìī½":9423,"ĠìĿ¼ìļĶìĿ¼":9424,"ìĥĺ":9425,"ë¬¼ìĹĲ":9426,"Ġíģ¬ë¡ľìķĦíĭ°ìķĦ":9427,"EL":9428,"ĠëıĦìĭľìĿĺ":9429,"Ġëª¸ìĿĦ":9430,"Ġì½ľë¡¬":9431,"ĠìĽĲì£¼ë¯¼":9432,"Ġê°Ģì¹ĺê°Ģ":9433,"Ġë¬¸ìĿĦ":9434,"ë¯¸ìĬ¤":9435,"ĠëĤĺëĪĦìĸ´":9436,"Ġê°ľë³Ħ":9437,"Ġìļ´ìĺģíķĺê³ł":9438,"Ġê²¸ìŀĦ":9439,"ĠìĿ¸ëĶĶìĸ¸":9440,"style":9441,"Ġì¦īìĭľ":9442,"ì¹ĺìĹĲ":9443,"ìĭ±ê¸Ģ":9444,"Ġë°°íĭĢ":9445,"ĠëĨįì´Į":9446,"ren":9447,"1939":9448,"ìĥĿìĿĦ":9449,"rat":9450,"ë¯¸ì¦Ī":9451,"ĠJR":9452,"ĠìĻĦë²½":9453,"ĠêµŃíĨł":9454,"ĠGo":9455,"ĠëĤĺëīľëĭ¤":9456,"ĠëıĮíĮĮ":9457,"1951":9458,"Ġì£¼ê¸°":9459,"Ġê·¸ê²ĥìĿ´":9460,"ĠNational":9461,"ĠìĨįíķ´":9462,"ĠëĤ´ìļ©ìĿ´":9463,"êº¼":9464,"ë£¨ìĪĺ":9465,"Ġíİ¸ìĿĺ":9466,"ML":9467,"Ġë°ķìłķíĿ¬":9468,"Ġìĭłê³ł":9469,"ëĮĦ":9470,"ë¡ľìį¨":9471,"Ġ02":9472,"Ġë³ĳìĦ¤":9473,"ĠëĤĺíĥĢëĤ¬ëĭ¤":9474,"íĺĦìŀ¬ìĿĺ":9475,"ĠëĤĺê³łìķ¼":9476,"Ġor":9477,"Ġê¶Įë¦¬":9478,"èĬ±":9479,"ëŀ©":9480,"ner":9481,"ĠëıĮìķĦìĺ¨":9482,"Ġì¶Ķê¸°":9483,"ë§ĿìĿĦ":9484,"ĠìŀĲëŀĳ":9485,"Ġëį°ìĹĲ":9486,"ĠíķĦìĪĺ":9487,"ĠìłĦë°ĺê¸°":9488,"Ġle":9489,"ĠìĿ¼ì»":9490,"ì°¨ëĬĶ":9491,"Ġìĸ¸ëįķ":9492,"Ġìĵ°ëŁ¬":9493,"å°ĩ":9494,"Ġìĺ¤ì§ģ":9495,"ĠìłľëĦ¤":9496,"Ġì§ĪíĻĺ":9497,"ë§Įíķľ":9498,"ĠëªħìĺĪìĿĺ":9499,"ĠëŃ":9500,"ĠìĿ¼ì»«":9501,"ê·łê´Ģ":9502,"ë¡ľë°ĶíĤ¤ìķĦ":9503,"Ġ1921":9504,"Ġ1925":9505,"Ġë¬´ë¹Ħ":9506,"ì²Ńìŀ¥":9507,"Ġë³µìĽĲ":9508,"Ġëį©":9509,"Ġìŀħëł¥":9510,"ê¸Ģë¡ľ":9511,"ì§Ģë°©ë²ķìĽĲ":9512,"ê°ķìłĦ":9513,"Ġìĵ°ìĹ¬":9514,"Ġ1923":9515,"Ġìĺ¤ì¼Ģ":9516,"ĠëĤĺëĿ¼ìĿĺ":9517,"âĢľ":9518,"Ġë¹ĦìĦľ":9519,"Ġë¹ļ":9520,"1942":9521,"Ġìĭ¬íĮĲ":9522,"ĠìĤ½ìŀħ":9523,"ĠìľĦëĮĢíķľ":9524,"ëª¬ëĵľ":9525,"Ġíİĺë¥´ìĭľìķĦ":9526,"ĠMusic":9527,"CN":9528,"ë¯¸ëŀĺ":9529,"ĠìŀĦì§ĦìĻľëŀĢ":9530,"ë£½":9531,"Ġê²°ìĬ¹ìłĦ":9532,"ĠìĿĺë¯¸íķĺëĬĶ":9533,"Ġãĥ":9534,"ĠìĿ´ê´Ģ":9535,"Ġìłķê¶Į":9536,"Ġë©Ī":9537,"Ġì¡¸ìĹħíķĺê³ł":9538,"ere":9539,"íı¬ë¥´íĪ¬ê°Ī":9540,"ĠíĥĢìŀħ":9541,"Ġíı¬íķ¨íķĺëĬĶ":9542,"ĠìķĦë²Ħì§ĢìĿĺ":9543,"Ġë¯¸ë¦¬":9544,"Ġìĺ¤ëĶĶìħĺ":9545,"ĠìľłëĭĽ":9546,"ĠëıĦëįķ":9547,"ì²ľë¦¬":9548,"ìĺ¨ìĿĢ":9549,"ëĬĶì§Ģ":9550,"ê·¸ë¡ľ":9551,"ìĹī":9552,"Ġìĭľê°Ģ":9553,"íĶĮëĿ¼":9554,"ĠìĿ´ìĦ¸":9555,"ĠìĿĺìĭ¬":9556,"ëª¨ìĿĺ":9557,"Ġíı¬íķ¨ëĲľëĭ¤":9558,"ìĤ¬ìļ°ë£¨ìĬ¤":9559,"ĠìķĮëłīìĤ°ëĵľ":9560,"ìļ°ìĬ¤ìĿĺ":9561,"ëįķìħĺ":9562,"è¦ĭ":9563,"RA":9564,"ĠëĸłëĤ¬ëĭ¤":9565,"Ġcol":9566,"Ġë²¡íĦ°":9567,"Ġë¸Ķë¡Ŀ":9568,"ĠëģĮìĸ´":9569,"Ġê°ĸëĬĶëĭ¤":9570,"ors":9571,"ëŁ°ìĬ¤":9572,"ĠëıĮëł¤":9573,"Ġë²¨ëĿ¼":9574,"âī":9575,"ìķħê¸°":9576,"ĠìŀĳíĴĪìľ¼ë¡ľ":9577,"Ġê´ĳë²ĶìľĦ":9578,"ìĽ¨ìĿ´ìĿĺ":9579,"¤ëĭ¤":9580,"ìĸ´íķŃ":9581,"íĬ¸ë¡¤":9582,"ĠëĤ¨ê·¹":9583,"Ġëª°ìķĦ":9584,"ìŀĲíĿĲ":9585,"ĠìľĦíĤ¤":9586,"ari":9587,"ĠíķľìŀĲ":9588,"ĠëĮĢíļĮìĹĲ":9589,"Ġëĵ¤ìĸ´ê°Ķëĭ¤":9590,"ĠëıĻë¶ģ":9591,"íı¬ë¥¼":9592,"ĠìĿ¼ë³¸ìĿ¸":9593,"app":9594,"ìĬ¤ì¼ĢìĿ´íĮħ":9595,"ë§Īë¥¼":9596,"ĠìĻķìĿĺ":9597,"Ġê³¨ìĿĦ":9598,"Ġ1926":9599,"íĥĢìĿ´ìĻĦ":9600,"ç«ĭ":9601,"ìŀĲëĵ¤ìĹĲê²Į":9602,"Ġ1922":9603,"ĠìķĦíħĮëĦ¤":9604,"ê³ĦíĨµ":9605,"ê¶ĮëıĦ":9606,"Ġìķī":9607,"ìłĦêµŃ":9608,"Ġê°ĸì¶Ķê³ł":9609,"íĮĮë¡ľ":9610,"ĠëĮĢë¶Ģë¶ĦìĿ´":9611,"ĠìĿ¼ìłķíķľ":9612,"Ġë¶Ģë¶ĦìĿĢ":9613,"TA":9614,"ĠìĿ´ëħ¸":9615,"ument":9616,"ì¦Īê°Ģ":9617,"ì¿¼":9618,"way":9619,"Ġê³±":9620,"ĠíķĺìĿ¸":9621,"Ġì£¼ìłľ":9622,"íĮĮê°Ģ":9623,"å®Ī":9624,"íĥĢìĬ¤":9625,"ìļĶì½Ķ":9626,"Ġë²ķìłķ":9627,"íħĲëıĦ":9628,"ìĥīìľ¼ë¡ľ":9629,"ĠìĿ´ë£¨ê³ł":9630,"Ġìľłê³ł":9631,"ìĿ¼ë³¸êµŃìľłì²łëıĦìĿĺ":9632,"Ġì°¸ê°ĢíĸĪëĭ¤":9633,"Ġê³³ìľ¼ë¡ľ":9634,"ĠìĦ±ê³µìĿĦ":9635,"Ġla":9636,"Ġãģ":9637,"Ġë¶Īëł¸ëĭ¤":9638,"Ġì¿łëį°":9639,"ëĭĪìĻĢ":9640,"ë£¨ë¯¸":9641,"ĠëĮĢìĽĲ":9642,"íĮĮíģ¬":9643,"ìĸ¸ìĸ´":9644,"Ġë¯¸ìĬ¤":9645,"Ġë³¸ì§Ī":9646,"è«ĸ":9647,"Ġêµ¬ìĽĲ":9648,"ĠìĹ°ìķł":9649,"íĬ¸ìĹĲ":9650,"Ġíĳľë©´":9651,"ĠìĻķì¡°ìĿĺ":9652,"Ġê²ĮìŀĦìĿ´ëĭ¤":9653,"aj":9654,"Ġ54":9655,"ë²ķìľ¼ë¡ľ":9656,"ĠëıĮìķĦìĻĢ":9657,"ĠìĹ´ì°¨ê°Ģ":9658,"ĠìķĦìĿ´ìĬ¤íķĺíĤ¤":9659,"ìĭľëħ¸":9660,"Ġ1927":9661,"Ġë°ľì¡±":9662,"Ġê´Ģì§ģ":9663,"Ġê°Ĳìłķ":9664,"Ġìŀħìŀ¥":9665,"ĠíĶĮëłĪìĿ´ìĸ´":9666,"Ġë¸ĮëĿ¼ìĿ´ìĸ¸":9667,"ĠëłĪìķĮ":9668,"ĠìŀĪìĹĪê¸°":9669,"ĠíĥĲíĹĺ":9670,"ë°Ń":9671,"ê²½ìĿĢ":9672,"íĺĦìĿĦ":9673,"íĥĲìłķ":9674,"ê°ĲìĿ´":9675,"ĠìłĲìĿ´":9676,"ĠìĹ°ê³ł":9677,"Ġê³łìĸĳìĿ´":9678,"Ġìļ°ë¦¬ëĬĶ":9679,"Ġê³µê²©ìĪĺ":9680,"Ġê¸°ëıĻ":9681,"Ġëª©íı¬":9682,"Ġë²Īíĺ¸":9683,"ĠìĥģíĻ©ìĿĦ":9684,"Ġ00":9685,"ì£¼ê°Ħ":9686,"ç¬":9687,"Ġê¸°ëĳ¥":9688,"ener":9689,"ĠìľĦì¹ĺë¥¼":9690,"ĠCar":9691,"ê¸ĪìĿ´":9692,"ĠEng":9693,"ĠëĮĢíĨµëł¹ìĿĢ":9694,"de":9695,"ĠìĹ°ìĿ¸":9696,"Ġê¸°ëıĦ":9697,"ĠOff":9698,"ë§Ľ":9699,"Ġë¯¼ë²ķ":9700,"Ġì§ĳê³Ħ":9701,"íĬ¹íŀĪ":9702,"ê³łì¿ł":9703,"ĠëłĪì§Ģ":9704,"Ġê°Ģìĥģ":9705,"íĨłìĬ¤":9706,"ëĶľ":9707,"Ġë³´íĹĺ":9708,"ëį°ìĿ´íĬ¸":9709,"ĠìŀĪìĹĪëĭ¤ê³ł":9710,"åĽ½":9711,"ĠíķľìĿ¼":9712,"ë¸Įë¦¬ì§Ģ":9713,"å¯§":9714,"Ġìķ¨ëŁ°":9715,"Ġë²Ĺìĸ´ëĤĺ":9716,"æ¹":9717,"Ġì¢Įìļ°":9718,"çģ":9719,"ëĿ¼ë¥¼":9720,"Ġìĺģíĺ¼":9721,"Ġëĭ¨ì¸µ":9722,"ë§·":9723,"ĠìĤ¬ì´Į":9724,"ëĲĺì§Ģë§Į":9725,"Ġë§Įíķľ":9726,"íıīíĻĶ":9727,"ìĹ¬ëĭ¨":9728,"ĠìľłíĨµ":9729,"Ġë§Įëĭ¤":9730,"Ġì±ħìŀĦìĿĦ":9731,"ĠíĮĶëłĪ":9732,"íŀĪë©Ķ":9733,"Ġëĵľë¦¼":9734,"Ġë²Īì£¼":9735,"Ġë°ĺëŀĢìĿĦ":9736,"Ġê°Ģê³ł":9737,"Ġíķ©ëıĻ":9738,"ì¤ĳíķľ":9739,"ë¡Ģë¥¼":9740,"Ġìĭ±ê°Ģíı¬ë¥´":9741,"ĠìĽ°":9742,"ë¬´ìĬ¤":9743,"ë¦¬ìļ°ìĬ¤":9744,"Ġ95":9745,"ĠìĬ¤íĭ¸":9746,"ĠëıĦì¿łê°ĢìĻĢ":9747,"éłĨ":9748,"Ġì£¼ìłľê°Ģ":9749,"Ġì¶Ķê°Ģë¡ľ":9750,"Ġë°©ìĸ¸":9751,"Ġë¯¸êµŃê³¼":9752,"ìĬ¬ëĿ¼ë¹ĦìķĦ":9753,"ĠíĶ½ì²ĺìĬ¤":9754,"ì¡±ìĿ´":9755,"ĠíİĺìĬ¤íĭ°ë²Į":9756,"ĠíĶĦë¦¬ëĵľë¦¬íŀĪ":9757,"Ġë±Ģ":9758,"Ġìĺ¤ìĿ´":9759,"ë¬´ê¸°":9760,"Ġì§Ģë°Ķ":9761,"ĠëĤ¨ìĸĳ":9762,"ĠíıŃëł¥":9763,"ìºĲìĬ¤íĮħ":9764,"Ġìĭ¤ëĤ´":9765,"ìĹĲìĦľë¶ĢíĦ°":9766,"ĠFran":9767,"ĠìķĦë¹ł":9768,"Ġìŀ¬ëĬ¥":9769,"è¬":9770,"ĠìĿ´ìĥģìĿ´":9771,"ìĬ¤íħĶ":9772,"site":9773,"ìŀ¬ìľĦ":9774,"Ġë§ĮíĻĶê°Ģ":9775,"Ġì¸¡ë©´":9776,"ĠìĤ¬ìļ°ìĬ¤":9777,"ĠìłķìĽĲ":9778,"Ġíİĳ":9779,"Ġë°ľíĥģ":9780,"Ġíģ´ë¦¬":9781,"ĠìĤ¬ëŀĳìĿĺ":9782,"ë§Īë±Ģ":9783,"ĠHistory":9784,"íĶĦìĬ¤":9785,"ĠìĿ´ê²½":9786,"Ġíĥĵ":9787,"ìĺ¤ë¡ľ":9788,"ĠíĥĢì¼Ģ":9789,"ìĭ¤ë¡ľ":9790,"æ´¾":9791,"Ġì°©ìļ©":9792,"Ġì§ĢëĭĪê³ł":9793,"ìķĦë¥´íĹ¨íĭ°":9794,"ĠëĮĢëıĻ":9795,"Ġë³´ìĿ´ì§Ģ":9796,"ĊĠĠĠ":9797,"Ġë§ĲìĿ´":9798,"ĠëĿ½":9799,"ìĪĺìĹĺ":9800,"Ġê³łë²ł":9801,"ĠìŀĲë¦¬ìŀ¡":9802,"Ġì§Ģíĸ¥":9803,"Ġê°ľë°©":9804,"ĠëĲĺëıĮ":9805,"ëĵ±ë¡Ŀ":9806,"Ġê°ľëŁī":9807,"ìľłê°Ģ":9808,"Ġë¬¼ìĿĦ":9809,"Ġê¸°ëĭ¤":9810,"ĠìĦłíı¬":9811,"ìĻ¸êµŃ":9812,"hel":9813,"hem":9814,"ê²½ê¸°ëıĦìĿĺ":9815,"ê°ķìĹĲ":9816,"Ġê·¸ëŀľëĵľ":9817,"Ġìĺģê´ĳ":9818,"ìĦ¸ìļĶ":9819,"1943":9820,"ble":9821,"Ġê·ľìĬĪ":9822,"ê¸°ê³Ħ":9823,"ĠìĿ¸ê¸°ê°Ģ":9824,"ì¸łìĿĺ":9825,"ĠëĵľëŀĺíĶĦíĬ¸":9826,"Ġåī":9827,"ĠìĤ¬ì¿łëĿ¼":9828,"Ġê·¼ë¡ľ":9829,"Ġë°ĿíĺĢì¡Įëĭ¤":9830,"ĠìĿ´ìĻ¸ìĿĺ":9831,"ê°ľêµŃ":9832,"ëª¨ëĭĪ":9833,"ĠìĥĪë²½":9834,"Ġ600":9835,"ĠìĿ´ìĽĲ":9836,"ì¹´ë¥´":9837,"ĠìĦľìĪł":9838,"ĠInternational":9839,"1936":9840,"Ġê¸°ë¡ĿìĿĢ":9841,"èı¯":9842,"ëĵ±ìĿ´":9843,"ë¥ĺëĬĶ":9844,"ĠBBC":9845,"ĠìĤ¬ìĿ´íģ´":9846,"Ġê³łìľĦ":9847,"Ġì°¨ëĭ¨":9848,"ĠíĻĶëł¤":9849,"ĠíķŃê³µê¸°":9850,"ìĥģìĹħ":9851,"Ġì´Ŀìŀ¬":9852,"è·¯":9853,"ë²ķë¥ł":9854,"Ġíķłë¨¸ëĭĪ":9855,"ĠíĻľìķ½ìĿĦ":9856,"ĠìĹ°ë£Į":9857,"ìĽ¨ìĿ´íĬ¸":9858,"ĠëĮĢë³Ģ":9859,"ê·¸ëĿ¼":9860,"Ġë¬¸ìłľìĹĲ":9861,"ĠìĿ¸ëıĦìĿĺ":9862,"Ġê¿":9863,"Ġë¸ĮëĿ¼ì§ĪìĿĺ":9864,"æĺŁ":9865,"ê²°ìĬ¹ìłĦ":9866,"ë¦°ìĿĺ":9867,"Ġìŀ¬íķĻ":9868,"ëŁ°íĬ¸":9869,"ëĬĲëĥĲ":9870,"ìķĦëĵ¤":9871,"Ġì²©":9872,"ĠGl":9873,"oo":9874,"ĠìĦ¤ë¦½ìĿ¸ê°Ģ":9875,"Ġëªħëł¹ìĿĦ":9876,"ĠíĽĦìŀĦ":9877,"ë¹ĦíŀĪ":9878,"Ġê·¸ëŀĳ":9879,"ĠìĨĲìĿĦ":9880,"ĠìĬ¤íĨ¤":9881,"ĠìĻ¸ë¬´":9882,"ìķĦê³¼":9883,"Ġìĭľë§Ī":9884,"ĠìļĶë¯¸":9885,"Ġë°©ìĭĿìĿĦ":9886,"ĠìĦľìļ¸ìĭľ":9887,"ĠìĤ¬íĩ´":9888,"ĠìĥģìĿĦ":9889,"íĬ¸ì½¤":9890,"Ġì§ĢìłĲ":9891,"ìłľêµŃìĿĺ":9892,"1930":9893,"Ġì¢ĭì§Ģ":9894,"ì°½êµ°":9895,"å®ĭ":9896,"ĠíķľíĻĶ":9897,"ĠGr":9898,"ìľ¡êµ°":9899,"Ġdes":9900,"ëª¨ê°Ģ":9901,"ĠìĿĮìĦ±":9902,"Ġíĺ¸íĿ¡":9903,"ìĭľë§ĪíĺĦ":9904,"Ġëĭ®":9905,"Ġ56":9906,"ì´Ŀìŀ¥":9907,"ĠComm":9908,"ìķĪìĿ´":9909,"OK":9910,"ĠáĦ":9911,"ë¦°ìĿĢ":9912,"ëł¹ìĿĺ":9913,"Ġê°Ģë§Ī":9914,"ĠìĦ±ì§ģ":9915,"Ġíģ¬ëĭ¤":9916,"ĠìĦłìĪĺëĭ¨":9917,"Ġê²°ìĿĺ":9918,"Ġì´ĪìĹĲ":9919,"ĠíĹĪê°Ģ":9920,"åĲĪ":9921,"ìĨįìĿĺ":9922,"ë¹¨":9923,"ĠíķŃìĿĺ":9924,"ĠëĮĢìļ°":9925,"Ġì§ĳíķĦ":9926,"ì¡°ì°¸":9927,"ìĿ´ëŁ¬íķľ":9928,"ìħ¸":9929,"Ġë§Įëĵ¤ê¸°":9930,"ĠêµĲêµ¬":9931,"Ġëªħì¹ŃìĿĦ":9932,"Ġê°±":9933,"ĠìĹ°ê²°ëĲĺìĸ´":9934,"TP":9935,"èĳ":9936,"Ġë¼Ī":9937,"ĠëĲĺëĬĶëį°":9938,"ĠëªħëĤĺëĿ¼":9939,"Ġê²ĮìŀĦìĿĺ":9940,"ĠìĬ¤ë¯¸ìĬ¤":9941,"Ġê°ľì²´":9942,"åĲį":9943,"Ġìĺģêµ¬":9944,"ëŁ¬ë¸Į":9945,"íİ¸ìĿĺ":9946,"ì¡°ì°¨":9947,"ĠìĭłìĿĺ":9948,"ĠíĶĦë¡ľìĿ´ìĦ¼":9949,"ìĬ¤ì½ĶíĭĢëŀľëĵľ":9950,"ĠìķĪíĨłëĭĪ":9951,"ë¸ĮëĿ¼ì§ĪìĿĺ":9952,"Ġë¹¨ê°Ħ":9953,"Ġì§ĦíĸīìŀĲ":9954,"ìķĦì¹´ëį°ë¯¸":9955,"Ġë¦¬ìĬ¤íĬ¸":9956,"ĠìĹĨê²Į":9957,"uss":9958,"ĠìĻĢì¹´":9959,"Ġë³µìĿĮ":9960,"Ġì¹´ë©Ķ":9961,"Ġë£¨ë§ĪëĭĪìķĦ":9962,"Ġì§ĢìĨįìłģìľ¼ë¡ľ":9963,"íķĺë¥´íĬ¸":9964,"Ġíķľìĭł":9965,"ëłĪìĿ´íĦ°":9966,"Ġì£¼ìŀ¥ìĿĦ":9967,"íķŃìĿĦ":9968,"íģ¬ëĿ¼":9969,"ĠìłĦìŁģìĹĲ":9970,"ater":9971,"Ġê·¼ì²ĺìĹĲ":9972,"ë¯¼ìĿĺ":9973,"ĠìĺģêµŃìĹĲìĦľ":9974,"ĠëĿĦ":9975,"Ġë©¸ì¢ħ":9976,"ĠìĿ´ë¥¸ëĭ¤":9977,"åĲİ":9978,"íļĮê´Ģ":9979,"ĠDay":9980,"Ġëĵ±ìŀ¥íķľ":9981,"ìļ©ìĿĺ":9982,"ĠíĻķìĤ°":9983,"âĹı":9984,"Ġëį°ë·ĶíĸĪëĭ¤":9985,"æ¨Ĥ":9986,"ëıĮíĶĦ":9987,"ĠëıĦìĦľ":9988,"Ġêµ°ìĿ´ëĭ¤":9989,"ĠìĺģìĽĲ":9990,"ĠìĭłëıĦ":9991,"Ġìĸ´ë¨¸ëĭĪëĬĶ":9992,"ìĬ¹ê°ķ":9993,"ì´ĪìĹĲ":9994,"ê¸ĪìĿĢ":9995,"ëĲĺê±°ëĤĺ":9996,"ìĹ°ê·¹":9997,"íĥĢì¼Ģ":9998,"íģ´ëłĪ":9999,"Ġì§ĢìĥģìĹŃìĿ´ëĭ¤":10000,"Ġë°©ìĨ¡ìĿĦ":10001,"ë¥´ë°Ķ":10002,"ëıĦìĤ¬":10003,"íĮĮìĿ¼":10004,"ĠìĤ¬ëŀĮëĵ¤ìĹĲê²Į":10005,"ĠìķĦëĵ¤ìĿ¸":10006,"Ġê³łêµĲ":10007,"ĠìĤ¬ìļ©íķĺìĺĢëĭ¤":10008,"Ġë³Ģìĭł":10009,"Ġë³µìŀ¡íķľ":10010,"ĠUN":10011,"åħ§":10012,"ìĿ¸ëıĦìĿĺ":10013,"ĠAnd":10014,"ëİ":10015,"ìĹŃíķĻ":10016,"ĠíŀĪíĭĢëŁ¬":10017,"ĠìĤ¬ê±´ìĿĺ":10018,"Ġì°©ê³µ":10019,"Ġì¥¬":10020,"ìľłë¡ľ":10021,"ëĬ¥ëł¥":10022,"ìĺ·":10023,"ëĤĺë§Ī":10024,"Ġì±ħìĿĦ":10025,"Ġ1900":10026,"Ġê¶Įëł¥":10027,"Ġ1912":10028,"fer":10029,"ĠìĤ¬ê²©":10030,"ĠëłĪë²¨":10031,"ë°ľìĿĦ":10032,"ĠìĪĺë£Į":10033,"ĠRev":10034,"ĠìĿ´ë³µ":10035,"ĠìŀĪìĿĮ":10036,"inc":10037,"ë³ĳëĮĢ":10038,"Ġê·¸ê³³ìĹĲìĦľ":10039,"Ġê°Ģë¯¸":10040,"ĠíĺķìĭĿìľ¼ë¡ľ":10041,"ìĭľìĬ¤íĬ¸":10042,"ana":10043,"Ġëį°ë·ĶíķĺìĺĢëĭ¤":10044,"ê¸°ë³¸":10045,"Ġì§ģìłĦ":10046,"éĩį":10047,"ĠCF":10048,"ĠìĦ¸ëł¥ìĿĦ":10049,"ìĨįìĹĲ":10050,"ĠìĬ¹ë¶Ģ":10051,"Ġìŀ¬ìŀĦ":10052,"Ġë¸Įë¡ľ":10053,"ëĶĶìķĦëĿ¼ë¹ĦìķĦ":10054,"ĠìĦłìĥĿëĭĺ":10055,"ìłĦì²´":10056,"Ġìŀ¬ìĤ°":10057,"ĠìĿ´ìłĦìĹĲëĬĶ":10058,")-":10059,"Ġìŀħë²ķ":10060,"Ġë³ĦëıĦìĿĺ":10061,"Ġex":10062,"ĠìķĦì¼Ģ":10063,"ìĿ¸íĦ°ëĦ·":10064,"air":10065,"æĨ":10066,"ĠìŀĲê°Ģ":10067,"LA":10068,"Ġê°Ĳìĭľ":10069,"ĠëĮĢì²´ë¡ľ":10070,"ì°¸ìĹ¬":10071,"ç¦®":10072,"Ġì§Ģì§Ģë¥¼":10073,"Ġëª¨íĦ°":10074,"ĠìĹ¬ìĪĺ":10075,"Ġìłķë¥ĺ":10076,"ĠYork":10077,"ë°ľë§¤":10078,"íķľêµŃë°©ìĨ¡":10079,"åŁº":10080,"ebsite":10081,"Ġrowspan":10082,"Ġëŀĳ":10083,"Ġë§ĲëłĪìĿ´ìĭľìķĦ":10084,"ĠìķĪíĥĢ":10085,"ĠìĻ¸ê³Ħ":10086,"Ġâī":10087,"ĠìĹ¬ìĦ±ìĿĺ":10088,"ŁĪ":10089,"ral":10090,"ĠìĺĪë°©":10091,"Ġê´Ģê°Ŀ":10092,"ĠëĮĢëŁī":10093,"åĶ":10094,"ĠìĿ´ë£¨ëĬĶ":10095,"ĠìħĶ":10096,"ĠìĦ¼íĬ¸":10097,"ĠìĨĮìĬ¤":10098,"Ġê³³ìĿ´ëĭ¤":10099,"é»ĥ":10100,"ìĸ´íĬ¸":10101,"Ġìĺ¬ë¦¼íĶ½ìĹĲ":10102,"ĠìľĹ":10103,"íıīìĿĦ":10104,"ìļ´íĸī":10105,"ĠëĶ°ìĦľ":10106,"ris":10107,"ĠëĮĢìĥģìĿ´":10108,"íĶĦë¡ľëĵĢìĦľ":10109,"li":10110,"Ġë¶ĦìŀĲ":10111,"ĠíĬ¸ëĿ¼ìĿ´":10112,"Ġë§ŀìĦľ":10113,"Ġìłĳíķľëĭ¤":10114,"Ġíĺ¼ìĿ¸":10115,"ì¹¸ìĦ¼":10116,"ë©Ģ":10117,"ìŀĲë§¤":10118,"Ġìıĺ":10119,"Ġìľłì¹ĺ":10120,"ĠìĤ°íķĺ":10121,"ĠëĤ¨ìª½ìľ¼ë¡ľ":10122,"ĠSci":10123,"íĽĦìĹĲ":10124,"ĠìĻķìĿ´":10125,"ë§ĮìĽĲ":10126,"Ġì£¼ë¦½":10127,"Ġíķ´ë°ľ":10128,"ĠÃ":10129,"ì¹´ë¥¼":10130,"Ġë§ĪìĤ°":10131,"âĢ¢":10132,"ĠìĦ¸ê³Ħìłģìľ¼ë¡ľ":10133,"ĠìĿ´ìĸ´ì§ĢëĬĶ":10134,"ìĺģìĤ¬ê´Ģ":10135,"Ġê³µë£¡":10136,"çī©":10137,"Ġì¤Ħìĸ´ëĵ¤":10138,"Ġë§Īì²ľë£¨":10139,"ĠGe":10140,"ë¦¬ìĹĲìĦľ":10141,"ë¶Ģìŀĳ":10142,"ĠëıĻë°ĺ":10143,"ìľłíķľ":10144,"ìĪŃìĿ´":10145,"ĠSP":10146,"Ġì°¨ëĤ¨":10147,"Ġì·¨ë¦¬íŀĪ":10148,"ì¤ĳìĭ¬":10149,"ãģ¦":10150,"æĹı":10151,"Ġëª¨ìĿĮ":10152,"ĠíķľêµŃë°©ìĨ¡":10153,"íĥĦìĥĿ":10154,"ĠìĤ¬ê±´ìľ¼ë¡ľ":10155,"ĠíĬľ":10156,"Ġì´Īê¸°ìĿĺ":10157,"ĠìĬ¤ìĽ¨ëį´ìĿĺ":10158,"Ġê·¸ëĿ¼":10159,"ĠìĦ±ì§Ī":10160,"Ġìĺ¤íĶĦëĭĿ":10161,"ĠìĪĺìĪł":10162,"ìĭ¤ìĹĲìĦľ":10163,"ìľĪëıĦìļ°":10164,"Ġì¶Ķë°©":10165,"Ġê°Ħëĭ¤":10166,"ìĦ¸ì¸ł":10167,"Ġë©ĶíĬ¸ë¡ľ":10168,"ìłķìĥģ":10169,"Ġê¸īíĸī":10170,"èĭ±":10171,"ĠìĨĮìĨįìĿĺ":10172,"Ġë¶Ħìķ¼ìĹĲìĦľ":10173,"ĠìĤ¬íĺķ":10174,"ĠëĤ¨ëħĢ":10175,"ĠëıĻêµ¬":10176,"Ġìĭłë¶Ģ":10177,"ĠMon":10178,"Ġë°ĿìĿĢ":10179,"ë²¤ì²ĺ":10180,"ãĤ·":10181,"Ġë°ĢëĿ¼ëħ¸":10182,"du":10183,"Ġë°ĺìĿĳìĿĦ":10184,"ìĹ°ìĿĦ":10185,"ĠAP":10186,"ç¦ı":10187,"ĠìĦłì¶ľëĲĺìĹĪëĭ¤":10188,"Ġì§Ģêµ¬ìĿĺ":10189,"Ġìľłì¹ĺìĽĲ":10190,"Ġìĸĳìª½":10191,"ĠìĿ´ìĪľ":10192,"ìĤ¬ì¶Ķ":10193,"Ġê³µê°ľëĲĺìĹĪëĭ¤":10194,"Ġìĥģìĭ¤":10195,"íĻĺìľ¼ë¡ľ":10196,"Ġë°Ģëł¤":10197,"ĠëıĦë¡ľìĿ´ëĭ¤":10198,"ĠëĤłê°ľ":10199,"Ġì¡°ê±´ìĿĦ":10200,"ĠìŀĳíĴĪìĿĺ":10201,"ĠìĬ¤íĬ¸ëĿ¼ìĿ´":10202,"Ġê²ī":10203,"Ġê°ĢëģĶ":10204,"ĠìĿ¼ìĿĢ":10205,"ĠëĤĺíı´ëłĪìĺ¹":10206,"ĠìĦłíĺ¸":10207,"íĸĪëĭ¤ê°Ģ":10208,"Ġë¶Ģì§Ħ":10209,"ëħĦë¶ĢíĦ°ëĬĶ":10210,"ëª¸":10211,"Ġë°ľìĥĿíķĺìĺĢëĭ¤":10212,"Ġìĭ¤ì²ľ":10213,"Ġ1907":10214,"Ġì²«ì§¸":10215,"ĠìĿ´ìĺ¨":10216,"Ġë°ĽìķĦëĵ¤ìĿ´":10217,"éĽ²":10218,"ĠëĤ©ì¹ĺ":10219,"Ġê¶Įë¦¬ë¥¼":10220,"ĠíİĺìĿ´ìĬ¤ë¶ģ":10221,"ĠìĪĺìĨĮ":10222,"Ġë§Īì£¼":10223,"ìķĦíĬ¸":10224,"ì£¼ìĭĿ":10225,"ĠìĤ¶ìĿĦ":10226,"ĠëĬĳ":10227,"ĠíĽĦë°ĺê¸°":10228,"ÃŃ":10229,"Ġë§ĮëĤľ":10230,"ĠWWE":10231,"Ġê¶Įëł¥ìĿĦ":10232,"Ġëĭ¤ìĿ´ìķĦ":10233,"ĠìŀĲëĿ¼":10234,"ĠìĿĺìŀ¥":10235,"íĽĦì§Ģ":10236,"ì½ĶëĬĶ":10237,"ĠíĨłë¡łíĨł":10238,"Ġë°ľëłĮ":10239,"400":10240,"ĠìĬ¤ì¹´ìĿ´":10241,"ê¸°ëıĻ":10242,"ë¸Įë£¨":10243,"Ġìĺ¤ëĬĶ":10244,"ĠSM":10245,"Ã³":10246,"Ġë¦¬ê°Ģ":10247,"ë¹µ":10248,"ìłķìĭł":10249,"ĠìĨĮìĦ¤ìĿĦ":10250,"Ġì§Ģë¶Ī":10251,"Ġê°ľìŀ¥":10252,"ë¦ĦìĿ´":10253,"Ġìĥģë¬´":10254,"Ġë¬´ìĿ¸":10255,"ĠìŀŃìĬ¨":10256,"ëª¨ë¡ľ":10257,"Ġìŀ¬ìĥĿ":10258,"ĠìĿ´ë¡ľìį¨":10259,"ĠëĤ¨ê²¼ëĭ¤":10260,"íĻľëıĻìĿĦ":10261,"ĠìķĦë²ł":10262,"ê³µìĤ¬ìĿĺ":10263,"ìĹħì²´":10264,"íıīêµ°":10265,"ĠëĵľëĿ¼ë§ĪìĿ´ëĭ¤":10266,"ìļ°íģ¬ëĿ¼ìĿ´":10267,"Ġê´Ģê³Ħë¡ľ":10268,"ë§Īëª¨íĨł":10269,"Ġíĺģìĭł":10270,"ìļ°ìĬ¤ëĬĶ":10271,"ĠìľłìĦ±":10272,"ĠìľłëĭĪë²ĦìĭľìķĦëĵľ":10273,"ê¼´":10274,"ĠìĭŃìŀĲ":10275,"Ġê¸°ë¡Ŀíķĺë©°":10276,"ĠInd":10277,"ĠìĿ¼ìľ¼ì¼°ëĭ¤":10278,"Ġì°¸ìĹ¬íķľ":10279,"Ġê³łê³ł":10280,"Ġë¬´ë¦":10281,"æŁ³":10282,"Ġìĥģíĥľë¥¼":10283,"Ġì¡´ìĬ¤":10284,"âĢĻ,":10285,"ë¶ĦìĦĿ":10286,"ĠíĶĮëłĪ":10287,"ë²ĦìĬ¤íĦ°":10288,"ĠìĿ´íĽĦìĹĲëıĦ":10289,"ĠìĤ¬ë§ī":10290,"ĠRec":10291,"ì§±":10292,"ê¸°ìĿ¸":10293,"Ġê°ĢìĦ¤":10294,"Ġë¶ģìķĦë©Ķë¦¬ì¹´":10295,"ĠíķľêµŃìĿ¸":10296,"ĠíĬ¸ëŁ¼":10297,"ĠìłĳìĨį":10298,"ĠAss":10299,"ì£¼ê³¡":10300,"ĠìľłíķĻ":10301,"Ġ800":10302,"Ġì§Ģíĺķ":10303,"ë§ĪìĤ¬":10304,"ë¯¸ìĹĲ":10305,"Ġì²Ńêµ¬":10306,"Ġê°ĢìĤ¬":10307,"ĠìłĦìĽĲ":10308,"ìĹŃìĹĲ":10309,"Ġëĭ¤ìĿĮìĿĺ":10310,"åŃ«":10311,"íŀĮëĭ¤":10312,"ĠìĿ´íĸī":10313,"Ġê°Ģê¹Ŀ":10314,"ĠìĿ´ëģĮìĹĪëĭ¤":10315,"Ġì¼ĢìĿ´ë¸Ķ":10316,"ëĤĺë¥¼":10317,"ĠìĿ´ë¥´ëłĢëĭ¤":10318,"ĠìµľëĮĢìĿĺ":10319,"ĠëĶĶì¦ĪëĭĪ":10320,"ĠëĲĺê¸°":10321,"ĠíĮ©":10322,"ald":10323,"ĠëĮĢíķľë¯¼êµŃìĹĲìĦľ":10324,"Ġì¶©ë¶ĦíŀĪ":10325,"êµŃë¦½":10326,"ë£¨ê³¼":10327,"åħŃ":10328,"Ġêµ¬ìĦ±ëĲľëĭ¤":10329,"ĠìĬ¤ì½§":10330,"ë²¨ê¸°ìĹĲ":10331,"Ġê¸°ë¡ĿëĲĺìĸ´":10332,"Ġìľłë°ľ":10333,"Ġì°¨ê´Ģ":10334,"Ġëĭ¨ìĪľíķľ":10335,"Ġì£¼ì§Ģ":10336,"Ġêµ¬ë©į":10337,"ë°°ë¥¼":10338,"æ¬Ĭ":10339,"Ġê³łê¸ī":10340,"Ġë¦¬íĭĢ":10341,"Ġíĺ¸ì£¼":10342,"íķľêµŃëĭ¹":10343,"ĠĠĠĠĊ":10344,"Ġê·¸ë§Į":10345,"Ġíĺ¸ëĬĶ":10346,"Ġìĭłìŀ¥":10347,"ãģ¾":10348,"ê²ĮëĬĶ":10349,"ĠëıĦë©Ķ":10350,"Ġëª»íķĺìĺĢëĭ¤":10351,"ĠíħĮëĭĪìĬ¤":10352,"oss":10353,"Ġ1917":10354,"Ġë³´ë¥´":10355,"ĠëĮĢì¡°":10356,"ìĦłê±°ê´Ģë¦¬ìľĦìĽĲíļĮ":10357,"ëĭĪê¹Į":10358,"ĠìłĦìŁģìĹĲìĦľ":10359,"ĠìĦľëªħ":10360,"Ġìķŀìľ¼ë¡ľ":10361,"ëģ¼ë¦¬":10362,"ê²½ì°°ìĦľ":10363,"ĠìĿ´íĺĦ":10364,"ê°ķìĿĦ":10365,"Ġì¡¸":10366,"ific":10367,"ĠëĤ±":10368,"è²ŀ":10369,"Ġë°©ë²ķìĿĢ":10370,"ë¦¬ìĺ¨":10371,"ìĻķìĿĢ":10372,"EO":10373,"íĮĿ":10374,"ĠìĪľìĦľ":10375,"ì°¨ìĿĺ":10376,"ĠëŁŃ":10377,"ì¤ĳìĿĦ":10378,"ëĳł":10379,"ĠíĶ¼ê²¨":10380,"íĥĢê°Ģ":10381,"ìĺĽ":10382,"Ġì¡°ìĦłë¯¼ì£¼ì£¼ìĿĺìĿ¸ë¯¼ê³µíĻĶêµŃìĿĺ":10383,"åķ":10384,"Ġê°Ģê³µ":10385,"Ġìĺ¤ë¹ł":10386,"ê¸°ìŀĲ":10387,"Ġê°Ģê¹ĮìĿ´":10388,"ĠìĮĢ":10389,"Ġê´Ģìĭ¬":10390,"ĠStud":10391,"ìĭľìłĪ":10392,"SK":10393,"ìĥĿëªħ":10394,"ĠìŀħìĤ¬":10395,"ìĦłê±°êµ¬":10396,"Ġíĳ¸ë¥¸":10397,"ĠíĿĳìĿ¸":10398,"Ġê°ľëħĲìĿĦ":10399,"Ġìĭ«ìĸ´":10400,"ĠìĿ´ì§Ħ":10401,"Ġêµ¬ë¯¸":10402,"íĶĮëŁ¬":10403,"ĠìĨĮìĭĿìĿĦ":10404,"Ġì¶Ķìłģ":10405,"ìĻĪ":10406,"ĠOf":10407,"ĠìŀĪìľ¼ë¯Ģë¡ľ":10408,"ĠìĿ¼ìĥģ":10409,"ì½ĶíĨł":10410,"ĠíķĻìŀĲ":10411,"íĭĢëŀľ":10412,"ë©ĶìĿ´íģ¬":10413,"ĠëĦ£ìĸ´":10414,"ê³°":10415,"âĢĶ":10416,"Ġê·¸ë¦¬ìĬ¤ìĿĺ":10417,"ëĨĪ":10418,"Ġíķľìĸĳ":10419,"ĠìŀħìĿĢ":10420,"Ġê°Ģìĵ°":10421,"ë§ĪëĬĶ":10422,"ĠìĿ´ë¥¸ë°Ķ":10423,"Ġåīį":10424,"MB":10425,"ëĿ":10426,"Ġê²½íĸ¥ìĿ´":10427,"NS":10428,"ĠíĻĢë¡ľ":10429,"íĺķìĤ¬":10430,"ë©Ķë¥´":10431,"ëł¬íķľ":10432,"uper":10433,"Ġì»¤ë®¤ëĭĪíĭ°":10434,"ë´Ħ":10435,"ëĭ¤ëĭĪ":10436,"ĠAC":10437,"Ġíģ¬ë¦¬ìĬ¤ë§ĪìĬ¤":10438,"Ġì£½ìĿĮìĿĦ":10439,"Ġë²Įìĸ´ì§Ħ":10440,"ĠìĿ¼ìľ¼ì¼ľ":10441,"ëĲĺê²Į":10442,"Pro":10443,"Ġë°©ìĨ¡ëĲľ":10444,"ĠìĿ¼ë³¸ìĸ´":10445,"ĠìŀĦë¬´ë¥¼":10446,"ĠìĹħë¬´ë¥¼":10447,"Ġì¢ħë£Įíķľ":10448,"ãĢı(":10449,"'t":10450,"Ġì±Įë¦°":10451,"Ġíģ¬ë¦¼":10452,"ĠìĿ´ëĵ¤ìĿ´":10453,"ìĤ¬ìŀĲ":10454,"Ġì¶ľìĹ°íĸĪëĭ¤":10455,"ë³¸ìĿĦ":10456,"ĠìĹĲëĶĶ":10457,"åŃ¦":10458,"ĠìĨĮìļĶ":10459,"ëĶ°ëĿ¼":10460,"Ġìĭ¸ìļ°":10461,"ĠíĥĳìĬ¹":10462,"ëĵĪ":10463,"ì¹ĺíĺĦ":10464,"ara":10465,"Ġëª©ìĪ¨":10466,"Ġíģ´ëĿ¼ìļ°":10467,"ĠëıĻìķĪìĹĲ":10468,"ĠAg":10469,"Ġê³µìłķ":10470,"Ġíķ´íĺĳ":10471,"ë°Ķìķ¼ìĭľ":10472,"ĠëĤĺíĥĢëĤ´":10473,"íķĺë¥¼":10474,"ìĹ´ìĿĦ":10475,"LG":10476,"ì¡°íĮĲìĦľ":10477,"ĠíĨłë§ĪìĬ¤":10478,"Ġê³ĦìĨįíķ´ìĦľ":10479,"ĠíķĺìĹ¬ê¸Ī":10480,"Ġê°ľìĿ¸ìĿĺ":10481,"ĠìĪĺìĥģíķĺìĺĢëĭ¤":10482,"ĠìĿ¼ëł¨ìĿĺ":10483,"con":10484,"Ġë¸Įëŀĺ":10485,"ĠìŀĲë¬¸":10486,"ìķ¼ìĬ¤":10487,"çħ":10488,"Ġë¦¬ëĵ¬":10489,"ĠìĤ¬ëıĦ":10490,"ĠìĤ¬ì¹´":10491,"ì¦Īë¥¼":10492,"íħĮìĬ¤":10493,"ìļ´íĬ¸":10494,"ëľ»":10495,"íķĺê¸°ë¥¼":10496,"ì¹ĺë£Į":10497,"ìŁģìĿ´":10498,"Ġêµ¬ìĦ±íķĺëĬĶ":10499,"Ġì¶ĶëĿ½":10500,"ĠìĿ¸íĦ°íİĺìĿ´ìĬ¤":10501,"Ġìĭľë¦½":10502,"ëĶĶìĸ¸":10503,"ê·¼íĺľ":10504,"Ġìĩ¼íĬ¸":10505,"Ġíķ´ìłģ":10506,"edia":10507,"ever":10508,"eph":10509,"Ġê³µìĤ°ëĭ¹":10510,"ĠëĤ´ëĨĵ":10511,"Ġìĥģíĺ¸ìŀĳìļ©":10512,"Ġ53":10513,"Ġëĵ¤ë©´":10514,"ìĭ¤ë¡Ŀ":10515,"ë§Ĳë¡ľ":10516,"ìĤ¬ìŀ¥":10517,"ĠëĤ´ìĦ¸":10518,"Ġê·¸ëħĢê°Ģ":10519,"Ġë¶Ģë¥´ê³ł":10520,"íĮĲìĿĢ":10521,"Ġë§¤ìŀ¥":10522,"Ġë§Ĳíķ´":10523,"Ġê°ĢìĨį":10524,"ì´Īëĵ±íķĻêµĲë¡ľ":10525,"Ġë¬´ë£Į":10526,"ĠTBS":10527,"Ġíķĺê¸°ëıĦ":10528,"íĺ¸ìĻĢ":10529,"Ġê´ĳë³µ":10530,"ëĤ´ìĿĺ":10531,"ĠíħĮìĿ¼ëŁ¬":10532,"Ġë¶Ħë¥ĺêµ°":10533,"ìĺģìĿĦ":10534,"ĠAp":10535,"ĠìķĦëŀĺìĹĲ":10536,"Ġå½":10537,"èĩª":10538,"800":10539,"EE":10540,"Ġíľ´ëĮĢ":10541,"sch":10542,"ëŀĢíĬ¸":10543,"Ġë¶ģìª½ìľ¼ë¡ľ":10544,"Ġìļ°ìĿµ":10545,"Ġë¯¸íĤ¤":10546,"ĠíĶĦë¡ľë¦¬ê·¸":10547,"ë°©ìĨ¡ìĿĺ":10548,"ĠíļĮìĤ¬ìĿĺ":10549,"ĠìĺģíĻĶìĿĺ":10550,"Ġê²Įëĭ¤ê°Ģ":10551,"Ġë§ĪëĿ¼":10552,"ìľ¨ìĿ´":10553,"ĠìķĦìĭľìķĪì»µ":10554,"oon":10555,"ëłģ":10556,"Ġê·¸ëĵ¤ìĿĦ":10557,"ë°ĺìĿĳ":10558,"ini":10559,"Ġìĺ¬ë¦¼íĶ½ìĹĲìĦľ":10560,"ĠColle":10561,"ĠìłķêµĲíļĮ":10562,"ĠìĪĺìĭŃ":10563,"ë°ĺìĿĺ":10564,"ĠìľĦìĹĲìĦľ":10565,"Ġë³¸ëĭ¤":10566,"Ġë¯¼ìĺģíĻĶ":10567,"ĠíķĺëĤĺê°Ģ":10568,"íĿĶ":10569,"Ġëĭ¹ìĭľìĹĲ":10570,"ìłĦíķľ":10571,"ĠíķĻìĽĲ":10572,"Ġìļ´ìĨ¡":10573,"ave":10574,"äºķ":10575,"Ġëĭ¨ìĪľíŀĪ":10576,"ë²¼":10577,"ë¡łìĹĲ":10578,"ĠLife":10579,"ĠìĬ¤íģ¬ë¦°":10580,"íĸĪìĹĪëĭ¤":10581,"ason":10582,"ĠìĻķë¦½":10583,"ìľĮ":10584,"ë³´ë¡ľ":10585,"ions":10586,"ë°ĶìĿ´ëŁ¬ìĬ¤":10587,"ëħ¸ìĿĺ":10588,"ĠìķĶì»·":10589,"ĠìĹŃìŀĦíķĺìĺĢëĭ¤":10590,"Ġë§Ĳë¡ľ":10591,"ĠìĤ¬ì°°":10592,"ìĪĺìķĦ":10593,"ë¶Ħë¥ĺ":10594,"Ġëį°ìĿ´íĦ°ë¥¼":10595,"ìĤ¬ì¶ĶìĦ¸ì¸ł":10596,"ĠìĹĶëĶ©":10597,"ìĭłíķĻ":10598,"Ġëª¨ìŀĦ":10599,"Ġìµľìĥģ":10600,"Ġê³ĦìłĪ":10601,"ê³µìĿĦ":10602,"ĠìĽĲìĿ¸ìĿ´":10603,"Ġë°ľíĳľëĲĺìĹĪëĭ¤":10604,"ĠëłĪìĿ´ë¸Ķ":10605,"æİ":10606,"ĠìĦ¸ë¶Ģ":10607,"Ġê±·":10608,"íĨłë²¤":10609,"ĠìĿ´ì¤Ģ":10610,"ëĭĪìĹĲ":10611,"Ġê¾¸ì¤Ģ":10612,"chn":10613,"Ġê³¤ì¶©":10614,"Ġë§Īì¼ĢíĮħ":10615,"ĠíĮĮíĤ¤ìĬ¤íĥĦ":10616,"Ġë¹Ħë¡¯íķĺìĹ¬":10617,"æ²»":10618,"Ġê³łëł¤ëĮĢíķĻêµĲ":10619,"ä½Ľ":10620,"Ġë§¨ì²´ìĬ¤íĦ°":10621,"ĠìĤ¬ëł¹ê´Ģ":10622,"ĠCounty":10623,"Ġê°ĢëĿ¼":10624,"Ġì§Ģì¤ĳ":10625,"ĠëıĻíĻĶ":10626,"ĠíĮĮìļ¸":10627,"ĠìĹ´ë§¤":10628,"Ġì§Ģì§Ī":10629,"íķ´ìĹĲ":10630,"ì£¼ì¿ł":10631,"Ġê¸°ëħĲë¬¼":10632,"æ³°":10633,"Ġêº¼":10634,"ĠìĿ´ìļ©íķł":10635,"Ġë¡ľë§¨ìĬ¤":10636,"Ġëª¨ë¡ľ":10637,"Ġì£¼ìŀ¥íķĺëĬĶ":10638,"Mar":10639,"Ġì°¨ì§Ģíķĺê³ł":10640,"ĠĠĠĊ":10641,"ĠìĬ¤íĥĢìĿ¼":10642,"Ġê²©íĮĮ":10643,"ĠìĤ¬íļĮìĿĺ":10644,"ĠëıĦêµ¬":10645,"Ġì¶ķìĨĮ":10646,"Ġë§¤ê°ģ":10647,"ë³´ìĿĺ":10648,"Ġì¡°ìĦłìĭľëĮĢ":10649,"ĠëıĻìĦ±ìķł":10650,"Ġë¹Ħë¡ĢëĮĢíĳľ":10651,"ëĿ¼ìĿ´ìĸ´":10652,"Ġë¬¸ìłľëĬĶ":10653,"ĠìĹŃìĹĲìĦľ":10654,"åĪ¤":10655,"Ġëħ¸ëıĻìŀĲ":10656,"ìĪľìľĦ":10657,"Î±":10658,"ĠëĮĢíķľë¯¼êµŃìĿ¸":10659,"íħĮìĵ°":10660,"íĶĦë¡ľê·¸ëŀ¨":10661,"ê°ĢëĤĺ":10662,"íĺķíĥľ":10663,"ĠìķĦëŀĺìĻĢ":10664,"right":10665,"ĠíĬ¹ê¸ī":10666,"stit":10667,"idth":10668,"íĬĢë¥´íĤ¤ìĺĪ":10669,"Ġê´ĢíķĺìĹ¬":10670,"Ġíģ¬ë¦¬ìĬ¤íĨł":10671,"Ġë¶Īê°Ģë¦¬ìķĦ":10672,"ìĬ¬ë¦¼":10673,"Ġë¯¸ì¦Ī":10674,"ë£¨ìħĺ":10675,"ĠíĥĢìļ´":10676,"Ġë»Ĺ":10677,"ĠìĹĲìĬ¤íĮĮ":10678,"ION":10679,"ĠìĤ¬ê±´ìĹĲ":10680,"ĠìĹħëį°ìĿ´íĬ¸":10681,"ĠìĻ¸êµĲê´Ģ":10682,"ëŀĢëĭ¤":10683,"ì²ľë©´":10684,"ĠíĸĪëĬĶëį°":10685,"Ġê¸´ê¸ī":10686,"ë¦¬ì¼ĢìĿ´ìħĺ":10687,"ëıĦëĭĪìķĦ":10688,"ìĹŃê³¼":10689,"ëĦ¥":10690,"ĠíĽĦìĿ¸":10691,"âī«":10692,"Ġê°ķìĪĺ":10693,"Ġíķ¨ê²½":10694,"ĠëĮĢëĮĢ":10695,"ë¡ľì§Ģ":10696,"Ġê±°íĸī":10697,"Ġì´Īê¸°ìĹĲ":10698,"aceae":10699,"íĦ°ë¯¸ëĦĲ":10700,"Ġë¬´ëĿ¼":10701,"ëł¸ìľ¼ë©°":10702,"Ġsp":10703,"ê²ĮìĿ´ë¨¸":10704,"éĬ":10705,"ĠëĿ¼ìĿ´ë²Į":10706,"ĠìłĦíĪ¬ë¥¼":10707,"ìŀ¬ìĿ¸":10708,"Ġìĭłìļ©":10709,"ĠDr":10710,"ìłĦëĮĢ":10711,"ĠìĦľìĦľ":10712,"ĠìĤ´ìķĦëĤ¨":10713,"ì²ľìĭľìĿĺ":10714,"ĠíķĺëĤĺëĭĺ":10715,"íķĻìĤ¬":10716,"ĠCo":10717,"ĠíĶĦë¡ľíķĦ":10718,"Ġë³µìĪĺ":10719,"Ġpl":10720,"ç§ĳ":10721,"ëĿ¼ìĿ´ëĤĺ":10722,"ma":10723,"ĠìĨĮíĻĶ":10724,"ĠìĤŃìłľ":10725,"Ġ1906":10726,"Ñĥ":10727,"Ġìĺ¤ìĬ¤íĬ¸ëłĪìĿ¼ë¦¬ìķĦìĿĺ":10728,"ĠìĸĳìĤ°":10729,"ĠíĻĶìĦĿ":10730,"ìłķëıĦ":10731,"Ġê°ĢëĤľ":10732,"ĠìĿ¸ìĥģ":10733,"ìķĺìľ¼ëĤĺ":10734,"ëĦ¤ë§Ī":10735,"ĠìĿ´ìĥģìĿĦ":10736,"Ġìŀ¬ë£Į":10737,"ë¹ĦìĻĢ":10738,"Ġì¡°ë¬¸":10739,"ĠìĬ¤íĥĪ":10740,"Ġê°ľì²Ļ":10741,"Ġì¶ľìĭłìĿ´ëĭ¤":10742,"ç¢":10743,"íĦ°ëĦĲ":10744,"æĻ¯":10745,"ë©ĶìĿ´ìłĢ":10746,"ëĪħìĬ¤":10747,"ì¹ŃìĿĢ":10748,"ê³łëł¤ìĿĺ":10749,"êµŃëıĦ":10750,"Ġëıħë¦½ìĿĦ":10751,"Ġìļ°ë¦¬ê°Ģ":10752,"ĠíĬ¹íĹĪ":10753,"Ġëª»íķľëĭ¤":10754,"ĠëĤĺíĥĢëĤľ":10755,"ĠìĦ±ê³µíĸĪëĭ¤":10756,"ëĵ±ìŀ¥ìĿ¸ë¬¼":10757,"DS":10758,"ĠìĤ¬ê°Ģ":10759,"Ġëĵľë¬¼":10760,"ĠìľłëĮĢìĿ¸":10761,"ì§ĳìĿĦ":10762,"ĠíĨłìļĶìĿ¼":10763,"ì©Į":10764,"Ġìĭ¬ìŀ¥":10765,"ĠíĬ¹ì§ķìĿĦ":10766,"Ġ1905":10767,"èĢħ":10768,"ĠìķĮëłīìĤ°ëįĶ":10769,"ìĥĿëħĦ":10770,"Ġìĥģì£¼":10771,"ĠíĭĪ":10772,"ĠëıĻê²½":10773,"Ġëĭ¬íķĺëĬĶ":10774,"ì¶©ë¥ĺ":10775,"æı":10776,"Ġìķ±":10777,"Ġë°©ìľĦ":10778,"Ġêµµ":10779,"Ġê¸°ì§Ģ":10780,"sk":10781,"Ġë§ĲëĿ¼":10782,"Ġê²½ê¸°ê°Ģ":10783,"ì°¸ê°Ģ":10784,"ĠìķĦë²Ħì§Ģê°Ģ":10785,"ĠìĦ¸ìļ°":10786,"å°Ļ":10787,"ìĤ¬ê´ĢíķĻêµĲ":10788,"ĠìķĦê°Ģ":10789,"ĠíĺĦìŀ¥":10790,"Sp":10791,"ited":10792,"Ġë¶ģë¯¸":10793,"Ġìļ©ìĤ°":10794,"íķĻìŀĲìĿ´ëĭ¤":10795,"Ġë¯¸ì¹´":10796,"ĠìĦłìĪĺìĿ´ìŀĲ":10797,"çİī":10798,"ĠëĤ¨ìķĦìŀĪ":10799,"ĠíķĦë¦Ħ":10800,"ìķĦìĺ¤":10801,"ĠíħĮíģ¬":10802,"é£":10803,"ëĭ¤ëŀĢ":10804,"ĠìĹ°ìĦ¸ëĮĢíķĻêµĲ":10805,"Ġê·¸ëħĢë¥¼":10806,"1938":10807,"PD":10808,"ìĿ´ë¦Ħ":10809,"íĻĪëŁ°":10810,"Ġë³´ìĹ¬ì£¼ëĬĶ":10811,"æºĲ":10812,"Ġë°¸":10813,"Ġíķĺì²ľ":10814,"ìľłë¥¼":10815,"ë°Ģíķľ":10816,"êµŃê°ĢëĮĢíĳľíĮĢ":10817,"ìĭľíĶ½":10818,"ĠëĤĺìĻĶ":10819,"ĠíĻ©íĽĦ":10820,"Ġì´īì§Ħ":10821,"ĠìĦľìª½ìľ¼ë¡ľ":10822,"ìķĪìĿĢ":10823,"ìĦľêµ¬":10824,"ĠìĤ¬ëĭ¤":10825,"ì¦ĪëĭĪìĬ¤":10826,"çĳ":10827,"Ġíĺ¹":10828,"ĠìĦ¸íĬ¸":10829,"Ġclass":10830,"å»º":10831,"ìľłíĸī":10832,"Ð¸Ð¹":10833,"ê¼¬ë¦¬":10834,"ĠíıŃìĬ¤":10835,"Ġë¹Įë¦¬":10836,"íĳ¼":10837,"ëıĻë¦¬":10838,"ê±´ì¶ķ":10839,"ëĿ¼ëį¸":10840,"ĠìĻķì¡±":10841,"ĠíĨłë¨¸ìĬ¤":10842,"ëĭ´ëĭ¹":10843,"Ġê°ķìļĶ":10844,"Ġë¡ľì¦Ī":10845,"ĠëŀĮ":10846,"ìĤ°ë§¥":10847,"ê³Ħë¡ľ":10848,"ĠìĨĮê·ľëª¨":10849,"Ġì§ĳìĿĦ":10850,"ĠëĮĢíĳľë¡ľ":10851,"ĠìĦľê¸°":10852,"ĠëķĮë§Īëĭ¤":10853,"ĠìĬ¤ë§ĪíĬ¸íı°":10854,"ë¬´ëĮĢ":10855,"ĠíĥĢìĽĮ":10856,"Ġíĥľì¡°":10857,"Ġê°Īìĥī":10858,"Ġê¸°ë³¸ìłģìľ¼ë¡ľ":10859,"ëĿ¼ê¸°":10860,"ety":10861,"íĤ¤ê°Ģ":10862,"¼ìĨĲ":10863,"ìĬ¤íĭ´":10864,"íı¬êµ¬":10865,"ë¯¼ì¡±íĸīìľĦ":10866,"ëª¨ìĸ´":10867,"ĠëĭĪê°ĢíĥĢ":10868,"Ġì¶ľìłĦíķĺìĹ¬":10869,"IR":10870,"atch":10871,"ĠHar":10872,"CH":10873,"Ġìĭ¤ìĹħ":10874,"ĠëıĮìķĦìĻĶëĭ¤":10875,"éĻµ":10876,"ë°ĶëŀĮ":10877,"éľ":10878,"Ġìłķë¬´":10879,"ìĺ¤ê°Ģ":10880,"Ġê¹Ģíı¬":10881,"Ġëªħìĭľ":10882,"Ġëª¨ìĬµìĿ´":10883,"íħĢ":10884,"ĠOS":10885,"Ġìŀłìŀ¬":10886,"Ġê°Ģìķ¼":10887,"Ġìĭłì¹¸ìĦ¼":10888,"ĠìĿ´ëĤĺ":10889,"Ġíķľë°ĺëıĦ":10890,"Ġì§ĦíķĻ":10891,"ìŀĲíĿĲìĬ¤íĥĦ":10892,"ĠCJ":10893,"ĠíĮĮìĥĿ":10894,"Ġê±¸ì¹ľ":10895,"ì¹ĺìĻĢ":10896,"Ġë©Ķê°Ģ":10897,"ĠíĮ¨ëŁ¬":10898,"ìĹ¬ìŀĲì¤ĳíķĻêµĲ":10899,"ĠíķĺíĬ¸":10900,"Ġìĺģíĸ¥ìľ¼ë¡ľ":10901,"Ġë°ľìĥĿíķľëĭ¤":10902,"ĠíĥľìĸĳìĿĺ":10903,"ĠìĿĢíĩ´íķľ":10904,"Ġê»":10905,"Ġë³´íİ¸":10906,"ĠìłĦíķľ":10907,"ĠëıĻê¸°":10908,"ìļ°ì¡°ìĹ°":10909,"íĿ¬ìĿĺ":10910,"ĠìĪĺì¤ĢìĿĺ":10911,"Ġê³°":10912,"ĠìĤ¬ê±´ìĿĢ":10913,"Ġë®¤ì§ģë¹ĦëĶĶìĺ¤":10914,"ê°ĦìĿ´":10915,"Ġë¶Ļìĸ´":10916,"íĪ¬ìŀĲ":10917,"Ġëŀ¨":10918,"ĠíĥĦìķķ":10919,"ë¡ľìĦľëĬĶ":10920,"ĠìĹ¬ìĭł":10921,"Ġì´Īëĵ±":10922,"Ġë°±ìĦ±":10923,"ĠìĪĺë¥¼":10924,"ì¦Īìĺ¤ì¹´":10925,"%),":10926,"line":10927,"ìĬ¬ë¡ľ":10928,"ĠìĪĺìĥģìŀĳ":10929,"ene":10930,"Ġìķķì¶ķ":10931,"íķĦë¦¬íķĢ":10932,"èĺ":10933,"Ġ1908":10934,"ĠìĿ¼ì¢ħìĿĺ":10935,"ĠWe":10936,"ìĭľíĶ¼":10937,"ĠìĿ¸ë¥ĺ":10938,"Ġëª©ìĤ¬":10939,"Ġì§ĪëŁī":10940,"ĠìĬµê²©":10941,"ì¥¬":10942,"1920":10943,"Ġìłķë¶ĢìĹĲ":10944,"ìĹ¬ê¸°ìĦľ":10945,"ĠìĨĲìĹĲ":10946,"åĬī":10947,"Ġëĭ¤ëĭĪìĹĺ":10948,"Ġë¬´ê´Ģ":10949,"æĮ":10950,"Ġìŀ¥íİ¸":10951,"Ġì¢ĭëĭ¤":10952,"ë°ĶíĿĲ":10953,"íħĮìĬ¤íĬ¸":10954,"ë¶ĦêµĲìŀ¥":10955,"ĠíĬ¸ìľĦíĦ°":10956,"ĠìľĦì¹ĺìĹĲ":10957,"æī¿":10958,"ì¡°ìĦłë¯¼ì£¼ì£¼ìĿĺìĿ¸ë¯¼ê³µíĻĶêµŃìĿĺ":10959,"Ġì¹´ëĤĺ":10960,"ë³ĳìľ¼ë¡ľ":10961,"Ġì²´íĹĺ":10962,"Ġë§Īìĵ°ëĭ¤ìĿ´ëĿ¼":10963,"Ġë±ħ":10964,"Ġëª¨ëħ¸":10965,")ãĢī":10966,"ĠìĿ¼ê³±":10967,"ãģı":10968,"Ġë¶Ģëĵľ":10969,"Ġ57":10970,"ìĳ¤":10971,"ĠêµĲíļĮìĿĺ":10972,"Ġíı¬ìĿ¸íĬ¸":10973,"ype":10974,"íķĺê¸°ìĹĲ":10975,"Ġìĺģìĸĳ":10976,"ìłĲê³¼":10977,"æł¹":10978,"ĠëĮĢíĳľìĿ´ìĤ¬":10979,"Ġë¶Ģë¬¸ìĹĲ":10980,"ĠëıĻìª½ìľ¼ë¡ľ":10981,"Ġêµ¬ìŀ¥":10982,"ëį°ìĿ´íĦ°":10983,"¾°":10984,"ìĿĮëł¥":10985,"Ġë°ľíľĺ":10986,"Ġë°°ìłķ":10987,"ĠìĹĨìĿĮ":10988,"åĪĨ":10989,"ublic":10990,"ì¸µìĹĲ":10991,"Ġì§Ģì¹Ń":10992,"ĠìĪĺë°ĺ":10993,"ĠíĶ¼ê³ł":10994,"ĠìłľëıĦë¥¼":10995,"ĠNC":10996,"ĠíĶĦëŀŃíģ¬":10997,"ĠêµĲì°¨":10998,"Ġì¹¼ë¦¬":10999,"eter":11000,"Ġë°ľë§¤íķľ":11001,"é¢":11002,"ê·¸ëħĢ":11003,"Ġì£¼ìĹĲ":11004,"ĠíĮ¨íĦ´":11005,"Ġê²½ìłĦ":11006,"Ġ58":11007,"ony":11008,"ĠíİĦ":11009,"lo":11010,"ë³´ëĭ¤ëıĦ":11011,"ë©ĶëĭĪìķĦ":11012,"ãģĮ":11013,"íĺ¸ìĹĲ":11014,"Ġì¡°ìļ©":11015,"ĠìĽĲíķĺëĬĶ":11016,"ìħ¨":11017,"ë¯¸ëħ¸":11018,"Ġë¹ĦíĮĲìĿĦ":11019,"ëĶĶìĿĺ":11020,"ĠKore":11021,"Ġë²Īíĺ¸ëĬĶ":11022,"ĠìĦ¸ê³Ħë¥¼":11023,"1937":11024,"Ġìĺ¤ìĦ¸":11025,"NN":11026,"Ġê³µê¸°":11027,"íĮĮìĻĢ":11028,"ĠìłľíĽĦ":11029,"Ġêµ¬ê°ĦìĿ´":11030,"600":11031,"ìĦ¤ë¦½":11032,"ë»":11033,"æ²Ī":11034,"ê°Ģìŀ¥":11035,"Ġì»¤íĶ¼":11036,"ìŀ¬ë¡ľ":11037,"íŀĪíĨł":11038,"ë©ĶìĿ´ì§Ģ":11039,"íĹ¬ë¦Ħ":11040,"na":11041,"ĠìķĦì¦Ī":11042,"åŃĹ":11043,"íļ¨ìĨĮ":11044,"ëĨįìĹħ":11045,"çĥ":11046,"ë¯¼ëĭ¹":11047,"urg":11048,"ĠíĥĦíķµ":11049,"ì§ĢëĮĢ":11050,"Ġíĥ±":11051,"ĠëıĦìĽĢìĿ´":11052,"ĠìĹĨì§Ģë§Į":11053,"ĠëĮĢë¶Ģë¶ĦìĿĦ":11054,"Ġìłģê·¹ìłģìľ¼ë¡ľ":11055,"èī²":11056,"âĸ":11057,"íĤ¤ìĬ¤":11058,"Ġì¢ĮìĿµ":11059,"ĠìĭľëĤ´ë²ĦìĬ¤":11060,"ãĦ":11061,"ĠìĦ±ê²©ìĿĦ":11062,"Ġêµ°ëĮĢ":11063,"íķĺëĬĺ":11064,"ĠìĤ°íĻĶ":11065,"ane":11066,"ĠìĭľìĥģìĭĿ":11067,"êµ¬ìĹĲìĦľ":11068,"Ġíķ¸ëĵľ":11069,"ìłĦì£¼":11070,"Ġë³´ìĬ¤íĦ´":11071,"ĠìķĬê¸°":11072,"Ġëªħìľ¼ë¡ľ":11073,"ìĻķìĿĦ":11074,"Ġë³¸íĨł":11075,"ĠìŀĪìĸ´ìķ¼":11076,"íı¬íķŃ":11077,"Ġë°ĶìĿ´ìĺ¬ë¦°":11078,"Ġíı¬ë¥´":11079,"èį":11080,"ëł·":11081,"ìķ½íĴĪ":11082,"å®£":11083,"Ġíķ´ìłľ":11084,"ĠìĨĮíĺķ":11085,"ëĦ¤ìĨĮ":11086,"ĠíĸīìľĦë¥¼":11087,"ford":11088,"ë¦¬ìŀĲ":11089,"íĶĦëĿ¼ìĿ´":11090,"ĠAb":11091,"ĠíķľëĤĺëĿ¼ëĭ¹":11092,"ĠìĤ¬ìĿ´íĥĢë§Ī":11093,"ìļ°ìĺĮ":11094,"ino":11095,"ĠìĹĺë¦¬ìŀĲë²łìĬ¤":11096,"ke":11097,"Ġ{":11098,"ìĥĮ":11099,"ìķħìĿĺ":11100,"Ġê°ĸê²Į":11101,"ê¸´ëĭ¤":11102,"Ġê³µíķĻ":11103,"ëĭ´ìĿĦ":11104,"æ¥Ń":11105,"ĠìĹ°ìķĪ":11106,"ated":11107,"ê²½ê¸°ìŀ¥":11108,"to":11109,"Ġë³´ì¢Į":11110,"ê³ĦìĻĢ":11111,"ĠìĬ¤ì¦ĪíĤ¤":11112,"ãģ¯":11113,"ĠWill":11114,"ĠìķķëıĦ":11115,"Ġas":11116,"ĠIT":11117,"íĮ©íĬ¸":11118,"Ġíı¬íķ¨ëĲľ":11119,"ha":11120,"Ġê°Ķ":11121,"ê¸°ì¤Ģ":11122,"Ġì½ĶëĤľ":11123,"ì¹¨ìĿĦ":11124,"Ġìĭľë¡ľ":11125,"Ġìĸ´ëĳĲ":11126,"Ġë³¸ê²©ìłģìľ¼ë¡ľ":11127,"ë±ħíģ¬":11128,"ëħ¸ë¶Ģ":11129,"ĠíĶĦë¡ľëįķìħĺ":11130,"ĠìłģëıĦ":11131,"Ġì½ľë¡ľ":11132,"ĠìĪĺë¡Ŀê³¡":11133,"ĠíĨłëĭĪ":11134,"Ġì¦Ŀìĸ¸":11135,"Ġê¸°ë°ĺìĿĦ":11136,"íĪ¬ìķĦëĭĪìķĦ":11137,"Ġê°ķíķĺê²Į":11138,"ì§Ģë°©ê²Ģì°°ì²Ń":11139,"Ġë¬¼ëł¤":11140,"Ġê¸°ë¶Ģ":11141,"Ġì´Ŀê´Ħ":11142,"ĠìĿ´ë²¤íĬ¸":11143,"ê¸°ê¸°":11144,"çĽ´":11145,"ìĤ¬íķľ":11146,"ĠAM":11147,"Ġì¢ħìĿ´":11148,"ĠíıīìĥĿ":11149,"Ġë¹ĮëĶ©":11150,"ë¦¬íĥĢ":11151,"ìĭ¤ìĹĲ":11152,"Ġëį°ëł¤":11153,"Ġë§ĪìĿ´íģ¬":11154,"Ġìĭľì¡°":11155,"çĤ":11156,"ë¡ľìĹĲ":11157,"ress":11158,"ĠëģĿìľ¼ë¡ľ":11159,"Ġê²½ìłľíķĻ":11160,"ìĺ¤ë¥´":11161,"lex":11162,"ĠíĽĦë³´ê°Ģ":11163,"Ġëį§ë¶Ļ":11164,"ĠìķĦíĶĦê°ĢëĭĪìĬ¤íĥĦ":11165,"ìĪľíĻĺ":11166,")ãĢį":11167,"êµ°ëĭ¨":11168,"ìĦ¸ê¸°ìĿĺ":11169,"ĠìĦ¸ë¦¬ìĹĲ":11170,"ĠíĻ©íĥľ":11171,"ì£¼ë¦¬":11172,"ĠâĹ":11173,"ê°ĢìĻĢíĺĦ":11174,"Ġìºłíİĺ":11175,"ì¼ĢìĿ´ìħĺ":11176,"Ġì£¼ë³ĢìĿĺ":11177,"åº·":11178,"ìĸĦ":11179,"Ġìĭľë²Ķ":11180,"Ġê°ľê·¸":11181,"ìĤ°ìĭľìĿĺ":11182,"Ġëª¨ëĭĪ":11183,"ĠìĿ´ìľ¤":11184,"ìłľíĶĦ":11185,"ãĢĭ-":11186,"ëĥī":11187,"ëŀĺìĿĺ":11188,"Ġë²łìĸ´":11189,"ĠëĮĢíķľìłľêµŃ":11190,"ì°¨íĬ¸":11191,"íĪ¼":11192,"ì°¨ìĹĲ":11193,"ìĭ¤ìŀ¥":11194,"ĠìĹħì²´":11195,"Ġ1896":11196,"ëĶĶìĹĲ":11197,"ìĹ¬íĸī":11198,"Ġê°ĢëıĦ":11199,"Ġë§Īê°Ĳ":11200,"Ġë¦¬ìĸ¼":11201,"ĠìĿ¸íĦ°ë·°ìĹĲìĦľ":11202,"ë¬¼ì§Ī":11203,"Ġê´Ģíķ´":11204,"ãģį":11205,"Ġë²Ħì§Ģ":11206,"ĠìŀĲì¹ĺì²´":11207,"ĠAir":11208,"ĠìĥģíĻ©ìĹĲ":11209,"Ġìŀħëĭ¨íķĺìĺĢëĭ¤":11210,"ĠìĹĲìĿ´ìĬ¤":11211,"ì¡±ìĿĢ":11212,"apan":11213,"ì½ĺìĦľíĬ¸":11214,"Ġì¤ĳëıĻ":11215,"ìķĪíĥĢ":11216,"ìłģìĿ´ë©°":11217,"êµ°ëĭ¤":11218,"ĠíĬ¸ëĿ¼":11219,"ĠOne":11220,"ìĺĢëĬĶëį°":11221,"Ġìľłìļ©":11222,"ĠìĨĮëĵĿ":11223,"ìĤ´ìĿ´":11224,"ãĤ«":11225,"Ġì¹łëłĪ":11226,"ë°ĶíĥĢ":11227,"ĠíķľêµŃìĺģíĻĶ":11228,"Ġê´Ģê³ĦìĹĲ":11229,"Ġìĥģíĥľê°Ģ":11230,"its":11231,"Ġì¿¼":11232,"Ġë°ľê²¬íķľ":11233,"æ¿Ł":11234,"ĠëĶ±":11235,"íĮĲìĹĲ":11236,"ëħĦë§ĮìĹĲ":11237,"ĠìľĻ":11238,"ĠìĥĪëģ¼":11239,"ë§ĮíĻĶ":11240,"Ġëĭ¨íĸī":11241,"roup":11242,"Ġz":11243,"êµĲìĤ¬":11244,"Ġíŀĺëĵ¤":11245,"Ġê°ķìłĲ":11246,"ĠPol":11247,"Ġë³ĳìĦ¤ìľłì¹ĺìĽĲ":11248,"ĠìĺģíĻĶë¥¼":11249,";\"|":11250,"ĠìłģìĿĳ":11251,"ĠìĻķë¹Ħ":11252,"ĠìĿ¼ìłľê°ķìłĲ":11253,"Ġë²ķíķĻ":11254,"ĠìĿ´ëħĲ":11255,"ĠìĤ¬ìĸĳ":11256,"ëĿ¼ìĿ´ë¸Į":11257,"ĠëĦĵìĿ´ëĬĶ":11258,"1934":11259,"ĠíĪ´":11260,"ĠìŀĬ":11261,"ĠìĿ¼ëĮĢ":11262,"ĠìľĦìĥģ":11263,"ì¢ħìĿ´ëĭ¤":11264,"ìĽ¨ìĬ¤íĬ¸":11265,"ĠëĮĢíķĻìĿĺ":11266,"ĠìĿ´ë³ĳ":11267,"Ġë¹ħíĨłë¦¬ìķĦ":11268,"Ġ1909":11269,"ĠìłķìĭĿìľ¼ë¡ľ":11270,"ìĬĪíĥĢìĿ¸":11271,"Ġìŀ¥ê°ĳ":11272,"Ġìļ°íİ¸":11273,"ë³´ìķĪ":11274,"ë¶Ħìķ¼":11275,"Ġê³¼íķĻê¸°ìĪł":11276,"Ġìĭłê·ľ":11277,"Ġìļ°ëĿ¼":11278,"Ġìķ¼ì¿ł":11279,"mp":11280,"ìļ°ìłĢ":11281,"Ġì²Ńì¶ĺ":11282,"ìºĲë¡¤":11283,"ĠíĶĦë¦¬ë¯¸ìĸ´ë¦¬ê·¸":11284,"Ġìĥģìĺģ":11285,"ĠìĹ´ë¦¬ëĬĶ":11286,"ĠìĦłì¡°":11287,"ë©´ê³¼":11288,"ìĬ¬ë¦¬":11289,"ëĲ¨ìĹĲ":11290,"ĠëĮĢë§Į":11291,"ì²łíķĻ":11292,"ì°¸ëª¨":11293,"Ġìĸ¸ëįĶ":11294,"åħµ":11295,"ì±ħìŀĦ":11296,"ĠíĽĮë¥Ń":11297,"ĠRef":11298,"Ġì£¼ê±°":11299,"Ġê°Ĳìĺ¥":11300,"Ġíı¬ë§·":11301,"Ġìļ´ëıĻê°Ģ":11302,"by":11303,"Ġ1911":11304,"ĠìĺĪìĻ¸":11305,"ĠìĽĶê°Ħ":11306,"Ġíı¬íķ¨ëĲĺìĹĪëĭ¤":11307,"ĠìĨĲëĭĺ":11308,"ĠìĿ¸ë¬¼ë¡ľ":11309,"Ġê³łê°Ģ":11310,"Ġê³łë¦¬":11311,"ì²ĺë¦¬":11312,"íīģ":11313,"ëĭĪìķĦì£¼":11314,"Ġê·¹ë³µ":11315,"íı¬ëĵľ":11316,"ê±´ìĿĺ":11317,"Ġëĭ´ê³ł":11318,"ì§Ģíľĺ":11319,"ìķĦìĻĢ":11320,"ĠíĮĲìĤ¬":11321,"Ġê¸°íĥĢë¦¬ìĬ¤íĬ¸":11322,"íĺĦìĿĢ":11323,"å¤ĸ":11324,"Ġê°ľì°°":11325,"ê³¡ëıĻ":11326,"ĠìĤ¬ìĿ´ë¥¼":11327,"æ»":11328,"ìĿ´ëĿ¼ë©´":11329,"åĳ¨":11330,".'":11331,"ĠìĭľìŀĳíĸĪê³ł":11332,"ĠëĮĢìĦł":11333,"Ġì¤ĳìĦ±":11334,"ëŀĢìĿĺ":11335,"ìĿ¼ë³¸ìĸ´":11336,"ĠìĬ¤íĥĢë¦¬ê·¸":11337,"berg":11338,"Ph":11339,"ìĿ´ìłĦ":11340,"ĠìķĬìķĺì§Ģë§Į":11341,"Ġë¹Ħíıīê°Ģ":11342,"ë¦¬íģ¬":11343,"çķĮ":11344,"Ġê°ĵ":11345,"Ġ88":11346,"ìĭ¤íķľ":11347,"Ġë§īê¸°":11348,"ìŀĲìĬ¤":11349,"íķ´ë°©":11350,"ero":11351,"Ġë§ĿìĽĲ":11352,"ĠìĽĲìŀĲëł¥":11353,"ìłĦìĦ¤":11354,"ĠìĦ±ê³¼":11355,"ĠAìĿĺ":11356,"Ġë²ķìłģ":11357,"ĠíĹ¤ë¹Ħ":11358,"ĠìĿ´íĻĶ":11359,"ê¶Įê³¼":11360,"ret":11361,"Ġë§ŀì¶°":11362,"ìĹ°ë°©":11363,"ĠìĿ´ìĿ¸":11364,"Ġì§ĢìĹ°":11365,"ĠìĽĲìĭľ":11366,"ose":11367,"ìĽ¹":11368,"Ġë°ľíĳľëĲľ":11369,"ìķĺì§Ģë§Į":11370,"ĠìĤ¼ê°ģ":11371,"Ġë°©ìĨ¡ìĿ¸":11372,"ĠìĺģíĻĶë°°ìļ°ìĿ´ëĭ¤":11373,"ĠìĿ´ìĸ´ìĦľ":11374,"Ġê²Įìĭľ":11375,"Ġë¯¸êµŃìĿĢ":11376,"ĠíıĲì§ĢëĲĺìĹĪëĭ¤":11377,"ĠìĹ´ìĹĪëĭ¤":11378,"1935":11379,"ĠëĤĺëīĺìĸ´":11380,"ĠìĤ¬ê³¼":11381,"Ġìĺ¤ëħ¸":11382,"ĠëĮĢíķĻêµĲìĿĺ":11383,"éŁ³":11384,"ë¶Ģë¥´":11385,"ĠëĮĢìĻ¸":11386,"ĠìŀĲê¸Ī":11387,"Ġê¹Ģë³ĳ":11388,"Ġë§īë¶Ģ":11389,"ĠëĨĵìĹ¬":11390,"ê·¸ëŀĺíĶ¼":11391,"ĠìĨĮì§ĳ":11392,"ĠìĤ¬ë²Ķ":11393,"íĶĦìĻĢ":11394,"ĠíĽĦìĹĲëıĦ":11395,"Ġë§¤ëĭĪìłĢ":11396,"Ġâīª":11397,"ĠìłķìĿ´":11398,"Ġë¯¸êµŃìľ¼ë¡ľ":11399,"Ġì£¼ëł¥":11400,"ĠìĤ¿":11401,"Ġìŀ¡ê³ł":11402,"ĠIII":11403,"CS":11404,"Ġê°Ģì¦Ī":11405,"ë¯¸ìĻĢ":11406,"Ġì§Ħê²©":11407,"ĠíĬ¹ë³ĦíŀĪ":11408,"ĠíļįëĵĿíĸĪëĭ¤":11409,"æ½":11410,"ĠíĻĪëŁ°ìĿĦ":11411,"ìĬ¹ê°ķìŀ¥":11412,"ĠìĪĺì§ģ":11413,"Ġ250":11414,"Ġë¥´ëĦ¤":11415,"Ġë¹µ":11416,"ëª©ìĿĦ":11417,"ì¹ĺì§Ģ":11418,"Ġì¡´ìĬ¨":11419,"ĠíĨµíĻĶ":11420,"ìĹĲë¯¸":11421,"Ġìĺģì£¼":11422,"Ġë§ŀì¶Ķ":11423,"Ġë¸ĶëĿ¼ëĶĶ":11424,"ëĨĴ":11425,"Ġì¡°ê¸°":11426,"Ġë°ĶëŀĮìĹĲ":11427,"ë¦¬ëħ¸ìĿ´":11428,"ĠìłĦìĿĺ":11429,"ë¬¸ê³¼":11430,"ê´Ģê³Ħë¥¼":11431,"Ġìĭ¤ì¢ħ":11432,"ĠìĿ´ìŀĲ":11433,"Ġì¿¨":11434,"1932":11435,"Ġê¸°ëĬ¥ìĿ´":11436,"ë°ĶìĿ´ìŀĶ":11437,"ĠìłķíĻķíŀĪ":11438,"íĻĶìłĲ":11439,"ìĺ¤ëĤĺ":11440,"æĬ":11441,"íķĺëĿ¼ëĬĶ":11442,"Ġìļ´íķŃ":11443,"ë§ĲìĿĦ":11444,"ĠìĬ¤íĭ°ë¸Į":11445,"Ġê¹ĢëĮĢì¤ĳ":11446,"ĠìĪĺì»·":11447,"ĠëĮĢì§Ģ":11448,"Ġê²½ë¹Ħ":11449,"ìĹĲê²ĮëıĦ":11450,"Ġìłķì¹ĺê°Ģ":11451,"Wh":11452,"Ġì§ĢìŀĲ":11453,"ë¸Ķë¡ľ":11454,"Ġì§ĢìĽĲíķĺëĬĶ":11455,"ler":11456,"ĠìłķíĨµ":11457,"ë²ķê³¼":11458,"ì²ŃìĿĺ":11459,"Ġë¨¹ëĬĶ":11460,"ĠìĿĺê²¬ìĿĦ":11461,"íķĺìĿ´ìĺ¤":11462,"Ġë§Īìĭľ":11463,"ĠíĶĦë¡ľê²ĮìĿ´ë¨¸":11464,"Ġê°Ĳê°ģ":11465,"ì¹´ë¦¬":11466,"Ġìĺ¤íĥĢ":11467,"ì¼°":11468,"Ġë©´ìĹŃ":11469,"ìłľë¥´ë°ĶìĿ´ìŀĶ":11470,"ìĭ¤ë²łìĿ´":11471,"ĠíıīíĥĿ":11472,"ĠíĤ¤ìĬ¤":11473,"ĠìłľëıĦìĿĺ":11474,"ĠìłĦìĦ¸ê³Ħ":11475,"ĠìĭłíķĻìŀĲ":11476,"ãĤ¿":11477,"ê²½ìĥģëĤ¨ëıĦìĿĺ":11478,"ê²ģ":11479,"ĠìľłìķĦ":11480,"ëĵłì§Ģ":11481,"Ġíķĺëįĺ":11482,"ìľĦëĮĢ":11483,"ĠëłĪìĬ¬ë§ģ":11484,"ĠëĪĪìĿĦ":11485,"Ġíĺ¸ëĤ¨":11486,"ĠëĮĢìłĦê´ĳìĹŃìĭľ":11487,"Ġå½¹":11488,"ë£¨ëĬĶ":11489,"ĠëĮĢëĭ¤":11490,"any":11491,"Ġì£¼íĮĮ":11492,"Ġ1500":11493,"ëıĻê¸°":11494,"ĠíĶĮë£¨":11495,"ìķĶë¦¬":11496,"Ġëĭ¤ë£¨ëĬĶ":11497,"Ġ1913":11498,"ĠëıĦíĺ¸ì¿ł":11499,"ëŀĳìĿ´":11500,"Ġë¬´ë¦İ":11501,"ĠëĭĲ":11502,"Ġëļľëł·":11503,"ĠíĻįë³´ëĮĢìĤ¬":11504,"Ġìļ©ìĸ´ëĬĶ":11505,"Ġê·¹ëĭ¨":11506,"avid":11507,"Ġë¸ĮëłĪìĿ´":11508,"Ġíķĺìķ¼":11509,"DA":11510,"ìĤ¬ìĿ´ëĭ¤":11511,"Ġì£¼ìĦĿ":11512,"ì¢ĭ":11513,"ĠìĤ¬ê³łë¡ľ":11514,"ike":11515,"Ġìĭ¬ì§Ģìĸ´":11516,"íĺ¸ìĦłìĿĺ":11517,"ìĬ¤íħĮë¥´":11518,"ĠSystem":11519,"ì¤ĳìĿ´":11520,"Ġëħ¸ë¬´":11521,"Ġëľ»ìĿ´ëĭ¤":11522,"ë¡ľìĬ¤ìķ¤ìł¤ëłĪìĬ¤":11523,"Ġê¸°ë³ĳ":11524,"ĠíĻľìĦ±íĻĶ":11525,"Ġê±°ëĮĢ":11526,"ìĦľìĻĢ":11527,"ĠìĿ¼íĸī":11528,"ìľ¨ìĿĢ":11529,"Ġê´ĳì£¼ê´ĳìĹŃìĭľ":11530,"Ġìĭ¶ìĸ´":11531,"Ġì°¨íĬ¸ìĹĲìĦľ":11532,"íĤ¥":11533,"ĠìĦľë¸Į":11534,"Ġìĥ¬":11535,"Ġê´ĳìĤ°":11536,"ĠĊĊĠĊĠĊ":11537,"íĤ¨ìĬ¤":11538,"Ġê¼¬ë¦¬":11539,"ĠìµľìłĢ":11540,"ĠVS":11541,"ouse":11542,"Ġê°Ģì¹ĺë¥¼":11543,"Ġìĺ¬ëĿ¼ê°Ģ":11544,"ì¸łëĬĶ":11545,"Ġê³¨íĶĦ":11546,"Ġë²¼ìĬ¬":11547,"orth":11548,"Ġê²Įë¥´":11549,"ille":11550,"ë¡ľë¯¸íĦ°":11551,"ì£¼ìĿĺìĻĢ":11552,"ĠìłĢëĦĲ":11553,"ëłĮì§Ģ":11554,"íĸ¥ìĿĦ":11555,"ĠëıĻêµ´":11556,"ĠíĻ©ìłľìĿĺ":11557,"ourn":11558,"ĠìĹŃìĿĺ":11559,"ìĿ¸ëĵ¤ìĿĦ":11560,"Ġìŀ¥ë¡Ģ":11561,"ĠíĹĪëĿ½":11562,"ëķ":11563,"Ġë°ķì§Ģ":11564,"Ġì°½ëĭ¹":11565,"ê°ķìĽĲëıĦ":11566,"ĠìŀĲì²´ê°Ģ":11567,"ë°ĶëĿ¼íĤ¤":11568,"ëłĪíĭ±":11569,"ĠìĸĳëıĦ":11570,"Ġê³¼ëıĦ":11571,"ĠíĤ¨":11572,"Ġìļ¸ìĤ°ê´ĳìĹŃìĭľ":11573,"Ġ72":11574,"Ġì´Īìĥģ":11575,"ëĤĺìĭľ":11576,"alk":11577,"Ġì¤ĳìķĻìĦłê±°ê´Ģë¦¬ìľĦìĽĲíļĮ":11578,"ĠSchool":11579,"Ġëª¨ë¥´":11580,"Ġë§Īê·¸":11581,"ëıĦì¿ĦëıĦ":11582,"Ġë¹Ĺ":11583,"ê³łìĹĲ":11584,"ĠìĪĺìĹħ":11585,"Ġë²łë¥¸":11586,"ãĥ¬":11587,"Ġìłģìĸ´ëıĦ":11588,"eck":11589,"ë°ľìĿĺ":11590,"Ġì£¼ëĲľ":11591,"Ġìľłë°°":11592,"ëħĦê¹Įì§ĢëĬĶ":11593,"ĠíĶĦëŀľ":11594,"ĠìĿ¼ëĭ¨":11595,"Ġë°ĺëĮĢíķĺëĬĶ":11596,"ëłīìħĺ":11597,"EX":11598,"ĠìķĦìĿ´íħľ":11599,"Ġìĥīê¹Ķ":11600,"ĠìĦ¼íĬ¸ëŁ´":11601,"Ġê·ĢíĻĺ":11602,"íĪ¬ìĪĺ":11603,"Ġìħĭì§¸":11604,"ê³µëĭ¨":11605,"ëĶĶì§ĢíĦ¸":11606,"ìłĢì§Ģ":11607,"ĠìĥĮíĶĦëŀĢìĭľìĬ¤ì½Ķ":11608,"éĿĳ":11609,"Ġëª¬ìĬ¤íĦ°":11610,"íķľëĭ¤ë©´":11611,"ê´Ģê³¼":11612,"âĢ»":11613,"ĠëĤ¨ê²¨":11614,"Ġê°ĢëĵĿ":11615,"Ġëĭ¤íģ¬":11616,"Ġëħ¸ìĦłìĿ´":11617,"ella":11618,"é®":11619,"Ġëĭ´ìĿĢ":11620,"ĠìŀĲìłĦê±°":11621,"ĠìłĦìŀĳ":11622,"Ġë°ľìłĦìĿĦ":11623,"íĺĦìķħ":11624,"ĠìłĦì²´ë¥¼":11625,"Ġì¶Ķê°ĢëĲĺìĹĪëĭ¤":11626,"ìĵ":11627,"ë¥łìĿĢ":11628,"ĠìĿ¸ë¬¼ìĿ´ëĭ¤":11629,"Ġë¬¼ê³łê¸°":11630,"Ġìŀ¥ëĤľ":11631,"irst":11632,"Ġë§ºê³ł":11633,"éĹ":11634,"ĠíķĺëĬĲ":11635,"Ġìľłëł¥":11636,"Ġê´Ģê³ĦëĬĶ":11637,"Ġì²łìłĢ":11638,"ĠëĨĢëĿ¼":11639,"åĳ½":11640,"ìĥģëĮĢ":11641,"ĠìĿ´ëģĮìĸ´":11642,"ëĭ«":11643,"ĠìĹ°ëĿ½":11644,"é¤¨":11645,"Ġëıħìŀ¬":11646,"ëª½ê³¨":11647,"ë¦¬ë©°":11648,"Ġë§İìķĺëĭ¤":11649,"çŃīåŃ¸æł¡":11650,"Ġì§ĢëĮĢ":11651,"Ġëħ¸ìĦłìĿĢ":11652,"earch":11653,"íĮĲìĿĺ":11654,"Ġë§Īë¦¬ìĺ¤":11655,"ë²ĮëłĪ":11656,"ãĥ³ãĥ":11657,"Ġëıħë¦½ìļ´ëıĻê°Ģ":11658,"Ġê°Ģìĭľ":11659,"ŁìķĦ":11660,"Ġìĭłíķľ":11661,"Ġë¬´ìĬ¬ë¦¼":11662,"íĮĢìĿ´":11663,"ĠìĹĲëĦĪì§Ģë¥¼":11664,"å»£":11665,"Ġê¸°ìĹ¬íĸĪëĭ¤":11666,"ĠìĤ¬ìļ©íķĺì§Ģ":11667,"Ġì¿łë°Ķ":11668,"ëłĪëĵľ":11669,"Ġëª¨ëĵĪ":11670,"íķĺë©´ìĦľëıĦ":11671,"éºĹ":11672,"Ġ99":11673,"ì¶ľìŀ¥":11674,"Ġì¿Ħ":11675,"ĠìĥģíĥľìĹĲ":11676,"ê²½ìĥģë¶ģëıĦìĿĺ":11677,"ìĨĮìĨ¡ë²ķ":11678,"ç®":11679,"ĠìĨĮë¦¬ë¥¼":11680,"ĠâĢķ":11681,"ĠìĿ´ê´ĳ":11682,"ê³łëıĦ":11683,"ĠBar":11684,"1933":11685,"ĠìľłìĿ¸":11686,"ĠìĦ¸ìĥģ":11687,"ĠVer":11688,"ìľłëŁ½ìĿĺ":11689,"ĠæĿİ":11690,"ĠìłĦìĪł":11691,"Ġë°ĺíĻĺ":11692,"ĠíĺķìĦ±ëĲľ":11693,"ĠìĦ¤ì¹ĺëĲĺìĹĪëĭ¤":11694,"IVE":11695,"ĠìłķêµĲ":11696,"Ġë²ķìłķëıĻ":11697,"Ġê°ĲëıħìĿĢ":11698,"Ġìľ¤ì¹ĺ":11699,"Ġìŀħëĭ¨íĸĪëĭ¤":11700,"ê¸ĢëĿ¼":11701,"ëĤĺìĬ¤":11702,"íıĲíķ©":11703,"Ġì¹©":11704,"ãĤ¸":11705,"ĠìłĦë§Ŀ":11706,"íļĮë§Ĳ":11707,"ĠìĹ¬ìĿĺ":11708,"íĨłëª¨":11709,"aut":11710,"ĠëĤ´ëĬĶ":11711,"Ġëª¨ìĬµìľ¼ë¡ľ":11712,"Ġë§ĪìĬ¤":11713,"ì°¸ê³łìŀĲë£Į":11714,"ìĺ¤ê³ł":11715,"Ġë¬¼ë¦¬íķĻìŀĲ":11716,"æĹ¥æľ¬":11717,"ì½Ķë¥´":11718,"Ġì»¤ëĭ¤ëŀĢ":11719,"Ġë¶Ģë¥´ê¸°ëıĦ":11720,"ĠìĪĺê°Ĳ":11721,"ë¬¼ë¦¬íķĻ":11722,"Ġì§ĳìĹĲìĦľ":11723,"Ġê¸°íĺ¸":11724,"ë²łìĬ¤íĬ¸":11725,"ĠìĺģíĨłë¥¼":11726,"æĭ":11727,"ĠìĿ´ì¼Ģ":11728,"ìĦ±ëıĦ":11729,"ball":11730,"ĠëĲĺì°¾":11731,"Ġëħ¸íĬ¸":11732,"ìĸ´ë¨¸ëĭĪ":11733,"ĠêµĲíĸ¥ê³¡":11734,"Ġëª¨ëŀĺ":11735,"ìĤ¬ë¦¬":11736,"ëıĻë©´":11737,"ĠìĹ°ê¸°ëĮĢìĥģ":11738,"ë¡łìłģ":11739,"erson":11740,"ì»¬ëŁ¼ë¹ĦìķĦ":11741,"Ġì°¾ëĬĶ":11742,"Ġ360":11743,"Ġìĭłë¶Ħ":11744,"Ġëħ¸ëŀĺìĿ´ëĭ¤":11745,"ĠìķłíĶĮë¦¬ì¼ĢìĿ´ìħĺ":11746,"Ģëĭ¤":11747,"ĠíĨłì°©":11748,"Ġìķ½íĥĪ":11749,"Ġìŀ¥ë¡ľ":11750,"ĠëĮĢíķĺ":11751,"ĠìĿ¼ëłī":11752,"ëłĪìķĮ":11753,"oth":11754,"Ġë°°ìĹ´":11755,"ë£¨ìĤ´":11756,"ĠìĽĲëĤ´":11757,"ĠìĪľìĪĺ":11758,"ĠíĶĮë¡ľë¦¬ëĭ¤":11759,"å£½":11760,"ìŀĲë¬¸":11761,"Ġê±°ëĬĲ":11762,"ëª©ìľ¼ë¡ľ":11763,"Ġìĭ¤ìłľë¡ľëĬĶ":11764,")/":11765,"íĺĦìĿ´":11766,"ëł¹ìľ¼ë¡ľ":11767,"ìĬ¤ìĽ¨ëį´ìĿĺ":11768,"íķĻêµĲë¥¼":11769,"íĮĲë¡Ģ":11770,"Ġê¹ĢìĬ¹":11771,"Ġì¶©ëĤ¨":11772,"íĶĶ":11773,"Ġë³¸ëªħìĿĢ":11774,"ĠìĬ¹ê³Ħ":11775,"ìĿ´ìĬ¤ì¼Ģ":11776,"èº":11777,"ĠìĤ¬ëŀĮìĿ´ëĭ¤":11778,"Ġìĸ¸ë¡łìĿ¸":11779,"Ġê¹ĢìĦł":11780,"ìļ°ì¡°ìĹ°ìĥģ":11781,"IL":11782,"ĠISO":11783,"ĠìļĶë¯¸ìļ°ë¦¬":11784,"ê±":11785,"ĠìĬ¹ì°¨":11786,"Ġê·¸ëĵ¤":11787,"Ġìľłë¬¼":11788,"Ġìķ¼ìĥĿ":11789,"Ġë°ľìĥĿíĸĪëĭ¤":11790,"ĠëĮĢì¹Ń":11791,"Ġê³łìķĪ":11792,"Ġì°¸ëª¨":11793,"çļĦ":11794,"ìļ°ë¥¼":11795,"ìĤ°ìĦ±":11796,"ĠëĶ´":11797,"ondon":11798,"ĠëĺĲëĭ¤ë¥¸":11799,"Ġë²ķìĽĲ":11800,"ĠìĿ´ìĸ´ì¡Įëĭ¤":11801,"Ġë¤¼":11802,"ë§Īì¸ł":11803,"ë£¨ë¥¼":11804,"ĠíĽĦì§ĢìĻĢ":11805,"çĶ³":11806,"aur":11807,"ĠíĮĮìĿ´ìĸ´":11808,"ĠìĪĺë¡ĿëĲĺìĸ´":11809,"Ġìł¤":11810,"åĥı":11811,"Ġ1904":11812,"Ġê¸°íķĺ":11813,"1914":11814,"ê³µìŀ¥":11815,"Ġíķłë¦¬":11816,"ops":11817,"ĠìŀĦê¸Ī":11818,"ìķĦìĭľìķĦìĿĺ":11819,"ĠìĤ´ìķĺëĭ¤":11820,"Ġì»¬ëŁ¬":11821,"Ġë¹ĦíĭĢ":11822,"ĠëĤĺìĿ´ìĹĲ":11823,"ìĿ¸ëªħìĤ¬ìłĦ":11824,"ê³¼ìŀ¥":11825,"ëĤĺê¸°":11826,"ë³´ìĬ¤":11827,"ĠëĤĺê°ĢìĤ¬íĤ¤":11828,"ì½Ķë¦¬ìķĦ":11829,"æĽ¹":11830,"ĠêµŃìłķ":11831,"Ġê³łìĦ±":11832,"ìļ´ëıĻìĿĦ":11833,"Ġëįķë¶ĦìĹĲ":11834,"ĠìĹī":11835,"ĠíĽĦíĩ´":11836,"ëł¹ìĿĢ":11837,"ëĦ¤ëįľëŀĢëĵľìĿĺ":11838,"ìĿĺíķĻ":11839,"ëħĦìłľ":11840,"ìļ°ìłķ":11841,"ëĭ¹íķĺê³ł":11842,"ĠíĶĦëłĪìŀĦ":11843,"ìĿ¼ë°ĺë¯¼ì¡±íĸīìľĦ":11844,"é©Ľ":11845,"ëıĶ":11846,"ĠëıħìłĲ":11847,"Ġë¶ģêµ¬":11848,"êµŃê³¼":11849,"Ġê·¸ëŁ¼":11850,"ìĹ°ìĺĪ":11851,"ĠìĿ¼ìľ¼íĤ¨":11852,"íĻĭ":11853,"ê¹Įì§ĢëıĦ":11854,"ĠìĭľìłĪìĹĲ":11855,"ë³´ë©´":11856,"Ġìĭłìŀħ":11857,"íĻī":11858,"ĠëķħìĿĦ":11859,"Ġìĵ´ëĭ¤":11860,"ĠìĿ´íķĺìĿĺ":11861,"Ġíķ©ë¦¬":11862,"ì§Ģìĺ¤":11863,"ìľĦìĹĲìĦľ":11864,"íĻ©ìłľ":11865,"Ġë¬´ë¦¬":11866,"ë§ĪìłĢ":11867,"Ġì¤ĳë¦½":11868,"ì¤ĳìĿ´ëĭ¤":11869,"Ġê±°ë¦¬ë¥¼":11870,"éĺ¿":11871,"íİĻíĬ¸ëŁ¼":11872,"íģ¬ìĻĢ":11873,"ëŀĺìĬ¤ì¹´":11874,"ìĭ¤íĹĺ":11875,"ĠìĹĶì§Ģ":11876,"ĠìĿ´ë¡łìĿĦ":11877,"ìĿ¼ë¶Ģ":11878,"Ġë²Ĺìĸ´":11879,"ì§ĢìłĲ":11880,"ĠëŀŃíĤ¹":11881,"ê³łìĭľ":11882,"Ġêµ¬ìĤ¬":11883,"Ġ101":11884,"ĠíĺĲ":11885,"ìķĺëĬĶëį°":11886,"ĠëĽ°ê³ł":11887,"Ġë°Ķë¥´ìħĢë¡ľëĤĺ":11888,"ë£¨ìĤ´ëłĺ":11889,"ë¦¬ì¡°":11890,"íĻĶíķĺëĬĶ":11891,"Ġì¹ĺëłĢëĭ¤":11892,"ëĮĢíĨµëł¹":11893,"ëĤ¨ë¶Ģ":11894,"ëĶĶëĬĶ":11895,"Ġ700":11896,"Ġë°ķìĥģ":11897,"Ġê°ĦìĹĲ":11898,"ë®¤ì§Ģì»¬":11899,"ĠìŀłìĪĺíķ¨":11900,"ìłĦìĭľ":11901,"ĠCont":11902,"ĠíĶĦë¡ľëĵĢìĭ±":11903,"ë¿Ķ":11904,"ìĨĮëł¨ìĿĺ":11905,"ator":11906,"ĠíĺĦì¡´":11907,"Ġíģ´ëŀĺìĬ¤":11908,"Ð²":11909,"Ġê³łíĨµ":11910,"íİ´":11911,"ë°ĶìĬ¤":11912,"Ġë¶ĪëłĢ":11913,"Ġë¦¬ê·¸ìĹĲìĦľ":11914,"ĠíħĮìĺ¤":11915,"èĹ¤":11916,"Ġì¤ĳíķĻêµĲìĿ´ëĭ¤":11917,"ates":11918,"ëª©ìĹĲ":11919,"ëįĶìĬ¨":11920,"ìłĪìĿĦ":11921,"Ġê·¸ë£¹ìĿĺ":11922,"ìŀĲë³¸":11923,"Ġê°ľìĦ±":11924,"ĠìĨĮìľĦ":11925,"Ġë²łíĨłë²¤":11926,"íķĺìĹĲìĦľ":11927,"ĠCan":11928,"íĬ¹ì§ĳ":11929,"ĠëĦ¤ëįľëŀĢëĵľìĿĺ":11930,"īĺ":11931,"Ġì¶ľëł¥":11932,"Ġ59":11933,"ê·ľì¹Ļ":11934,"âĻ":11935,"ĠìĿĮë°ĺìĿĦ":11936,"ê²°ìłķ":11937,"êµ°ìĹĲê²Į":11938,"Ġë²łëĦ¤ì¹ĺìķĦ":11939,"ìķĦìĿ¼ëŀľëĵľìĿĺ":11940,"ìłľíķľ":11941,"ĠëıĻìĦľ":11942,"ĠíĬ¸ëŁŃ":11943,"Ġë³¸ìĦłìĹĲ":11944,"Ġë¬´ìĤ°":11945,"ë¶ĢìĤ°ê´ĳìĹŃìĭľ":11946,"ĠìĬ¤ìĬ¹":11947,"ĠìĥĿê°ģìĿĦ":11948,"ĠFAì»µ":11949,"Ġë°ķìĦ±":11950,"ĠêµĲê³¼":11951,"ĠPer":11952,"Ġë§¥ìĬ¤":11953,"Ġ85":11954,"åĲ³":11955,"çĽ£":11956,"ĠìĽĲëŀĺëĬĶ":11957,"Ġìĸ´íķŃ":11958,"ì²ľìĤ¬":11959,"ĠëĤ¨ìķĦë©Ķë¦¬ì¹´":11960,"?)":11961,"ange":11962,"Ġì°¬ìĦ±":11963,"ê°¤ëŁ¬ë¦¬":11964,"ìĿ´ê²Į":11965,"Ġë¯¸ì¹ĺëĬĶ":11966,"ê´ĢìĹĲìĦľ":11967,"Ġ63":11968,"Ġìļ°ë¦¬ìĿĺ":11969,"ĠLive":11970,"å¤ı":11971,"Ġ04":11972,"ìĭľëĤĺ":11973,"Ġì§ĢìĹŃìĿ´":11974,"ëĮĢìĻķ":11975,"ĠëĤ´ìŀ¥":11976,"ëĲĺëįĺ":11977,"ì¤ĺ":11978,"ìĺ¤ìĬ¤íĬ¸ëłĪìĿ¼ë¦¬ìķĦ":11979,"ĠìłĦíĺķìłģìĿ¸":11980,"Ġìľłê³łìĬ¬ëĿ¼ë¹ĦìķĦ":11981,"Ġìĺ¤ìĹ¼":11982,"ĠMS":11983,"ĠìĻĢìĦľ":11984,"ĠìĨĮíĻĺ":11985,"Ġ1895":11986,"Ġë³´ìĿ´ê³ł":11987,"ê³µíĻĶ":11988,"ĠëĦĺê²¨":11989,"Ġìĸ¸ìłľëĤĺ":11990,"ìĹĲëĦĪì§Ģ":11991,"ĠSm":11992,"è¡Ľ":11993,"orts":11994,"åģ":11995,"ĠìĭľëĿ¼":11996,"ĠëıĦì¤ĳìĹĲ":11997,"ë¬¼ë¦¬":11998,"ĠìĦ¸ìĽł":11999,"ëĦ¤ê°Ģ":12000,"Ġë§ºìĹĪëĭ¤":12001,"ë³´ëıĦ":12002,"Ġë¬´ìĦł":12003,"ersion":12004,"èĶ":12005,"ìĤ°ê³¼":12006,"ĠìŀĦìĭł":12007,"ĠìŀĲìĭłìĿĢ":12008,"ëŁ¬ëĵľ":12009,"ë°Ľì¹¨":12010,"Ġì²ĺìĿĮìĹĲ":12011,"ë§ĪìĿ¼":12012,"ĠìłģìłĪíķľ":12013,"ìĦ¬ìĿĺ":12014,"ë¦¬ìĸ¼":12015,"ìľĦìĦ±":12016,"ĠìĬ¤ì¿¨":12017,"Ġìļ´ë°ĺ":12018,"íĿ¥êµ°":12019,"ìĿ´ëĿ¼ë©°":12020,"åľĸ":12021,"Ġíļ¨ê³¼ê°Ģ":12022,"Ġìŀ¬ë¬´":12023,"Ġê²ĥìĿ´ê³ł":12024,"íĨłë¥´":12025,"åĬŁ":12026,"Ġë¶ģê·¹":12027,"ĠìĤ¬ì§ĦìĿĦ":12028,"ĠìĮįëĳ¥ìĿ´":12029,"Ġëĵ¤ìĸ´ê°Ħ":12030,"ĠUp":12031,"EA":12032,"Ġ66":12033,"ĠìĤ¬ìľĦ":12034,"ì¦Īë²ł":12035,"ĠëĤ´ì§Ģ":12036,"æĦĽ":12037,"ìľłëĭĪë²Ħ":12038,"ĠìķĪìĦ±":12039,"Ġê·¸ë¦¬íķĺìĹ¬":12040,"ĠìĿ´ìĤ¬íļĮ":12041,"ĠëĮĢíķľë¯¼êµŃìĹĲìĦľëĬĶ":12042,"ìĶ¨ë¥¼":12043,"Ġì§ĢìĽĲíķľëĭ¤":12044,"èŃ°":12045,"Ġì¢ģìĿĢ":12046,"ëŁ¬ìĬ¤íĬ¸":12047,"ì²ľìĿĺ":12048,"ĠAc":12049,"ìĨĮëĭĪ":12050,"ì¸Ħ":12051,"ìĭľëĵľ":12052,"íķ´ì§Ħëĭ¤":12053,"ê³µë¬´ìĽĲ":12054,"ëĦĪëĬĶ":12055,"ëĿł":12056,"ĠìĦ±ê·łê´Ģ":12057,"Ġë¯¼ì¤ĳ":12058,"ì¹´ëĬĶ":12059,"Ġì¹´íĬ¸":12060,"ĠìłľëĭĪ":12061,"Ġì¤ĳìĹĲìĦľëıĦ":12062,"Ġìĺ¤ëĶĶìĺ¤":12063,"Ġëĭ¤ë£¬":12064,"ê²½ëĤ¨":12065,"Ġìĭ¤ìļ©":12066,"!ãĢĭ":12067,"ìŀ¥ìĿ¸":12068,"Ġë³Ħë¡ľ":12069,"ĠíĥĦìĨĮ":12070,"ĠìĤ¬ë¡ľ":12071,"ĠìĿ¸ì¡°":12072,"Ġì£¼ìĸ´ì§Ħ":12073,"ĠìĹĲìĬ¤íĨł":12074,"Ġíģ¬ê¸°ê°Ģ":12075,"ĠìĦĿë°©":12076,"Ġì¤ĳíĻĶìĿ¸ë¯¼ê³µíĻĶêµŃìĿĺ":12077,"ëĿ¼ë¯¸":12078,"Ġìĺ¤ë¦¬ì½ĺ":12079,"ĠìŀĪìľ¼ë©´":12080,"Ġì£¼ë¬¸":12081,"Ġë¯¸êµŃìĹĲ":12082,"ĠëĶĶìł¤":12083,"Ġìĭľê°ĦìĹĲ":12084,"ìĬĺ":12085,"Ġì°¨ì§Ģíķľëĭ¤":12086,"ĠìŀĲìĦ¸":12087,"ĠíĺĦìĥģìĿĦ":12088,"ì²ľëıĻ":12089,"ĠìŀħìĹĪëĭ¤":12090,"ì²ľëħĦ":12091,"ê²°íĺ¼":12092,"ĠëĬ¥ëł¥ìĿ´":12093,"Ġíĺ¸ë¥´":12094,"Ġì²ľíĻ©ìĿĺ":12095,"ĠìķĦë¬´ëŁ°":12096,"ĠìłĦìŀĦ":12097,"Ġìłľì£¼íĬ¹ë³ĦìŀĲì¹ĺ":12098,"ĠìĹ¬ìĿ¸":12099,"ãĤŃ":12100,"ĠíĬ¸ëłĪ":12101,"Ġì¦Ŀê¶Į":12102,"é®®":12103,"inn":12104,"Ġìĺģíĸ¥ëł¥ìĿĦ":12105,"èī¯":12106,"ĠìĪĺìĪĺ":12107,"æĢĿ":12108,"ë§Īì¼Ģ":12109,"olution":12110,"íļĮë¡ľ":12111,"ì¡Įëįĺ":12112,"é¢¨":12113,"Ġê³ģ":12114,"Ġë³¸ìĿ¸":12115,"Ġêµī":12116,"ĠìĦľë°©":12117,"ĠìĤ°ìķħ":12118,"Ġê¸Īê°ķ":12119,"íģĲìĸ´":12120,"Ġëĭ¬ìĦ±íĸĪëĭ¤":12121,"ê·¸ë¦¼":12122,"ĠíĽĦìĿĺ":12123,"ì½Ķê°Ģ":12124,"Ġê³µê°ĦìĿĦ":12125,"Ġëĵ±ìŀ¬":12126,"ëĿ¼ëį¸íĶ¼ìķĦ":12127,"Ġê³Ħì¸µ":12128,"ĠìĦ¤ë¦½íķľ":12129,"Ġwebsite":12130,"åĭķ":12131,"ëıĦêµ°":12132,"Ġíĺ¸íĻĺ":12133,"Ġì¹ľìĿ¼ë°ĺë¯¼ì¡±íĸīìľĦ":12134,"ĠìĿĺê±°":12135,"ĠìĸĳìĭĿ":12136,"ìĿ¸ì¹ĺ":12137,"ĠìĤ¬ê¸°":12138,"ĠìķĦíĮĮ":12139,"íļĮìĽĲ":12140,"ĠCH":12141,"ĠAR":12142,"Ġë¶Īëªħ":12143,"ì²łìĿĺ":12144,"ĠëĮĢíķ´ìĦľëıĦ":12145,"Ġëª»íķĺê²Į":12146,"èªŀ":12147,"ĠìĿ´ìĻ¸ìĹĲëıĦ":12148,"Ġì§Ģíĳľ":12149,"Ġëªħì¹Ńìľ¼ë¡ľ":12150,"ĠìĿĮíĸ¥":12151,"ìķĦë¥¼":12152,"íİĳ":12153,"ield":12154,"íħĮíģ¬":12155,"ëıĮìĿ´":12156,"Ġcon":12157,"Ġì¡°ìĦłì´Ŀëıħë¶Ģ":12158,"ìĤ¬ìĭľ":12159,"ze":12160,"Ġê´":12161,"Ġë°Ľìľ¼ë©°":12162,"íĥĦìĿĦ":12163,"view":12164,"ĠTime":12165,"Ġëĭ¹íķ´":12166,"Ġë©Ķë¥´":12167,"Ġê¹Ģì¤Ģ":12168,"ëłīìĬ¤":12169,"LS":12170,"ĠìĹ°ê³Ħ":12171,"ĠëģĪ":12172,"ĠëĲĺê¸°ëıĦ":12173,"ĠìłģìĿĦ":12174,"Ġë¸ĮëĿ¼ëįĶìĬ¤":12175,"åĪ©":12176,"Ġê°Ħìłĳ":12177,"ìķ¼ë§ĪíĺĦ":12178,"ëĦĪìĿĺ":12179,"ĠìĤ¬ìłľ":12180,"ë¬´ë¡ľ":12181,"ĠìŀĪìĬµëĭĪëĭ¤":12182,"ĠíĹĺ":12183,"Ġpp":12184,"ĠíĿ°ìĥī":12185,"ĠìĪĺë°±":12186,"ìĹ¬ëŀĺ":12187,"íĳľì¤Ģ":12188,"ĠCON":12189,"Ġë³¸ë¶Ģ":12190,"ì²ŃìĨĮëħĦ":12191,"Ġ3000":12192,"ĠNe":12193,"ĠíıŃê²©":12194,"ember":12195,"åı£":12196,"ĠíĿĲë¥´ëĬĶ":12197,"ë²Ħë¦¬":12198,"Ġê·¸ëŁ¬ë¯Ģë¡ľ":12199,"ĠìĦłë°°":12200,"ì¦ĪìĻĢ":12201,"ç«ł":12202,")>":12203,"ĠìľĦê¸°":12204,"ĠêµŃê°Ģê°Ģ":12205,"Ġê±´ë¬¼ìĿĢ":12206,"Ġê¶ĮíķľìĿĦ":12207,"ĠëĮĢëĭĪ":12208,"Ġë©ĶëĶĶ":12209,"Ġë¶ĢíĨµëł¹":12210,"ë°´":12211,"ë¸ĮìĬ¤":12212,"ĠìĦłíĺķ":12213,"Ġë§ĪìĹĲ":12214,"ìŀ¬ìĿĺ":12215,"Ġëĭ¹ëĤĺëĿ¼":12216,"ĠìĥĪëĪĦë¦¬":12217,"Ġê´Ģëł¨íķĺìĹ¬":12218,"íĪ´":12219,"ĠìĥģìĿĺ":12220,"ëŀĺìĬ¤":12221,"ê°Ķê³ł":12222,"Ġëļ«":12223,"Le":12224,"Ġå¤§":12225,"Ġund":12226,"Ġë§īëĤ´":12227,"lin":12228,"tr":12229,"ĠëĿ¼ìĬ¤":12230,"ĠìĤ¬ìĿ´ëĵľ":12231,"ux":12232,"Sc":12233,"ĠìĤ¬ëŀĮìľ¼ë¡ľ":12234,"Ġìŀħì¦Ŀ":12235,"ĠëĦ¤ìĿ´ìħĺìĬ¤ì»µ":12236,"Ġê²½ê³ł":12237,"Ġëª¨ëį¸ë¡ľ":12238,"ĠíĽĶ":12239,"ĠìĹŃìłĦ":12240,"ÑģÐºÐ¸Ð¹":12241,"ëģĿ":12242,"ideo":12243,"èĲ¬":12244,"ë¬´ìĹŃ":12245,"ĠíĽĦê¸°ìĿĺ":12246,"Ġìŀ¥ë©´":12247,"Ġì§ĢìĹĪëĭ¤":12248,"ĠíĸĦ":12249,"ìĽĲëŀĺ":12250,"Ġëĵ¤ìĹĪëĭ¤":12251,"ĠëĴ¤ë¡ľ":12252,"êµĲìĭ¤":12253,"Ġì¤ĳìĭľ":12254,"ìĪĺìĪĺ":12255,"ì¤ĳëĮĢ":12256,"Ġê±¸ëł¤":12257,"EST":12258,"çŃ":12259,"Ġìľ¼":12260,"Ġê±°ë¦¬ìĹĲ":12261,"Ġìĭ¤ìĪĺ":12262,"ìľĦìķĪ":12263,"íĭ°ìĹĲ":12264,"ìĬ¤íĥĢìĿ¸":12265,"Ġê·¸ëł¤ìł¸":12266,"Ġëĭ¤ìĿĮìľ¼ë¡ľ":12267,"Ġê°Ħë¶Ģ":12268,"ĠìĿĺë¯¸ê°Ģ":12269,"ĠìĿ´ë¥´ê¸°ê¹Įì§Ģ":12270,"Ġì£¼ëª©ìĿĦ":12271,"ĠëĿ¼ìĿ´ìĸ¸":12272,"Ġë¶Ģë¶ĦìĹĲ":12273,"Ġì£¼ë³ĢìĹĲ":12274,"ĠìīĲ":12275,"Ġëį´ë§Īíģ¬ìĿĺ":12276,"Ġë¡ľë§¨íĭ±":12277,"ĠìķĦëĬĶ":12278,"Ġìĺģëĵ±":12279,"ìłĦì°¨":12280,"ĠìĦľë¶ģ":12281,"ĠìĹĨìĹĪëįĺ":12282,"ìŀŃ":12283,"ĠìĺģëıĻ":12284,"Ġì¹Ļ":12285,"ĠíİĢ":12286,"Ġì§ĦìĪł":12287,"Ġì¤ĳìĨĮ":12288,"Ġì§Ħëĭ¨":12289,"ĠìĭľëĵľëĭĪ":12290,"Ġê´Ģìĭ¬ìĿ´":12291,"ëħ¸íĶĦ":12292,"Ġíĥľê¶ĮëıĦ":12293,"ãĤĴ":12294,"ĠìĿ´ìłģíķĺìĺĢëĭ¤":12295,"ê°Ģê³ł":12296,"Ġê¹Ģì°½":12297,"ìĺĪìĦł":12298,"ìĹ°íķľ":12299,"ĠìĤ°ë¦¼":12300,"ĠíķĦìļĶë¡ľ":12301,"ĠìĹĲìĦľ":12302,"ĠìºłíĶĦ":12303,"æºª":12304,"ĠìĦ±ê³¼ë¥¼":12305,"Ġì´Īëŀĺ":12306,"ĠíĨłë²Į":12307,"ĠìĤ°íĥĢ":12308,"ĠìĹĨìĹĪê³ł":12309,"ì¤Į":12310,"let":12311,"Ġë¶Ļìŀ¡":12312,"Ġì§ĢëĤĺì§Ģ":12313,"700":12314,"Ġê³łë°±":12315,"Ġíĭ°ë²łíĬ¸":12316,"Ġë°ĸìľ¼ë¡ľ":12317,"ë¹Ħë¡ĢëĮĢíĳľ":12318,"ê¸īìĿĺ":12319,"Ġê¹ĬìĿ´":12320,"GM":12321,"Ġìľłìŀħ":12322,"ĠìľĦíĥģ":12323,"ĠìļĶê¸Ī":12324,"ìºĲë¡¤ëĿ¼ìĿ´ëĤĺ":12325,"Ġíķ´ìļ´":12326,"ëł¹ìĹĲ":12327,"íļĮìłĦ":12328,"ìķ½ëł¥":12329,"ëĪĦë§Ī":12330,"Ġëĭ¤ëħ":12331,"Ġë³´ìĿ´ë©°":12332,"Ġë§Īì¹ĺê³ł":12333,"ĠMc":12334,"ĠìĨĲìĥģ":12335,"Ġë¹ĮíĹ¬ë¦Ħ":12336,"Ġë¨¹ëĬĶëĭ¤":12337,"bum":12338,"Ġ1915":12339,"ê²½ê¸°ìĹĲìĦľ":12340,"Ġìłľíľ´":12341,"Ġ110":12342,"ĠíķŃíķ´":12343,"ĠìĪľì²ľ":12344,"Ġê³³ìĿĢ":12345,"ĠìĹ°êµ¬ëĬĶ":12346,"Ġë©ĭ":12347,"Ġíĥľê·¸":12348,"ĠíĶĮëłĪìĿ´ìĬ¤íħĮìĿ´ìħĺ":12349,"ĠìĹ°ìĦ¤":12350,"ìĺģìĿ´":12351,"ĠìĿ´ëĤł":12352,"Ġêµ½":12353,"ĠíķĺìĤ¬":12354,"Ġë³´ëĥĪ":12355,"Ġê²°ê³¼ë¡ľ":12356,"èº«":12357,"ê³łëŀĺ":12358,"ä¾¯":12359,"Ġë¶Ģì²ľ":12360,"ì¡Įìľ¼ëĤĺ":12361,"My":12362,"Ġìµľìĭł":12363,"Ġë³µì§Ģ":12364,"Ġíķĺë§Ī":12365,"Ġíħľ":12366,"ĠíĻĶíıĲ":12367,"Ġë¶Īë¦¬ë©°":12368,"ĠìĿ¸íħĶ":12369,"ular":12370,"Ġãħ":12371,"ĠëĳĲëĵľ":12372,"Ġìĭľê°ĦìĿĢ":12373,"ĠìŀĲìľ¨":12374,"ëĦ£":12375,"íİ¸ìĿ´":12376,");":12377,"íģ¬ë¦¬":12378,"ëłĪíĭ°":12379,"çľŀ":12380,"ĠìµľíĽĦìĿĺ":12381,"ĠìķĪëĵľë¡ľìĿ´ëĵľ":12382,"ç½":12383,"Ġíģ¬ê¸°ìĿĺ":12384,"Ġë¨¸ë¦¬ë¥¼":12385,"ìĸ´ìļĶ":12386,"ìķĪëıĻ":12387,"Ġë¯¼ì£¼ì£¼ìĿĺ":12388,"ĠíĶĦë¡ľíĨłì½ľ":12389,"NC":12390,"Ġì°½ìĹħ":12391,"ycl":12392,"ëĲĺìĹĪëĭ¤ëĬĶ":12393,"Ġíģ¬ëłĪìĿ´":12394,"Ġê¹Ģëªħ":12395,"Ġê²°ìĭ¬":12396,"Ġì´Īê¸°ìĹĲëĬĶ":12397,"æ¾":12398,"èĸ":12399,"ìĬ¤ë¶Ģë¥´íģ¬":12400,"ë§ĪìĬ¤íĦ°":12401,"ĠìĽĲëįĶ":12402,"ĠìĤ¼ìķĺëĭ¤":12403,"ĠâĪ":12404,"ĠìĪĺëĭ¨":12405,"ë¯¸ìĵ°":12406,"Ġì°¸ê°ĢíķĺìĺĢëĭ¤":12407,"ĠëĵľëĿ¼ìĿ´ë¸Į":12408,"ìĦľìĽĲ":12409,"ìĸµìĽĲ":12410,"íķ´ì§Ģê³ł":12411,"Ġëĭ¿":12412,"ĠìĭłíĿ¥":12413,"over":12414,"ì§ĢëĤĺ":12415,"ĠìĻ¸ìĿĺ":12416,"ìķĶìľ¼ë¡ľ":12417,"Ġë²ĪëĩĮ":12418,"ĠìĿ´ìļ©íķĺëĬĶ":12419,"Ġëª¨ì§ĳ":12420,"éĸĭ":12421,"ëħĦìĥĿ":12422,"ìķĦìĭľìķĪ":12423,"ĠíĻľëıĻíķľ":12424,"ëĵ¤ê³¼ìĿĺ":12425,"ĠëĮĢëĭ¨":12426,"Ġ68":12427,"Ġë¶Ģì²ĺ":12428,"ĠëĮĢë¡ľ":12429,"Ġì¶ľíĺĦ":12430,"ëĦ¤ìĬ¤ì½Ķ":12431,"Ġmm":12432,"Ġì£¼ìĨĮ":12433,"ĠëĤ¨êµ¬":12434,"Ġìŀħë¬¸":12435,"ĠìĦ¸ê³ĦìĹĲ":12436,"Ġê·¸ë¦¬ìĬ¤ëıĦ":12437,"ĠìĪĺëª©ëĵľëĿ¼ë§Ī":12438,"Ġì¡°ìĦłìĭľëĮĢìĿĺ":12439,"ĠíĨµíĸī":12440,"Ġëª©ìĪ¨ìĿĦ":12441,"ë§ĲëĿ¼":12442,"ael":12443,"íķĺë¦¬":12444,"ì£¼ê¸°":12445,"ĠíĨ¤":12446,"ĠRem":12447,"íĶĮëŁ¬ìĬ¤":12448,"ì£¼íĥĿ":12449,"Ġíı¬íģ¬":12450,"Ġë°ķê·¼íĺľ":12451,"ĠìķĦëĵ¤ìĿ´ëĭ¤":12452,"åº¦":12453,"ìģĺ":12454,"ĠìĿ´íĥľ":12455,"ë¬¼ê³¼":12456,"ros":12457,"ì¡ĮìĿĦ":12458,"Ġëª¸ë¬´":12459,"ĠíĮĮìĿ´ëĦĲ":12460,"íĥĢëĤĺë²ł":12461,"web":12462,"Ġë§īìĿĦ":12463,"ìľłë¦¬":12464,"åľ¨":12465,"Ġë¶Ħê¸°ìłĲ":12466,"ìĭłëĿ¼":12467,"Ġë§Īë£¨":12468,"ìĺĢëĭ¤ê³ł":12469,"ì¤ĳíĻĶìĿ¸ë¯¼ê³µíĻĶêµŃìĿĺ":12470,"ĊĠĊĠĊ":12471,"Ġìĸ´ë¦´":12472,"Ġê±°ì¹ľ":12473,"Ġëį°ìĬ¤":12474,"ì¡Įì§Ģë§Į":12475,"ìĿ¼ê¸°":12476,"ëĦ¤ìĿĺ":12477,"Ġìĩłíĩ´":12478,"Ġê¹ĢíĿ¬":12479,"Ġë¹¨ë¦¬":12480,"Ġë§ŀëĬĶ":12481,"Ġë°´ëĵľìĿĺ":12482,"ëıĻìķĦ":12483,"Ġï¼":12484,"ëķĮë¡ľ":12485,"ä¿Ŀ":12486,"of":12487,"DVD":12488,"ĠCor":12489,"Ġì§ĢìĹŃìĹĲìĦľëĬĶ":12490,"æĻº":12491,"íħįìĤ¬ìĬ¤":12492,"ĠíķĺëĵľìĽ¨ìĸ´":12493,"ê²½ìŁģ":12494,"ì°¨ë³Ħ":12495,"ĠíĻĺìŀĲ":12496,"uth":12497,"íķĺê°Ģ":12498,"Ġìłľìķ½":12499,"íıīë¦¬":12500,"Ġë³ĢíĻĶê°Ģ":12501,"Ġë¹Ħë¡¯íķ´":12502,"ĠìķĦìĦľ":12503,"ĠBer":12504,"Ġêµ¬ë¦Ħ":12505,"ĠìłķëıĦìĿ´ëĭ¤":12506,"ä¸ŃåŃ¸æł¡":12507,"Ã¨":12508,"ĠìºĲìĬ¤íĮħ":12509,"æ¦":12510,"ĠêµŃê²½ìĿĦ":12511,"ë¬´ë¥´":12512,"Ġì¤ĳêµŃìĹĲìĦľ":12513,"ë³´ê°Ģ":12514,"ĠêµĲìĭ¤":12515,"Ġ62":12516,"Ġêµ°ìĤ¬ë¥¼":12517,"Ġê³µíĻĶëĭ¹":12518,"íĻįì½©ìĿĺ":12519,"ĠëĳĲëł¤ìĽĮ":12520,"ĠëĮĢìĦľìĸĳ":12521,"ĠìŀĦìĭľìłķë¶Ģ":12522,"ìĬĲ":12523,"ëĵľë¦¬ìķĦ":12524,"ìłĦëŀµ":12525,"Ġê²½ìĹ°":12526,"ĠëĮĢëĭµ":12527,"Ġìľłê²©":12528,"Ġì¼ĢëĦ¤":12529,"è¦ª":12530,"åĩº":12531,"uck":12532,"ĠíĴįë¶Ģíķľ":12533,"Ġë³´ìŀī":12534,"Ġë¯¸ì¸ł":12535,"ĠìĬ¤íİĻíĬ¸ëŁ¼":12536,"íĨµìĥģ":12537,"ë²ĦëŁ¬":12538,"ĠíŀĪìĸ´ë¡ľì¦Ī":12539,"ìĥĿíĥľ":12540,"ë¡ľëĭĪ":12541,"Ġì²ŃìĻĢ":12542,"Ġë³µêµ¬":12543,"íĤ¤íĥĢ":12544,"ĠìĽĲíĺķ":12545,"ëĵĿìłĲ":12546,"ĠëĥĪëĭ¤":12547,"çį":12548,"Ġ98":12549,"Ġì½Ķìĸ´":12550,"ìĺ¨ëĭ¤":12551,"å·¦":12552,"GB":12553,"ĠìłľìŀĲ":12554,"Ġì£¼íķľ":12555,"ë¥ĺìĹĲ":12556,"ĠíıĲê¸°":12557,"íĳ¸ë¥´íĬ¸":12558,"ĠíĬ¹ìĦ±ìĿĦ":12559,"Ġë¹ĦìĬ¤":12560,"íĨłëĬĶ":12561,"ĠêµĲëıĦ":12562,"ë¡łê³¼":12563,"ìĺĪíĶĦ":12564,"Ġë¯¼ìĨį":12565,"ĠĊĠĊĠĊĠĊĠĊĠĊ":12566,"ĠìĥģíĻ©ìĿ´":12567,"ĠíĿĲë¦Ħ":12568,"Ġëĵ¤ìĹ¬":12569,"åħ¸":12570,"ĠìĿ´ìĬ¤íĬ¸":12571,"ìķĦìĤ¬":12572,"Ġì½ĶíĬ¸":12573,"ì°½ìĽĲ":12574,"ĠëĤĺê°Ģëħ¸":12575,"ĠìĹ´ì°¨ëĬĶ":12576,"ìĨĮëł¨":12577,"Ġê´ĢëŀĮ":12578,"Ġìĩ¼íķĳ":12579,"Ġíı¬íĦ°":12580,"ĠìŀħëĮĢ":12581,"Ġê³µëıĻì²´":12582,"ìľĹ":12583,"ìĤ¬ì§Ģ":12584,"Ġìľłìļ°":12585,"Ġê°ķìĿĦ":12586,"ĠìĤ¬ìĿ´ë²Ħ":12587,"Ġëª¨ìĸĳìľ¼ë¡ľ":12588,"Ġì´":12589,"ĠëĮĢë²ķìĽĲ":12590,"Ġë²ķìĿ¸":12591,"ä¸ĥ":12592,"ìĿĮìĹĲ":12593,"ĠìķĬìķĺìľ¼ë©°":12594,"Ġì¶ĺì²ľ":12595,"æĨ²":12596,"ìĹ°ëıĦ":12597,"ĠìĹĨê¸°":12598,"Ġbe":12599,"Ġìĺ¤íĤ¤ëĤĺìĻĢ":12600,"éħ":12601,"ĠìķĦë§Īì¶Ķìĸ´":12602,"ì¡°ìķ½":12603,"ĠPe":12604,"ĠNight":12605,"ë¥µ":12606,"Ġê°ĦìĦŃ":12607,"ìĬ¤ìľĦìĬ¤":12608,"ìłľìĭľ":12609,"Ġì¼Ģë¹Ī":12610,"Ġê¸°ë³¸ìłģìĿ¸":12611,"ëıĻìĦ±":12612,"ĠìĽĲìŀ¥":12613,"ĠëģĿëĤ´":12614,"Ġêµ¬ê°ĦìĿĢ":12615,"ì¶ľíĮĲìĤ¬":12616,"Ġë¦¬ë©ĶìĿ´íģ¬":12617,"ãģ¡":12618,"Ġíľł":12619,"ĠêµŃë°©ë¶Ģ":12620,"ck":12621,"æ¤":12622,"ĠìĤ¬ìłģ":12623,"ĠëįĶë¹Ļ":12624,"íĳ¸ë¥´":12625,"ĠìĦłëĳĲ":12626,"ĠëĤĺëĤĺ":12627,"ĠëĲĺìĹĪëĬĶëį°":12628,"GC":12629,"ì§ģìĽĲ":12630,"ĠíķĻë¶Ģ":12631,"Ġê³µëıĻìłľìŀĳ":12632,"ĠMP":12633,"ë§Īë¥´íģ¬":12634,"Ġë©Ķëª¨":12635,"Ġìķ½ê°ĦìĿĺ":12636,"ì§Ħêµ°":12637,"ĠìłĢíĥĿ":12638,"Ġìķ¨ë²ĶìĿĦ":12639,"Ġê³¼ê±°ìĹĲ":12640,")ãĢı":12641,"ilm":12642,"ë°Ľì§Ģ":12643,"Ġìľµíķ©":12644,"èĮ":12645,"ë¬¸ê´Ģ":12646,"Ġì¤":12647,"ë©´ìĦľëıĦ":12648,"Ġì°¸ê°ĢíķĺìĹ¬":12649,"Ġìĭ¤ìĭľëĲľ":12650,"Ġìĭľì§ĳ":12651,"ìĭłìľ¼ë¡ľ":12652,"Ġë°ľíļ¨":12653,"Ġìµľê·¼ìĹĲëĬĶ":12654,"ĠìĤ¶ìĿĺ":12655,"SF":12656,"ê°ĢìĿ¸":12657,"ìľ¼ëł¤":12658,"Ġë¶ĢíĴĪ":12659,"ĠìĹ¬ìļ°ì£¼ìĹ°ìĥģ":12660,"ìĦĿíĥĳ":12661,"Ġë§Ĳíķĺê³ł":12662,"Ġê°ľë°ľìĿĦ":12663,"Ġê²°ìłķíĸĪëĭ¤":12664,"éĥİ":12665,"ĠìĪĺë°ĸìĹĲ":12666,"ĠìĻĢìĿ´ë²Ī":12667,"çĿ":12668,"AA":12669,"Ġëª¨íĺķ":12670,"ãģĵ":12671,"ë¯¹ìĬ¤":12672,"ë°Ķëħ¼":12673,"ĠíĨłë§Ī":12674,"Ġë¶Ħíı¬íķľëĭ¤":12675,"ìĬ¤íį¼":12676,"Ġíķĺëĭ¤ê°Ģ":12677,"å¯¶":12678,"ĠâĢł":12679,"John":12680,"ĠìĤ¬ìļ©ìĿ´":12681,"Ġëª©ê²©":12682,"ĠìĤ¬ì§ģ":12683,"Ġê³§ë°Ķë¡ľ":12684,"µ¸":12685,"Ø§":12686,"MHz":12687,"ìĹĶíĦ°íħĮìĿ¸ë¨¼íĬ¸":12688,"Ġìºĺë¦¬íı¬ëĭĪìķĦì£¼":12689,"æĩī":12690,"ë¦°ìĬ¤":12691,"ë§¤ì¹ĺ":12692,"ĠStar":12693,"Ġë°©íĸ¥ìĿĦ":12694,"ë¶ĻìĿ´":12695,"ĠíķĺìĻĢìĿ´":12696,"Ġêµ¬ë¦¬":12697,"çĻ¾":12698,"ë³¸ìĿĢ":12699,"ìŀĦë¸Įë¦¬ì§Ģ":12700,"ëĵ±íķľ":12701,"ĠìķĦëĭĪê³ł":12702,"Ġì°¨ì§ĢíķĺìĺĢëĭ¤":12703,"ĠÂł":12704,"íķĺëĭĪ":12705,"Ġê³³ìĿĦ":12706,"ĠìĹ¼ìĥī":12707,"ĠìĿĢë©Ķëĭ¬ë¦¬ìĬ¤íĬ¸":12708,"Ġë°Ģìĸĳ":12709,"Ġë²ĦíĬ¼":12710,"ìĤ¬íķŃ":12711,"Ġê²Įìŀ¬":12712,"my":12713,"Ġë¬¸ìŀ¥":12714,"Ġ180":12715,"Ġìĺ¤ê°Ģ":12716,"ĠìĺĽëĤł":12717,"ìľ¼ë¡ľìĿĺ":12718,"Ġë¶Ģìĥģìľ¼ë¡ľ":12719,"íĺ¸íħĶ":12720,"ĠìķĮëĿ¼":12721,"ì²ŃìĿĢ":12722,"ĠìĦ¸ìĽĮì§Ħ":12723,"ĠëĿ¼íĭ´ìĸ´":12724,"Ġì½ľë¡¬ë¹ĦìķĦ":12725,"Äģ":12726,"ê¸°ìĿ´ëĭ¤":12727,"ë¶ĦìĿĢ":12728,"Ġë¬¸íĻĶìłģ":12729,"ĠìĿ¼ìĸ´ëĤľëĭ¤":12730,"ĠìĽĲì£¼":12731,"ĠìĿ´ë£¨ìĸ´ì§Ħëĭ¤":12732,"Ġìĸ»ê²Į":12733,"ĠArch":12734,"Ġìĭ¬íķľ":12735,"ĠìĭĿë³Ħ":12736,"Ġì°¨ì§ĢíķĺëĬĶ":12737,"ìķ¡ìĿĦ":12738,"ĠìĿ´ë§Ī":12739,"Ġì¡´ìŀ¬ë¥¼":12740,"ĠíŀĺìĿ´":12741,"ëĭ¹ìĹĲìĦľ":12742,"Ġìķ½ì¹Ń":12743,"ING":12744,"ëłĪìĬ¬ë§ģ":12745,"ĠìŀĲìĭĿ":12746,"ë¯¸êµŃìĹĲ":12747,"ãģķ":12748,"ision":12749,"Ġê°ĢíĨ¨ë¦ŃêµĲíļĮ":12750,"Ġìĺ¤ì¼ĢìĬ¤íĬ¸ëĿ¼":12751,"Ġë²łíĥĢ":12752,"nh":12753,"íı¬íĦ°":12754,"Ġë°Ģìłĳ":12755,"erman":12756,"Ġë§Ĳíķł":12757,"Ġìķ¼ê¸°":12758,"ĠìķĬìķĺëįĺ":12759,"ìĿ¼ê°Ħ":12760,"1928":12761,"ĠìŀĪëĭ¤ê°Ģ":12762,"ãĥŃ":12763,"ë³Ģê²½":12764,"Ġ61":12765,"ĠDes":12766,"ĠíķŃê³µìĤ¬":12767,"Ġê¿ĪìĿĦ":12768,"ìª½ìĿĺ":12769,"ĠìŀĪëĭ¤ë©´":12770,"ĠëĤĺìģľ":12771,"ĠHIV":12772,"Ġê°ĢëĬ¥ìĦ±ìĿĦ":12773,"now":12774,"ë°ı":12775,"ĠìĦľë¨¸":12776,"ĠSH":12777,"ìļ¸ëŁ¬":12778,"Ġê¸īê²©":12779,"ìĥĿíĻľìĿĦ":12780,"ê·¸ëĿ¼ëĵľ":12781,"Ġì¹ľìĦł":12782,"ĠìĺĨìĹĲ":12783,"SM":12784,"ĠëıĻìķĦìĭľìķĦ":12785,"íĿĺ":12786,"ĠíĥĢìĿ´ê±°ì¦Ī":12787,"Ġìĺģê°ĲìĿĦ":12788,"æ´¥":12789,"Ġun":12790,"ì¡°ë¬¸":12791,"ĠAs":12792,"ê¶Įìľ¼ë¡ľ":12793,"ë²Īì§Ģ":12794,"ìĹ´ìĿĺ":12795,"ĠìŀĲìľłë¥¼":12796,"íı´ëŀĢëĵľ":12797,"CAF":12798,"ë¬¸ìŀĲ":12799,"ĠìĦ¸ëł¥ìĿ´":12800,"ĠRep":12801,"ĠTo":12802,"ĠìĿ´ìĸ´ìł¸":12803,"ĠëĮĢì£¼êµĲ":12804,"Ġë°©ë²ķìĿ´":12805,"ĠíĶ¼ìĹĲë¥´":12806,"æ®¿":12807,"ç¹":12808,"outh":12809,"ĠìķĦëŀĺìĿĺ":12810,"FIFA":12811,"ĠëĤ±ë§Ĳ":12812,"ì½¥":12813,"íĬ¸ë¦¬ìĺ¬":12814,"Ġì»¨íĬ¸ë¡¤":12815,"íķĻêµĲë¡ľ":12816,"ĠìĨĮëĭĪ":12817,"ìŀĳìľ¼ë¡ľ":12818,"ë°©ìĹĲ":12819,"ĠíĨµíıĲíķ©":12820,"Ġìĸ¸ëĭĪ":12821,"íĨłê°Ģ":12822,"Ġìŀ¥ë¯¸":12823,"ì±Ķ":12824,"ë¸ĶëŀĻ":12825,"ëł¸ìĿĦ":12826,"ĠìĿĺë¯¸ë¡ľ":12827,"ĠìĽĲë¡ľ":12828,"Ġêµ¬ê°ĦìĿĦ":12829,"ì¢Įìĥģ":12830,"íĭ°ìĿĺ":12831,"íİ«":12832,"Ġê³µëıĻìľ¼ë¡ľ":12833,"ĠëıĦìĭľë¥¼":12834,"Ġê¸¸ìĿ´ê°Ģ":12835,"ĠìĿ¼íĻĺìľ¼ë¡ľ":12836,"ĠíĹĮìķ¡":12837,"ĠISBN":12838,"Ġëħ¸ìĿ¸":12839,"Ġêµ°ìĪĺ":12840,"Ġìºĺ":12841,"ĠëıĦìĭľëĬĶ":12842,"Ġìĭľëĭ¬":12843,"Ġê³łì§Ģ":12844,"Ġì¶ĶëĮĢ":12845,"ĠíļĮìĥī":12846,"Ġìķ¼ë§Īêµ¬ì¹ĺ":12847,"Ġêµīìŀ¥":12848,"íķĻìĹĲìĦľ":12849,"rol":12850,"Ġì§ģë¬´":12851,"ëħĦëĮĢë¥¼":12852,"ĠëĤłì§ľ":12853,"ena":12854,"ëŁ¬ëĬĶ":12855,"éĻ³":12856,"Ġìĺ¤ëĬĺëĤłìĿĺ":12857,"Ġíķĺëħ¸":12858,"Ġë§Ĳíķĺë©°":12859,"Ġíģ¬ê¸°ëĬĶ":12860,"Ġíķ´ì²´ëĲľ":12861,"ĠëĳĲë²Īì§¸":12862,"Ġìºłíį¼ìĬ¤":12863,"êµ¿":12864,"íķĺê²łëĭ¤ê³ł":12865,"ì°®":12866,"formation":12867,"Com":12868,"ìĿ¸ê¶Į":12869,"Ġì£½ìŀĲ":12870,"Ġê¾¸ì¤ĢíŀĪ":12871,"FL":12872,"Ġì£¼ìļĶíķľ":12873,"ĠíĹ¤ëĵľ":12874,"Ġìłľê³µíķĺê³ł":12875,"1931":12876,"ĠìĬ¤íĬ¸ë¦¬íĬ¸":12877,"Ġê¹Ģìľ¤":12878,"ìĽ¬":12879,"Ġë¶Ħëį°ìĬ¤":12880,"Ġê²ĮìĿ´íĬ¸":12881,"Ġ1916":12882,"ìļ©ìĿĦ":12883,"å¤«äºº":12884,"ĠìĿ´ìĿµìĿĦ":12885,"ìĤ¬íĽĦ":12886,"Ġê°Ģíķ´":12887,"ì£¼ìĿĺëĬĶ":12888,"ĠGirl":12889,"ìºłíį¼ìĬ¤":12890,"Ġíĥ¤":12891,"Ġê¸°ìķĦ":12892,"Ġíķľê°ķ":12893,"Ġëĭ¤ê°Ģ":12894,"ì¹´íĬ¸":12895,"Ġë¶Īìĥģ":12896,"Ġëª¸ê¸¸":12897,"ëĶĶê°Ģ":12898,"Ġìķ½íķľ":12899,"Ġì£½ê³ł":12900,"Ġì±ħìĿĢ":12901,"éĥŀ":12902,"ìĿ´ì§ĳ":12903,"ìµľê³ł":12904,"ĠCent":12905,"ë¥łìĿ´":12906,"æŃĮ":12907,"Ġë¶ĢíļĮìŀ¥":12908,"Ġê²°ìĬ¹ìłĦìĹĲìĦľ":12909,"íĥĢë¦¬ìĺ¤":12910,"Ġìĺ¬ë¦°":12911,"Ġíİĺë£¨":12912,"Ġë¯¸ìĸĢ":12913,"Ġì§Ħì§ľ":12914,"Ġì¶©ê²©":12915,"Ġë²łëĦ¤ìĪĺìĹĺ":12916,"ê³łì§Ģ":12917,"ëıĦìĸ´":12918,"íĮĲë§¤":12919,"ìŀĲëĤĺ":12920,"ê³¼ëıĦ":12921,"ìļĶë¦¬":12922,"ëĳĲíĻĺ":12923,"ì¼ĢìĿ´íĮħ":12924,"ĠëĤĺìĦł":12925,"Ġê³¼ìŀ¥":12926,"íį¼ëĭĪ":12927,"ring":12928,"ĠíĨ¨":12929,"ĠìŀĦìĥģ":12930,"Ġsh":12931,"ĠëĪĦëĤĺ":12932,"Ġì¡°ë¶Ģ":12933,"Ġëĵ±ëıĦ":12934,"ĠìĤ´íİ´":12935,"ĠëĶĶë¹Ħìĭľìĺ¨":12936,"ìļ°ìĻĢ":12937,"ë°©ìĿ´":12938,"ĠEv":12939,"Ġìĺ¨ëıĦ":12940,"ĠêµĲìĪĺë¡ľ":12941,"ĠìłĦìĬ¹":12942,"ĠìĿĺë¢°":12943,"Ġíĥľì¢ħ":12944,"ï¼Į":12945,"ĠìķĦìļ°êµ¬":12946,"Ġê±±":12947,"Ġíı¼":12948,"Ġë¬´íļ¨":12949,"ìĭ¬ìĤ¬":12950,"ĠÄ":12951,"ëĲľëĭ¤ëĬĶ":12952,"Ġìĭ¶ìĿĢ":12953,"ç¯Ģ":12954,"ps":12955,"Ġë¦¬ìĬ¤":12956,"Ġì§Ģíĺľ":12957,"ì¡±ìĿĦ":12958,"ĠëĤ´ìļ©ìĿĺ":12959,"the":12960,"å¼ĺ":12961,"íĽĦì¿łìĺ¤ì¹´":12962,"che":12963,"Ġêµ¬ìĥģ":12964,"ĠíĽĦê¶ģ":12965,"1919":12966,"ĠíĮĮì¶©ë¥ĺ":12967,"ì¶ķìłľ":12968,"ura":12969,"ë©ķìĭľì½ĶìĿĺ":12970,"atus":12971,"ĠíĶĦë¡ľê·¸ëŀ¨ìĿĺ":12972,"ìĿ´ìĹĪëĬĶëį°":12973,"ĠëĸłëĤľ":12974,"ray":12975,"Ġê°Ģì§Ī":12976,"ĠìĺĪìłĦ":12977,"angu":12978,"Ġê²¨ìļ°":12979,"ĠìķĬëıĦë¡Ŀ":12980,"ize":12981,"och":12982,"ëĭ¹ìľ¼ë¡ľ":12983,"Ġì¡¸ìĹħíĸĪëĭ¤":12984,"æķ¬":12985,"Ġìĺ¹íĺ¸":12986,"ê°ĦìĿĦ":12987,"Ġë¦¬ì¹ĺ":12988,"ê³łíķľ":12989,"Ġìķķë°ķ":12990,"ìĻ¸êµĲ":12991,"Ġder":12992,"ì¹¼ëĿ¼":12993,"Ġë¬¼ìĿ´":12994,"ĠMag":12995,"ody":12996,"Ġìŀĥê³ł":12997,"ëĵľìĹĲ":12998,"ĠìĿ¼ë¡ľ":12999,"Ġíĥķ":13000,"ĠSec":13001,"íļĮìĿĺìĽĲ":13002,"Ġì¤Ģê²°ìĬ¹":13003,"fl":13004,"ĠAward":13005,"Ġìłģìĥī":13006,"ĠíĸīìłķëıĻ":13007,"ĠìŀĲë£Įë¥¼":13008,"Ġë©ķìĭľì½ĶìĿĺ":13009,"ìłĦìĦł":13010,"ë¹ĦëĤĺ":13011,"Ġìķłëį¤":13012,"ĠìĤ¼ìķĦ":13013,"ĠíĻľëıĻìĹĲ":13014,"æµģ":13015,"Ġì´Ŀìŀ¥":13016,"ĠìĭľìĬ¤íħľìĿĺ":13017,"ĠìłĦìĦ±":13018,"ĠSoci":13019,"Ġëį°ë¦¬ê³ł":13020,"ĠBest":13021,"Ġëª»íķ´":13022,"åĶĲ":13023,"Ġê¸°ìĥĿ":13024,"íĶĮëłĪ":13025,"ĠìķĦë¥´ë©ĶëĭĪìķĦ":13026,"é«Ķ":13027,"êµŃë¯¼íķĻêµĲë¡ľ":13028,"ĠìĤ¬ì¿ł":13029,"ìĦĿê¸°":13030,"Ġìłķë¶Ģë¥¼":13031,"Ġìľ¤ë¦¬":13032,"Ġëĭ´ëĭ¹íķĺëĬĶ":13033,"ìĻķì¡°":13034,"ĠìŀĳíĴĪìĿ´":13035,"Ġíķ´êµ°ìĿĺ":13036,"Ġì¹´íĥĪ":13037,"Ġëªħì¹ŃìĿ´":13038,"Ã¢":13039,"Ġê²ĮìŀĦìĿĢ":13040,"Ġì¡¸ìĹħíķľ":13041,"iver":13042,"ĠëıĮìķĦìĺ¤":13043,"ĠìĦłìłľ":13044,"Ġíİ¸ìŀħëĲĺìĹĪëĭ¤":13045,"ëĿ¼íģ´":13046,"Ġë¶Ģë¶Ģ":13047,"ìĹĳìĬ¤":13048,"íĻĶìĹĲìĦľ":13049,"ëįŁ":13050,"Ġ5000":13051,"ãģ£":13052,"ìľĦìĽĲíļĮê°Ģ":13053,"ìĿ¸ìłĳìĹŃ":13054,"ĠìĪĺìĭł":13055,"åľŁ":13056,"ĠìĿ´ìĨĮ":13057,"Ġë³´ì¶©":13058,"ĠMod":13059,"íĻ©ê¸Ī":13060,"ĠìłĦíķ´ì§Ħëĭ¤":13061,"Ġê¾":13062,"ìĤ¬íĨł":13063,"ĠDream":13064,"ê²°ìĿĦ":13065,"Ġì¢ħêµĲìłģ":13066,"Ġê¹Ģíĺķ":13067,"arm":13068,"Ġìĺ®ê²¼ëĭ¤":13069,"ìŀĲë¥´":13070,"ĠìĦłë¬¼":13071,"ĠëĤ¨ëıĻìĥĿ":13072,"ë¸Ķë¦¬":13073,"Ġê·¸ëŁ¼ìĹĲëıĦ":13074,"ĠìŀĲë°Ķ":13075,"ĠëıĻëŀĺ":13076,"ĠëĮĢíķĻìĹĲìĦľ":13077,"ĠìĹĶì§ĦìĿĦ":13078,"Ġê²½ë¶Ģ":13079,"ë³´ë¦¬":13080,"íĮĮìĹĲ":13081,"Ġê¹Ģíĺľ":13082,"Ġë¬¼ê±´":13083,"Ġíĺĳìĥģ":13084,"ĠìĿ´ìķ¼ê¸°ê°Ģ":13085,"Ġë¿ĲìĿ´ëĭ¤":13086,"Ġê³µìļ©":13087,"Ġê³łë¦½":13088,"ĠíĶ¼ë¶Ģ":13089,"Ġë³ĦëıĦë¡ľ":13090,"Ġë¬¸íĻĶìĿĺ":13091,"120":13092,"EM":13093,"ëĭ¤ë¥´":13094,"Ġëª¨ìĪľ":13095,"íķ´ì£¼":13096,"Ġì»¤íĶĮ":13097,"ĠìľĦíĹĺíķľ":13098,"ĠìľĦê¸°ìĹĲ":13099,"ì²´ìłľ":13100,"Ġë¶ĦìĤ°":13101,"Ġìĸ¼ë§ĪëĤĺ":13102,"ĠíıīìĿ¼":13103,"ë³´ë¥´":13104,"Ġ77":13105,"Ġê²°ê³¼ê°Ģ":13106,"Ġê³Ħê¸°ê°Ģ":13107,"ĠìĺĪë¡ľ":13108,"ì¸łìĻĢ":13109,"åĪ¶":13110,"ĠÃĹ":13111,"ì§Ģíķĺ":13112,"ì¹ĺë©°":13113,"ìĬµìĿĦ":13114,"ë¡ľëıĻ":13115,"ê³łìŀĲ":13116,"íĨłë¥¼":13117,"ĠìľłëŁ½ìĹĲìĦľ":13118,"Ġ1889":13119,"bl":13120,"íķĺìĺĢìĿĦ":13121,"ë¦¼ìĿĦ":13122,"ĠíŀĪë¡ľìĭľ":13123,"ìĦłìĪĺê¶Į":13124,"ìķĦë¹Ħ":13125,"Ġë¯¸ìĭľ":13126,"ìľłë¯¸":13127,"ëª¨ëĬĶ":13128,"Ġë§ĲìĿĢ":13129,"Ġëª¨ìĸĳìĿĦ":13130,"éį":13131,"ìµľì¢ħ":13132,"''":13133,"ìłĦëĿ¼ëĤ¨ëıĦìĿĺ":13134,"åĤ³":13135,"ìĭłìĦ±":13136,"ien":13137,"íķĺëŁ¬":13138,"Ġë°ĿíŀĪ":13139,"ë´Ĳ":13140,"ĠëĨįë¦¼":13141,"ç©º":13142,"ĠìĦ¸ë¸Ĳ":13143,"?\"":13144,"ë¡ľìĿ´":13145,"ĠëıĻì¹ĺ":13146,"Ġë§ĪíĤ¤":13147,"ĠìĹĨìķł":13148,"ì§ĳëĭ¨":13149,"Ġê²½íĹĺìĿĦ":13150,"ĠìĻĵ":13151,"ĠëĤ¨íķľ":13152,"ĠìĨĮìŀ¬ìĿĺ":13153,"æµ¦":13154,"ê±°ì§Ħ":13155,"ìĭ¤ìłĲ":13156,"ĠëªħìĦ±ìĿĦ":13157,"Ġë¶Ħìķ¼ìĿĺ":13158,"ê³µíĮĮ":13159,"Ġë£©":13160,"Ġê³µì§ģ":13161,"ĠíĶ¼ìĹĲ":13162,"ëĭŃ":13163,"Ġë¸Ķë£¨ìĬ¤":13164,"ĠeìĬ¤íı¬ì¸ł":13165,"Ġë¯¸ìħĺ":13166,"ë¥ĺë¡ľ":13167,"ëªħìĿ¸":13168,"ĠBS":13169,"ìĭłê³¼":13170,"íĥĢë¦¬":13171,"åł´":13172,"ĠìŁģ":13173,"ĠìłĦìĹ¼":13174,"ìĨĮíķľ":13175,"Ġìŀ¥ìķłìĿ¸":13176,"ĠìĿ¼ë³¸ìĿĢ":13177,"Ġë°±ìĿ¸":13178,"ĠíĹĪë¦¬ì¼Ģ":13179,"Ġê²°ê³¼ëĬĶ":13180,"Ġro":13181,"Ġê¸°ìļ©":13182,"ê°ľëĬĶ":13183,"ì¡ĮëĬĶëį°":13184,"urop":13185,"Ġë¹Ħì¦ĪëĭĪìĬ¤":13186,"Ġ96":13187,"íİ¸ìĹĲ":13188,"Ġìķ½ë¬¼":13189,"ĠìĿ´ìĬ¹ë§Į":13190,"Ġê·¸ì¤ĳ":13191,"Ġë¹Ħê·¹":13192,"ĠìĿ´ìĹĪëĭ¤":13193,"ë£¨ìĬ¤ìĿĺ":13194,"ĠìĽĶìļĶìĿ¼":13195,"ĠìĪĺë¡ĿëĲľ":13196,"ĠìĦłì§Ħ":13197,"Ġä½ľ":13198,"ìĪ²":13199,"Ġì¹¨íķ´":13200,"Ġìļ´ëıĻìĹĲ":13201,"å¾Ĳ":13202,"ä»¤":13203,"Re":13204,"ĠSong":13205,"ĠëķĮëıĦ":13206,"ì¶ľìĿĦ":13207,"ëĮĢë¦¬":13208,"ĠìĦ¸ìļ°ê³ł":13209,"Ġëĭ¬ìĿĺ":13210,"ëħĦìľ¼ë¡ľ":13211,"Ġì¤ĳìŀ¥":13212,"ĠëĶĺ":13213,"íģ´ëŀľëĵľ":13214,"Ġíĸ¥íķľ":13215,"Ġì°¾ê¸°":13216,"ĠInt":13217,"ë©ĺíĬ¸":13218,"ê²½ì£¼":13219,"ĠìĤ¬ëŀĮìĹĲê²Į":13220,"Ġì´ĪìłĲìĿĦ":13221,"ëª©ë¡Ŀ":13222,"Ġë§İê³ł":13223,"Ġê·ľìłľ":13224,"ì§Ģê¸°ëıĦ":13225,"Ġíķĺë²Ħëĵľ":13226,"ë³´ìĪĺ":13227,"ì²ŃìĿ´":13228,"ĠBook":13229,"ĠíĶ¼ëĤľ":13230,"ĠìĿĳìļ°ìĺĮ":13231,"ëļĿ":13232,"Ġê³łë¯¼":13233,"ëª¨ìĬ¤":13234,"ë²łëĦ¤":13235,"íĶĮëłĪìĿ´ìĬ¤íħĮìĿ´ìħĺ":13236,"Ġíİĺë¦¬":13237,"è§Ģ":13238,"ìĬ¤ìľĦìĬ¤ìĿĺ":13239,"ë²ĦìĬ¤íĦ°ë¯¸ëĦĲ":13240,"ĠìĿĺì§Ģ":13241,"Ġë°ĺìĤ¬":13242,"ĠëĶĶë¹ĦìłĦ":13243,"ĠëĮĢíļĮë¥¼":13244,"éĢ²":13245,"ĠìĿ¼ìĿ¼ìĹ°ìĨįê·¹":13246,"ĠìĨĮëĭī":13247,"ĠìĹĲë²Ħ":13248,"ĠìĤ¬ìļ©ìĿĦ":13249,"ĠëĶ°ëľ»":13250,"Ġì¶©ë¶ģ":13251,"Ġë³´ëĭĪ":13252,"ê·¸ëŁ¬":13253,"ĠìĺģêµŃê³¼":13254,"ĠYour":13255,"New":13256,"ĠëĮĢìĿĺ":13257,"ì½Ķë¯¸ëĶĶ":13258,"ìĿ´ìĬ¤ëĿ¼ìĹĺ":13259,"íĨµê³ĦìĭľìĬ¤íħľ":13260,"ë¡ľë§¨":13261,"ĠìŀĳìłĦìĿĦ":13262,"íĮĮë¥´":13263,"ĠìķĪìĤ°":13264,"Ġì¹¨ëª°":13265,"ìĤ¬ëł¹ê´Ģ":13266,"ê²½ë¶ģ":13267,"ĠíĮĮìĿ´íĦ°":13268,"Ġê¹Ģê´ĳ":13269,"ìĦĿìľ¼ë¡ľ":13270,"ì¯Ķ":13271,"ìłľìĿ¼":13272,"íĥĢìĿ¸":13273,"aul":13274,"be":13275,"Ġì¡°ìĥģ":13276,"Ġê´Ģìŀ¥":13277,"Ġìĺ¬ë¦¼":13278,"ãģ¿":13279,"ĠìĦłê±°íĨµê³ĦìĭľìĬ¤íħľ":13280,"Ġë°ĸìĿĺ":13281,"ìĬ¤íį¼ëĵľ":13282,"ĠëłĪëĭĮ":13283,"ĠìĻķìĭ¤":13284,"ĠíĿĶëĵ¤":13285,"ë§ĪìŀĲ":13286,"ëĤ¨ë©´":13287,"ĠíĬ¸ìľĪìĬ¤":13288,"Ġë¶ĢìĦ¤":13289,"ëĵ±ìĹĲ":13290,"ëĪĦìĹĺ":13291,"âĹĭ":13292,"ography":13293,"ĠìĹŃëıĦ":13294,"ìĭľì¦ĮìĿĦ":13295,"Ġê¸°ì²´":13296,"ĠíħĶ":13297,"Ġì²´ì¡°":13298,"ĠíĹĪë¸Į":13299,"Ġê±´ìĿĺ":13300,"oug":13301,"ĠíĺĦê¸ī":13302,"Ġëĭ¹íĸĪëĭ¤":13303,"ĠìĿ¸ê°ĦìĿ´":13304,"Ġëº":13305,"ĠëĲĺìĹĪëĭ¤ê³ł":13306,"íĿ¬ëĮĢíķĻêµĲ":13307,"La":13308,"Ġê²°ìłķìĿĦ":13309,"RI":13310,"Ġë¶Ģì°©":13311,"ì§ĢìĹŃêµ¬":13312,"ĠìĽĲìŀĳìŀĲ":13313,"ëĮĢìĪĺ":13314,"ìķĦìĹŃ":13315,"ĠAmerican":13316,"ë§ĪíĤ¤":13317,"ì³¤ê³ł":13318,"åĪĿ":13319,"ĠìĪĺíķĦ":13320,"ë°ĶìĿ´íĬ¸":13321,"ëĬĲë¦¬":13322,"ĠĊĠĠĊĠ":13323,"ìĸ´ìĿ´ëĭ¤":13324,"ĠìłķìĿ´ëĭ¤":13325,"ioc":13326,"ì§ĢëĬ¥":13327,"ĠTop":13328,"íķ¨ìĿĢ":13329,"ìĭľëĤ´":13330,"ĠíĻķìĿ¸íķł":13331,"ê³µê°ľ":13332,"Ġë¶ĢíĿ¥":13333,"ĠíķĺëĤĺë¥¼":13334,"Ġê°ĲëıħìĿ´ëĭ¤":13335,"ì¶Ķì§Ħ":13336,"ĠìĿĳëĭµ":13337,"ì§ĳíĸī":13338,"è®":13339,"ĠëĶĶìķĦ":13340,"Ġì°¾ìĿĦ":13341,"Ġì§Ħì¶ľìĹĲ":13342,"íĲģ":13343,"íģ¬ëłĪ":13344,"ë¹Ħìķ¼":13345,"ì¿łë¥´":13346,"ê¸Ģë¦¬":13347,"ĠIP":13348,"ĠìĭľëĮĢë¥¼":13349,"Ġíķ©ë³ĳíķ´":13350,"ĠëĿ¼ìĿ´ìĺ¨ì¦Ī":13351,"AK":13352,"ì·":13353,"ĠëķĮë¬¸ìĿ´ìĹĪëĭ¤":13354,"Ġë²Ķì£¼":13355,"Ġëĭ¹ìĦłëĲĺìĹĪëĭ¤":13356,"ëĤĺê²Į":13357,"Ġê²½ê³Ħë¥¼":13358,"ìķĺìĿĦ":13359,"ĠìĿ¼ë³¸êµŃìľł":13360,"ëĲĺìĹĪê¸°":13361,"ìĽĲìĿĺìĽĲ":13362,"ĠKIA":13363,"åĪ¥":13364,"ãĥŀ":13365,"ĠìĦ¬ìľł":13366,"rain":13367,"ìĸ´ìĹĲìĦľ":13368,"ĠìłģìĿĺ":13369,"Ġë§īìķĦ":13370,"íĢ¸":13371,"Ġíı´ëŀĢëĵľìĿĺ":13372,"Ġì½ĺìĬ¤íĥĦíĭ°ëħ¸":13373,"ìĭľëĮĢìĹĲ":13374,"ì½ĶëĶ©":13375,"ative":13376,"ĠìĻķìľĦ":13377,"ìĦľë¶Ģ":13378,"1924":13379,"ĠìĦ¸ê³ĦìłģìĿ¸":13380,"Ġë¬¸íĻĶë¥¼":13381,"ĠíķĺíĤ¤":13382,"ĠInter":13383,"----":13384,"Ġìŀĺëª»ëĲľ":13385,"ĠëķĮëķĮë¡ľ":13386,"ĠBo":13387,"\".":13388,"ĠìĤ¬ìĽĲ":13389,"Ġê¸°ì¢ħ":13390,"ĠìĤ¬ìļ©íķ´":13391,"ĠìĭľìĬ¤íħľìĿĢ":13392,"Ġì°©ë¥Ļ":13393,"CE":13394,"ìļ°ì§Ģ":13395,"ĠìŀĲìĨĲ":13396,"Ġì§Ħìĺģ":13397,"ĠìĤ¬ìļ©íķĺë©°":13398,"ĠíĨłíģ¬":13399,"Ġì²ľë¬¸íķĻìŀĲ":13400,"{|":13401,"ĠìŀĲê²©ìĿĦ":13402,"ë°ĺìĿĦ":13403,"ĠìµľìĹ°":13404,"Ġë³´ìĹ¬ì£¼ìĹĪëĭ¤":13405,"ì½ĶíĮĮ":13406,"ĠìĺĪìĸ¸":13407,"ĠëłĪìĿ´ëĭ¤":13408,"lor":13409,"1929":13410,"ĠëĤ¨ìª½ìľ¼ë¡ľëĬĶ":13411,"Ġë¯¸ëħ¸":13412,"íı¬ë³ĳ":13413,"ĠëĤ´ìłĦ":13414,"å¾¡":13415,"Ġì§ģìłĳìłģìĿ¸":13416,"ĠëĿ¼íĬ¸":13417,"ìĿ´íķĺ":13418,"ê²½ê³¼":13419,"ĠMed":13420,"íķ¨ìľ¼ë¡ľ":13421,"ë¡łìŀĲ":13422,"Ġë²ķì¡°":13423,"ì¦ĿìĿ´":13424,"Ġì§ĢëĤ´ê³ł":13425,"ĠìĦ¸ê·ł":13426,"Ġìĥģìĥģ":13427,"ë¶Ħê³¼":13428,"íİ¸ìĿĦ":13429,"ĠíļŁ":13430,"ìĬ¨ìĿ´":13431,"çĴ":13432,"ĠëĤ¨ìļ°ì£¼ìĹ°ìĥģ":13433,"Ġíķ©ê³Ħ":13434,"êµŃìłľê³µíķŃ":13435,"ĠìĤ¬ìļ°ëĶĶìķĦëĿ¼ë¹ĦìķĦ":13436,"ĠìĦ±ìĿĺ":13437,"ĠìĿĮë°ĺìĿĺ":13438,"Ġê°ľìµľëĲĺìĹĪëĭ¤":13439,"Ġìłķê¶ĮìĿĦ":13440,"ĠìļĶêµ¬íķĺëĬĶ":13441,"Ġê³µìĭĿìłģìĿ¸":13442,"ìĦ±ìĹĲìĦľ":13443,"ĠìĦ±ê³µìłģìľ¼ë¡ľ":13444,"íķĻê³¼ë¥¼":13445,"ĠìĽ¹íĪ°":13446,"êµŃëĤ´":13447,"Ġì¶©ì¡±":13448,"Ġìĥģìŀ¥":13449,"ëĦ¤ìĭľìķĦìĿĺ":13450,"icle":13451,"ĠEX":13452,"ĠíĮ¨ë°Ģë¦¬":13453,"Ġì§ĢìłķëĲĺìĸ´":13454,"als":13455,"Ġì²«ë²Īì§¸":13456,"Ġê¹Ķ":13457,"Ġëĭ¹íķľ":13458,"uch":13459,"ìĽĲìŀĲ":13460,"ê³¨ëĵł":13461,"ĠëĿ¼ìĿ´ìĦł":13462,"Ġì¡°íķŃ":13463,"ĠìłĲíĶĦ":13464,"Ġê°ĴìĿĦ":13465,"èİ":13466,"ĠëĤĺìĹ´":13467,"ĠìłģëĮĢ":13468,"ĠíĬ¸ë£¨":13469,"ĠíĶĮëĿ¼ìĬ¤":13470,"ĠìĨĲê°ĢëĿ½":13471,"ê´Ģì°°":13472,"ë°Ķëĭ¥":13473,"ĠíĿ©":13474,"Ġì§Ģë°©ëıĦ":13475,"ë¯¸ìĥģ":13476,"ì¶ľìłĦ":13477,"ì¹ľìĿ¼":13478,"Ġìľłì§Ģíķĺê³ł":13479,"ĠìĬ¤ì¼ĢìĿ´íĮħ":13480,"ĠìĦ¤ìĿ´":13481,"Ġì´ĿìĦłìĹĲìĦľ":13482,"ĠìĿ¼ë¶Ģë¡ľ":13483,"Ġì½ĺíħĮìĬ¤íĬ¸":13484,"ĠíĽĦíķľ":13485,"ĠìŀĳìĤ¬ê°Ģ":13486,"Ġë³ĳëł¥ìĿĦ":13487,"110":13488,"Ġëĵł":13489,"ëª¨ëħ¸":13490,"Ġìĺ¨ì²ľ":13491,"ì¿łëĭĪ":13492,"Ġê´Ģê´ĳê°Ŀ":13493,"ì°¨ìŀ¥":13494,"Î¿":13495,"ĠìĨĮìĨįëĲĺìĸ´":13496,"Ġíį¼ìł¸":13497,"ìĸ´ì¡±":13498,"Ġê·ľëª¨ê°Ģ":13499,"Ġë¹ĽìĿĺ":13500,"Ġì§Ħìłķíķľ":13501,"ì²ŃìĿĦ":13502,"ĠíļĮê³ł":13503,"Ġì±ħë´ī":13504,"ê³łì¢ħ":13505,"ĠìĹ´ìĸ´":13506,"ä¿®":13507,"íĬ¸ë§¨":13508,"Ġìŀĳê³¡íķľ":13509,"ĠìķĦì§ģëıĦ":13510,"ĠìĹĶì§ĢëĭĪìĸ´":13511,"ĠíĶĦëŀĳìĬ¤ìĿ¸":13512,"ìĸ´ìĹĲ":13513,"Ġë¹Ħë¡ľ":13514,"íĭ°ëĤĺ":13515,"Ġë°ĺë©´ìĹĲ":13516,"ĠìĦľì´Ī":13517,"ĠìķĪìĿĺ":13518,"oft":13519,"Ġ67":13520,"Ġë¡ľìłĢ":13521,"ĠPS":13522,"ì§ģíķľ":13523,"Ġê´ĳìŀ¥":13524,"Ġíĸ¥ëħĦ":13525,"ìŀĲìĿ´ìŀĲ":13526,"ĠìĨĮê´Ģ":13527,"ê¸°ìĽĲ":13528,"ë¶Īê°Ģ":13529,"Ġìļ°ìĪĺíķľ":13530,"ĠëĵľëĿ¼ìĿ´ë²Ħ":13531,"EG":13532,"ĠìŀĲíļĮìĤ¬":13533,"reen":13534,"Ġì£¼ìłľë¡ľ":13535,"ìĭľëĭ¤":13536,"ĠìĦľìª½ìľ¼ë¡ľëĬĶ":13537,"ì¦Ŀê¶Į":13538,"ĠìķĦëĵ¤ìĿĦ":13539,"Ġëħ¸ë¦¬":13540,"ìĭľê²Į":13541,"ĠìĭľìĻ¸":13542,"Ġê³łë¶Ħ":13543,"ĠêµŃë¯¼ìĿĺíŀĺ":13544,"ĠíķĺìĸĢ":13545,"Ġì¤ĳê¸°ìĿĺ":13546,"ê°ģìĿĺ":13547,"ĠìĤ°ëĭ¤":13548,"è³¢":13549,"ì¡°ìĻĢ":13550,"ĠCPU":13551,"éģĶ":13552,"ëĺ":13553,"ëıĻìĹĲìĦľ":13554,"éĲ":13555,"Ġìĸĩ":13556,"ìĹ°íķ©íļĮ":13557,"arg":13558,"ĠíķĻê³¼":13559,"ĠEl":13560,"ĠìłĦì²´ìĿĺ":13561,"íķ´ëĬĶ":13562,"Ġë¯¸êµŃìĿ´":13563,"å¿Ĺ":13564,"ĠìĽĢì§ģìŀĦ":13565,"ë²ĪëĩĮ":13566,"Ġìĺ¤ì§Ģ":13567,"ãģĬ":13568,"ëª©ìĨĮë¦¬":13569,"aster":13570,"åī¯":13571,"ì§Ħê³¼":13572,"ë³´ìĹĲ":13573,"ì£¼ìĿĺìĹĲ":13574,"Ġíķ©ì°½":13575,"Ġì·¨ìķ½":13576,"Ġë§ĪìĿĮìĿ´":13577,"Ġë¹ĽìĿĦ":13578,"ĠìĸĢ":13579,"Ġë²łìĸ´ìĬ¤":13580,"ĠëĶĶìĬ¤íĶĮëłĪìĿ´":13581,"Ġìŀ¥ìĦ±":13582,"Ġë°ķì¥Ĳ":13583,"å¤ļ":13584,"ëĦ¤ìĨĮíĥĢ":13585,"ĠëıĻë©Ķëĭ¬ë¦¬ìĬ¤íĬ¸":13586,"ìĸĳìĦ±":13587,"ãģ§":13588,"ĠëĤ¨ìĽĲ":13589,"ĠìĺĪë£¨ìĤ´ëłĺ":13590,"ì¯¤":13591,"por":13592,"ê»´":13593,"ĠíĽĪëł¨ìĿĦ":13594,"ëĽ°":13595,"Ġê´ĢìłĲìĹĲìĦľ":13596,"Ġë§ĪìĿĮìŀĳìļ©":13597,"Ġì´ĮìĿ´":13598,"Ġ;":13599,"Ġê³łëıĦ":13600,"ê°ĲìĤ¬":13601,"íķĺëĿ¼ê³ł":13602,"ĠìĿ¼ìĽĲìľ¼ë¡ľ":13603,"Ġë¬´ì£Ħ":13604,"Ġë²Ħë¦¬ê³ł":13605,"Ġì¶ľìĹ°íķľ":13606,"ä½Ĳ":13607,"ĠëĵľëŁ¬ëĤĺ":13608,"ĠíĸĪëĭ¤ê³ł":13609,"ĊĠĠ":13610,"Ġë¶ĻìĿ´":13611,"ë£¨ìĿ´ìĬ¤":13612,"ĠìĪ¨ê²¨":13613,"æĤ":13614,"ĠíħĮëłĪ":13615,"ĠíĻľìĦ±":13616,"Ġê³¼íķĻìłģ":13617,"Ġê³ĦíļįìĿ´":13618,"ĠëĤĺëĿ¼ë¥¼":13619,"ëĭ¤ì¹´":13620,"Ġìĭľê·¸":13621,"ä¾į":13622,"ëŃ":13623,"ì²´ìĿ¸":13624,"Ġì§ĢìĹŃê³¼":13625,"Ġì¸¡ìĿĢ":13626,"ĠëłĪìĿ´ìłĢ":13627,"Ġë¶Ģíĺ¸":13628,"ĠíĻĶë©´":13629,"êµĲêµ¬":13630,"ĠAKB":13631,"ĠìĻĢìĿ¼ëĵľ":13632,"ĠPhil":13633,"ĠìĿ´ëªħë°ķ":13634,"Ġë§ĮëĤ¨":13635,"ĠìĺĪìĪłê°Ģ":13636,"ëĵ¤ë¦¬":13637,"Ġê³µì±Ħ":13638,"ĠìĦľëıħ":13639,"êµŃìłģ":13640,"ĠìĺĲ":13641,"Ġìĭłë¹Ħ":13642,"Ġëĭ¨ìĦł":13643,"íħĮëĤĺ":13644,"ìľĦìĽĲíļĮëĬĶ":13645,"Ġë§Īë¥´íģ¬ìĬ¤":13646,"Ġìĥ¹":13647,"ë³ĳìĿ´":13648,"Ġê°ĢëĬ¥íķĺê²Į":13649,"å¼ı":13650,"Ġê°Ħëĭ¨íķľ":13651,"Ġë³´ìĥģ":13652,"ĠëıĻìª½ìľ¼ë¡ľëĬĶ":13653,"ĠìĦľíķ´":13654,"Ġëªħëĭ¨ìĹĲ":13655,"Ġì¹´ìĻĢ":13656,"íĻįë³´":13657,"Ġìłľëª©ìľ¼ë¡ľ":13658,"Ad":13659,"ĠìĿ´ìĬĪ":13660,"ĠìĺģëĤ¨":13661,"íĭ°ìķĦìĿĺ":13662,"ìºĲìĬ¤íĬ¸":13663,"ëıĻêµ¬":13664,"íĨłë¡ł":13665,"íĶĮë£¨":13666,"ì¸µìĦĿíĥĳ":13667,"ìĸ¸ë¡ł":13668,"ì½ľëĿ¼":13669,"åĺ":13670,"êµ°ìĹĲìĦľ":13671,"Ġêµ°ëĭ¨":13672,"ĠProject":13673,"ë°Ķë¦¬":13674,"Ġì°©ìĪĺ":13675,"ìĦłì¡°":13676,"Ġì¶ĶìĤ°ìľ¼ë¡ľ":13677,"Ġíĺĳì£¼ê³¡":13678,"ury":13679,"ëį±":13680,"ĠëıĦë¯¸ëĭĪ":13681,"els":13682,"ournal":13683,"ĠìĤ¬ìĭ¤ìĿĢ":13684,"ney":13685,"der":13686,"ë©Ķê°Ģ":13687,"ĠíĻľëıĻìĿ´":13688,"ëłĪìĿ¸ìłĢ":13689,"Ħëĭ¤":13690,"êµĲíĨł":13691,"ĠBro":13692,"Ġìļ´íĸīíķĺëĬĶ":13693,"ç§Ģ":13694,"ĠìľłëĦ¤ìĬ¤ì½Ķ":13695,"ëł¤ìĦľ":13696,"ĠíĶ¼íĬ¸":13697,"ĠìĹ°ëł¹":13698,"Ġë°ĶìĿ´ëŁ¬":13699,"ĠìľłëĭĪíı¼":13700,"Ð¼":13701,"Ġhe":13702,"Ġì¡°ì¹ĺë¥¼":13703,"ures":13704,"ë¡¯ëį°":13705,"ê²½ê¸°ë¥¼":13706,"ĠìĽĲìĪĺ":13707,"Ġì§Ģë°©ìĹĲ":13708,"Ġìĺ¤ìĬ¤íĬ¸ë¦¬ìķĦìĿĺ":13709,"pro":13710,"ëĮĢêµ°":13711,"ĠìķĦë¦¬ìĬ¤":13712,"Ġë°°ìłľ":13713,"Ġë©´ìłģ":13714,"ĠìŀĲì¹ĺêµ¬":13715,"BI":13716,"ĠíĮĮìļ´ëĵľ":13717,"ë²Ķíķľ":13718,"Ġëª¨ëį¸ìĿ´ëĭ¤":13719,"ê³łíĺĦ":13720,"ĠíķĺëĿ¼":13721,"ìĺģìĽħ":13722,"éĸĵ":13723,"ĠëĭĮíħĲëıĦ":13724,"ĠíķĺëĤĺëĭĺìĿĺ":13725,"Ġì¦ĿìĨĲ":13726,"ĠíķĻêµĲë¥¼":13727,"ĠíĻĶëł¤íķľ":13728,"Ġìłĸ":13729,"ìłľë¦¬":13730,"Ġìļ°ì²´êµŃ":13731,"íĥľíĶĦ":13732,"Ġê¸ĪìļĶìĿ¼":13733,"Ġ69":13734,"Ġì°¨ìĿ´ë¥¼":13735,"ë³ĢìĿĦ":13736,"ĠëĮĢíļĮìĿ´ëĭ¤":13737,"Ġë²Ķìľłíĸī":13738,"ĠëĤĺì¹´ë¬´ëĿ¼":13739,"ĠíħįìĬ¤íĬ¸":13740,"Ġëª»íĸĪê³ł":13741,"Ġê³ĦìĹ´ìĿĺ":13742,"Ġìĸ´ëłµëĭ¤":13743,"ein":13744,"1918":13745,"ë¯¸ì½Ķ":13746,"Ġë¯¸íķĺ":13747,"ëĤ´ê°Ģ":13748,"ìĺĪìłķ":13749,"ĠìķĦëĭĪìĹĪëĭ¤":13750,"ĠìŀĲìľłë¡Ńê²Į":13751,"ë²łë¥´íĨł":13752,"Ġì£ł":13753,"íĮĢìĿĢ":13754,"Ġì¦Ŀì¶ķ":13755,"ìĿ´ì§Ģë¦¬ìķĦ":13756,"ìĺ¬ë¡ľ":13757,"oid":13758,"ë¬´ìŀ¥":13759,"Ġì°¨ê¸°":13760,"ural":13761,"ĠìĦ¬ìĿĺ":13762,"hys":13763,"Ġìļ°ë£¨ê³¼":13764,"ë¥łìĿĦ":13765,"Ġë³´ìĤ´":13766,"elf":13767,"ëĦĵ":13768,"ĠìĨĮì´Ŀ":13769,"ĠSw":13770,"å¯¦":13771,"Ġë£¨íĬ¸ë¹ĦíŀĪ":13772,"Ġìĭľë¥¼":13773,"ĠëıĦì¹´ìĿ´":13774,"Ġë¦¬ëĪħìĬ¤":13775,"íĺķìłľ":13776,"ĠíĶ¼ëłĮ":13777,"Ġìķ¨ë¦¬ìĬ¤":13778,"ĠìłĦíĸ¥":13779,"ë¶Ħíı¬":13780,"Ġë°ĺì§Ģ":13781,"ìľĦì¹ĺ":13782,"ìļĶì½Ķíķĺë§Ī":13783,"Ġê·¸ëŀľ":13784,"Ġíķłëĭ¹":13785,"Ġëĸ¼":13786,"HD":13787,"Ġim":13788,"íĬ¸ë¥´":13789,"ĠìĤ¬ìĿ´ê°Ģ":13790,"ìĪĺë©´":13791,"Ġíķ´íĶ¼":13792,"ĠíĥĢìľ¨":13793,"ume":13794,"Ġë¶ĢëıĻìĤ°":13795,"ìļ°ì²´êµŃ":13796,"ë¥ĺìĻĢ":13797,"!\"":13798,"ìĥĿëª°ëħĦ":13799,"íĤ¤ì§Ģ":13800,"Ġë´īíķ´ì¡Įëĭ¤":13801,"é³³":13802,"ëĮĢìĦ±":13803,"ëª¨ë¥´":13804,"Ġìĭ¬ë¦¬íķĻ":13805,"Ġ130":13806,"ë¦¬ìĤ¬":13807,"Ġìĸĺ":13808,"ëĤ¨ìĦ±":13809,"ĠëĤ³ìķĺëĭ¤":13810,"Ġtr":13811,"ĠìŀĲë¦¬ìĹĲìĦľ":13812,"Ġ(,":13813,"Ġëª¨ì¹ľ":13814,"ê³¡ë©´":13815,"une":13816,"Ġê³¡ìľ¼ë¡ľ":13817,"ĠìĹ°êµ¬ê°Ģ":13818,"Ġë©¤ë²Ħë¡ľ":13819,"ë¹ĦíĤ¤":13820,"íĺģìĭł":13821,"Ġê±°ìĬ¬ëŁ¬":13822,"Ġì´Ŀë¬´":13823,"Ġì§Ģì¤ĳíķ´":13824,"ë¯¼ìĿ´":13825,"ĠìĬ¤ìºĶ":13826,"adio":13827,"Ġì½Ķì½Ķ":13828,"ĠInstit":13829,"Ġë¹Ħê³µìĭĿ":13830,"ê³¡ìĿ´":13831,"Ġëĭ¬ìķĦ":13832,"Ġëª°ëĿ½":13833,"ìĭľë¶ĢíĦ°":13834,"ĠëĮĢìłĦìĿĺ":13835,"Ġê¸Ģë¡ľë¸Į":13836,"ìĦ°":13837,"Ġë§Ĳíķľ":13838,
[...]
