#version: 0.2 - Trained by `huggingface/tokenizers`
Ġ ì
Ġ ë
ì Ŀ
í ķ
Ġ ê
ë ĭ
ì Ĺ
ìĿ ´
Ġ í
ëĭ ¤
ë Ĭ
ëĬ Ķ
ìĹ Ĳ
ê ³
ê °
ë ¡
ì Ħ
ìĿ ĺ
ì §
ë¡ ľ
íķ ĺ
ìĿ Ħ
ì ł
Ġì Ŀ
ì ŀ
Ġì ŀ
ë ¥
ê° Ģ
ë ¦
ë ı
ê³ ł
ì§ Ģ
íķ ľ
ì ľ
¸ °
ì ĭ
ìĦ ľ
ê ²
ë ĵ
ì ķ
Ġì ķ
Ġì ł
ë §
Ĥ ¬
ëı Ħ
ì Ĭ
ë¥ ¼
ë¦ ¬
ìĿ Ģ
ê ¸°
ë Ĥ
ì ĸ
Į Ģ
ë ©
Ġê °
ì ļ
ë ł
ìľ ¼
ĠìĿ ´
Ŀ ¼
Ġë §
Ġë °
ê µ
Ī ëĭ¤
Ġê ²
Ġì Ĺ
ë Ŀ¼
ìĸ ´
ìĬ ¤
Ī ĺ
ìĿ ¸
Ġì ĭ
· ¸
íķ ´
ì ĺ
ìľ¼ ë¡ľ
ìĹĲ ìĦľ
ëĤ ĺ
ë ħ
Ġë ĭ
Ġë Ĥ
ì Ľ
ë °
ìĭ ľ
ê² Į
Ġì Ħ
ë į
Ġë ³
ĥ ģ
Ġê ³
¶ Ģ
Ġ 1
ëĵ ¤
ë ³
ë ¬
ë ŀ
Ġê ·¸
Ġì §
ì ¹
ì Ļ
ë© ´
£ ¼
Ġì Ĥ¬
Ġì ĺ
ìŀ Ĳ
Ġë ª
ë§ Į
ë ²
ìķ Ħ
ë ĮĢ
ë Ł
ë Ĳ
ì Ĥ¬
í ĸ
ëħ Ħ
ê³ ¼
í Ĭ
Ġìķ Ħ
Ġì ľ
í Ļ
Ġ 2
í ĥ
Ġì Īĺ
Ġìŀ Ī
Ġ íķĺ
Ġë ĵ
ë ª
Ġë ĮĢ
ì ²
ìŀ ¥
íĬ ¸
Ġë ı
í ĺ
ëĵ ľ
ìĿ ¼
¯ ¸
Ġê° Ģ
ìĻ Ģ
Ġë ¬
ì Ĩ
ë ¶Ģ
Ġìĭ ľ
ìł Ħ
¹ Ħ
ì Īĺ
¤ ĳ
Ġê µ
ìł ķ
Ġ íķľ
ìļ °
Ġë³ ´
Ġì ĸ
ì ĥģ
ìł ģ
Ġìł Ħ
ë© °
Ġê² ĥ
ëĭ Ī
í Ħ
ì £¼
Ġê ¸°
Ġëĭ ¤
êµ Ń
Ġ íķ
± °
Ġì Ĭ
ì ¡
ëĲ ĺ
Ġìŀ Ĳ
ìĦ ±
Ġë Ĳ
ķ Į
Ġì Ĩ
Ġì§ Ģ
íĦ °
ì °
ĠëĤ ĺ
ê ¸
í Ķ
ìĿ´ ëĭ¤
íķĺ ëĬĶ
ëį °
Ġìŀ Īëĭ¤
Ľ Ħ
ì¹ ĺ
íĻ Ķ
Ġìł ķ
ìł ľ
Ġì ļ
ŀ Ī
êµ ¬
ë§ Ī
ì§Ģ ë§Į
í Į
ìĭ ł
ìĹ Īëĭ¤
ìļ ©
Ġë ²
ëŁ ¬
ĥ Ŀ
Ġëª ¨
Ġí Ļ
ìĽ Ĳ
ĠìĿ ¼
ë¬ ¸
Ġì ¶
Ġí Į
ë¥ ´
ë³ ´
Ġì °
Ġë§ Ī
Ġë ķĮ
Ġí ĺ
Ġë į
Ġë ¶
Ġì ĥģ
Ġì ¹
ëı Ļ
ìĹ ¬
ģ ¬
ëł ¤
Ġìł ľ
í ŀĪ
ë ¯¸
í Ĩ
ë £
ìĺ ¤
ìĽ Ķ
Ġê² ½
Ġìľ ł
Ġê³ µ
ëł ¥
Ġí Ķ
ì§ Ħ
ĠìĬ ¤
Ġì £¼
ëł Ī
íĥ Ģ
Ġì ¤ĳ
Ġì ²
Ġí ı
´ Ģ
ĠìĿ ¸
Ġí ĥ
Ġì ¡
ļ Į
ê ¹
ê° Ħ
0 0
ì ¦
ĠìĹ Ĩ
Ġë ¶Ģ
ë ¶
ìķ ¼
Ġìķ Ĭ
ëª ħ
Ġëĵ ±
ëį ĺ
í Ĥ
ìĹ Ī
ìĹĲ ê²Į
íķĺ ê³ł
ê ·¸
Ġ 3
Ġì Ļ
ë Ħ
. .
ì Ĥ
ìĦ ł
Ġìĺ ¤
íķľ ëĭ¤
Ġìľ Ħ
íķ ł
ë ¹Ħ
ê² ©
ã ģ
ìĨ Į
íķ Ļ
ĠëĲ ĺ
ê ±°
ĠìĨ Į
ìľ Ħ
0 1
ìĺ Ģ
Ġë¬ ´
Ġë ¹Ħ
Ġì Ľ
Ġìĸ ´
íĸ Īëĭ¤
ëĲ ľ
ëĭ ¹
ëŀ ĺ
ê¹ Į
ê³ Ħ
ë¬ ´
í ģ¬
ë² Ħ
½ Ķ
í ı
± ´
Ġ -
Ġ (
ì² ´
í ĭ
ìŀ ĳ
Ġ íķ´
Ġì ¢
ê³ µ
ì¹ ´
í ļĮ
ĳ Ĳ
Ġë ¯¸
êµ Ĳ
ì ¶
ĠìĹ ¬
Ġë Ķ
Ġí ĸ
ìĦ ¸
ë ¯
ĠìĦ ł
ìĿ´ ëĿ¼
Ġì¡ °
ì¡ °
ìĿ Į
Ġë§ Į
ĠìŀĪ ëĬĶ
ëĭ ¨
í ĽĦ
íĤ ¤
ë Ķ
Ġê³ ł
Ġë° Ķ
Ġìĺ ģ
ìŀ ¬
Ġí Ĭ
Ġëı Ļ
ìĭ Ŀ
íĶ Ħ
ìļ ´
ìŀ Ħ
ìĭ ¤
ã Ģ
ìĹ Ń
ĠëĤ ´
ĠìĹ °
Ġëı Ħ
í ħ
´ Ī
Ġë§ Ĳ
ìľ ł
ì ¤ĳ
ë¬ ¼
Ġê ±°
ĠìĦ ±
Ġë Ħ
íĸ Ī
Ġë° ľ
ê ·
ë¶ Ħ
ì Ī
ì ¤
Ġí ĽĦ
Ġë ©
ì° ¨
Ġë° ©
Ġë ħ
íĸ ī
Ġêµ ¬
ì ĥĿ
µ ľ
í İ
ë£ ¨
Ġì Ĥ
ìĹ °
ë ¸
ê° ľ
ĠìĿ ĺ
ìļ Ķ
Ġìķ Ī
ë¥ ¸
Ġ '
êµ °
Ġìĭ ł
Ġí Ĩ
ĠëķĮ ë¬¸
ê¹Į ì§Ģ
ì¦ Ī
ë° ĺ
Ġì ĥĿ
Ġìŀ ¥
ê² ½
ìĹĲ ëĬĶ
Ġê° ľ
ĠìĦ ¸
Ġíķľ ëĭ¤
ëª ¨
ëĬ ¥
ë©´ ìĦľ
íĨ ł
íĺ ¸
ìĨ į
ëĵ¤ ìĿ´
ë¦ °
Ġê ¹
Ġ 4
ìł Ĳ
ìķ ĺ
ëĤ ´
íķĺ ê²Į
ë¯ ¼
Ġí İ
ìĤ °
ê ´Ģ
ëĬĶ ëį°
ë³ ¸
Ġ1 9
ê° ģ
ìĺ ģ
ëŀ Į
ĳ ľ
Ġë ¹
Ġë¶ Ī
ĠìĹ Ń
Ī ¬
Ġì µľ
ìķ Ī
Ġìł ģ
ĠìĦ ľ
íĭ °
ë° ©
Ġë§ İ
ì ħ
ìľ¼ ë©°
Ġì§ Ħ
Ġê² Į
Ġê° ķ
ì ¢
Ġê° Ļ
ìĺĢ ëĭ¤
Ġë¬ ¸
Ġëĭ ¹
Ġëį Ķ
Ġì¹ ´
Ġ 5
Ġìĭ ¤
ìĹĲìĦľ ëĬĶ
Ġê ¸
Ġê² °
Ġ :
Ġê ·
ì ¸
Ġìķ Į
Ġìļ °
ì ½Ķ
Ġê ´Ģ
ì¤ Ģ
ëĶ Ķ
ìłģ ìľ¼ë¡ľ
ĠíĮ Į
Ġ2 01
ìł Ģ
ë¡ Ŀ
Ġíĥ Ģ
Ġë Ĩ
ê¸ ī
Ġë ¦
íķĺ ëĭ¤
ĠìĽ Ĳ
ëħ ¸
Ġì¶ ľ
Ġë° ĺ
ê ±´
Ġëĵ ¤
íĮ Į
ë² Ī
Ġíı ¬
Ġê²½ ìļ°
ĠëķĮë¬¸ ìĹĲ
ĠëĲ ľ
Ġëħ ¸
Ġìŀ ĳ
ì ¼
ĠëĤ ¨
Ġë° Ľ
ìĬ µ
ĠíĬ ¹
¶ Į
ë° ľ
ë¶Ģ íĦ°
ìłģ ìĿ¸
ĠíĶ Ħ
ë° Ķ
ëłĪ ìĿ´
ë ¨
ëĵ ł
ìĹ ħ
íķĺ ìĹ¬
ì¢ ħ
ë ĳĲ
Ġë Ĭ
íĥ ľ
ëŁ °
ë¸ Į
íı ¬
Ġë° °
ã Ĥ
Ġ Ċ
íĺ ķ
ë¦¬ ê³ł
ë² ķ
ĺ Ĳ
Ġë¦ ¬
íĶ ¼
íĨ µ
ĠìĤ¬ ëŀĮ
Ġì° ¨
ê¸ Ī
ëĤ ľ
Ġë ł
± ¸
Ġì ĵ
Ġëĭ ¨
Ġëª »
Ġì¶ Ķ
ĠìĤ¬ ìļ©
ë ĥ
Ġêµ Ń
ĠëĶ °
ĠìŀĲ ìĭł
ìĬ ¹
íķĺ ê¸°
ëŀ Ģ
e r
í Ĵ
Ġ "
i n
íķ´ ìĦľ
í Ĺ
Ġë Ŀ¼
íĮ Ĳ
ĠìĿ´ íĽĦ
ìĸ ĳ
ë¡ ł
ëį Ķ
Ġíĺ Ħ
Ġë ¡
ì² ĺ
Ġì Ī
ìĺ ¨
ì ĥ
.. .
ìĬ¤ íĬ¸
Ġëł Ī
Ġë ģ
Ġ S
ë¦ Ħ
ĠíĨ µ
Ġê³ Ħ
Ġì¢ ĭ
Ġë³ ¸
Ġëį °
â Ģ
ĠíĶ ¼
ëĲĺ ìĹĪëĭ¤
ĠìĹ Ĳ
ì »
Ġë ĺĲ
ëĭ¤ ëĬĶ
ìĪ ł
Ġë§ ¤
ëĮĢ ë¡ľ
1 9
ëĿ¼ ê³ł
ëĿ¼ ëĬĶ
Ġí Ŀ
Ġê° Ĳ
íĺ Ħ
ì§ ģ
ìŀ ħ
íħ Į
ìĭ ¬
Ġí ģ
Ġ 6
Ġí Ĺ
¿ ł
Ġë² Ħ
ĠìķĦ ëĭĪ
Ġíķ ¨
Ġëĭ ¬
Ġêµ Ĳ
Ġë ¨
í Ī¬
ìĻ ¸
Ġë¬ ¼
Ġì ´Ī
Ġì º
Ġìŀ ¬
Ġë ĳĲ
Ġê ±´
ë© Ķ
Ġì £
ëĭ¤ ê³ł
Ġì ¦
Ġëĵ ľ
Ġìŀ ħ
Ġë¶ Ħ
ëŀ ĳ
Ġì ĥ
ê ¶Į
2 01
í ĳľ
ã ĥ
ìĿ´ ëĤĺ
ëĵ¤ ìĿĢ
ìĽ Į
ìħ ĺ
íķĺ ë©´
Ġì ±
Ġìĺ Ī
ĠìĦ ¤
ì¶ ľ
Ġì ½Ķ
ëĦ ¤
Ġìłķ ëıĦ
Ġí ģ¬
ì ´Ī
Ġì ¤
ëĵ¤ ìĿĦ
ìĦ ¤
ìł ¸
´ ĳ
Ġê³µ ê²©
Ġëĭ¤ ë¥¸
Ġìļ Ķ
Ġ 7
Ġê¹ Ģ
ê »
íķ ©
ĠëĮĢ íķľ
Ġíİ ¸
o n
í ģ
Ġìĺ ¬
Ġì »
ìľ¼ ëĤĺ
ì¡ ±
a n
Ġë Ī
íķ ¨
´ Ŀ
ëĵ ±
Ġì° ¸
ë ¹
ìĹĲ ëıĦ
Ġëª ħ
ì² Ń
Ġìł Ĳ
Ġìł Ģ
ë§ ¤
ìķ ½
ìļ ¸
ìĦ Ŀ
Ġë ¸
íķĺ ì§Ģ
Ġ 8
ê¸° ëıĦ
ĠëĲľ ëĭ¤
į ¼
ëĵ¤ ìĿĺ
íĻ ©
ì§ Ī
Ġ1 0
Ġë Ĵ
ì¸ ł
ì² ľ
Ġíķ ł
Ġíı ī
ĠíĮ ¨
Ġë¡ ľ
ê¸° ë¥¼
ë£ Į
ëŁ ī
Ġì£ ½
Ġìĵ °
Ġ2 00
ëĦ Ī
ë³ ĳ
ë¦¬ ëĬĶ
íķĺ ë©°
ë° °
ëł ¹
ë¥ ĺ
ê¸° ìĹĲ
Ġ M
ì§Ģ ëĬĶ
ëĲĺ ìĸ´
Ġëı Į
ë§ Ŀ
ĠíĻ Ķ
Ġê²ĥ ìĿ´
ìĸ ¸
ĠìĻ ¸
íĴ Ī
Ġê ±¸
Ġ A
ª ½
Ġëĵ± ìŀ¥
ëĭ Īëĭ¤
Ġë ĸ
Ġìŀ ĺ
íİ ¸
ĠíĻ ķ
ë³ µ
êµŃ ìĿĺ
Ġë© Ķ
Ġ 9
ë¦ Ń
íķĻ êµĲ
Ġì² ĺ
Ġëĵ¤ ìĸ´
Ġê°Ģ ëĬ¥
ëŁ ¼
ê» ĺ
Ġë§ ŀ
Ġë³ Ģ
ê° ķ
í Ŀ
Ġê°Ļ ìĿĢ
ëı ħ
ĠíĶ Į
Ġìº Ĳ
Ġì§ ģ
íķĺ ìĺĢëĭ¤
Ġíķĺ ëĬĶ
ë¦ ½
ìł Ī
ë¨ ¸
Ġíĺ ¸
íĸ ¥
ëĬĶ ëĭ¤
Ġê³ ¼
ĠìĤ ´
ì¡ Į
ëł ¨
ĠëĴ ¤
Ġ C
Ġíķĺ ëĤĺ
ê² ĥ
ìĤ ´
ìĨ ¡
ëĤ ¨
ìķĺ ëĭ¤
Ġí ļĮ
ë ķĮ
ì ¿ł
ĠìĨ į
o r
Ġê²Į ìŀĦ
2 0
Ġìĭ ¬
ê° Ĳ
ëħ Ģ
Ġíķ Ļ
ì Ķ
Ġì¢ ħ
ë ģ
Ġ T
Ġíķ¨ ê»ĺ
ê² °
ĠíĻ ľ
ĠëĨ Ĵ
Ġìĭľ ìŀĳ
íĻ ĺ
Ġí ħ
ê±° ëĤĺ
ĠìķĦ ìĿ´
Ġí ŀ
Ġëª¨ ìĬµ
Ġì¹ ĺ
} }
ë³´ ëĭ¤
Ġìķ ł
t h
ìŀ Ī
Ġíķĺ ì§Ģë§Į
Ġíĸ ī
Ġíķ Ħ
Ġ ãĢ
a r
ë§ Ĳ
Ġìļ ´
ëĭ¤ ê°Ģ
Ġëª ©
ëĲľ ëĭ¤
ë¦ ¼
ë¦¬ ë¥¼
Ġê·¸ ë¦¬ê³ł
Ġìķ ½
Ġë² Ī
ìĺ Ī
ļ ¨
ĠìĬ ¹
Ġë° ķ
ĠìľĦ íķ´
ìĿ´ëĿ¼ ê³ł
íİ ĺ
ëª ©
Ġê° Ħ
ìĿ´ íĬ¸
Ġìĸ ¸
Ġê²ĥ ìĿĦ
ĠíĬ ¸
ĠìĦł ìĪĺ
Ġì¡ ´
ìĿ´ëĿ¼ ëĬĶ
ëĭ ¬
ì¦ Į
Ġì² ´
Ġìĸ ĳ
ĠìĤ¬ ìĭ¤
Ġíĸ Īëĭ¤
Ġíĸ Ī
Ġí Ĥ
Ġ B
ì ³
Ģ ë¡ľ
ìķ ħ
ĠëĲĺ ìĹĪëĭ¤
ê· ¼
ëĲĺ ëĬĶ
ë§ ī
ê¸° ê°Ģ
Ŀ ½
ĠìĥĿ ê°ģ
Ġê° ģ
ĠìĹĨ ëĭ¤
Ġë§Į ëĵ¤
Ġí ĳľ
ĠëĤĺ ìĺ¤
Ġêµ °
ĠëĤ ł
ìĸ´ ìĦľ
e n
ì§ ĳ
ì ±
Ġëı ħ
ĠìĿ¼ ë³¸
ëł ĩ
ì ª½
ìĥ ī
Ġë¬¸ ìłľ
Ġì§ ĳ
ê² ł
Ġ2 0
íĥ Ħ
Ģ ìĿ´
ìĻ ķ
ĠìĿ Į
s t
ĠíĨ ł
) ,
íĹ ĺ
í į¼
ê¸ ´
ĠìĿ´ ìĥģ
ìĬ¤ íĦ°
ĠëĶ° ëĿ¼
Ġëģ Ŀ
ëł ¸
· ¨
´ ī
ë Ŀ½
Ġë £
ĠìĹ ´
Ġì ´Ŀ
í Ĥ¬
íĮ ¨
Ġíŀ ĺ
ĠìĻ Ħ
Ġê·¸ ëŁ¬
ĠìĿ´ ë¦Ħ
ãĢ ĭ
ĠíĶĦ ë¡ľ
Ġ P
ĠìĨ Ĳ
Ġíĺ ķ
ë¦¬ ê°Ģ
ìĹĲìĦľ ëıĦ
Ġ D
Ġëĭ¤ ìĭľ
Ġë² ł
ê³ ¡
Ġê°Ģ ìŀ¥
Ġìŀ ¡
ĠìŀĪ ìĹĪ
a l
ĠëĶ Ķ
ëĿ¼ ìĿ´
´ ´
Ġë° ı
Ķ ëĭ¤
ĠìĪ ľ
ëł¥ ìĿĦ
ë³ Ħ
ì²ĺ ëŁ¼
Ġí Ī¬
íķ Ń
Ġí ĮĢ
ë² ł
Ġë ¯
ìĿ´ ë©°
Ġ1 2
a t
Ġ F
ĠìĤ¬ ìĿ´
ëĤ ł
ĠìĹĨ ëĬĶ
ë¦¬ ìķĦ
ë° ķ
ëĭ ´
ì§Ģ ê³ł
ĠíĮ Ĳ
ì§ ¸
Ġíķľ êµŃ
ì Ł
ìĿ´ ì§Ģ
ëĭ Į
Ġê²ĥ ìĿ´ëĭ¤
ë Ĩ
Ġìĺģ íĻĶ
ĠëĺĲ íķľ
Ġëª¨ ëĳĲ
ë¦Ń íĦ°
Ġíĥ ľ
Ġì¦ Ŀ
ê² ¨
Ġëĭ¹ ìĭľ
l e
íĶ Į
Ġë§ ī
ĠìĻ ķ
ìĬ¤ ìĿĺ
Ġìĥ Ī
Ġë³ ¼
Ġìĥģ íĻ©
o u
Ġí ŀĪ
Ġìķ ¼
Ġê²ĥ ìľ¼ë¡ľ
ëł¥ ìĿ´
ê¸° ëĬĶ
Ġíģ ´
ìŁ ģ
Ġí Ĵ
ìľ¼ ë©´
Ġ L
ëĲĺ ìĹĪ
ëŀ ľ
ì§Ģ ë¥¼
ìĿ´ ê³ł
íĺ Ģ
ê¸ Ģ
ìĿ´ ëĬĶ
2 00
Ġë³ µ
Ġê· ¼
ĠìºĲ ë¦ŃíĦ°
ĠíĤ ¤
ìĹ Ķ
ë² Ķ
Ġìĥģ ëĮĢ
Ġì¹ ľ
ì¡ ´
Ġì± Ħ
ĠìŀĪ ìĹĪëĭ¤
ë° Ľ
Ġíı Ń
ì ½
Ġë³´ ìĹ¬
ĠãĢ Ĭ
Ġ1 1
¨ ìĸ´
Ġìļ ©
íķĺ ë©´ìĦľ
ì» ¤
ì³ Ĳ
Ġìķ ŀ
Ġíķ Ń
ĠëĦ Ī
Ġë§İ ìĿ´
ê ´ĳ
ìĿ´ ìĹĪ
ĠíĶĮ ëłĪìĿ´
ë ĸ
Ġë¹ ł
ìł ĳ
íĥ Ī
ë¸ Ķ
Ġìŀ Ħ
ëĬ Ĳ
Ġì¶ ©
Ġë³ Ħ
ëĥ Ĳ
ĠëĤ ľ
ë¦¬ ìĬ¤
íĥ Ŀ
Ġê²ĥ ìĿĢ
íķĺ ì§Ģë§Į
Ġë¸ Į
ĠëĦ ĺ
Ġí Ħ
ê° Ļ
Ġìĥģ íĥľ
Ġëª¨ ëĵł
ĠëĬ ¥
Ġìĭľ ê°Ħ
Ġíķ ©
Ġì¡´ ìŀ¬
ìĹ Ĩ
ìĹ ´
Ġí ļ¨
ë ĳ
ë² ¨
Ġë£ ¨
Ġê²° êµŃ
ëĥ ¥
Ġíģ °
Ġë¨ ¹
Ġê ´ĳ
ê² ¬
Ġíħ Į
ĠìŀĲìĭł ìĿĺ
Ġ K
Ġ G
Ġíķĺ ê³ł
Ġì¶ ķ
ìķ ł
ë¦¬ ì¦Ī
ĠëĦ ¤
Ġë³´ ë©´
Ġì¤ Ģ
ìĬ¤ ë¥¼
Ġëĭ¤ ìĿĮ
ì° ½
ì¶ Ķ
Ġì ½
Â ·
ìŀĲ ê°Ģ
ĠëĪ Ī
Ġì¶Ķ ê°Ģ
Ġë§¤ ìļ°
Ġ /
Ġë³ ĳ
Ġ I
Ġë ĳ
ì¼ Ģ
Ġëĵ ¯
ìĦ± ìĿ´
ìĪ ľ
Ġìĭľ ì¦Į
Ġì ·¨
ë° ±
Ġ ~
Ġë§İ ìĿĢ
ì¹ ľ
r e
ĠìĤ °
ĠíĺĦ ìŀ¬
ë¶ Ī
Ġì² ľ
Ġì» ¤
ë Ī
ìĬ¤ ê°Ģ
ĠìĤ ¼
Ġìĸ ¼
ìľ ¡
Ġíİ ĺ
ĠëĪ Ħ
ì² ł
Ġê² Ģ
Ġì¤ Ħ
Ġê¸ Ī
Ġê¸° ë¡Ŀ
ìĿ¸ ëĭ¤
ĠëĤĺ ìĺ¨
Ġì° ¾
Ġìĸ »
ê· ¹
ë¯ Ģë¡ľ
íħ ľ
¿ Ĳ
ëĵ Ŀ
ĠìĦ¸ ê³Ħ
ë¦ ´
ëĦ Ĳ
Ġ R
ëĵ¤ ìĹĲê²Į
Ġì§Ģ ìĹŃ
Ġìķ ħ
Ġë¸ Ķ
íĦ ´
Ġì ī
ìĿ´ ìĹĪëĭ¤
ļ į
Ġì ¼
ì£¼ ìĿĺ
Ġ19 9
ĠìłĦ íĪ¬
Ġ E
Ġí Ľ
íĭ Ģ
Ġìĭ ¸
Ġ N
Ġìĥģ ëĭ¹
ê°Ģ ëĬĶ
Ġë¯ ¼
ìĽ Ģ
ĠìķĦëĭĪ ëĿ¼
ì £
Ġìĭ Ŀ
íĻ ľ
ëı Į
Ġë ľ
ĠëĬ Ĳ
ì¡Į ëĭ¤
ìĭľ ìķĦ
íı ī
ëĮĢ íķľ
ìĿ¸ ìĿ´
Ġë° ±
ĠìĿ´ ìļ©
Ġì² «
ĠìķĦ ëĭĮ
ĠìĿ´ ìľł
... )
ìĤ¬ ë¥¼
ĠìŀĪ ìľ¼ë©°
Ġ H
ëŁ ½
ê°Ģ ì§Ģ
ë³ Ģ
ìĬ ¬
ëĵ¤ ê³¼
ë§ ģ
Ġê¸ ¸
ĠëıĮ ìķĦ
Ġê·¸ ëŁ°
ĠìŀĲ ì²´
ê ±¸
i c
i t
Ġë ŀ
ìłľ ë¡ľ
i s
ĠìĹ Ħ
ëħĦ ìĹĲ
ë¶Ģ ë¶Ħ
ĠíĻ ©
ì§Ħ ëĭ¤
íĿ ¬
ìĿ¸ ëį°
Ġê° Ī
ë¶ ģ
ì º
í ĮĢ
Ġê²½ ê¸°
íķĺ ìŀĲ
ì° °
Ġë° Ģ
ĠìĹ¬ ëŁ¬
( ...)
ī ´
Ġì² ł
Ġì²ĺ ìĿĮ
íģ ´
Ġê· ¹
Ġìĺ ¨
ë¥ ł
ĠíĹ Ī
Ġë² Į
Ġëª¨ìĬµ ìĿĦ
Ġìŀĳ íĴĪ
Ġìĸ´ ëĸ
Ġë¶ ģ
ĠìķĬ ëĬĶ
Ġ1 5
ĠìĹ ħ
ìĭľ íĤ¤
ì§Ģ ê°Ģ
ìĥģ ìĿĦ
Ġìĭľ ë¦¬ì¦Ī
Ġìł Ī
Ġê·¸ëŁ¬ ëĤĺ
Ġë°Ķ ë¡ľ
ìĺ ¬
ì° ¬
ĠíķĦ ìļĶ
ìĤ¬ ê°Ģ
Ġê³ ³
íĺ ¼
į ¨
ê° Ī
ì° ©
Ġê·¸ ëŀĺ
ĠëĲĺ ìĸ´
ë§ ¨
Ġì§Ħ íĸī
ê· ľ
Ġê±° ìĿĺ
ĠíĨµ íķ´
in g
Ġ1 8
Ġí ĭ
Ġë¯¸ êµŃ
ìľ ¨
ĠìĿ´ ë¯¸
ìĿ¸ ì§Ģ
Ġì° ½
íģ ¼
ì¶ ķ
ëłĩ ê²Į
ì¦ Ŀ
íĤ ¨
ĠíĮ ¬
Ġë¨ ¸
íķĺ ìĺĢ
ĠìķĬ ê³ł
Ġì² Ń
ë¦° ëĭ¤
ĠìĹŃ ìĭľ
Ġëª °
ëıĦ ê°Ģ
ê¸ ¸
¶ ģ
Ġ âĢ
Ġì ¸
ìŀ¥ ìĿĦ
ê ´´
Ġëĭ¤ ë§Į
Ġíķ´ ëĭ¹
ìĸ´ ëĤĺ
ë Ĥ¬
ĠìĿ´ ëŁ°
ĠìĿ Ģ
Ġê ½
Ġë° Ŀ
íĸĪ ê³ł
ĠìĬ¤ íĤ¬
ì§Ģ ë§ī
Ġê¸° ìĪł
ê¸° ë¡ľ
Ġê°Ļ ìĿ´
íĸĪ ëįĺ
í ŀ
ìĿ´ ìĬ¤
ëĵľ ë¥¼
ëĿ¼ ëıĦ
Ġë¶ Ļ
Ġëĸ ¨ìĸ´
ìŀĪ ëĬĶ
â Ĩ
Ġìŀ ł
ĠìĪĺ ëıĦ
ĩ ´
Ġë Ł
ĠìĿ´ ìķ¼
íķ´ ìķ¼
Ġ 0
Ġ W
ì§ ķ
ìĿ ĳ
Ġíļ¨ ê³¼
ìĿ´ ì§Ģë§Į
Ġíĥ Ī
ľ ĺ
ëª ¬
ìĹĲ ìĦł
1 0
ì¼ ľ
Ġë°© ìĨ¡
ĠëĿ¼ ìĿ´
Ġ O
ì¹ Ń
ìĦ± ìĿĦ
ì° ¸
ĠìĹ Ķ
Ġ th
Ġëĳ ĺ
ë¡ Ģ
Ġíĺ ¼
Ġì¦ ī
Ġë¶Ģ ë¶Ħ
Ġì¢ĭ ìĿĢ
íĬ ¹
ĠìŀĪëĬĶ ëį°
ĠìľĦ ì¹ĺ
ìĿ´ ê°Ģ
}} }
ì ´Ŀ
ì ī
ì£¼ ëĬĶ
ĠíĬ¹ íŀĪ
ìĬ ¨
Ġê ¶Į
a c
e s
Ġê´Ģ ëł¨
ĠìĬ Ī
Ġë¬¼ ë¡ł
ĠìĤ¬ ê±´
ëĵ ¯
ìĶ ¨
ĠíĻ ĺ
Ġê³ ¨
ĠìĿ¼ ë¶Ģ
ĠìķĦ ë¬´
ĠìĿ¼ ë°ĺ
Ġê³Ħ ìĨį
Ġì£¼ ìĿ¸
Ġì ħ
Ġ b
ìķĦ ìĦľ
ì± ħ
ë² Į
ĠíĦ °
Ġê· Ģ
Ġë³´ ê³ł
ĠëĮĢ ë¶Ģë¶Ħ
Ġëĭ ´
ëĲĺ ê³ł
ë² ¤
ĠìķĬ ëĬĶëĭ¤
ĠìĻ Ģ
ê³ ¨
ë¦¬ ìĹĲ
ëĭ ĺ
ĠìŀĪ ìĸ´
Ġëĸ ł
Ġì¶ķ êµ¬
Ġìĭ ¶
ĠíĻľ ëıĻ
ëĵľ ëĬĶ
ìłĦ íŀĪ
ĠìĿ¸ íķ´
ë¥´ ëĬĶ
Ġë§ ģ
Ġëĭ¬ ë¦¬
Ġë² ķ
ë ·
ê· Ģ
íķ Ħ
ĠíĶ¼ íķ´
Ġ +
Ġê ¼
Ġìłľ ìŀĳ
ëģ ¼
ĠêµŃ ê°Ģ
Ġì¢ Ģ
ìĸ µ
ĠìķĬ ìĿĢ
o m
Ġë°° ìļ°
Ġë§ ¡
ìĬ ·
ĠëĲĺ ëĬĶ
Ġë§Įëĵ¤ ìĸ´
Ġë§Ī ì§Ģë§ī
ëĵľ ìĿĺ
Ġê°Ĳ ëıħ
ìĿ¸ ìĿĺ
Ġê°Ģ ì§Ģê³ł
Ġë² Ķ
ìĬ¤ ëĬĶ
ĠìłķëıĦ ë¡ľ
Ľ °
ìĭľ ìĹĲ
e l
Ġë ¿Ĳ
ĠëĮĢíķľ ë¯¼
ë¨ ¹
ëł¸ ëĭ¤
ê³ ¤
ë³ ¼
ìłķ ìĿĦ
ĠìŀĪ ìĿĦ
ë° Ģ
Ġìĺ¬ ëĿ¼
ë ´
Ġëª ĩ
ĠìŀĪ ê³ł
ëĨ ĵ
Ġëª ¸
Ġ1 6
Ġ3 0
Ġê¸° ì¤Ģ
ĠìķĬ ìķĺ
Ġì ¿ł
ĠëĮĢ íķ´
Ġë³´ ìĿ¸ëĭ¤
ĠìĽ Ķ
ë©Ķ ìĿ´
ë ´ī
ê±° ë¦¬
Ġê³ ¡
ì¸ µ
í ļį
ìľ¼ ëĭĪ
í Ľ
Ġë¹Ħ ìĬ·
ĠìĪĺ ì¤Ģ
ìĸ´ ê°Ģ
ìĭľ ê°Ħ
Ġë ´
ĠëĤ´ ìļ©
o l
ĠìĿ¸ ê°Ħ
ĠìĿ´ ë¥¼
Ġ m
ĠìĿ´ ìłĦ
ì ĩ
ìķ Ļ
ìŀĲ ë¥¼
Ġíĥ Ħ
ëĪ Ħ
ĠìĦ± ê³µ
Ġíķĺ ëĭ¤
ĠìĬ¤ íĥĢ
Ġìłľ ìĻ¸
ë¡ľ ëĬĶ
Ġìł ĳ
h e
ĠëĤ ®
êµ ´
ëıĦ ë¡Ŀ
ìľĦ ë¥¼
ĠíĹ ¤
ĠëĮĢ ìĭł
00 0
ìĪĺ ê°Ģ
¾ ¸
ìĿ´ ìŀĲ
Ġê¸° ë³¸
Ġìĸ´ ëĬĲ
ìŀĲ ìĿĺ
a d
ìŀ ¡
ìĹĪ ê³ł
Ġê·¸ ìĿĺ
B S
ĠìĿ¸ ë¬¼
ëŀ µ
Ġê·¸ ëĥ¥
ĠìĤ¬ ë§Ŀ
Ġë§Ī ë²ķ
Ġ o
ëĵ± íķĻêµĲ
ìĻ Ķ
ìĻĢ ìĿĺ
i on
íĮ ħ
ĠëĲ ł
ìŀ¥ ìĿ´
ĠëĨĴ ìĿĢ
ĠëĤĺ íĥĢ
ìĬ¤ íĥĢ
ĠíĴ Ģ
ëıĦ ë¡ľ
Ġìĥģëĭ¹ íŀĪ
ì µľ
ĠìĿ´ ìĸ´
Ġì¶ľ ìĭł
ë¦¬ ìĿĺ
íĬ¸ ë¥¼
Ġë§ģ íģ¬
ëĵľ ê°Ģ
ìĬ Ī
Ġì£¼ìĿ¸ ê³µ
ĠëĮĢ íĳľ
a m
Ġê²ĥ ëıĦ
ë¡ľ ìļ´
Ġë Ľ°
Ġê·¸ ëĮĢë¡ľ
Ġëħ ¼
ì§ ľ
Ġ s
ĠìĦľ ìļ¸
Ġ19 8
Ġê·¸ ëħĢ
Ġìķ Ķ
ëį ¸
ĠìĹĨ ìĿ´
ëł¤ ê³ł
ë§ Īëĭ¤
Ġìĸ¸ ê¸ī
Ġëĵ± ìĿĺ
íı Ń
ëĵ¤ ëıĦ
Ġì§ Ī
ĠìĿĺ ë¯¸
Ġë© ´
ĠìĹ ĺ
ì¸ ¡
ê² Ģ
ìĿ¼ ìĹĲ
Ġ U
ëħ Ĳ
ĠëłĪ ìĿ´
ìĬ¤ ë¡ľ
ĠëĦĪ ë¬´
ìĨ Ĳ
ìĬµ ëĭĪëĭ¤
Ġê² ©
. "
ëĮĢ ìĿĺ
Ġíı¬ íķ¨
19 9
Ġë°Ľ ìķĦ
ëıĦ ë¥¼
ĠìĿĺ íķ´
Ġì§ģ ìłĳ
ĸ ìĹĲ
ìĪĺ ë¥¼
Ġê´Ģ ê³Ħ
Ġë Ń
ê¸° ìĿĺ
ìĤ¬ ìĿĺ
Ġì§Ģ ê¸Ī
Ġ V
Ġ t
ëĿ¼ ë§Ī
ê³ł ë¡ľ
ĠëĬ ĺ
Ġì¢ĭ ìķĦ
ëĶ ©
Ġê²° ê³¼
ëĤ ¸
ìŀ Īëĭ¤
ì¹ ¨
Ġ w
ë ľ
ìĸ ¼
Ġëį ķ
ĠíĻ į
i g
Ġ #
ë¥´ ê²Į
ìĦ ¼
ĠìķĮ ëł¤
Ġ1 3
ĠìĽ Į
¤ ë²Ħ
íĽ Ī
ëĬ ĺ
ëł Į
ìłĦ ìĿĦ
ĠíĮ Ķ
ĠìĿ´ ëĬĶ
Ġê° ĸ
ĠìŀĪ ëįĺ
Ġ1 4
Ġë§İ ëĭ¤
Ġì¤ĳ êµŃ
Ġìĭľ ìłĪ
ëĤĺ ëĬĶ
ĠëĬ¥ ëł¥
ì§Ģ ëıĦ
a s
Ġ f
ëį ķ
ĠíĥĢ ìĿ´
ë²Ī ì§¸
ĠìŀĪ ì§Ģë§Į
ì ¿
Ġth e
ìĿĮ ìĿĦ
Ĳ ëĭ¤
íĻ ķ
Ġê²½ìļ° ê°Ģ
íķĺëĬĶ ëį°
ëĭ Ľ
Ġìľ ¡
ìļ ±
ìŀĲ ëĬĶ
ä ¸
ëĭ Ŀ
ìĹ ¼
ì¹ĺ ëĬĶ
ë¡ľ ìĦľ
âĢ ¦
ëĮĢ ë¥¼
ĠìŀĲìĭł ìĿ´
Ġ1 7
i d
ë¦¬ ê·¸
i l
ì¤ Ħ
ĠëıĻ ìķĪ
Ġíĸ ¥
Ġ d
ëŀ ¨
ĠìłĦ ìŁģ
ìĹ ĺ
ĠëŁ ¬
ĠìĿ´ ëıĻ
ì ĵ
ê¹ Ģ
® ¤
íķĺ ëįĺ
ë¦¬ ì§Ģ
ìłķ ìĿ´
ëĲ ł
2 1
ĠìľĦ íķľ
e d
ìłĲ ìĿĦ
ìĥ Ī
ìĶ ©
ì¶ ©
íĶ ½
Ġìķł ëĭĪ
ëªħ ìĿ´
âĨ Ĵ
ĠëĤĺìĺ¤ ëĬĶ
ĠëĦ £
e t
Ġì¦Ŀ ê°Ģ
íĴ į
ĠíĻ Ī
Ġì§Ģ ìĽĲ
Ġëľ »
ë Ģ
a y
Ġìľł ìłĢ
Ġë© ¤ë²Ħ
Ġë°© ìĸ´
u s
ìĽ ħ
Ġê ´´
ì¤ĳ ìĹĲ
ìĹĨ ìĿ´
ĠìĦł íĥĿ
íĻĶ ë¥¼
ë¨ ¼
Ġ c
ĠìĹ¬ ê¸°
ì¤Ģ ëĭ¤
Ġë¦¬ ê·¸
Ġê· ľ
Ġìĵ ¸
ë¦¬ ìĸ´
Ġíıī ê°Ģ
Ġíģ¬ ê²Į
Ġì°¾ ìķĦ
Ġíĺ ĳ
ĠìĹ° êµ¬
ëŀľ ëĵľ
ĠìĿ´ ìĹĲ
r o
Ġì¶ľ ìĹ°
ĠìķĦ ë²Ħ
ëĭ µ
ľ ´
ĠìĹ¬ ìŀĲ
Ġë°Ķ ëĢ
Ġ1 00
ë¨¸ ëĭĪ
ĳ ¸
Ġìļ ¸
Ġo f
Ġë¬ ĺ
Ġìĺģ íĸ¥
Ġë°ľ ìĥĿ
Ġìŀ¥ ë©´
Ġê·¸ ëĬĶ
ìī ¬
ĠìłĦ ì²´
ĠìŀĲ ê¸°
ì» ¬
Ġë§ Ŀ
ĠìĹĦ ì²Ń
ê³¼ ëĬĶ
ëªħ ìĿĦ
ê² ¼
Ġì± ħ
ìĿ¸ ìĿĦ
an d
ëĲĺ ì§Ģ
Ġë ī´
ì¹ĺ ë¥¼
Ġì» ¨
ëĤĺ ê°Ģ
ìº Ĳ
Ġìĭ¤ ìłľë¡ľ
Ġê°ľ ë°ľ
Ġê¸ ī
ì¹ĺ ê°Ģ
Ġë¨ ¼
ë² ½
ìĻ Ķëĭ¤
Ġìī ½
Ġë°© ë²ķ
íķĺê¸° ëıĦ
ĠëĺĲ ëĬĶ
Ġë§Į ëĵł
Ġë°ľ ë§¤
ĠìĿ´ ë£¨
í ļ¨
ê°Ļ ìĿ´
íĺ ĳ
1 8
Ġìķ ķ
Ġë§Ĳ ìĿĦ
Ġ p
ìĸ´ ë¡ľ
ê° ĳ
ĠëıĦ ìĭľ
1 2
ãģ Ħ
Ġí Ģ
ĠìŀĪëĭ¤ ëĬĶ
ìĤ ¼
Ġëĭ Ī
Ġ J
ëĶĶ ìĺ¤
Ġìľł ëªħ
ê°Ļ ìĿĢ
Ġìµľ ê³ł
Ġ <
ìĺ ¥
ë¦¬ ì¹´
ìĥģ ìĿ´
ì± Ħ
Ġëį ĺ
ãģ ®
Ġì¹ ¨
Ġí į¼
ìľ¼ë¡ľ ëĬĶ
Ġìļ° ìĬ¹
ìĿ´ ë¥¼
ĠëĤĺìĺ¨ ëĭ¤
ìĽĲ ìĿ´
Ġì ª½
ëħĦ ëĮĢ
ì¼ ĵ
ìļ° ëĬĶ
Ġíĭ °
ĠìĬ ¬
Ġê³¼ ê±°
ĠìĿ´ ê²ĥ
Ġê·¸ ëłĩ
Ġíĺ ¹
Ġê³µ ìĭĿ
Ġê½ ¤
ìĻ¸ ë¶Ģ
Ġ2 5
ìłĦ ìĹĲ
ê³¼ ìĿĺ
íĬ¸ ê°Ģ
ê·¸ ëŀ¨
Ġì¹ ¼
ìĪ Ļ
ìłĦ ìĹĲìĦľ
Ġë³´ìĹ¬ ì£¼
Ġë¶Ī ê°Ģ
Ġìļ´ ìĺģ
ìĭĿ ìĿĦ
Ġì ĩ
ëĭĪ ìķĦ
ëıĦ ìĿĺ
ĠìĨĮ ìĨį
Ġíı Ĳ
ìĿ´ ê¸°
ĠìĬ¤ íĨł
Ġì¹´ ëĵľ
Ġë³Ģ ê²½
ĠìķĬ ìķĺëĭ¤
ìĸ´ ëĤľ
ĠìķĦ ëĭĪëĭ¤
) .
Ġì¸ ¡
ìķ Į
ĠìĽĲ ëŀĺ
Ġëħ¸ ëŀĺ
ìĿ´ ìĸ´
Ġíķĺ ì§Ģ
ĠìłĦ ë¶Ģ
âĢ Ļ
ĠìĤ¬ ëĿ¼
íŀ Į
c h
ĠìŀĲ ì£¼
Ġì¡° ê¸Ī
íĸĪ ì§Ģë§Į
Ġì¹ľ êµ¬
Ġëª ¬
í ĩ´
ê° Ŀ
Ġìłľ ëĮĢë¡ľ
ĠíĶĦ ëŀĳ
ĠíĿ ¬
ĠìĤ¬ ëŀĳ
ĠëĨ į
Ġê° ĳ
1 1
ĠìĿ¸ íĦ°
Ġì¤ĳ ìļĶ
ìļ´ ëĵľ
ĠìĿĮ ìķħ
ìĿ¼ ë³¸
ëŀ Ļ
Ġë ´ī
Ġëĵ £
ĠëĨ ĵ
ëĮĢíķľ ë¯¼
Ġì ı
í ľĺ
Ġì´Ī ë°ĺ
ë§Į íģ¼
Ġê¸ Ģ
ì į¨
íļĮ ìĿĺ
Ġëı Ī
ìŀĲ ë¡ľ
ï ¼
ìĻĢ ëĬĶ
ĠìĹŃ íķł
ê³ ³
ĠìĦľ ë¡ľ
Ġë¹Ħ íķ´
Ġë¹ Į
Ġìľł ëĭĽ
ĠìŀĪ ìĸ´ìĦľ
å ¤
! !
Ġëĵ± ìĿĦ
íĤ ¹
ĠëķĮë¬¸ ìĿ´ëĭ¤
ìĺĢ ëįĺ
ìĹĲìĦľ ìĿĺ
Ġê°ĢëĬ¥ íķĺëĭ¤
Ġìķ ¨
ëĮĢ íķĻêµĲ
íĸĪ ìĿĦ
ë¡ Ń
Ġì Į
Ġìłģ ìĿ´
ëĤĺ ëĿ¼
Ġê¹ Į
Ġê°Ģ ì§Ħ
ì°¬ ê°Ģì§Ģ
ê²© ìĿĦ
ĠíķĻ ìĥĿ
{ {
ĠíķĻ êµĲ
íħ Ĳ
Ġì£¼ ë¡ľ
1 5
Ġì° į
Ġìłķ ë³´
Ġëģ Į
íŀĪ ëł¤
Ġê³µ ê°ľ
Ġë¹Ħ êµĲ
Ġë ķ
ìĿ µ
ë£ ¡
Ġìłķ ì¹ĺ
Ġê²° ìłķ
íķĺ ëł¤
íĶĦ íĬ¸
ìĿ´ íĦ°
Ġëį° ë¯¸
ìŀĲ ìĿ¸
Ġíķ´ ëıĦ
Ġíĥ ĳ
Ġìľł ì§Ģ
Ġê·¸ ê²ĥ
Ġë°Ķ ê
Ġë§Ī ì°¬ê°Ģì§Ģ
Ġë ½
ĠìķĦ ì§ģ
ê°ľ ìĿĺ
Ġê°Ļ ëĭ¤
Ġíķĺ ë©°
ĠìĹ¬ ìĦ±
o w
ë¥´ ë©´
êµ° ìĿĺ
v e
ëªħ ìĿĺ
ĠìĤ¬ íļĮ
ìĪĺ ìĿĺ
ĠëĤ¨ ìŀĲ
ìĦľ ëĬĶ
ĠìĿ´ ëŁ¬
ëł ī
íĺ ģ
Ġíĺķ íĥľ
Ġ Ġ
ìĤ¬ ëĬĶ
´ Į
ìĬ¤ ìĻĢ
ì§Ģ ìĸ´
íķĺ ê±°ëĤĺ
ëıĻ ìķĪ
Ġê°ķ ëł¥
ë¦¬ ìĺ¤
h t
Ġì§Ģ ëĤĺ
p x
ìĬ¤ íħľ
Ġë³´ ê¸°
Ġë ¥
ê°ģ ì£¼
ĠìĤ¬ëŀĮ ìĿ´
ìĹ° íŀĪ
ĠìĤ´ ìķĦ
ìľĦ ìĽĲ
ĠëĮĢíķľë¯¼ êµŃ
â ĺ
Ġìĺ¤ íŀĪëł¤
ĠìķĦìĿ´ íħľ
Ġê¹ ¨
Ġëıħ ìĿ¼
ë¡ ¯
ĠëĲĺ ê³ł
ĠìĹĨ ìĸ´
Ġìłķ ë¶Ģ
ì§Ģ ìĿĺ
Ġê ¶ģ
ĠìķĮ ê³ł
íı °
íĬ¸ ë¡ľ
Ġë¹ ¨
Ġì Ķ
Ġë°ľ ê²¬
ìĵ °
ëĬĶ ì§Ģ
ë© ¸
ĠìĨ ¡
Ġë¹ ¼
ë¬¼ ìĿĦ
ìłĲ ìĿ´
Ġ19 7
Ġë© Ģ
Ġê¸° ì¡´
ë£ ¹
ĠìĿ´ ë²¤
ìĿ´ ëĵľ
íĸĪëĭ¤ ê³ł
ĠëĨ Ģ
ê²Į ìŀĦ
ë©ĶìĿ´ ìħĺ
ĠìŀĪëĭ¤ ê³ł
Ġì£¼ ìŀ¥
Ġêµ¬ ìĦ±
ĠìĦ¤ ìłķ
íĨµ ëł¹
Ġìĺģ ìĥģ
Ġë§Ī ìĿĮ
Ġì°¸ ê°Ģ
ìĿ¸ ìĿĢ
Ġì° ©
Ġìłķ ë§Ĳ
ĠíĮĮ ê´´
ĠíĽĦ ë°ĺ
ìĽĲ ìĿĦ
ëŁ¬ ëĤĺ
ì ģ
ëł µ
ìĽ ĥ
ìĹĪ ëįĺ
íĸĪ ìľ¼ë©°
ë¶Ħ ìĹĲ
ĠëĶ ľ
ĠëłĪ ë²¨
n d
Ġì¡ ¸
Ġê°Ģ ê¹Į
Ġëĵ± ìĿ´
Ġì¢ĭ ëĭ¤
ĠíĶĦ ë¦¬
ë¹ Ī
Ġë¬´ ê¸°
ĠìĿ´ ëķĮ
ë¡ ¤
Ġê ¿
en t
Ġìĸ´ëĸ ¤
ê²½ ê¸°
íĬ ľ
ëĤĺ ë§Ī
ìķ ķ
ĠìĻ ľ
íĬ ¼
Ġìłķ ìĭł
Ġìľł ìĿ¼
í ĥģ
ĠĊ ĠĊ
íĻĶ ê°Ģ
ë¥´ ê³ł
ĠìķĦ ìĺĪ
ëĮĢ ê°Ģ
Ġë¶Ģ ì¡±
ĠíĻľ ìķ½
íĻĶ ìĹĲìĦľ
ê°Ħ ëĭ¤
Ġìĸ´ ëł¤
ìĻ Ħ
ìĸ´ ë¥¼
ì§Ģ ë¡ľ
ê ¶ģ
19 8
Ġìµľ ì¢ħ
Ġíĸī ëıĻ
ëĤ¬ ëĭ¤
ìĭľ ì¦Į
ì» µ
ĠëıĻ ìĭľìĹĲ
ëĦ ·
Ġëĵľ ëĿ¼ë§Ī
Ġë§Ī ìĿ´
. )
Ġì¡° ìĦł
Ġíķĺ ë©´
Ġëĵ¤ìĸ´ ê°Ģ
ëĵľ ë¡ľ
ìĬ¤ íģ¬
Ġë´ Ĳ
ìĿ´ ê¸°ëıĦ
ëª »
Ġëª¨ ìĸĳ
ì£ Ħ
ìĦ¸ ê¸°
ìķ Ķ
Ġ201 8
ĠìĥĪ ë¡ľìļ´
ĠìĤ¬ìĭ¤ ìĥģ
Ġì ¿
ë¥¸ ëĭ¤
ê·¸ ë¦¬ê³ł
ì ©
Ġë ĥ
Ġìŀ Ķ
ê· ł
Ġì į¨
ìŀĦ ìĿĦ
5 0
ìĺ¤ ëĬĶ
Ġìµľ ì´Ī
Ġ âĨĴ
ìļ ķ
ìĭľ ì¼ľ
ĩ Į
Ġë¨¼ ìłĢ
ĠìĻĦ ìłĦíŀĪ
Ġ5 0
ĠëĮĢ íķĻ
ìĭľ ìĿĺ
B C
ĠìĨĮ íĻĺ
ĠìķĦ ëŀĺ
Ġëª¬ ìĬ¤íĦ°
Ġë°ĶëĢ Į
ë ĺĲ
ìĽ ł
ĠìŀĲ ìľł
ĠíĻķ ìĿ¸
Ġìľ ¤
ĠëĶ ¸
ĠíĶĦë¡ľ ê·¸ëŀ¨
ĠëĲĺ ìĹĪ
ī ìŀ¥
ëĤ´ ëĬĶ
ĠëĤ´ ëł¤
1 6
ĠìĬ¹ ë¦¬
Ġë½ ĳ
ìĽ ¨
Ġíŀĺ ëĵ¤
ĠëĮĢ íĨµëł¹
Ġìŀ ĥ
Ġëª¨ ëį¸
ìĥģ ìľ¼ë¡ľ
) :
ĠìĦ¤ ëªħ
ĠìĦ ¬
Ġë¹ĦìĬ· íķľ
Ġë°Ķ ëŀĮ
ĠìĦ± ëĬ¥
íķľ êµŃ
ëĭ ī
Ġë°© ìĭĿ
ë° ĸìĹĲ
Ġì½ ĺ
Ġëħ¸ ìĦł
Ġë²Ħ ìłĦ
ìľ ¤
Ġì°¨ ì§Ģ
ĠìĿ´ëŁ¬ íķľ
» ê²Į
Ġì£¼ ë³Ģ
ì½ ĺ
ëŁ Ń
ìĥ ¤
ĠâĢ ĺ
Ġìĩ ¼
Ġë¬¸ ìĦľ
ì ·¨
Ġìĭľ ìĬ¤íħľ
ëĮĢ ìĹĲ
ëľ ¨
Ġì¢ Į
Ġë§Į ëĤĺ
íĺ ¹
ĠíĿ Ķ
ë° į
Ġ [
¢ °
Ġìłģ ìļ©
Ġ201 6
Ġì°¸ ìĹ¬
3 0
ĠìłĦ ìĹĲ
ĠìĹŃ ìĤ¬
ĠìĦ¤ ì¹ĺ
ìłģ ìĿ´
ĠìĿ´ ë²Ī
ĠìĿ¼ ìĿ´
ë· Ķ
ì¹ ¸
Ġ2 4
Ġë³´ íĨµ
íĥ ķ
Ġ201 7
ê°Ħ ìĹĲ
ĠëĬĲ ëĤ
Ġ201 9
ĠìķĬ ìķĦ
ĠìĿ´ìķ¼ ê¸°
Ġìĭ¤ íĮ¨
ìĹ Ħ
ëįĶ ëĿ¼ëıĦ
ìļ° ìĬ¤
Ċ Ċ
ãģ ª
ĠìĽ Ģ
ì² Ļ
i m
íĹ Į
ë¹ ł
ë ī´
Ġì¤ĳ ìĭ¬
Ġ )
o t
Ġë§Į íģ¼
ì ´Į
Ġê°ķ íĻĶ
Ġ y
Ġê¸° ìĤ¬
Ġìµľ ëĮĢ
ë ¢°
ĠìĦ ¼
ĠìłĦ íĺĢ
Ġ X
Ġê°Ģ ì§Ģ
ĠìĦ± ê²©
Ġíĺ¹ ìĿĢ
íħ Ķ
ëıĦ ëĬĶ
ë³´ ë©´
Ġ in
ĠíĮ¨ ë°°
Ġìĭ ±
Ġëħ ¹
ìĽĲ ìĿĺ
ë§ ¹
e m
ìĤ¬ ìĭ¤
ĠëĮĢ íļĮ
ë²Ħ ìĬ¤
Ġí ľ´
1 7
Ġë°ĺ ìĿĳ
ĠëķĮ ëĬĶ
íĨ ¤
Ġê·¸ëŀĺ ìĦľ
íĸĪ ëĬĶëį°
Ġ a
êµ¬ ë¥¼
ìĿ´ íĽĦ
Ġíĳľ íĺĦ
Ġë°ľ íĳľ
ĠìľĦ íķ´ìĦľ
ì¼ °
Ġê³Ħ íļį
Ġ201 5
ìĶ ¬
Ġë¶Īê°Ģ ëĬ¥
ë· °
å ħ
Ġìĸ´ëĸ »ê²Į
íĭ ´
ì¹ ł
ìĽĢ ìĿĦ
ĠìĦ± ìļ°
Ġ20 20
Ġì¶ľ ìĭľ
Ġë²Ī ì§¸
ĠìĿ´ë£¨ ìĸ´
Ġê·¸ ëłĩê²Į
ĠìĹĨ ìĹĪëĭ¤
Ġíķľ ë²Ī
ë¹ Į
Ġë°Ľ ê³ł
Ġìĸ¼ êµ´
ĠìĽĶ ëĵľ
ìłľ ê°Ģ
ì³ ¤
ĠíĿ ĳ
ëĿ¼ ìĿĺ
ëģ Ķ
íĺ ľ
Ġìĺģ êµŃ
Ġëĭ¤ ìĸĳ
ĠíļĮ ë³µ
íķľëĭ¤ ëĬĶ
Ġ st
ì§Ģ ìĹĲ
ĠëıĻ ìĿ¼
ìĿ´ìĹĪ ëįĺ
Ġë°Ķ ìĿ´
ë³´ ëĭ¤ëĬĶ
ĠìĦ Ŀ
ëĭ¤ ë©´
ĠìĿ´ ëłĩê²Į
ëį ¤
ĠìĿ ĳ
Ġìĭ¬ ì§Ģìĸ´
Ġêµ īìŀ¥
ë°© ìĨ¡
ìĭľ íĤ¨
íĬ¸ ìĿĺ
v er
Ġê°Ģ ìł¸
ìĸ´ ëıĦ
ĠìĿ¸ ìłķ
i k
Ġìĺ¤ ë¸Į
ĠìķłëĭĪ ë©ĶìĿ´ìħĺ
ëĭĪ ê¹Į
ĠìĥĿ ìĤ°
Ġìĸ¼ ë§Ī
Ġì°¨ ëŁī
Ġëĵľ ëŀĺ
ìĸ´ ë²Ħ
ĠìĨ Ķ
1 4
Ġíķĺ ìĺĢëĭ¤
Ġ l
ĠìĬĪ íį¼
ìĿ´ ìĿĺ
( )
ë¹Ħ ë¥¼
ìŀ¥ ìĿĺ
Ġê¸° ëĬ¥
íķ´ ëıĦ
ëĿ¼ ê°Ģ
u r
Ġë§Ī ìĿĦ
ĠìĬ¤ íĬ¸
Ġê²Į ëĭ¤ê°Ģ
ëĮĢíķľë¯¼ êµŃìĿĺ
ìķ ¡
Ġì¼ ĢìĿ´
u n
í Ģ
Ġ201 4
ì²´ ë¥¼
Ġì§Ħ ì¶ľ
Ġ19 6
Ġíŀĺ ìĿĦ
íĹ Ī
ä º
Ġì± Ķ
ëĭ¤ ë§Į
Ġê² ¬
ìķĦ ê°Ģ
Ġê¸ ´
ĠìĬ¤ íħĮ
Ġë ĺ
Ġê¸° ìĸµ
Ġìķ¨ ë²Ķ
Â ł
Ġ |
Ġë¬¸ìłľ ê°Ģ
ĠìĤ¬ ì§Ħ
Ġê²½ ì°°
ĠìŀĲìĭł ìĿĦ
Ġë¹ Ī
ë¬¸ ìĿĦ
ì¡° ì°¨
Ġ n
ĠìĽĢ ì§ģ
Ġìĥ ī
Ġë°Ľ ìĿĢ
Ġ2 1
i r
ìĭ Ń
ĠëĤĺ ê°Ģ
ì¶ ĺ
ìĭ ±
ìľ¼ë¡ľ ìĦľ
Ġìĥ ¤
ìĪĺ ë¡ľ
ëĮĢ íķĻ
ì° ®
ãģ ¦
Ġíİ¸ ìĿ´ëĭ¤
Ġê²½ìļ° ëıĦ
Ġë°Ŀ íĺĢ
ĠíĸĪ ì§Ģë§Į
ĠìŀĪ ê²Į
Ġê·¸ ë¦¬
Ġëį° ë·Ķ
ìĤ¬ ë¡ľ
ĠíĬ¹ ìĪĺ
Ġë³´ ìĬ¤
ĠìŀĪ ê¸°
ìĪĺ ëĬĶ
ĠíĽ Ī
ĠìĿ´ë¦Ħ ìĿĦ
a g
º ¼
íĸĪ ìľ¼ëĤĺ
ĠìĿ¼ ëĭ¨
ìŀ¥ ìĹĲìĦľ
ĠëĶ° ë¥´ë©´
ĠëĦĺ ìĸ´
ĠêµĲ ìľ¡
Ġëĭ´ ëĭ¹
ìĥģ ìĿĺ
Ġìĵ° ëĬĶ
Ġìĵ ´
Ġíķĺ ëĬĶëį°
Ġ2 2
íķľ íħĮ
ëłĪ ë²¨
íĸĪëĭ¤ ëĬĶ
ëĭ ¥
Ġìī ¬
ë¶Ģ ìĿĺ
ĠíĴ į
å ®
íĶ¼ ìĨĮ
ì¹ĺ ê³ł
ëł¥ ìĿĢ
ëĲĺìĹĪ ê³ł
ëĵ¤ ìĹĲ
ìľ¼ ë¯Ģë¡ľ
íĻ į
ìłľ ë¥¼
ĠíĶĮëłĪìĿ´ ìĸ´
o d
ĠìŀĲ ëıĻ
ê° Ķ
ĠìĪ ¨
ê¶Į ìĿĦ
ëĿ¼ ë©´
Ġì½ ľ
íĶĦ ë¡ľ
ĠìĦł ê±°
Ġì¡¸ ìĹħ
ĠëĤ¨ ìķĦ
Ġë¹Ħ íĮĲ
Ġë°ľ ëıĻ
ĠíĮĲ ë§¤
Ġí ĩ´
ĠíĻķ ë¥ł
íģ Ĳ
ì¹ Ļ
Ġìĥģ ëĮĢë¡ľ
Ġí ľĺ
Ġìĸ´ ë¨¸ëĭĪ
ĠíĽĦ ë³´
ì¹´ ìĿ´
Ġ201 0
íķĺìĺĢ ê³ł
Ġìĭľ ìłĲ
ĠëĤľ ìĿ´
Ġê·¸ëŀĺ ëıĦ
ëħĦ ë¶ĢíĦ°
ĠìĤ¬ìļ© íķĺëĬĶ
ĠìķĬ ëĭ¤
Ġëĭ¤ ìĿ´
Ġì¤ĳ ìķĻ
ãĢ į
ìŀ¥ ìĿĢ
Ġëĵľ ëŁ¬
ĠìŀĲì²´ ê°Ģ
Ġë¹ Ľ
íĶ¼ ìĸ¸
ìĭ ¸
ìłģ ìĿĦ
ë¦¬ ìĻĢ
ĠìĿ´ ëģ
Ġìĺģ ìĽħ
ëĮĢ íĳľ
Ġ2 3
Ġê³ł ëł¤
Ġì¼ Ģ
ĠìĪľ ê°Ħ
Ġë¯ ¿
ĠíĬ¹ ì§ķ
Ġê³¼ ìłķ
ì§Ģ ì§Ģ
ê³Ħ ë¥¼
ë¦ ¿
Ġíķ´ ìĦľ
ãĥ ¼
ĠëĶ°ëĿ¼ ìĦľ
1 3
ĠìŀĲ ìĦ¸
ĠëĮĢ íķ´ìĦľ
Ġê³µê²© ìĿĦ
Ġì¶ľ ìĥĿ
Ġêµ¬ ì¡°
ĠìĬ¤ íİĺ
Ġíķĺ ë£¨
Ġì§Ģ ìĨį
ë¬¸ ìĹĲ
íĺ Ī
Ġë§ ¥
ĠëĮĢ ì²´
Ġëįķ ë¶ĦìĹĲ
Ġëª» íķĺê³ł
ĠëįĶ ìļ±
Ġê°ĢëĬ¥ íķľ
ĠìĹĨ ê³ł
Ġìļ° ë¦¬
Ġê·¸ëŁ° ëį°
u m
Ġì ³
ìłĦ ìĿ´
! "
Ġìĸ´ ë¦°
Ġì» ´
Ġêµīìŀ¥ íŀĪ
æ ľ
ê°Ģ ê°Ģ
ĠíĬ¹ ìĦ±
Ġëª» íķľ
ac k
ë¶Ģ ë¥¼
Ġìĸ´ ëłµ
íĿ ¥
ë¶Ģ ìĹĲ
ìŀ¥ ìľ¼ë¡ľ
Ġëĭ¤ ë¥´
k m
Ġë§Īì°¬ê°Ģì§Ģ ë¡ľ
Ġê°ľ ìĿ¸
20 20
êµ¬ íķĺê³ł
ëĲĺ ë©´ìĦľ
ìĬ¤ ëŁ¬
ê ¼
ë¦¬ ë¡ľ
Ġê·¸ ë¦¼
Ġê°ģ ê°ģ
ê°Ĳ ìĿĦ
Ġí ļį
êµ° ìĿ´
ĠìĽĲ ìŀĳ
Ġíķ µ
Ġë¬ »
ìŀ¥ ìĹĲ
Ġëĭ µ
íģ¬ ë¡ľ
ĠêµŃ ìłľ
Ġ h
Ġëĵ±ìŀ¥ íķĺëĬĶ
Ġê°ĢëĬ¥ ìĦ±ìĿ´
íĥĢ ë¥¼
Ġë§ µ
ê²ł ì§Ģë§Į
ĠìĿ´ ìłľ
ĠìĪĺ ìĥģ
Ġì£¼ ìĿĺ
Ġ201 3
ìĦł ìĿĦ
ìľ¼ ë©´ìĦľ
Ġë³´ ëĤ´
ĠìĤ¬ëŀĮ ëĵ¤ìĿ´
ìķĦ ìĿ´
ĠíĻķ ìĭ¤
ëĶ ľ
Ġê²° íĺ¼
ĠìĿ µ
Ġìłľ ê³µ
= "
ãģ Ł
e c
Ġ Y
ĵ ¨
201 8
ĠëŁ¬ ìĭľìķĦ
Ġê·¸ ëĤĺë§Ī
Ġ201 2
Ġê² ¨
ĠíĹ Į
ĠíĻľ ìļ©
Ġëķ ħ
201 9
Ġê±´ ë¬¼
ĠìľĦ íĹĺ
Ġë Į
ĠêµŃ ëĤ´
ìł ł
Ġìĭľê°Ħ ìĿ´
ê° Ķëĭ¤
Ġ g
Ġì°¸ ì¡°
Ġ2 8
ĠT V
ëĥ Īëĭ¤
ìĽĶ ìĹĲ
ĠìĿ¼ ìľ¼
f f
ĠëĤĺ ìĻĢ
ĠìķĮ ìķĦ
Ġê°Ĳ ìĨĮ
Ġíı ´
ì£ ½
ì¹ĺ ë¡ľ
Ġ å
ĠëĶ ±
ê¹Įì§Ģ ëĬĶ
± ±
2 5
ìŀĲ ê¸°
ì§ Ŀ
Ġëıħ ë¦½
ëĮĢ ëĬĶ
ĠìĹĲ íĶ¼ìĨĮ
ĠìŀĪìĹĪ ëįĺ
Ġê°ķëł¥ íķľ
ëĿ¼ ìĿ¸
Ġìķ ¡
ĠìĦ¤ ë¦½
ĠíĽ ¨
ĠìļĶ êµ¬
ì§ ĵ
ëĲĺ ë©°
ì²´ ê°Ģ
ĠìĤ¬ìļ© íķł
ë ¿Ĳ
ìħ Ķ
ĠëĤĺ ë¨¸
íĹ ¤
ìł ¤
ìĦ± ìĿĺ
u t
ĠìĦł ë°ľ
ë¹Ħ ê°Ģ
Ġë ®¤
ëł Ģ
ëŁī ìĿ´
ĠìĹ¬ ìłĦíŀĪ
Ġ2 6
íĮ Ķ
ëĤľ ëĭ¤
ìĿ´ëĿ¼ ë©´
Ġê°Ģ ëĬĶ
âĢ Ŀ
Ġë²Į ìĸ´
Ġ4 0
Ġë°° ê²½
Ġíķĺ ìŀĲ
ĠìĽ ĥ
íķĺ ëĤĺ
ëĳ ¥
Ġë°Ľ ìķĺëĭ¤
ĠíĽ¨ ìĶ¬
íı Ĳ
íķĻ ìĥĿ
ë¦¼ íĶ½
ĠìĪĺ ê°Ģ
íŀĪ ëĬĶ
Ġìĺ Ĩ
Ġì±Ķ íĶ¼ìĸ¸
Ġëĭ¨ ìĪľ
ìĭľíĤ¤ ëĬĶ
ìĿ¸ ë¬¼
y le
ĠìĿ´ë²¤ íĬ¸
Ġìĭľ ì²Ń
ì¢ Į
Ġê°Ģ ì¡±
Ġë°Ľ ìķĺ
ìľĦ ë¡ľ
ë¦¬ ê¸°
Ġìļ° ì£¼
ĠìĪ Ļ
ìĿ´ ë¡ľ
2 2
ì½ ľ
Ġy ou
. (
ëŁ ´
Ġì§ ĵ
Ġê ´
Ġë¬´ ìĭľ
ë´ ĩ
Ġí ĳ¸
Ġê²½ íĹĺ
ë¹Ħ ìķĦ
ĠíĶĦëŀĳ ìĬ¤
Ġ19 4
íĤ¤ ëĬĶ
Ġë¶Ī êµ¬íķĺê³ł
ëĨĵ ê³ł
Ġë° ¤
ĠëŃ Ĳ
ĠìĹĦì²Ń ëĤľ
ìĭ¬ ìĿĦ
ë¯ ¹
Ġ2 7
Ġìī½ ê²Į
Ġìłľ êµŃ
Ġê ¾¸
Ġë§ ¨
Ġë¬¸ íĻĶ
ìĩ ¼
íķľëĭ¤ ê³ł
Ġìĺģíĸ¥ ìĿĦ
ĠíĽĦ ìĹĲ
ĠìĪĺ ë¡Ŀ
ìĹħ ìĿĦ
ì ¥
ìĭĿ ìĿ´
ê²ł ëĭ¤ê³ł
Ġì§Ħ ì§ľ
in e
ìĪĺ ë¡Ŀ
Ġìĸ´ ëĶĶ
Ġêµ¬ ê°Ħ
Ġë¶Ħ ìľĦ
ĠìĿ´ íķ´
ì° Į
ĠìķĦ ì£¼
Ġìĭ¤ ìłľ
ëł¤ ìĦľ
Ġìĵ° ëŁ¬
ìĹĨ ëĬĶ
201 7
ê°ľ ë¥¼
íĸī ìĿĦ
Ġì¡° ê±´
Ġê¸°ì¤Ģ ìľ¼ë¡ľ
Ġíķľ ìłķ
ĠëĤĺ ìĻĶ
Ġíķĺ ìĿ´
ëłĪ ìĬ¤
ĠìķĦ ë§Ī
Ġë§Ĳ ìĿ´
ê²ł ëĭ¤
Ġìŀ¡ ìķĦ
Ġê·¸ ë¥¼
ìĦ± ìĿĢ
ë¥ Ļ
ìłķ íķľ
íķĻ ëħĦ
o p
Ġíĥ Ĳ
ìľĦ ìĹĲ
Ġíķ´ ê²°
ĠëĤ Ļ
êµ¬ ìĿĺ
Ġìķ½ ê°Ħ
ĠìĪ ł
ìĭł ìĿ´
Ġê¿ Ī
Ġê°ķ íķľ
ê·¸ ëŀĺ
a k
ĠëĮĢíķľë¯¼ êµŃìĿĺ
Ġë³¸ ìĿ¸
ĠìĹŃíķł ìĿĦ
Ġì§Ģ ë°©
ĠìķĦ ë¥´
ìĤ¬ ìĻĢ
ĠëıĻ ë£Į
Ġíĺ¼ ìŀĲ
Ġ &
Ġíļį ëĵĿ
ĠìĿĺ ê²¬
ĠíıŃ ë°ľ
ì¶ °
ìłķ ëıĦ
êµ¬ ê°Ģ
at ion
ë§Į ìĹĲ
o s
201 6
ĠìķĦë²Ħ ì§Ģ
19 7
ë§Į ìĿ´
Ġìłķ íĻķ
Ġì¶Ķ ìłķ
Ġë°© íĸ¥
Ġì·¨ ê¸ī
ì¤ ¬
íĶĦ ë¥¼
Ġìľł ëŁ½
Ĭ ìĿĢ
ì£¼ ê³ł
Ġëĵľëŀĺ ê³¤
ĠìĹ° ê²°
ĠìĥĿ íĻľ
Ġëĺ ĳ
ĠíĬ¹ ë³Ħ
ëĤĺ ìĿ´
Ġìŀĺ ëª»
Ġëħ¼ ëŀĢ
ë¡ľ ë¶ĢíĦ°
Ġì£¼ ëĬĶ
ĠêµŃ ë¯¼
Ġë©Ķ ìĿ´
íĬ¸ ëĬĶ
Ġìĸ ĺ
ĠìķĦ ëĵ¤
Ġì¡° íķ©
Ġë ¿
Ġë³´ íĺ¸
ĠíĹ ¬
ëłĪìĿ´ ëĵľ
Ġë »
íı ´
íĭ° ë¸Į
ĠíĺĦ ìĭ¤
Ġê²ĥ ìĹĲ
ë¹ Ļ
ì¿ Ħ
Ġë ļ
Ġìŀĳ ìĿĢ
ë§Į íķľ
ì£ ł
Ġì£ Ħ
Ġê³ §
ĠíĮ¨ íĦ´
ëĿ¼ ìļ´ëĵľ
Ġëĵ±ìŀ¥ íķľëĭ¤
.. ..
ĠìĿ ½
íĥ ĳ
ĠìķĬ ìĿĦ
Ġì¡° ì§ģ
ĠëıĦ ë§Ŀ
íĥĪ ë¦¬ìķĦ
ìľĦ ê°Ģ
ê·¸ ëŁ¬ëĤĺ
Ġë§Ĳ íķľëĭ¤
Ġê²½ ìłľ
ã ħ
Ġëĭ¤ìĸĳ íķľ
Ġì²ĺ ë¦¬
Ġì§ §
Ġê³Ħ ìķ½
ìĹ ĩ
ê³ł ë¥¼
Ġì ¥
Ġë° ´
Ġë² Ĺ
Ġ201 1
ĠìĪĺ ë¹Ħ
Ġê·¸ ê°Ģ
ëĿ¼ ìĦľ
Ġë³´ ëĬĶ
ãģ Ĺ
æ Ŀ
Ġëģ ¼
ìĭł ìĿĦ
Ġë°Ľ ëĬĶ
Ġíħ Ķ
Ġìĭ «
Ġìļ´ ëıĻ
ĠíĿ ¡
íĭ ±
Ġ and
ì¹ ¼
ìĿ´ ëŀĢ
Ġë¯¸ êµŃìĿĺ
ĠíĺĦ ëĮĢ
ĠìĺĪ ìłķ
a p
ëħĦ ìĹĲëĬĶ
Ġì¦ Ĳ
ĠëĮĢ ìłĦ
ĠS t
ëı Ī
Ġëĭ¹ ìĹ°íŀĪ
ì¼ ĢìĿ´
ĠìĿ´ìľł ë¡ľ
ëį ´
Ġì§Ģ íķĺ
í Ī
Ġì¶© ë¶Ħ
ìĿ¼ ìĿĦ
ê¸° ê³ł
Ġë¸Į ëĿ¼
Ġë Ŀ
Ġêµ ´
Ġë°© ìĺģ
ëŀ Ħ
ìĭł ìĿĺ
ê°Ģ ë¥¼
ë¶ Ļ
ìĤ¬ ìĹĲ
Ġë¹Ħ ë¡¯
ëĵ¯ ìĿ´
ê³µ ê²©
ë ®¤
Ġë² ¨
Ġìŀĳ ì¤ĳ
Ġê´ ľ
T V
ë§ ¥
ìĦ¸ ê³Ħ
ìķ¼ ë§Ī
Ġìłľ íķľ
íĥĢ ë¡ľ
ëĭ¤ ë¥¸
ig ht
Ġì¤ĳìļĶ íķľ
ì¦ ĺ
Ġì¢ħ ë£Į
íļĮ ë¥¼
Ġì´Ī ê¸°
Ġì «
ĠëĿ¼ ìĿ¸
ĺ ìĬ¤íĬ¸
Ġìļ ķ
ìĨĮ ë¥¼
Ġëģ Ĭ
Ġì¶ľ ìłĦ
ĠìĽ ¨
u l
Ġì°¸ ê³łë¡ľ
ìŀĲ ìĻĢ
ë§Į ìĿĦ
íĺ Ķëĭ¤
ìĿ´ ë©´
¾ ¼
ëĭ¨ ìĿĺ
ìļ´ ëį°
ê°Ģ ìĿĺ
ë³´ ëĭĪ
ê²¼ ëĭ¤
Ġëĵ¤ ê³ł
ìĺģ íĻĶ
ìĺĢ ê³ł
Ġë³´ ìĿ´ëĬĶ
Ġëĭ¤ìĿĮ ê³¼
ĠìĬ¤ ìĬ¤ë¡ľ
Ġíĥ ĵ
ìŀĲ ëĵ¤ìĿ´
ë© ĺ
ëį° ìĿ´íĬ¸
ĠìĹ° ìĨį
ãģ «
Ġìĺ¤ ëŀĺ
ê ½
ĠíŀĪ ë¡ľ
ĠìĿ´ìľł ëĬĶ
ãĤ ĭ
ĠíĿ ¥
ëł ¬
ë¦¬ íĭ°
íķĺëĭ¤ ëĬĶ
o c
ìĿ´ ìĹĲ
ëĿ¼ ë¥¼
ë¬ ĺ
Ġ2 9
ê² Ĳ
ê³ł ëĵ±íķĻêµĲ
ĠëĬĲëĤ Į
ëĿ¼ ë©°
ĠëĲĺ ë©´
Ġt o
ĠìĬ µ
ëĤ Ļ
ëªħ ìĿĢ
ĠíĶ¼íķ´ ë¥¼
Ġíģ¬ ë¡ľ
ĠìłĦ ë¬¸
ëŀ į
ëĤĺ ìĿĺ
r i
ëł¥ ìľ¼ë¡ľ
201 5
ìĩ Ħ
ëŀ Ń
Ġìŀħ ìŀ¥
Ġê·¸ ë£¹
Ġì£¼ ìļĶ
Ġíķĺ ìĹ¬
ìł¸ ìĦľ
íķĺëĭ¤ ê°Ģ
ëĭ´ ìľ¼ë¡ľ
Ġì¤ĳ ìĹĲ
. #
ĠëĤ® ìĿĢ
Ġìĥģ ìĬ¹
ĠëĤĺ ìĻĶëĭ¤
Ġì°¸ ê³ł
ìĭľ ë¡ľ
ì´Ī ìĹĲ
Ġìĺ¤ ë¥¸
ëĤĺ ê²Į
ìĿĺ ë¥¼
íķĻ ê³¼
ĠìĨĮ ìĦ¤
Ġ200 0
Ġëĭ¤ ëĭĪ
ìĭľ ë§Ī
ê¸° ìĻĢ
ë¹Ħ ìłĦ
? )
Ġ v
ìĨ Ķ
Ġìŀ¥ ë¹Ħ
Ġë°ľ ìĤ¬
ĠìĿĮ ë°ĺ
ĠíĥĢ ê³ł
Ġë§ Ľ
ëĥĲ ê³ł
ìĿ´ ì¦Ī
ìłĲ ìľ¼ë¡ľ
ìĽĲ ìľ¼ë¡ľ
ìľł ìĿĺ
´ ¬
ĠìĬ¤íĨł ë¦¬
ìĭľ ë¥¼
Ġíģ¬ ë¦¬ìĬ¤
ĠíķŃ ëª©
ë¦¬ ë©°
Ġë²Ħ ìĬ¤
ì£¼ ë¡ľ
ë¶Ī ìĸ´
ĠìŀĲ ë¦¬
Ġê´Ģ ë¦¬
ì¤ ĺ
Ġê°Ģ ê²©
Ġê¼ ¬
ĠìĹ¬ê¸° ìĦľ
Ġëª© ìĨĮ
ĠìĿ¼ ìĿĦ
ëĭ¹ íķľ
ĠìŀĲ ìĹ°
Ġíķĺ ê¸°
ë§ ŀ
í ĳ¸
ë´ Ĳ
ìĭľ ì¼°
Ġê²½ìļ° ëĬĶ
Ġì° ¬
âĺ ħ
ì§Ģ ê²Į
íĶĮ ëłĪìĿ´
ìĦł ìĿĺ
ĠëĤĺ ìģ
Ċ Ġ
Ġë¥ ĺ
ĠëĲĺ ì§Ģ
ìĦ Ń
ìĽĲ ìĿĢ
Ġëĵ Ģ
Ġíĸī ìłķ
ĠëĦ ĵ
ë¡ľ ë¥¼
ë¹Ħ ìĬ¤
ë¬´ ë¥¼
ĠT he
E R
Ġìķ¼ êµ¬
Ġë°ĺ ëĮĢ
Ġëĵ Ŀ
Ġë¶Ģ ìĤ°
ìĭľ ê°Ģ
ë§Ī ìłĢ
ĠìłĦ ìļ©
Ġê°Ģ ë©´
Ġì¤Ģ ë¹Ħ
ĠíħĶ ëłĪ
Ġëĭ¬ ìĦ±
Ġê¸° ê°Ħ
ĠëĨĴ ëĭ¤
a b
ĠìĹ ĳ
ìĹĲê²Į ëĬĶ
ĠìĿ¼ ìĸ´ëĤĺ
ë§Ĳ ë¡ľ
ãģ £
Ġíģ´ ë¦¬ìĸ´
c e
ĠëĳĲ ê³ł
ĠìĨĮ ìŀ¬
ĠëĤĺë¨¸ ì§Ģ
ëĳ Ķ
ë¥´ íģ¬
(...) .
íİ ľ
ëĲĺìĹĪ ìľ¼ë©°
Ġíķĺ ë©´ìĦľ
Ġë¸Ķ ëŀĻ
Ġë² ½
å Ń
Ġë¶Ģ íĻľ
ĠëĮĢ ë¯¸
a th
ĠíĿ Ĳ
ìĿ´ ë²Ħ
Ġìļ´ íĸī
ë¶Ģ ê°Ģ
Ġê° ¤
ĠìłĪ ëĮĢ
Ġë¬¸ìłľ ëĬĶ
ëł¤ ëĬĶ
ìĦ¸ ë¥¼
íķ¨ ìĿĦ
íķĺëĭ¤ ê³ł
ĠìĬ¤ íĥ
ĠìĹħ ëį°ìĿ´íĬ¸
ĠìĿ´ìĥģ ìĿĺ
Ġì²´ ëł¥
Ġêµ ³
ìŀħ ëĭĪëĭ¤
ëĺĲ íķľ
ì¢ħ ìĿĺ
' s
Ġíİ ¼
Ġìĭľ ëıĦ
Ġ200 9
Ġë° ĸìĹĲ
ìłĦ ìĿĺ
ìĿ¼ ìĿ´
Ġëª¨ ëĵľ
ìĿ¸ íĬ¸
íİ Ļ
ë° ¥
ãĢ Ģ
Ġìłģ ìĿĦ
ëª ½
ì§Ģ ê¸°
Ġëŀ ľ
Ġ200 8
Ġë¯¼ ì£¼
Ġì¹ Ń
al l
ìĬ¤ íĨł
ĠìĿ¼ë³¸ ìĿĺ
ìĥģ ìĹĲ
ìĬ¤ íĭ°
ĠìĹ ¼
S T
ê´Ģ ìĿ´
ĠíķŃ ê³µ
ìľ¼ë¡ľ ëıĦ
ì§Ģ ìħĺ
ìĬ¤ ìĹĲ
ĠìłľìĻ¸ íķľ
Ġë¬¼ ë¦¬
ìķĦ ë²Ħ
ìĹŃ ìĭľ
Ġst yle
2 4
ĠìĤ¬ìĭ¤ ìĿĦ
ìĬ¤ íħĮ
ãģ ĭ
ëĭ¨ ìĿĦ
Ġë²Ī ìĹŃ
íķ© ëĭĪëĭ¤
ĠìĥĿ ì¡´
ĠëĮĢë¶Ģë¶Ħ ìĿĺ
ãĢ Ĭ
Ġì¢ĭ ì§Ģ
ìĿĮ ìĹĲëıĦ
ĠëĴ ·
201 4
ì¹´ ìĻĢ
t er
Ġì²ł ëıĦ
Ġëĭ¤ ë¥´ê²Į
? "
Ġìĺ¬ ë¦¼íĶ½
ë¸ Ĳ
ãĥ ³
ĠâĢ ľ
ĠíĮĮ ìĽĮ
ëĶĶ ìĸ´
Ġìĭł ê²½
Ġìĸ» ìĿĦ
Ġ â
ëĭ¤ ëĭĪ
ì¡° ê±´
ë¦¬ ë©´
ëħ ¼
ì£¼ ë¥¼
´¬ ìĺģ
Ġëį ±
Ġìľł ë¦¬
Ġì§Ģ êµ¬
Ġìľł ëĭĪ
ë¯¸ êµŃìĿĺ
Ġìħ Ī
Ġê¸° ìĹħ
Ġìµľ ê·¼
ĠìĻ¸ êµŃ
íķ ĳ
Ġíķ´ ìķ¼
ī ìĿĢ
ĠìĹ° ì¶ľ
ìľĦìĽĲ íļĮ
Ġì§ ķ
ĠìĿ¸íĦ° ë·°
ĠìĿ´ëģ Į
íĺ¸ ë¥¼
íķ Ģ
ìĹĪ ì§Ģë§Į
Ġë¶Ģ ë¥´
ë¦¬ ê²Į
ĠìĦ± ìŀ¥
Ġì¹ ¸
ĠëĬ¥ ëł¥ìĿĦ
Ġê²ĥ ê³¼
ĠìĥģíĻ© ìĹĲìĦľ
Ġê º¼
íģ¬ ë¥¼
ĠìĹĲ ëĦĪ
íķ´ ì£¼
íİĺ ìĿ´ì§Ģ
{{ {
Ġë¯¸ ìħĺ
Ġë³´ ìĿ´
ĠíĢ ĺìĬ¤íĬ¸
Ġê³µ ìĹ°
ëĲĺ ê¸°
ĠìĮ ĵ
ĠìłķëıĦ ìĿĺ
Ġ æ
Ġë°ĺ ë©´
ìľ Ī
Ġì§Ģ íľĺ
ëĵ¤ ìĸ´
ìļ´ ëıĻ
ĠìĨĮ ëª¨
6 0
ìľ¼ë¡ľ ìį¨
êµĲ ìľ¡
ĠìĥĿ ê¸´
ĠíķŃ ìĥģ
ìĦ¸ ëĮĢ
Ġë§Ī ìĬ¤íĦ°
ĠìľĦì¹ĺ íķľ
ĠëįĶ ë¶Īìĸ´
ìĦł ìĿ´
Ġëª» íĸĪëĭ¤
ë ±
ĠìĹĶ ëĶ©
ĠëģĿ ëĤĺ
ç Ķ
ìĬ¤ ëŁ½
Ġê³Ħ ìĹ´
Ġì¸ ł
ĠìĹ° ê¸°
Ġìĭ¸ ìļ°
Ġìµľ ìĨĮ
ë¯¼ ì£¼
ëĵ Ģ
íĬ¹ ë³Ħ
ãĢ ī
ĠìķĦëĭĪ ê³ł
ë¬¼ ë¡ł
ìł Ŀ
İ ìĿĢ
ìĹ¬ ìĦľ
ĠíĿ ĺ
êµ° ìĿĦ
ëĭ Ĳ
ê³ł ëĬĶ
ĠìĤ¬ëŀĮ ìĿĢ
ë°Ķ ìĿ´
ë¡ľ ê°Ģ
ë¬¼ ìĿ´
ì§Ħ ìĿĦ
ìŀ Ķ
Ġê°Ģ ìĪĺ
íĶ Ī
ìĦľ ë¥¼
Ġë¬ĺ ìĤ¬
ìĦľ ìļ¸
Ġ| |
í ĵ¨
' ,
Ġë¶Ħ ëħ¸
Ġë°ĶëŀĮ ìĹĲ
Ġëĵ± ìľ¼ë¡ľ
Ġë ±
íķĻ ìŀĲ
Ġëį ¤
Ġë§Į íĻĶ
ìĪĺ íķľ
Ġë¶Ī ëŁ¬
Ġê² ¸
ìĿ´ëĿ¼ ëıĦ
ë§Ī ìĿĺ
Ġëª¨ìĬµ ìĿ´
ìĸ´ ìķ¼
Ġëª© ë¡Ŀ
ë¯¸ ê°Ģ
ìĿ¸ ìľ¼ë¡ľ
ĠìŀĲ ëŀĳ
4 0
ë¡ ±
ë ¤
Ġë¯¸ ëŀĺ
ìķ Ĺ
ou nd
íı¬ ì¸ł
ìĹĪ ëĬĶëį°
Ġì³ Ĳ
íĦ ¸
ìĹĪëĭ¤ ê³ł
ĠìĪĺ ëĬĶ
ãģ ¨
ĠëĲĺ ìĹĪê³ł
g r
ë Į
ìĽ ĢìĿ´
êµ° ìĿĢ
ĠëĤĺ ìĦľ
Ġìľłëªħ íķľ
ë¹ Ľ
íĺ¸ ê°Ģ
Ġëª© íĳľ
Ġë§Į ëĵľëĬĶ
ìĭĿ ìľ¼ë¡ľ
Ġìĭľìŀĳ íĸĪëĭ¤
ëĤ´ ê³ł
ĠëĤ´ ê°Ģ
ì§Ħ ìĿ´
ëĲ Ĳëĭ¤
Ġìŀ¥ ì°©
ìĬ¤ ì½Ķ
Ġ19 5
ĠìľĦ ìĹĲ
íĶĦ ë¦¬ì¹´
Ġëªħ ì¹Ń
ë¬¸ íĻĶ
å Ĳ
ëŀ «
Ġëª» íķĺëĬĶ
ëŀĢ ëĵľ
ë£ ¬
ëıĦ ìĹĲ
ĠìĤ Ń
ëĤ ¼
ìĿ´ ë¸Į
ĠìĪĺ ìłķ
Ġìķ ¤
Ġê´ľ ì°®
ìĻ¸ ë¡ľ
ĠíĻķ ìłķ
Ġì¡´ìŀ¬ íķľëĭ¤
ĠìĶ ¨
Ġìłģ ìĿĢ
ĠìĨĮ ê°ľ
ìĸ´ ìĿĺ
ĠìķĬ ê²Į
Ġê±´ ìĦ¤
ìĭľ ëĬĶ
Ġì į
ĠìĺĪ ìĥģ
ĠìĿ¼ íĸī
ĠK BS
Ġìĸ µ
ĠëıĻ ë¬¸
ëįĶ ëĭĪ
Ġë¹ ħ
Ġìĺ ¥
Ġê¸° ë°ĺ
ëª °
Ġìŀĳ ê³¡
Ġê²Ģ ìĿĢ
íĺĦ ìŀ¬
Ġë¹ł ë¥¸
ĠìĬ¤ íĶ¼
ìĪ ¨
Ġìľł íĬľ
ĠíĺĦìŀ¬ ëĬĶ
ĠëĶ° ë¡ľ
Ġëĭ¬ ëł¤
Ġë¹Ħ íĸī
ìłľ ìĿĺ
íķ´ ì§Ħ
ĠìĹĲíĶ¼ìĨĮ ëĵľ
ëĭ¨ ìĿ´
Ġê°ģ ì¢ħ
Ġ200 7
Ġìĺ ®
Ġë¬´ ìĹĩ
Ġê°ĳ ìŀĲê¸°
ĠíĽĪ ëł¨
Ġ k
ë§Ī ê°Ģ
ĠìĿ¼ ìłķ
ì§Ģ ìĻĢ
ĠìķĪ ìĹĲ
ëª ĩ
ĠìĿ¸ êµ¬
ĠìłĦ êµŃ
ë¶Ģ ë¡ľ
ìĬ¤ëŁ¬ ìļ´
Ġê²ĥ ìĿ´ëĿ¼ê³ł
ĠìĹĨ ìĿĦ
ìĦ¸ ê°Ģ
ê¹ Ŀ
Ġìķķ ëıĦ
Ġì§Ģ ìłķ
ì¼ĵ ëª¬
ĠìŀĪ ìľ¼ëĤĺ
ìĥģ ìĿĢ
ĠëĴ¤ ìĹĲ
ëĶ °
Ġê°Ģ ëģĶ
Ġë©Ķ ìĿ¸
ĠíĴ Ī
Ġë¯¸ ìĤ¬
2 3
ĠF C
ĠëĤĺíĥĢ ëĤĺ
ìĿ¼ ë¶ĢíĦ°
ìħ ī
íķĺ ëĿ¼
Ġê²½ìļ° ìĹĲëĬĶ
Ġëªħ ëł¹
ãģ Ĩ
i a
Ġì ´¬ìĺģ
ĠêµĲ ì²´
i e
íĭ ¸
íĮ ©
ë Ĵ
¯ ¤
å ı
ĠëĮĢ ìĤ¬
Ġ3 1
Ġê³µê²© ëł¥
F A
Ġë¶ģ íķľ
ĠìŀĪëĭ¤ ë©´
ĠëĤĺ ëĬĶ
ì½ ©
Ġê¸° ê´Ģ
ĠìĥģíĻ© ìĿ´
ĠìłĦ ë°ĺ
ĠëĤ ©
ik i
Ġë³¸ ìĿ¸ìĿ´
ì Į
Ġì§Ģ ì¼ľ
ĠëĤĺ ë¦Ħ
Ġê¹ Ķ
ì§Ģ ë©´
ì°¸ ê³łë¡ľ
ar t
ëĭ¤ ìļ´
Ġë³Ħ ë¡ľ
ãĤ ĵ
ĠìĪĺ íĸī
ì°¨ ê°Ģ
ĠìķĪ ìłķ
Ġê² ª
ìĤ´ ìķĦ
Ġìĭ± ê¸Ģ
m m
Ġì§Ģ ì§Ģ
Ġë³´ ëĭĪ
Ġê·¼ ì²ĺ
Ġê²° ìĬ¹
ê½ ĥ
ìħ ľ
ëŁ¬ ìĬ¤
Ġìłľ ìĿ¼
íĶĦ ê°Ģ
ĠìĿ´ë¦Ħ ìĿ´
) '
ĠìĭĿ ìľ¼ë¡ľ
Ġëı ¼
ëĶ ĺ
Ġê²ĮìŀĦ ìĿĦ
ëª¨ íĨł
{{{ #
Ġê·¼ ìłĳ
ĠìĹĨ ëĭ¤ê³ł
ĠìĿ´ìļ© íķ´
ìª½ ìľ¼ë¡ľ
Ġê¸° íĥĢ
Ġê¸° ëĮĢ
ë²Ħ ë¦°
ĠíķĦìļĶ íķľ
Ġê²½ ìŁģ
ë§ İìĿĢ
Ġê°ľ ëħĲ
ìľ¨ ìĿ´
ë ļ
Ġëª¨ ë¥´
Ġê°Ģê¹Į ìļ´
Ġì°¨ ìĿ´ê°Ģ
Ġìŀł ìĭľ
ìŀ ī
ëŀ Ĳ
p l
ĠìĤ¬ ê³ł
ĠìŀĪ ìľ¼ëĭĪ
ĠìĽ ¹
ìĽĲ ìĹĲ
Ġê°Ģ ìļ´ëį°
ë§Ī ìŀĲ
ìĨĮ ê°Ģ
ĠìĿ´ íĥĪë¦¬ìķĦ
Ġì§ĳ ì¤ĳ
r a
ìĿ´ ìħĺ
ìķĺ ëįĺ
ĠìĹĨ ëĭ¤ëĬĶ
Ġë¹ł ë¥´ê²Į
or d
ë³´ ëĬĶ
Ġì§Ģ ëĤľ
Ġê°ĸ ê³ł
Ġë°Ķê ¿
ĠëĤĺ ìĺ¬
Ġë© ¸
Ġíĭ Ģ
ì°¨ ë¥¼
ĠìĮ į
Ġì²ĺìĿĮ ìľ¼ë¡ľ
Ġë§Į ìķ½
ĠëıĦ ìŀħ
ì° į
ĠìĻ ¼
ĠíĬ¹ ìłķ
Ġíķĺ ê²Į
Ġëĵ£ ê³ł
Ġê¸° ëĭ¤
ĠìĤ¬ìĿ´ ìĹĲ
201 3
ĠëĪĦ êµ¬
ĠìķĦìĿ´ ëıĮ
il l
Ġì£½ ìĿĢ
Ġ e
ê°Ħ ìĿĺ
Ġê´Ģ íķľ
ĠíĥĪ ì¶ľ
Ġìłķ ìŀĳ
ìĦ ¬
Ġë°ľ ìłĦ
ĠìĤ¬ìļ© íķľëĭ¤
ë¶Ģ ëĬĶ
ì§Ģ ìĹŃ
ĠìĿ´ìķ¼ ê¸°ë¥¼
íĮĮ ìĿ´
íĮ ¬
ĠĊ Ċ
Ġì§Ģ ëıĦ
ë¦¬ ìĬ¤íĬ¸
Ġê³µ ëıĻ
ĠìĬ¤íħĮ ìĿ´ì§Ģ
Ġë¶Ģ ìłķ
Ġíĥ ±
Ġë§Ĳ ìĹĲ
Ġ200 6
Ġê±° ê¸°
ĠìłĦ ìĦ¤
ãĤ ī
ĠíĸĪ ìľ¼ëĤĺ
Ġê³¼ìłķ ìĹĲìĦľ
ëĤ¸ ëĭ¤
Ġë¶Ģ ëª¨
w iki
Ġ6 0
ê³Ħ ê°Ģ
ìĬ ´
ĠìŀĲ ë£Į
Ġì½ ¤
Ġë§ ¹
Ġìĺ Ľ
ë¦¬ ìŀĲ
ĠìĹ° íķ©
ëĥĲ ëĬĶ
Ġë¹ł ìł¸
ë§Į ìĿĺ
ĠìĤ¼ ìĦ±
ëĮĢ ìłĦ
Ġìµľê³ł ìĿĺ
19 6
Ġì¤ĳ ìĹĲìĦľ
Ġë³µ ê·Ģ
ìĿ¼ ìĿĺ
ë ķ
ĠëĤĺ ë¬´
ĠíĦ ¸
Ġìĺ ·
ë¬´ ë¦¬
Ġì¿ ¨
ëŁī ìĿĦ
Ġíļ¨ê³¼ ë¥¼
íĻĶ êµŃ
Ġë³´ ìľł
Ġë¶Ħ ë¥ĺ
ĠìĿ´íĽĦ ë¡ľ
ìĤ¬ ìĿ´
ëħĦ ê¹Įì§Ģ
ãģ ¯
Ġë¶Ģ ìĹ¬
ĠìŀĪìĹĪ ê³ł
Ġìľł ìĤ¬
ìĸ¸ ìĿĦ
ìĿ¼ ëŁ¬
ìĭ¬ ìĿ´
ĠëıĻ ìĥĿ
ĠìĿ´ë¦Ħ ìĿĢ
ëĲ Ĳ
Ġ Z
Ġì¤Ħ ìĸ´
ë¡ľ ìĿĺ
ëĳ ĺ
Ġìłĳ ê·¼
Ġìĺ µ
Ġë¨¸ ë¦¬
ĠìĨĮ ëħĢ
Ġëľ ¨
íģ¬ ê°Ģ
Ġë¬¼ ê±´
ĠìłĢ ì§Ģ
ëıĻ ìĿĦ
ìĿ´ ìĻĢ
Ġë¡ ¤
Ġë°Ķê ¾¸
Ġëĭ¬ ëĿ¼
ĠìĿ´ ìĻ¸
Ġì§ģ íĽĦ
ĠëĤĺ ëĿ¼
ê³Ħ ìĿĺ
Ġë°° ì¹ĺ
íĨ ¨
¾ Į
ìķ¼ ë§Ĳë¡ľ
íĿ Ĳ
ĠìĥĪ ë¡ľ
ëĦ ĺ
ĠìķĦ ì¹´
Ġì§Ģ ë°°
íĬ¸ ëĿ¼
201 2
íģ¬ ìĿĺ
íŀ Ĳ
íĴ Ģ
ë²Ħ ëł¸ëĭ¤
ëĤĺ ëĭ¤
Ġëĵ±ìŀ¥ ìĿ¸ë¬¼
{{{# !
ëĵľ ìĭľ
ìļ° ê°Ģ
ëĵ¤ ë¡ľ
Ġë¹Ħ ë°Ģ
ĠìŀĪ ìľ¼ë©´
ĠìĻ Ķ
ë¡Ń ê²Į
Ġìłľ ê±°
Ġíı¬ ê¸°
ì» ¨
ìĬ¤ ì¹´
Ġìĸ´ ì©
ê°Ĳ ìĿ´
ê ¾¸
Ġë° ĸ
ê²ĥ ëıĦ
ìĺĢ ìľ¼ëĤĺ
201 0
ĠìķĮ ê²Į
ìħ Ģ
ãĤ Ĥ
Ġë° ĳ
íĥĢ ê°Ģ
ĠíĸĪ ëįĺ
Ġìłľ íĴĪ
Ġëĵ±ìŀ¥ íķľ
Ġêµ° ìĤ¬
ì¦Ī ìĿĺ
ĠëģĿ ìĹĲ
ì¹ĺ ìĿĺ
Ġ ,
ĠìĿ´ ìłģ
ìŀĦ ìĿ´
Ġê½ ĥ
Ġë¬´ ëł¤
ê ¾¼
Ġì§ ľ
ãģ §
ĠëıĻ ë¬¼
ĠëıĮìķĦ ê°Ģ
ìľĦ ëĬĶ
ìĦ ¯
ê¸° ìĪł
ĠìĽĶëĵľ ì»µ
ëĥ Ī
ëĳ ł
Ġë³´ ìķĦ
ĠìĤ¬ ëĥ¥
ĠëıĦ ì°©
âĺ Ĩ
ë¯¸ ë¥¼
íĦ° ë¥¼
Ġì« ĵ
ĠëĮĢ íķĻêµĲ
ĠëĶĶ ìŀĲìĿ¸
ĠãĢ Ī
Ġíıī ê·ł
ĠìĤ´ íķ´
Ġíĳľ ê¸°
ĠíĻĺ ê²½
ìĿ´ ëĭĪ
ìĪĺ ëıĦ
ĠëĿ Ħ
ĠíĮĮ íĭ°
ìĬ¤ ì¼Ģ
Ġìº ł
ĠëĤ¨ ìĿĢ
æ ĸ
Ġê²½ê¸° ìĹĲìĦľ
ĠëĤĺ ì¤ĳìĹĲ
( ?)
Ġíĺ Ī
Ġìĭľ íĹĺ
Ġê°Ģ ë¬¸
Ġì¢ħ ë¥ĺ
ëĤ¨ ëıĦ
Ġìµľ ê°ķ
Ġíķ´ ìĻ¸
ĠìľłìĿ¼ íķľ
Ġì¤Ģ ëĭ¤
ìĹĪ ìĿĦ
Ġì£¼ ë¯¼
ĠìķĦ íĤ¤
ëı ¼
ëªħ ìľ¼ë¡ľ
Ġíķĺ ëĬĺ
ìłģìľ¼ë¡ľ ëĬĶ
ĠS K
ìī ½
ĠëĿ¼ìĿ´ ë¸Į
4 8
ĠëĿ¼ ê³ł
ĠìķĦëĭĪ ë©´
ĠãĢ Į
ĠìĤ¬ëŀĮ ìĿĦ
Ġì¶Ķ ì¸¡
Ġìĭ¬ ê°ģ
ì²´ ìĿĺ
Ġìĭľ ìłĦ
Ġìı ĺ
Ġíŀ Ĳ
ì§Ģ ë©´ìĦľ
Ġë¬´ ìĬ¨
Ġê°Ģ ë¥´
ĠìłĦ ìŀĳ
Ġìĺ¤ ëĬĺ
on t
Ġìŀĳ ê°Ģ
ĠìŀĲ ë¦¬ë¥¼
ĠíħĶëłĪ ë¹ĦìłĦ
Ġíģ´ ëŀĺ
ìĹŃ ìĿĦ
Ġìĭľ ëĮĢ
Ġë°Ľ ìĿĦ
ë¦¬ íĬ¸
Ġíķ© ë¥ĺ
ĠìĤ¬ ìĿ´íĬ¸
ìłĲ ìĿĢ
ĠëĤĺ ìĿ´
ĠìĨĮ ëł¨
Ġë¡ľ ë§Ī
ĠìĻĦ ìłĦ
ê¹ ¨
Ġë¦ °
ĠìĻĦ ìĦ±
Ġê²½ ê¸°ë¥¼
ĠìĿ´ ê±¸
ĠíĮĲ ëĭ¨
T he
ë¡ľ ëĵľ
íĺ¸ ìĦł
Ġìĸ¸ ìłľ
ĠëģĮ ìĸ´
Ġìĥģíĥľ ìĹĲìĦľ
æ °
ĠìĤ¬ ìĹħ
íĤ¤ ê°Ģ
ì£¼ ê°Ģ
Ġìķŀ ìĹĲ
ëĳĲ ê³ł
ĠìĨĮ ë¦¬
ëł¥ ê³¼
Ġì¹ ł
ë¶ĢíĦ° ëĬĶ
Ġìĺģ ìĸ´
Ġê°ľ ìµľ
Ġìĵ° ê³ł
ĠëĬĲ ëģ¼
Ġì§ģ ìĹħ
ĠìĤ¬ ë¡Ģ
Ġê·¸ëħĢ ìĿĺ
ĠíļĮ ìĤ¬
Ġë§İ ìķĦ
ĠìłĲ ìĿĦ
ìłľ ëĬĶ
ĠM BC
å¤ §
íĻĶ ìĿĺ
ĠìŀĲì²´ ëĬĶ
ĠëĤł ìķĦ
u e
ĠìĹ° ìĬµ
ä »
ĠìĿ¸ íķľ
Ġë¶Ģ íĥģ
é ģ
ìĬ¤ íĤ¬
el l
Ġë³´ìĹ¬ ì¤Ģëĭ¤
íĬ¸ ë¦¬
ìľĦ ìĿĺ
Ġëĭ¤ ë£¨
Ġìĥģ ê´Ģ
Ġì¹ĺ ë£Į
ĠíĨµ íķ©
ê·¸ ëŁ°
é ĩ
ë²Ħ ë¦°ëĭ¤
Ġê³ł ìłķ
ĠëıĦ ì¤ĳ
ĠëĤ¨ ìĦ±
Ġíķľëĭ¤ ëĬĶ
ê¸Ī ìĿĦ
ë°Ľ ìĿĢ
Ġëŀ Ń
Ġíķľ íİ¸
ĠëĬ ¦
Ġíı¬ ì§Ģìħĺ
ìĸĳ ìĿ´
Ġì¡° ìĤ¬
Ġëĥ ī
ìĹĲ ë§Į
A R
ĠíĬ Ģ
ê ¿
Ġê¼ Ń
Ġ200 5
ìłķ ìĿĺ
Ġë°Ŀ íĺĶëĭ¤
ë³´ ê³ł
Ġê³µ ê°Ħ
íĺķ ìĿĦ
e a
ìĽĲ ìĹĲìĦľ
ëĿ¼ ìĬ¤
íķĺìĺĢ ìľ¼ë©°
Ġìĥģëĭ¹ íķľ
íķĺ ìĿĺ
ê²ł ëĭ¤ëĬĶ
ĠëķĮ ë§Īëĭ¤
Ġ }}}
ê´Ģ ìĿĦ
ê¸° ìĤ¬
ĠíĻĪ íİĺìĿ´ì§Ģ
ĠëĽ° ìĸ´ëĤľ
ìĤ´ìķĦ ìŀĪëĬĶ
ë ĩĮ
Ġë² ¤
ìłģ ìĿĢ
Ġê¸° ëħĲ
ìĺ¨ ëĭ¤
ĠëŃ Ķ
ĠëĽ° ìĸ´
ĠìłľìĻ¸ íķĺë©´
Ġê³¼ íķĻ
ê°ľ ìĽĶ
Ġìŀ ī
ê°ľ ë¡ľ
ĠìĹĨ ì§Ģë§Į
ĠìŀĪìĹĪ ëĬĶëį°
Ġë°° íĭĢ
ĠëĨĴ ìķĦ
ëł Ľ
Ġìłķ ìĥģ
Ġëĸł ëĤĺ
8 0
ĠíĮĢ ìĿĺ
ì§Ģ ëĿ¼
ĠìĿ¸ ëıĦ
ĠíĥĢ ìŀħ
Ġìĭľê°Ħ ìĿĦ
ì² ©
ĠìĤŃ ìłľ
ë³´ ë¥¼
Ġê³µ ì¤ĳ
Ġëĵ¯ íķĺëĭ¤
Ġì¹´ ìļ´
ĠëıĦ ì¿Ħ
201 1
ì²´ ëĬĶ
ĠìĻĦ ë²½
ëħ ķ
ìłķ ìĹĲ
Ġ19 3
ì½ ¤
Ġë´Ĳ ëıĦ
ĠìľłìĿ¼ íķĺê²Į
Ġë°ĺ ëĵľìĭľ
Ġê±° ì£¼
ìĦł ìĪĺ
ĠíĻ Ģ
ĠìķĦ ëĤ´
ĠíĸĪ ëĬĶëį°
Ġ .
ìĹ° êµ¬
íħĲ ì¸ł
Ġìĭľ ìĦ¤
íĻĶ ëĲľ
ìĦ± ìĹĲ
ĠíĥĢ ê²©
Ġìłľ ëª©
ìĭľ íĤ¬
ëĤĺ ë¥¼
Ġíļ¨ê³¼ ê°Ģ
Ġì¡° ì¢ħ
íĤ¤ ìĿĺ
ëª¨ ê°Ģ
ìĸ´ ì§Ħ
Ġëĭ¤ ìĨĮ
Ġì¢ħ ì¢ħ
ãĥ »
ĠëıĦ ìĻĢ
ìķĦ ìĿĺ
ĠëĮĢ ìĥģ
ìļ© ìľ¼ë¡ľ
ìĿ į
ĠìĹĨ ìĸ´ìĦľ
Ġë²ł ìĿ´
ëĵ ¬
ìĿ¸ ê³¼
Ġê ±±
íĿ ĳ
ĠìļĶ ì²Ń
Ġêµ¬ ë§¤
ĠìłĲ ìłĲ
íĦ° ê°Ģ
i z
Ġìĥģ ìľĦ
ìłģ ìĿ´ëĭ¤
ĠëĲĺ ëĬĶëį°
Ġìĭ¤ íĹĺ
Ġìĺ¬ ëł¤
Ġíı¬ ì¼ĵëª¬
Ġë³Ģ ìĭł
ĠëĮĢ êµ¬
å ľ
ìļĶ ìĿ¼
íķľëĭ¤ ë©´
ìĸ´ ëĬĶ
ĠìłĦ ëŀµ
ëĲĺ ë©´
ĠìĹ¬ ê¸°ìĹĲ
ìĿ´ ìĥģ
ĠìĿ´ ê³³
i st
ë¥´ íĬ¸
ĠìĿ¸ ì²ľ
ĠìĿ´ ê²Į
ë¡ľ ê·¸
ë¥´ ìĿĺ
Ġìłķ ë¦¬
ìĿĮ ìĿ´
i f
Ġê²ĥ ì²ĺëŁ¼
ĠêµĲ íĨµ
ëĵľ ìĻĢ
ëıĻ ìĥĿ
ëĪ Ī
ãĤ Į
Ġëį° ìĿ´íĦ°
ë¶Ħ ìĿ´
Ġìĭ« ìĸ´
íĥĦ ìĿĦ
ĠëĮĢ ê¸°
ìĦĿ ìĿ´
Ġ8 0
ìĹ ½
ëį ľ
å į
Ġë§ŀ ì¶Ķ
ìĺĢ ì§Ģë§Į
Ġë ĩĮ
Ġ200 4
Ġë¶Ħ ëªħ
ãĤ Ĵ
Ġë§ º
ĠìŀĪìĹĪ ì§Ģë§Į
ãģ ı
O N
ìĿ¸ ê°Ģ
ìĿ´ ëĭĿ
ĠëıĦ ë¡ľ
ëĭĪ ìĬ¤
Ġì±Ħ ëĦĲ
ëĭĪ íĭ°
ĠëĿ¼ ëĬĶ
ì§Ģ ìĹĲìĦľ
Ġë¿ Į
ĠëĦ Ĳ
Ġìķł ì´ĪìĹĲ
ìĿ´ ìķ¼
å °
ĠìĿ¸íĦ° ëĦ·
2 6
ëĨ į
ê·¸ ë£¹
ë°© ìĿĦ
ìŀ¥ íĮĲ
ìĬ¹ ìĿĦ
Ġìĥģíĥľ ë¡ľ
2 7
ãģ ¾
Ġìłķ ê·ľ
ĠìĿ´ ìª½
ĠC h
ĠíĥĪ ëĿ½
2 8
ìĤ¬ ì¹´
Ġì¼ Ħ
ì´Ī ëĵ±íķĻêµĲ
Ġë°ĺ ëĮĢë¡ľ
Ġì¤ĳ ê°Ħ
ar d
ëŁ ¿
ĠëŁ °
ĠìķĦ êµ°
ìĨĮ ëħĦ
ĠìĪĺ ë§İìĿĢ
Ġê°Ģ ìĦľ
Ġì¢ĭìķĦ íķĺëĬĶ
ê¸° ê´Ģ
ĠìķĮëł¤ ìł¸
Ġë¬´ ì¡°ê±´
ë°Ľ ëĬĶ
ëłĪ ìĿ¸
Ġíĥĵ ìĹĲ
ì§Ī ìĿĦ
íĻ Ģ
! )
u p
ĠìķĬ ìľ¼ë©´
ë§Ī ë²ķ
Ġìłķ ìĿĺ
ìĦ± ê³¼
ĠìłĦ ì°¨
ìłĦ ìŁģ
ĠìĿ´ ë¡ľ
ëĵľ ìĹĲ
ãģ Į
ĠìłĦ ê¸°
ì ¯¤
ĠìľłíĬľ ë¸Į
ë¬¸ ìĿ´
Ġì§Ģ ìĥģ
ëĤĺ ìĻĢ
íķĺ ëıĦë¡Ŀ
ìľ¼ë¡ľ ë¶ĢíĦ°
ĠíĶĦ ëłĪ
ì³¤ ëĭ¤
Ġì² Ļ
ĠìŀĲìĦ¸ íķľ
ìķĪ ìĿĦ
ê´ĳ ìĹŃìĭľ
Ġë³¸ ëŀĺ
Ġë¹Ħë¡¯ íķľ
ĠìĥĿê°ģ íķ´
ê°Ģ ìĻĢ
ĠìĿ´ë¦Ħ ìľ¼ë¡ľ
ĠìĹ´ ë¦°
Ġë¡ ¯
ì§ Ĳ
ë¬´ ëĿ¼
ĠìĻ¸ ìĹĲëıĦ
ĠìķĪ ìłĦ
ĠíĬ¹ ìĿ´
at e
Ġìĸ´ëł¤ ìļ´
Ġì¶Ķ ì²ľ
ĠíĤ ¹
) ]
ì§Ģ ë©°
ìļ° ë¦¬
Ġìĭ Ń
ĠíĻĶ ë©´
ĠíķĺëĤĺ ë¡ľ
Ġë²Ķ ì£Ħ
íĮĮ íĬ¸
ìĦĿ ìĿĦ
Ġê±´ ëĭ´
íĸĪ ê¸°
Ġì¶©ë¶Ħ íŀĪ
ĠíĪ¬ ìŀħ
Ġëªĩ ëªĩ
Ġì£¼ ê³ł
ĠìĨĮ ìľł
Ġì¢ħ êµĲ
ë³´ëĭ¤ ëıĦ
Ġì¶© ê²©
ëĦ £
Ġì»´ íĵ¨
Ġë¹¨ ë¦¬
Ġìłķ ì±ħ
Ġë¹Ħ ì¤ĳ
ìłķ ìĿĢ
Ġê³ ¤
Ġëª ½
ĠëĮĢ ìĿĳ
Ġì§Ģ íĤ¤
ê°ľ ê°Ģ
ĠìĤ¬ ë¬´
9 9
ä ¹
ìĸ´ ëĤ¬ëĭ¤
ĠìķĶ ìĤ´
íĢ ´
ì¡° ìĿĺ
íı ¼
ĠìĹħ ê·¸
Ġë³´ ìĺĢëĭ¤
ìĦ¼ íĦ°
ìĹĲê²Į ìĦľ
Ġìĸ¸ ë¡ł
Ġë¸Ķ ë£¨
ĠìłĦ íĨµ
ì¿ ¨
Ġë¶Ģ íķĺ
A N
Ġë¯¸ ëĭĪ
ĠìľĦ íĺĳ
ë¡ľ ìļ°
Ġìľ Į
Ġê±° ë¶Ģ
ìĭľ ëĮĢ
ĠìĿĺ íķĺë©´
ì¡Į ê³ł
Ġìµľì´Ī ë¡ľ
ĠìĦł ìłķ
ëĿ¼ ìļ°
Ġìĭ¸ ìĽĢ
ìĬ¤ ìĹĲìĦľ
ìª½ ìĹĲ
ĠëķĮ ê¹Įì§Ģ
Ġíıī ë²Ķ
ìĪł ìĿĦ
Ġ9 0
er s
an t
Ġê³µ íı¬
c m
Ġë³Ģ íĻĶ
ĠëıĪ ìĿĦ
å ·
ĠìĦ± íĸ¥
ĠìĨĲ ìĿĦ
Ġë¶Ī ë¦¬
Ġëĵ± ìĹĲ
ë Ń
ìĿ´ ë¯Ģë¡ľ
æ ĺ
ĠìĺĪ ë¥¼
ìĦ¸ ìĿĺ
¶ ¤
Ġíĳľ ìĭľ
Ġëĸ ¡
ìĦ¸ ìļĶ
ìŀĲ ëĵ¤ìĿĢ
ĠíĸĪ ê³ł
Ġê·¸ ê±¸
Ġê´Ģëł¨ ëĲľ
Ġì§ Ĳ
íķĺ ëł¤ê³ł
ëłĪìĿ´ ìħĺ
ìĭľ ìĺ¤
ì£¼ ìĿ¸
ëł¥ ìĿĺ
o k
Ġê¸° ê³Ħ
ë§ Ľ
Ġë³¸ ìĿ¸ìĿĺ
Ġë°Ķ ëĭ¤
e p
Ġí Ĥ¬
íģ¬ ëŀĺ
ãĤ Ĭ
Ġí ļ
ëĵľ ë¦¬
ĠíĶ ½
Ġëĵ¯ íķľ
ëıĦ ìĻĢ
ĠíĶĦë¡ľ ìłĿ
Ġë§ŀ ì¶°
ĠëĬ¥ ëł¥ìĿ´
â ĸ
ĠíĮĮ ìĿ´
ìĭľíĤ¤ ê³ł
ìĺ ·
2 9
ĠìŀĪ ì§Ģ
Ġìĭľë¦¬ì¦Ī ìĿĺ
íĮĲ ìĿĦ
ë »
ë¯¸ ìĿĺ
Ġì¤ĳ ë°ĺ
ĠìĽĮ ëĤĻ
ìķĺ ê³ł
I N
ëĮĢ íļĮ
Ġ7 0
ë¶Ģ ìĹĲìĦľ
Ġìļ° ìĦł
on e
ìĹŃ ìĤ¬
Ġë°Ľ ëĬĶëĭ¤
ĠìķĬ ì§Ģë§Į
Ġìŀĳ ìĹħ
Ġë§Ĳ íķĺëĬĶ
ĠìłĦ ìĤ¬
ĠëıĦ ìłĦ
Ġì¹´ ìĿ´
Ġê·¸ ë¦°
ë¦¬ ìĺ¨
ì¤ĳ íķĻêµĲ
ĠL G
Ġë¬´ ìŀ¥
Ġëħ Ģ
00 00
Ġë³´ ëĭ¤
ĠìłĲ ìĿ´
Ġëĭ¤ íģ¬
Ġ200 2
ĠìĥĿê°ģ íķĺë©´
Ġë²Ħ ê·¸
Ġìĥģ ì§ķ
an g
ĠíĿ¬ ìĥĿ
ĠëĮĢ ì¤ĳ
ë§Ī ë¥¼
ĠìľĦ ìĿĺ
ê» ´
Ġë¡ Ŀ
ëıĦ ìĭľ
Ġì£½ ìĿĮ
ìŀ ĸ
Ġìĭľ ë¯¼
ìĻķ ìĿĺ
ĠìĿ¼ ëŁ¬
ëª¨ ë¡ľ
Ġë¶ ķ
ĠìĹ° ìŀ¬
ĠêµŃê°Ģ ëĮĢíĳľ
ĠìĤ¬ëŀĮ ëĵ¤ìĿĢ
Ġìŀ¥ë©´ ìĿ´
êµ¬ ìĹĲ
Ġë© ĺ
ëª¨ ë¥¼
ĠìĦł ìĥĿ
ëĤĺ ë¬´
ì½Ķ ìĿĺ
Ġì¤ĳìĭ¬ ìľ¼ë¡ľ
Ġìĸ» ìĸ´
ĠíĨµ ê³¼
â Ĺ
0 3
Ġê°Ģ ê¹Ŀ
ĠíĥĢ ì¹´
c t
Ġëį° ëł¤
Ġ {{{#!
ĠíĮĮ ìĿ¼
Ġì¢ħ ì¡±
ĠíĬ¹ ìľłìĿĺ
ëł¤ ë©´
ĠìĥĿ ìĦ±
ĠìĤ¬ íĥľ
ĠìĹĲ ìĿ´
ĠëĤ´ ìĹĲìĦľ
ìŀĲ ìĹĲ
ìĿ´ìĹĪ ê³ł
ê²½ ìĿĦ
Ġìŀ¥ ìĨĮ
Ġê±° ì³Ĳ
ì¢ ĭ
Ġê°ľ ê·¸
m ath
Ġê·¸ ìķ¼ë§Ĳë¡ľ
Ġë¡ľ ë´ĩ
Ġëĭ¤ íĸī
ĠíĻķ ìŀ¥
ì§Ħ ìĿĺ
ê¹ Ĳ
ëĿ¼ìĿ´ ëįĶ
ë¶ģ ëıĦ
ë°Ķ ë¡ľ
Ġìļ´ ìļ©
æ Ń
íĺ¸ ëĬĶ
íİ ł
ĠëĮĢ ê²°
ìĤ¬ ëŀĳ
ëķĮ ë¬¸ìĹĲ
Ġê° Ķ
Ġë°ĺ ë³µ
ä ½
Ġìłķ ìĭĿ
Ġëĭ¤ë¥´ ëĭ¤
íĥĢ ìĿ´
íķ´ ì¡Įëĭ¤
ĠëĲĺ ë©´ìĦľ
i th
ãģ ł
n e
Ġìĺģ íĺ¼
Ġë¶Ī ê³¼
ìķ½ ìĿĦ
Ġëļ «
ê°Ģ ë¡ľ
ëĨ Ī
ĠëĤĺìĺ¤ ì§Ģ
ë¶Ħ ìĿĦ
Ġìŀħ ê³ł
ĠëķĮ ëıĦ
o g
Ġì¡° ìŀĳ
( ,
ĠíĦ ´
ĠìķĦë¬´ ë¦¬
ĠìĨĮ ë¹Ħ
Ġìµľ íĽĦ
ĠìĬ¤ íı¬ì¸ł
ìłķ ìľ¼ë¡ľ
ìĿ¸ ëĵ¤ìĿ´
êµ° ìĹĲ
Ġë º
Ġë© ľ
Ġìľ Ī
ìĹŃ ìľ¼ë¡ľ
Ġêµ³ ìĿ´
ĠìĿ¸ ìĭĿ
ĠêµŃ íļĮìĿĺ
ĠíĻĪ ëŁ°
íĬ¸ ìĹĲ
ìĮ į
ĠìĤ¬ ëĬĶ
ì¹ĺ ê²Į
ĠìłĢ íķŃ
ĠìĿ´ ê±´
íĻ Ī
ĠíĬ¸ ìľĦ
ìĹ¬ ëĭ´ìľ¼ë¡ľ
Ġìķŀ ìĹĲìĦľ
Ġì± Ļ
ĠëĨ Ī
gr ound
ê° ¤
Ġìłģ ê·¹
% ,
Ġë¹¼ ìķĹ
ë¥´ ê°Ģ
ëĭ¨ ê³Ħ
19 5
Ġê¸° ëıĻ
ë¡ľ ëıĦ
ãĢ ı
ĠìĦł ìĸ¸
ĠìĦ ŀ
Ġìĺģ ìŀħ
Ġë» Ķ
ĠëĮĢ ë¹Ħ
ĠìļĶ ë¦¬
Ġìµľì´Ī ìĿĺ
Ġë¬´ ë¦¬
Ġ ç
ãģ ĵ
íķĺ ëĭĪ
Ġë°Ķ ëĿ¼
ĠëĮĢ íĺķ
Ġì į¼
Ġìĸ¼ë§Ī ëĤĺ
ê³¼ íķĻ
íļĮ ê°Ģ
Ġë³¸ ê²©
Ġë© ĭ
ĠêµĲ ìĪĺ
P C
ëĭ¨ ìĹĲ
ìŀĲ ëĵ¤ìĿĺ
å Ī
Ġíŀĺ ëĵł
Ġíıī ìĨĮ
Ġë§Ĳ ìķĺëĭ¤
4 5
ĠìĬ¤ ìľĦ
Ġì¹ĺ ëªħ
ĠìłĲ ëł¹
Ġ200 3
s s
Ġë¦¬ ëįĶ
íĹ ¨
ë¤ Ħ
Ġì¹´ ë©Ķ
íĶĦ ëłĪ
íķ´ ë¥¼
ĠìĪ «
Ġë§Ī ë¬´ë¦¬
ĠíĻľëıĻ ìĿĦ
ë¹ ¨
ì²´ ë¡ľ
ĠëĮĢ íĻĶ
ìĹĪ ìľ¼ë©°
í ľ´
Ġíĺ ģ
0 7
ëłĢ ëĭ¤
Ġë¡¯ ëį°
ĠíĮ¨ ì¹ĺ
íĶ¼ ìķĦ
Ġë¶Ħ ë¦¬
ìĦł ê±°
Ġë¶Ļ ìĸ´
Ġë§ŀ ëĬĶ
Ġìĺ¤ ëŀľ
ëĭ¤ ìĭľ
ĠìĹŃ ëĮĢ
ëĭ¨ íķľ
200 9
ĠíŀĪ ìĸ´ë¡ľ
ëıĦ ìļ°
ĠìŀĪìĹĪ ìľ¼ëĤĺ
ìĹĪ ìľ¼ëĤĺ
ĠíĬ¸ ë¦¬
Ġëª¨ìĬµ ìľ¼ë¡ľ
ê·¸ ëŁ¬
Ġë°© ë¬¸
ì¹´ ëĵľ
Ġìĭľ ê¸°
Ġê±° ëĳĲ
Ġíĺ Ĳ
ë§Ī ìĿ´
ìŀ¥ ê³¼
ack ground
íĬ¸ ìĻĢ
ĠìĿĺ ìĻ¸ë¡ľ
íĥĢ ìŀĦ
Ġ =
Ġìĺ¤ ë²Ħ
a st
íĶĦ ë¦¬
Ġë°Ķ íĥķ
íķ´ ì§Ħëĭ¤
ìĨĮ ëħĢ
ë£¨ ìĬ¤
Ġëª¸ ìĿĦ
Ġì§Ħ ìŀħ
Ġìĺµ ìħĺ
ĠíıĲ ì§Ģ
ìĤ¬ ê±´
ì» ´
Ġìŀ ĩ
ìłĦ ìľ¼ë¡ľ
ãĢĭ (
ë¡ł ìĿĦ
ìĭľíĤ¨ ëĭ¤
ëĭ¤ ìĿ´
ĠìĿĢ íĩ´
íĬ¹ íŀĪ
Ġëĭ¹ ìĹ°
ĠìķĦëĭĪ ì§Ģë§Į
ëĵł ì§Ģ
ãĤ ¤
ì» ·
ĠìĤ¬ ê¸°
i ve
Ġë¬´ ëĦĪ
ìĭ¤ ìĿĦ
Ġëĵ ł
íĨł ë¦¬
Ġë§Ĳ íĸĪëĭ¤
ãĢ ģ
ĠìĥĿ ëªħ
Ġë¶Ī ìķĪ
Ġëª¨ ë¥´ëĬĶ
ìļ° ê³ł
Ġìŀ Ń
Ġë¬¸ìłľ ë¥¼
Ġì´Ī ëĮĢ
3 5
ê³¨ ìĿĦ
Ġìĺ¬ëĿ¼ ê°Ģ
Ġë¹ Ļ
ìĭľ ë¸Į
ë§Į ìľ¼ë¡ľ
ì°¸ ê³ł
Ġì» ¬
ì§Ģ ìŀĲ
ëĭ¹ ìĿĺ
ì ´ī
ĠíĥĢìĿ´ íĭĢ
Ġìħ Ģ
Ġê¾¸ ì¤Ģ
ì¹´ ê°Ģ
ìĩ ł
Ġíı¬íķ¨ íķľ
ì¥ Ĳ
Ġë¯¸ ëĵľ
ĠI n
ĠìĦł ë³´
Ġê¸°ë³¸ ìłģìľ¼ë¡ľ
é Ļ
Ġìĭ¤ ìĭľ
ĠĠ ĠĠ
Ġë° ¸
ìĭľ íĭ°
ìĬ¤ëŁ½ ê²Į
Ġê°ģ ìĦ±
ë²ķ ìĿĦ
Ġê³ł ëĵ±íķĻêµĲ
ĠìĤ ¶
Ġì¹´ ëĵľë¥¼
íħ Ģ
ĠìĥģíĻ© ìĿĦ
Ġê·¸ ë¦¬ìĬ¤
Ġìŀ Ĭ
Ġê¸°ì¡´ ìĿĺ
ì°¨ ë¡ľ
ĠìĤ´ìķĦ ëĤ¨
200 8
ë¥´ ê¸°
íĺķ ìĿ´
Ġê·¸ ëł¤
ëŀ Ĳëĭ¤
ĠìĤ´ ìĿ¸
ĠíĬ¹ìĦ± ìĥģ
Ġëª© ìĪ¨
/ /
ĠìłĦ íĻĺ
Ġëĭ ¥
íķĺëł¤ ëĬĶ
ĠìĿ´ ìĤ¬
ëŁ¬ ê°Ģ
ãĢ Į
æ Ĺ
Ġê±° ê¸°ìĹĲ
ĠìĿĺ íķľ
íķĺìŀĲ ë©´
ëħĦ ìĿĺ
Ġíİ ľ
ĠëĤ´ìļ© ìĿĢ
ĠíĪ¬ ìĪĺ
ĠìļĶ ìĨĮ
ĠìĦľ ë²Ħ
Ġë¨¹ ê³ł
íĺ¸ ìĿĺ
Ġë§ŀ ìķĦ
ë¯¸ êµŃ
Ġìĺ¤ íĶĦ
ĠìĿ¸ ê¸°
ê° Ĵ
Ġë¬´ íķľ
ĠëĤ «
Ġë°Ķ ëĭ¥
Ġìĭľ ëĤĺ
Ġë´ ¤
Ġëĭ ®
Ġë§ī ìķĦ
ìĽ ¨ìĸ´
P S
ë§Ī íĬ¸
íĮ¨ ë¥¼
ĠíĿ ī
Ġë§Ī ì¹ĺ
ĠìķĦ ëĤĺ
A T
Ġë¹Ħ ëĤľ
ĠëĮĢíķ´ìĦľ ëĬĶ
Ġìķŀ ìĦľ
ìļ© íķľ
ë°© ìĹĲ
ë³´ ìŀĲ
Ġê·¸ ìłĢ
ìĿ¼ ìĿĢ
ê³ł ìĨį
ĠëłĪ ëĵľ
ë³µ ìĿĦ
ìĿ´ìĹĪ ìľ¼ëĤĺ
ĠìĿ´ ëĵ¤ìĿĢ
ï ½
ĠìķĦ ìī¬
ëł Ĳ
Ġë°Ľ ì§Ģ
ëĵľ ëĿ¼ë§Ī
Ġë¶Ģë¶Ħ ìĿ´
Ġë§Ī ìĿĮìĿĦ
Ġëªħ ìĿĺ
Ġë³´ ì¡°
Ġë¶ īìĿĢ
ĠìĹ° ì£¼
ë¦¬ì§Ģ ëĦĲ
ìĹĲê²Į ëıĦ
ì¼ Ħ
ë¦ ī
Ġê¸Ī ì§Ģ
Ġë© Ī
0 9
ou r
Ġëħ¸ ëıĻ
ĠìĬ¹ ë¦¬ë¥¼
ĠìĨį ëıĦ
ĠìĦľ ìĪł
Ġíģ´ ëŁ½
Ġíģ Ĳ
ĠëıĦ ìĽĢìĿĦ
ìĭľì¼° ëĭ¤
ĠìĤ¬ ê³¼
3 3
o ve
Ġ Q
ìĿ¼ë³¸ ìĿĺ
Ġê² ¹
ĠíļĮ íĶ¼
íķĺ ìĿ´
ìľ µ
ëĬ¥ ëł¥
Ġì§Ģ ìłģ
Ġê¸°ë¡Ŀ íĸĪëĭ¤
0 5
ĠìļĶ ìĭľ
ê³ł ê°Ģ
Ġìĸ´ ëĳł
ĠìłĦ ê°ľ
ĠìĿ¼ëŁ¬ ìĬ¤íĬ¸
it y
ë²Ħ ë¦¬ëĬĶ
ìĤ° ìĿĦ
Ġê°ľ ë´ī
ìłĦ ìĿĢ
ĠíĻķ ë³´
ĠëıĮ ëł¤
Ġëĵ± ê¸ī
ëĦĪ ìĬ¤
ãģ į
ëĶĶ ìķĦ
ë¹ µ
Ġê°Ĳ ìķĪ
Ġíĺķ ìĦ±
ĠíĮĢ ìĿ´
ĠëĤ¨ íİ¸
ĠìĹĶ ì§Ħ
ĠìĬ¤ ì½Ķ
ĠíĽĦ ìĨį
ì²ł ëıĦ
Ġf or
Ġê½¤ ëĤĺ
Ġëħ¸ ëł¥
Ġë¯¸ ë¦¬
ĠìłĲ ìĹĲìĦľ
ĠëĿ¼ ëĶĶìĺ¤
ìĸ Ģ
ĠëĮĢ ëĭµ
ĠìķĦ ëĬĶ
ëĭµ ê²Į
Ġíķĺ ëĵľ
u b
Ġì²´ ëł¥ìĿ´
ìĺĢ ëĬĶëį°
Ġê·¸ ëķĮ
ìĥĿ íĻľ
ì¿ł ëĿ¼
Ġìħ ĭ
Ġê²½ ê¸°ëıĦ
ìłĦ íĪ¬
ĠìĤ¬ëŀĮ ìĿĺ
Ġv s
ĠìĿ´ ê¸°
Ġì°¨ ìĿ´
ì¶ľ ìĹ°
ìłľ ìĹĲ
Ġê±° ì§ĵ
ìķħ ìĿĺ
ìĦ± ëıĦ
íķĺ ë¯Ģë¡ľ
ĠìłĲ ìĿĢ
íŀĮ ëĭ¤
Ġìłģ ìĿĺ
ĠìĿ´ ìĻĢ
Ġëħ Ħ
íĺ Ķ
íĪ °
ìĿ¼ ê¹Įì§Ģ
ìĦ¸ ìĿ´
Ġë§Ī ìĤ¬
ĠìĿ´íĽĦ ìĹĲ
ìĽł ëĭ¤
íĥĢ ëĬĶ
Ġìŀ¥ ê°ĳ
ì£¼ ìĭľ
ì¦Ī ê°Ģ
Ġë¶Ģ ë¥¸ëĭ¤
ĠíķĺëĤĺ ìĿĺ
ë ī
ê²° êµŃ
ĠìŀĦ ëªħ
ĠíĮ¨ ëŁ¬
êµ¬ ëĬĶ
ëĴ ¤
ëĲ ¨
Ġí ĥĿ
Ġìłģ ìłĪ
ìĿ´ëĿ¼ ìĦľ
ìĽĮ ìĦľ
Ġë¬´ ìĤ¬
Ġê°ľ ì¡°
ë¥ ľ
Ġê²½ ìĥģ
íĥ Ĳ
ê³Ħ ìĹĲ
ĠìĤ¬ ê²©
íĻĶ ìĹĲ
Ġê³µ ëŀµ
ãĤ ¹
Ġìŀ¥ ëĤľ
Ġ20 21
ĠíĶĦë¡ľ ëĵĢ
Ġê±´ ì¶ķ
ìĹĪëĭ¤ ëĬĶ
íĶĦ ìĿĺ
t p
Ġìĭľìŀĳ íķľëĭ¤
Ġìłķë³´ ë¥¼
Ġëħ¼ëŀĢ ìĿ´
e st
pl ay
ìĿ¼ ë°ĺ
êµĲ íĨµ
ĠëĶĶ ì§Ģ
íĬ¸ ë¡¤
ë¡ľ ìĬ¤
ĠìĪ ²
Ġíķľëĭ¤ ê³ł
K BS
ĠëĤĺìģ ĺ
e x
Ġë¶Ģ ë¥´ëĬĶ
r y
Ġê¼ ½
ë¡ľ ëĤĺ
Ġëĭ¤ ìļ´
Ġíĥĳ ìŀ¬
ìŀ ł
ëģ Ħ
Ġë¶Ħ ìķ¼
ìĸ´ ìļĶ
ĠìĪĺ ë°ĸìĹĲ
ëĭ¹ ìĭľ
ìłķ ë³´
ìĹĲìĦľ ë§Į
ĠìĻķ êµŃ
Ġë§Ī ë¦¬
Ġëį ľ
Ġìķ¼ ë§Ī
Ġëĭ¨ìĪľ íŀĪ
ĠìĹ° ìŀ¥
ĠëĲ Ĳ
ìļ© ìĿ´
Ġíħ Ĳ
ë¥ł ìĿ´
ë¯¸ ëĬĶ
ê·¸ëŁ° ëį°
ĠìŀĲìĭł ìĿĢ
Ġë¬ ¶
Ġì£½ ìĿĦ
ĠëĤł ëł¤
ì¹ľ ëĭ¤
ë¶ ķ
ĠìĿ¼ ìĸ´ëĤľ
Ġ5 00
Ġê±± ìłķ
Ġìłľ ìķķ
ĠëĤĺ ëĪĦ
ë¯¸ ìķ¼
ìĭł ìĿĢ
Ġê°Ģ ê²Į
ë°© ìĿĺ
ë£¨ ê°Ģ
Ġëį°ë¯¸ ì§Ģë¥¼
ìĺĢ ìľ¼ë©°
ê·ľ ëª¨
è ¡
Ġëľ ¬
ĠëĤĺìĺ¤ ê³ł
ĠìĿ¼ ìĿĢ
Ġë¹ĦêµĲ ìłģ
ëĨĵ ìĿĢ
Ġê°¤ ëŁ¬
Ġì ´ī
Ġê±° ëĮĢíķľ
ìĦł ìĹĲ
Ġìĺ¤ íĽĦ
ìŀĲ ë¦¬
ë°Ľ ê³ł
ĠìĦľ ë¹ĦìĬ¤
0 6
ëª¨ ë¦¬
Ł ìķĦ
Ġë§Į ëĭ¤
ad i
ë¦¬ ë©´ìĦľ
ëª© ìĿĦ
ht tp
Ġë°ľ ìĸ¸
íļĮ ìĹĲ
ĠëĪĪ ìĹĲ
Ġì° Į
ĠìĿ´ìľł ê°Ģ
ĠíĪ¬ íĳľ
ĠìĨĲ ìĹĲ
ìĭĿ ìĿĺ
íĬ¸ ìĹĲìĦľ
Ġìľł ëŀĺ
Ġê³ł ìĨį
ĠìķĦ íĶĦë¦¬ì¹´
Ġë¶Ģ ëĮĢ
Ġìķ Ļ
or t
ĠëĤĺ ìĿ´íĬ¸
Ġ ...
Ġë§Ī ë¥´
ìĦ± ìľ¼ë¡ľ
: //
ë¬¼ ìĿĺ
ĠíĽ Į
ĠìłĢ ê²©
i p
ì½Ķ ê°Ģ
Ġê°Ģ ë¦¬
0 2
ĠS BS
Ġìķŀ ìľ¼ë¡ľ
ì ¨
Ġì¢ ģ
Ġ3 5
ëł ´
ĠëĪĦ êµ°
ìŀĲ ëĵ¤
ãĥ «
Ġê¸°ìĪł ìĿĦ
ĠíĶĮ ëŀĺ
íģ¬ ëĬĶ
ĠëĮĢíĳľ ìłģìĿ¸
Ã Ĺ
ĠíĹĪ ìļ©
a in
íķľ ëį°
ëł¸ ê³ł
Ġì§Ģê¸Ī ìĿĢ
Ġëĸ¨ìĸ´ ì§Ħ
Ġëª° ìķĦ
ĠíĻķìĭ¤ íŀĪ
Ġìŀ¬ ë£Į
Ġë§Ī ì¹¨
ê³µ íķŃ
ê¹Įì§Ģ ëıĦ
Ġìķ ī
Ġì»¨ ìħī
ìĹŃ ìĿ´
ĠìŀĪ ìĬµëĭĪëĭ¤
Ġëĵ± ë¡Ŀ
å ¹
ìĺ¤ íĶĦ
ëıĻ ìĿ´
Ġê³ł íĨµ
. '
Ġ200 1
ëĮĢíķľë¯¼ êµŃ
Ġëį° ìĿ´
200 0
å ¯
Ġë§ŀ ê³ł
Ġê³³ ìĹĲ
ìĬ¤ íĥĦ
in d
Ġìĥģ ì²ĺ
Ġì¡° ê°ģ
Ġì»¤ ë®¤
Ġêµ¬ ë¶Ħ
Ġì»´íĵ¨ íĦ°
Ġ \
ĠíķĦìļĶ ê°Ģ
ĠìŀĪ ëıĦë¡Ŀ
Ġëĳ Ķ
ìķ Ĭ
Ġëª» íķľëĭ¤
ìķ ŀ
Ġê·¸ ë§Į
Ġ199 0
Ġë§Įëĵ¤ìĸ´ ì§Ħ
é ĥ
Ġë° ¥
ìĿ´ ëįĺ
ì¤ĳ êµŃ
ëł ĺ
ìĤ¬ ìĹĲìĦľ
Ġìŀ¡ ê³ł
íļĮ ìĹĲìĦľ
ĠìĹ¬ ë¦Ħ
Ġm e
ĠëĤĺ ëī
ìŀĸ ìķĦ
200 7
Ġë§Į íķľ
íĻĶ ìĹĲìĦľëĬĶ
Ġìľ¡ êµ°
ĠìľĦ ìĽĲ
ĠìĬ¤ íģ¬
Ġê·¸ ìĹĲ
ìĥģ ìĹĲìĦľ
ĠëķĮ ìĿĺ
is play
ìłķ ë¶Ģ
Ġê±° ë¦¬
Ġì¸¡ ë©´
ĠëģĿ ëĤľ
ì¡° ìĦł
íĨł ê°Ģ
ĠìķĦ ë¦Ħ
ë¬¼ ë¡ľ
Ġíĺķíĥľ ë¡ľ
íĤ¤ ë¥¼
Ġë¬¼ ìĸ´
íķĺê¸° ë¡ľ
ê³µ ìĿĦ
ë¡ ¬
Ġì¤ĳ ëĭ¨
ĠìłĲ íĶĦ
s e
Ġíıīê°Ģ ë¥¼
c om
Ġìĸ´ëłµ ëĭ¤
ìĭľ ìķĪ
ê¶Į ìĿ´
ĠìĦ¤ ê³Ħ
Ġìŀ¥ ê¸°
ì¹´ ìĿĺ
Ġìłľ ìĭľ
Ġ on
ìļ° ìĿĺ
ìķł ëĭĪ
ëĿ¼ ìĻĢ
ĠìĻĦ ë£Į
íģ¬ëŀĺ íĶĦíĬ¸
Ġíķ´ ìĦĿ
ĠìĨĮ ëħĦ
A M
Ġëª¨ íĹĺ
0 8
íĭ° ìĸ´
ìŀĦ ìĹĲëıĦ
ĠìĤ¬ìĿ´ ìĹĲìĦľ
ë´ ¤
Ġì¤ĳ ìĿ´ëĭ¤
ĠëĶ± íŀĪ
ë°ľ ìĿĦ
Ġíİ¸ ì§ĳ
1 00
Ġë³¸ ìĿ¸ìĿĢ
Ġì¢Ģ ë¹Ħ
Ġìľł ëıĦ
ìĭľ ë¦¬ì¦Ī
ëł¥ ìĹĲ
Ġíģ¬ ëĭ¤
I C
ìĺ ¹
Ġì£¼ ë¬¸
ĠìĿ¸ ê¸°ê°Ģ
Ġì§Ģ ëĭĮ
Ġë©¸ ë§Ŀ
íĴĪ ìĿĦ
Ġì½Ķ ìĬ¤
ìĽĲ ëŀĺ
ë© ľ
ĠëĬĲ ê»´
Ġìµľ ëĮĢíķľ
Ġë§Ĳ ê³ł
ìĤ¬ ëŀĮ
ĠìĿ´ìļ© íķľ
Ġë³´ ë³ĳ
ĠëĮ Ħ
ëĭ¹ ìĿ´
ĠìºĲë¦ŃíĦ° ê°Ģ
Ġì§ģ ìłĦ
ìĦľ ê°Ģ
Ġìķ½ ìĨį
ĠëģĿ ëĤ´
ìĬ¤ íĦ´
Ġíĥľ ìĸĳ
ìĿ´ëĿ¼ ë©°
ìłģ ìĿ´ê³ł
Ġìĺ¤ ë¥´
l ine
Ġì§§ ìĿĢ
íı¬ ë¥¼
ëŀĺ ëıĦ
ĠëĲĺ ë©°
Ġì§Ģ ëĭĪ
ĠìĨĶ ë¡ľ
ar g
ĠíĿ¬ ë§Ŀ
ì§Ī ìĿ´
ĠìĤ¬ìļ© íķľ
ĠìĹĨ ê¸°
ìĤ¬ ê´Ģ
ĠëĶ° ë¥¸
ëĮĢ ìĹĲìĦľ
u st
ë¥ Ń
en d
íķĺìĺĢ ìľ¼ëĤĺ
Ġë°© íķ´
Ġë³ĳ ìĤ¬
ĠìĿ¼ë°ĺ ìłģìĿ¸
Ġ re
ĠìĥģëĮĢ ê°Ģ
ãĤ Ī
l d
Ġì¶Ķê°Ģ ë¡ľ
ĠíĮĢ ìĿĦ
ëĿ½ ìĿĦ
Ġê±° ìłĪ
íļ¨ ê³¼
ìŀĲ ìĹĲê²Į
Ġê±¸ ìĸ´
Ġë¨¹ ëĬĶ
Ġë¶Ī ë¦¬ëĬĶ
Ġëĭ Į
íıī ê°Ģ
ĠìķĦ ìĭľìķĦ
ëį° ë¯¸
ìĸ´ ëĤ¬
200 6
æ Ī
Ġê²¨ ìļ°
Ġê±° ìķ¼
A C
ìĿ¼ ë¡ľ
Ġìĭľìŀĳ íķľ
Ġë¿Ĳ ë§Į
Ġìĥ Į
Ġìķħ ë§Ī
Ġê³ł ëĮĢ
ì§Ģ ë°©
Ġë°ĶëĢĮ ìĹĪëĭ¤
ë§Ī ìĬ¤
ì¡° ê°Ģ
ìĥģ íĥľ
ìķĦ ìĽĥ
êµ¬ ë¡ľ
ë¦¬ ìķĪ
on g
êµ¬ ëĤĺ
ëŁī ìĿĺ
ë¬´ ê¸°
Ġìĸĺ ê¸°
ĠëĮ ĵ
ĠìĹ¬ íĸī
ĠëĮĢ ëĨĵê³ł
o b
ĠìĹ ł
Ġëĸ¨ìĸ´ ìł¸
ĠìĿ¸ ë¥ĺ
Ġê°ľ ìĿĺ
ê² ģ
ëĵ± ìŀ¥
ĠëĲĺ ê¸°
ì¦Ī ë¥¼
ì§Ģ ì»¬
Ġìĺ¤ ë¦¬ì§ĢëĦĲ
ìŀ ĺ
Ġëĭ¤ ë¦Ħ
ĠëĤ ¸
ëıħ êµĲ
Ġê·¸ ëŁ¼
ĠìĽ ¬
ĠìĿ´ìłĦ ìĹĲ
íķľ íİ¸
ìĺ¤ ì¹´
Ġêµ¬ ì¶ķ
ì°¨ ìłĦ
ĠëıĻ ë§¹
ë§Ī ìĿĦ
ï¼ ģ
Ġë³´ ìĿ´ì§Ģ
íħ į
Ġì¥ Ĳ
Ġê¹ Ĭ
ëĭ¨ ìĿĢ
ë¦¬ìķĦ ìĿĺ
ìķ ¤
Ġê°ľ ìĦł
Ġë°Ķê¿ Ķ
ĠìĥĿ ê²¨
ë© į
Ġë°ĽìķĦ ëĵ¤
íŀĪ ê³ł
0 4
ĠìłľìĻ¸ íķĺê³ł
l y
Ġìł ĬìĿĢ
ëĭ¬ ëĿ¼ê³ł
Ġìłľ ìķĪ
Ġìº ¡
Ġëį°ë¯¸ ì§Ģ
ì¹ĺ ê¸°
ëĭĪ ê°Ģ
Ġë¯¼ ì¡±
Ġìĸ´ëĬĲ ìłķëıĦ
Ġ it
Ġëł Į
Ġê°ľ íİ¸
Ġë°Ģ ìĸ´
ĠíĿ¡ ìĪĺ
ĠìĥĿ ê¸°
ìĦľ ê´Ģ
Ġê·¸ ëłĪìĿ´
Ġëª¨ ìķĦ
ëĲĺìĹĪ ëįĺ
ëĳ ĳ
íĶĦ ëŀĳ
S S
íĨ ±
ëħĦ ê°Ħ
ãģ Ĥ
ĠìĪĺì¤Ģ ìĿĺ
ìłĦ ìĤ¬
ĠìĹĦì²Ń ëĤĺê²Į
ĠìĤ° ìĹħ
ĠíķĦ ìĪĺ
ë©Ķ ëĭ¬
Ġë©Ģ ë¦¬
ìĿĦ ëķĮ
Ġì§ĳ ìĹĲ
ëĲĺ ê¸°ëıĦ
ĠìĬ¤íĤ¬ ìĿĦ
ìĬ¤ íİĺ
. (...)
ãĥ ©
Ġëª¨ íĭ°ë¸Į
3 7
F C
Ġìŀĳ ìĦ±
Ġë§Įëĵ¤ ìĹĪëĭ¤
Ġë¬¸ìłľ ë¡ľ
ĠëģĿ ê¹Įì§Ģ
ĠìķĮëł¤ ì§Ħ
ĠëłĪ ìłĦ
ì§Ģ ìĽĲ
ĠëĤ´ ë¶Ģ
ĠìĭľëĤĺ ë¦¬ìĺ¤
ĠëķĮ ë¶ĢíĦ°
ëĤ ©
Ġê¸° íļį
ĠìĨį ìĦ±
ĠíĮĮ íĬ¸
íĮĲ ìĿ´
Ġíķ´ êµ°
Ġìŀħ íķĻ
ĠìĤ¬ ëł¹
Ġìĺ¤ íĨł
ì° ¾
Ġê·Ģ ì¡±
Ġìŀł ê¹Ĳ
ĠìĦľ ë¸Į
ë¹Ħ ìĿĺ
ĠëĪĪ ìĿĦ
ë²ł ë¥´
ĠëĶĶ ìŀĲ
Ġê°Ģ ìĬ´
íĥĢ ìĿĺ
ĠìĿ´ íķĺ
ĠìĨĮ ë¦¬ë¥¼
ĠíĻĶ ìĹ¼
Ġì¦Ŀ ê±°
ë ¿
Ġíķľ êµŃìĿĺ
Ġê¼ ´
ĠìĨį ìĹĲìĦľ
Ġë³´ ì»¬
ë¯¸ ëĦĲ
ê¶Į ìĿĺ
Ġìĸ´ ìļ¸
ëŁī ìĿĢ
ìĿ´ìĹĪ ì§Ģë§Į
Ġë°Ķíĥķ ìľ¼ë¡ľ
Ġë¶Ģ ëĭ´
Ġê¸¸ ìĿĦ
ëĵľ ëĿ¼
Ġìĭ¶ ìĸ´
ĠìĿ´íĽĦ ìĹĲëĬĶ
Ġíĺ ľ
Ġíıīë²Ķ íķľ
ë§Ī ë¦¬
ìĿ¸ ë¯¼
ìħ ĭ
ĠìķĮ ëłī
ĠëĤ ³
ĠëĤ´ìļ© ìĿĦ
Ġê±¸ ë¡ľ
Ġê°Ģ ìłķ
I A
ëĭ¨ íŀĪ
Ġëį ´
ì¥ ¬
ë¡ł ìĿ´
Ġíŀĺ ìĿ´
ëĶĶ ìħĺ
ìĥ ·
ê¸° ë³¸
ĠëĴ¤ ë¡ľ
Ġíı¬ ë¥´
ĠìĿ¸ ê¸°ë¥¼
ê²© ìĿ´
Ġë³´ìĹ¬ ì£¼ëĬĶ
ê²ĥ ìĿ´
ĠìĬ¤ ì¹´
ìĺ¤ ê°Ģ
Ġì½Ķ ëĦĪ
íĦ° ìĿĺ
ë¨¼ íĬ¸
íĮ ¡
ĠP C
Ġê·¼ ê±°
ĠìĹĨ ìľ¼ë©°
Ġê° ±
ìĤ¬ íĤ¤
Ġì´Īë°ĺ ìĹĲ
Ġíļ¨ ìľ¨
Ġì£¼ ëıĦ
ä¸ Ń
íķ¨ ìĿ´
ĠëħĢ ìĦĿ
ìĹ° íķ©
ç İ
ĠìĹ ī
Ġë¹Ħ ëĶĶìĺ¤
ìĹ¬ ìŀĲ
Ġëª» íķ´
ĠíĮ ©
ê ´
ĠìĽĲ ìłķ
ĠìĥģíĻ© ìĹĲ
Ġ3 00
ĠìĤ¬ëŀĮ ëĵ¤
ĠìĿ´ìķ¼ ê¸°ê°Ģ
ĠíĥĢìĿ´ ë°į
ëĲĺìĹĪ ëĬĶëį°
ĠëıĦ ìĽĢìĿ´
Ġì£¼ ìĹ°
ê° ĸ
ĠìĻ¸êµŃ ìĿ¸
Ġê´ĳ ì£¼
ëĵ± ìĿĦ
ìĺ¤ ìĿĺ
ĠíĻ© ìłľ
ĠìĤ¬ ìĥģ
Ġíķµ ìĭ¬
Ġìłľ ì¡°
Ġíĭ Ī
Ġë®¤ ì§ģ
Ġì§Ħ íĻĶ
ĠìŀĲ ìĤ´
ĠìĨį ëıĦê°Ģ
Ġë§Į ìĹĲ
íķĺê²Į ëıĦ
ìĤ Ń
O R
Ġë²Ķ ìľĦ
Ġë°©ìĭĿ ìľ¼ë¡ľ
ĠìĹĨ ê²Į
íĬ¸ ëĤ¨
ĠìķĬ ìľ¼ë©°
Ġì±ħ ìŀĦ
é Ľ
Ġê¾¸ì¤Ģ íŀĪ
ê¸° ìĹĲëĬĶ
ê¼ ¬
ëĲĺ ìŀĲ
íĨł ìĿĺ
ë¬ µ
íĺĦ ìĿĺ
ĠëĤĺ ëĪ
Ġëĵľ ëĿ¼ìĿ´
Ġìłķ ëĭ¹
ìĭĿ ìĿĢ
Ġìķł ë§¤
Ġê²Į ìĭľ
ĠìĪĺ íĺ¸
ĠíĮĮ ìķħ
ìĤ¬ ìļ©
Ġê ±
Ġê°ķ ìłľ
Ġê°ľ íĨµ
ìĻĢ ìĦľ
Ġíĸ¥ íķ´
ĠâĢ ĵ
ì¹ĺ ì§Ģ
Ġë¸Į ëłĪìĿ´
ì¹ĺ ìĹĲ
ëħĦ ìĿ´
Ġì¤ĳ ìĹĲìĦľëıĦ
íĹ ¬
ì į
íĮĮ ìĿ´ìĸ´
ëį ©
9 0
ìĪĺ ìĻĢ
ĠìŀĲìĭł ìĹĲê²Į
Ġë¿Ĳ ìĿ´ëĭ¤
Ġê°Ĳ ìĹ¼
ìĿĢ íĸī
å ¾
ë°Ľ ìķĦ
Ġìļ° ëł¤
Ġë´ī ìĿ¸
ĠìĥģëĮĢ ìłģìľ¼ë¡ľ
íĸ¥ ìĿ´
ìĤ¬ ìĿ¸
Ġìĭľ íĸī
4 7
ìŀĲ ëĵ¤ìĿĦ
Ġë³´ ê¸ī
Ġì°¨ ë¡Ģ
ìĿ¸ ê°Ħ
ĠìĿ´ê²ĥ ìĿĢ
Ġê·¸ ëĵ¤ìĿĺ
ì³Ĳ ìĦľ
Ġëŀ Ģ
ĠìĬ¹ ê°ķ
e w
Ġìĸ¸ ìĸ´
ĠëĦĺ ìĸ´ê°Ģ
ìĬ¤ íĤ¤
ê²½ ì°°
Ġì£½ ìĿ´
Ġê´Ģ íĨµ
ĠìĽĲ íķĺëĬĶ
Ġëŀ ĺ
Ġìĭ¶ ìĿĢ
Ġë°ľ íľĺ
ĠìĿĺ ìĭ¬
ĠìĬµ ê²©
Ġíİĺ ë¥´
Ġìĸ´ ì°Į
ë²ł ìĿ´
Ġíŀĺëĵ¤ ëĭ¤
ëĿ¼ ë¦¬
ëŀľ ëĵľìĿĺ
3 6
ĠìĹ¬ ê²¨
ëĮĢ ìĻĢ
ëģ¼ ë¦¬
Ġëį ©
ĠíķĦ ìĤ´
Ġ è
ìłĲ ìĹĲ
Ġê°ķ ì¡°
u d
Ġíķ´ ì£¼
Ġë°ĺ ìĺģ
Ġë§Ĳ íķ´
Ġê²ĮìŀĦ ìĿĺ
Ġê²Į ìĿ´
Ġëĭ¨ ì²´
ìŀĪ ëįĺ
ĠìĽĲ ê±°ë¦¬
Ġë§¡ ìķĺëĭ¤
Ġ199 9
Ġ1 000
ëħĦ ìĿĦ
Ġê°Ħ ëĭ¤
Ġëĭ¨ ëıħ
ĠìŀĦ ë¬´
Ġê·¸ëħĢ ëĬĶ
Ġì¶Ķê°Ģ ëĲľ
Ġìĺ¤ ìĬ¤íĬ¸
íĨł ë¥¼
ëķ ħ
ìķĦ ìĭľìķĦ
íĺķ ìĿĺ
ĠìĥģëĮĢ ë¥¼
ãģ Ļ
ìĤ¬ íļĮ
ĠìĤ¬ê±´ ìĿ´
ìĺ¤ ìĬ¤
ê´Ģ ë¦¬
ĠìľĦ ë¡ľ
Ġê·¸ëħĢ ë¥¼
Ġê³Ħ ìĤ°
ĠëĬĺ ìĸ´ëĤĺ
ê²Į ëıĦ
Ġb e
ĠëįĶ ë¸Ķ
Ġê ¶¤
íķ µ
Ġë¬´ ê¸°ë¥¼
ë³´ ìĬ¤
ëĤĺ ë¯¸
Ġê´ĳ ê³ł
Ġë°ĺ ëŀĢ
Ġì¢ħ íķ©
Ġ4 5
ëĬĲ ëĥĲ
Ġí ľ
íķĺ ëŁ¬
äº º
Ġíı °
Ġ199 8
ĠìĬ¤íİĺ ìĿ¸
ì¡° ë¥¼
ëŁ¬ ë¥¼
¼ Ī
ĠìķĬìķĺ ê³ł
Ġì§ĢìĹŃ ìĿĺ
ĠëĲ Ĳëĭ¤
ìĪĺ ìĹĲ
Ġëĸ¨ìĸ´ ì§ĢëĬĶ
Ġë§Į ì¡±
i v
Ġë¶Ģ ìĥģ
ìĤ¬ ìĹħ
Ġë¨¸ ë¦¬ë¥¼
Ġì£¼ ìĸ´
ĠìłĦ ìŀĲ
Ġì»¨ íĬ¸ë¡¤
íĻĶ ë¡ľ
ĠíķĺëĤĺ ê°Ģ
Ġëª¨ ìŀĲ
ìłĦ ìŀĲ
Ġë©Ģ íĭ°
íĨ °
Ġê¶ģ ê·¹
Ġê´Ģ ê´ĳ
ê¸´ ëĭ¤
ìĦ¸ íĬ¸
ĠìĹĺ ë¦¬
ë¦ ĩ
ê¹Įì§Ģ ìĿĺ
ë¹Ħ ëĬĶ
Ġì¶© ëıĮ
ĠëĤľìĿ´ ëıĦ
ĠìķĦ ì¹¨
Ġíķ Ģ
Ġìļ© ë³ĳ
Ġê´ĳ ìĹŃ
ìĭ¬ íŀĪ
ëĲĺ ëĬĶëį°
ĠíĥĢ ìŀĦ
ĠíĻľìķ½ ìĿĦ
ìĥĿ ìĿĦ
å ¥
Ġëĸ ¨
Ġê¹ İ
Ġë¶ķ ê´´
ìłĲ ìĹĲìĦľ
Ġëĭ¹ íĻ©
ì¤¬ ëĭ¤
Ġëī´ ìļķ
Ġì§Ģ ê¸ī
ĠíĬ¸ ëłĪìĿ´
Ġìľł ìļ°
ãģ ĳ
ë¸Į ëĿ¼
Ġì° °
Ġì¶ľ ë°ľ
ig n
200 5
Ġì¤ĳ íĻĶ
Ġì¶Ķìłķ ëĲľëĭ¤
ê´Ģ ìĿĢ
ĠìĿĺ ìĽĲ
Ġìķ¡ ìħĺ
Ġë°°ê²½ ìľ¼ë¡ľ
Ġíı¬ ìĿ¸íĬ¸
ĠìĨį ìĹĲ
Ġê¸° ì²´
ĠìķĦ ìĽĥ
Ġê³µ íĨµ
ìĭľ ìĻĢ
oc k
ë©Ķ ë¦¬ì¹´
ì¡ ¸
ìķĺ ì§Ģë§Į
ĠíŀĪ íĬ¸
A L
Ġìĺ¤ ëĬĶ
ĠêµŃíļĮìĿĺ ìĽĲ
a v
ĠìĬ¤ íİĻ
Ġê±´ ëĦĪ
Ġìĥģíĥľ ê°Ģ
ĠëıĻìĿ¼ íķľ
ĠìŀĲ ê¸°ê°Ģ
ì¹ĺ ìĻĢ
Ġìī¬ ìļ´
ou t
Ġ3 2
ãģ ķ
id th
Ġìĺ¨ ëĿ¼ìĿ¸
Ġê³ł ë¯¼
Ġë°Ģ ëł¤
Ġê²ĮìŀĦ ìĿ´
ê°Ĳ ëıħ
ë¬´ ìĽĲ
B O
Ġíİĺ ìĿ´
íķĺê¸° ìĹĲ
ê¸° ë§Į
ĠíĸĪëĭ¤ ê³ł
Ġë°° ìĭł
Ġê³µ ìĤ°
ĠìĦ¤ ëĵĿ
ĠíķĺëĤĺ ë¥¼
Ġì§Ģ ëªħ
ë£¨ ìĿĺ
ĠìłĦ ìĪł
Ġì°© ìļ©
Ġê³µ íķŃ
Ġë¶Ħ ìĦĿ
å ¸
or e
Ġë°¸ ëŁ°
éĩ ĳ
ç ¥
ìĿ¸ì§Ģ ëĿ¼
ë¡ľìĦľ ìĿĺ
ëŀ ¬
Ġìŀ¬ ë¯¸
ĠìĿ¸ ìĤ¬
ĠìķĪ íĥĢ
| -
ìŀĲ ëıĻ
íŀ ĺ
íĥ ±
ĠìĿ´ê²ĥ ìĿ´
ì² «
Ġì¶ ¤
ëª ¸
w w
ìķĪ íĥĢ
ë£ ©
íķĺ ê¸´
7 0
( âĢ¦
Ġì»¤ ë²Ħ
l l
ç ¾
ìŀĳ ìĿĺ
ĠI I
ĠêµŃê°ĢëĮĢíĳľ íĮĢ
ë£¨ ë¥¼
ë© Ģ
Ġ âĨ
ãģª ãģĦ
Ġë²Ħ íĶĦ
Ġëªħ ì¤ĳ
Ġ r
ê¶Į ìĹĲìĦľ
ì§Ħ ìĿĢ
O S
Ġë³´ ìĪĺ
Ġìĺ¨ ê°ĸ
ëĭĪ ìĸ´
ë§Ĳ ìĿĦ
ë° ´
ĠìĿ´ ë¡ł
ê³µ ìĿĺ
ë°° ìļ°
Ġíĸī ë³µ
ìĬ¤íĬ¸ ë¡ľ
Ġì²´ íı¬
ë¦¬ ëĤĺ
ĠF I
ìĸ´ ìł¸
ĠìĿ Ħ
ìĦł ìĹĲìĦľ
Ġ Â·
ëł Ļ
7 5
ord er
Ġë¯¸ ì¹ľ
ĠëĿ¼ ìĿ´íĬ¸
ĠëĮĢ ëĭ¤
ëŀ ©
Ġìĭ¤ ì§Ī
ĠìŀĪ ìľ¼ë¯Ģë¡ľ
Ġìļ°ìĬ¹ ìĿĦ
Ġì¥ ¬
ê³Ħ ë¡ľ
ĠìķĬ ê¸°
êµŃ ìĿ´
Ġì»¤ë®¤ ëĭĪíĭ°
Ġê°Ģ ìŀħ
Ġ is
íĿ ¡
ìº ł
Ġë¥ ´
ëį° ìĬ¤
ĠíķĦìļĶ íķĺëĭ¤
ëĭ¨ ìľ¼ë¡ľ
Ġì±Ħ ìļ©
Ġëªħ ìĺĪ
ëł¥ ëıĦ
Ġêµ¬ ìŀħ
Ġì§Ħ ìĺģ
Ġíĳľ ì¤Ģ
ĠíĺĦìŀ¬ ìĿĺ
Ġëĵ¤ìĸ´ ìĺ¤
Ġê²ĥìĿ´ ìĹĪëĭ¤
ĠìĭľìłĲ ìĹĲìĦľ
ī į
ìĹĪ ê¸°
u re
ëĤ´ ê°Ģ
ĠìĤ¬ëŀĮ ëĵ¤ìĿĦ
ì°¨ íĶ¼
Ġëª¨ ë¥¸ëĭ¤
Ġì¹´ íİĺ
Ń ī
Ġë²ł ìĿ´ìĬ¤
Ġë§Ī ëł¨
ĠìĹŃ ìľ¼ë¡ľ
ad d
, #
ĠìĻ¸ ìĹĲ
ìĨį ëıĦ
ĠìĺĪ ìłĦ
ĠìĹĲëĦĪ ì§Ģ
å º
ĠìĻĢ ì¤ĳìĹĲ
Ġë²Ħ íĬ¼
Ġêµ¬ ìĹŃ
ĠëĴ¤ ì§ĳ
ĠìĤ´ ì§Ŀ
ĠìĤ¬ íķŃ
ë§Į ìĽĲ
ec t
ĠíĻį ì½©
ĠëĤ´ ëĤ´
ĠëĤ´ìļ© ìĿ´
ag e
ìĬ¤ íĮħ
ë¨¹ ëĬĶ
er e
ìĽĮ ëĵľ
ê º¼
ì§Ģ ê¸Ī
ĠíĻ© ê¸Ī
ê°ľ ë°ľ
ĠìłĦ ëĭ¬
ĠëŃĶ ê°Ģ
Ġì£ ł
Ġìŀħ ìĿĢ
ìĿ´ ê²Į
ë¬¸ ìĿĺ
ìĭľ ìĦ¤
ĠìĦ¼ íĦ°
é Ģ
Ġëĵ± ëĵ±
Ġê²ĥ ìĿ´ëĿ¼ëĬĶ
Ġìĸ» ìĿĢ
d isplay
ìķĺ ëĭ¤ê³ł
as s
ë¦¬ ëĭ¤
ãĥ Ī
Ġëī´ ìĬ¤
f t
ĠìĨĮ íĶĦíĬ¸
Ġíİ¸ ìĦ±
ìĺģ ìĥģ
ç Ľ
200 4
ĠìĤ¬ìĭ¤ ìĿ´
Ġìķ½ íķľ
ĠìĹħê·¸ ëłĪìĿ´ëĵľ
ê¸° ìĿ¸
Ġëĳĺ ìĿ´
íģ °
ë§Į ìĿĢ
V E
ĠìĿĺ ìĤ¬
ĠH P
Ġíķ ¸
íķĻ ìĿĦ
ë² ¼
ì¤ĳ ìķĻ
Ġë°Ľ ê²Į
Ġì½ ©
Ġëĭ¹ ìŀ¥
ìĿ´ ëŁ°
4 6
ëĭĺ ìĿ´
Ġê·¸ê²ĥ ìĿĦ
om e
ĠíĽĮ ë¥Ń
ëł ģ
ìĽĲ ìłĦ
Ġ199 7
Ġìĸ´ì© Ķ
ìĻ ľ
L C
Ġì¹´ ì¦Ī
3 1
Ġíĺ¼ ëŀĢ
ĠíıŃ íĥĦ
ìĽ¨ ìĿ´
ĠìķĦ ìĬ¤
Ġíĥĳ ìĬ¹
ë¯¸ ëĭĪ
ĠìĦ± ìļ°ëĬĶ
íĬ¹ë³Ħ ìĭľ
Ġê³µ ìľł
Ġíķĺ ëĭ¤ê°Ģ
ê°Ģ ëĬ¥
Ġë§Įëĵ¤ ê³ł
ë©´ìĦľ ëıĦ
å ±±
Ġë°´ ëĵľ
ë©´ ìĹĲ
ê²¨ ì§Ħ
ĠíĿ °
Ġë§Ĳ ëıĦ
Ġíķĺ ê¸°ëıĦ
Ġëį ®
Ġíķĺ ëįĺ
íģ¬ ëĿ¼
ìĭľ ì½Ķ
ë İ
ĠìĬ¤íĥ ł
Ġì½Ķ ë¯¹
ĠìķĬ ìķĦìĦľ
ĠìĿ¸ ì§Ģ
ìĦł ìĿĢ
Ġì·¨ ìŀĦ
ĠëĤ© ì¹ĺ
ĠëĪĦ ê°Ģ
ĠëĲĺ ìŀĲ
ê´Ģ ìĿĺ
Ġ199 6
ì¦Ŀ ìĿĦ
íķ´ ìł¸
ìĦ °
ìĿ¼ ìĹĲëĬĶ
ĠìĤ ½
ëĦ ¬
Ġë¦ ´
ĠìĻ¼ ìª½
Ġê°ĸ ì¶Ķ
Ġë¶Ļ ìŀ¡
ĠëĨĵ ê³ł
ëį ±
ì§ģ ìĿĦ
ìľł ëŁ½
Ġê·¼ ë¬´
9 5
Ġê±° ëĮĢ
Ġìº Ķ
Ġëĭ¹ìĭľ ìĹĲëĬĶ
ĠíĻį ë³´
ĠíĮ¨ëŁ¬ ëĶĶ
Ġë§Į ëĤľ
ëıĻ ìĹĲ
ìļ© ìĿĦ
ìĻķ ìĿ´
ĠíĥĦ ìĥĿ
ĠìĺĨ ìĹĲ
ìłģ ìĿĺ
Ġë²Ħ íĭ°
Ġìĭł ì²´
Ġë¶Ī ëªħ
ãĢ Ĥ
Ġê·¸ ê²Į
Ġë§Ī ì£¼
íķł ëķĮ
Ġê º
ë©´ ìĿĦ
íĮĲ ìĹĲ
ĠS h
ĠëłĪìĿ´ ìłĢ
ë¨¸ ë¦¬
Ġì¡° ìłķ
ëĵ¤ ìĿ´ëĭ¤
ĠìĻ¸ êµĲ
ìķĺ ëĬĶëį°
Ġì¤Ħìĸ´ ëĵ¤
ìĿ´ ëķĮ
ëĲĺìĹĪ ìľ¼ëĤĺ
ĠëķĮ ëł¤
ìĭľ ìĬ¤
Ġìŀĳ ìłĦ
ĠëĮĢ ê³µ
Ġì¶Ķê°Ģ ëĲĺìĹĪëĭ¤
ĠíĮĢ ìĿĢ
Ġëĵ¤ìĸ´ ìĦľ
ëŀŃ íģ¬
A S
Ġì²ĺ ì¹ĺ
ìĿĮ ìķħ
Ġìĭ¤ íĸī
ĠT h
Ġê²¨ ìļ¸
íĨ¨ ë¦Ń
Ġìłģ ìĹĲê²Į
es s
ìħ ¨
Ġëĳĺ ëŁ¬
ĠëĤ´ ìĹĲ
ìĦł ìľ¼ë¡ľ
ëª¨ ìĿĺ
Ġì²ĺìĿĮ ë¶ĢíĦ°
Ġê°Ģ ë¡ľ
Ġì Ł
ĠìĿĺ ëıĦ
Ġê·¸ ëŁ´
Ġì½¤ ë³´
Ġ199 5
ĠìºĲ ëĤĺëĭ¤
íĻĶ ëĬĶ
Ġë²Ĺ ìĸ´ëĤĺ
é ĸ
ĠëĪĪ ì¹ĺ
ìļ° ìĬ¹
ĠíĻķë¥ł ë¡ľ
Ġíķ´ ìĦ¤
ë§Ī ëĬĶ
Ġêµ¬ ëĭ¨
ĠìĿ´ ë¥´
Ġëĵ¤ìĸ´ ê°ĢëĬĶ
ĠìĤ´ ê³ł
ìĿ¸ ìĿ´ëĭ¤
ê¸° ìĹĲìĦľ
Ġìľł íĤ¤
ĠìľĦ íķĺìĹ¬
Ġì§Ģíķĺ ì²ł
Ġë³Ģ íĺ¸
Ġë°Ķ ë¥´
ê±° ë¦¬ê°Ģ
ìĦ¸ ëĬĶ
Ġê·¸ ê³³
Ġë°©ìĨ¡ ìĿĦ
ĠR e
ĠëĦ ¥
Ġê³µ ìĿĦ
ĠëĤĺìģ ľ
Ġë§Īì§Ģë§ī ìľ¼ë¡ľ
ĠëıĮ íĮĮ
Ġìłľ êµŃìĿĺ
Ġê²½ ìĺģ
Ġê° Ĵ
Ġë¡ľ ì¼ĵ
Ġê·¸ ëĭ¤
Ġìĵ° ì§Ģ
ë°Ľ ìķĺëĭ¤
n g
ĠëĵĢ ìĸ¼
ë°© ìĿ´
ĠìĦľ íı¬
Ġëª¨ ìħĺ
ĠíĸīëıĻ ìĿĦ
ë¥ĺ ê°Ģ
Ġìĵ´ ëĭ¤
Ġë³´ìĹ¬ì£¼ ìĹĪëĭ¤
ìļ° ë¥¼
Ġìłľ ê¸°
íķĺì§Ģ ëĬĶ
ĠìĥĿ ë¬¼
s p
êµ° ê³¼
Ġì§ĳ ìķĪ
ìĭľê°Ħ ìĿ´
Ġëįķ ìĹĲ
Ġëĸł ìĺ¬
ìĿ´ ë¦Ħ
Ġë§Ĳ íķľ
ĠìĥģëĮĢ ìĿĺ
êµ¬ ìĹŃ
ĠìĹĲ ìĿ´ìĬ¤
Ġì²łëıĦ ìĹŃ
Ġì¡´ìŀ¬ íķĺëĬĶ
ìĦľ ìĿĺ
ê°ģ ìĿĦ
ê¶Į ìĹĲ
ĠíĨµ íķľ
3 8
Ġì¶Ķ ì§Ħ
Ġë¡ľ ëĵľ
ìĵ ¸
ĠìĻ ĢìĿ´
êµŃ ê°Ģ
ĠìĦ± ìłģ
Ġìŀ¥ ìķł
ìķĺ ìĿĦ
Ġë´ Ħ
Ġê³ĦìĨį íķ´ìĦľ
Ġë³´ìĹ¬ ì¤Ģ
ĠìľĦ ìĹĲìĦľ
ìŀ¥ ìĿ¸
Ġëĵ¤ìĸ´ ê°Ħ
Ġì§Ģ ìĺ¥
Ġíķ ĳ
Ġê°Ģ ëĵĿ
êµŃ ë¯¼
Ġë°ķ ìĤ´
Ġìħ °
Ġëĭ¹ ìĦł
ìĭ ¼
Ġê² ģ
íķ´ ì£¼ëĬĶ
ì¡± ìĿĺ
ìłĦ ìĹĲìĦľëĬĶ
ĠìĿ¼ ì¢ħìĿĺ
íĶĦ ëĬĶ
ĠãĢ İ
Ġì²ĺìĿĮ ìĹĲëĬĶ
Ġë§İ ìķĺëĭ¤
Ġì»¨ íħĲì¸ł
Ġë½ĳ ìķĦ
Ġê³¨ ëĵľ
ìĭ¤ ìłľë¡ľ
ìĽĲ ëıĦ
? ?
ĠìĿ¸ê°Ħ ìĿĺ
Ġìĭľ íĭ°
) "
ë° ¤
ĠìĺĪ ìĪł
ĠìłĪ ë°ĺ
ĠìĦ¸ íĬ¸
ĠìĦł ë°°
ĠìĬ¤ íĤ¨
ĠìŀĲëıĻ ì°¨
Ġë¶Ģë¶Ħ ìĿĢ
ĠìĿ´ ëĵ¤
Ġëĸ ¼
ëĤ´ ë©°
ĠíĨµ ìĿ¼
3 4
ĠëĤĺìĺ¤ ëĬĶëį°
ëįĺ ê°Ģ
Ġëħ¸ëŀĺ ë¥¼
ê³µ ìĭĿ
Ġìĺģ ìĥģìĿĦ
ë£ ¸
Ġì¦Ŀ ëªħ
ar e
ëĵ± ê¸ī
Ġëį° ë¦¬ê³ł
ĠìĦ¸ ìĿ´
Ġìĭľ ëĤ´
Ġê³Ħ ìĬ¹
Ġíķĺ ìľĦ
ìĨĮ ìĿĺ
ĠíĻķë¥ł ìĿ´
Ġê±´ ê°ķ
ĠëĮĢ ë¥Ļ
ĠìĹ´ ìĭ¬íŀĪ
ê¸° ìĹħ
Ġìŀ¬ ìĥĿ
é Ŀ
ãĥ ª
Ġê¸ Ģë¡ľ
ĠëĵĿ ìłĲ
Ġê°Ĳëıħ ìĿĺ
Ġíķ´ ìłľ
ĠìĬ¤ íĬľ
ëª¨ ëĵł
ë³ĳ ìĿĦ
ĠíĮĲ íĥĢ
ĠìĻĢ ìĦľ
Ġì¿ Ħ
Ġìĺ¤ë¥¸ ìª½
Ġë³¸ íİ¸
Ġíĺĳ ëł¥
ĠìľĦíķ´ìĦľ ëĬĶ
ĠìĹ° ìĺĪ
Ġìłģ ëıĦ
ĠëĽ° ìĸ´ëĤĺ
ĠìĬ¤íĥ ¯
3 2
ì¹´ ë¥¼
íĸĪëĭ¤ ê°Ģ
i an
ĠíĿĶ íŀĪ
ĠìĹŃ ìłĦ
Ġë¸ĮëĿ¼ ì§Ī
ĠìĬ¤ íĮĮ
Ġíĺķ ìłľ
Ġê¸° ëıħêµĲ
Ġíı ¼
Ġì±Ħ ë¡ľ
ĠìĿ´ìĥģ íķľ
Ġê¸° ìłĪ
ê³µ íĻĶêµŃ
ĠìĹĲ ìĸ´
ìĤ° ìĹħ
ë¶Ģ ìĻĢ
ê¸° ê°Ħ
S t
Ġíķ´ ì²´
Ġë°ľ ìĿĮ
Ġê±° ëŀĺ
ë³Ħ ë¡ľ
ëĦ¤ ê°Ģ
ìĽĲ ê³¼
ãģ£ ãģ¦
ĠìłķëıĦ ëĬĶ
id e
ĠíĪ¬ ìŀĲ
ìĪ Ń
ĠìĹĨ ìĹĪëįĺ
ĠíĽĦ ìĹĲëĬĶ
ĠìĿ¼ë°ĺ ìłģìľ¼ë¡ľ
íķŃ ê³µ
Ġê³³ ìĹĲìĦľ
ĠìĿĢ ê·¼
Ġìŀ¬ ëĬ¥
ìķĦ ë¦¬
ìĭľ íķľ
ĠíĶĮëłĪìĿ´ ìĸ´ê°Ģ
ĠìĨĮ ë©¸
ìĬ¤ ìĹĲê²Į
ĠêµĲ íĻĺ
Ġê±¸ ëł¤
g e
Ġëĵ± íĮĲ
Ġìĺ¤ íĶĪ
ĠS p
Ġìłľ ìĿ´
ĠìķĦìĿ´íħľ ìĿĦ
íĤ ¥
ì§Ģ ë§Ī
ĠìŀĲ ë¦¬ìĹĲ
ìĭľ ìŀ¥
Ġìĭł ìĿ¸
G M
Ġìĸ¼êµ´ ìĿĦ
3 9
ĠëĿ¼ìĿ´ ë²Į
Ġëª» íķł
Ġìľ µ
ìĺĢëĭ¤ ê³ł
íĮĲ ìĹĲìĦľëĬĶ
ê³Ħ ìĹĲìĦľ
Ġê´Ģê³Ħ ë¥¼
ĠëķĮë¬¸ ìĿ¸ì§Ģ
ĠìķĦë¬´ ëŀĺëıĦ
ĠìĿĺë¯¸ ê°Ģ
íķ´ ì§ĢëĬĶ
ĠìĤ¬ìĿ´ ìĿĺ
Ġë§¡ ìĿĢ
Ġìĭł ë¢°
Ġë¬´ ëł¥
Ġì¤ĳ ê°ĦìĹĲ
Ġë§Ĳ ìĿ´ëĭ¤
ìķ¼ êµ¬
æ ³
íĭ° ìķĦ
Ġê± ·
ëĭĪ ìĿĺ
u c
Ġê´Ģ ìĭ¬ìĿĦ
Ġë¹Ħ ë¡Ŀ
ê°Ģ ëĿ½
o od
Ġd e
ê» ı
ĠìĤ¬ê±´ ìĿĦ
ê°Ģ ìĹĲ
ĠìĿ¼ë¶Ģ ëŁ¬
è ¦
ìĭľ íĶ¼
ì¦Ī ëĬĶ
Ġìķķ ë°ķ
ĠíĶ¼ ìķĦ
Ġê·¸ ë§Įíģ¼
ëĶĶ ìĸ¸
ĠìĻ Ķëĭ¤
íĦ° ëĬĶ
Ġë³´ ìŀĲ
Ġë§İ ê³ł
ìĬ¤íĬ¸ ë¥¼
íķĻ ê¸ī
ĠìĪľ ìĭĿ
Ġë¬´ ìĦľ
Ġë£ Į
ĠìĥĿê°ģ íķĺëĬĶ
ë³´ ëĭ¨
Ġë± Ģ
ĠìĦłìĪĺ ê°Ģ
ĠíķĺëĤĺ ìĿ¸
Ġì£¼ ëł¥
ĠìķĪ ëĲĺëĬĶ
åŃ Ĳ
Ġê°Ģê¹Į ìĿ´
e e
Ġëŀľ ëį¤
Ġb order
ëĿ¼ ìļ´
n a
ë¦¬ ìĸ¸
ĠìĤ¬ëŀĮ ëıĦ
ãģ ¡
ëħĦ ëıĦ
ëĵľ ìĹĲìĦľ
Ġë³´ ëıĦ
Ġë¶Ģ ì§Ħ
Ġë¯¼ ê°Ħ
Ġê¸° íļĮë¥¼
ĠëĤĺ ì¹´
ë¶Ģ ëĮĢ
Ġê·¸ëĭ¤ ì§Ģ
ìĦľ ë¡ľ
Ġêº ¾
Ġb ackground
r an
Ġë¶Ļ ìĹ¬
ĠìķĦ ìĤ¬
ë²Ħ ë¦¬ê³ł
æ ´
ê¹ Ķ
ìĿ´ ì¹ĺ
ĠíĮĮ ê²¬
â Ļ
ì¦ Ĳ
Ġëª© ìłģìľ¼ë¡ľ
ìĸ´ ì£¼
ĠìĨĮ ìļ¸
Ġë³´ ìĿ´ê³ł
Ġë§ŀ ìĿ´
Ġìĵ°ëŁ¬ ëľ¨
ĠëıĮìķĦ ìĺ¤
Ġìĭł ì²Ń
ĠíĻĶ ìĤ´
ìĺ¤ ë¥¼
Ġìĭ¬ê°ģ íķľ
ìĿ´ìĹĪ ëĬĶëį°
Ġë¹Ħ íķĺë©´
ĠìĿ´ ëĵ¤ìĿ´
Ġë¬´ ëĤľ
Ġê·¹ ìŀ¥íĮĲ
i re
ĠìĿĮ ìĭĿ
âĢ ĵ
ìĿ¸ ëıĦ
Ġë§Ī ëĤĺ
4 4
E C
ê³¼ ê±°
ë¯¼ì£¼ ëĭ¹
ê¸ī ìĿĺ
ĠíĨµ íķ´ìĦľ
ĠìĪĺ ìŀħ
arg in
íķľ ìĿĺ
) (
ĠìķĦë¬´ ëŁ°
ë¶Ģ ìĤ°
Ġì·¨ ìĨĮ
Ġê³ł ìĸĳ
ì§ ±
ãģ Ī
Ġì¦ī ìĭľ
ĠìĤ¬ìĭ¤ ìĿĢ
êµŃ ìłľ
ëĦ Į
ìķħ íķľ
ĠíħĮ ëŁ¬
Ġëĭ ¿
ìĥī ìĿ´
Ġê² Ĳ
ä¸ Ģ
Ġìłķ ì²´
ê±° ìļ´
ĠìķĪ ìĬµ
iz e
Ġë³´ ìĿ´ë©°
ĠìĪľìĭĿ ê°ĦìĹĲ
Ġ i
ìŀĲ ëıĦ
ĠìĪĺì¤Ģ ìľ¼ë¡ľ
ê°Ģ ë©´
íļĮ ëĬĶ
Ġì¹ĺ ê³ł
ê³ł ìĿĺ
Ġë³µ ìŀ¡
ĠìĿ´ ëŀĺ
Ġë°ľë§¤ ëĲľ
Ġ198 0
Ġê³µ ìŀĳ
Ġê³µê²© ìĿ´
ĠìĿ´ ìĬ¬
ì¶ķ êµ¬
ëĥĲ ë©°
ìħ °
ĠëĤľìĿ´ ëıĦê°Ģ
Ġë³´ ìĥģ
íĮĲ ìĿĢ
å ¼
ì¹ľ êµ¬
ĠëĴ¤ ë¥¼
ê¸° íĥĢ
ĠëĮĢ ë¡ľ
Ġê³µ ì£¼
ĠìĬ¤ ì¼Ģ
ì¦Ī íĤ¤
Ġëª° ëŀĺ
Ġë£ °
Ġëĭ¹ íķľ
Ġë¬¸ ìĿĦ
ë¥ĺ ë¥¼
ëį° ìĿ´
Ġ3 6
Ġìĺ¤ ìĺ¤
ìĺ¤ ë¦¬
íĺķ ìĿĢ
ĠíĶĮ ëĿ¼
Ġë°©íĸ¥ ìľ¼ë¡ľ
ìļ´ ëĭ¤
Ġìŀī ê¸Ģ
ĠìĥĿ ê²¼ëĭ¤
Ħ ëĬĶ
æ Ļ
ëĦĲ íĭ°
ìĹ¬ ê¸°
Ġë©Ķ ê°Ģ
Ġíģ´ ë¡ľ
ì¨ Į
Ġê·¸ëłĩ ëĭ¤ê³ł
Ġìĵ° ìĿ¸ëĭ¤
Ġê·¸ ëıĻìķĪ
íĮĲ ìĿĺ
Ġê·¸ëħĢ ê°Ģ
Ġíķ´ ê¸Ī
ĠìŀĪ ê¸´
Ġìĵ° ìĿ´ëĬĶ
ĠìĦ¸ ìĽĮ
ĠìķĦ ìķ¼
Ġìĭ¸ ìļ°ëĬĶ
ê²½ ìłľ
íļĮ ìĤ¬
q u
ëĮĢ ìŀ¥
ĠëĮĢ ìŀ¥
ìĨĮ ë¦¬
ĠìĤ¬ìļ© íķĺë©´
ë²Ħ íĬ¸
Ġì°¸ ìłĦ
ĠëĬĺ ìĸ´
ì¢ħ ìĿ´
200 2
Ġíħ ľ
ìľ¼ ëł¤
Ġê³µ íĻĶêµŃ
Ġì§ĢìĹŃ ìĹĲ
Ġëħ¸ ì¶ľ
ĠìĬ¤ íĶĦ
% )
ĠìĹ° ë°©
Ġëĭ¹ìĭľ ìĿĺ
Ġë°©ë²ķ ìĿĦ
5 5
Ġìı ŁìķĦ
ĠìĦł íĺ¸
r adi
Ġëĭ¨ ìĿ¼
ĠíĬ¸ ëŀĻ
ĠìĿ´ ìĬ¹
ãĥ ĥ
Ġìł ł
Ġì§ĳ ëĭ¨
ĠíħĮ ìĿ´
Ġê°Ĳëıħ ìĿ´
ëĿ¼ ëħ¸
ĠëıĦ ëĭ¬
ĠíĿĶ ëĵ¤
Ġë©ĶìĿ´ ìłĢ
ĠëĳĲ ëł¤
ìĭ¤ ìĿ´
ìĭ¤ ìĹĲ
ĠíħĮ ë§Ī
Ġìłľ ì£¼
æ µ
ĠìĿĺê²¬ ìĿ´
íĺķ ìľ¼ë¡ľ
Ġë¶Ģì¡± íķľ
ã İ
Ġìĺ¬ ë¦¬
Ġ x
Ġê· ł
ì¤ĳ íķľ
ĠëĦĺ ëĬĶ
ĠìŀĲ ìĿ´
Ġì¤ĳ ìĿ¸
ĠëķĮ ìĹĲëĬĶ
Ġë²ł ë¥´
ĠìĪĺ ìļĶ
è ¨
ê²ĥ ìĿĦ
Ġìĵ° ëłĪ
Ġëĵ± ê³¼
Ġìłķ ê¸Ģ
Ġìłķë§Ĳ ë¡ľ
ĠìĬ¹ ê²©
ĠìĹ° ê·¹
ë ®
ë¸Į ë¦¬
ìĨĮ ìĹĲ
Ġìª½ ìľ¼ë¡ľ
E D
ak e
ì ¾Į
ĠìłĦ ëĿ¼
ĠìĹ¬ ëıĻìĥĿ
ìĿĺ ë¡ľ
Ġê²ĥ ìĿ´ëĿ¼
ĠìķĦ ëĿ¼
æĹ ¥
Ġë¡ ±
Ġìĺ ¹
ĠìĦ Ń
ìľ Ļ
Ġêµ¬ íĺĦ
ĠìĿ´ìļ© íķĺìĹ¬
Ġëĵ± ìĹĲìĦľ
Ġì£¼ ëª©
ĠíĮ¨ ì¹ĺë¡ľ
Ġìµľ ìķħìĿĺ
20 21
Ġë°ĺìĿĳ ìĿĦ
Ġë§Įëĵł ëĭ¤
ĠìķĦ ëĭĲ
Ġëĵľ ë¦½
Ġì¶Ķ ëĿ½
Ġê·¸ëŁ° ì§Ģ
Ġê·¸ëłĩ ì§Ģ
Ġê°Ħ ìĿĺ
ê²½ ìĿ´
Ġì¶ľ íĮĲ
ì²ĺ ìĿĮ
Ġëĭ¤ëĭĪ ëĬĶ
ìĬ¤íĬ¸ ëĿ¼
o v
ĠëĲĺ ëıĮ
ĠìķĦë¬´ ëıĦ
radi us
Ġë°© íĮ¨
Ġ199 4
ĠíĸĪ ìĿĦ
ĠëĲĺ ì°¾
Ġëª» íķĺê²Į
íħĮ ìĿ¸
Ġìľłëªħ íķĺëĭ¤
íĤ¨ ëĭ¤
ê±° ë¦¬ëĬĶ
ĠìĿ´ ë¤Ħ
Ġë³¸ê²© ìłģìľ¼ë¡ľ
Ġì¡ ±
Ġê¸ į
Ġê¸°ë¡Ŀ ìĿĦ
Ġm y
ìĹŃ ìĹĲìĦľ
ìĭľ ê³ł
ĠêµŃ ë¦½
ĠìĿ´ ìĬ¤
ĠìĦ±ëĬ¥ ìĿ´
ê·¸ëŀĺ ëıĦ
E N
Ġê³ł ìľł
Ġê¸° ìĹ¬
Ġëį°ë¯¸ ì§Ģê°Ģ
ĠìłĦíĪ¬ ìĹĲìĦľ
ìĽĲ ëĵ¤ìĿ´
Ġíģ´ ë¦¬
ĠìĪĺ ë¦¬
ĠìĿ´ë¯¸ ì§Ģ
Ġëį° ìĬ¤
Ġëª©ìĪ¨ ìĿĦ
Ġë³Ģê²½ ëĲĺìĹĪëĭ¤
Ġê¸°ëĬ¥ ìĿĦ
ìĽĶ ë¶ĢíĦ°
Ġf ont
ĠëĶĶ ìĬ¤
" ,
Ġê²¬ ìłľ
ëł¸ ìĿĦ
Ġê »
ĠìĬ¤ íĮĮìĿ´
Ġíĸī ìĤ¬
ìĦ¸ íķľ
ëĿ¼ìĿ´ ìĸ¸
ĠìķĦë¬´ ê²ĥëıĦ
Ġë§¡ ê³ł
Ġ or
Ġìµľ ìĥģ
ĠA r
ëıĻ ìĿĺ
Ġë¸Į ëŀľëĵľ
5 00
ìĨį ìĦ±
Ġê´´ ë¬¼
Ġì¡° ì§Ģ
ĠëĳĲ ë²Īì§¸
Ġê²½ ê³Ħ
200 3
ĠëĮĢ ë¦½
ĠìĿ¸ ê·¼
Ġëŀ ©
ê´Ģ ê³Ħ
b er
Ġëĭ¤ ê°Ģ
Ġìĭ¤ ëł¥
Ġìĺ¤íĶĦ ëĭĿ
Ġì¡° ì¤Ģ
V P
ĠìĹ´ ì°¨
ìŀĲ ëĵ¤ìĹĲê²Į
ìķ¼ ê°Ģ
íķ´ ê°Ģ
ë± ħ
ë§ µ
Ġìľ ¼
íĦ° ë¦¬
ë°Ķ ìĿ¼
Ġë¶Ī íİ¸
ìĿ¸ ëĵ¤ìĿĢ
ê¹Į ì§Ģë§Į
Ġêµ¬ íķ´
ĠìĿ´íĽĦ ë¡ľëĬĶ
ĠìĥĿê°ģ ìĿĦ
Ġê±¸ ì³Ĳ
Ġì£¼ ì§Ģ
ĠíĶĦë¡ľ íĨł
ĠìŀĦ ìĭľ
Ġëĸ¡ ë°¥
ĠìĿĺ ìĭĿ
ĠëĤ Ń
ìĤ° ìĿ´
íĶ¼ ìĬ¤
Ġìĺ® ê²¨
' '
ìĤ¬ íķŃ
ë°Ķ ëĿ¼
Ġë°©ë²ķ ìĿ´
ìĤ¬ ìĿ´íĬ¸
ëĭ¹ íķĺê³ł
' t
ì¦ ī
ĠëłĪìłĦ ëĵľ
ìļ° ì£¼
Ġê¹Ģ ìĦ±
Ġê²Į ìĿ´ì§Ģ
ĠëĤ ļ
Ġìĵ° ë©´
ĠëĪĪ ìĿ´
ĠëĮĵ ê¸Ģ
Ġëĭ¤íĸī íŀĪ
Ġìĸ´ ì°¨íĶ¼
Ġê²© íĮĮ
Ġin line
ìłĢ íŀĪ
ì±ħ ìĿĦ
ĠìĪľ ìľĦ
ë¥´ ë¥¼
Ġê²½ ìľł
Ġíķ´ëĭ¹ íķĺëĬĶ
Ġë¯¸ìĤ¬ ìĿ¼
Ġíİ¸ ìĿ´
ĠìŀĪìĸ´ ìķ¼
ë¯¼ ìĿ´
ĠìĬ¤íİĺ ìħľ
ìĥī ìĿĦ
ĠìķĦ ìĺ¤
Ġê¹ ĥ
Ġì¹´ ë¥´
íĸ¥ ìĿĦ
Ġìĭł ìĦ¤
ë²Ħ ë¦¬
Ġìĺ¤ ë¦¬
Ġë¹ĦìĬ· íķĺê²Į
ì£¼ìĿ¸ ê³µ
ë§ĪìłĢ ëıĦ
ĠíĻĶ ëł¤
Ġë¶Ģë¶Ħ ìĿĦ
Ġëĭ¤ ìĪĺ
add ing
i al
ëĲĺìĹĪ ì§Ģë§Į
Ġíĺ¸ íıī
ĠíĽ Ķ
ĠìĦ± ìĿ¸
ĠìĪĺ ìļ©
ëĭ «
ĠëĦĵ ìĿĢ
ĠëıĮ ê²©
ì½Ķ ëĬĶ
Ġìłľ ë¡ľ
ëĭ¹ ìĿĦ
Ġì²´ ìľ¡
æ ī
ĠëıĻ ìĽĲ
Ġê·¸ê²ĥ ëıĦ
Ġê³ł ìłĦ
Ġëª© ìłģ
Ġì£¼ìĿ¸ê³µ ìĿ´
Ġì§ Ŀ
ĠìĹ° ê³Ħ
Ġë¬´ ê²Į
Ġê¸Ģ ìĿĦ
ãģ Ŀ
Ġ Ð
Ġì´Ī ìĽĶ
íķ´ ìĿĺ
ĠìŀĪìĹĪëĭ¤ ê³ł
ëľ ©
ĠìĿ´ ëĵĿ
Ġê±° ëĿ¼ê³ł
Ġê·¸ ìĹĲê²Į
á Ĩ
H E
ìľ¨ ìĿĦ
Ġì¶© ì²Ń
Ġìĸ» ëĬĶ
ĠíĬ¸ ëłĪ
ĠìĦľ ë¹Ħ
ëĵľ ëŀĺ
Ġìĭ¤ìłľë¡ľ ëĬĶ
Ġê¹ ĬìĿĢ
ĠëłĪ ìĿ¸
Ġê¸° ì´Ī
íĻĪ ëŁ°
Ġì½Ķ ë¡ľëĤĺ
Ġëĵ¤ ìĿĢ
ĠëĦ¤ ìĿ´ë²Ħ
Ġë©Ķ ëĭ¬
ê¸° ì§Ģ
I T
Ġë° Ł
Ġë§Ĳ íķł
ĠìŀĲì²´ ë¥¼
ìĸ´ ìĻĢ
Ġì£½ ëĬĶ
ëĤĺ ì¹´
ê·¸ ë¦¬
Ġëª¨ìĬµ ìĿĢ
Ġëį ¸
ìĿĺ ê°Ģ
ĠB l
ê´Ģ ëł¨
ĠìľłìłĢ ëĵ¤ìĿ´
Ġìļ´ ìłĦ
ĠìĿ´ ëĵ¤ìĿĺ
Ġë¬ µ
Ġê³µ ë¶Ģ
ìĦ± ìļ°
ë¦° ìĿ´
Ġê²½ ê¸°ê°Ģ
Ġê³Ħíļį ìĿĦ
ê²© ìľ¼ë¡ľ
Ġëªħ ìĿ´
ãĤ ¢
ĠìĻ¸ ëª¨
Ġì§Ģê¸Ī ê¹Įì§Ģ
ìĤ¬ ëł¹
Ġìĺ¤ ë¡ľ
ĠìĤ¬ìĿ´ ê°Ģ
ĠìķĪ ìĹĲìĦľ
ĠíĽĦ ì¿ł
ìķ¼ ìĿĺ
Ġìĭł ê·ľ
ãģ ¤
Ġë³¸ìĿ¸ ëıĦ
ĠìĥĿ ê²¼
ĠìĨĮìŀ¬ ë¡ľ
ĠìĹĨ ìķł
ĠĊ Ġ
ĠìľĦ ê¸°ìĹĲ
ĠìķĦ ìļ°
ëł¹ ìĿĦ
ìĭ¤ ìĹĲìĦľ
Ġê³µ ê¸ī
íķ¨ ìĹĲ
ë²Ī ìĿĺ
Ġì¤ĳ íķĻêµĲ
ë¦¬ ìĹĦ
ìķĦ ë¥¼
ê´Ģ ìľ¼ë¡ľ
Ġì£½ ìĹ¬
Ġê°ĳ ìĺ·
ëħ ģ
Ġíı¬ ìĿ¸
ìľł ê°Ģ
M BC
íĮĮ ìĿĺ
ĠíĶĦë¡ľìłĿ íĬ¸
ìłľ ìŀĳ
ìĹ° ìĿ´
Ġê¸°ë°ĺ ìľ¼ë¡ľ
ĠíĻĶ ìŀ¥
Ġê° ĵ
ê·¸ ëĬĶ
Ġíĥľ ìĸ´ëĤ¬ëĭ¤
Ġëħ¹ ìĿĮ
Ġë³µ ìĪĺ
Ġëª ¹
ar k
4 9
Ġë§Ī ëħĢ
Ġê³ł ê¸ī
ĠìĦ¸ ëł¥
ĠìĬ¤ ë§ĪíĬ¸
Ġê´ľì°® ìĿĢ
Ġì½Ķ ë¯¸
ìĽ¨ ëį´
P G
ĠìĹħ ë¬´
æĿ İ
ĠíķĻ ìĤ´
F F
ĠE X
ìķ ¨
ĠëĮĢ ìĥģìľ¼ë¡ľ
Ġë§ĪìĿĮ ìĹĲ
êµŃ ìĿĦ
ìĨĮ ìĦ¤
ĠëĦ£ ìĸ´
Ġìľł ë¡ľ
Ġë¬´ ë£Į
Ġì¹´ìļ´ íĦ°
ĠìĤ¬ì§Ħ ìĿĦ
ëĭ¹ íŀĪ
ëª¨ ëį¸
å ¿
ĠìĤ¬ ìŀ¥
Ġìĭľ ìŀ¥
Ġëĵľ ëŀį
Ġëħ¸ ìĺĪ
Ġì½ĺ ìĦľ
ĠìŀĲìĭł ê³¼
ĠíļĮ ìłĦ
ĠëĦ¤ ëįľ
å Ľ
Ġíķ´ ë°©
Ġë§ ĺ
çİ ĭ
ë§Ī ë£¨
Ġíģ¬ ë¦¬
ĠíĮĮ ìĿ´íĦ°
ĠëĤĺëī ĺ
Ġìŀĳ ëıĻ
Ġìĸ´ ê¹¨
ìĿ¼ ëŀľëĵľ
k g
Ġìŀħìŀ¥ ìĹĲìĦľëĬĶ
Ġëĵ±ìŀ¥ íĸĪëĭ¤
ìķĺ ìľ¼ëĤĺ
ëĤĺ ëıĦ
ĠìľĦì¹ĺ ë¥¼
Ġp adding
ĠFI FA
Ġê°Ģ íĨ¨ë¦Ń
ĠìĿ¸ ìĥģ
ë¹Ħ ìĹĲ
ĠìĿĳ ìĽĲ
ãĤ ¯
íķĺ ìĹĲ
ĠìºĲë¦ŃíĦ° ë¥¼
Ġìĥ ĺ
ĠëıĮ ì§Ħ
ĠëıĦ ìĽĢ
ĠìĦ±ëĬ¥ ìĿĦ
ìĿ¸ ìĹĲ
Ġëįĺ ìłĦ
Ġê³µê²© ëł¥ìĿ´
ë¶Ģ ë¥´íģ¬
ìŀ¥ íķľ
Ġì°¨ ë³Ħ
ë£ °
b l
Ġíĺ¼ìŀĲ ìĦľ
íħĮ ìĿ´
ĠìĹ¬ëŁ¬ ê°Ģì§Ģ
Ġìª½ ìĿ´
Ġë¹ł ì§Ħ
ë¿Ĳ ë§Į
Ġë¶Ī ë¦°ëĭ¤
Ġêº¼ ëĤ´
Ġë²ķ ë¥ł
ĠêµĲ íĻ©
Ġê²Ģ ìĤ¬
ĠìĿ¸ ìĥĿ
ĠíĻķ ì§Ħ
Ġëĺĳ ê°ĻìĿ´
Ġì¹´ ëĵľê°Ģ
© ëĭĪëĭ¤
Ġëĭ¬ ëŁ¬
ĠíĶĦë¦¬ ë¯¸
Ġëª¸ ìĹĲ
Ġëı ķ
íķ´ ì¡Į
ì£¼ ìĹĲ
ë¨¹ ìĿĦ
Ġíıī íĻĶ
æ ķ
Ġê´Ģê³Ħ ê°Ģ
íķ´ ë³´
íĽĦ ë°ĺ
Ġì§ĳ ìĸ´
å Ĭ
ĠìłĲ ì°¨
ìĿ¸ ìĿ¸
ĠN o
ì¡° ë¦¬
ë³´ íĨµ
ëĭ¤ ìĿĮ
Ġìĭľ ê°ģ
Ð °
ì© ¡
ì§Ģ êµ¬
Ġë© ķ
ìĬĪ íį¼
ĠìĿ´íĽĦ ìĿĺ
Ġí Ī
ĠìĿ´íĽĦ ìĹĲëıĦ
ìĿ¸ ìĹĲê²Į
ë²Ī ìĹĲ
íĳľ ë¥¼
ĠíĮ¨ ìĭľë¸Į
Ġìĩ ł
ĠA P
Ġë¹¨ ê°Ħ
ĠìĿ´ë¦Ħ ìĿĺ
ã Ħ
ĠìĹŃ ìŀĦ
ĠëĶľ ëŁ¬
íĻĶ ëĲĺìĸ´
Ġë¯¸ ìĪł
ê³¼ ë¥¼
Ġíİ¸ ìŀħ
Ġìĭľ ê¸°ìĹĲ
ĠëĤ´ ëĬĶ
íķ¨ ìľ¼ë¡ľìį¨
íı¬ ë¥´
ëĿ¼ ìĿ´íĬ¸
M P
ĠëĬ ĳ
ĠìłĦíĪ¬ ë¥¼
íĥĢ ìŀħ
Ġë¨¹ ìĿĦ
ĠìķĦì§ģ ëıĦ
ìĹĨ ëĭ¤
ê ¶
ĠY ou
ĠìĤ¬ëŀĮ ëĵ¤ìĿĺ
ĠìĬ¤ íı°
Ġë³´ìĹ¬ì£¼ ê³ł
Ġëĭ¬ ìķĦ
Ġêµ¬ ì¶ľ
Ġë¬´ ëĮĢ
ëŀĢ ìĥī
ĠK T
Ġw h
Ġì¡° ìłĪ
Ġíĺķíĥľ ìĿĺ
E X
Ġê¸° ìŀĲ
ëªħ íķľ
ĠëĲľ ëĭ¤ëĬĶ
ë¦¬ ìļ°
Ġì¡°ê¸Ī ìĶ©
ìŀĳ ìĿĦ
íģ¬ ìĻĢ
ìŀ¬ ë¥¼
ë³´ ëĵľ
Ġëª¸ ìĿ´
Ġë³´ ëĤ¸
ĠíĬ¸ìľĦ íĦ°
íķĺë©´ìĦľ ëıĦ
ì¸ł íĤ¤
ì£¼ ëħĦ
it e
ĠìĹ° ìķł
ë³´ ê°Ģ
Ġë¶Īê°ĢëĬ¥ íķĺëĭ¤
Ġíħ į
ìĦ¸ ìĹĲ
Ġê²° ìĦ±
Ġëĵľ ë¬¼
ĠíķĺëĤĺ ëĬĶ
im e
Ġíıīê°Ģ ê°Ģ
Ġíķĺ ê±°ëĤĺ
ê·¸ ìĿĺ
s ize
Ġíģ¬ ë£¨
ĠìĪĺ ì§ĳ
Ġê³Ħ ê¸ī
Ġë¹Ħì¤ĳ ìĿ´
Ġë§Īì§Ģë§ī ìĹĲ
ëĳ¥ ìĿ´
Ġw ith
Ġíĸī ìĦ±
ì¼ Ī
ĠìľĦ íĤ¤
ĠëĮĢ íķĺìĹ¬
Ġë§Īë²ķ ìĤ¬
ë§ģ ìĿĦ
ìŀĲ íĤ¤
Ġìŀħ ëĭ¨
íĮĮ ë¥¼
ĠìĬ¤íĬ¸ ëĿ¼ìĿ´
Ġ3 8
Ġë¹ Ķ
Ġë§¤ ìĿ¼
ë£Į ë¥¼
ì²´ ìĹĲ
ĠëıĮìķĦ ìĺ¨
Ġê³³ ìľ¼ë¡ľ
ë§Ī ìĬ¤íĦ°
Ġìĺģ ìĽĲ
ĠìĺĪ ì¸¡
Ġë²ł íĬ¸ëĤ¨
Ġê¸° ìĬµ
ic k
Ġì¡° ìĭ¬
Ġë§Ĳ ìĿĢ
ĠëĤ® ìķĦ
ìŁģ ìĿ´
i x
Ġëģ Ķ
ĠëĶĶì§Ģ íĦ¸
Ġê³§ ë°Ķë¡ľ
ĠìĿ´ ëĤ´
ĠìļĶ ìĥĪ
Ġë¦¬ ë²Ħ
Ġíķ© ê²©
íĬ Ģ
e ar
Ġê³³ ìĿ´
ĠìķĬìķĺ ì§Ģë§Į
ìľł íĤ¤
Ġê·¸ëŀĺ íĶ½
ëĭĺ ìĿĺ
íŀĪ ë¡ľ
ëıĻ ìľ¼ë¡ľ
ĠëĳĲ ìĤ°
íİ¸ ìĿĺ
Ġìłķ ì°©
ĠëĮĢ ê·ľëª¨
ç §
ĠìºĲë¦ŃíĦ° ìĿĺ
ìĿ¸ ëĵ¤ìĿĺ
íķ´ ëĭ¹
Ġìłľ ë²ķ
Ġìĺ¤ ë¹ł
ĠìłĦ ê¹Įì§Ģ
Ġê´´ ë¡Ń
Ġëįĺ ìł¸
ìłĦ ì°¨
ëĤĺëĿ¼ ìĿĺ
S P
A D
Ġë°ķ ìĤ¬
Ġìłģê·¹ ìłģìľ¼ë¡ľ
Ġìĭł ìĿĺ
Ġí ĵ¨
ĠN PC
ĠìĿ¸ ìĪĺ
ĠíĬ¹ë³Ħ íķľ
ĠìŀĪìĹĪ ìľ¼ë©°
ĠìĽĲëŀĺ ëĬĶ
ĠëĮĢ íıŃ
ì§Ģ ëĬĶëį°
ĠìĹ¬ ëĭ´ìľ¼ë¡ľ
p h
ĠëĪ Į
íĸĪ ìĹĪëĭ¤
ë¶Ģ ìŀ¥
Ġëĺĳ ê°ĻìĿĢ
ĠíĥĢ ìĽĮ
ì¸ Ħ
ĠíĸĪ ìľ¼ë©°
ì¤ĳ ìĿ¸
Ġëĳ ¥
ì¡° ëĬĶ
or m
Ġëĵ± ìĿĢ
ĠìĹĨ ìĹĪê³ł
Ġíķĺ ëįĶëĿ¼ëıĦ
íĸī ìłķ
ĠíĨµ ìĭł
Ġí ĥģ
Ġê°ľ êµĲ
Ġìĸ´ ê·¸
r om
ĠìĹ ®
ĠìĿĺ íĺ¹
Ġíķ´ ìłģ
ĠìĥĿíĻľ ìĿĦ
ac e
s h
ë¯¼ ìĿĺ
ĠìĹĦ ë§Ī
íĬ¸ ìĽĮ
ëĭ¹ íĸĪëĭ¤
ìĬ¤ íĨ¤
ĠìķĪ ëĵľë¡ľ
Ġìłģ ìĸ´ëıĦ
ì¹´ ëĬĶ
ĠìĤ´ ëł¤
ĠìĿµ ìĪĻ
ĠìĬ¤íĥĢ ìĿ¼
êµĲ ìĿĺ
ì§ľ ë¦¬
ĠìĪĺ ìĽĲ
Ġì§ĢìĨį ìłģìľ¼ë¡ľ
íĺ¸ ë¡ľ
ëĤ´ ê¸°
íĦ° íħĮìĿ¸
ëĵ¤ìĹĲê²Į ëĬĶ
Ġê²© íĪ¬
Ġëĭ ī
or y
Ġê°Ģê¹Ŀ ëĭ¤
ĠëĤĺ ìĿĺ
ëĭ¹ íķĺëĬĶ
ë©Ķ ê°Ģ
Ġê·¸ ìĻĢ
ëĵ± ìĿ´
Ġíķľ ëķĮ
Ġíķ© ì³Ĳ
Ġëĵľ ëĶĶìĸ´
Ġë¶Ī ë²ķ
Ġê³¡ ìĿĦ
6 6
ë³ĳ ìĿ´
Ġëĭ¨ ì§Ģ
200 1
ĠìĹ° ìĥģ
Ġêµ¬ ìĨį
ĠíĢ Ħ
o y
Ġê³ł íĸ¥
ìĺģ ìĸ´
ë¯¸ ìĻĢ
ìłľ êµŃ
Ġì§ ¤
Ġì¹´ ëĤĺ
íķĺ ìĭľ
Ġë§¤ ëĭĪ
ë¡ľ ë¡ľ
ĠìŀĲ ìĽĲ
n t
ìº Ķ
ì£¼ ë©´
Ġìĭľ íĤ¤
Ġíģ¬ ê³ł
ìĺģ ìĿ´
4 2
Ġë¯¸ ìķ¼
ëł¹ ìĿ´
Ġìĺ¤ ìĬ¤
9 8
é ķ
Ġê¸¸ ìĿ´
ĠëķĮ ê°Ģ
ĠìķĦ íĭ°
Ġë©Ķ íĥĪ
ĠíĽĦ ì§Ģ
ìķĦë²Ħ ì§Ģ
ĠëıĦ ì¤ĳìĹĲ
Ġëĭ¨ ìĸ´
íķ¨ ê³¼
ëĭ¹ ìĹĲ
ĠíħĮ íģ¬
Ġì¶Ķ ìłģ
Ġìľł ìļ©
Ġë§ī ìĿĦ
i es
ĠìŀĲ ì¹ĺ
Ġ199 2
Ġì¶© ìłĦ
ëĿ¼ ìĹĲ
ĠëĦĲ ë¦¬
ĠëģĿëĤĺ ê³ł
ĠìłķëıĦ ê°Ģ
Ġìĺģ êµŃìĿĺ
ĠìłĦì²´ ìłģìľ¼ë¡ľ
ìĿ´ ê¸´
ol d
ĠíĶĮëłĪìĿ´ ë¥¼
Ġìĸ´ ì§¸
íĺĦ ìĿ´
Ġìĸ¼ ìĿĮ
ĠìĨĮ íĻĶ
ëģĦ ëŁ¬
ĠíķľêµŃ ìĸ´
ĠìĨĮ ë¦¬ê°Ģ
ê´Ģ ìĹĲ
ĠìłķíĻķ íŀĪ
ëĭ´ ìĿĦ
ìŀĳ ì¤ĳ
ë¬¸ íķĻ
ë©´ ìľ¼ë¡ľ
å Ł
Ġì¡° ìĦ±
ìŀ ĩ
7 7
ìłľ íķľ
Ġìļ¸ ìĤ°
ĠìķĶ íĿĳ
æ ²
ìĨĮ ìĹĲìĦľ
íĨ ¡
ĠìĿ´ ëĵ¤ìĿĦ
ìºĲ ë¦ŃíĦ°
Ġ15 0
Ģ ëĭ¤
Ġ3 3
Ġìĸ´ëĶĶ ê¹Įì§Ģ
Ġë¹ĦìĬ· íķĺëĭ¤
ìĬĪ íĥĢ
Ġê·¸ ëĵ¤ìĿĢ
Ġëĭ¨ ìłĲ
Ġê°ľ ìĭľ
Ġëĵľ ëŁ¬ëĤĺ
Ġì¶ľìĭł ìĿĺ
ìĭľ íĹĺ
Ġê¸°ìĸµ ìĿĦ
Ġëĭ¬ ë¦°
Ġìŀĳ ìļ©
Ġ199 3
ĠìĦł ë¬¼
Ġíĥľ ìĸ´ëĤľ
ĠëĦĺ ê²¨
ëłĪ ìĿ¼
Ġê²Ģ ìĥī
ì² ¨
ë¦¬ ìĹĲìĦľ
Ġë°ľ ëĭ¬
Ġê·¸ ëŀ¬
æ Ľ
ìĭľ ìłĪ
ĠìķĬìķĦ ëıĦ
ĠìĪĺ ìĺģ
ĠìķĪ ëĤ´
ĠìķĦëĭĪ ìĹĪëĭ¤
ĠìĹ¬ëŁ¬ ëª¨ë¡ľ
Ġì´Ī ëĵ±íķĻêµĲ
ìĤ¬ ë¬´
Ġìŀ¥ ìłĲ
Ġëį §
O L
ê³µ ìĤ¬
ĠìĹĲ ìĬ¤
ic e
Ġìĸ´ ì§Ģ
ĠìķĬìķĺ ëįĺ
Ġê·¼ì²ĺ ìĹĲ
Ġë°ĸ ìľ¼ë¡ľ
Ġëª° ëł¤
ĠëĮĢë¶Ģë¶Ħ ìĿ´
ĠëĮĢì²´ ë¡ľ
Ġì§ĢëĭĪ ê³ł
I D
ĠíĻĶ ìĿ´íĬ¸
ĠíĻ Ģë¡ľ
Ġëĭ¤ ìĦ¯
ìĹ° ìĿĺ
Ġìĸ´ëĸ»ê²Į ëĵł
â Ķ
ìª½ ìĿĺ
ì¹ĺ ë©°
Ġíģ¬ ëłĪ
Ġë¥ ¼
Ġìĥģ íĴĪ
Ġíİ¼ ì³Ĳ
ĠíĬ¸ ë¡ľ
Ġë Ŀ½
ĠíĹ ¨
m er
Ġê¸į ìłķ
Ġë§ŀ ì§Ģ
am e
ìĶ¨ ê°Ģ
ro w
íķĺ ëĿ¼ê³ł
Ġê·ľ ìłķ
Ġê°Ģ ìĿ´
Ġì¶ľ ìŀ¥
Ġê±¸ ë¦°
Ġìĸ¸ ëĭĪ
Ġì¶Ķ ê²©
Ġíİĺ ìĿ´ìĬ¤
I S
ĠìķķëıĦ ìłģìĿ¸
e g
Ġëª© ê²©
Ġìľł íĸī
ĠëįĶ ë¹Ļ
Ġê·¹ ëĭ¨
ĠëŁ¬ ë¸Į
ĠC D
Ġì¶ ĺ
ëĮ Ħ
Ġê±° ë¦¬ê°Ģ
ìķĪ ìĿ´
ol or
Ġë°ĺ ë°ľ
Ġíİĺ ìĿ´ì§Ģ
ĠìĿ¸ ê³µ
Ġíļ Ł
Ġê³ł ìĸĳìĿ´
ĠS P
ê·¸ ê°Ģ
ĠìĦľ ìĦľ
ë¦Ħ ìĿĦ
C h
ëįĶ ìĬ¤
Ġë¶Ģ ìĥģìĿĦ
ê¶Į ìĿĢ
Ġìļ° ë¦¬ê°Ģ
ê´ Ħ
Ġê³ł ë°±
ĠëĲĺ ì§Ģë§Į
Ã ©
Ġê³ ģ
ìĪł ìĤ¬
ê°Ģ ê³ł
ëªħ ìĿ´ëĭ¤
Ġë³Ģ íĺķ
ëłĪ ëĤĺ
ĠëłĪ ì½Ķ
ĠìŀĲìĭł ëĵ¤ìĿĺ
ĠíıŃ íĴį
ĠìĤ¬ìļ© íķĺê³ł
ë¶Ħ ìĿĺ
Ġê³Ħìķ½ ìĿĦ
ëįĶ ìļ±
íķł ìĪĺ
Ġë¶Ī ê½ĥ
ìĭ¤ íķľ
ĠêµŃ ë°©
Ġëª¨ ìľ¼
ĠìĺĽ ëĤł
ä ¼
Ġë¬´ ìĸ¸
ë°° ë¥¼
ĠíĮ¬ ëĵ¤ìĿ´
é «
ëĶĶ ê°Ģ
ĠìĿ´ê²ĥ ìĿĦ
ĠìĦ±ê³µ íĸĪëĭ¤
Ġìŀ¡ ëĬĶ
Ġì¤ĳ ìĹĲëĬĶ
ĠìĪĺ íķĻ
Ġì¡° ìļ©
ì£¼ ì§Ģ
ĠëĲĺìĹĪ ìľ¼ë©°
ĠíĢ ¸
ĠíķĺëĤĺ ìĿ´ëĭ¤
Ġíİ¸ ìĿĺ
Ġìĭ¬ íķľ
ë¦¬ ìĸ¼
ĠíĺĦ ìĥģ
ë²ķ ìĿ´
Ġê¸°ëĬ¥ ìĿ´
ĠìĺĪ ëĬ¥
ìĦ¸ ë¡ľ
Ġìĸ´ëĸ ł
4 1
e y
S L
ëĵ Ń
íĸĪ ëĬĶì§Ģ
Ġë³´ ìŀ¥
Ġì°½ ìŀĳ
Ġ199 1
ìģ ĺ
ãģ ¿
ê²ĥ ìĿĢ
ĠP ro
ĠíļĮ ìĿĺ
Ġê° Ŀ
ĠìĿĺ ì¡´
ëĿ¼ ê¸°
e at
ìĿ¼ ë³´
ëĨ Ģ
Ġì¡´ìŀ¬ íķĺì§Ģ
ëŀ« ëıĻìķĪ
I I
ìķĦ ëĭĪ
Ġë¶Ģ íĦ°
on d
ìķĦ ë¥´
ìĤ¬ ìļ°
Ġìłķ ë¥ĺ
ìĺ¤ ê³ł
ĠìŀĪ ê¸°ìĹĲ
ĠìĹ¬ ìĻķ
ĠN C
ĠìĿ¼ ëıĦ
ìĹŃ ìĹĲ
Ġê´Ģ ê°Ŀ
ĠìĤ¬ìļ© íķĺìĹ¬
ëħ¸ ê°Ģ
ĠìºĲë¦ŃíĦ° ë¡ľ
Ġì§ĢëĤĺ ì¹ĺê²Į
ê³¼ ëıĦ
Ġë§ī ê¸°
Ġê·¸ê²ĥ ìĿ´
ëĮĢ ìĥģ
ĠìłĦìŁģ ìĿĦ
Ð ¾
ëģ Ŀ
ĠìĤ¼ êµŃ
ĠìĿ´ìĬ¬ ëŀĮ
Ġë³´ ë©°
ĠìĹĨ ìľ¼ëĭĪ
Ġíķľ íĻĶ
ĠëĮĢ ëŀµ
ĠìĥĿê°ģ íķĺê³ł
Ġë²ł ìĬ¤íĬ¸
ĠíĹ¤ ëĵľ
ĠìķĦ ìī½
Ġê¹Ģ ìĺģ
Ġì½Ķ ëĵľ
ìŀĦ ìĬ¤
ëĵľ ëŁ¬
ĠìķĦë²Ħ ì§Ģê°Ģ
ĠíĹ¤ ìĸ´
ë¡ Ģë¡ľ
Ġìī½ ëĭ¤
ìŀĲ ë§ĪìŀĲ
Ġë§ĪìĿ´ íģ´
ë¥´ ì§Ģ
ìłķ ì¹ĺ
ĠìĬ¤íĤ¬ ìĿ´
ĠìĿ´ìª½ ìĿĢ
êµĲ ë¥¼
ĠìĤ¬ ìłķ
ìľ¼ ë¡ł
ë¦° ìĿĺ
ìķĦ ëĬĶ
ìĿ´ìĹĪëĭ¤ ê³ł
Ġê²ĥìĿ´ ê³ł
å¤ ©
O P
ĠëĤĺ ë£¨
Ġëĭ¤ ë£¬
Ġê¶Į ì´Ŀ
ìĭ¤ ìłĲ
ë¹Ħ ëĶĶìĺ¤
ĠìķĮ íĮĮ
Ġìį¨ ìĦľ
Ġíļ¨ê³¼ ëĬĶ
Ġê¸° ìĸ´
Ġìĸ¸ìłľ ëĤĺ
å ĭ
ĠìĦ¸ê³Ħ ìĿĺ
ìľ¼ ëł¤ê³ł
Ġë¹ Ĺ
ìĺĪ ìĪł
Ġíķľ ëį°
Ġê² ī
ëĶĶ ë¡ľ
ìŀĪ ê³ł
Ġëĵ¤ìĸ´ ê°Ħëĭ¤
R A
Ġ7 5
ĠíĮ¬ ëĵ¤ìĿĢ
Ġ4 8
Ġëª¨ëĳĲ ê°Ģ
ĠìĿ´ ì£¼
âĢ¦ âĢ¦
m argin
ëĭ¹ íķ´
êµĲ íļĮ
Ġëª¨ ìĹ¬
Ġê³ł ìļ©
ĠíĮĲíĥĢ ì§Ģ
ĠìĥģíĻ© ìĿ´ëĭ¤
å Į
ĠìĺĪ ìĻ¸
Ġê³µê²© ìĹĲ
Ġëħ¸ íĬ¸
ìłķ íĻķ
ĠìĦ± ìłģìĿĦ
íķĺê¸° ëĬĶ
Ġì¤ĳ ìĹĲìĦľëĬĶ
ĠìĹĨ ìľ¼ë©´
Ġì²« ë²Īì§¸
ë²Ħ ëł¤
Ġì£¼ ìłĦ
Ġì¶ľ íĺĦ
Ġë°ĿíĺĢ ì¡Įëĭ¤
ìĭ¬ ìľ¼ë¡ľ
íıī ìĸĳ
ìŀĲ ê³ł
M A
ĠìĪĺ ìĨ¡
Ġíĺĳ ë°ķ
Ġ ;
ĠìĿ´ ìĦ±
ìĤ¬ ëĭ¨
Ġë¦¬ ë©ĶìĿ´
ëĵľ ë¦½
ëĵł ê°Ģ
ëĭ¤ëĭĪ ëĬĶ
ĠíĮ Ŀ
Ġì§Ħ ìłķíķľ
ĠëĤ´ êµ¬
ĠìĿ´ ìŀ¬
6 5
Ġíķ «
ìĿ´ ëıĻ
ĠìĿĺë¯¸ íķľëĭ¤
ĠëĤ´ ìĿĺ
ĠëĮĢ íĻĶë¥¼
ĠìłĢ ìŀ¥
Ġê·¸ëŁ¼ ìĹĲëıĦ
Ġìĭ¤ ëł¥ìĿĦ
Ġê°Ģ ëĵľ
ìĨĮ íķľ
Ġì§Ħ ì§Ģ
íĽĦ ìĹĲ
ä ¿
ĠìŀĲ ê°Ģ
íİ¸ ìĹĲìĦľ
Ġìŀħ ëł¥
íĻĺ ìĿ´
Ġë¶Ļ ìĿĢ
ĠìķĦëĭĪ ëĥĲëĬĶ
Ġìĸĳ ìĤ°
ìĬ¤íĬ¸ ê°Ģ
Ġê·¼ ìľ¡
ĠìĿ´ë£¨ìĸ´ ì§Ħ
ĠíĮĮíĬ¸ ëĦĪ
ĳ ¼
ìĽĶ ìĹĲëĬĶ
ê² Ł
ìĺĪ ë¥¼
ìķĦ ìķ¼
ĠëŁ° ëįĺ
Ġë©Ķ ìĭľ
ĠìĿ´ ì¤ĳ
ĠëĲĺ ìĸ´ìĦľ
ĠìĬ¤íĬľ ëĶĶìĺ¤
ĠìĦ± ë¦½
ĠìĭĿ ë¯¼
ĠìĹĳ ìĬ¤
Ġì£¼ë³Ģ ìĹĲ
ë³´ ê¸°
ĠìĿĺ ë£Į
íĪ¬ ê°Ī
Ġíĥ± ì»¤
Ł ³
íĥĢ ì¹´
ĠìłĦ ì§ģ
ĠëĤĺìĻĢ ìĦľ
ĠìĿ´ ëĤł
ĠìµľíĽĦ ìĿĺ
Ġê³µê°ľ ëĲľ
à ¸
ĠëĮĢ ì²ĺ
Ġìĥģ íĺ¸
ĠíĻľ ìĦ±
ìľł ë¥¼
Ġì²ĺ ë²Į
Ġëĭ¨ìĪľ íķľ
ëĮĢ ìĤ¬
Ġë¶ģ ë¯¸
Ġëĭ¤ë£¨ ëĬĶ
Ġê·¸ ë¡ľ
p er
ĠìĹĨ ëĬĶëį°
ĠëģĮ ê³ł
Ġê·Ģ ìĹ¬
ëĶ ±
Ġë¬¸ íĹĮ
ëĦ¤ ìĿ´
ëĭ¹ íķľëĭ¤
ĠìľĦíĹĺ íķľ
Ġì«ĵ ìķĦ
ĠëĤĺíĥĢ ëĤľ
Ġë³´ ìķĪ
ĠìĥĿê°ģ ìĿ´
ë³ į
ëĲĺìĹĪëĭ¤ ê³ł
Ġêµ° ìĿ¸
ĠëģĮ ëł¤
ìĹ° ìĿĦ
Ġíķĺ ëĭĪ
Ġë²Ħ ë¦¬ê³ł
Ġê°Ģ ê³ł
Ġíķ¨ ìłķ
Ĺ ëĤł
ĠìłĦ íĺķ
Ġìłķì¹ĺ ìĿ¸
ãģ Ĭ
ëĲĺ ì§Ģë§Į
íĿ Ķ
ìĽĶ ëĵľ
ë§Įíģ¼ ìĿĢ
ëŁŃ ìĭľ
Ġë§Ĳ íķĺë©´
Ġë¹ µ
ãĥ¼ ãĥ
Ġë³´ ìĿ¸
Ġë¬´ ë¦
4 3
Ġë£¨ íĬ¸
ĠëĨĴ ìĿ´
Ġíİ ł
íĨł ëĬĶ
ë¥ĺ ìĿĺ
ìĸ´ ë¦¬
o h
è ª
íİĺ ìĿ´
ĠìĻ¸ ìĹĲëĬĶ
ìĦĿ ìĿĢ
ĠìĦ¤ ìłķìĿ´
ĠìĹĲ ìĦľ
íķ´ìĦľ ëĬĶ
ĠìĪĺ ìĤ¬
ëĲĺìĹĪ ìĿĦ
ì¨Į ëĵł
Ġì§Ģ ìĸ´
ë¬¼ ìĹĲ
Ġì¤ĳ êµŃìĿĺ
ĠM C
Ġë°ĽìķĦ ëĵ¤ìĿ´
Ġì§ĢìĹŃ ìĹĲìĦľ
B A
Ġíĺ¸ íħĶ
Ġìĭ¬ ë¦¬
ĠíĮĲ ìłķ
íĥĢ ìĻĢ
éģ ĵ
ìĭł ìľ¼ë¡ľ
ìĨĮ ëĬĶ
ĠíļĮ ìŀ¥
Ġì§ĢìĹŃ ìĿĦ
ìĬ¬ ëŁ¬
ĠëłĪ ìĺ¤
ĠìłĦ ìĽĲ
ĠíĨµ ìłľ
ëħ¸ ìĿĺ
Ġê° ĩ
ëĵ¤ê³¼ ëĬĶ
ë°© ìĸ´
Ġë§İ ìķĦìĦľ
ìĨĮ ë¡ľ
ëĭ¤ ë³´ëĭĪ
ìŀĲ ì¹ĺ
ìŀĳ ìĿ´
ëıĦ ë¥´
Ġì§ģ ìĽĲ
ĠëĦ¤ ê°Ģ
íĨµ ìĿĦ
ĠëĮĢ íķŃ
Ġê°ķ ìłľë¡ľ
ĠìłĪ ë§Ŀ
Ġì°© ê°ģ
ì¸ł ìĿĺ
ìĭ¤ ë¡ľ
8 8
Ġìĭľ ì¼ľ
Ġê°Ĳ ìĭľ
Ġìŀ ¦
Ġê´Ģê³Ħ ë¡ľ
ĠìĦ ¹
ë¡ł ìĿĺ
ĠëĬĲëĤĮ ìĿ´
Ġë¸Ķ ë¡Ŀ
Ġì²´ ëł¥ìĿĦ
ĠìĿĺ ë¢°
Ġë¬¸ íķĻ
Ġìŀ¡ ìĿĦ
íĮĢ ìĿ´
ìŀ¬ ê°Ģ
o st
ĠìĤ¬ìļ© íķ´
Ġì£¼ ìĹĪëĭ¤
Ġêµ¬ìĦ± ëĲĺìĸ´
Ġë³´ ìĿ¼
ĠíĴĢ ìĸ´
ĠìĦ±ê²© ìĿ´
Ġì´Ŀ ìĿĦ
' (
ê³¡ ìĿĦ
êµ° ìľ¼ë¡ľ
Ġê³ł ëĵ±
ĠíĬĢ ìĸ´ëĤĺ
Ġìłķ ì§Ģ
ĠíĮĮìĿ¼ ëŁ¿
Ġë§ĪìĿ´ ëĦĪ
è Ī
ìĹħ ìĿ´
Ġë³¸ ìĦł
Ġìĺ¤ ëŀ«ëıĻìķĪ
ëĭ¤ ìĿĺ
Ġë§Ĳ ë¡ľ
ĠìĺĪ ë¹Ħ
Ġëº ı
Ġìŀĥ ìĿĢ
íļĮ ë§Ĳ
ê¸ Ģë¡ľ
i le
Ġë²Ħ ëł¤
íİ Ģ
Ġì§Ģê¸Ī ìĿĺ
ë¦¼ ìĿĦ
íķĺëł¤ ë©´
Ġê°Ģ ë³į
Ġíİ Ģ
ĠìŀĲìĭł ëıĦ
Ġìĵ° ê¸°
Ġêµ¬ ë©į
Ġê¹¨ ëĭ«
ĠìĨĮ ìĪĺ
Ġëĭ¤ ë¦¬
Ġê°Ĳ ìłķ
ĠìķĬëĬĶ ëĭ¤ëĬĶ
Ġë°ĺìĿĳ ìĿ´
ĠíĶĮ ëŀ«
Ġë ¼Ī
Ġìĸ´ë¦° ìĿ´
or ld
ĠìĪĺ ì¹ĺ
ĠìķĦ ë¹ł
ĠìłĦ íĻĶ
ĠìĹĨ ëįĺ
Ġìĥģ íĸ¥
íĸĪ ìĬµëĭĪëĭ¤
ĠíĺĦ ì§Ģ
ê·¸ ëĿ¼
ĠìłĢ ëħģ
Ġìĸ´ì© Į
ĠëĤĺ ë¥¼
Ġë§Īë²ķ ìĿĦ
ĠëĬ¥ëł¥ ìĿĢ
Ġê´Ģ ìĭ¬ìĿ´
ìĥī ìľ¼ë¡ľ
íķĺê³ł ìŀĲ
Ġì¹¨ ê³µ
ìĺ µ
Ġìłķì¹ĺ ìłģ
ëĵľ ëłĪ
ì¿ ¼
ĠíĶĦ ë¦°
ĠìĿ´ëģĮ ê³ł
Ġëĵ¤ ìĿ´
ëħ ¹
P U
ìĹŃ ìĿĺ
Ġíķľ ê¸Ģ
Ġê²½ ê¸°ëĬĶ
ĠìĻ¸ ë¶Ģ
ĠìĿ¼ìľ¼ íĤ¤
ë¦¬ íı¬
ĠëıĻ ëĦ¤
ĠìķĦ ìĭľìķĪ
Ġíķĺ ìĪĺ
ãĤ ı
ĠìłķëıĦ ëĭ¤
Ġìłģ ëĮĢ
Ġìŀ¥ ìĭĿ
ĠìĿ´ìłĦ ìĿĺ
Ġê¹Į ëĭ¤
â ĳ
ĠìĨĮíĶĦíĬ¸ ìĽ¨ìĸ´
Ġê²°ê³¼ ë¥¼
ëħ¸ ìļ°
ëĭ¹ ìĿĢ
E FA
íķĺëĬĶ ê²Į
Ġìļ° ìĪĺ
Ġì½ľ ëĿ¼
Ġëª¨ ë¦¬
íĽĦ ìĿĺ
Ġë³´ ìĿ´ì§Ģë§Į
ĠìłĦ ì²ł
ë¹Ħ íĬ¸
ĠëĤ ¼
Ġìŀł ìĪĺ
Ġìħ Ķ
Ġê°Ī ìķĦ
ìĸ´ë²Ħ ë¦°
Ġë¹ ļ
ãĤ ģ
Ġì¤Ģ ìļ°ìĬ¹
e v
ĠìĹĲ ëĵľ
ĠìłĦ ëł¥
Ġëļ ľ
ìķĺ ìľ¼ë©°
Ġê²° íķ©
ĠìŀĪëĭ¤ ê°Ģ
Ġì£¼ ê¸°
ĠíĸĪëĭ¤ ëĬĶ
ëį° ëĭ¤
ĠF A
Ġì§ĢìĽĲ ìĿĦ
Ġê·¼ ëį°
ĠìŀĲ ë§¤
ĠëĤ´ ëĨĵ
Ġì¦ Ī
Ġíķľ ëıĻìķĪ
ì¡Į ìľ¼ë©°
ë¬´ ìŀ¥
199 9
ì¤ĺ ìķ¼
ac t
êµ¬ ëł¤
ê¸Ī ìĿ´
ìĺģ ìĿĺ
íĨµ ìĭł
ëĭ¨ ì²´
Ġë§ŀ ëĭ¤
è ĩ
Ġê° Ķëĭ¤
ĠíĨł ëª¨
Ġë§Ī ì¸ł
Ġì§Ģ ëĤ´
ĠëĲĺìĹĪëĭ¤ ê³ł
N S
ĠíıŃ ì£¼
íģ´ ëŁ½
ëŁ¬ ìĭľìķĦ
al ign
ê·¼ íĺľ
ĠìĹĨ ìĹĪ
Ġìłĳ ì´ī
Ġê±°ê¸° ëĭ¤
ĠìŀĲìĿ´ ìĸ¸
Ġíĥľ ìĸ´ëĤĺ
ë¡ľ ë´ĩ
Ġê³ °
ìŀĳ ìĿĢ
Ġì»¤ íĶĮ
ëľ »
ê³ł ê¸°
ìĺģ ìĽħ
ëŁī ìľ¼ë¡ľ
Ġë§ĪìĿĮ ìĿ´
íĮĮ ê°Ģ
Ġì°¨ ëĭ¨
ìķĺ ëĭ¤ëĬĶ
Ġíķĺ íķĦ
ĠìĦľìļ¸ íĬ¹ë³Ħìĭľ
ì²´ ìľ¡
ìĭľíĤ¤ ê¸°
ĠíĮ¬ ëį¤
| |
Ġê²ĥ ë§Į
íķľ ìĿĦ
íĭ° ëĤĺ
ë¡ľ ë§Ī
íĺĳ íļĮ
is h
ì£¼ ìļĶ
ê²ł ì§Ģ
ĠìŀĳíĴĪ ìĿĺ
Ġë¹ ¡
Ġê°Ĳ ìĺ¥
e b
Ġê·ľ ì¹Ļ
ë» Ĳ
i o
m an
ĠìĦ¸ ìĽĶ
ĠíĮĮ ìĿ´ìĸ´
Ġíĳ¸ ë¥¸
ì¡°ì°¨ ëıĦ
ìĭĿ ìĹĲ
Ġ198 8
i b
Ġê°ķ íķĺê²Į
ĠëĮĢ ìĥģìĿ´
ĠìĿ´ìĸ´ ì§ĢëĬĶ
Ġëıħ ìŀĲ
Ġíŀĺ ìľ¼ë¡ľ
Ġê°Ĳ ìĤ¬
Ġìĭ¸ ìļ¸
ĠìłķíĻķ íķľ
Ġë¶ĦìľĦ ê¸°
Ġê²½ íĸ¥ìĿ´
Ġìĭł ìĦ±
Ġì» ·
ê¿ Ī
Ġ197 0
Ġê´Ģ íķł
Ġì°½ ì¡°
Ġìŀ¥ ìĪĺ
ĠìķĦ ë¨¸
Ġë©Ķ ì¹´
Ġëĺĳ ê°Ļ
Ġë°ĶëĢ Ĳ
ãĤ ·
ĠìĪľ ìĪĺ
ĠU n
ĠìĦ¸ ìĥģìĿĦ
Ġëĭ¨ ê³Ħ
Ġì» µ
ĠìłĦ ìĭľ
Ġìĺ¬ ë¦°
Ġì£½ ìĿĮìĿĦ
Ġê²½ ë¹Ħ
Ġê·¹ ë³µ
ĠíķĦ ëĵľ
Ġë¬´ ëłµ
R E
ĠìĤ¬ìļ© íķĺì§Ģ
ëĿ¼ ìĹĺ
ëĮĢ êµ¬
Ġê¸°ìĪł ìĿ´
ì¢ Ģ
8 5
æ Ħ
ĠìľĮ ë¦¬ìĹĦ
ìŀ¬ ë¡ľ
Ġë³´ ë¬¼
ic h
íĬ¸ ë¦Ń
Ġìŀ¬ íĮĲ
ar y
ìĸ´ ëĤł
ìķĦ ìķĦ
Ġëĭ¹ íķ´
ìĦĿ ìĿĺ
ĠíĶĮ ëłĪ
Ġíģ¬ë¡ľ ìĬ¤
ĠìĥĿê°ģ ë³´ëĭ¤
199 8
íĤ ·
ĠìłĦ ë©´
Ġìĥ ·
a ve
Ġë§ŀ ìĿĢ
Ġìľł ëĮĢ
ĠìĤ¬ ê±°ë¦¬
ĠìłĦ íķ´
ëĲľ ëĭ¤ëĬĶ
ĠëĮĢ ìĤ¬ë¥¼
Ġë°© ì¶ľ
ĠìĿ´ìĥģ ìľ¼ë¡ľ
Ġ3 7
ĠìĹ¬ ê°Ŀ
ìłĦ ê³¼
Ġ ãħ
ì¢ħ ìĿĦ
Ġê³ł ìĥĿ
ëłĪìĿ´ íĦ°
Ġë§Ī ë¦¬ìĺ¤
ì£¼ ì°¨
Ġì£½ ìĿ¸
ĠìķĦëĭĪ ëĿ¼ê³ł
ìĸ´ ëĸ
ĠìĻ¸ ê³Ħ
ê°Ģ ìŀ¥
Ġë§Į ëĤ¬
Ġë°©ë²ķ ìĿĢ
Ġë§ŀ ê²Į
Ġì¤ ĺ
ĠìĿ´ ìĭľ
ìķĪ ìĹĲ
ìłĦ ìĦ¤
ĠëĨį êµ¬
íĪ¬ ë¥¼
Ġì¤ĳ ê³Ħ
Ġíı¬ íĥĳ
ĠìĿ¼ ìłľ
ĠìĬ¤ íĭ°
Ġë§Ī ëıĦ
Ġê²Ģ ì°°
ì½Ķ ìĻĢ
íĺĦ ëĮĢ
9 6
Ġê¹ ¨ìĸ´
Ġìĺ· ìĿĦ
Ġë§Ī íģ¬
ĠìĦł ì¶ľ
å £
ë ½
Ġë°ľë§¤ ëĲĺìĹĪëĭ¤
ë¹ ħ
ìĿµ ìĿĦ
ëªħ ìĹĲ
ĠìľĦì¹ĺ íķ´
Ġê³µ íĻĶ
ê²Į ìĿ´
Ġìĭł ê³ł
ĠìķĦëĤĺ ìļ´
ç Ļ
ĠìĹŃìĤ¬ ìĥģ
a w
ĠíĮĮìĿ´ ëĦĲ
Ġìŀ¥ë©´ ìĿĦ
ìĭ¬ íķľ
ê°Ģ ì¡±
ac h
ĠìĿ´ ê¸¸
íĻĶ ìĻĢ
ëĭĪ ìĻĢ
ìĦľ ìĹĲ
ĠíĬ¹ìĿ´ íķľ
ĠìĪĺ ìĭŃ
Ġê°ľ ìŀħ
ìĺĢëĭ¤ ëĬĶ
ê²½ ìĿĺ
ĠìĺĪ ìĦł
Ġìį ©
ìĿ¸ ì§ĢëĬĶ
Ġìĸ´ ëĵľ
ë³ ĢìĿ´
ĠìļĶ ê´´
ì½Ķ ë¥¼
Ġì²Ń ìĨĮëħĦ
Ġì°¸ ìĦĿ
ĠëıĻ ìĭľ
ĠìĬ¹ ë¶Ģ
Ġë°ķ ìłķ
Ġëĭ «
ĠA I
Ġë¹ł ë¥´
ĠêµĲ íļĮ
ìķ¼ ë¥¼
Ġê±´ êµŃ
Ġë Ĥ¬
ĠìĤ¬ëŀĳ ìĿĦ
Ġ j
Ġb y
ĠíĬ ľ
ëħ Ķ
ĠìĤ¬ëŀĮ ëĵ¤ìĹĲê²Į
ìĺĢ ê¸°
Ġìłķ ë³µ
Ġì¿ł íĤ¤
Ġë¶Ģ ë¬¸
ì© į
ĠìħĪ ìĿ´ëĭ¤
ĠëĤĺëĪ ł
ĠíĮĮ ëĿ¼
ê¸° ë¡Ŀ
Ġì°¨ ëĿ¼ë¦¬
íĻĺ ìĿĦ
ĠíĮ¬ ëĵ¤ìĿĺ
å ½
ê¸° ëıĻ
ĠëįĶ ëįĶìļ±
Ġë¬´ ëį¤
á Ħ
Ġì°¾ ëĬĶ
ëħ¸ ìĬ¤
Ġíķľ ë§Ī
ĠëĤ´ ìĦ¸
ĠìĦ¸ê³Ħ ë¥¼
ê²Į ëĭ¤ê°Ģ
ĠíĹĮ ë²ķ
íĻĶ íķľ
ĠìĹŃ ìĿĦ
íı¬ ê°Ģ
ë§Ŀ ìĿĦ
Ġê°ĢëĬ¥ íķĺë©°
Ġìĸ´ëĶĶê¹Įì§Ģ ëĤĺ
íķĺ ê°Ģ
Ġìŀĥ ê³ł
Ġíķĺ ê³Ħ
ĠìŀĪìĹĪ ê¸°
ĠìĤ¬ìļ© ëĲĺëĬĶ
ĠS S
Ġíķ© ìĦ±
ĠìĤ¬ ì¿ł
ĠëĶĶ ë²Ħ
ìĤ° ìĿĺ
Ġëĭ¬ ê³ł
ìļĶ ìĭľ
Ġìłķ ëł¹
ì¶ ¤
ìĿ´ ê¸°ìĹĲ
Ġëĵ¤ìĸ´ ê°Ī
íį¼ ìĬ¤
ĠìĿĢ íĸī
Ġëķ Ĳ
ç «
Ġ4 00
ìĿ¼ ëĵľ
Ġíĺķ ìĤ¬
Ġì¸ µ
ĠíĻľ ë°ľ
Ġë§Ĳ íķĺë©°
Ġë©Ģ ì©¡
Ġë³´ ê²Į
Ġë°© ìĹĲ
ë¯¸ íĦ°
ĠìĭĿ ë¬¼
ĠíĿĺ ëŁ¬
Ġ1 20
Ġë³´ìĹ¬ì£¼ ë©°
ĠëĤĺ ìķĦ
ë³´ ë³ĳ
? '
Ġìĺ¤ëĬĺ ëĤł
ãĢĭ ,
ì°¨ ëĬĶ
Ġìłģ ìĿĳ
o ok
Ġs h
ĠìłĦ ê³µ
Ġyou r
ĠìłĦ ìĦ±
íķĻ ìłģ
Ġëĭ¤ ìĪĺìĿĺ
ĠìĿ¼ ì°į
Ġëª¨ ë¥¸
Ġíĸ¥ ìĥģ
ĠìĿ¼ ìĭľ
ëĦ ¨
ĠìĿ´ëģ ĦëĬĶ
ĠìĿ¸íĦ°ë·° ìĹĲìĦľ
U N
Ġ198 9
ĠìĬ¤íĬ¸ ë¦¬
ë¯¸ ëĦ¤
Ġê¹ ľ
ĠëĮĢë¯¸ ì§Ģë¥¼
Ġêµ¬ ì²´
Ġë©Ī ì¶Ķ
ëŀĢ ìĿĺ
Ġìķ ±
Ġì¶ľ ë§Ī
ĠíĶĦë¡ľëĵĢ ìĦľ
ĠêµĲ ìŀ¥
ĠëıħìĿ¼ ìĿĺ
ĠìłĦ ìĹĲëĬĶ
Ġë¬´ìĹĩ ë³´ëĭ¤
Ġìķ µ
Ġìŀ¥ êµ°
ĠìĦľ ìĸĳ
ë ĺ
ì± ł
a h
Ġìķŀ ëĳĲê³ł
http s
íĬ¸ ë§¨
ìĭ¤ ìĿĺ
Ġì´Ī ì°½
ik e
Ġêµ° ì£¼
Ġìľł ì¹ĺ
ìĦ¤ ìĿĦ
ĠìĿĺ ë¬´
Ġê²ĥ ìĿ¸ì§Ģ
Ġë§Ī ë¦¬ìķĦ
Ġê´Ģ ìĭ¬
Ġë§Īì¹¨ ëĤ´
S BS
ĠìĨį íķĺëĬĶ
Ġë¯¸ ì¸ł
Ġ198 7
ëĵ± ìĿĺ
Ġê°ķ íķĺëĭ¤
Ġìĭ¤ ëł¥ìĿ´
Ġì¼ĢìĿ´ ìĬ¤
ĠíļĮ ìĽĲ
ĠìŀĪìĸ´ ëıĦ
Ġê³µ êµ°
ê²½ ìĹĲ
Ġìĺ¤ ìĤ¬ì¹´
Ġìµľ ëĭ¤
Ġìµľê°ķ ìĿĺ
Į ë¦°
Ġë³Ħ ê°ľë¡ľ
Ġë§İìĿĢ ëį°
Ġëª©ìĨĮ ë¦¬
ĠíĽĮë¥Ń íķľ
Ġê°ģ ë³¸
ëĬĲ ëĿ¼
ë³´ ë¡ľ
íĨł ìĻĢ
is s
ĠëĿ¼ìĿ´ ëįĶ
Ġìĸ´ ëĳĲ
ĠìĤ¬ìļ© ëĲľëĭ¤
Ġëĭ¤ ë¥¼
ê³ ±
Ġíıī ìĿ´
Ġìłľ ìĸ´
Ġë¬´ ê¸°ë¡ľ
Ġíļ ¡
Ġë¶ĦìľĦ ê¸°ë¥¼
Ġíķľëĭ¤ ë©´
Ġê¹Ģ ìłķ
ìĹĲ ëĭ¤
Ġë¹Ħ ìļ©
ĠM P
Ġë³Ħ ëĭ¤ë¥¸
ë©´ ìĹĲìĦľ
ĠëĤĺë¦Ħ ëĮĢë¡ľ
ë§ī ìĿĦ
Ġíķľ ê³Ħ
íİ ´
O M
ĠìĿ¼ë³¸ ìĸ´
ĠìķĦë¦Ħ ëĭ¤ìļ´
ë°© íĸ¥
ëĵľëŀĺ ê³¤
ìłĦ ëĮĢ
Ġê°Ī ìĪĺë¡Ŀ
Ġë¹Ħ ìĥģ
Ġì£¼ ë§Ĳ
Ġê½ Ĥ
ĠìľĦ ì£¼ë¡ľ
u g
Ġìŀ¥ êµĲ
Ġíı¬ ìĬ¤íĬ¸
Ġê³¼ ìłķìĿĦ
ä¸ ī
ë¹Ħ ë¡ľ
ĠìĬ¤ ë¯¸
ìľ¼ ëŁ¬
ìģ ľ
Ġê°ĸ ì¶ĺ
Ġê°Ģ ìĨį
Ġë§Ī êµ¬
ĠìĨĮ ì´Ŀ
Ð ¸
ì¡Į ì§Ģë§Į
Ġìĺ¤ ìłĦ
ĠíĶ¼ ë¥¼
ĠíķĻ ìĽĲ
ìĪĺ ìĥģ
Ġìł ¤
Ġê°Ļ ìķĦ
êµ¬ ìĻĢ
ìĤ¬ ê¸°
ë§Ī íģ¬
ìĹ £
ĠìĨĮ ìĭĿìĿĦ
Ġëıħ íĬ¹
ëħĦ ìĥĿ
ĠìłĲ ìĿ´ëĭ¤
Ġìĭ¸ ìĽĢìĿĦ
Ġë°ĺ ê²©
ë Ŀ
ë® ¬
íĶ¼ ë¥¼
Ġë¬´ ìłģ
Ġë§ĮëĤĺ ê²Į
ìłĦ ë¬¸
ìŀĲ ìĿ´ëĭ¤
ĠìĬ¤ ì¹´ìĿ´
Ġ5 5
Ġìĺ¤ íķ´
Ġì£½ ìĿ¼
ëł¸ ëįĺ
ëıĦ ìĹĲìĦľ
Ġê³µê²© íķĺëĬĶ
ìĦ± ëĬ¥
ë²Ī ìĿĦ
Ġê³µê°ľ ëĲĺìĹĪëĭ¤
ĠìĿ´ ë¯¼
Ġëľ ¯
Ġê°ĢëĬ¥ ìĦ±ëıĦ
Ġë³´ ì§Ģ
ĠìĿĺë¯¸ ë¡ľ
ê³ ½
Ġì ¾Į
Ġìı ´
Ġíķľ ì°¸
Ġì² ¨
ĠíŀĪ ëį°
Ġì¹Ń ì°¬
ìŀĪ ìĸ´
Ġë³´ ê´Ģ
Ġìļ¸ íĬ¸ëĿ¼
ìĬ¤ íĶ¼
ĠìĹ° ëĿ½
ì§ĳ ìĿĦ
Ġê²ĥìĿ´ ë©°
ê¸° ê¹Įì§Ģ
ĠìľłìĤ¬ íķľ
ì¡° ìĤ¬
ĠíĥĢ ì¼Ģ
ìĿ´ìĹĪ ìľ¼ë©°
ë³ĳ ìĽĲ
ĠìŀĪëĬĶ ì§Ģ
ë°Ķ ëŀĮ
Ġìŀ¡ íĺĢ
Ġê²½ ëł¥
êµ¬ ì¹ĺ
ĠìŀĲë¦¬ ìĹĲìĦľ
ë³´ ìĿ´
Ġë¶Ģ ìĿ¸
ĠS T
Ġëªħëł¹ ìĿĦ
ĠìĹĨ ìĿĮ
ãĤ Ń
Ġë¶ĦìľĦ ê¸°ê°Ģ
íĭ° ëĵľ
ĠëĤł ê°ľ
Ġëľ» ìĿĢ
an ce
ëĲĺìĸ´ ìĦľ
ê·¸ëŀĺ ìĦľ
Ġë§ī ìŀ¥
Ġíķľ íĥĢ
Ġëĭ¥ íĦ°
T h
ĠíĢĦ ë¦¬íĭ°
Ġë¬´ íļ¨
Ġì°¾ìķĦ ê°Ģ
ĠìŀĲ ëĬĶ
Ġë¬¼ ìĿĦ
ĠìĿ´ ì§ĳ
íĮĮ ë¡ľ
ê·¼ ëį°
ĠC C
ìĿ´íĬ¸ ë¥¼
ì¡Į ëĭ¤ê³ł
ìłķ ìĥģ
ĠìĿ¸ê°Ħ ìĿ´
199 0
ĠìŀĲ ìĭĿ
ë¡ľ ìĻĢ
ĠìķĦëĭĪ ëĿ¼ëĬĶ
ëĭ ·
ĠìĦłìĪĺ ëĵ¤ìĿ´
Ġìłķë¶Ģ ëĬĶ
Ġë¶Īê°ĢëĬ¥ íķľ
Ġë²Ħ íĶĦë¥¼
ĠìķĦ íĮĮíĬ¸
ĠìļĶ ì¦ĺ
ë°Ľ ìĿĦ
ĠëĤ¨ ë¶Ģ
ĠìĬ¤ ìĽ¨ëį´
ëªħ ê³¼
ĠíĶĮ ë¡ľ
ëĵ¤ ìĿ¸
ĠëĲĺìĹĪ ëĬĶëį°
ëĭ¹ íķł
ĠìĿ¸ íķĺìĹ¬
ìĺ¤ ëĬĺ
Ġì¹ĺ ëĬĶ
Ġìĭł ë¬¸
ê³łìĨį ëıĦë¡ľ
m ent
Ġë°Ŀ íŀĪ
ĠìĽ¹ íĪ°
Ġì²Ń ëħĦ
ĠíĶĦ ëĿ¼
ê¸ ĭ
íĺ¸ ìĻĢ
ĠëĤĺìģĺ ì§Ģ
ì°¨ ë¡Ģ
p le
ì¦Ī ìĻĢ
Ĩ į
ì¡° ì§ģ
Ġëĵ¤ìĸ´ ìĺ¨
Ġìĭľ ëĭ¬
Ġëĵ¤ ìĿĦ
ìĹĲ ìĿ´
ĠD LC
Ġê°ľ íĺģ
ëŀĢ ëĭ¤
íĮħ ìĿĦ
ëįĶ ëĿ¼
ĠëĤľ ëĭ¤
ìħĺ ìĿĦ
Ġë¸Ķ ë¡ľê·¸
æĸ ĩ
è Ģ
Ġë³´ìľł íķĺê³ł
Ġì¤ĳ ìĿĺ
Ġì§ĵ ìĿĦ
ë¡ł ìĿĢ
ë²ķ ìĿĢ
Ġê²° ì½Ķ
Ġê°Ģ ìķ¼
ĠìĺĪ ê³ł
íĮĢ ìĿĺ
ĠëĮĢë¯¸ ì§Ģ
Ġê¸° ìŀ¬
ĠìĦłìĥĿ ëĭĺ
ĠìľĦ ë°ĺ
Ġë¶Ģ íĴĪ
ë¬ĺ íķľ
Ġìĥģ ìĹħ
Ġë© °
ëĭ¨ ê³¼
ĠìłĲ ìĪĺ
ë°Ľ ëĬĶëĭ¤
Ġíĸī ìľĦ
Ġìłĳ ìĨį
Ġëĭ¤ìĿ´ ìķĦ
ĠìĿ¸ íĺķ
Ġìĸ´ëĸł íķľ
Ġê²½ ê¸°ìĹĲ
ë°Ķ ìĿĺ
ìĿ´ ìłľ
Ġì£Ħ ëĭ¤
ìĿ¼ ëĭ¨
ĠëĬ Ķ
Ġë¯¿ ê³ł
íķĺ ëĿ¼ëĬĶ
Ġì§ĳ ìĹĲìĦľ
Ġêµ¬ ìĤ¬
ë²Ī ìĿ´
Ġìŀ¡ ì§Ģ
Ġëª¨ìĸĳ ìĿ´ëĭ¤
Ġëĳĺ ì§¸
æ ł
ĠëŃ ī
Ġê°Ģë¬¸ ìĿĺ
âĢ ľ
Ġê·¸ ëĵ¤ìĿĦ
ê¹ ¥
íķĺìĺĢ ëĬĶëį°
ĠíĿ¥ íĸī
ìĿ´ ëłĩê²Į
ĠìĽĲ ì¹Ļ
en s
ìķĦ ëŀĺ
ëĮĢ ìĭł
ĠìķĦëĭĮ ê°Ģ
ĠíĹ ĺ
ĠëĤĺ ê°ĢëĬĶ
íı¬ ë¡ľ
Ġth at
Ġìĭ¶ ëĭ¤
âĶ Ģ
ĠìĿ¸êµ¬ ëĬĶ
Ġë¶Ģ ìŀĦ
ĠìŀĲëıĻ ìľ¼ë¡ľ
Ġê°Ļ ì§Ģë§Į
ë¹Ħ ìĻĢ
ĠìĤ¬ê±´ ìĿĺ
ç ī
ìľł ëĭĽ
Ġë²ł ìĸ´
Ġë³´ ëĦĪìĬ¤
íĽĪ ëł¨
Ġë¬´ë¦ İ
ĠëĤĺíĥĢ ëĤľëĭ¤
ìŀ¬ ìĿ¸
Ġë© į
ê³Ħ ìĹ´
íķ´ ì¤Ģëĭ¤
ìłĦ ê¸°
Ġì±Ļ ê²¨
Ġë¦¬ë©ĶìĿ´ íģ¬
Ġìļ° ìĹ°íŀĪ
ìĿ´ ëŁ¬
ĠìĿ´ ë¦¬
ĠìĤ¬ ìļ´ëĵľ
Ŀ ê°Ģ
n ow
Ġì ´Į
.... ..
Ġ he
ĠP D
ĠëĦ ·
ĠìķĦìī¬ ìļ´
Ġìĸ´ ë§Ī
Ġì±Ħ íĥĿ
Ġëĸ¨ìĸ´ ì§Ħëĭ¤
Ġìĭľì¦Į ìĿĦ
Ġì§Ģê¸Ī ëıĦ
ĠP S
Ġê¿Ī ìĿĦ
êµŃ ìĹĲ
O T
ì£¼ ë¯¼
Ġíķł ë¨¸ëĭĪ
ĠìĥĪ ë²½
Ġì£½ ê³ł
Ġë§ŀ ìĦľ
ĠìĿ´ ì§Ģ
ĠìĪĺ ëł¨
ì´Ī ë°ĺ
ë¹ Ĺ
Ġìĸ´ëł¤ ìĽĮ
Ġìŀħ ìĿĦ
ìķĦ ë§Ī
Ġìĺ¬ ë¦¬ëĬĶ
199 6
N A
ìķ½ íķľ
Ġëĭ¤ ëĵ¤
ëĭ¨ ì§Ģ
ĠìĿ¼ ìĥģ
ĠìķĦ ë¦¬
Ġëį° ëĭ¤ê°Ģ
ëĶ §
Ġë§Ī ìĿ¸
Ġê¸° ìļ¸
ĠìĤ¬ íĨł
ĠëĴ¤ ìĹĲìĦľ
ìķ½ ìĿ´
ĠìĿ´ ìłķ
ìĹŃ ëĮĢ
ĠíĹ¤ ìĿ´
Ġê¸°ë¡Ŀ íķĺë©°
Ġë°©ë²ķ ìľ¼ë¡ľ
Ġì» ¸
ëĦĪ ìĿĺ
ĠìŀĲëŀĳ íķľëĭ¤
ĠB GM
ĠíĻķìĿ¸ íķł
Ġì»¤ ë§¨
ìĸ Ħ
Ġëª¨ ë°ĶìĿ¼
ì¸ł ê°Ģ
ĠëĦ£ ê³ł
Ġëªħ ìĿĦ
ĠìĿ¼ ë°©
Ġë¹Ħ ë¡Ģ
ĠìĦ¸ê³Ħ ê´Ģ
Ġë´Ĳ ìķ¼
Ġë¶Ģ ë¥¸
Ġê°Ī ëĿ¼
ĠìķĦ ë°Ķ
ìĿ´ ë²Ī
æ Ģ
i ver
ĠíķĦ ë¦¬
Ġì±Ħ ìĽĮ
Ġíı´ ëŀĢëĵľ
ĠìľłìłĢ ê°Ģ
Ġìłģ íĺĢ
ĠìķĦ ê°Ģ
Ġê°ĲìķĪ íķĺë©´
ëĭĪ ëĬĶ
ĠëĮĢ ë§Į
Ġ9 9
ëŁ¬ ìĿĺ
ìľ¼ë¡ľìĦľ ìĿĺ
ìŀ¥ ê°ĳ
o o
ĠìĿ´ ê±°
ĠìºĲ ìĬ¤íĮħ
ĠíĶĮëŀ« íı¼
ëķĮ ëĬĶ
Ġìĭľìŀĳ ìľ¼ë¡ľ
Ġë¶Ģ ìĪĺ
ĠìĿ¼ë³¸ ìĹĲìĦľ
Ġê·¸ ëĵ¤ìĿ´
Ġíķĺ ìķ¼
ï¼ Ī
ĠíĽĦ ê³Ħ
íİĺ ë¥´
Ġìĸ´ì§Ģ ê°Ħ
Ġê°ķ ëĤ¨
ĠíĥĢìĿ´ ê±°
ë§Ī ì§Ģë§ī
ëĶ ķ
ĠìĦľ ë¶Ģ
ìĽ °
ĠëĤ´ ì§Ģ
ë¬¼ ìĿĢ
ĠìĿ´ìĥģ ìĿĦ
199 7
ĠëĮĢ ì¶©
êµŃ ìĿĢ
ĠìĹ° ìĤ¬
ìļķ ìĿĦ
ê°ľ ìļĶ
ĠìĤ¬ëŀĮ ëĵ¤ëıĦ
ĠìķĦë²Ħ ì§ĢìĿĺ
Ġ é
ĠìłĦ ë©¸
Ġì° Ķ
ĠìĹ° ê´Ģ
Ġë¡ľ ìĬ¤
Ġì¢Į ìļ°
Ġê¹Į ì§Ģ
ĠíĦ° ëľ¨
ĠìĿĢê·¼ íŀĪ
ĠìŀĪìĹĪ ìĿĦ
ìĬ¤íĬ¸ ìĿĺ
Ġìĭ¬ íķĺê²Į
ĠìĤ¬ëĿ¼ ì§Ħ
Ġëħ¸ ë¥´
O C
ìĺ¤ ìĻĢ
Ġë¶Ī ìĿĦ
Ġëª¨ ì¡°ë¦¬
ìĽĲ ìŀĳ
ëĶ ¸
ĠìķĦ ëĵ¤ìĿ´
Ġìĸ´ ë¥¸
ë Ľ°
ĠëĲľ ëĭ¤ê³ł
Ġëĭ¤ìĿĮ ëĤł
ĠëĨĴ ê³ł
ĠĊĠĊ ĠĊĠĊ
ê²ĥ ìľ¼ë¡ľ
Ġë¸Į ë£¨
ĠëĤ¨ ê²¨
ĠC om
ìķĪ ìĿĺ
ĠìĭľìłĪ ìĿĺ
Ġìºł íİĺ
íĥĦ ìĿ´
ĠìĿ´ë£¨ìĸ´ ìł¸
ëĿ¼ìĿ´ ë¸Į
Ġê³¨ ëĵł
ëĭ¤ ëŀĢ
Ġë°ľìĥĿ íķľ
Ġëªħ íĻķ
è »
Ġëľ» ìĿĦ
ë ĩ
Ġëĵľ ëĬĶ
ìĺ¤ ë²Ħ
Ġì§Ģ ëĤĺê°Ģ
Ġë¨¸ ë¬¼
ë°© ìĹĲìĦľ
ê±´ ìĿĦ
Ġìłľ ëıĦ
êµ¬ ë¦¬
th er
Ġë ®
Ġë¹Ħ ìĭ¸
Ġê¹Ģ íĥľ
ĠìłĪ ëĮĢë¡ľ
ìĥī ìĿĺ
Ġìŀ¡ ìĿĢ
ĠìĪĺì¤Ģ ìĿ´ëĭ¤
Ġëħ¸ ë¶Ģ
Ġë¯¸ ìĬ¤
ìĿ¸ ì²ľ
Ġìĵ°ëłĪ ê¸°
ëĦ ¥
Ġê·ľ ëª¨
Ġìŀ¥ ìķħ
íķľ ìĿ´
Ġìķ½ê°Ħ ìĿĺ
ëł¸ ëĭ¤ê³ł
Ġíķĺ ëĿ½
Ġìĸ´ ë¦´
íģĲ ìĸ´
ĠìŀĲë¦¬ ìŀ¡
ĠìłĦ íķ¨
ìĹĶ ëĶ©
ĠìŀĦ ë¬´ë¥¼
ê¸ī ìľ¼ë¡ľ
ĠìŀĲ ê·¹
Ġë²Įìĸ´ ì§Ħ
ìĺĢ ìĿĦ
ĠíĻĺ ìĬ¹
Ġë§Ĳ íķĺê³ł
ĠíļĮ ìĪĺ
µ ¸
ìĥģ ê³¼
Ġê²ĮìŀĦ ìĹĲìĦľ
Ġëĵ¤ ë©´
ĠíķľêµŃ ìĹĲìĦľ
Ġíľĺ ëĳĲ
Ġíķ´ ë³ĳ
Ġê¸°ë¡Ŀ íķľ
íĮ ½
ĠíĶĦ ëĿ¼ìĿ´
ëĤľ ìĿ´
Ġê³¼ê±° ìĿĺ
Ġìº ĺ
Ġëª©ìĨĮ ë¦¬ê°Ģ
ĠC l
Ġìĺ¬ ëŀĲëĭ¤
ë£¨ ëĬĶ
ì¦Ŀ ìĿ´
ëĨ Ĵ
Ġë°Ľ ìľ¼ë©°
Ġê±° ëĵŃ
Ġ3 4
ĠíĶĦëŀĳ ìĬ¤ìĿĺ
ê³µ íķĻ
Ġë¯¸êµŃ ìĹĲìĦľ
íķĺ ë§Ī
ĠìķĮ ê²łì§Ģë§Į
Ġê³ ½
ĠíĽ ĹëĤł
ë¨¹ ê³ł
U S
ĠìŀĳíĴĪ ìĿĦ
ĠìĦ¤ë¦½ ëĲľ
ê°Ģ ìĭľ
ĠìĤ¬ ìĸĳ
ãģ ©
9 7
ĠìĿ´ ì¦Ī
Ġìłķìĭł ìĿĦ
Ġì¢ĭ ê²Į
ĠëłĪë²¨ ìĿ´
ìļ° ìĻĢ
ë³¸ ë¶Ģ
Ġìłķë¶Ģ ìĿĺ
Ġê°ľ ë§ī
ĠíĻĶ ê°Ģ
Ġëĳĺ ìĿĢ
Ġìĭľ ëĮĢìĿĺ
' .
ìŀĲ ìľł
ìķĦ íĮĮíĬ¸
ë°© ìľ¼ë¡ľ
Ġìľ ¨
Ġë°Ķ ê¹¥
ĠíĶĮëłĪìĿ´ ìĺ¤íĶĦ
C V
íķĺ ê²łëĭ¤ê³ł
íķĦ ëĵľ
ì¡Į ëĬĶëį°
Ġê°Ģ ì§ľ
ĠìĪ ¨ìĸ´
ķ íĦ°
ĠíĻĶ ë¥¼
ĠëĦ¤ íĬ¸ìĽĮ
ĠA l
íĤ¤ ìĻĢ
Ġê²½ìļ° ìĹĲ
ĠìľĦì¹ĺ ìĹĲ
ëļ ±
Ġì±ĶíĶ¼ìĸ¸ ìĬ¤
p e
Ġê°ľ ìłķ
ì¡° ë¡ľ
ì§Ī ìĿĺ
ìķĦ ìĻĢ
ì¡Į ìĿĦ
æ Ķ
Ġë¬´ ë°©
ì»¤ ê°Ģ
ë¯¸ ëĤĺ
Ġìĸ¸ê¸ī íķľ
ë´Ĳ ìķ¼
Ġìļ© ìĿĺ
ĠëĤ´ ë³´
ìķłëĭĪ ë©ĶìĿ´ìħĺ
ĠíĻķ ëĮĢ
ê±° ìķ¼
Ġë©Ķ ëī´
íĮĲ ìĹĲìĦľ
ĠìĹ´ ìĩł
a e
ãİ ¡
ĠíĹ Ľ
ĠìłĦ ë¶ĢíĦ°
Ġë§Ī ìĭľ
ìĿ¸ ëĵ¤
ĠëıĻ ë¶Ģ
ĠìĿ´ ë¥¸
Ġë®¤ ì§Ģì»¬
Ġê±° ë¦¬ë¥¼
Ġìĺ¤ ì§ģ
ĠìłģìłĪ íķľ
ĠìķĪ íĭ°
Ġíķľìłķ ìľ¼ë¡ľ
O W
Ġë©Ķ íĥĢ
ìĭł ê³¼
Ġì¶© ê²©ìĿĦ
ë² ħ
ì£¼ ê¸°
ĠL v
Ġëĵ¤ ëł¤
Ġíĺģ ëªħ
ëŁ¬ ëĵľ
ë¡ľìĦľ ëĬĶ
ï¼ ī
Ġìľ Ļ
Ġì§ĳ ìĿĦ
Ġê·¸ëłĩ ëĭ¤
ëħĦ ë§ĮìĹĲ
Ġ at
ĠëĮĢ ìĤ¬ê°Ģ
Ġê°ķ ìļĶ
ë§ģ ìĿ´
Ġìłķ ì²´ë¥¼
íĿ¬ ê°Ģ
ĠëŃ ĺ
ĠíĹĮ íĦ°
Ġìŀĳ ìĤ¬
Ġê°Ħ ë¶Ģ
Ġìłľìŀĳ ëĲľ
ĠíķĻìĥĿ ëĵ¤ìĿ´
Ġê°Ħ íĺ¹
ìĹ° ìĨį
ĠëĪĮ ëŁ¬
Ġë¬¼ ëŁ¬
Ġìľµ íķ©
L E
ê²Ģ ìĿĦ
ãĤ ¿
Ġê°Ĳëıħ ìĿĢ
Ġìŀ¬ íĺĦ
ĠíħĮ ìĬ¤íĬ¸
Ġê³Ħ ê¸°ë¡ľ
ĠìłĦíĺķ ìłģìĿ¸
Ġê¸°ë³¸ ìłģìĿ¸
ëł¬ íķľ
Ð µ
ĠìķĬ ëıĦë¡Ŀ
ì¢ħ ìĿĢ
Ġìŀĳì¤ĳ ìĹĲìĦľ
ĠëŀŃ íĤ¹
íķĺê¸° ê°Ģ
Ġë³´ ëĿ¼
Ġì¶ľ ìŀħ
Ġ le
Ġëª¨ ë¥´ê³ł
Ġë¸Į ë¦¬
ĠìĦ¸ê³Ħ ìĹĲìĦľ
ìĦĿ ìĹĲ
Ġë¯¼ì£¼ ëĭ¹
ë¥ł ìĿĦ
ëĲĺìĹĪëĭ¤ ëĬĶ
re d
ë§Ī ìĻĢ
ĠëĮĦ ìĬ¤
Ġë¶Ģ ëĶ
ìŀĳ íĴĪ
Ġê³µìĭĿ ìłģìľ¼ë¡ľ
ĠìĭľìĬ¤íħľ ìĿĦ
Ġê³³ ìĿĢ
ì§Ģ ëĤĺ
âĺħ âĺħ
Ġì£¼ ë¨¹
ĠëĦ¤ëįľ ëŀĢëĵľ
Ġíķ© ë³ĳ
Ġíŀĺëĵ¤ ìĸ´
Ġìĸ´ëĳł ìĿĺ
ĠìĬ¤ ìĬ¹
é« ĺ
ìķĦ íĶĦë¦¬ì¹´
ĠìĨĮ íĺķ
ĠëĤ´ ë¦¬
ĠíĬ¸ ëŁ¼
Ġì£½ ìĸ´
ĠëĦ ī
ĠëĮĢ ê°ľ
ì§Ī ë¡ľ
Ħ ìĥĪ
ê·¸ ë¥¼
ëŀĳ ìĿ´
ë§Į íĻĶ
ëĭĪ ë¥¼
Ġë¹łìł¸ ëĤĺ
íķ´ ì§Ģê³ł
ĠìĦłìĪĺ ë¡ľ
ç ´
Ġì¼ ľ
Ġë³ĳ ëł¥ìĿĦ
Ġì²´ ê²°
ìĤ¼ êµŃ
Ġë¬´ìĭľ íķĺê³ł
Ġë¬´ ê´Ģ
Ġìĭľ ì¦Ī
ë©Ķ ë¦¬
ê¸ ĢìĿ´
ĠíĻĪëŁ° ìĿĦ
Ġì²ĺ íĺķ
Ġë§Ī ìĻķ
ĠìĿ´ ì¹ĺ
ĠëıĦ ë°ľ
íı¬ ìĿĺ
ĠìĬ¤ë§ĪíĬ¸ íı°
Ġê¹Ģ ì¢ħ
199 5
ìª½ ìĿĢ
ĠìĽĲ ë³¸
ĠëĪĪ ë¬¼ìĿĦ
ĠìĦł ê³ł
Ġê³µ ê³µ
en ce
Ġëĵ±ìŀ¥ íķĺì§Ģ
ì¡° íķ©
ë¬¸ ìĿĢ
Ġë°ľ ìĸ¸ìĿĦ
p t
Ġì°¾ ê¸°
ëĬ ¬
Ġì¤ ¬
ëĿ¼ íģ¬
ê´Ģ ê´ĳ
Ġë©ķ ìĭľì½Ķ
ìĦł ê³¼
ëĭĮ ëĭ¤
ìĭ¬ ì§Ģìĸ´
7 6
Ġê°ľ ë°©
ì§Ħ ìľ¼ë¡ľ
W E
íĶĦ ìĻĢ
ê³µ ìĽĲ
ĠëĤ¨ ë¶ģ
ë°ķ ìĬ¤
æĿ ±
ë¹Ħ ëĵľ
ĠìĿ´ íĥĪ
ãĥ ¬
}} }}
ĠìłĦ ìĿĺ
ĠíĤ ¥
Ġìī ´
Ġì£½ ìĿ´ê³ł
ìĬ¤ íı¬ì¸ł
Ġë°©ìĸ´ ëł¥
Ġë§Įëĵ¤ ê¸°
ĠìŀĪìĹĪëĭ¤ ëĬĶ
ĠìłĦì²´ ë¥¼
ĠëŀŃ íģ¬
a z
ĠëĤ¨ ê¸´
) Â·
Ġì¼ Ī
ìħĶ ëĦĲ
ç ļ
ĠëķĮ ìĹĲ
ĠíĽĦ ìĨĲ
ì² ¼
V D
åĲ Ľ
ìłķ ê³¼
Ġì¢ĭ ìĿĦ
Ġì£½ ëĬĶëĭ¤
ĠM e
Ġê°Ģê²© ìĿ´
Ġìłľ ìŀĦìĬ¤
Ġìļķ ìĿĦ
Ġìĸ¼êµ´ ìĿ´
Ġëĵ¤ìĸ´ ê°Ķ
Ġë¹Ľ ìĿĦ
Ġì¿ł ë¡ľ
ä¸ Ĭ
Ġíģ´ëŀĺ ìĬ¤
íķ ı
ëħĦëĮĢ ìĹĲ
Ġê²ĥ ìĿ¼
ì¹´ ëĿ¼
ĠìĨĲ ìľ¼ë¡ľ
ìĦ¸ ìĬ¤
ëĤĺ ìĿ´íĬ¸
ã Ĩį
ĠìĻĦë²½ íķľ
íĸĪëĭ¤ ë©´
ìĹĲ ê²Ĳ
Ġê¹Ķ ëģĶ
ì²ľ ìĭľ
ë²Į ëłĪ
ì£¼ ìĻĢ
ìľ Ĺ
Ġìĭł ìĿ´
ãĤ «
ĠìķĦìĿ´ ì½ĺ
Ġëĭ¹ íķĺëĬĶ
ĠìĬ¤íĶ¼ ëĵľ
ç ľ
ëĤĺ ìĦľ
Ġìłģ íķ©
Ġë¯¸êµŃ ìĿ¸
ĠìłĦ íĽĦ
Ġê°Ħ ìĭł
Ġíĺķ ìĭĿ
ĠìķĦìĿ´ ë¥¼
ĠM VP
íĥĢ ìļ´
Ġë¹ĦíĮĲ ìĿĦ
ì¸ł ë¥¼
ĠìĤ¬ë§Ŀ íķľ
ĠëĨĢ ëĿ¼
ĠìķĮëłī ìĤ°
ìķĦ ë¬´
Ġëģ Ī
ë°Ķ ëĭ¥
ĠíĨ °
ĠëĤĺ ìĿ´ê°Ģ
Ġë§¤ ëħĦ
Ġì½Ķ ìĸ´
Ġê¸° ìļ©
ì¶ľ ì²ĺ
Ġ198 6
Ġìĭł ë¶Ħ
Ġë¯¸ ëĶĶìĸ´
åľ ĭ
Ġìłľ ìłķ
ìľ¨ ìĿĢ
ìĥĿ ìĿĺ
Ġëª° ëĿ¼ëıĦ
ĠìĿ¼ ìĽĲ
Ġê¸° ë³ĳ
Ġì§Ģ ìĭĿ
Ġë°© ìĤ¬
Ġë¯¸ ëĤĺ
íķĺ ë¥¼
ĠëĮĢ ìĽĲ
ëłĪ ëĵľ
Ġë³ĳ ëł¥
ì£¼ ìŀĲ
ĠìĿ´ìļ© íķ´ìĦľ
ë¸Į ë¥¼
Ġêµ° ëĭ¨
ĠV S
ìĶ¨ ëĬĶ
ëĤĺ ê³ł
Ġëı ĭ
Ġë²Ħ ëł¸ëĭ¤
ëĮĢ ìĽĲ
ĠìĻ ł
ĠëĤĺìĺ¤ ê¸°
Ġìľł ìłĦ
Ġìĺģ ìĹħ
Ġë¶Ģ ìĦľ
ĠìĺĪìłķ ìĿ´ëĭ¤
Ġì§Ģ íĺķ
Ġì¢ĭ ê³ł
ç µ
Ġì¹´ ë¥¼
ìŀĲ ë£Į
ĠëĦ Į
ĠíĶ¼ìķĦ ëħ¸
ê°ģ ìĿ´
Ġëª° ëĿ½
Ġì°į ìĸ´
Ġê·Ģ ì°®
ĠìĿ´ ìĿĢ
ĠíĻĺ ìĺģ
! '
ì¹´ ìĺ¤
Ġìĺ¬ ëł¸ëĭ¤
ì¤ĳ ìĿ´ëĭ¤
ëıħ ìĿ¼
ĠìķĬìķĺ ìĿĦ
ĠO ST
êµ° ëĭ¤
Ġê°¤ ëŁŃìĭľ
ê¸° ëĤĺ
ī ģ
ĠìĿ´ ìĺģ
ë¡ľ ìĽĮ
Ġìľł ëł¹
Ġë¬¼ ëł¤
Ġë¹Ħ ìĭ¼
ãģ ĺ
ĠA T
ìĭ¤ ìĿĢ
ãĤ ĥ
ĠìĿ´ìĻ¸ ìĿĺ
ë²ķ ìĽĲ
8 6
Ġê²½ ê³ł
Ġë³´ ëĦĪ
ĠêµŃìłľ ê³µíķŃ
ë§Ŀ ìĿ´
íĥĦ ìĿĺ
Ġì° ¢
Ġê°¤ëŁ¬ ë¦¬
ì¢ħ íķ©
Ġìĥģ ìĥģ
Ġìĥī ê¹Ķ
in t
ĠëĤĺìĺ¤ ë©°
ëıĮ ìĿ´
ĠìºĲë¦ŃíĦ° ëĬĶ
Ġê·¸ ê±´
... "
êµŃ ëĤ´
ĠA n
ĠíĮĲ ê²°
ê² ¸
ëłĪ ìĺ¤
Ġê¸Ī ìĨį
ê²łëĭ¤ ë©°
íģ¬ëĿ¼ ìĿ´ëĤĺ
ìĤ¬ ìĿ´ëĵľ
ĠíĨµ ìĥģ
ĠëĤĺ ìķĦê°Ģ
ĠìŀĪ ìĿĮìĿĦ
Ġìķī ìķĦ
ëĿ¼ê³ł ëıĦ
Ġì¦ī ìľĦ
Ġëľ» íķĺëĬĶ
ĠìĽ ħ
ìĸ´ ë§Ī
ê³Ħ íļį
Ġíķľ ìŀĲ
Ġì¦Ŀ ìĸ¸
Ġë³´ ì¡´
Ġëª©íĳľ ë¡ľ
Ġìĭľ ëĦĪ
ìĬ¤íĨł ë¦¬
Ġíı¬ë¥´ íĪ¬ê°Ī
ë°Ķ ë¥´
ìĭ± íĦ´
ë¦¬íĭ° ì»¬
Ġì½Ķë¯¸ ëĶĶ
ĠíĬ¹ ì§ĳ
ĠíķĺëĤĺ ëıĦ
ëŀľ ìĬ¤
íķĺ ëįĶëĿ¼ëıĦ
ì§ģ íķľ
Ġìĺ¬ëĿ¼ ìĺ¨
ëĲĺ ê²Į
Ġë£ ¬
Ġê¸ī ê²©
ìĹ ĳ
ëŀĢ ìĿ´
ë¬¼ ê´Ģ
ĠêµŃ ìĻķ
ì¹ĺ ë©´
ìŀĦ ìĿĢ
ĠíĨµ ìĤ°
ìŀĲëıĻ ì°¨
) /
ì§Ħ ê³¼
Ġìı ł
ĠíĥĪ íĩ´
ĠìĦł ìłĦ
Ġìŀĳ ê°Ģê°Ģ
ìĿ´ íĥĪë¦¬ìķĦ
Ġëĭ¨ ìłĲìĿ´
Ġê³¼ê±° ìĹĲ
ic al
Ġì¶Ķ êµ¬
Ġê°Ģ ìĬ¤
Ġìļ° ë¦¬ëĬĶ
å ĩ
ì ·
ĠìĿ¸ë¬¼ ìĿ´
Ġê±¸ ê³ł
íĥĿ ìĿĦ
Ġê´Ģ ì¸¡
Ġíķĺ ìĸĢ
Ġë§¤ëĭĪ ìłĢ
Ġë°ľ íĸī
Ġì³ ¤
ì»¤ ìĬ¤
Ġê·¸ê²ĥ ìĿĢ
ĠëıĪ ìĿ´
ĠìĶ ¹
íĤ¤ ìķĦ
æ ±
ĠìĻ¸ ìĿĺ
ĠìĬ¤ íĨ°
ĠìĤ¬ìļ© ìĿ´
Ġìŀ¡ ê¸°
ãĥ ī
Ġìµľ ìļ°
çĶ °
199 4
Ġë¬¸ ìŀĲ
ĠëıĻ ìĿĺ
ì¤ Į
Ġë± ħ
íĮ¨ ë¡ľ
ëĵ¤ ë§Į
íĶ Ķ
Ġìŀ¥ ë¥´
Ġêµ¬ ìĽĲ
Ġìĺģ ìĥģìĿ´
ì§Ģ ìĿ¸
ë¯¼ ì¡±
Ġíİĺ ëĦĲíĭ°
Ġëł ī
ìĹŃ ìĿĢ
A P
Ġê²ĮìŀĦ ìĹĲ
Ġê°Ģ ëĿ¼
ĠìĿ¸ ì¦Ŀ
ĠìĻķ ìŀĲ
ìĭľ ìĬ¤íħľ
Ġìĸ´ ì¨Įëĵł
ê°Ģ ë©°
a x
ĠìŀĲì²´ ìĿĺ
Ġë¬´ ìŀĳ
Ġë¶Ģ ìĥģìľ¼ë¡ľ
Ġë²Ħ ë¦°ëĭ¤
ĠìĿ´ ëĭ¤
Ġì± Įë¦°
ç Ħ
ëłĪìĿ¸ ìłĢ
Ġê¸°ë¡Ŀ ìĿ´
Ġìĭł ìķĻ
Ġë°ĿíĺĢ ì§Ħ
ĠëĤł ìķĦê°Ģ
å ĳ
E S
Ġë¦¬ ê°Ģ
Ġë°ķ ê·¼íĺľ
ìļ° ë©°
ìĺ¤ ë¡ľ
ìĿ´ ë©´ìĦľ
íķĺ íķĺ
ĠìłĢ ì£¼
Ġëĭ¹ìĭľ ìĹĲ
Ġë¬¼ë¡ł ìĿ´ê³ł
ìłķ ì±ħ
ĠëıĻ êµ´
ì»¤ ìĿĺ
æľ ¬
Ġì§Ģ ëĬ¥
ĠìĬ¤íĶĦ ë§ģ
ĠìĿ´ìłľ ëĬĶ
ĠìĬ¤ íĥľ
ìŀĪ ê²Į
Ġì§Ģ ìĭľ
ì ı
ë²Ħ ë¦´
M S
ĠìķĮ ë°Ķ
ĠìĿ´ ê²¨
Ġê³ł ë¬¸
Ġì¡°ê±´ ìĿĦ
ab le
ì§Ģ ê¸°ëıĦ
Ġì½Ķ ì¹ĺ
Ġíķ¸ ëĵľ
ĠìłĲ ìĪĺë¥¼
Ġë§Į ëĤł
Ġë³¸ ëĭ¤
ĠìĦ±ê³µ íķľëĭ¤
ĠìĺģíĻĶ ìĿ´ëĭ¤
6 4
Ġê³ł ìŀĳ
ë§Ī ìĹĲ
ëĬ Ħ
Ġíı¬íķ¨ ëĲĺìĸ´
ĠP l
ĠìĭľìłĪ ìĹĲ
ĠêµĲ ìĤ¬
Ġê¸° ë¶Ħ
íħĮ ë¥´
ĠìłĦ ì§Ħ
ĠìłķëıĦ ìĺĢëĭ¤
ìĥĿ ìķł
ì§Ģ ì§Ģë§Į
ëĶĶ ìĿĺ
ĠìĪĺ ìĹħ
ìĭł êµĲ
Ġëĸ¨ìĸ´ ëľ¨
Ġë²ł ëĦ¤
ĠëĬĲëĤ Ħ
ìĭľ íĥĢ
Ġëª½ ê³¨
3 00
ĠìĿĺê²¬ ìĿĦ
ìĸĳ ìĿĦ
ĠìłĢ ìŀĳ
âĢ ¢
ĠìľĦ ìŀ¥
ĠìķĪ ëĲľëĭ¤
Ġëĭ¨ íİ¸
ĠìĿĺë¯¸ ë¥¼
íķĺ ë£¨
Ġëĭ¤ìĿĮ ìĹĲ
Ġì¹´ íĥĢ
Ġê³ł ìľĦ
ìĿ´ ëĵł
ĠìĿ´ íĺ¼
ĠíĬ¸ ìľĪ
Ġ20 22
ol l
(âĢ¦ )
ĠêµŃ íļĮ
Ġìĭ¸ ìĽĮ
Ġê·¼ ë³¸
ĠìĭĿ ìĿĺ
Ġë°Ķê ¾¼
ĠëĶ ´
Ġì¹´ë©Ķ ëĿ¼
Ġìĺ¤ ì§Ģ
ĠíıŃ ê²©
ëĤ´ ì§Ģ
Ġìĺ¤ìĬ¤íĬ¸ ë¦¬ìķĦ
ë°± ìĿĦ
ĠëıĦ ìĦľê´Ģ
Ġê°Ģ ìĿĦ
Ġìłľìŀĳ íķľ
ĠìĨĮ ëĭī
ĠìķĦ ë©Ķë¦¬ì¹´
ìĹ ł
ĠíĨµ ì¹ĺ
Ġìŀīê¸Ģ ëŀľëĵľ
ì£¼ ë©°
Ġìľł íļ¨
Ġë ·
ê³¼ ìłķ
Ġì§ģ ìłĦìĹĲ
Ġìĺ¤ëŀĺ ëĲľ
ĠíĬ ķ
ì»¤ ë¥¼
Ġêµ° ëĮĢ
ìĬ¤íħĮ ìĿ´ì§Ģ
ĠìĤ´ íİ´
ĠìĤ¬íļĮ ìłģ
Ġì§ĳ íĸī
Ġìĭľê°Ħ ìĹĲ
Ġë¶ĢëĶ ª
ĠìķĮ ë¦¬
Ġë¨¸ ë¦¬ê°Ģ
ëģ Ī
ëĦ¤ ìĭľìķĦ
æ ĥ
Ġìŀ¬ ìłķ
Ġëĵ¤ ìĹ¬
ĠìľłëĭĪ íı¼
å ł
ëĳĲ ëĬĶ
ì¦Ī ë§Ī
Ġë» Ĺ
Ġê´Ģ ì°°
ĠìłĢ ëł´
ìłľ ìĻĢ
Ġíģ´ëŀĺ ìĭĿ
ì ĳ
Ġì°į ìĿĢ
ìľ¼ë¡ľ ë§Į
w idth
Ġíķľ ëªħ
ìĨĮ ìĨį
íĪ ´
ĠìĪĺ ì¶ľ
ĠìĪĺë¡Ŀ ê³¡
ì¡Į ëįĺ
Ġ3 9
Ġìį ¬
ĠìĻķ ìĿĺ
Ġëª¬ìĬ¤íĦ° ë¥¼
ëıĻ ìĿĢ
ĠìŀĲìĦ¸ íŀĪ
Ġìŀĳê³¡ ê°Ģ
ĠìĪ Ń
ç¥ ŀ
ì¤ĳ ìĹĲëĬĶ
ĠìĬ¹ ê°Ŀ
Ġíķ´ ì£¼ëĬĶ
ĠìĿ´ë¯¸ ì§Ģê°Ģ
Ġëª» íĸĪê³ł
Ġ198 4
Ġíģ¬ ê¸°
ĠìłĦìŁģ ìĿ´
ĠíĽĦ ë°°
ĠëĤ´ ê³ł
ĠìĿ´ìļ© íķĺëĬĶ
ëĵ¤ê³¼ ìĿĺ
Ġìľ¡ ìĦ±
re am
Ġë¶ģ ë¶Ģ
ĠìĹĨëĭ¤ ë©´
Ġë§ŀ ìľ¼ë©´
ì°½ ìĿĦ
Ð ½
Ġê¹Ģ ë¯¼
ĠëĬĲ ë¦°
Ġìŀł ìŀ¬
Ġìļ© ëıĦë¡ľ
ĠìĿ¼ ìĿ´ëĭ¤
Ġìłľ ì¶ľ
T A
Ġì£¼ìĿ¸ê³µ ìĿĺ
íĨµ ìĿ´
ĠêµŃ ëıĦ
Ġë§Ĳ ìŀĲ
E M
ĠíĽĦìĨį ìŀĳ
Ġë°©ìĨ¡ ìĹĲìĦľ
ĠëĲĺ ê¸°ëıĦ
Ġê±°ê¸° ìĦľ
ĠíĤ¤ ë¦¬
Ġì°¾ ìĿĦ
Ġì±ħ ìĿĦ
. âĢĿ
Ġëŀ ¨
ìĨį ëıĦê°Ģ
Ġìłķ ì°°
Ġíľ´ ëĮĢ
Ġíľ ©
I n
ê·¸ ëłĩ
ĠìĿ´ìĥģ ìĿ´
Ġ198 5
ĠìļĶ ì½Ķ
ĠìĥĪ ëģ¼
ĠëĺĲ ëĭ¤ìĭľ
ãĥ Ń
ĠíıĲ ìĩĦ
Ġë¹¨ ëĿ¼
ë¦° ìĿĦ
ĠìĤ¬ ìłĦ
Ġë°Ķ ë³´
Ġíķ´ ìĥģ
ë°ķ ìĿĦ
ĠìĿ´ìłĦ ìĹĲëĬĶ
ĠU S
ìĹ¬ê¸° ìĦľ
âĹ ĭ
ê³µ ìĿ´
íĬ¹ ìĪĺ
Ġê°Ģë³į ê²Į
ĠìķĦ ìĿ¼ëŀľëĵľ
ìķĦ íĤ¤
ëŀĢ ëĵľìĿĺ
!! !
ë§¨ ìĿĺ
Ġê°Ħìĭł íŀĪ
ĠìĦ¸ ìļ´
Ġìĭ¤ ë§Ŀ
Ġìłģ ëĭ¹íŀĪ
ow n
Ġëľ¬ ê¸Ī
ĠíĿ ł
ìĭľ ëĤĺ
Ġì¡´ìŀ¬ ë¥¼
ëĲĺ ëįĺ
ìĿ¸ë¯¼ ê³µíĻĶêµŃ
ìĿ´ëĿ¼ê³ł ëıĦ
Ġë§Ĳ ìķĦ
Ġê³³ ìĿĦ
Ġìłķ ì°¨
Ġë³´ìĹ¬ ì¤¬ëĭ¤
ĠìĤ¬ ì¿łëĿ¼
Ġë¯¸ ì¹´
ë²Ī ìĿĢ
ĠëıĦ ì£¼
Ġì½ĺ íħĲì¸ł
Ġíļ¨ê³¼ ë¡ľ
çĶ Ł
íķĺ ëĬĺ
Ġê·¸ ëĿ¼
ë± Ģ
Ġë°¸ëŁ° ìĬ¤
ĠA K
Ġê·¸ëŁ¬ íķľ
ĠìĿ´ìĻ¸ ìĹĲëıĦ
ê¸° ê¸°
Ġê³³ ê³³
Ġê°Ĳ ìłķìĿĦ
Ġ ?
Ġì»¤ ë¦¬ìĸ´
ëĲľ ëĭ¤ê³ł
ìĿ¼ ë¦¬
Ġì§ĳ ìľ¼ë¡ľ
8 9
í ļ
ĠìľłëĭĽ ìĿĦ
ĠìĬ¤ íħ
ë²Ħ ê·¸
ìķ¼ ë§Į
ĠìĦ¸ ì¢ħ
ĠìĿ´ ìĭĿ
Ġëĸł ìĺ¤
Ġìį °
ëĵ¤ ë³´ëĭ¤
Ġìī½ ì§Ģ
Ġê¹ ¡
ĠëĮĢíļĮ ìĹĲìĦľ
ìļ© ìĿĺ
ĠìĦł ëĳĲ
Ġë¯¸ ìķĪ
ĠíĺĦìŀ¬ ê¹Įì§Ģ
Ġìŀħ ìŀ¥ìĿĦ
íķĺìŀĲ ë§ĪìŀĲ
ëĦ¤ ìĿĺ
ê²ł ìĸ´
Ġê°Ģ ì¹ĺê°Ģ
Ġc h
ĠìķĦ íĶĦ
Ġë°© ì§Ģ
ĠìĪĺ ìĪĺ
ĠìĦľ ìĭĿ
íĤ¤ íį¼
ìĺ¤ ì§Ģ
Ġìĭłê²½ ìĵ°
Ġìłķë¶Ģ ê°Ģ
íķĻ ìĿĺ
Ġê°Ħ ìłĳ
ĠíĮ¨ ìħĺ
íĪ¬ ìĬ¤
6 7
ĠìĿ´ë²Ī ìĹĲëĬĶ
ĠìĹħê·¸ ëłĪìĿ´
ê±° ë¥¼
Ġë¶Ģ ê°ģ
Ġê°Ħ ì£¼
ĠìĥĿ ëŀµ
Ġë©ľ ë¡ľ
ìļ° ê¸°
ĠìĦ Ģ
ëĿ¼ ëĿ¼
ë°ľ ìĿ´
ĠíĮ¬ ëĵ¤
ĠI S
ëª¨ ëĵľ
Ġê¸Ģë¡ľ ë²Į
ëī´ ìĬ¤
Ġìĭ¤ ë²Ħ
ìĿ¼ ê³¼
Ġì¶ľìĹ° íķľ
ì¡° ìĹĲ
ê³ł ìĹĲ
ëŃ Ĳ
ĠëĦ£ ëĬĶ
è ģ
ĠìĤ¬ ë§Ī
ê³µ íĻĶ
Ġ 01
ĠìĹ´ ìĸ´
ĠíĽĦ ìĪł
ìĿ´ìĹĪ ê¸°
ĠìķĦì¹´ ëį°ë¯¸
ĠìłĢ ì§Ī
Ġëĭ¹ íķĺê³ł
u nd
ëĭĪ ì½Ķ
åŃ ¸
Ġë¶Ī ëłĢëĭ¤
ë°Ķ ëĤĺ
ëĵ Ī
ë²Ķ ì£Ħ
ì¤ĳ ê°Ħ
Ġë¶Ī êµĲ
ê¹Į ì§Ħ
ĠìĿĺ ë¬¸
ĠD e
ĠíĶ¼ ê²©
ëª ¹
Ġìĺģ êµ¬
Ġëĭ¹ íĸĪëĭ¤
íĮĮ ìĽĮ
O D
S h
Ġê³¼ ìĹ°
Ġê°Ģë©´ ëĿ¼ìĿ´ëįĶ
Ġ an
ĠëĤĺ ë©´
Ġíķ© ì²´
ĠìĦ¸ ë¥´
Ġì·¨ê¸ī ìĿĦ
ĠìĿ¸ë¬¼ ë¡ľ
ì¼ĢìĿ´ ëĵľ
Ġë©Ķ ë¦¬
ĠìĨĲ ê°ĢëĿ½
ìĿ¸ ëĵ¤ìĿĦ
Ġë¬´ ì²Ļ
ëħ¸ ëıĻ
Ġì±ĶíĶ¼ìĸ¸ ìĭŃ
ĠíĽĦ ìĹĲëıĦ
Ġë¶Ģë¶Ħ ìĹĲ
ë²ķ ìĹĲ
ĠìĽĢì§ģ ìĿ´ëĬĶ
ĠìĿĺ ì§Ģ
Ġìĸ´ë§Ī ìĸ´ë§Ī
Ġå īį
ľ ëĭ¤
Y ou
íĥĢ ìĪĺ
ĠìķĦëĭĪ ë©°
ĠìķĦ ëŀį
ë¦° ìĿĢ
ê²ł ìĬµëĭĪëĭ¤
ìĸĳ ìĿĺ
ë©´ ìĿ´
êµŃ ìĹĲìĦľ
Ġë§Ŀ ê°Ģ
Ġìĸĳ ìĦ±
ë¦¬ ì§Ģë§Į
M C
ĠíĻĶ ëł¥
Ġì§Ħ ë³´
Ġê°ķ ì²ł
ê±´ ìĦ¤
ĠìĿ¸ë¬¼ ìĿ´ëĭ¤
ĠìķĬëĬĶ ëĭ¤ê³ł
ĠíĢĺìĬ¤íĬ¸ ë¥¼
â ħ
Ġë°ľìĥĿ íķĺëĬĶ
ĠíĮĲ ìłķìĿ´
Ġì°¨ ìĽĲ
W h
Ġëª° ëŀĲ
Ġê²ĮìŀĦ ìĿĢ
ĠìĬµ ëĵĿ
Ġëıħë¦½ ìļ´ëıĻ
Â· Â·
ĠìķĪëĵľë¡ľ ìĿ´ëĵľ
Ġì§ĢìĹŃ ìĿĢ
ì£¼ êµĲ
Ġëª¨ ëŀĺ
ëıĻ ë¬¼
Ġê¹Ģ ëıĻ
Ġê·¸ëŁ¬ ìŀĲ
ĠíĮ¨íĦ´ ìĿ´
Ġê²°ê³¼ ìłģìľ¼ë¡ľ
ë° Į
ìĿ¸ íĦ°
ĠìŀĳíĴĪ ìĿ´
ĠìŀĲ íıŃ
ìĥĿ ìĿ´
ĠìĨĮ ìľĦ
Ġë§Ĳ íķĺìŀĲë©´
Ġë¯¸ êµ°
Ġ196 0
Ġíļ¨ ìľ¨ìĿ´
ìĥģ íĻ©
ĠìĨĮ ë°©
ë¯¼ì£¼ ì£¼ìĿĺ
Ġì¹´ íĬ¸
ĠëĮĢíĳľ íĮĢ
ĠìĿ¼ ì¹ĺ
Ġìĸ» ìĹĪëĭ¤
Ġë©´ ìĹĲìĦľ
ĠëĶĶ ìķĦ
ĠìĬ¤ íĨ¤
ĠìĻķ ìĿ´
íĨµ íķ©
ĠA C
å İ
ĠíĮĮ ë¦¬
ãĥ ŀ
ĠíĬ¹ ìĦ±ìĿĦ
ìķ µ
Ġëį° ìĹĲ
Ġë¯¸ ìĬ¤íĦ°
ĠìĤ¬ê±´ ìľ¼ë¡ľ
ĠìĹĲëĦĪ ì§Ģë¥¼
ëĶĶ ë¥¼
Ġìµľ ìĭł
ĠëĤĺ ëĤĺ
Ġìŀĺëª» ëĲľ
Ġêµ¬ìĦ± ëĲľ
ìĭľ ì²Ń
ĠìĬ¤ íĭ¸
ë°ľ ë¡ľ
ë° ĭ
Ġëĭ¹ ìĭł
ê³Ħ ëĬĶ
ìĨį ìĹĲ
Ġë²Ħ ë¦°
ãģĹ ãģ¦
ĠìĻĦë²½ íķĺê²Į
ĠíĥĢ ëĿ½
ê³µ ê°Ħ
Ġíķ© ìĿĺ
Ġì²ľ ìŀ¬
Ġìłľ ê°Ī
ë§Į ìķ½
ĠíĺĦ ìĹŃ
Ġì£½ ìĿ´ëĬĶ
ex t
êµ¬ ìĹĲìĦľ
Ġê²°ê³¼ ëĬĶ
ìĶ¨ ìĿĺ
Ġì² ¼
Ġê³µê²© íķł
ĠìĤ¬ëŀĮ ìĹĲê²Į
Ġì°¨ íĬ¸
Ġì¤ĳ ëıħ
Ġë°ĽìķĦëĵ¤ ìĹ¬
ãģ Ľ
ìĻĶ ëįĺ
ĠìŀĲìĹ° ìĬ¤ëŁ½ê²Į
ĠìĿĢ íķĺ
Ġë³¼ ëĦ·
ĠìĿĮìķħ ìĿĦ
ê³ °
ĠíĨł ë¡ł
ëĦĪ ëĬĶ
] ]
Ġê°ķ ìĿĺ
Ġê°Ģ ìĤ¬
' m
ë¸Ķ ë¡ľ
Ġìŀĳ ê°ĢìĿĺ
Ġì¢ħ ëª©
ou s
ĠíķĺëĤĺ ìĶ©
Ġê°ľ ìĦ¤
ëļ Ŀ
ĠìĿ´ ëŀĢ
Ġë©¤ë²Ħ ëĵ¤ìĿ´
ê°ķ ìĹĲ
ĠT e
Ġê¸Ī ìľµ
Ġìĺģíĸ¥ ìľ¼ë¡ľ
ë¶Ģ ìĿ¸
ì²´ ìĿ¸
ĠìĨį íķľëĭ¤
ìŀ İ
ï¼ ļ
Ġêµ¬ íķĺê¸°
Ġì¹´ ëĿ¼
Ġì°¨ì§Ģ íĸĪëĭ¤
Ġì£¼ ëĳĶ
Ġì¶Ķ ìĸµ
íķĦ ëįĶ
íĥĢ ëĤĺ
Ġíİ¸ ìĿ´ëĿ¼
Ġíľĺ ë§Ĳ
ĠìĿ´ìĬ¤ ëĿ¼ìĹĺ
9 2
ĠìĺĪ ë¡ľ
ĠëĤĺìĺ¤ ë©´
or k
Ġëĭ¤ìĿĮ ìľ¼ë¡ľ
ĠìķĦ íĮĮ
ë¦¬ ëĬĶëį°
ëŁ¬ ëĬĶ
íĥĢ ë§Ī
ì£¼ìĿĺ ìŀĲ
ê² Ķ
Ġëį§ ë¶Ļ
ìĬ¬ ë§ģ
Ġë²Ķ ìľĦê°Ģ
ĠëĦ£ ìĿĢ
Ġê³¨ ìĿĦ
ìĹ¬ ê°Ŀ
t e
ê¸° ëĬ¥
ĠìĤ¬ íĽĦ
íķĻ ìĽĲ
ĠìĿ´ ìĸ´ìĦľ
ìļ° ì§Ģ
ë²Ī íĺ¸
ĠíĮ ½
Ġìķ¼ ìĬ¤
Ġë§Ī ëĵľë¦¬
ê¸° ì¡´
Ġíķ´ ìķĪ
ĠìĤ Ĳ
Ġë¶Ģ ë¥¼
ĠìłķëıĦ ìĿ´ëĭ¤
Ġëľ» ìĿ´ëĭ¤
ĠìĿĺ ìĥģ
ê²° ìĬ¹
íķ´ ì§Ī
Ġëª¨ ë¥¼
ĠíĤ¤ ìĽĮ
Ġê²Ģ ìĿĦ
Ġê³µ ë£¡
ë° Ń
ìĬµ ìĿĦ
ëĭ¤ ë¦¬
Ġìĸĳ ìª½
Ġíĺ¸ íĿ¡
ĠíĶĮëłĪìĿ´ìĸ´ ìĿĺ
Ġ up
ë¯¸ ëħ¸
ĠëĮĢíĨµëł¹ ìĿ´
Ġì£¼ ìłľìĹĲ
Ġì£½ìĿĮ ìĿĺ
Ġíı¬ ìľĦ
Ġìľł ëł¥
ë°Ľ ì§Ģ
ãĢ ĳ
Ġìĭ«ìĸ´ íķĺëĬĶ
ëĵ¬ íķ´
æ ¥
ĠìĿ´ë¯¸ ì§Ģë¥¼
ĠìłĦë¬¸ ê°Ģ
ì£¼ ìĹĪëĭ¤
ëĲ ©ëĭĪëĭ¤
íŀĪ ì§Ģ
é ł
íģ¬ ìĬ¤
Ġê³ł êµ¬ëł¤
ëĭĪìķĦ ìĿĺ
Ġì£½ ì§Ģ
Ġëĵ¤ ìĹĪëĭ¤
Ġìĭľ ê·¸
ĠëĤ« ëĭ¤
ĠìŀĲ ê²©
Ġìŀ¥ ê´Ģ
Ġë§ Īëĭ¤
ëĬ¥ ëł¥ìĿĦ
ĠM A
Ġìĺģ íĨł
Ġë¬» ìŀĲ
ë©´ ìĿĺ
ĠìĹ¬ ìĭł
íĿ¬ ìĿĺ
ëŁ¬ ë¸Į
ì§Ħ ìĹĲ
Ġì ĳ
Ġìĸ» ê³ł
ìĺ¨ ìĿĺ
ĠëĤ¨ìķĦ ìŀĪ
ĠëĪĦ ìłģ
ĠëĤ¨ ëħĢ
ĠëĬ¦ ê²Į
ĠëĬĺ ìĸ´ëĤľ
ê³µ ìĹħ
ĠëĬĳ ëĮĢ
ĠìłĢ ëŁ°
ĠìĪĺì¤Ģ ìĿ´
ĠìĽĲ ìĿ¸
Ġíı¬ ìĬ¤
ë¥´ ë©°
Ġëĸł ëĤľ
Ġê²ĥ ìĿ¸ëį°
199 2
5 6
ĠS C
ëĦ¤ ìĬ¤
ëĲĺ ê±°ëĤĺ
t le
Ġìĸ» ê²Į
ĠìĪľ ìĦľ
Ġë°ľìĥĿ íķľëĭ¤
ĠìĥĪ ë¡Ńê²Į
íĮĮ ìĿ¼
t o
ìĤ° ìľ¼ë¡ľ
ĠëıĻìĿ¼ íķĺëĭ¤
8 7
íĢ ĺ
ë¦¼ ìĿ´
ìĺ¨ ìĿ´
ĠíĽĦë³´ ë¡ľ
ì¼° ëĭ¤
G A
ĠìĿ´ìľł ë¥¼
íļĮ ì°¨
Ġìĸ¸ê¸ī ìĿ´
Ġê´Ģëł¨ ìĿ´
Ġìłķ ìĪĺ
ĠìĥĿ ê¸°ëĬĶ
ìłĦ íķľ
íİ¸ ìĹĲ
ëħ¸ ëŀĺ
ĠìĿ´ ëĿ¼ëĬĶ
ĠíĭĢ ìĸ´
Ġê¸Ī ë°©
ìĻĢ ëıĦ
ĠìĬ¤ íĦ´
Ġì¹¨ ìŀħ
Ġì¡´ìŀ¬ ê°Ģ
ĠìľłìłĢ ëĵ¤ìĿĢ
Ġìĥģê´Ģ ìĹĨìĿ´
ìŀī ê¸Ģ
ë²Ħ ëł¸
Ġë³ĳ ìĽĲ
Ġëĭ¤ ìĬ¤
ê²½ ìĿĢ
ì¹´ ë¦¬
Ġê¸° ìĽĲìłĦ
ĠíĽĦë°ĺ ìĹĲ
ĠíĻĶ íķĻ
as h
Ñ Ģ
ìĽ ¹
ĠìĹ°ìĨį ìľ¼ë¡ľ
ç ©
ĠìĤ¬ ìļ°
Ġê°Ģ ë§Į
ĠìķĦë¥´ íĹ¨
ìĿ´ ë¯¸
ĠìĹ ¿
ĠêµŃë¯¼ ìĿĺ
ãĤ ¸
Ġëª© ìĿĦ
ĠìĪ¨ ê²¨ì§Ħ
ê±° ë¦¬ë¥¼
ê³¼ ìĹĲ
ĠíĶ¼íķ´ ê°Ģ
å ±
íĶĦ ëĿ¼
ëĬ ¦
Ġíİ¸ ê³¡
Ġê³¤ ëŀĢ
å »
ĠìĦ±ê³µ íķľ
ĠëıħíĬ¹ íķľ
Ġëĳĺ ìĿĺ
ĠìĤ¬ìļ© íķĺê¸°
Ġìļ´ìĺģ íķĺëĬĶ
åħ ¬
Ġì»¤ ëĭ¤ëŀĢ
ĠìĨį ëıĦë¥¼
199 3
ĠM y
ĠìĿ¼ ìĸ´ëĤ¬
ĠëĳĲëł¤ ìĽĮ
ìķ¨ ë²Ķ
é Ń
íĶĦëŀĳ ìĬ¤
è ¶
ìľĦ ìĻĢ
Ġëį° ëĭ¤
ĠìĪĺ ë¥ĺ
Ġì°¨ ë¥¼
ëĭ¨ ìĹĲìĦľ
ìĹ´ ìĿĦ
ĠìĿ¼ìľ¼ ì¼ľ
ìĿ´ëŁ¬ íķľ
Ġëªħì¹Ń ìĿĢ
Ġë¹Ħ íķ´ìĦľ
ì¹´ ë¥´
ì¡Į ëĭ¤ëĬĶ
ëĨ ¨
ì°¨ ëŁī
ĠëĤ® ëĭ¤
ĠìĤ¶ ìĿĦ
Ġíķĺ íĬ¸
Ġë¦¬ ëĵ¬
ìĭľ íķĺëĬĶ
Ġìŀĳ ìĹħìĿĦ
íļĮ ì´Ī
Ġê°Ģ ì§ĢëĬĶ
Ġëĵľ ëĿ¼
Ġì¹ľêµ¬ ê°Ģ
Ġë¬ĺ ìĤ¬ê°Ģ
T S
ìĽł ëįĺ
ëĵĿ ìłĲ
Ġë£¨ ìĭľ
Ġìĭľìŀĳ íķĺëĬĶ
Ġìľ Ĺ
ĠìĿ´ íİĻ
ç ¦
ĠìĿ¼ìĸ´ëĤĺ ëĬĶ
ĠëĤĺ ìĦł
ĠìºĲ ëħ¼
ĠìķĦ íģ¬
Ġì¢ħë¥ĺ ìĿĺ
ìĺģ ìĿĢ
Ġìķł íĶĮ
Ġë¹Ħ íĬ¸
Ġ6 4
Ġì´Ŀ ìķĮ
ìĦ° ëĭ¤
ĠìŀĲ ìłĦ
ĠëĲĺìĹĪ ìĿĦ
ĠìĦ¤ ìłķìĿĦ
Ġ4 7
ìĨĮ íĶĦíĬ¸
åŁ İ
ĠìŀĲ ë³¸
ĠíĨł ë²Į
ìµľ ê·¼
å® ī
íĸī ìĿ´
ĠìĹħ ë¡ľëĵľ
ĠíĤ ¨
Ġê²°ê³¼ ê°Ģ
Ġë°°ìļ° ëĬĶ
ĠìĤ¬ëĿ¼ ì¡Įëĭ¤
ĠìĥĿê¸´ ëĭ¤
Ġë¯¸ëĵľ íķĦëįĶ
ĠM S
ì£¼ ìĿ¼
ëıĻ ê³¼
ìŀĲ ë©´
Ġì¹¨ ëŀµ
ĠìĪĺ ë¥¼
ìĬ Ĳ
ìľĦ ê¶Į
Ġê¹Ģ ëĮĢ
Ġ4 2
ì´Ī ìĿĺ
ĠëĵĿ íĳľ
ĠT HE
Ġë³´ìĹ¬ ì¤¬
ĠA R
Ġê²© ì¶Ķ
Ġìļ° ìĪĺíķľ
ĠìĽĲ ëĶľ
ĠìłĲ ëıĦ
Ġê¸° ë»Ĳ
ê²½ê¸° ìĹĲìĦľ
Ġë¹Ľ ìĿĺ
ĠëĤľ ìŀħ
Ġê±° ëĭ¤
Ġìŀħ ìŀ¥ìĹĲìĦľ
ĠìķĦëĭĪëĿ¼ ë©´
íķľ êµŃìĿĺ
Ġw idth
êµŃ ìľ¼ë¡ľ
ëĭĺ ìĿĦ
ĠìĬ¤ íı¬
Ġë¨¹ ìĿĢ
ìķ¼ ëĬĶ
ê°Ģ ìĬ¤
ëª¬ ëĵľ
ĠW h
Ġë©Ķ ë¥´
ĠìķĮ ìķĦìĦľ
Ġë¹¼ ê³ł
ë²ķ ìĿ¸
Ġë¶Ģ ëŁ¬
Ġìŀ¬ ê°ľ
ĠìĬĪ íĮħ
å ĥ
Ġì§ĳ ì°©
ĠìĪĺ ìĪł
Ġê³¡ ìĿ´
Ġíķĺ ì°¨
ĠêµŃê°Ģ ìĿĺ
Ġìĭł íĻĶ
ĠíĿ ©
Ġê¸° ë¯¹
Ġëĭ Ń
ëĭ¬ ìķĦ
ë² ³
ĠëĤĺíĥĢ ëĤĺëĬĶ
Ġì£¼ë³Ģ ìĿĺ
íı¬ ìĿ¸íĬ¸
ìŀ¬ íĮĲ
ë°ĺ ëıĦ
ë§¨ ìĿ´
ww w
ì¶Ķ ìĸ´
Ġì¶ľìĭľ ëĲľ
ëĭī ìĬ¤
ìĿ¸ íķľ
íİ¸ ìĿ´
ĠíĦ° íĤ¤
ĠìĿ´ ëłĩ
ê¸ī ìĿ´
ì½Ķ ìĸ´
íļĮ ìŀ¥
ĠíĻĺ ìĥģ
å· ŀ
Ġíģ¬ ë¦¬íĭ°ì»¬
Ġ198 3
íģ¬ ë¦¬ìĬ¤
Ġìĸ¸ ëįķ
ĠëĮĢë¶Ģë¶Ħ ìĿĢ
ĠëĤ¨ ìª½
Ġì§Ħì§ľ ë¡ľ
Ġk t
Ġê¸Ī ë©Ķëĭ¬
ĠìĭľìłĪ ë¶ĢíĦ°
Ġë°ľíĳľ íĸĪëĭ¤
ĠìĦ±ëĬ¥ ìĿĢ
ê°Ģ ìĦľ
Ġëĵľ ë¦¬
Ġì²ĺ ëŁ¼
ĠíĻķìĭ¤ íķľ
ëįĶ ìĿĺ
9 4
ĠìĿ¼ ë¡ľ
( !)
ĠìĿ´ëģĮ ìĸ´
ìĭ ¶
Ġì½ĺìĦľ íĬ¸
Ġìŀĩ ëĬĶ
ĠìĪĺëıĦ ê¶Į
Ġìĥģ ìĪł
íĸĪ ê¸°ìĹĲ
ĠL ove
Ġìĺ¤ ë¥ĺ
Ġìľł ë°ľ
Ġê¹Ģ ìŀ¬
Ġê°Ģ ëł¤
ë³µ ì§Ģ
ĠìĭľìĬ¤íħľ ìĿ´
ìĤ¬ ê³ł
Ġê³³ ìĿ´ëĭ¤
ëįĶ ê°Ģ
Ġë¦¬ ë·°
Ġëª¨ ëª¨
ê°Ĳ íķľ
Ġíģ´ ëłĪ
ĠëĮĢíĳľ ìłģìľ¼ë¡ľ
Ġê°ľ ëŁī
ëĭ¤ ë¥¼
ĠëĿ¼ ìļ´ëĵľ
ĠëĶ° ìĺ¨
Ġê²½ìĥģ ë¶ģëıĦ
Ġìŀ¥ ë¹Ħë¥¼
Ġìŀ¥ë©´ ìĿĢ
Ġë¬´ ê¸°ê°Ģ
Ġ *
Ġì§Ħ ìķķ
ë¬´ ê°Ģ
V A
Ġíıī ìĿĦ
re ss
Ġì¡° ë³Ħ
ad e
ĠìķĦìĿ´ ìĬ¤
ĠìµľìĨĮ íķľ
ìľł ë¡ľ
ow er
Ġê°Ģ ë²¼
Ġëĵ¤ìĸ´ê°Ģ ë©´
Ġìĭľìŀĳ ëĲľ
ì¡± ìĿ´
ĠëĨ ĢìĿ´
Ġì°¨ ê°Ģ
ĠìķĪ ëĤĺ
ãĢ İ
ìĬ¨ ìĿ´
Ġë³´ ëĥĪëĭ¤
ë¯¸ ìĤ¬
ĠU EFA
ĠìĿ´ ê¸Ģ
ëįĶ ë¥¼
ĠëĬĲëĤĮ ìĿĦ
Ġë¶Ī ëłĢ
ĠíŀĪë¡ľ ìĿ¸
ĠìĿ¸ ìĬ¤íĥĢ
ĠíĹ¤ ë¹Ħ
ĠìĻ Ī
ë¨¸ ìĬ¤
ĠíĨ ±
o x
ìĹĲìĦľ ë¶ĢíĦ°
Ġì£¼ìŀ¥ íķĺëĬĶ
ìĸ¸ ìĿ´
Ġê°Ģ ì¹ĺ
Ġê·Ģ íĻĺ
ê³Ħ ìķ½
) )
Ġê±¸ ë§ŀ
ìĬ¨ ìĿĺ
ì¹¨ ìĿĦ
Ġëĥ ĦìĥĪ
ĠíĪ¬ ìĸ´
ìĸĳ íķ¨
Ġíķľë²Ī ìĹĲ
Ġíĺ¸ ìľĦ
ĠìĭľìłĪ ìĹĲëĬĶ
ë¦¬ê·¸ ìĿĺ
Ġ198 2
ĠìķĦë§Ī ëıĦ
ë¡ľ ë§Į
Ġë¬¼ê±´ ìĿĦ
as e
ĠíĻĶëł¤ íķľ
5 1
ë²Ħ ìłĦ
ĠìļĶ ìĨĮê°Ģ
Ġì¹´ ëĵľìĿĺ
ëįĶ ëŁ¬
ãģ Ń
Ġì¡° ìķ½
Ġì¹´ ìĺ¤
ĠìĿ´ ìĪĺ
ëĤ Ń
Ġì´Īë°ĺ ìĹĲëĬĶ
ë°° ê°Ģ
ĠëıĻ ìĦ±
Ġê°Ħ ëĭ¨
ĠëĽ°ìĸ´ ëĦĺ
ëĭĪ ìĭľ
ìĿ¸ëį° ëĭ¤
ir l
ĠìĹĶ íĦ°íħĮìĿ¸
Ġì¶ľìĹ° íĸĪëĭ¤
Ġìľł íĺķ
ĠìĨį ìľ¼ë¡ľ
íĮĲ ìľ¼ë¡ľ
ë¦¬ ëĿ¼
ĠëıĻ ë°©
ĠíĶ¼ íķł
íķĺ ì§Ħ
Ġê²Į ìĿ´íĬ¸
ëĭ´ ìĿ´ì§Ģë§Į
Ġìłģ ìĸ´
ĠìĤ¬ëĿ¼ ì§Ħëĭ¤
Ġìłģ ì§Ģ
Ġìĺ ³
Ġì Ńī
ë²Ħ ìĬ¤íĦ°
Ġëĵ±ìŀ¥ íķĺë©°
ìĬ¬ ëĿ¼
Ġì§Ī ë¬¸
Ġìĭľ ìĹĲ
å· Ŀ
ĠìŀĶ ëľ©
ĠìłĦíĪ¬ ìĹĲ
ë¹Ħ íĸī
ĠS M
ëĶĶ ëĬĶ
Ġë³Ħ ëıĦìĿĺ
Ġìłķ ìĭĿìľ¼ë¡ľ
Ġê³ł ìĪĺ
Ġë¸Ķ ëĿ¼
Ġê°Ģì§Ģ ê²Į
é ĩĮ
ĠìĹħëį°ìĿ´íĬ¸ ë¡ľ
ë³Ģ ìĿĦ
æĺ İ
Ġê³¡ ìĿ´ëĭ¤
ë¡ľ ìį¨
ì§ ¤
ë§Ī ë¥´
ìłĦ ì²´
Ġê±°ì§ĵ ë§Ĳ
Ġìľł ëıħ
Ġìľ¡ ìĥģ
Ġë³´ ìĻĦ
ëłĪ ê°Ģ
Ġíİ ĳ
ëĦĪ ê°Ģ
ê°ľ ìĿ¸
ìħ Ģë¡ľ
Ġë¿ Ķ
Ġì¸¡ ìłķ
in k
ct ion
ì¹ĺ ë©´ìĦľ
ĠëĤ´ ìŀ¥
ëĶĶ ìĬ¤
ìĺ¬ ë¦¼íĶ½
ìĹ° íķľ
Ġì¤Ģ ìĪĺíķľ
ĠìĪĺ ë°±
ëŁ¬ ëĭĪ
Ġìŀ¥ ì¹ĺ
Ġíĥľ ê·¸
ĠëıĮìķĦ ìĻĢ
ĠíĬ¸ ëŁŃ
ĠëĨĴ ê²Į
ê²Ģ ìĿĢ
ĠìĦ¸ ìĿ´ë²Ħ
Ġìĭł ëĿ¼
Ġì¤ĳ ë¦½
âĹ ı
ĠìĿ´ ëªħ
ë¦¬íı¬ ëĭĪìķĦ
Ġì»¤ ëħķ
ĠëıĮ ìŀħ
ë¯¸ ëŀĺ
ê¸ī ìĿĦ
ĠëıĻ ê¸°
ë°ľ ìĿĺ
ìŀ¥ ìķł
Ġê³ł êµĲ
Ġìĭ¤ ì¢ħ
ĠëĤĺ íı´
ĠíĨł ëĦĪ
Ġë°°ìļ° ìĿ´ëĭ¤
Ġê·¸ëłĩ ì§Ģë§Į
ê³ł ëıĦ
Ġíķľ ìª½
ëĶĶ ì§Ģ
Ġìĭł ê¸°
Ġë¶ģ ìª½
Ġìĺ¬ ìĬ¤íĥĢ
ë¦Ń ìĬ¤
Ġë°© ìĭĿìĿĦ
ìķĦ ëĤĺ
Ġê°ĢëģĶ ìĶ©
ĠìĤ¬ ìĤ´
Ġë°° íı¬
ë°Ķ ê°Ģ
ĠíĻľìĦ± íĻĶ
Ġì´Ī ì¤ĳ
ĠìĿ´ ìĬĪ
Ġë¹ĦêµĲ íķĺë©´
ìĿ´ íķľ
ëĭ¬ ëĿ¼ëĬĶ
ìķĦ ëĿ¼
âĢ »
Ġê¸° ìĪĻ
Ġë§Ī ìĪł
Ġë³´ ëĭ¤ëĬĶ
Ġì¢ģ ìĿĢ
re e
ì¢ĭ ìĿĢ
íħĮ ìĿ¼
Ġë°ľ ëĿ¼
ë³µ ìĿ´
ĠëıĦ ëģ¼
ìĺģ ìĿĦ
; "
ëĵ¯ íķľ
5 9
ĠíĥĢ ëĬĶ
ë°Ģ ë¦¬
Ġìłģ ëĭ¤
Ġë£¨ ìĿ´
ĠíĶĮëłĪìĿ´ ìĸ´ë¥¼
ĠìķĦ ì¿ł
ea h
ìľĦ íĤ¤
Ġê±´ ì§Ģ
Ġì§Ģ ë¶Ī
íĬ¸ ëŀĻ
ìĤ¬ ì§Ħ
ëĸ ¨ìĸ´
ĠìĿ´ê²ĥ ëıĦ
ĠëĦ¤ ìĿ´
Ġìº¡ íĭ´
ĠëģĶ ì°į
ãĤ Ħ
ĠìĿ¼ ì¢ħ
199 1
êµ° ìĹĲìĦľ
ĠíĮĢ ìĹĲ
ì¤ĳ ìĹĲìĦľ
ĠìĤ¬ ë§ī
Ġë°Ŀ íŀĮ
ì°¨ ìĹĲ
íı¬ íĬ¸
Ġê³µê²© ìľ¼ë¡ľ
ĠìĦ¸ ìĥģ
ĠìłĦ ìĭł
ĠëĪĪ ë¬¼
ĠìĤ¬ë¡Ģ ê°Ģ
Ġìĸ´ ëĶĺ
ĠìĹ° ë£Į
Ġëĵ£ ëĬĶ
íķ´ ë³´ë©´
Ġë©ĺ íĥĪ
Ġì§ĢëĤĺ ì§Ģ
ent er
ĠìĿ¼ìľ¼ íĤ¨
ĠëıĻ ìŀĳ
Ġ198 1
Ġë¸Ķ ëłĪìĿ´
ì¸µ ìĹĲ
ìĦ± ìļ°ëĬĶ
íĺĦ ìĿĢ
C D
ëĳ ¬
ĠëĦ¤ ìŀĦ
Ġíı¬ íķŃ
Ġë¶Ģë¶Ħ ìĹĲìĦľ
ĠíķľêµŃ ìĿ¸
Ġì¿ ¼
Ġìłķ íĻ©
ĠíĻķìĭ¤ íķĺê²Į
ë§ģ íģ¬
ë¥ł ìĿĢ
Ġâ ĸ
ĠëĮĢ ëĮĢ
Ġê³¡ ìĿĢ
ì§Ģ ëĬ¥
ĠìĿĺê²¬ ëıĦ
ĠìļĶêµ¬ íķĺëĬĶ
ìĭľ ìĹĲëĬĶ
Ġë§Ī ëĿ¼
ĠE x
ĠëĮĢ ë¦¬
Ġë§¡ ìķĦ
íĸ Ħ
ë¥ ¨
Ġê²½íĹĺ ìĿ´
6 8
ë¸Ķ ëŀĻ
Ġëħ¸ ë¦¬
ìĤ¬ ëıĦ
ĠëĮĢë¯¸ ì§Ģê°Ģ
ĠìĨį ëıĦë¡ľ
ê°ķ ìĿĺ
Ġìŀħ ìĪĺ
ĠD J
ĠíĺĦ ìĥģìĿ´
Ġëĭ¤ ë¦¬ë¥¼
Ġë¦¬ ìĸ¼
Ġìĥģì²ĺ ë¥¼
ëıĦ ì¿Ħ
Ġê±´ ì¡°
ĠìĿ¼ ëªħ
Ġì¢ĭìķĦ íķľëĭ¤
ĠëıĻ ê³Ħ
ĠëĭĪ ìĭľ
ĠëĵľëĿ¼ìĿ´ ë²Ħ
ìĨĮ ìĪĺ
ë¯¼ ìĿĢ
Ġì²ł ìłĢ
ìļ´ ìĿ´
ĠíĬ¹ì§ķ ìĿ´ëĭ¤
ĠíĮ¨ ìĬ¤
ĠìłĦíĪ¬ ê°Ģ
Ġë¶Ģ ê·¼
ĠëģĿ ëĤł
ë¦Ħ ìĿ´
äº ĭ
Ġê°ķ ëĵ±
Ġìĭ¤ ìĪĺë¡ľ
íĭ° ìĬ¤
Ġì¿¨ íĥĢìŀĦ
ĠíĨł ëģ¼
ê±´ ìĿ´
ì¹´ ìļ´
Ġì´Ŀ ê¸°
ìĽĶ ê¹Įì§Ģ
ë¯¸ ìĹĲ
ĠìķĦëŀĺ ìĹĲ
ĠìĿ´ ëĵ¬íķ´
ĠìķĦ ìłĢ
ìŀĲ ëĤĺ
Ġë©´ ìĿ´
Ġë®¤ì§ģ ë¹ĦëĶĶìĺ¤
ĠK IA
ĠíĹĪ ëĤĺ
Ġë§ĪìĿ´ íģ¬ë¡ľ
Ġê³µê²© íķľëĭ¤
Ġë§İ ì§Ģ
Ġì¹¼ ìĿĦ
Ġìĸ´ì§¸ ìĦľ
Ġì¶ľ ì²ĺ
ìħ Ī
Ġë¨¹ ìĸ´
Ġìĸ» ê¸°
Ġê¹Ģ íĺĦ
è ²
íĤ ´
ĠíıŃ ëł¥
ĠëĤĺ ìĿĢ
Ġëĵľ ë¦¼
Ġëĭ¤ ì¹´
ìĿĮ ìĹĲ
ĠëĮĢ ê±°
Ġì°½ ìĦ¤
Ġê¿ Ģ
ĠìĺģíĻĶ ë¥¼
ĠìĽĲ ìĿ¸ìĿ´
ĠìºĲ ë¦¬
ĠíĬ¸ ëĿ¼ìĿ´
ĠìķĦ ëģ¼
Ġê³µ ìĦ±
ĠìŀĲ ëħĢ
ĠíĥĢ ìŀĲ
ĠíĦ ±
ìĿ¸ëį° ëıĦ
ĠìľłìłĢ ëĵ¤ìĿĺ
ë¬¸ ìłľ
Ġìľł ëĤĺìĿ´
Ġê°ĳ ìŀĳ
Ġìĺ¤ ëĶĶìħĺ
Ġì£½ ê¸°
ver y
ĠìĤ¬ìļ© íĸĪëĭ¤
Ġëĭ¹ìĹ° íķľ
ê´ĳ ìĹŃ
6 2
ĠìĹĺ íĶĦ
ê³ł íķľ
ãħ ĭ
ìĽĮ ì¹ĺ
ĠìĬ¬ ë¡¯
Ġê·¸ë¦¼ ìŀĲ
ëĵł ëĭ¤
ĠëĬ¥ëł¥ ì¹ĺ
ĠëĮĢ ëĭ¨íķľ
ê³¡ ìĿ´
Ġì¹ĺ ìľł
Ġë°ľ ìĿĦ
( \
Ġì§Ģ ìĿĢ
Ġìĭľ ëĮĢìĹĲ
Ġìĥģ ê¸ī
C C
I G
ì± Ķ
Ġíĥľ ëıĦë¥¼
ê¼ ½
ĠëıĻ ìª½
ë²Ķ ìľĦ
è¡ Į
ĠìłĦì²´ ê°Ģ
Ġê¸° ìĤ¬ê°Ģ
L L
Ġëĺ ¥
Ġë¶Ī íİľ
ĠìĬ Ľ
Ġíĺķ ìĭĿìľ¼ë¡ľ
5 7
Ġìĺ¬ ëŀĲ
Ġì¹¼ ëĤł
Ġê³¨ íĤ¤íį¼
ìĿĺ ìĿĺ
ĠS c
ëĮĢ ê¸°
ĠìĥĿê°ģíķ´ ë³´ë©´
Ġê°Ļ ëĭ¤ê³ł
Ġì½ľëĿ¼ ë³´
Ġë³´ ëĤ´ëĬĶ
Ġê°ľ ìĹħ
ë²Īì§¸ ë¡ľ
ĠìķĬìķĺ ëĭ¤ê³ł
ìĿ´ ê±°ëĤĺ
ì°¨ ë³Ħ
íģ´ ëŀĺ
æľ Ī
ìĿ¼ ë¶Ģ
íģ¬ ë¦¬
ul t
ãĥ ķ
Ġíĺ¸ ì£¼
ìłĲ ìĿĺ
Ġë§¤ ì¹ĺ
ĠìĦł ìłľ
ëł¹ ìĿĺ
ä¸ ĸ
ĠíĥĢ ê²Ł
Ġë°ĺ íķ´
Ġë°° ì¶ľ
ìĦ¼ íĬ¸
Ġì·¨ ëĵĿ
Ġë§İ ì§Ģë§Į
ĠíĻĶ ë¬¼
ĠìĻķ êµŃìĿĺ
ĠìĥĮ ëĵľ
ĠëĭĪ ì½ľ
ĠìĿ´ìļ© íķł
ë¨¸ ê°Ģ
p s
ìĿ´ìĹĪëĭ¤ ëĬĶ
ĠìłľìĻ¸íķĺê³ł ëĬĶ
ãģĭ ãĤī
Ġê°Ģë¥´ ì³Ĳ
Ġë¬¼ ì§Ī
Ġë² ¼
ì°¨ ìĽĲ
ìĿ´ ìĤ¬
ê³¡ ìľ¼ë¡ľ
Ġë¶Ī ìĿ´
Ġë¶Ħëªħ íŀĪ
Ġê±´ ëĵľ
ìĤ´ ìĿĦ
ê¸° ëĭ¤
íķĺ ê¸¸
ìĻķ ìĿĦ
ëĲĺìĸ´ ìŀĪëĭ¤
Ġêµ° ëĮĢë¥¼
b ackground
ëı¼ ìĦľ
ĠìķĦ íħĮ
ĠìĻĦ ê³µ
ìĺģ êµŃ
ìº ¡
ĠìĥĿ ìĿ¼
íĻĺ ìĿĺ
Ġìŀ¬ ë°Į
Ġë¬´ ê¸°ëĬĶ
Ġìľł íĨµ
áĨ ŀ
ĠëĳĲ ëĵ¤
Ġë¹Į ëł¤
ê·¸ ëłĩê²Į
ĠìĿ¼íĸī ìĿ´
Ġìĭ¤ ìĪĺ
ëĤĺ ê°ĢëĬĶ
ë¡Ģ ë¥¼
Ġë§Ī ì¼Ģ
ĠìĿ¼ ìĿ¼
ì¤Ģ ìĿ´
Ġê³µê²© ìĿĢ
ĠìĦ¸ ìĿ´ë¸Į
Ġë§Ĳ ëĿ¼ê³ł
Ġì¦Ŀê°Ģ íķľëĭ¤
Ġìª½ ìĿĢ
ë¯¸ ë¡ľ
ìŁ Ī
ìľ¼ëĭĪ ê¹Į
I P
Ġê°ĸì¶Ķ ê³ł
ab y
Ñ ģ
Ġ6 00
Ġë§Ī ìĬ¤íģ¬
Ġê¸° ìĥģ
Ġëħ¸ ëł¤
íķľêµŃ ìĸ´
ĠíķŃ ë³µ
ĠìĿ¸ ì¢ħ
Ġìĭľ ìľĦ
íĨł ëĭĪ
Ġì§Ħ ìĭ¬ìľ¼ë¡ľ
ĠíĹ Ĳ
Ġì±ħ ìŀĦìĿĦ
ĠH D
íĿ ī
ĠìĦ¸ ëĮĢ
ĠíĻķì§Ħ ìŀĲê°Ģ
Ġë¸Į ë¡ľ
ĠìľĦ ê¸°ë¥¼
íĥĢ ìŀĲ
ëĬĶ ê°Ģ
Ġ4 4
ĠëĪĦ ë¥´ë©´
Ġê·¸ ëŀľëĵľ
Ġw e
ĠSK T
Ġc an
ìĨĮ ìĻĢ
Ġìį¼ ëĭ¤
Ġê°ķ ìĽĲëıĦ
ĠìĪĺ ìĿµ
ĠíķĺëĤĺ ë§Į
ĠëĦĺ ìĸ´ìĦľ
ê¸° íļį
ìķ ī
ĠìĿĺ íķĺìĹ¬
Ġìĸĺ ê¸°ë¥¼
Ġê±° ìļ¸
ìĹ´ ìĿ´
ĠìķĦ íĬ¸
ĠìķĦëĤĺìļ´ ìĦľ
Ġë§¤ ëł¥
Ġíıī íĥĢ
ìĤ° ìĭľ
198 0
ìĨį ìĿ´
ĠìĤ¬ëŀĳ íķĺëĬĶ
Ġì²ł ê±°
Ġë§Ľ ìĿ´
Ġìĭľì¦Į ìĹĲ
ĠíĶĦë¦¬ íģĲìĸ´
Ġë¬¸ìĦľ ë¥¼
Ġìĭ ¹
ĠìłĦ ì£¼
ìĭľ ìĬ¤íĬ¸
Ġë¨¸ ë¦¬ìĹĲ
ê°Ķ ê³ł
Ġìī Ĳ
ĠìķĦ íĭĢ
íĤ¤ ìĬ¤íĥĦ
Ġì¤ĳìļĶ íķĺëĭ¤
Ġì§Ģ ì¹Ń
ê³¼ ëĮĢíķĻ
ê°Ħ ìĿ´
ĠìĨį ìĿĺ
ĠìĿ¸ ë¯¼
ĠìľłëĭĽ ìĿ´
8 4
Ġì¶Ķ ì¢ħ
ĠìĪł ìĿĦ
ë¦¬ìĬ¤ ê°Ģ
ëĦĪ ë¥¼
ĠìłĦ ê¹Įì§ĢëĬĶ
Ġì§Ģ ë¢°
if e
Ġì§Ģ ëĥĪëĭ¤
ĠìķĦ ì¦Ī
Ġë°ĺ ë°ķ
ĠìŀĦ ëĮĢ
Ġë¬´ìĤ¬ íŀĪ
ĠìĥĿê°ģ íķł
Ġì£¼ ìĭĿ
Ġë¬´ìĦľ ìļ´
åį Ĺ
Ġìĺ¤ëŀľ ë§ĮìĹĲ
Ġ 00
ĠìłĦ ëıĻ
é ¦
íı¬ ìĬ¤
ìłĪ íķľ
Ġëħ¸ ë²¨
ìµľ ì¢ħ
ëłĪ ìĿĺ
ĠíĥĢ ê²©ìĿĦ
Ġìĵ° ìĹ¬
ĠíĺĦ ìŀ¥
ê³µ ê°ľ
ĠëĦĪ íĶĦ
ìłĢ ìĬ¤
ì½ ¥
ì§ĳ ìĿ´
ĠìĤ½ ìŀħ
E T
Ġì¹ ©
Ġê¸° íļĮê°Ģ
Ġìĭľìŀĳ ëĲĺìĹĪëĭ¤
Ġíķ´ëĭ¹ íķľëĭ¤
ìĤ¬ íķľ
ëįĺ ì§Ģ
Ġì¡ Į
íĶĮ ëŀĺ
Ġì°¨ ê¸°
ë§¤ ë¥¼
Ġë¹Į ëĵľ
ìłĢ ëŁŃ
ë¸Į ë¡ľ
Ġìĭ¬ ìŀ¥
ĠëĿ¼ìĿ´ ìĺ¨
ĠëģĿ ìľ¼ë¡ľ
Ġê¹¨ ëĭ¬
ĠìĤ¬ë§Ŀ íĸĪëĭ¤
ĠìĹĨ ìľ¼ëĤĺ
Ġë¶Ģë¥´ ë©°
Ġ al
ĠíĢ ´
ĠìĪĻ ëł¨
Ġë°° ìłķ
Ġë°Ķëĭ¥ ìĹĲ
ìĿ´ ê±´
ìĦľ ìķ¼
ĠëĲľëĭ¤ ë©´
è ī
ì¦Ī ëĭĪ
ìĬ¤ ëłĪ
Ġë°Ķ íĢ´
íĦ° ë¡ľ
ĠìĿĺ íķ´ìĦľ
Ġë²ķ ìłķ
Ġ6 5
Ġëª¨ìĬµ ëıĦ
ĠìłĦ ìĦ¸ê³Ħ
ë¯¹ ìĬ¤
ëĬĶ ì§ĢëĬĶ
Ġì²ĺìĿĮ ìĹĲ
ĠìĿ´ ì¢ħ
Ġíķ© ëĭĪëĭ¤
198 8
ë§Ī ì¸ł
ĠëĮĢ ìĦ±
Ġê¸° ì§Ģ
Ġëħ¹ ìĥī
ĠìĬ¤íĥĢ íģ¬ëŀĺíĶĦíĬ¸
Ġê¸° ìłĲìľ¼ë¡ľ
ì²´ ìĻĢ
Ġì½Ķë¯¹ ìĬ¤
ĠíĸĪ ìĹĪëĭ¤
ĠìĿ¼ë¶Ģ ë¥¼
ĠëłĪ ìķĮ
Ġë°Ľìķĺ ê³ł
Ġë¯¸ ì¹ĺ
Ġìĸ¸ ëįĶ
ëŁŃ ìłĢëŁŃ
ë© ¤ë²Ħ
ĠìĨĮ ìŀ¥
Ġê°Ģ ìĭľ
I M
ĠëĤĺ ê°Ħ
Ġìłķ íĨµ
ĠìĦ¸ íı¬
ãģ£ ãģŁ
Ġìĸ´ë¨¸ëĭĪ ê°Ģ
ë¦¬ ìĹĲê²Į
Ġë¯ ¹
Ġì£¼ ìĤ¬
Ġìĺ¤ ì¹´
ĠìĽĲ ìŀĲ
ìĭľ ì¦Ī
Ġê°ľë°ľ íķľ
ìĥģ ëĮĢ
ĠíĿ¡ íĺĪ
Ġë©ĭ ì§Ħ
Ġë§Ī ê·¸
¯ Ķ
ìĤ° ìĹĲ
ĠìŀĳíĴĪ ìĿĢ
Ġë§ī ëĤ´
ìļ´ ìĿĦ
ìĿ´ ìłĦ
Ġíĺ¸ ì¹Ń
ë³ĳ ìĿĺ
ëĤĺ ê¸°
ìĹŃ ê³¼
ĠíĿ¬ ê·Ģ
ë¦¬ ê±°ëĤĺ
Ġì¸¡ ìĹĲìĦľ
ìĺ¤ ìĺ¤
ĠìĻĦ ê²°
ĠìĤ¬ê±´ ìĹĲ
Ġìĭľê°Ħ ìĿĢ
Ġëĵ¤ìĸ´ ê°Ķëĭ¤
r u
Ġë°ľ êµ´
Ġëĭ¨ ì¶ķ
ï ¾
ĠìŀĲ ë§ī
ëħ¸ ëĬĶ
Ġê³µ ìĤ¬
Ġì§Ī ë¬¸ìĹĲ
ê²½ ìļ°
ëŀĢ ìĿĦ
ĠêµĲ ìłĦ
ĠìĿ¸ ìĽĲ
198 9
ĠíĶĮëłĪìĿ´ìĸ´ ëĬĶ
ĠìĦľ ìª½
ĠìĻĦìłĦ íķľ
Ġìĥģíĥľ ë¥¼
Ġêµ¬ íķł
æ° ı
ì± Ī
Ġìĸĳ ìĿĺ
Ġíı¬ íĬ¸
ĠH e
Ġëľ» íķľëĭ¤
ĠìĨĮìĨį ìĿĺ
Ġì´Īê¸° ìĹĲëĬĶ
ìľĦ íķ´
Ġë¬´ ì§Ģ
ë´ Ħ
Ġìĸ¸ ìłł
ê·¸ ëħĢ
w ay
Ļ ìĿĢ
ìĿĺ íļĮ
ĠëıĻ íĻĶ
Ġë²Ħê·¸ ê°Ģ
Ġìŀ¥ë©´ ìĹĲìĦľ
Ġë¿ ľ
ìĹĲ ë¥´
ĠíĹĪ ëĿ½
ëł¨ ìĿĺ
ç Ĳ
ff ff
ê±´ ìĿĺ
Ġëĭ® ìĿĢ
ëĿ¼ ë©´ìĦľ
ĠìľĦ ëĮĢíķľ
ĠìĪ¨ ê²¨
ë³¸ ëĭ¤
íĶ¼ ê°Ģ
ĠìĿĮ ìĭĿìĿĦ
on s
ìłĢ ê°Ģ
ĠìĻĢ ì¤ĳ
ä ¾
ĠìĹ° ë§¹
Ġìķ½ ìłĲ
ĠìľĦ ê¸°
Ġë¶Ħ ìŁģ
ëĨ ĢìĿ´
ìľł íĿ¬
ë¹Ħ íķľ
ĠìĿ¸ êµ¬ê°Ģ
Ġìĺ¤ ë§Ī
Ġê¸° íļĮ
ĠíĶĮëłĪìĿ´ ê°Ģ
ĠìłĦë°ĺ ìłģìľ¼ë¡ľ
k y
c olor
ë³ĳ ìľ¼ë¡ľ
ĠìĿ´ë²¤ íĬ¸ê°Ģ
ĠíĮĮ ìĥĿ
Ġì±Ħ íĮħ
i er
Ġì¹´ ëĵľëĬĶ
Ġë³Ħ ëªħ
ĠìĤ¬ëł¹ ê´Ģ
íĪ ¼
Ġê²½ìļ° ìĹĶ
ëĥĪ ê³ł
ĠíĬ¸ ëłĪìĿ´ëĵľ
ĠëĭĮ ìŀĲ
ê¹ ĥ
Ġì¶ľìĭł ìľ¼ë¡ľ
å §
è¦ ĭ
å¹ ´
Ġëª» ì§Ģ
ë²ł ë¦¬
Ġë§Į ëĤ¨
Ġíŀ Į
Ļ íķ©
Ġê¼ ¼
ĠìĿ´ë²¤ íĬ¸ë¥¼
ë¦¬ ë²Ħ
íħĶ ëłĪ
Ġìķħ ìĹŃ
Ġìĺ¬ ë¦´
ëª© ìĿ´
ĠìĨĮ ì§Ģ
Ġëħ¸ìĦł ìĿ´
ĠìĦ± ê²©ìĿĦ
Ġì²ľ ìĤ¬
Ġì½Ķ ì½Ķ
Ġìĭł íĺ¸
Ġê²½ìĥģ ëĤ¨ëıĦ
ĠG r
å īį
ë²ł ìĿ´íĦ°
Ġë¬´ ìĤ°
Ġì²´ íģ¬
Ġìŀ¥ ìłĲìĿ´
Ġì»¬ ëŁ¬
ĠëĦ£ ìĿĦ
Ġì§Ħ ìĭ¤ìĿĦ
ĠëĬĲëģ¼ ê³ł
Ġê°Ģ íķ´
ĠìĿĮ ìĦ±
ì¸µ ìĿĺ
Ġê·¸ ëŁŃìłĢëŁŃ
Ġëª¨ìĸĳ ìĿĺ
ëĬ¦ ê²Į
Ġì¡° ë¡±
ĠìĤ¬ëĿ¼ ìł¸
Ġìµľ íķĺ
Ġìļ© ìĸ´
ĠìŀĪ ëĵ¯ìĿ´
Ġëª©ìĨĮ ë¦¬ë¥¼
ìĻĶ ê³ł
ìŀ¥ ìĿ´ëĭ¤
Ġê°Ģ ëıĻ
ë°ĺ ìĿĺ
Ġê°Ģ ì¡Įëĭ¤
ĠëĤ¨ ê²¼ëĭ¤
a i
(âĢ¦ ).
Ġê°Ī ëĵ±
ĠìļĶ ìłķ
ĠìĤ¬ìĿ´ ëĵľ
Ġë¬¸ ìŀ¬ìĿ¸
Ġíģ¬ë¦¬ìĬ¤ ë§ĪìĬ¤
Ġë°ĶëĢ Ĳëĭ¤
ìŀ¥ ë¹Ħ
ĠëĴ¤ì§ĳ ìĸ´
Ġê³µìĹ° ìĿĦ
Ġì²ľ íĻ©
ê±¸ ë¡ľ
ĠìĿ¼ ìĹĲ
Ġê·¸ ëłĪ
ĠìĦłìĪĺ ë¥¼
Ġíĭ° ì¼ĵ
ìļ´ ìĿĺ
Ġì£¼ìĿ¸ê³µ ìĿĢ
Ġíĺķíĥľ ë¥¼
ì¤ĳ ìĿĺ
íĪ¬ íĳľ
ìĶ¨ ë¥¼
Ġë³Ģíĺ¸ ìĤ¬
ĠìľłíĬľ ë²Ħ
Ġì£¼ ê°Ħ
Ġëĭµ ìĿ´
Ġë§ī ëĬĶ
Ġë¶Ī ë§ĮìĿĦ
ì¤ĺ ìĦľ
Ġë¹¼ ë©´
Ġíİ¸ ìĿ´ì§Ģë§Į
Ġì£¼ìŀ¥ íĸĪëĭ¤
Ġë¹Ħ ì£¼
T BC
ê¸¸ ìĿĦ
Ġ9 5
ìķĪ ìłĦ
Ġë°ĳ ìĹĲ
ëł¸ ëĬĶëį°
å Ĵ
ĠìłĦì²´ ìłģìĿ¸
ìŀĪ ìľ¼ë©°
Ġì´Ī ë¡Ŀ
ĠìĦ± ìĿĦ
Ġê³¼ ëıĦ
Ġìķłë§¤ íķľ
ìĭ¸ ìĽĢ
ĠK ë¦¬ê·¸
Ġì²ĺ ì°¸
ĠíĽĦ íĩ´
Ġ19 50
ĠìķķëıĦ ìłģìľ¼ë¡ľ
Ġì§ĳ íķ©
ìļ° ëĿ¼
Ġì² ©
Ġìĸ´ëĳĲ ìļ´
Ġìĥģ ìŀĲ
ì¶Ķ ê°Ģ
ĠìĤ¬ ê³łë¥¼
Ġì§Ģ ë¦¬
Ġê¸°ê´Ģ ì´Ŀ
ëĿ ł
Ġê³µê²© ëł¥ìĿĦ
Ġìľłë¦¬ íķľ
O U
Ġíķ´ ì¤Ģëĭ¤
ĠíĮ¬ ëĵ¤ìĹĲê²Į
ìŀĳ ê°Ģ
Ġìĭ¶ ëĭ¤ë©´
Ġë§Ī ìķ½
ĠëłĪ ìĸ´
Ġìĭľìŀĳ íķĺìĺĢëĭ¤
ĠìĹ¬ ë¡ł
ĠìľĪ ëıĦìļ°
Ġë²ĦíĬ¼ ìĿĦ
Ġíĥľ íıīìĸĳ
ĠK BO
êµ°ëĭ¤ ëĤĺ
Ġìľł ìĿ¸
ĠìĿ¸ê°Ħ ìĿĦ
ĠëıĻ ëĤ¨
Ġì¹´ ìĺ¤ìĬ¤
ë© §
ëĶĶ ìĹĲ
Ġë§Ī ì½Ķ
ĠìĹ° ê¸Ī
ë³´ íĺ¸
Ġëª¨ ëĭĪ
Ġë°ķ ìĬ¤
ê´ĳ ì£¼
íĮĮ ëĬĶ
Ġê·¸ëŁ¬ ëĭ¤ê°Ģ
íķ¨ ìĿĢ
ĠíĶĦ ëŀĢ
Ġ4 6
Ġìĭ¬ì§Ģìĸ´ ëĬĶ
íĶ¼ íķ´
D S
ë£¨ ìĻĢ
Ġ4 1
Ġê±¸ ë¦¬ëĬĶ
Ġì£¼ ìŀ¥ìĿĦ
Ġìłķ ë¹Ħ
íĦ° ë¯¸ëĦĲ
Ġìĺģ ê´ĳ
ìĬ¨ ìĿĢ
ĠìķĦë²Ħ ì§ĢëĬĶ
ĠëĬĺ ìĹĪëĭ¤
ç ¤
Ġíģ¬ ê¸°ê°Ģ
ĠìĥģëĮĢ ìĹĲê²Į
ìī½ ê²Į
Ġíģ´ ëŀľ
ĠìĤ¬ëĥ¥ ê¾¼
ĠëĮĢ ì¹ĺ
ation al
ê¸° ìĸ´
Ġíĺ¸íıī ìĿĦ
ç ¶
ì¹´ìĿ´ ëıĦ
ĠíķĦìĤ´ ê¸°
ĠFC ìĿĺ
8 2
Ġêµ ¿
Ġìĭľìŀĳ íĸĪê³ł
ìŀĪ ëĬĶëį°
ĠíĥĦ ìķ½
ĠS NS
Ġë°Ľ ê¸°
Ġê´Ģ ìĹ¬
ìĽĮ ì¦Ī
ìĸ´ ëĬĲ
ì½Ķ ìĬ¤íĬ¸
ĠìĹŃ ìĤ¬ë¥¼
ìłķ ëıĦë¡ľ
ĠëĤĺ ê³ł
ĠíĴĢ ëł¤
Ġëħ¸ ë¦¬ê³ł
ì§¸ ë¡ľ
Ġì¡°ìļ© íŀĪ
ê ¶¤
ĠìĶ Į
í ĳ¼
åħ ī
Ġì°¸ìĹ¬ íķľ
ĠìĤ¬íĥľ ê°Ģ
8 3
é »
Ġë§¤ ëĭ¬
ĠëĤł ì¹´
Ġíķ¨ ìĦł
íķ¨ ìľ¼ë¡ľ
Ġêµ¬ ë³Ħ
ë¦¬ ì¦ĺ
ë§Ī ëĤĺ
ê°Ĳ ìĹĲ
Ġëĭ¹ ìĿ¼
Ġê°Ĳ ì§Ģ
ë°° íĭĢ
ĠìĬ¤íİĺ ìĿ´ìĬ¤
Ġëĭ¤ ëħĢ
c o
ëĦ¤ ìļĶ
ĠìĽ¹ ìĤ¬ìĿ´íĬ¸
ĠìĦľìĦľ íŀĪ
Ġìĸ¸ê¸ī ëĲľ
7 3
Ġë§¤ ì§ģ
ìĦ¤ ìĿ´
ĠìĬ¤íĨł ë¦¬ë¥¼
ĠíĮĮ ëĬĶ
Ġë¬´ ìĹŃ
ĠìŀĲìĭł ëĵ¤ìĿ´
Ġìļ° íģ¬ëĿ¼ìĿ´ëĤĺ
Ġê°Ħ ëĭ¨íķľ
ĠìĻķ ì¡°
ĠëĿ¼ íĭ´
íĶĮ ë¡ľ
Ġëĥ Īëĭ¤
Ġêµ¬ ê¸Ģ
Ġìŀ¥ ìłĦ
ë¨¹ ìĿĢ
ë¡ł ê°Ģ
ĠëĤĺ ì¹ĺ
ìĭľ ëĭ¤
ê±° ìĿĺ
Ġëĵľ ëŁ¼
Ġ1 01
ë³´ ìĿ´ëĬĶ
Ġë¹Ħ ìĽĥ
Ġì§Ģ íĮ¡
ĠëģĿ ëĤľëĭ¤
ĠëĤ¨ ê¸°ê³ł
Ġêµ¬ê°Ħ ìĿ´
êµĲ ìĤ¬
ãĤ ³
ĠëĤ´ ìķ¼
ë²Ī ìľ¼ë¡ľ
æ ģ
ĠìĬ¤íĨł ë¦¬ê°Ģ
Ġê¸¸ ëĵľ
Ġíĸ¥ íķľ
ª ¼
ìĤ´ ìĿ´
ĠìĹĨ ìľ¼ë¯Ģë¡ľ
Ġëĵ¯ ìĿ´
Ġìĺģ ë¬¸
Ġìĥģ ë¥Ļ
Ġíĺ¸ ìĨĮ
ĠëĦĺ ê²Į
Ġë°° ë¥¼
Ġë³´ìĿ´ ëĬĶëį°
ĠìĮį ëĳ¥ìĿ´
Ġìĭľ ëĵľ
ĠâĨ Ķ
íĿ¬ ëĬĶ
ê²ĥ ìĿ´ëĭ¤
ĠëĤĺ ëıĦ
Ġë³´ ì¶©
ĠíĶ¼ ê°Ģ
íĻľ ëıĻ
ĠìĿ´ ê¸´
ìłĢ ìĿĺ
ĠëĺĲ ëĭ¤ë¥¸
Ġëĳĺ ìĿĦ
ë°ĺ ìĿ´
ë³¸ ëŀĺ
ìĿĮ ìĿĢ
íĽĪ ìŀ¥
Ġê³ł ê°Ŀ
Ġê±´ì¶ķ ë¬¼
ĠìļĶ ìĽĲ
Ġì£½ ìĹĪëĭ¤
Ġìľł ìĿĺ
Ġíİ Ħ
Ġëķħ ìĿĦ
Ġëĵ¤ìĸ´ ìĺ¬
Ġë³Ģ íĻĺ
ê¶ Ĳ
st yle
ĠëĦĪ ìĿĺ
Ġìľłì§Ģ íķĺê³ł
Ġë³Ģ íĻĶê°Ģ
ìŀ Ń
ëĤ¨ ìŀĲ
Ġëĭ¹ ìĤ¬
Ġíĸ Ħ
Ġíķĺ ìĺĢê³ł
Ġê±° ì§Ģ
ĠìĦ± ëĤ¨
ëĭ´ ìĿ´
ĠíĶĦëłĪ ìŀĦ
ê²° ê³¼
ĠíĮĢ ìĽĲ
ĠíĬ¸ ë¡¤
Ġë³´ ë©´ìĦľ
Ġëħ¸ ë¦¬ëĬĶ
ëĪĦ ë¦¬
Ġë§¤ ë²Ī
ë¡ľ ìĹĲ
ĠëĲĺìĹĪ ì§Ģë§Į
Ġíķĺ ìĹĲ
Ġì§Ģ íĤ¤ëĬĶ
ĠìĥģëĮĢ ëĬĶ
ĠìĬ¤íĤ¬ ìĿĢ
Ġê³µ ê¸°
Ġëªħ ë°±
ĠíĹĪ ë¦¬
Ġê¸´ ê¸ī
Ġë°Ķ ê°Ģ
Ġê°ľ ì²´
ĠëĶĶ ìł¤
Ġê³ ±
Ġë°ĺ ìĤ¬
Ġë¬´ëł¥ íĻĶ
ìĨĮ ì´Ŀ
ìĬ¤ëŁ¬ ìĽĮ
ëħ¸ íĬ¸
ow s
ìĸ´ë²Ħ ë¦¬ëĬĶ
íĴĪ ìĿ´
Ġì°¨ ìĿ´ëĬĶ
Ġìĭł ìŀħ
Ġg o
êµ° ìĹĲê²Į
Ġìļ© ìĦľ
Ġê¸Ī ìķ¡
ĠìĦłìĪĺ ìĿ´ëĭ¤
íĥĢ ìłĲ
ĠìĿ´ ë£¬
ê²½ ìĥģ
ì¸ł ëĬĶ
íĮĮ íĭ°
ĠìĽĮ ìĭ±íĦ´
Ġì¹ľ íķľ
ĠëĮĢ ì¡°
êµ¬ ì¡°
ĠíĶĦë¡ľê·¸ëŀ¨ ìĿĦ
le s
ĠĠĠĠ ĠĠĠĠ
Ġê°ģê°ģ ìĿĺ
Ġê·¸ëŁ¬ ëĭ¤
Ġë¡ľ ê·¸
Ġì¡°ê±´ ìĿ´
ĠëģĬ ìŀĦ
ĠëģĬ ìĸ´
Ġì§Ģíľĺ ê´Ģ
íĨł ë¥´
ĠíĺĲ ìĺ¤
ìŀĪ ìĹĪëĭ¤
Ġìĺ¹ íĺ¸
ĠëŁ Ń
ĠëĬ¥ëł¥ ìľ¼ë¡ľ
Ġíİ¸ ìĹĲ
Ġê²½íĹĺ ì¹ĺ
ìĿĮ ìĿĺ
ĠíĽĪëł¨ ìĿĦ
ĠìĦľë¹Ħ ìĬ¤ë¥¼
Ġì§ģìłĳ ìłģìľ¼ë¡ľ
7 2
Ġëĭ¬ ëĿ¼ê³ł
Ġ4 3
ĠO r
ĠìłĦ ìĹŃ
ĠS e
Ġë³µìŀ¡ íķľ
ì¡± ìĿĦ
ĠëĤĺìĺ¤ ê¸°ëıĦ
ìŀĳ ìľ¼ë¡ľ
íĽĪ ìĿ´
Ġ197 9
Ġìłķ ê¸°
Ġíį¼ íı¬
ë¬¸íĻĶ ìŀ¬
íĸĪ ëĵ¯ìĿ´
ĠìŁ ģ
íķĺê³ł ëĬĶ
ì£¼ ìĹ°
Ġìĸµ ì§Ģë¡ľ
Ġê°ľ ìĭłêµĲ
ì¿ł ìĬ¤
Ġì± ķíĦ°
ĠìĹ¬ ì§Ģê°Ģ
ë¿ Į
ĠìĤ¬ íĺķ
Ġd o
ëħĦ ê³¼
Ġì¶ľìĭľ ëĲĺìĹĪëĭ¤
Ġì½Ķ ë¦¬ìķĦ
ĠíĤ¤ ê°Ģ
ĠëĮĢëĭ¤ ìĪĺ
ì±Ħ ëĦĲ
ĠìĿ¼ íĸīìĿĦ
Ġìĥģíĥľ ìĺĢëĭ¤
Ġë¬´ìĭľ ë¬´
ìłĢ ê¸°
Ġì§Ħ íķĻ
Ġê¸¸ ìĸ´
Ġë³´ ìĦĿ
ĠìĨĮ ìĭĿìĿ´
9 1
ĠëįĶ ìĿ´ìĥģ
Ġìŀĺ ëĿ¼
ĠìĿ´ ìĽĥ
is e
ĠëĨĵ ìĿĢ
ìĦł ìĥĿ
Ġê³Ħ íĨµ
Ġìŀł ìŀħ
ì½Ķ ìĬ¤
ĠìłĦ ë¬´
ìĹ° ëĮĢ
ìħĺ ìĿ´
Ġìľł ê²©
ê²Ģ ìĤ¬
íĥĢ ìĿ´ìĸ´
Ġìį¨ ìķ¼
N o
c c
Ġì°¨ ìĿ´ë¥¼
Ġë¬´ ìĬ¹
ĠìłĦëĿ¼ ëĤ¨ëıĦ
ĠC PU
Ġì¢ĭ ëĭ¤ê³ł
ìľĦ ìĹĲìĦľ
Ġë¬´ ìĿĺ
ĠíİĺìĿ´ìĬ¤ ë¶ģ
ë¦¼ ìĿĺ
ĠìĹ¬ ìľł
ĠìĤ¬ ì¹´
ìĭł ë¬¸
ĠíĽĦ ìĽĲ
Ġìĭ¬ ìĭ¬
ĠëĤĺ ìĿ´ìĹĲ
Ġê¸°ìĪł ë¡ľ
Ġê³ł ìĬ¤íĬ¸
ëª© ìľ¼ë¡ľ
ìĽĶ ìĿĺ
~ )
Ġê·¸ëłĩ ê³ł
ĠíĨµ íķĺìĹ¬
Ġìĺģ ìĹŃ
ĠìĿ´ëĵĿ ìĿĦ
Ġê·ĢìĹ¬ ìļ´
ëĸ ¼
Ġê±´ ë¬¼ìĿĦ
íķĺê¸° ë¥¼
ĠìĤ¬ìĿ´ ë²Ħ
Ġìĭľ ìķ¼
Ġë¸Į ëłĪ
ëıĦ ìĦľê´Ģ
ĠìĥĿê°ģ íķľëĭ¤
Ġë¶Ģìłķ ìłģìĿ¸
ìĹ¬ ëŁ¬
ìĥĿ ëªħ
Ġê´Ģ ì¤ĳ
ì²ĺ ë¦¬
Ġëķħ ìĹĲ
o ol
Ġê³µ ë¬´ìĽĲ
ĠëıĦ ëĳĳ
è Ĭ
íĺĦ ìĿĦ
Ġì·¨ íĸ¥
ĠíĨµ íĭĢ
A K
Ġìłľ ê°Ģ
Ġf rom
ĠëĤĺ ëĿ¼ìĿĺ
ĠìĦ¸ ëł¥ìĿ´
ìłķíĻķ íŀĪëĬĶ
ĠìĿ¸ ëĶĶ
ìĿ¸ êµ¬
ĵ âĨ
ĠìŀĲëŀĳ íķĺëĬĶ
Ġëĵ¤ìĸ´ ìĺ¤ëĬĶ
Ġ8 5
ê·¸ ëĤĺë§Ī
æ³ ķ
ĠìĨĮ ìļĶ
ĠE P
ìŀĳ ê³¡
Ġê²° ë§Ĳ
Ġë³µ êµ¬
Ġì²´ ìĿ¸
Ġ are
æ ŀ
ĠëĤĺìĺ¤ ë©´ìĦľ
ë®¤ ì§ģ
Ġíİ «
ìĪĺ ìĽĲ
ê°ķ íĻĶ
ĠìĦłê±° ìĹĲìĦľ
ĠìłĢ íĥĿ
Ġì¶Ķìłķ ëĲĺëĬĶ
f r
Ġìĭł ëıĦ
å¤ ª
ĠìĦ¸ê³Ħ ìĹĲ
Ġl ove
Ġê¶ģ ê¸Ī
ĠìĦ¸ ëł¥ìĿĦ
ĠìłĢ ê·¸
å¹ ³
ĠíĮĶ ìĿĦ
ĠìĿµ ìĬ¤
d d
Ġìķ½ íĥĪ
ëĿ¼ íģ´
ĠìĹĦ ê²©
íĮ© íĬ¸
Ġì²ł ìĪĺ
ì°¨ ìĿĺ
Ġíıī ìĥĿ
ë°± ê³¼
ĠC J
ĠìĨĮ ìĨ¡
Ġê°ģ ìŀĲ
Ġë°Ķê¿ Ģ
Ġíķ´ ê³¨
ìĭł ëıĦ
íİ¸ ìĿĦ
Ġ km
ĠìĤ¬ ê·Ģ
Ġëª «
ê±° ëŀĺ
Ġâ Ĺ
L G
Ġì¶© ìĦ±
ìĪĻ íķľ
ĠëıĮìķĦ ê°ĢëĬĶ
ìĬ¤ ëŁ°
Ġìŀĳ ìłĦìĿĦ
ĠìĹ° ê¸°ë¥¼
P M
ĠìŀĲ ëĿ¼
ìĹ° ë§¹
ëłĪ ë¥¼
ëĭ¹ ê³¼
Ġìļ°ë¦¬ ëĤĺëĿ¼
ì¹ĺ ìķĦ
ĠëĤ¨ìķĦ ìŀĪëĬĶ
ĠìķĦ ê¸°
c l
íķĺ ê²łëĭ¤ëĬĶ
ìĤ° ìĿĢ
ĠíĥĲ íĹĺ
Ġì¹ĺëªħ ìłģìĿ¸
íĶĮ ëłī
Ġëĭ´ ê¸´
ë¡ľ ìĿ´
Ġë¶Ģ ë¥´ê³ł
ĠN ew
ĠíĤ¤ ìĬ¤
ĠìĪĺ ë¦½
Ġê°Ģê²© ìĿĢ
: -
Ġê³µ ìŀ¥
ĠìĪĺìĥģ ìŀĲ
ĠíķľêµŃ ìĹĲ
å ³
Ġìłģ ì¤ĳ
Ġê²ĥ ë³´ëĭ¤
ëĭ¬ ëŁ¬
Ġìĸ´ ìĿ´
Ġìłľíķľ ìĿ´
ĠíķŃ ìĿĺ
ë©Ķ ëĿ¼
Ġìŀ¬ íĻľ
Ġë§ ·
æĸ °
ĠíĴ ĭ
Ġíı¬ê¸° íķĺê³ł
Ġë²Ħ ë¦¬ëĬĶ
ĠK O
Ġë°Ľ ìķĦìĦľ
ì· Ħ
ìĹ¬ ìĦ±
ĠíĬ ¼
ëĮ ĵ
ìļ° ìĬ¤ìĿĺ
ĠëĮĢ ì§Ģ
Ġíķľ ëĳĲ
ĠíĬ¹ë³Ħ íŀĪ
Ġìıĺ ëĬĶ
Ġì¹´ ë¯¸
Ġì¤Ģ ë¹Ħë¥¼
ĠìĿ´ íķĺìĿĺ
Ġê²°ìłķ ìłģìĿ¸
ĠëĤĺ ê°Ī
ĠíļĮ ìĥģ
íĥĲ ìłķ
ë¦¬ìŀĲ ë²ł
Ġë§Ī ê°Ĳ
ìĦ¸ ìĻĢ
ìŀĲ ìĭłìĿĺ
ëł¸ ì§Ģë§Į
íĥĢ ëĭĪ
ĠìĹ´ ë¦¬ëĬĶ
" (
Ġë°± ìĦ±
ĠìĿ¼ë¶Ģ ëĬĶ
ĠìĹĲ ë¥´
ì²ľ ë§Į
ĠíĹ Ŀê°Ģ
ê²© ìĿĺ
Ġê°Ģë§Į íŀĪ
ĠìĹ¬ íķĻìĥĿ
ĠëģĿ ëĤ¬
ĠíĬ¹ìĪĺ íķľ
Ġìĸ´ íĥĿ
ĠìķĦìĿ´ ìĸ¸
ë²ķ ìľ¼ë¡ľ
Ġì°½ ìĽĲ
Ġì²´ íĹĺ
Ġë²ķ ì¹Ļ
Ġë²Ī ìĹĲ
ĠëĶľ ìĿĦ
Ġ all
ĠT r
ëĤĺ ê°Ħ
Ġê°Ħ íĺ¸
ë£¨ ìĪĺ
am p
ĠìłĦ íĻĶë¥¼
A A
ãĤ ª
ĠíķĦë¦¬ íķĢ
ĠëıĦìĽĢ ìľ¼ë¡ľ
ĠìĬ¤íĤ¬ ë¡ľ
ĠìĽ¬ ë§Įíķľ
ĠìĤ¬ ëıĦ
Ġ Î
ìļ© ìĿĢ
ĠìķĦë²Ħ ì§Ģë¥¼
Ġë©° ì¹ł
ĠìĤ¬ ë²ķ
Ġì½Ķ ëĤľ
Ġìĭľë¦¬ì¦Ī ë¥¼
ĠìĦľ êµ¬
ĠëĮĢ ëĭ¨
ĠìłĢì§Ģ ë¥¸
ĠìķĦëŀĺ ìĿĺ
ëĲĺ ë¯Ģë¡ľ
le ft
ê³ł ëł¤
ë¸Ķ ë¦°
ĠìĺĪ ìĸ¸
ĠìĤ¬ìļ© ëĲľ
ĠíĴį ë¶Ģ
Ġìĭľ ìĽĲ
Ġ194 5
Ġê³¡ ìĿĺ
ĠìŀĲìľł ë¡Ńê²Į
è Ń
Ġ18 0
ĠìĦłìĪĺ ëĬĶ
ĠìĤ¬ìļ© íķĺë©°
Ġì¤Ħ ìĹ¬
7 8
Ġì¹´ëĵľ ë¡ľ
Ġê°Ģë¦¬ íĤ¨ëĭ¤
íĤ¤ ì§Ģ
íİĺ ìĿ´ìĬ¤
ĠëıĻ ìĸĳ
ëª¬ ìĿĺ
Ġíĺ¸ íĻĺ
è ³
Ġì¹ĺ ë©´
ĠìķĦëŀĺ ë¡ľ
ĠëķĮë¬¸ ìĿ´ëĿ¼ê³ł
h y
ĠíĶ¼ íĦ°
ĠëĤĺìĻĶ ëįĺ
Ġìĭľë¦¬ì¦Ī ìĹĲ
Ġê·¸ ëŀĳ
ĠìĨĮ ëĵľ
ìĪ ²
ìĭ¬ ìĿĺ
íģ¬ ìĹĲ
Ġê¸°ì¡´ ìĹĲ
Ġê±° ì¹ľ
Ġë°ľ ëłĮ
Ġì½Ķ ë¥´
ë²Ī ê³¼
íĶĮ ëĿ¼
ĠìķĬìķĺ ëĭ¤ëĬĶ
íĺĢ ìĦľ
ĠíĦ° ìł¸
Ġìĭ¶ ëĭ¤ê³ł
æµ ·
Ġëģ Ħ
ĠìĦł ìŀĦ
Ġìļ° ë¦¬ìĿĺ
ĠA p
Ġê¸°ë¡Ŀ ìĿĢ
ĠìĤ¼ ìķĦ
at ch
Ġë¡ľ ë²ĦíĬ¸
ëĲĺìĹĪ ê¸°
ëĮĢ ì²´
ë¶Ħ ìľ¼ë¡ľ
Ġì¶ķ ìłľ
Ġëħ¸ìĦł ìĿĦ
Ġì¡¸ìĹħ ìĭĿ
íĮĲ ê³¼
ĠìĨį íķľ
Ġíķ´ íĤ¹
Ġê³µ ì§Ģ
ĠìĦ¸ ë¸Ĳ
5 2
Ġì¶ľ ë²Ķ
Ġê´ľ íŀĪ
Ġë¬´ ìĿ¸
ol og
Ġìĭľì²Ń ìŀĲ
ĠìŀĪ ê²łì§Ģë§Į
Ġì¢ĭ ìķĦìĦľ
ĠíĥĢ ì¿ł
Ġíį¼íı¬ ë¨¼
Ġê°ĢëĬ¥ ìĦ±ìĿĢ
Ġë³´ ê±´
Ġê²½ìļ° ìĹĲëıĦ
Ġíģ¬ë¦¬ìĬ¤ íĥĪ
ê°ķ ìĹĲìĦľ
ë§Ī ì¹ĺ
Ġë²Īì§¸ ë¡ľ
íĻĺ ê²½
ìĹ¬ íĸī
Ġê°Ĳëıħ ìĿĦ
ëĦ¤ ìŀĦ
ëĵ± íķľ
íĶĦ ëĿ¼ìĿ´
ëĵ¤ ì²ĺëŁ¼
é ļ
ì²ľ êµ°
ĠìĦłíĥĿ íķł
Ġì²ľ ìĹ°
ë³´ ìĿĺ
ĠíħĮ ëŀĢ
ĠìĽ¨ ìĬ¤íĬ¸
Ġìĸµ ìłľ
Ġìĺ¨ ëĭ¤
ĠëĮĢ ìĦł
ĠëįĶ íķ´
9 3
Ġë²Ī ëıĦ
íķ© ìĿ´
ĠíĽĦ ê¸°
or n
198 7
ìķĦìĿ´ ëıĮ
ìĦ¸ ìĦľ
ê¸° ê²Į
Ġì·¨ ìķ½
ëĪĦ ìĬ¤
ĠìĺģíĻĶ ìĿĺ
é ¡
5 4
Ġêµ¬ì¡° ë¥¼
ì£¼ìĿĺ ë¥¼
Ġë²ĦìłĦ ìĿĢ
ì§Ģ ëĭĪ
Ġê·Ģ êµŃ
éķ ·
Ġëį¤ ìľ¼ë¡ľ
ĠíķĻêµĲ ìĹĲ
ìĸ´ ìĹĲ
ìĽĲëŀĺ ëĬĶ
Ġë¡ ł
ĠëıĦ êµ¬
ĠìĨĲ ëĭĺ
ĠìĻĢ ìĿ¼ëĵľ
Ġë§¡ ê²Į
ëŁ½ ê²Į
ë¦¬ íķĻ
ê°Ģ ê²Į
ë°Ķ ëĭ¤
ĠìŀĦ ìĭł
Ġë§Ī íĤ¤
ĠìķĦìĿ´ ê°Ģ
ĠëĲ ¨
ìĸ´ëĸ ¤
ĠìĹĺ ë¦¬íĬ¸
un g
Ġìłľê³µ íķĺëĬĶ
ĠìķĦ ëıĻ
ĠëłĪ ìĿ´ìĬ¤
Ġì¹´ ìĻĢ
ĠìĺģìĽĲ íŀĪ
ĠìĬ¤ íħĶ
Ġìĭľ ëħ¸
æ ¨
er t
Ġì£¼ìĿ¸ê³µ ìĿĦ
ì¹´ ë¯¸
Ġëª¨ ì§ĳ
íĴ ĢìĿ´
ĠëĤĺ ì¸ł
ìŀĲ ìĹ°
ìĭ¤ ìłĲìľ¼ë¡ľ
ìĿ¸ ì¹ĺ
Ġê·¸ë¦¼ ìĿĦ
Ġë°° ëĭ¬
ê¶Į ìľ¼ë¡ľ
ë± ĥ
ĠI t
Ġë°©ìĭĿ ìĿ´
ì¤Ģ ìĿĺ
ëĮĢ íĻĶ
ìĥĿ ë¬¼
ĠìŀĳíĴĪ ìĿ´ëĭ¤
iver s
íĬľ ë¸Į
ĠìķĪ íĥĢë¥¼
ì¡° ìĹ°
ur n
Ġíľ ł
íĬ ¬
Ġì´Īë°ĺ ë¶ĢíĦ°
ì§Ģ ìĤ¬
ìķĪ ìĿĢ
ĠëĤĺë¨¸ ì§ĢëĬĶ
Ġê¿ °
Ġ25 0
ìĻ¸ ìĿĺ
ë¹Į ë¦¬íĭ°
íĨł ìĬ¤
ĠíĦ° ì¹ĺ
Ġëĵľëŀĺ íĶĦíĬ¸
Ġë°© ì¹ĺ
ê°ķ ìłĲ
ëıĦ ë¦¬
T E
Ġë§İ ê¸°
ĠìĪĺ ì¹ĺê°Ģ
ĠìĬ¤ìľĦ ìĬ¤
Ġëª¨íĭ°ë¸Į ë¡ľ
ĠëĤĺ ì§Ģ
Ġëľ» ìĿ´
ĠêµĲ ê³¼
Ġìĺ¬ëĿ¼ ê°ĢëĬĶ
Ġíķ´ íĶ¼
Ġì¢ħ ìĿ´
Ġì¹ĺ ìĹ´
Ġê±°ì£¼ íķľ
ìŀĪ ìĿĦ
Ġê¸¸ ê²Į
ìĸ´ ìĬ¤
Ġ ãĥ
åľ °
ëį° ëĭ¤ê°Ģ
ëĬ¥ ëł¥ìĿ´
ê¸° ìĽĲìłĦ
ã ĥģ
Ġíĥľ íĴį
ĠëģĿ ëĤĺëĬĶ
ĠëĬĲëĤ Ģ
ĠëĲĺìĸ´ ìŀĪëĭ¤
ë°Ķ ìķ¼
ë°ķ ìĿ´
ĠëĿ¼ìĿ´ íĶĦ
Ġì§ķ ìĹŃ
Ġìłľ ìŀĲ
Ġë¸Ķ ëłĪìĿ´ëĵľ
ĠìĪĺ ìĹ¬
Ġê±° ëĬĶ
Ġì¤ĳ ë³µ
íĮ Ŀ
ĠëĬĲ ê¼
äº Į
Ġì¡° ì¡°
ë¸Ķ ë¦¬
Ġê´Ģ ëŀĮ
ĠìķĮëł¤ ì¡Įëĭ¤
ĠìĥģëĮĢ ë°©
Ġìĭľ ìĥģ
Ġì§ĢíĤ¤ ê¸°
ìĪĺ ë¦¬
ĠìĽĲ ìĨĮ
Ġëª» íķĺë©´
Ġìĭ¬ ìĤ¬
Ġì¶ľ ê°Ħ
ĠëĬĲ ëł¤
ĠíĨ ¤
Ġê°ĢëĬ¥ ìĦ±ìĿĦ
X X
Ġëĵ±ìŀ¥ íķĺëĬĶëį°
ĠìĿ´ ëĤĺ
ê·¸ ëŁ¼
Ġê°Ħ ëĭ¨íŀĪ
åħ ĥ
ëĭĪ ë²ĦìĬ¤
ìĥģ ìľ¼ë¡ľëĬĶ
Ġì£¼ ì°¨
æ º
ĠíĦ¸ ìĸ´
Ġë§Į ëĤĺëĬĶ
Ġìĸ»ìĸ´ ë§ŀ
ĠëĤĺíĥĢ ëĤ´ëĬĶ
Ġì£¼ ìµľ
ì´Ī ê¸°
Ġê³Ħ ê¸°ê°Ģ
Ġê°ľ ì¹Ń
ë¹Ħ ì¹ĺ
ë´¤ ìŀĲ
a il
ìĭľ ìĹĲìĦľ
Ġë¨¸ ë¦¬ì¹´
âĸ ł
ĠG o
ĠìľĦ ëł¥ìĿĦ
ìŀ¡ ìĿ´
Ġê°Ģ ê¸°
ĠìĹ°êµ¬ ë¥¼
Ġë§Ī ëĥ¥
ĠëĿ ł
Ġìľł ìŀħ
ìŀ¥ ìłĦ
ĠìłķíĻķ íķĺê²Į
ëį° ëĵľ
íķĺì§Ģ ëıĦ
Ġì£½ ê²Į
Ġëĵ¤ìĸ´ê°Ģ ìĦľ
Ġëĵ£ ëĬĶëĭ¤
ì´Ī ë¡ľ
Ġê¶Į ëł¥
5 3
ê°ķ ìĿĦ
ëĭ Ń
ê°Ģë©´ ëĿ¼ìĿ´ëįĶ
Ġìĭ¤ ìĭľê°Ħ
ĠêµĲ ëıĦ
ĠëĴ¤ ëĬ¦ê²Į
ìĿ¸ ëĵ¯
ĠëĴ¤ ìĹĲëĬĶ
âĶĢ âĶĢ
ĠìĬ¤ íĤ¤
Ġì¡´ ê²½
Ġëª¨ ìĬ¤íģ¬
Ġê³łìĨį ëıĦë¡ľ
Ġê³µ íĹĪ
ë¦¬ íŀĪ
ê¶Į ê³¼
´ ëĭ¤
ĠìĪĺ ëĬ¥
íķĦ ìĤ´
Ġíķ´ ìĤ°
Ġëª¨ìĬµ ìĹĲ
r on
Ġíĥľ ìĸ´ëĤ¬
ë°° ë¡ľ
ĠìĤ¬ ìŀĲ
Ġë¶Ģ ì°©
ãģ °
ìĨį ìĿĦ
ëĭ¹ ìĹĲìĦľ
Ġë²ĦìłĦ ìĿ´
ĊĊ Ġ
çĦ ¡
ê¸° ëħĲ
ëĸ ¡
Ġì¶ķ íķĺ
Ġìľł ì¶ľ
ìĭľíĤ¤ ë©´
e ver
ĠíĶĦë¦¬ë¯¸ ìĹĦ
Ġê°ľ ë³Ħ
Ġì²ľ ìķĪ
ìĭľíĤ¤ ë©°
7 1
¼ ìĨĲ
ĠìĪĺ ìĽĶ
Ġë§ī ê³ł
ĠíĻĶ ìłľê°Ģ
ìĭĿ ê³¼
ĠíĶ¼íķ´ ìŀĲ
Ġê°Ģ ì§Ħëĭ¤
ì² ¸
ĠíĮ¨íĦ´ ìĿĦ
ë²ł ìĿ´ìĬ¤
Ġ ÃĹ
B l
ëª¨ ëĬĶ
Ġíıī ìĸĳ
6 1
ë¯¸ ë¥´
Ġì§Ħíĸī íķĺëĬĶ
íĦ° ëĦĲ
å® ¶
ĠìķĦíĭ° ìĬ¤íĬ¸
ëĬĶëį° ëıĦ
) -
ĠíĦ° ë¯¸ëĦĲ
ë©Ķ ìĿ¸
Ġêµ µ
ë°ĺ ìĿĦ
Ġê·¸ ëĤł
Ġìĭľ ì²´
ĠíĨµ ê³Ħ
ĠëĨ Ķ
ĠëĤ¸ ëĭ¤
ë¶Ģ ë¬¸
ĠíĮ¨ ëĦĲ
ou g
ĠëĤ´ ê°ģ
ĠìĤ¼ ê°ģ
Ġë°Ŀ ìĿĢ
Ġê°Ģê¹Į ìĽĮ
Ġê²° ìĭ¬
Ġìĥģíĥľ ìĿ´ëĭ¤
ì§Ģ ê±°ëĤĺ
Ġë¡ľ ë¹Ī
ê³µ ê²©ìĿĦ
ìĻķ ìĿĢ
I ON
ĠëĮĢ ëĭ¨íŀĪ
ĠìķĪ ìľ¼ë¡ľ
íıŃ íĥĦ
Ġì§Ģ ëª©
ë¯¼ ìĿĦ
ìĭŃ ìĭľìĺ¤
ê±° ëĵł
ë¶ĢíĦ° ê°Ģ
Ġë°° íĬ¸ë§¨
Ġë¡ľ ìĸĦ
it ion
ê·¸ ëĤĺ
ĠëĲĺìĹĪëĭ¤ ëĬĶ
Ġìµľê·¼ ìĹĲëĬĶ
ê´Ģ ìĹĲìĦľ
Ġëį° ëĵľ
Ġê¸° ìĤ¬ë¥¼
Ġìķ¼ ìĥĿ
ĠëıĮìķĦ ëĭ¤ëĭĪ
5 8
Ġëª» íķ´ìĦľ
Ġ5 2
ĠìĿ´ìĥģ ìĿĢ
Ġëĭ´ëĭ¹ íķĺëĬĶ
Ġë¶Ħ ê¸°
Ġìĥģ ìĭ¤
ĠëıĦ ìłĢíŀĪ
ë¦¬ìķĦ ê°Ģ
ì «
ê¸° ì¤Ģ
Ġë³Ģ íĻĶë¥¼
Ġìĥģíĥľ ìĹĲ
ig h
ĠW orld
Ġë²łìĿ´ ì§ķ
Ġëĭ¨ íĸī
Ġì´Ŀ ë¦¬
Ġìŀ¬ íļĮ
âĻ ª
Ġë§Ĳ íĪ¬
Ġìĸ´ íķĦ
ìĤ¬ ê±°ë¦¬
Ġê°Ģ ë¦¬ì§Ģ
Ġê²½ ëĤ¨
Ġìĸ» ëĬĶëĭ¤
íĮĮ ê´´
ĠìłĦ ìĬ¹
Ġë¶Ħ ìĹ´
ĠìĬ¤íĬ¸ ëłĪ
ï½ ŀ
ê³ł ë¦¬
ĠìĤ¬ìļ© ëĲĺìĹĪëĭ¤
ëħ¸ ë¥¼
ĠìºĶ ìĬ¬
Ġíĸī ìľĦë¥¼
Ġêµ¬ ìĬ¬
ê²ĮìĿ´ ë¨¸
ìĤ¼ ìĦ±
ë°± ìĿ´
è ¥
Ġì²Ń ìĻĢ
Ġì¤ĳ ì²©
Ġì²´ ê³Ħ
íħĲ ëıĦ
Ġë³Ħ ëªħìĿ´
ë²½ ìĿĦ
ĠìĿ´ ëĭĿ
ĠìĹ° ìĿ¸
ĠëģĮìĸ´ ìĺ¬
Ġì¹¨ ë¬µ
íĮ Ł
íĽĦ ê°Ģ
íĸī ìľĦ
ĠëıĮ ìĹ°
il d
ĠíĹ¤ ë¥´
Ġì¿¨ íĥĢ
ĠW WE
ëŀĢ íŀĪ
Ġíİ¸ ì§Ģë¥¼
Ġë¶Ħ íı¬
ĠëĲĺ ë¯Ģë¡ľ
ĠíĮĮ ë¥´
ĠìĤ¬ ìłľ
Ġì§Ħ ìłķ
ĠìĿ¼ë¶Ģ ê°Ģ
ĠíĻľëıĻ íķĺê³ł
ĠP art
Ġìľł ë§Ŀ
æŃ £
ëĮĢíķĻ ìĽĲ
ĠìĬ¤ì½Ķ ìĸ´
íĨł ë¯¸
ĠìĿ½ ìĸ´
ë¦¬ ê¸°ëıĦ
Ġìĥģ ìĿĺ
ì¹´ íİĺ
ĠëĤł ë¦¬ëĬĶ
Ġn o
ë¬¸ ìľ¼ë¡ľ
ĠëĮĢ ìĥģìĿĦ
íĻĶ ëĲĺìĹĪëĭ¤
ĠJ R
Ġëľ» ìľ¼ë¡ľ
ĠĠ Ġ
Ġìĥģ ê¸°
ìĦľ ëıĦ
Ġëª° ëĿ¼
an n
Ġìĺ¤ ìĹ¼
Ġíģ´ ë¦Ń
ìĬ¤ íĥ
ì½ §
Ġ197 3
ĠëĤ´ ë¦°
ë°Ķ ë¥¼
ĠìĦ¸ ëĩĮ
? !
ìŀĲ ìĿ´
Ġë§Įëĵ¤ ìĸ´ìĦľ
ĠìĹ¬ ê¸°ëĬĶ
ĠëłĪ ì§Ģ
ëŃ ĩ
ëģ Ĺ
ëĦ¤ ëĬĶ
Ġì§ ±
ìĨį ìĿĺ
æ ħ
Ġìĭ¬ íĮĲ
7 4
íĭĢ ëŀľëĵľ
Ġë¡ľ ë§¨
ê°ķ íķľ
íĹ¤ ìĿ´
ĠìĿ¼ë°© ìłģìľ¼ë¡ľ
C S
ĠëıĻ ìķĦ
ê·¸ ëłĪ
ĠìľĦì¹ĺ íķĺê³ł
ĠìĤ¬ ê±°ë¦¬ê°Ģ
Ġì¤ĳ ìĦ¸
Ġë¹Ħ íķĺ
ëĿ¼ ë¯¸
Ġëĭ¹ íķł
ç ķ
ëĮĢ ë¶Ģë¶Ħ
ìłĪ ìĿĦ
ìłĢ ëĬĶ
ĠëĲĺìĸ´ ë²Ħëł¸ëĭ¤
Ġê¸° ê°Ģ
ĠìĤ¬ê³ł ê°Ģ
Ġê¹Ģ ì§Ħ
ëª¨ ëĳĲ
ĠìĥĿ ê¸¸
ĠìĬ¬ ëĿ¼ìĿ´
ìĭľ ëħ¸
ĠëıĻ ë°ĺ
Ġì ¯¤
Ġëĭ¤ íģĲ
ë¶ ĵ
Ġìŀ¥ ê±°ë¦¬
Ġì§ģìłĳ ìłģìĿ¸
Ġê¹ľ ì§Ŀ
ì§ĳ ìĹĲ
Ġì½Ķ ìļ°
íĺ¸ íĻĺ
íķĺìĺĢ ì§Ģë§Į
ä¹ ĭ
íĥľ ë¥¼
Ñ Ĥ
ìķĦ ì§ģ
Ġ197 8
ĠìĬ¬ ë¡ľ
ì¢ĭ ìķĦ
ĠíĬ¸ë¦¬ íĶĮ
ĠìĦľíı¬ íĦ°
Ġì°½ ëĭ¨
ĠëĶĶ ìĬ¤íģ¬
íŀĪ ë©Ķ
ë²ķ ìĿĺ
ëĿ¼ ëĶĶìĺ¤
íģ´ ë¦¬
ëĵ¤ ê³ł
ìłĢ ëŁ°
è Ĺ
ë¦¬ ëįĺ
å® Ĺ
ĠìĹĳ ìĬ¤íĬ¸ëĿ¼
Ġ8 00
Ġì¦ī ìĤ¬
ĠëĭĪ ì½Ķ
ê¸¸ ìĿ´
Ġë¯¸ëŀĺ ë¥¼
ĠìĪ« ìŀĲ
Ġë§ŀ ìĿĦ
Ġìĭľìŀĳ ëĲľëĭ¤
ìĹĪ ëĬĶì§Ģ
Ġëħ¼ ìĿĺ
Ġê±° ë¡ł
ê·¸ ëĥ¥
Ġë²ł ë¥¼
Ġë¸Į ëŀľ
Ġì§ĢëĤĺ ë©´
Ġê¸° ëıĦ
ë§Ī ëĥ¥
í īģ
ì¹´ ìĬ¤
íĪ¬ ìĪĺ
Ġëį°ìĿ´íĦ° ë¥¼
ìĭľê°Ħ ìĿĦ
è ¿
ìłĢ ë¥¼
ìķĦ ìĬ¤
ĠëĶ° ëľ»
Ġìĭľë¦¬ì¦Ī ìĹĲìĦľ
ëĵ £
Ġì½ľ ë¡ľ
ë¯¸ ëĶĶìĸ´
Ġìĺ¤ íĤ¤
ìļ° ë©´
ìłĳ íķľ
Ġíķĺ íĸ¥
Ġíķ´ ë¦¬
ìĬ¤íĦ° ë¥¼
ëĩ ¨
ìĨĮ ëĤĺ
Ġê³¡ ìľ¼ë¡ľ
â Ī
ë§¤ ì¹ĺ
Ġì¹ĺëªħ íĥĢ
ĠìłĦ ëĤł
Ġë¬¸ ëªħ
Ġìµľì¢ħ ë³´ìĬ¤
ĠëıĻ ìĺģìĥģ
ìľł ëĬĶ
s c
ĠëĮĢíķ´ìĦľ ëıĦ
Ġê±¸ ë¦°ëĭ¤
Ġëĵ¤ìĸ´ ìĻĢ
ìŀĲ ì±ħ
ê° ±
Ġê¸° ëĳ¥
ĠíĦ° ëĦĲ
ĠíĽĦë°ĺ ë¶Ģ
å Ĩ
Ġìĺ¬ëĿ¼ ìĺ¤
Ċ ĠĊ
Ġì¤ĳ ìĪľ
ìĿ´ ëŀĳ
íķĺ ê³¤
ĠìķĦ ì§Ģ
Ġì²´ ìłľ
ê¶Į ìĹĲìĦľëĬĶ
ì£¼ ìĹĲìĦľ
ì¦Ī ìĹĲ
Ġ0 3
ĠìĿ´ë¡ľ ìį¨
Ġë§İ ìľ¼ë©°
ë° ĸ
ĠìĻľ ëĥĲ
Ġë°Ķ ìĹĲ
ĠíĽĦë³´ ê°Ģ
ìŀĪ ì§Ģ
Ġê³µ ë¦½
ëł¸ ëĭ¤ëĬĶ
Ġìĺ¬ ë¦¬ê³ł
ic s
ä¸ į
ëıħ ë¦½
ëĤ´ ë©´ìĦľ
ĠD VD
Ġì¶Ķ ë°©
Ġìĺ¤ë¡ľ ì§Ģ
íĳľ ê°Ģ
Ġê¹Ģ ê²½
Ġì§ĳìĸ´ ëĦ£
ĠìķĬ ëĭ¤ëĬĶ
Ġë· °
ĠìĹ¬ ëŁ¿
ĠíĬ¸ ëĿ¼ìļ°
Ġê°Ģ ì§Ī
Ġêµ¬ ê²½
ï¼ Ł
ãĤ į
Ġìª½ ìĹĲ
4 00
ĠìĦ¸ ìĥģìĹĲ
Ġíķľ ëĤĺëĿ¼
Ġ4 9
ìķĺ ê¸°
ê¼ ´
ĠìłĦìĦ¤ ìĿĺ
ìĦĿ ìĹĲìĦľ
ĠìŀĲì²´ ëıĦ
ĠìĤ¬ ê°Ģ
Ġìŀ¥ ëĤ¨
ĠëĮĢ ìļ°
Ġê°Ħ ìĹĲ
Ġë§Į íĻĶê°Ģ
Ġë¹Ħ ê·¹
ìļĶ íķľ
ìłģìľ¼ë¡ľ ëıĦ
ìľĦ ì¹ĺ
Ġì°¨ì§Ģ íķĺê³ł
Ġì§ĢëıĦ ìŀĲ
Ð¾ Ð
Ġìĭľ ê³Ħ
Ġìķħ ëª½
Ġìłķ ì²´ëĬĶ
ĠìĤ¬ëĿ¼ ì§Ģê³ł
ĠìĹ¬ íĸīìĿĦ
êµĲ ëıĦ
ĠíķĻ ìĬµ
ìĿ¸ ì¡°
Ġë¯¸ ëĦ¤
ĠíĻĶ ìĦ±
ĠëĤ¨ ìŀĲê°Ģ
ĠëĦ¥ ìĦ¼
ĠëĳĲëĵ¤ ê²¨
s on
ê°Ģ ìĪĺ
Ġë¨¹ ëĬĶëĭ¤
Ġíĳľ ìłķìĿĦ
ìĹŃ ìĿ´ëĭ¤
Ġê·¸ëŁ¬ ëĭĪê¹Į
Ġë¬¼ ê³ł
Ġë²Ħ íħ
å ĸ
ì¸µ ìĿ´
Ġëļ« ê³ł
Ġìĭľ ëĿ¼
íļĮ ìłĦ
Ġê¶Į ìŀ¥
íŀĪ ê²Į
íķ´ ì¤Ģ
ĠêµĲìľ¡ ìĿĦ
Ġê¹Ģ ê¸°
ë¦¬ ì½Ķ
ĠëĤ´ ê²Į
ãĤ ¦
198 6
Ġëĭ¹ íķľëĭ¤
Ġíķĺ ìĺĢìľ¼ëĤĺ
Ġìĭľ ì¹´
ĠìłĦ ë¶ģ
ì¹ «
Ġì£¼ ê´Ģ
Ġë°° ëł¤
Ġíĺ¸ ë¶Ī
ĠìĨĮìĨį ìľ¼ë¡ľ
ĠìĦľ ë²Ī
Ġì´Īì°½ ê¸°
ĠëıĮìķĦ ìĻĶëĭ¤
Ġë³µ ìĪĺë¥¼
ëŁ° íĬ¸
ç Ł
ë¬´ ìĿĺ
Ġëį° ëª¬
ĠìľĦ ëł¥ìĿ´
ĠëĵľëĿ¼ìĿ´ ë¸Į
ê³µ ì£¼
íŀĪ íĬ¸
Ġìŀħìŀ¥ ìĹĲìĦł
Ġìī¬ ìĽĮ
ĠíĿĳ ìĿ¸
ĠëĮĢ ëŁī
Ġë¶Ģ ëıĻ
ĠíĶĦë¦¬ë¯¸ ìĸ´
Ġì°¨ì§Ģ íķĺëĬĶ
ìĽ ¬
Ġíŀ Ļíķ©
Ġìłķë³´ ê°Ģ
ĠìĪĺ ìĿĺ
Ġíķĺ ëł¤ê³ł
æ ¬
ìĿ´ íģ¬
Ġë°©íĸ¥ ìĿĦ
ê° ĵ
Ġê·Ģ ìĭł
8 00
Ġê·¹ íŀĪ
Ġë¸Ķ ëŁ¬ëĵľ
Ġìĭ¸ ìĽĢìĿ´
ëİ Ģ
Ġê²Į ìĬ¤íĬ¸
ĠìĤ¬ ë¡ľ
ter n
ĠëĶ° ì§Ģë©´
ĠëłĪìĿ´ ëįĶ
ê¸° ìŀĲ
Ġê²½ ìķħ
íĺĦìŀ¬ ëĬĶ
ìĬ¤íĭ° ë²Į
Ġë³µ íķ©
ìĨĮ ë¦¬ë¥¼
Ġì£¼ìĿ¸ê³µ ìĿ¸
Ġì»¤ íĶ¼
íĮĮ íģ¬
êµ¬ ë¯¸
ĠìłĦ íĮĮ
ĠìĤ¬ìĭ¤ ìĿ´ëĭ¤
Ġë¸ĮëłĪìĿ´ íģ¬
ĠëĳĺëŁ¬ ìĭ¸
ĠìķĪìłķ ìłģìĿ¸
Ġê·¹ ìŀ¥
ĠìĿ´ ìłł
ëĬĶ ê²Į
Ġì§Ģ ìĽĮ
ìķĦ ì£¼
ë¹ ¡
ì²´ ìĬ¤íĦ°
Ġë²½ ìĿĦ
ìŀĳ ìłĦ
ëĮĢ ë¬¸
Ġê´Ģ ë£Į
ĠíĨł ë§Ī
ĠìķĦ ëĵ¤ìĿĦ
Ġìºłíİĺ ìĿ¸
ëĤĺ ëĤĺ
uc k
ĠìĤ¬ ëĭ¨
íķĻ ë¶Ģ
Ġê¹Ģ ìĥģ
Ġë²Ī íĺ¸
ĠìĿ¼ ìĸ´ëĤł
al e
ìĿ´ìĹĪ ìĿĦ
Ġë§Ī ì¹ĺê³ł
Ġìļ© ìĿ¸
Ġì¶ľ ëł¥
ĠëĨį ìĹħ
ĠëĮĢíĨµëł¹ ìĿĺ
íĶĮ ëŁ¬
ìķĦ íĬ¸
ĠìĥģíĻ© ìĿĢ
Ġë³Ħ ëıĦë¡ľ
r ight
ëĤ´ ìĹĲ
Ġ âĺħ
ĠíĽĦ ìŀĦ
H z
ĠëıĦì°© íķľ
R O
A r
Ġê±°ëĳĲ ìĹĪëĭ¤
an k
ĠìłĦ ìĽĲìĿ´
Ġì¦Ŀ íıŃ
ë²Ī ìĿ´ëĤĺ
Ġë§ī ìĥģ
Ġë§Ĳ ëĿ¼
ĠëıĻìĿ¼ íķĺê²Į
Ġê³Ħíļį ìĿ´
6 3
ĠìĿ´ìķ¼ ê¸°ëĬĶ
ê·¸ ë¦¼
ê°Ĳ ê³¼
ĠíĶĦë¡ľ íķĦ
ì¹Ń ìĿĢ
íĶĦ ìĹĲ
ĠíĻĶ ëł¥ìĿĦ
ì²ľ ìĿĺ
ìĨĲ ìľ¼ë¡ľ
ĠëĮĢìĭł ìĹĲ
ç ¬
ĠìĦľ ë¨¸
Ġëĭ´ ìĿĢ
ĠëĮĢ ìĿ¸
Ġìĺ¤ íĥĢ
Ġë°Ķë¥´ ìħĢë¡ľ
Ġìµľ ëĮĢìĿĺ
ĠëĮĢíĳľ íķĺëĬĶ
ìĸ´ ë¨¸ëĭĪ
ĠìĮĵ ìķĦ
ĠíĮĮ ëŀĢìĥī
Ġëĭ Ľ
ë§¥ ìĬ¤
ĠìĿ¼ë³¸ ìĹĲ
ìĥģ íķľ
L A
ëħ Ķëĭ¤
Ġì£¼ ìłľ
Ġë¹Ħ ìľ¨
Ġì¤ĳ íĽĦë°ĺ
ë´Ĳ ëıĦ
ĠìłķëıĦ ë¥¼
íİĺ ëĿ¼
Ġì«ĵ ê²¨
Ġë¦¬ ëĵľ
ãĤ £
Ġê°Ģë¦¬ íĤ¤ëĬĶ
Ġêµ¬ ëıħ
ëŁ¬ ë¦¬
ê¸Ī ìĿĢ
Ġìĵ°ëŁ¬ íĬ¸
ĠìĿ¸íĦ°ë·° ë¥¼
ĠëĿ¼ìĿ¸ ìĹħ
íķĻ ëł¥
ĠëĬĺ ëł¤
ĠìĦ±íĸ¥ ìĿ´
åĩ º
Ġê°Ĳëıħ ìľ¼ë¡ľ
Ġìĭ¶ ì§Ģ
Ġì£¼ íĥĿ
ê¸° ë©°
Ġê°Ģ ëĭ´
ĠëĦĺìĸ´ ê°ĢëĬĶ
íĭ Ī
Ġì°¨ ìĿ´ë¡ľ
Ġíķ¨ ëĿ½
Ġë¯¸ ë£¨
ìĭľ ëĮĢìĿĺ
Ġìłģ ëĵ¤ìĿĦ
ĠíĬ¹íŀĪ ëĤĺ
ĠìĦ¤ì¹ĺ ëĲĺìĸ´
ëł ·
Ġë²Ī ìĿĺ
ĠìķĦëĭĮ ëį°
êµĲ ê°Ģ
Ġì ª¼
Ġì¡°ê¸Ī ë§Į
ĠìĿ´ìĸ´ ì§Ħ
Ġìĸ´ëĵľ ë²¤
ì¶Ķ ëĬĶ
ì¹´ ëĤĺ
Ġíİ¸ ìĹĲìĦľ
Ġíĩ´ ìŀ¥
Ġíģ¬ ë¦¼
ĠìĿ¼ ìĸ´ëĤ¬ëĭ¤
ĠìŀĪ ê±°ëĤĺ
Ġìĥģ ë°ĺ
ĠëĬĲëģ¼ ëĬĶ
ê±´ ëĭ´
ĠíĬ¸ ëŀľìĬ¤
Ġì¡° ë¦¬
Ġì ĮĢ
ëĲĺìĹĪëĭ¤ ê°Ģ
ìĦĿ ìľ¼ë¡ľ
Ġëª» íĸĪëįĺ
Ġëª¨ ë¡ľ
ĠëŁ¬ìĭľìķĦ ìĿĺ
æ ¼
ĠëĦ¤ ìĺ¤
ĠíĻĶ ëł¥ìĿ´
ĠíĶĦ ëłĮ
ë¦¬ìĬ¤ ëĬĶ
Ġìĺ¬ íķ´ìĿĺ
ĠìľĦì¹ĺ ê°Ģ
ĠëĤĺìĻĶ ëĬĶëį°
ìµľ ëĮĢ
ĠëģĿ ëĤ¬ëĭ¤
Ġë°ĶìĿ´ ìĺ¤
Ġì¶¤ ìĿĦ
S K
ìľĦ ìĿ¸
i i
Ġë¬¸ìłľ ìĹĲ
ê²Į ìĿ´íĬ¸
Ġíķ¨ ë¶Ģë¡ľ
Ġë¶Ģëª¨ ëĭĺ
ĠìĿ´ ëĿ¼ê³ł
ĠêµĲ ë¥ĺ
Ġì¦Ĳ ê²¨
ĠëĪĦ ëĤĺ
Ġëĭ¤ ëĭĮëĭ¤
ĠíĽĦ ìĿĺ
ĠìķĦëĭĪ ê¸°
ĠìŀĲ ê¾¸
ĠC G
Ġìĭ¤ì§Ī ìłģìĿ¸
Ġìļ´ ìĿ´
ĠíıĲ ê¸°
ìĭ¤ ìłľ
Ġê°Ģ ëĤľ
íķ´ ì¤Ħ
Ġê°Ģ ìļĶ
ĠìĺĪ ìĤ°
íĦ° ìĻĢ
êµŃ ìĿ¸
ìĿ¼ ìŀĲ
Ġê°Ģ ìĥģ
ĠíĴĪ ê³ł
Ġ3 000
ê´Ģ ê³Ħë¥¼
ĠêµŃ ê²½
Ġì°¨ ê³ł
ëĿ¼ ìĹĲê²Į
ê°ľ ìĶ©
ĠëĤľìĿ´ ëıĦëĬĶ
ìĦ± êµ°
Ġ5 1
Ġë² Ļ
ĠìĦľë¡ľ ë¥¼
ĠìĿ´ìľł ëıĦ
Ġì§Ģ íĸ¥
Ġê·¸ëħĢ ìĹĲê²Į
íĥĢ ë¦¬
ëıĻ ìĹĲìĦľ
Ġ197 4
Ġì¡° íļĮ
ë²Ħ íĬ¼
ĠìķĦìĿ´íħľ ìĿ´
ì²ł ìĿĺ
ĠìĿĮ ìĽĲ
ëıĮ ìķĦ
ê°Ĳ ìĿĢ
ìłķ ëĭ¹
Ġìĸ ½
ìĦľ ìĻĢ
ë°Ģ íŀĪ
ĠëĤ¨ìķĦ ìŀĪëĭ¤
Ġì¡° ìĸ¸
íĺ Ĳ
ĠìĹĶ ì§ĦìĿĦ
ĠìķĦ ì¸ł
Ġê³ł ë§Ī
ĠìĦłìĪĺ ê¶Į
Ġì£¼ìĿĺ íķ´ìķ¼
ç¤ ¾
ë¤ ¼
ĠìĪĺ ì§ģ
ĠìĤ¬ê±´ ìĿĢ
Ġì§Ģ ê²½
ĠìĿĮìķħ ê°Ģ
ëħ¸ ìĻĢ
Ġê¸° ì¢ħ
ĠìłĦ ëł¥ìĿĦ
Ġì²Ń ìĨĮ
Ġìĭ¤ íĺĦ
ĠëĦ¤íĬ¸ìĽĮ íģ¬
Ġë³´ìľł íķľ
ìĭľì¼ľ ìĦľ
ĠíĻ ĭ
ĠìĿ¼ ëĮĢ
ĠìĤ¬íļĮ ì£¼ìĿĺ
ĠëĪĪì¹ĺ ì±Ħ
ĠíĪ ´
Ġë§Ĳ ë¡ľëĬĶ
Ġë¬¼ ìĹĲ
ĠìĦ± ìłģìĿ´
ĠìĭĿë¯¼ ì§Ģ
Ġê¸¸ ê³ł
ìĭ¤ íŀĪ
ĠìĹĲ ë¦Ń
ê´Ģ ê³¼
ĠìĦłìĪĺ ëĵ¤ìĿĺ
Ġìķħ ëĭ¹
ë¬´ ë¶Ģ
Ġ197 2
Ġë¶Ģ ìŀĳ
êµ¬ ê°Ħ
u k
ĠìĬ¤ ìºĶ
Ġìłķìĥģ ìłģìĿ¸
æĽ ¸
ê±´ ì§Ģ
ê¸° ê³Ħ
ĠìĥĿê°ģ íķľ
ë°© ìļ¸
ĠìĦ± ë³Ħ
ĠíĪ¬ êµ¬
Ġìķ¼ ì¿ł
Ġë°ĶìĿ´ ëŁ¬
ĠìŁ Ī
Ġìŀ¬ ì§ģ
Ġê·¸ëŁ¬ ë©´
Ġëľ¯ ìĸ´
w e
íĮĢ ìĿĢ
ì²ĺ ë¥¼
Ġë¶Ģ ìłģ
Ġëŀ Į
ë§ī ìĿ´
Ġê°ĸ ê²Į
Ġk now
8 1
ë³´ ëĿ¼
Ġë¬¼ ìĿ´
Ġìľł ìłģ
ĠëĤł ìĿ´
ĠìĿĢ ìĭł
Ġë°© ë©´
ĠëģĿ ìĿ´
Ġìļ© ìĤ¬
ë¥´ ìĻĢ
Ġê°Ĳ ìĭ¸
ĠìĨĮ ë¬¸ìĿ´
ì¡Į ìľ¼ëĤĺ
ĠíĮĮ ìļ¸
ìĬ¤ ëıĦ
ĠìĤ¬ ìĹħìĿĦ
Ġìŀ¬ ê±´
ĠìĤ¬ ìķ¼
ëļ ľ
ĠìĿ¸ìĬ¤íĥĢ ê·¸ëŀ¨
ìļ´ ìĺģ
ĠëĤ¨ ìĿĦ
æ ®
ëĿ¼ ëĶĺ
ìŀĲ ëĿ¼ëĬĶ
ìķĦ ë©Ķë¦¬ì¹´
Ġê·Ģ ìĹ½
7 9
ìĤ Ĳ
ãĢ Ī
Ġìļ° ìĽĶ
è «
ĠìĺĨ ìĹĲìĦľ
Ġë±Ģ íĮĮìĿ´ìĸ´
Ġíİ Į
Ġê³ĦìĹ´ ìĿĺ
ĠìłĦ ëĿ½
Ġë©Ķ ëª¨ë¦¬
Ġê ¾
ĠìĿ´ ìŀĲ
Ġë²Ī ê°ľ
ĠìĹĨëĭ¤ ë©°
Ġth is
íı¬ ëĬĶ
Ġìľł íĿ¬
ĠìĹ İ
Ġê°Ģ ì£½
ê²½ ê¸°ìĹĲ
Â °
ĠëĲĺ ëıĦë¡Ŀ
ĠëįĶ êµ°ëĭ¤ëĤĺ
an ch
ë³¼ ìĿĦ
Ġëģ ĵ
Ġë°©ìĺģ ëĲľ
Ġë³µ ë¬´
ë¹ĦìķĦ ìĿĺ
ĠìĿ´ ë¥´ëĬĶ
Ġíı¬ ê²©
H K
êµŃ ê³¼
S p
íĺ¹ ìĿĢ
ê±° ëĿ¼
ĠìłķíĻķ íŀĪëĬĶ
{ \
ê³¡ ìĿĢ
Ġê¸° ëĮĢë¥¼
Ġë¦¬ ìĬ¤
ĠìĿĺ ìĭĿìĿĦ
Ġìļ´ëıĻ ìĿĦ
ĠëĮĢíķĻ ìĽĲ
ĠìĪĺë¡Ŀ ëĲľ
Ġê·ľ ëª¨ê°Ģ
ĠìķĦëĵ¤ ìĿ¸
ĠìĤ¬ ë¦½
ĠíķľêµŃ ìĹĲìĦľëĬĶ
ĠíĥĢ ë§Ī
Ġì¡° ìĹ°
Ġë¶Ħ íķ´
ìĭľ ë¯¼
Ġë¯¸ ì¦Ī
ĠìļĶ ìķ½
Ġì§ĢíĤ¤ ê³ł
ĠF l
ë°ķ íķľ
Ġê¸°ë¡Ŀ íķĺìĺĢëĭ¤
ë©Ķë¦¬ ì¹¸
ĠìĥģíĻ© ìĿ´ìĹĪëĭ¤
íģ´ ë¡ľ
Ġê³¼ ëª©
ĠìĹŃ ìĤ¬ê°Ģ
i el
Ġìľł ìĿ´
I VE
ĠëĦĪ íĿ¬
Ġëĵľ ë¡Ń
Ġë¹Ľ ìĿ´
ĠíĺĲ ìĿĺë¡ľ
ĠëĤĺìĺ¤ ê²Į
198 5
ĠìĬ¤ íĮĢ
Ġë°ĺìĿĳ ìĿĢ
6 9
Ġì¶©ë¶Ħ íķľ
ĠìŀĪ ê¸°ëıĦ
Ġìĵ° ìĿ¸
ãĥ³ ãĥ
ĠëĶĶì§Ģ ëª¬
ĠìĦľë¡ľ ìĿĺ
ĠìĨĲ ìĺ¤
ĠëĦĪë¬´ ëĤĺ
ĠìłĦíĪ¬ ê¸°
Ġëĳ ł
ìľł ë¦¬
Ġë§ī ëĮĢíķľ
ĠêµŃ ìłķ
Ġë§ŀ ë¶Ļ
Ġì§ĢìĹŃ ìľ¼ë¡ľ
ĠìŀĪ ìĿĮ
Ġìłľ ëĦ¤
Ġë©Ķëĭ¬ ë¦¬ìĬ¤íĬ¸
ĠìķĦ ë¯¸
ĠíıŃ íĮĮ
Ġ197 5
ë¦¬ìķĦ ë¥¼
Ġíķ´ ìĸĳ
Ġëª¨ ëħ¸
Ġë³µ ìłľ
Ġíķ´ ëªħ
íıī ìĿĦ
ê°Ħ íŀĪ
Ġë§¤ ì£¼
ic a
å¿ ĥ
Ġì¤Ģ ê³µ
ëª¬ ìĬ¤íĦ°
ìĺĢ ê¸°ìĹĲ
Ġê±° ëĿ¼
ëĵ¤ ìĹĲìĦľ
ìĹ ī
ë ¼Ī
ĠS R
ëŁī ê³¼
Ġì¤ĳ íĺķ
Ġ as
ĠW ar
ĠìĤ¬ ê³łë¡ľ
Ġë³´ ìĿ´ê¸°ëıĦ
198 4
ê°Ģ ìļĶ
an c
Ġì¹´ ìŀĲ
ĠíĮ¨ë°° ë¥¼
Ġë°Ķ ëĳĳ
ĠëıĻ ìĺģ
ĠëĤĺëĪĦ ìĸ´
Ġê°Ģë²¼ ìļ´
Ġë§Ī ë¹Ħ
Ġë²Ħ ìĬ¤íĦ°
íĺģ ëªħ
od e
æ° ´
ì°½ ìĿ´
ĠìĤ¬ì§Ħ ìĿ´
ĠM ar
Ġì§ĳ ê¶Į
Ġíį¼ ìł¸
ìķ¡ ìħĺ
ê»ĺ ìĦľ
Ġë¹Ħ íĭĢ
ĠA M
ìłĦ ìŀĳ
Ġë§Ī ë¦°
ĠS F
Ġë¹ł ë¥´ê³ł
ê³¡ ìĿĺ
ë°ľ ë§¤
ĠíĮĲ ìłķìĿĦ
Ġì¹´ êµ¬
ãĢ Ĳ
Ġê¸°ëĭ¤ ë¦¬ê³ł
ê¸Ī ìľ¼ë¡ľ
Ġâ ĳ
ĠìłĦ ë°©
Ġìĭľ ë¡ľ
Ġs p
íĶĦ ëŀĢ
ëį° ëłĪ
Ġíķ© ëıĻ
Ġë©Ķ ëª¨
ĠìĪĺ ë©´
ĠìĦ¸ ìĿ¸íĬ¸
up er
Ġn ot
ê²½ ê¸°ë¥¼
Ġì¢ĭ ì§Ģë§Į
Ġë§ŀ ëĬĶëĭ¤
ĠíĮ¬ íħĢ
Ġíľĺ ëĳĺ
ì¼ĢìĿ´ ìħĺ
Ġì¹ĺ ëŁ¬
Ġëģ¼ ìĸ´
Ġì¡° ìļ°
è §
ìľĦìĽĲ ìŀ¥
ĠìłĦìŁģ ìĿĺ
ì¡¸ ìĹħ
ìĪĺ ìĿ¸
ëĬ¥ íķľ
ĠìĹ¬ìĦ± ìĿĺ
ãĤ µ
L v
m e
ë³´ ì§Ģ
Ġë°° ìłľ
ĠìĤ¬ë§Ŀ íķľëĭ¤
Ġìĵ¸ ëį°
ĠìĭŃ ìŀĲ
ĠR PG
ìĬ Ľ
Ġíģ´ ëĿ¼ìļ°
é Ĥ
Ġíķľ ë°©ìĹĲ
Ġìľł ê¸°
ĠìĬ¤íĭ° ë¸Ĳ
íħĮ ëŀĳ
ĠìķĦìĿ´ ëŁ¬ëĭĪ
ëĵľ ì»µ
Ġì§Ģ ëĬĶ
å¥ ³
ĠìĬ¤ ì¦Ī
ìĪľ ìľĦ
Ġë²¨ ê¸°ìĹĲ
æĿ ĳ
ĠëĦĺ ë²Ħ
Ġê²ĮìŀĦ ìĿ´ëĭ¤
Ġë² ¡
ĠìĹ´ ê³ł
ĠìĦ¸ ìĽłëĭ¤
ĠíıŃ íĥĦìĿĦ
ĠìĦ±ìļ° ê°Ģ
Ġ197 7
ĠëĮĢ ëıĻ
Ġëı¼ ìĦľ
ĠíŀĪ ëĤĺ
ĠìĿĳ ìļ©
ĠìĿ´ì§ĳ íĬ¸
ĠìĿ¸ ìļ©
ëıĦ ëıĦ
ĠëĤ´ìļ© ìĿĺ
Ġë°ĶìĿ´ ìĺ¬
Ġìļ° ìľĦë¥¼
or g
Ġëıħ ìŀ¬
ì±ħ ìľ¼ë¡ľ
ë³´ ë©°
e f
ĠëĦĺ ì¹ĺëĬĶ
íķ¨ ìĿĺ
Ġìĸ´ëĶĶ ìĦľ
Ġë¹Ħ ìľł
ëĵ¤ìĿ´ ëĤĺ
Ġëľ¬ê¸Ī ìĹĨìĿ´
ê²½ ê¸°ëıĦ
ĠĊ ĊĠ
ë¬´ ëĬĶ
íİ «
Ġì°¾ìķĦ ìĺ¨
Ġë¹Ħ ìľ¨ìĿ´
e el
ëĵ¤ ìĹ¬
ĠëĦĪ ë¥¼
Ġì²ł íķĻ
ĠìķĬìķĺ ìľ¼ëĤĺ
Ġë°Ŀ íĺĶ
ĠëĦĪë¬´ ëĤĺëıĦ
ĠìĤ¬ëŀĮ ìľ¼ë¡ľ
Ġë°ľê²¬ ëĲľ
íģ ĺ
ë¯¸ íķľ
Ġê¸° íĽĦ
Ġì£¼ ìŀ¥ìĿ´
Ġíĥ± íģ¬
S C
è ©
ìĤ¬ ìĬ¤
Ġê°ľ ìĿ¸ìĿĺ
è ı
Ġê·¼ ê±°ë¦¬
Ġìĺ¬ëĿ¼ ê°Ħëĭ¤
íİ ĳ
ê²° ìĿĦ
ë§Ī ëıĦ
Ġëĥ Ī
Ġìĺ¬ëĿ¼ ìĻĶëĭ¤
ìĪĺ ìĤ¬
Ġëª¬ìĬ¤íĦ° ê°Ģ
ĠëĪĦêµ° ê°Ģ
Ġê° ļ
Ġ197 1
ìłķ íķĺê³ł
ìĭľ ìŀĳ
ĠíķĦìļĶ ëĬĶ
ĠìĬ¹ë¦¬ ë¡ľ
Ġë°ķ ì§Ģ
Ġìłķì±ħ ìĿĦ
Ġìľłëŀĺ ëĬĶ
ë¸Į ëłĪìĿ´
Ġìŀħ ëĬĶ
ê³µíĻĶ êµŃìĿĺ
ĠìĽĲ ëįĶ
Ġì¡° ì¹´
íĥľ ê°Ģ
Ġë¬´ ë¦¬ê°Ģ
ì¸ł ìĻĢ
ì§Ħ íĻĶ
ë³¸ ìĿĦ
Ġì»¤ ìĦľ
Ġ197 6
å¯ º
Ġìĺ¤ìĬ¤íĬ¸ ëłĪìĿ¼
ĠìĽĢì§ģ ìŀĦìĿĦ
ì§Ģ íľĺ
Ġëĭ¬ íķĺëĬĶ
Ġë¬´ ëĮĢë¥¼
ĠëĬ¥ëł¥ ì¹ĺê°Ģ
ì§Ģ ëĮĢ
Ġìłģìļ© ëĲľëĭ¤
é ¾
ĠìĽĲìŀĳ ìĿĺ
ĠëĤł ì§ľ
æĻ Ĥ
Ġê²ĥ ê³¼ëĬĶ
ìĨį ìľ¼ë¡ľ
Ġê±° ë¯¸
ĠìĬ¤íĤ¬ ìĿĺ
íĭ° ë¥¼
Ġë©´ ìĹŃ
íĶĦëŀĳ ìĬ¤ìĿĺ
Ġê¸°ìĸµ ìĿ´
Ġíģ´ ëĿ¼
ë°Ģ íķľ
ĠìķĬìķĺ ìľ¼ë©°
Ġìĭľ ìĿĺ
Ġìµľ ìłģ
C G
o on
ìĿ´ ë²¤
ìľĦ ëĮĢ
Ġì²ĺìĿĮ ìĹĶ
ĠíĶĦ ëłĪìĿ´
Ġp l
ìķĦ ëıĦ
ĠìĬ¤íģ¬ ë¦°
ëŀ ´
ĠìĿ´ ìĪľ
íĻĺ ìľ¼ë¡ľ
íķĺ ëĵľ
ë¶Ī ê°Ģ
ëłĪ ìĺ¹
Ġì§ĢìĽĲ íķĺëĬĶ
Ġê·ľ ëª¨ìĿĺ
ìĦ± íķľ
Ġì¶ķ ìĨĮ
íİ Ħ
Ġìļ° ìĿµ
Ġì£¼ ëª©ìĿĦ
íĻĶ ìłĲ
Ġë³¸ê²© ìłģìĿ¸
íļĮ ë³µ
ĠìľĦ ìĦ±
ĠìĨ ľ
ìļ° ì¹ĺ
M B
Ġë¶Ħ íķł
ëĤ´ ìĸ´
ĠìĥģëĮĢ íķł
Ġëĭ¨ ì¢ħ
ĠëĶ¸ ìĿĦ
ë¦¬ ëıĦ
ĠëĿ¼ìĿ´ íĶĮ
ĠíĭĪ ìĿĦ
Ġë§ŀ ì¶ĺ
ë¦¬ ìļ°ìĬ¤
Ġê²½ìļ° ë¥¼
ìĥĿíĻľ ìĿĦ
Ġíİ¸ ìĿ´ê³ł
ë¦¬ ìĬ¤ìĿĺ
Ġë°± ìŀĳ
ĠìķĪ ìĿĺ
6 00
ie w
ëĭ¬ ëĿ¼
Ġë³´ëĤ´ ê³ł
Ġê°Ģ ëŁī
Ġìł ĸ
ê· Ħ
Ġì¿ł ëį°
Ġì£¼ ë¥ĺ
Ġìĭľ íķ©
ìłľ ëıĦ
Ġëħ¸ ê°Ģ
ìľ¼ ëĿ¼ê³ł
Ġë¨¹ ìľ¼ë©´
è» į
Ġê¸´ ìŀ¥
ĠG T
Į íĹ¨
Ġë²½ ìĹĲ
ë¯¸ ìĬ¤
Ġëĵ± ê·¹
ĠëĤ´ ëł¸ëĭ¤
íħĮ ìĿ´ìħĺ
Ġê³ł ê¸°
ĠíĪ¬ ì²Ļ
Ġìĸ´ëłµ ì§Ģ
Ġê°ķ íķ´
Ġì§Ģ ì§Ħ
ì´Ī ê°Ħ
Ġìĸ´ ë¢°
Ġë°ľíĳľ íķľ
Ġì¸¡ ìĿĢ
Ġëª¨ ëĵľë¥¼
ìºĲ ëĤĺëĭ¤
ĠìĨĲ ê¼½
Ġìķħ ìĿĺ
Ġp ro
íĤ¹ ìĿĦ
Ġìŀ¬ ëĵ±ìŀ¥
ĠìĿĺë¯¸ íķĺëĬĶ
ĠíŀĪ íĭĢ
Ġìį¨ ë¨¹
Ġe x
Ġë§Įëĵ¤ìĸ´ ëĤ¸
į ½
ì²ľ íŀĪ
ĠìłĦ ìĨ¡
Ġì§Ī íĪ¬
ë²ł ë¥´íģ¬
Ġê³µê²© íķ´
ìķł ì´ĪìĹĲ
ìĺ¤ ìĬ¤íĬ¸
Ġìŀħ ëĮĢ
ĠíĻ© ìłľìĿĺ
Ġì°½ ë¦½
Ġë°Ľ ìľ¼ë©´
Ġê¸°ìĪł ìĿĢ
ìĬ¤ íĮĮ
ìĿ´ ìļ©
ãĥ £
: #
Ġë¬¼ ëŁ¬ëĤĺ
Ġ9 8
ìŀ¬ ë£Į
¢ ¨
ĠìĤ¬ ì´Į
ë§Į ìľ¼ë¡ľëıĦ
Ġì´Ī ëĵ±
ë£¨ ë¯¸
Ġêµ¬ê°Ħ ìĿĢ
ĠìĪĺ ìĦĿ
ìĦľ ë²Ħ
Ġ8 8
ĠìŀĪìĹĪ ê¸°ìĹĲ
Ġ0 2
ì²ľ ìĤ¬
íħĮ ëĭĪ
Ġìłľìŀĳ ìĹĲ
ĠìłĦìŀĳ ìĿĺ
Ġíı¬íķ¨ íķ´
Ġë°©ìĸ´ ëł¥ìĿ´
ap p
Ġì§Ģ ê³ł
ĠëıĻ ê²½
ou nt
ul l
íİ¸ ìĹĲìĦľëĬĶ
Ġë¯¸ ìĥģ
Ġs c
ĠìĭľëĤ´ ë²ĦìĬ¤
ĠìĿ´ë¥¸ ë°Ķ
G B
ĠìĿ½ ëĬĶ
ĠìĿ¼ìĭľ ìłģìľ¼ë¡ľ
Ġê²°ìĬ¹ ìłĦ
ĠíĮĮ ë©¸
ëłī ìħĺ
ĠìĹ° ë´ī
Ġëĵ±ìŀ¥ íķł
Ġë¶Ģ ë¶Ģ
Ð º
Ġë§Į ë§Į
ĠìĪĺ ìĬµ
é Ł
Ġëıħ ìłĲ
ĠìĹĶ ìł¤
ĠìĺĪ ìłĦìĹĲ
Ġìº Ħ
íŀĪ ë©´
ĠíĬķ ê²¨
ĠíķĺëĤĺ ëĭ¤
ëĤ´ ìĹĲìĦľ
ç ¸
Ġìĸ´ ë¦¬
Ġì¼ĢìĿ´ ë¸Ķ
Ġíıī ê°ĢëĬĶ
Ġê³ł ì³Ĳ
Ġìĥģ ìĺģ
ì»¤ ëĬĶ
ìłĦ ê³µ
ĠM an
Ġìłķ ìĺĪ
ĠìłĦ ë§Ŀ
Ġìĭľìŀĳ íķ´
ä¸ ĭ
ĠíĪ¬ ëªħ
Ġë°Ķê¾¸ ëĬĶ
ĠìĿ¼ ê²©
Ġê°ĢëĬ¥ íķĺê³ł
j ect
Ġíģ¬ ëĿ¼
Ġì§Ģ ì§Ģë¥¼
Ġíĺ¸ ìĪĺ
Ġëª¨ëį¸ ë¡ľ
ĠëģĬìŀĦ ìĹĨìĿ´
ĠO n
Ġê°ĢëĬ¥ íķĺì§Ģë§Į
ìŀ¬ ìĿĺ
ìĭľê°Ħ ìĹĲ
Ġë³´ ì¢Į
ë¯¸ ìħĺ
ĠëĶ° ë¥´ëĬĶ
ĠíķĻ ê³¼
ä» Ĭ
Ġìĭ¶ ìľ¼ë©´
Ġì»¤ ìĬ¤
ĠìĿ¼ë³¸ ìĿ¸
ĠìĹĺ ë¦¬ìŀĲë²ł
íį¼ ê°Ģ
ìĤ¬ ëĥ¥
) ãĢĭ
íķĺ ìĦ¸ìļĶ
ic t
Ġë¦¬ ì²ĺ
Ġë°¤ ìĹĲ
ìłķ ìĭł
Ġë°ľê²¬ íķľ
ĠìĿ¼íĸī ìĿĢ
Ġê²ĥ ìŀħëĭĪëĭ¤
er o
ĠíĻķ ìĤ°
ĠìłĦ ëĤ¨
ĠìĨĮ ì¤ĳíķľ
Ġì£¼ ëĲľ
ëĮĢ ëĮĢ
Ġì¢Į ìłĪ
Ġì½Ķ íĨł
Ġë¬´ ìĦŃ
ĠìĹ°ìĬµ ìĥĿ
Ġë¶Ī ìĤ¬
Ġì´Ī ì²Ń
Ġì°¨ëŁī ìĿĦ
íķ ¸
ëıĻ ë§¹
ĠëĪĦêµ¬ ëıĦ
ĠëĶĶìŀĲ ìĿ¸ìĿ´
Ġê²½ ì£¼
Ġë ī
Ġíķł ìķĦë²Ħì§Ģ
Ġëĭ¬ ë¦¬ëĬĶ
ë¸Į ìĿĺ
Ġê²½íĹĺ ìĿĦ
ì¶ľ ìĿĦ
ĠìĹħ ì²´
Ġì°¨ëŁī ìĿ´
Ġë¸ĮëĿ¼ ìļ´
a f
íĸĪ ìľ¼ëĭĪ
ë°Ķ íĢ´
Ġìłģ ê³ł
æĪ Ĳ
íĮĢ ìĿĦ
ì½Ķ ëĵľ
ĠëłĪìĿ´ ëĵľ
ëĲĺìĸ´ ìķ¼
ì¿ ¤
ĠìĻľ ê³¡
Ġì£¼ ëĭĪìĸ´
Ġì§ĢìĹŃ ìĿ´
Ġìĭľìŀĳ íķł
'' '
Ġëįĺ ì§ĢëĬĶ
ĠíĿĶ íķľ
ĠS D
íĺ¹ íķľ
Ġë¶Ģ ê°Ģ
ĠìĹĲ ê·¸
ìķĦ ì¹´
Ġë Ľ
ĠêµĲ íĨł
ëĭ¤ ë©°
Ġê¸° ê¸°
íĸĪ ëĵ¯
Ġë¶Ī íĥľ
ĠìķĪ ìĭ¬
Ġë¹Į ëŁ°
Ġìĭłê²½ ìĿĦ
ĠìĿ´ë£¨ìĸ´ ì¡Įëĭ¤
êµ° ìļĶ
íĺķ ê³¼
ĠíĬ¼ íĬ¼
ë§¤ ê°Ģ
Ġìĭľ ìĤ¬
Ġê³µ ë°©
ì¤ĳ ìĿĦ
íı¬ ì¼ĵëª¬
Ġê°ľ ì²Ļ
Ġê²¹ ì³Ĳ
Ġë¬´ ìĪł
ĠìķĮ ëłĪ
ë¦¬ìĬ¤ ë¥¼
Ġëª¨ íĨł
Ġê·¸ê³³ ìĹĲìĦľ
Ġëģ¼ ê³ł
P h
Ġê°Ħ ê°ĦíŀĪ
ĠìĻł ì§Ģ
ìĬ¤íĬ¸ ëĬĶ
Ġìĭł ìĤ¬
íĻĶ íķĻ
ë°Ķ ëĬĶ
ãģ£ ãģ¨
ìĿĮ ìľ¼ë¡ľ
Ġìĭ¤ ìĪĺë¥¼
ĠëĤĺìĺ¤ ì§Ģë§Į
Ġê²ĥìĿ´ ê¸°
ë§Ī ë¡ľ
ĠíĬ¸ ë£¨
ë£¡ ìĿĺ
ëĶ ´
Ġë°ľ ë¡ľ
ĠìĤ¬ë¡ľ ìŀ¡
ê°Ģ ë©´ìĦľ
Ġì¦Ŀ ìĺ¤
Ġê°ĻìĿĢ ëį°
ìľ¼ë©´ìĦľ ëıĦ
ĠíĥĢ ì¸ł
ĠìĹĨ ìĬµëĭĪëĭ¤
ĠìĪľ ìľ¼ë¡ľ
Ġëĭ¹ ìĭłìĿ´
Ġì°į ëĬĶ
ë³ĳ ê¸°
ëĵ¤ìĹĲê²Į ëıĦ
ëł¤ ìķ¼
ĠëıĦ ë°ķ
ĠìĹŃìĭľ ëĤĺ
ĠìŀĲ ìĿĺ
éĥ ¨
ëŁ° ìĬ¤
Ġëĵ± ëıĦ
ĠìĹĲ ëĶĶ
ìľ¼ ëł¤ëĬĶ
Ġíı¬ì§Ģìħĺ ìĿĢ
ĠíĮĮ ë°į
Ġíİ¸ ìĿ´ë©°
ĠíļĮ ìĤ¬ìĿĺ
ì§Ģ ìĺ¥
Ġìĭ¶ ìĿĦ
Ġê¸ ĢìĿ´
ëĵ± ë¡Ŀ
íĶĮëłĪìĿ´ ìĸ´
Ġìĵ° ê²Į
Ġìķ½ ìłĲìĿĦ
Ġë¬´ ëĿ¼
ê³ł ëĵ±
Ġëĵľ ë¬¸
ëĥ ī
Ġìļ° íĺ¸
Ġìłģ ìĭľ
Ġê°ľ ë¥¼
ìĥĿ ìĤ°
v s
Ġì§Ħíĸī ëĲľ
ìĻĢ ìĿ´
ĠìĬ¤íĬ¸ë¦¬ ë¨¸
ĠìĨį íķ´
Ġìĺģíĺ¼ ìĿĦ
Ġë³´ íĹĺ
ì¤ĳ ìĿ´
Ġì°¾ìķĦ ë³¼
Ġë§Ĳ ëłĪìĿ´
Ġíı¬ìĬ¤íĬ¸ ìĭľì¦Į
íĴĪ ìľ¼ë¡ľ
è¥ ¿
ĠìľĦ ëł¥
ĠìĦ± ê³¼ë¥¼
ĠíŀĪ ì¹´
ë¦¬ìķĦ ëĬĶ
Ġë¶Ģë¶Ħ ìĿ´ëĭ¤
Ġìĥģíĥľ ìĿĺ
Ġìĺ¤ìĬ¤ ë§Į
ĠìľĦ ì£¼ìĿĺ
ìĻ Ī
ìŀ¥ ëıĦ
Ġì´Ī ë³´
Ġíİĺ ìĿ´ì¦Ī
ìłĢ ìļ°
Ġê°ķ ê²½
ĠëįĶ ëŁ¬
ê²½ ìĺģ
Ġìŀ¡ìķĦ ë¨¹
ĠìĿ¼ ê¸°
Ġì§Ĳ ìŀĳ
ìĬ¬ ë¡ľ
! (
íķĺìĹ¬ ìķ¼
Ġíĺ¸ ìĿĺ
ĠìĦł ìĤ¬
ĠìĿ¸ëıĦ ëĦ¤ìĭľìķĦ
ìłģ ìĿ´ë©°
éĿ ¢
ĠëĤĺ ì¤ĳìĹĲëĬĶ
ĠëķĮë¬¸ ìĿ´ìĹĪëĭ¤
A l
åİ Ł
Ġë³´ ìłķ
ĠìķĬëĬĶëĭ¤ ë©´
Ġëª¨ëĳĲ ë¥¼
é £
Ġìŀĳ íĻĶ
ê°ľ íĺģ
l and
å° ı
ĠëĤĺ ë¹ł
êµ° ìĤ¬
Ġì¦Ĳ ê¸°ëĬĶ
ìĺ Ľ
Ġì³Ĳ ëĵ¤ìĸ´
ĠíĿĲ ë¦Ħ
Ġë°° ê°Ģ
ê·¹ ìŀ¥
ìłĦ ìļ©
ìłľ ìĿ´
ĠëıĦìĻĢ ì£¼
Ġë´¤ ìĿĦ
íĻĶ íķĺëĬĶ
ìľł íĬľë¸Į
ĠëłĪì½Ķ ëĵľ
Ġëª¨ íĦ°
ĠìŀĪìĿĦ ê¹Į
Ġì´Ŀ ìĦł
ĠëĮĢ ë³Ģ
Ġëħ¼ ìŁģ
Ġë¹Ľ ëĤĺëĬĶ
Ġì§Ħíĸī ëĲľëĭ¤
Ġê½ ī
ë¦¬ê·¸ ìĹĲìĦľ
ĠíĻķìłķ ëĲĺìĹĪëĭ¤
Ġ196 9
IN G
ë³´ ìļ°
íĭ° ê°Ģ
íĮĮ ìĻĢ
ĠìĬ¹ ìłĲ
Ġìĵ¸ ë§Įíķľ
ê·¸ ëłĪìĿ´
íĤ¤ ë¦¬
ĠëįĶë¶Īìĸ´ ë¯¼ì£¼ëĭ¹
ìķ¤ ìł¤
ĠìĦ¸ ë¶Ģ
ì¹´ íĥĢ
íĽĪ ìĿĺ
ĠìĿ¼ ê´Ģ
ãĥ Ł
ìłĦ ìĹĲëĬĶ
íĢ ¸
ĠëĤ¨ ëĬĶ
ĠìĹ¬ ìĦ±ìĿ´
ìĺģ êµŃìĿĺ
ĠìĪĺ ìĥī
Ġì¤ĳ ì§Ģ
ĠìĹĲ íĶ½
ĠëģĿëĤĺ ë©´
Ġì½ĺ ìĨĶ
Ġëª© ìłģìĿĦ
Ġê´Ģê³Ħ ëĬĶ
Ġìłľ ìķĪìĿĦ
ì© Į
å ¦
ĠìķĦëĭĪëĿ¼ ìĦľ
re at
Ġìļ° ì¸¡
Ġê°ĸ ëĬĶ
Ġë³µ ìĽĲ
ì§Ī ìĿĢ
Ġë§Ī ë¬´
ìĹ´ ì°¨
Ġë¶Ī ëŁī
Ġëª¨ ëĵĪ
Ġë°Ķ ìľĦ
Ġì§ľ ì¦Ŀ
ê±° ì§Ģ
Ġì¶©ì²Ń ëĤ¨ëıĦ
Ġëª¨ ìĿĢ
ë¸Ķ ë£¨
Ġê¶Į ëł¥ìĿĦ
éķ ĩ
Ġì°į ê³ł
Ġìĺ¬ ëĵľ
ĠìłĦìŁģ ìĹĲìĦľ
Ġë´ī ìĩĦ
ĠëĶľ ëłĪìĿ´
ë²Ħ ëĵľ
Ġë§Ī ëł¥
Ġë¬´ìĭľë¬´ ìĭľíķľ
ĠìĬ¹ ì§Ħ
Ġëª¨ëį¸ ìĿ´
Ġê¸įìłķ ìłģìĿ¸
Ġë¦¬ ì¹ĺ
Ġë©¤ë²Ħ ë¡ľ
ë§Ī ê·Ģ
Ġì°¸ê°Ģ íķľ
ĠìľĦ ìķĪ
ĠìĿ´ìĸ´ ìł¸
íĸĪ ìĿĮìĹĲëıĦ
ëħĦ ìĿĢ
Ġìłľ ëıħ
íĺ¸ ìĹĲ
Ġëį°ìĿ´ ë¹Ħëĵľ
ìĺ¤ ê¸°
Ġë¯¿ ìĿĦ
ĠìļĶ íķľ
ĠíķĺìĿ´ íį¼
Ġíķľ ìĿ¼
Ġìĸ´ ìĥī
ì²ł ìĿ´
Ġìķŀ ìĿĺ
Ġìłķìĭł ìĿ´
êµ¬ ì²Ń
Ġìłľ íĬ¸
Ġìľł ìŀ¬
ëł¹ ìľ¼ë¡ľ
Ġê²½ ë¶ģ
ĠìĿ´ ëª¨
ĠìĨĲ íķ´
Ġì§Ģ ìĹ°
er n
Ġìĺģ ì£¼
Ġíĺķíĥľ ê°Ģ
ĠëĶĶìŀĲ ìĿ´
Ġìĺ¤ë¸Į ìłĿ
ĠìĦłíĥĿ íķľ
Ġìŀħ ì¦Ŀ
ĠíķĻ ìĤ¬
ê² ¹
Ġì¹ĺ íĤ¨
os e
ĠìĿ¸ ê¶Į
ëı Ķ
Ġì¶© ì¡±
ĠìĦľìļ¸ ëĮĢíķĻêµĲ
Ġê±´ ëĦ¤
Ġì£¼ ìĹŃ
Ġê²½ê¸° ìŀ¥
Ġê°Ĳ ìłķìĿ´
ê°ľ ëĬĶ
ìĤ¬ ë¦¬
ĠëıĦë§Ŀ ì¹ĺ
Ġc om
ìĤ¬ ìĹĲê²Į
Ġìĭ¤íĮ¨ íĸĪëĭ¤
ĠìŀĪ ê²łëĭ¤
ĠìĹĲ ë°ĺ
ĠíĶĮ ëĿ¼ìĿ´
Ġì§Ģ ìłĲ
Ġíķł ìĪĺ
Ġë¯¸ ì¿ł
Ġìķ Īëĭ¤
Ġìĭľ íĤ¤ëĬĶ
ĠíĶ¼ ë¶Ģ
ĠìĬ¬ ëĿ¼
Ġë³´íĨµ ìĿĢ
Ġëĵľ ëłĪ
Ġë°ĺ ëıĦ
ĠëĤ´ ë¦¬ëĬĶ
Ġìłķ íķ´ì§Ħ
ëĵ¤ ëģ¼ë¦¬
ĠìĤ¬ìĿ´ ìĹĲìĦľëĬĶ
ëĦ Ľ
Ġíķľ ì°½
Ġëħ¸ ë¬´
ĠìĤ´ìķĦëĤ¨ ìĿĢ
Ġë°ĺëŀĢ ìĿĦ
ê°Ģ ìĹĲìĦľ
Ġìĺ¤ ëĿ½
ĠíĮĮ ê³ł
ĠëĤĺíĥĢ ëĤ¬ëĭ¤
ìłĢ ë¦¬
ëĭ¹ ì´Ī
ĠìłĦì²´ ìĿĺ
è ĭ
ĠìĿ¼ ëłī
Ġì²´ ê°Ĳ
Ġìĥģì§ķ íķĺëĬĶ
ĠëıĦìĭľ ë¥¼
ë» Ķ
ìĳ ¤
Ġ196 8
ĠìĹ¬ ìĿĺ
ĠíıŃ íĸī
Ġì¡° ê¸°
ì½ľ ë¦¿
ĠìĪĺ ëĭ¨
ìĤ¬ ëĿ¼
ĠëĵľëŁ¬ ëĤľëĭ¤
ë¹ Ķ
ì´Ī ë¥¼
ĠìĤ´ìķĦ ìŀĪëĬĶ
ĠëķĮ ìĻĢ
ìĶ Ģ
anch or
ĠíħĮ ëĿ¼
Ġë§Īë²ķ ìĨĮëħĢ
íķ´ ìĺ¨
ĠìĪĺ ìĹ¼
Ġê³µ ìĽĲ
ĠìŀĲ ê¸Ī
ĠìĹ¬ ìĦ¯
ê³ §
Ġìĭ¤ì§Ī ìłģìľ¼ë¡ľ
æ ¸
Ġëª¨ ë¥´ê²Į
Ġíĺ¹ ìĭľ
ĠìĤ¬ ìĦľ
ì°¨ ìłĦìĹĲìĦľ
ìĺ¨ ìĿĦ
Ġì¤ĳíĻĶ ë¯¼
ĠìķĬìķĺ ê¸°
ĠìĪľ ìĪĺíķľ
Ġë¶Ģë¥´ ê¸°ëıĦ
ìĭ¤ ê³¼
è ĥ
W e
Ġìľł íĺ¹
Ġê³µ ìĪĺ
ĠìĬ¤íĮĮìĿ´ ëįĶ
Ġê°Ģ ìŀĲ
íı¬ ìĿ¸
ĠíĻķìŀ¥ íĮ©
Ġìĸ´ ëł¸ìĿĦ
êµŃ ìĸ´
ç¾ ©
Ġíı¬íķ¨ ëĲľ
Ġìłķ ë°ĺ
ĠíĻľëıĻ íķĺëĬĶ
Ġê¸° ìĥĿ
ĠìķĦ ìĿ¸
Ġíĺ¼ ëıĪ
Ġë§Īë²ķ ìĿĺ
ëĵ¤ ë¡ľë¶ĢíĦ°
ĠìĥĿ ë°©ìĨ¡
ĠìķĪíĥĢ ê¹Į
ìĥ µ
Ġë²Į ìĿ¸
Ġìļ© ìĿ´
ëĵ¤ìĹĲ ê²Ĳ
ing s
Ġìĥ ¬
ind ows
Ġìĥģ íķĺ
ĠìĤ¬ìļ© ìŀĲ
ĠìķĦëĭĪ ëįĶëĿ¼ëıĦ
ìĹĲ ëĦĪ
Ġë¦¬ê·¸ ìĹĲìĦľ
I V
ĠìķĦ ìĦľ
ĠëĤĺ ëĿ¼ë¥¼
ìķ¼ ìĻĢ
Ġëĵ£ ê²Į
ĠìĹ° ëĮĢ
ë¬ĺ íķĺê²Į
Ġ5 6
ìĺ¤ ìŀĲ
Ġë²Ķ ìļ©
ìĿ´ íķĺ
ĠíķĻêµĲ ìĹĲìĦľ
Ġì²ľ ì²ľíŀĪ
ì°¨ ê³ł
ë¶Ħ ìĿĢ
ĠíĽĦ íļĮ
ç ·
æľ ¨
ìĬ¤íħĮ ìĿ´ìħĺ
Ġì°¾ ê³ł
ìĨĮ ëĵľ
Ġëĳĺ ëĭ¤
ëĭ¹ íķĺê²Į
it al
ĠìĿ´ê³³ ìĹĲ
ëĨĵ ëĬĶ
ê°Ģ ë£¨
ëĺĲ ëĬĶ
Ġìļ´ìĺģ íķĺê³ł
ìłķ ê·ľ
Ġë§ĪìĿĦ ìĿĦ
íĤ µ
ĠìĤ¬ìĿ´ íģ´
ĠìŀĪ ê¸°ëĬĶ
Ġê¹Ģ ìļ©
ĠìĦ¤ ëªħìĿĦ
Ġì£¼ ë©´
æ ·
ĠìĪĺìļĶ ê°Ģ
ìķĦìĿ´ íħľ
ìĹ°êµ¬ ìĨĮ
ĠëıĻ íķ´
Ġëĭ¹ ìĽĲ
Ġëī ĺ
ĠíĻĶ ìĤ°
Ġê°Ħ ìĦŃ
ĠíĹ¨ ë¦¬
ĠL A
Ġëª¨ìŀĲ ëĿ¼
æł ¡
Ġì§Ģ ëĤ¸
Ġì¹¨ íĪ¬
ĠíļįëĵĿ íķł
ê¸° ë³ĳ
ìĺ¨ ìĿĢ
Ġë§Ī íĭ´
ĠìķĦ ì¼ĢìĿ´ëĵľ
ìĥ ĺ
ĠìĿĺ ë¬¸ìĿĦ
Ġëĭ¹ ìĭłìĿĺ
Ġê¸ ģ
ëĭĪ ì¦ĺ
Ġw ill
éĻ ½
ĠìķĦìłĢ ìĶ¨
ë¸Į ê°Ģ
Ġê°ľ ìĦ±
Ġë§ĪìĿ´ íģ¬
198 2
ĠP h
197 0
ĠëĶľ ë§ģ
Ġê¸° ìĽĲ
ĠF or
ëĭ¤ íģ¬
ĠìĤ° ë§¥
ê²© ìĿĢ
ì§Ģ ë¦¬
ĠìĤ¬ íĩ´
Ġë¹Ħ ê°Ģ
íĭ° ìĿĺ
ëĶĶ ìĽĢ
Ġìĥģ ìłĲ
Ġê°Ģìł¸ ëĭ¤
ìĹĲ ìļĶ
ĠëĮĢ ê°Ģë¡ľ
Ġë´ ĩ
Ġë¹Ħë¡¯ íķ´
ĠìĿ¸ ìĭĿìĿ´
ê±° ëĿ¼ê³ł
Ġëªħ ë¬¸
Ġê¸° ìķĦ
Ġìĺ¤ ë©´
ìĨĮ íĻĺ
ĠB e
ĠëĤĻ íķĺ
Ġë¬¸íĻĶ ìŀ¬
b le
Ġìľł ë¬¼
íĺķ ìĹĲ
Ġëħ¼ ë¦¬
Ġìĭ¸ìĽĢ ìĹĲìĦľ
Ġìĺ Ĳ
Ġíķľ ë°©
ìĦ¸ ê¸°ìĹĲ
Ġê·¸ëŀĺìĦľ ìĿ¸ì§Ģ
ĠìºĲ ìĬ¤íĦ°
Ġìĸ´ë¨¸ëĭĪ ëĬĶ
ëł¸ ìľ¼ë©°
ĠìĹĨ ìĹĪì§Ģë§Į
Ġì¹´ ëįĶëĿ¼
Ġíķĺ ë°ĺ
ĠìķĦë²Ħì§Ģ ìĻĢ
ĠìĥģëĮĢ ë°©ìĿĺ
Ġìĭľ ì²´ë¥¼
Ġíķĺ ìĿ¸
y n
ĠìĹ ĩ
ĠíĳľíĺĦ ìĿĦ
ĠëĤľìĿ´ ëıĦë¥¼
Ġë£¨ ìĿ´ìĬ¤
ĠíħĮ ëĭĪ
Ġìľł ìļ©íķľ
ĠìĹĺë¦¬ ë²łìĿ´íĦ°
Ġëĭ¤ìĿĮ ìĿĦ
ìĪ ´
ìĹ° ìŀ¥
ĠëĵľëŁ¬ ëĤ¬ëĭ¤
Ġê³łíĨµ ìĿĦ
Ġíķľ ê°Ģ
ĠìĹ° ê³ł
Ġê¸° ë¶ĦìĿ´
Ġë¶Ģ ìľł
as on
Ġíĺ¸ë¶Ī íĺ¸ê°Ģ
Ġë°° ëĵľ
ĠìĹ° ëł¹
Ġ196 3
ĠíĹĪ ë¬´
ĠB r
198 3
ĠìĨĲ ìĿ´
Ġìĥ¤ ë¥¼
ĠìĬ¤ ì¿¨
Ġìĭľë¦¬ì¦Ī ê°Ģ
Ġíķł ìķĦë²Ħ
ĠP r
Ġëĭ¨ ìľĦ
ĠC on
íĶĮ ëĿ¼ìĿ´
ĠìľłëĤĺìĿ´ íĭ°ëĵľ
Ġìĸ ĩ
y st
ç ı
è Ļ
ìĺ¤ ë¥´
ĠíħĮ ìĿ¼
ë¥ĺ ëĬĶ
ĠëĤĺëī ľëĭ¤
íĸī ìĦ±
Ġë§Ī ìĭł
Ġíĺ¸ ëĤ¨
Ġì²ł ìłĢíŀĪ
ê·¹ ìŀ¥íĮĲ
ĠìĿ´ìłĦ ë¶ĢíĦ°
Ġë²ĦìłĦ ìľ¼ë¡ľ
ë©Ķ íĥĪ
Ġìĸ´ìļ¸ ë¦¬ëĬĶ
ëĦ¤ ë§Ī
Ġì ©
ìĿ´ëĿ¼ ê¸°
ĠìĹ¬ê¸° ìĦľëĬĶ
ĠëıĻ ìłĲ
ĠëĤĺ ëĵ¤
ì¿ł ë¡ľ
ĠëĦĪ ë¨¸
Ġìĭ± ê°Ģ
å ´
Ġìŀ¥ ë¡Ģ
Ġë§¤ ìŀ¥
Ġë§Ĳ íķĺìŀĲ
Ġê°ľëħĲ ìĿ´
ë§Ĳ ìĿ´
Ġë°ľìĥĿ íĸĪëĭ¤
ĠìĿ´ìĸ´ ì§Ħëĭ¤
Ġê°Ĳ ìĪĺ
ĠìłĦìŁģ ìĹĲ
Ġê³µ íĹĮ
ëħ¸ ìĬ¤ì¼Ģ
ìĤ¬ ëĤĺ
ãĥ Ĳ
ì µ¸
Ġê±¸ ê·¸ë£¹
íĮ į
Ġìĭľê°Ħ ìĿĺ
Ġìłķ ì²´ê°Ģ
ĠS E
ìŀ¥ ëĤľ
ĠìĦłë³´ ìĺĢëĭ¤
Ġì°¸ìĹ¬ íķĺìĺĢëĭ¤
ĠëĮĢ ìĤ¬ëĬĶ
Ġê²½ íĺ¸
ĠíĶĦë¡ľ ê·¸ëŀĺ
Ġìķ¼ ê°Ħ
ĠëĨĵ ìĹ¬
Ġë® ĮíĹ¨
ĠìĤ¬ìĿ´ ì½Ķ
ë¹Ħ ìĭľ
ì§Ħ íĿ¥
ĠìºĲë¦ŃíĦ° ëĵ¤ìĿ´
ìĿ¸ëį° ëĭ¤ê°Ģ
Ġë¡ľ ì¦Ī
ĠìĹŃ ìĿĺ
Ġê¸°ë¡Ŀ íķĺê³ł
ëī´ ìĸ¼
Ġíķľë§Ī ëĶĶë¡ľ
ìĭľ ìĿ¸
Ġêµ ½
Ġìŀħ ë¬¸
ëĳĲ ë©´
us e
ĠëĮĢ ìłĳ
Ġë³Ħ ìĿĺ
Ġìĸ´ ë¹Įë¦¬íĭ°
ĠS ch
Ġê¸° ë¶Ģ
ëĤ´ ëł¤
Ġìĸ Ģ
Ġë¿Į ë¦¬
Ġìĩ¼ íķĳ
ĠL e
Ġë¯¼ ì²©
Ġëı¼ ì§Ģ
ĠìłķëıĦ ë©´
Ġìłķ ê¶Į
ë¦¬ íķľ
ĠìĦ¤ ëªħìĿ´
Ġì¡´ìŀ¬ íķĺë©°
Ġë¹Ħ ìĬ¤
Ġ9 6
ì¡° ê°ģ
Ġíİ¸ ìľ¼ë¡ľ
ëķ Ĳ
Ġë¦¬ íĥĢìĿ´ìĸ´
Ġìĸ¼êµ´ ìĹĲ
ëįĶ ëĬĶ
Ġíŀĺ ìŀħ
ë¦´ ëĿ¼
Ġìĭ¤ ëĵľ
íħĲ ëį°
Ĳ ģ
ĠìĬ¤ ëĤĺìĿ´
ëĤ´ ìĦľ
Ġë¸Ķ ëŀĺ
Ġë¡ľ ìĿ´
ĠìĿ´ëŁ° ìłĢëŁ°
ìĪĺ ìĿ´ëĭ¤
ĠíĶĦë¡ľ ê²ĮìĿ´ë¨¸
Ġìĭ¤íĮ¨ íķľ
ê·¸ ë¡ľ
Ġë²ł íĥĢ
Ġì¶Ķì²ľ íķľëĭ¤
Ġíķĺ ìļ°ìĬ¤
ãĥ ¥
ĠìĿ´íķ´ íķł
ĠìķĬ ìľ¼ëĤĺ
Ġì§Ħ ì£¼
ë¦¬ ìĭľ
Ġëĭ¨ ìľĦë¡ľ
ĠìĬ¹ê°ķ ìŀ¥
Ġêµ¬ ë¯¸
Ġìļ° ìļ¸
ëĦ¤ ë¥¼
ĠìĨĲ ìī½ê²Į
Ġìľł íķĻ
ìķĦ ëĵ¤
ĠìĿĺë¯¸ ëĬĶ
ìĿĮ ê³¼
ĠëĤĺ ê°Ķ
Ġë§Ī ë£¨
Ġì§Ħ ê¸ī
Ġìĸ¸ê¸ī ëĲľëĭ¤
Ġìĺģíĸ¥ ëł¥ìĿĦ
ëĬĲ ëĭĪ
Ġë°ĶëĢĮ ëĬĶ
æ Į
ì§Ī ìłģìĿ¸
íĢ ĺìĬ¤íĬ¸
ĠìĦ¸ íĮħ
Ġìĭľ ë¦¬ìķĦ
od y
ì§Ģ ëĭ¤
Ġë§Į ëĵľ
ìĥī ìĿĢ
ĠìķĬ ìľ¼ë¯Ģë¡ľ
Ġë°© íĥĦ
ĠìĬ¤íĥĢ ë¦¬ê·¸
Ġëĸ¨ìĸ´ ì¡Įëĭ¤
ĠíķĻ ë¶Ģ
Ġìĺģíĸ¥ ìĿ´
ì´Ī ê°Ģ
Ġìľł ë£Į
Ġ7 00
Ġ5 7
ĠìłĦ íĸ¥
ĠìĪĺë¥ĺ íĥĦ
ĠëĤĺ ëħ¸
Ġë§Į ìĿ¼
Ġì£¼ ì¶ķ
ĠíŀĪìĸ´ë¡ľ ì¦Ī
ĠìķĦ ë²ł
ìĦł íĥĿ
ìĺ¤ íĨł
ĠìĽ¨ ìĿ´ë¸Į
ĠíķĺëĬĺ ìĿĦ
Ġë§Į ì£¼
åį ģ
ì²´ ëł¥
ãĤ °
b e
ĠëıĻ íĸī
Ġì¡° ëªħ
ëĶľ ìĿĦ
ëª¨ ìĬµ
ëĮĢ êµĲ
Ġíģ´ ë¦°
Ġê³¼ ìŀ¥
Ġìµľ ìłĢ
íĬ¹ ìĿ´
ìī Ĳ
ìĸ´ë²Ħ ë¦°ëĭ¤
Ġë°± ìĿ¸
Ġì´¬ìĺģ íķľ
Ġë¶Ģ ìĬ¤íĦ°
íĮ¨ ìĬ¤
íķĺ ë¥´
Ġìĸ´ë§Īìĸ´ë§Ī íķľ
ĠêµŃ ë¬´
ĠD r
ĠëĨį ëĭ´
Ġì´Ī ê¸°ìĹĲ
ì¤Ħ ìĿ´
ar m
ĠíĪ¬ ìĤ¬
ĠëĤĺ ê°Ħëĭ¤
Ġê°ĢëĬ¥ íķĺê²Į
è £
n et
ì¡° ìĦłìĿĺ
íķĺ ìļ°ìĬ¤
ĠìĿ¼ë³¸ ìĿĢ
ĠíĨł ìļ°
ot t
ĠE n
íķ´ ì£¼ê³ł
ê¸° êµ¬
íĽĦ ë³´
Ġì¶Ķ ìĦľ
ìĤ¼ ì§Ħ
íħĮ íģ¬
ãĥ Ĩ
ê°Ģ ëĵľ
ë§Ī ìĿ¼
Ġê±° ëĿ¼ëĬĶ
Ġìłķ íĻĶ
ĠíĥĢìĿ´íĭĢ ìĿĦ
Ġì£Ħ ë¥¼
ĠìŀĪëĭ¤ ë©°
ëĤĺ ìĹĲê²Į
Ġì§Ģìłķ ëĲĺìĹĪëĭ¤
íĦ ±
us ic
Ġìłľìŀĳ ì§Ħ
íı° ìĿĦ
Ġì¹ĺ ì¦Ī
ĠìĦ± ìłģìĿĢ
ĠìķĦëŀĺ ìĻĢ
Ġìĺ¤ ê¸°
ĠíĮĮ ëŀĢ
ĠìĿ¼ íķĺëĬĶ
Ġëĸł ëĤľëĭ¤
Ġì¹´ ì¸ł
ê°Ĳ ëıĦ
ĠìĿ´ íĨł
ĠëĦĪ ëĬĶ
Ġìĭľìŀĳ íķĺìĹ¬
Ġìłķ ë°ľ
Ġë§İ ìĿĦ
Ġìĸ´ë¨¸ëĭĪ ìĿĺ
Ġíķĺ ëł¤
ìŀ¥ ì¹ĺ
Ġì§Ħíĸī ëĲĺìĹĪëĭ¤
Ġìĭ¤ ìłĦ
ĠW e
ĠìĻ¸ ìłĦ
Ġê¸°ë³¸ ìľ¼ë¡ľ
Ġíľ´ ìĭĿ
ĠíĶ¼íķ´ ëŁī
Ġìłľê³µ íķľëĭ¤
ĠìĤ¬ëŀĮ ê³¼
_ {
ìŀ¥ êµ°
ĠìĦłìĪĺ ìĿĺ
ĠìĿ´ ê¸°ê³ł
ĠìĤ¬ëŀĮ ìĿ´ëĭ¤
Ġëħ¸ ëŀĢìĥī
Ġê°ķ ìĽĲ
ê»ĺ ëģ¼
ãģ ļ
Ġê²ĮìĿ´ ë¨¸
Ġìĺ¤ íģ¬
ĠìĬ¬ ëłĪìĿ´
Ġíķľ ê³Ħê°Ģ
ĠíĶĮëłĪìĿ´ìĸ´ ìĹĲê²Į
íĥĢ ìĹĲ
ìķł ë¥¼
ĠëıĮìķĦ ê°Ħëĭ¤
Ġëļľ ëł·
ë¿ Ķ
Ġë§Įëĵ¤ìĸ´ ì¡Įëĭ¤
ĠìĤ¬ ìĭł
ĠìļĶ ë¦¬ë¥¼
ìĹ¬ ëĭ´ìĿ´ì§Ģë§Į
ë°´ ëĵľ
ìļĶ ë¦¬
æ Ĭ
ëĨĴ ìĿĢ
Ġl ike
ĠìĤ´ ëįĺ
ĠìłĪ ì¹ľ
H D
Ġìĭľ ê°Ģ
Ġëª¨ìĬµ ê³¼
ĠìĤ° íķĺ
íĿ ĺ
Ġê·¸ ì¤ĳ
Ġìĺ¤ ê³ł
ê²Ģ ì°°
Ġë¹Ħì£¼ ìĸ¼
Ġê°Ģ ëĶĶìĸ¸
T R
Ġì¶ľ ë£¨
Ġê·¸ëŁ¬ ëįĺ
Ġíģ¬ ëŀĺ
ĠíĺĪ ìķ¡
íĺķ íĥľ
in a
Ġëª¨ ìĪľ
Ġìłģ ê²Į
íĶ¼ ìĿĺ
Ġê¹Ģ ìĿ¼
Ġìŀħ ì£¼
Ġìļ° ë¥´
th ing
ĠíĬ¹ ìĦ±ìĿ´
ĠìĭľìłĲ ìĹĲìĦľëĬĶ
ĠíĬ¹ì§ķ ìĿĦ
Ġë°Ľ ê¸°ëıĦ
Ġê·¹ ëıĦë¡ľ
Ġê¹¨ëĭ« ê³ł
Ġíİ¸ íķĺëĭ¤
ĠíĥĦ íķµ
å Ŀ
Ġ6 6
Ġëĭµ ëĭµ
ĠB L
Ġì§Ī ë¬¸ìĿĦ
íŀĪ ì½Ķ
Ġê²½ê¸° ìĹĲìĦľëĬĶ
ë° ¸
ĠíĬ¹ ê¸°
Ġìķ ĵ
Ġìĸ´ì§Ģê°Ħ íķľ
ê°Ĳ ìľ¼ë¡ľ
Ġëª¨ìĬµ ìĿ´ëĭ¤
ĠíĬ¹ì§ķ ìĿ´
ĠìĿ¸ íĶ¼
o ot
Ġë§Ĳ ê³¼
Ġë¶Ħ ìĤ°
Ġë¬ĺìĤ¬ ëĲľëĭ¤
ĠìĿ´ê³³ ìĹĲìĦľ
Ġëŀĺ íį¼
ĠìŀĲ ì¡´
åĮ Ĺ
Ġìĭ¬ íķ´
ĠìķĬìĿĦ ê¹Į
ĠëıĦ ìłģ
è ¼
ĠìķĦ êµ°ìĿ´
ìĦł ë°ľ
Ġìµľê·¼ ìĹĲ
Ġê¸° ê°ĳ
Ġìłķ ë©´
ĠíĨł ìļĶ
ë² ¡
ĠêµĲ ì°¨
ĠìłĲ ê³¼
ĠìĿ´ ëĭĪ
ĠìĽĲ ì£¼ë¯¼
Ġìĸĳ ìŀĲ
ìľł ëĭĪ
ĠìĥĿê°ģ ìĿĢ
ĠìĬ¤íĬ¸ëĿ¼ìĿ´ íģ¬
Ġì¡°ê±´ ìľ¼ë¡ľ
Ġì´Ī ìĹĲ
Ġì£Ħ ì±ħ
Ġê²½ ì§ģ
ĠìĹĲíĶ¼ìĨĮëĵľ ìĹĲìĦľ
Ġë¡¤ ëĵľì»µ
Ġì£¼ìĹ° ìľ¼ë¡ľ
Ġìĭ¤ ìĿĢ
ì²ł ëıĦìĿĺ
ĠìĿ¸ ê²ĮìŀĦ
ĠíĹ ·
ë¦¬ ëĭĪ
ì Ńī
Ġë¹Ħ ìĦľ
Ġë¶Ī íĸī
ìŀĲ ìĽĲ
íķĺ ë¥´íĬ¸
ĠíķĻêµĲ ë¥¼
Ġì¡°íķ© ìĿĦ
Ġëħ¸ ë©Ģ
æŃ ¦
S M
ëıĦ ìłĦ
Ġë° Ī
å ī
ou ld
ĠëĤ© ëĵĿ
ĠëĶĶìŀĲ ìĿ¸ìĿĦ
ĠìķĦëĭĪ ìĹĪ
198 1
Ġë§ĪìĿĮ ëĮĢë¡ľ
ĠU N
Ġì´Īì¤ĳ ë°ĺ
v N
ĠëıĦ ëįķ
ç Ī
ĠìļĶ ìĨĮë¥¼
Ġ9 7
íĶĮ ëłĪ
Ġíķ¨ ëĮĢ
ĠíĽĶ ì³Ĳ
Ġíı¬ìĿ¸ íĬ¸ë¥¼
ĠìķĪ ìĸĳ
ĠìĹ¬ ìłĦ
ê¹Į ë´Ĳ
ĠìĬ¹ ë¶Ģë¥¼
ãĥ Ĭ
ĠìĦ± ê³¼
Ġì¡´ìŀ¬ ë¡ľ
ĠE d
Ġìĺ¬ëĿ¼ ê°Ī
Ġì§Ħíĸī ëĲĺëĬĶ
Ġì¡° ì¹ĺ
ë³ĳ ê³¼
Ġëĸł ëĤ¬ëĭ¤
ĠìĿ¸ì§Ģ ëıĦê°Ģ
Ġë¬´ ê±°ìļ´
ĠìĦ¤ ëł¹
Ġëĭ¨ ìĸ´ë¥¼
Ġê³µ ìĹħ
Ġì¤ĳ ìŀ¥
¾ °
Ġëĭ ¦
Ġ5 4
Ġì¶ľìĭł ìĿ´ëĭ¤
Ġëľ¬ ëĭ¤
Ġëĭ´ ìķĦ
íĦ° ìĹĲ
Ġê¹Ģ íķ´
Ġê¹Ģ ì§Ģ
ĠìķĦìĿ´ ëĶĶ
Ġë°± ìĹħ
- -
Ġê²ĥ ëĵ¤ìĿ´
ãģŁ ãģĦ
ĠìĹ¬ ìŀĲê°Ģ
Ġì°¨ ìĽĲìĹĲìĦľ
Ġl a
Ġë°ĶëĢĮ ìĸ´
ìķĦ ì§Ģ
ìĭ¤ íĹĺ
B L
ĠíĶĦ ëŀľ
ĠìĿĮ ëª¨
ê¸° ë©´
ĠìĹ° ìĤ°
Ġìĭ ¼
Ġëĵł ëĭ¤
Ġë¬´ëĤľ íķĺê²Į
Ġì¶Ķì¸¡ ëĲľëĭ¤
ĠëıĻ ê¸ī
ĠJ TBC
ë© ķ
Ġë°° ìļ´
ĠìĽĢì§ģ ìĿ¼
ĠíĿ Ļ
ì²ľ ìĿĦ
ì§Ģë§ī ì§Ģ
ĠìĦ¤ ìĿ´
íŀĪ íĨł
Ġìºĺ ë¦¬íı¬ëĭĪìķĦ
ĠìĹĨìĹĪëĭ¤ ê³ł
ĠìķĦëĭĪ ìķ¼
ĠíĿ° ìĥī
íķ´ ìļĶ
Ġê±° ìĿ¸
ĠìĿ¸ ê°Ģ
Ġì¶Ķì¸¡ ìĿ´
ìĦĿ ê³¼
íĶ¼ ìķĪíĥĢ
Ġìĭ¸ìļ° ê²Į
ë¬¸ ê³¼
ĠìĿ´ë²Ī ìĹĶ
âĢ ĺ
Ġì½Ķ ë©ĺ
íı¬ ëĵľ
Ġì¹ľ ì²Ļ
ëĳĲ ë¡ľ
Ġê·¼ ëĮĢ
ìĨį ìĹĲìĦľ
Ġê°ľë´ī íķľ
ëª¨ ìĬ¤
Ġëĺĳê°Ļ ëĭ¤
íļĮ ë¡ľ
ìĸ´ ë¦°
Ġë¨¸ ìĭł
ëĵ¤ ê¹Įì§Ģ
ĠìĤ¬ìļ© ìĭľ
Ġë¹ħ íĨł
Ġìĺ¬ ë°Ķ
ìĸ´ë²Ħ ë¦¬ê³ł
Ġë¶Ħëħ¸ ë¥¼
ì¤Ħ ìĿĦ
íİ¸ ìĦ±
Ġëį°ë¯¸ ì§ĢëĬĶ
Ġë¹ĦëĤľ ìĿĦ
ê±° ê°Ģ
ìĭľìķĦ ìĿĺ
Ġë³¼ ìĪĺ
ĠíĶ¼ ë¡ľ
Ġíİ¸ ìĿ¸ëį°
ëĸ ł
ë³´ ì»¬
Ġíİĺ ìĬ¤íĭ°ë²Į
ìĭľ ìĬ¤ì½Ķ
Ġìĭľì²Ń ë¥ł
Ġì¹´ ìĬ¤
ëħĢ ê°Ģ
Ġê²°íĺ¼ ìĿĦ
ìĭľíĤ¤ ì§Ģ
in s
Ġíį¼ ì¦Ĳ
ĠíĮĶ ìķĦ
Ġë¶Ļ ìĿ¸
Ġì¡° ìĸ¸ìĿĦ
Ġê°ķ ëıĦ
íĮ¨ íĦ´
ĠC V
ëĤĺ ìĹĲ
ëıħ ìĿ¼ìĿĺ
O h
ìĤ¬ ìłĦ
ë¦¬ íĥĢ
íĴį ìĿĦ
ĠëıĦìĭľ ìĿĺ
ë¹¨ ë¦¬
ĠíĨł ë¥´
K O
Ġë°Ģ ë¦¬ëĬĶ
ĠìĹĲ ëĶĶìħĺ
ëĤĺ ìļĶ
æĸ ¹
ĠìłĲ ìľł
Ġìĵ¸ ë§Į
Ġìłķìĥģ ìłģìľ¼ë¡ľ
op e
ĠìŀĳíĴĪ ìľ¼ë¡ľ
íŀĪ ìĸ´ë¡ľ
Ġë°ĺ ì§Ģ
ëĿ½ ìĿ´
Ġìĭľì¦Į ìĿ´
âĢ ĭ
ìĤ¬ìļ° ë£¨ìĬ¤
ĠìķĦ êµ°ìĿĺ
ì²Ń ìĿĦ
ëĥĲ ë©´
ĠìĿ´ ê²¼
Ġê¼¬ ë¦¬
ĠëĪĦêµ° ê°Ģê°Ģ
ëĦĪ ë¬´
Ġë¹łë¥´ ëĭ¤
Ġíĭ° ìĸ´
Ġëªħ ëªħ
íĭ° ì¦Į
Ġìĵ° ëįĺ
íķŃ ìĿĦ
Ġ7 2
Ġëĵ¤ ì§Ģ
Ġë³¸ íĨł
ĠíĬ¸ëłĪ ìĿ¼ëŁ¬
Ġê³¼ê±° ë¥¼
ĠìĬ¹ ìĿ¸
Ġë©¤ë²Ħ ê°Ģ
ë°° ìĿĺ
Ġë³¼ íĬ¸
ĠìĪ« ìŀĲê°Ģ
an s
ì¤ĳ êµŃìĿĺ
ĠF M
ë£¨ íĨł
Ġìĭľ ìĿ¸
Ġìĭł ìļ©
Ġíķľë²Ī ëıĦ
ĠìĻ¸ ìķ¼
Ġìĭ¶ ëĭ¤ëĬĶ
t y
ĠìĿ¼ìľ¼ íĤ¤ëĬĶ
ĠëĲĺ ëł¤
Ġë³¸ ìŀĳ
Ġëĸ¨ìĸ´ ì§Ģê³ł
ĠìĿ¼ìĸ´ëĤľ ëĭ¤
Ġë°ĺ ì§Ŀ
ĠI D
Ġê³ł ìĨĮ
I R
Ġë¶Ģ ì¹ľ
ìŀĪ ì§Ģë§Į
ĠìŀĬ ì§Ģ
ë²Ħ ëł¸ê³ł
Ġê³ł ê°ľë¥¼
Ġë³´ ìĥģìľ¼ë¡ľ
ë³´ ìĿ¸ëĭ¤
en g
ê³¨ ëĵľ
ĠëķĮ ìĹĲëıĦ
è µ
Ġìĺ¤ ëĿ¼
ìłĦ êµŃ
Ġë°ĿíĺĢ ì§Ħëĭ¤
ëĦĪ ìĻĢ
ìĭĿ ìĹĲìĦľ
Ġë°ľ ë°ľ
ê³µ ìľ¼ë¡ľ
Ġì£¼ ìŀĲ
ĠìĹ° ìĩĦ
ĠìĹĦ ìĹ°íŀĪ
ìłľ íĴĪ
Ġì Ĳ
ĠìĨĮ ìļ©
Ġë©´ ëª¨ë¥¼
ãĤ ¨
ĠìĪĺ ëıĻ
ĠìĤ¬ëŀĳ ìĿĺ
G E
ĠìĤ¼êµŃ ì§Ģ
F M
Ġë§Ī ìļ´
ìĿ´ ìĭľ
Ġìĭ¸ ìļ´
re t
Ġíķł ëķĮ
ĠìĿ´íĥĪë¦¬ìķĦ ìĿĺ
Ġë¬´ ê¸°ìĿĺ
C E
Ġíİĺ ë¯¸ëĭĪ
ĠìĤ¬ìĭ¤ ìĹĲ
ìĨĮ ë¦¬ê°Ģ
Ġë°ĶìĿ´ ëŁ¬ìĬ¤
Ġìĸ´ê·¸ ë¡ľë¥¼
íį¼ ë¥¼
ìłľ ë¥´
ĠìĹħ ë¬´ë¥¼
Ġë¦¬ë²Ħ íĴĢ
Ġë§Ī ì¹ľ
íİ¸ ìľ¼ë¡ľ
Ġìłģ ëĭ¹íķľ
ìº £
Ġëıħë¦½ìļ´ëıĻ ê°Ģ
Ġìĭľ ë®¬
Ġë°ĳ ìĹĲìĦľ
ĠìĿ´ë¦Ħ ìĿ´ëĭ¤
Ġì²ľ ë¬¸
ë³ĳ ìĹĲ
ìłĦ ìĦł
Ġìŀ¡ ìľ¼ë©´
Ġë²Įìĸ´ ì§ĢëĬĶ
ĠìķĦëĭĲ ê¹Į
ìķĦ ë¨¸
ĠíĦ° íĬ¸
Ġ15 00
Ġê¸°ìĤ¬ ëĭ¨
íĺĦ ìĭ¤
Ġ5 000
ëħ¸ ìĦł
ë§Ŀ ìĿĺ
ĠìĨĮ ê·ľëª¨
Ġì¿¨íĥĢ ìŀĦìĿ´
Ġëĭ¬ìĦ± íĸĪëĭ¤
íķ´ìķ¼ ë§Į
ĠíĮ¨ë°° íķľ
ĠëĳĲ ëĵľëŁ¬
Ġëª¨ ëĵľë¡ľ
Ġë¯¸ ëĤĺë¯¸
Ġëı Ķ
ĠëıĻ ìĿ¸
ĠìķĮ ì§Ģ
ê°Ĵ ìĿĦ
Ġìķ¡ íĭ°ë¸Į
ê¸Ģ ìĿĦ
ĠìĿ´ ëĪĦ
ëª¨ ëħ¸
Ġíĸ ĩ
Ġì½ĺ ìĬ¤íĥĦ
ë§¨ ìĿĦ
ëªħ ìĿ¸
Ġì¶ľ ê²©
Ġíķ© ë¦¬
ĠìĤ° íĥĦ
Ġê±´ë¬¼ ìĿ´
ìĹ´ ìĿĺ
ĠìķĦìĿ´ ëĵ¤ìĿĦ
Ġë°ľë§¤ íķľ
ê²½ ëł¥
Ġë¬´ ì§Ģë§īì§Ģ
Ġìµľìĥģ ìľĦ
ëĲĺ ì§ĢëĬĶ
ĠíĥĲ ìĤ¬
ĠìŀĳíĴĪ ìĹĲ
Ġì§ĢìĽĲ íķľëĭ¤
ĠĊĠĊ ĠĊ
ĠëĤ´ ë¶ĢìĹĲ
ìĽĮ íķĺëĬĶ
ë© ĭ
Ġ0 9
ĠìķĮëł¤ ì§Ģì§Ģ
ĠëĤ´ ìĹĲìĦľëĬĶ
Ġêµ¬ê°Ħ ìĿĦ
ëłĲ ëĿ¼
Ġì§Ģ êµ¬ìĿĺ
ë§Ī ì¹¨
ê¶Į ëıĦ
ri st
ĠíĥĢ ìľ¨
Ġíİ¸ íķĺê²Į
Ġìķķ ì¶ķ
Ġë²ł íħĮëŀĳ
Ġì¡° ìĤ¬ë¥¼
íĻľ ëıĻìĿĦ
ĠI T
ĠëĮĢ ë©´
Ġì£¼ ë©°
ëĤ ®
ìłľ ìĿ¼
ĠíĥĦ ìķķ
ë¹Ħ ìĬ·
Ġê³ł ë¬´
Ġê²ĮìŀĦ ìľ¼ë¡ľ
ë¸Ķ ìĿĦ
ìŀĲ ë¦¬ë¥¼
ìŀĪ ìĸ´ìĦľ
ìĭ¬ ìĿĢ
ì¿ł ê°Ģ
Ġê³µê°Ħ ìĿĦ
ëĤĺ ë¥´
ĠìĪĺ ê°Ĳ
ì¡± ìľ¼ë¡ľ
Ġ196 7
ĠìĤ¬ìļ© íķ´ìĦľ
Ġê¹Ģ ì¤Ģ
Ġëªħì¹Ń ìĿ´
ìĹĲ ë¥¸
ĠìĿĺ ì§Ģë¥¼
Ġíģ¬ ëłĪìĿ´
Ġìĸ´ëł¤ ìļ¸
Ġc l
Ġìµľì¢ħ ìłģìľ¼ë¡ľ
ì¦Ī ë¡ľ
ë¦° ëĭ¤ëĬĶ
re ak
Ġë¦ Ń
ĠìĥĪ ëĪĦë¦¬
ĠìĦ¤ëªħ ìĿĢ
íķ´ íķĺëĬĶ
Ġìĭł íĺķ
íķĺëĭ¤ ë©´
íĢ Ħ
Ġì§Ģ ë¶ķ
Ġì§Ĳ ìĬ¹
Ġê°Ļ ëĭ¤ëĬĶ
Ġë©ĭ ëĮĢë¡ľ
Ġìĺģ ìĸ´ë¡ľ
Ġíı¬ ìĪĺ
ĠL P
íķĺ ëĵ¯
æī ĭ
ĠíĹĪ ê°Ģ
çĻ ½
ĠëĶ ĺ
Ġìĭł ìĦł
Ġë¶ģíķľ ìĿĺ
Ġìĭł ìĨį
Ġê²Ģ íĨł
ast er
oh n
ë¦° ê³¼
íķĺìĺĢëĭ¤ ê³ł
ĠëĤ´ìļ© ìĿ´ëĭ¤
ëĭ¤ìĭľ íĶ¼
ì¸µ ìĿĦ
ĠíĨµ ì§¸ë¡ľ
ĠëıĮìķĦ ëĭ¤
ê¸Ī ìľµ
ĠìĽ °
Ġìļ´ ìĨ¡
ë¡Ń ëĭ¤
Ġë³Ģ íķ´
Ġë°ľê²¬ íķĺê³ł
Ġëħ¸ìĦł ìĿĢ
Ġê³³ê³³ ìĹĲ
ë°ĶìĿ´ ë²Į
Ġë°Ķ íħĢ
ĠëĤ´ ë¶ĢìĿĺ
ë¯¼ ê³¼
ë§Ī ëĭĪìķĦ
ê°Ģ ë¯¸
ìī¬ ë¥¼
Ġì°¸ìĹ¬ íĸĪëĭ¤
ĠìĹ°ì¶ľ ìĿ´
ê°Ħ ìĿĦ
ST ER
å ĵ
Ġìķ½ íĻĶ
íĻĶ ìĹĲìĦł
Ġ11 0
ĠìĿ´ ëĮĢ
ãĥ ¡
ë³ĳ ìĿĢ
Ġìĭ¤ ëĤ´
Ġëĭ ĺ
Ġìĭľ ê³¨
ĠìĽĢì§ģ ìŀĦ
Ġê°Ģ ê³µ
ëıħ íķľ
Ġìłģ ìľ¼ë¡ľ
Ġìĥģíĥľ ëĭ¤
ĠìľłëĭĪ ë²Ħ
ê³µ ìĹ°
ĠìĻľëĥĲ íķĺë©´
ĠëıĮ ê³ł
al k
ĠëıĦìĭľ ì²łëıĦ
B M
Ġëª¨ëį¸ ìĿĢ
íĺĦ ê³¼
ĠìĦ¤ì¹ĺ ëĲľ
ä¸ »
ë§ ·
ĠìķĦ ê¹Į
Ġë©ĶìĿ´ íĶĮ
Ġìĭľ ìĹĲëĬĶ
ĠìĽĥ ëĬĶ
ĠìĤ¬ ì²ľ
Ġì¡° ì°¨
ĠìķĬìķĺ ëĬĶëį°
ĠëĲĺìĸ´ ìķ¼
ĠìĻķ ë³µ
ĠìĿ¸ ìĤ¬ë¥¼
Ġë§Ĳ ìĶĢ
ĠìĿ´ ê²½
Ġìĺģ ìĸĳ
Ġê²ĥ ìĿ´ëĤĺ
ë²ł íĬ¸ëĤ¨
Ġê°Ģìł¸ ìĺ¨
ĠíĽĦë°ĺ ë¶ĢìĹĲ
ĠìŀĲë£Į ë¥¼
ëĵ¤ ìĸ´ê°Ģ
Ġíıī íĸī
Ġíĩ´ ê°ģ
q ue
Ġëĭµ ë³Ģ
ë¬´ ìĬ¤
ìļ° ëĵľ
Ġì´Ŀ ëıħ
Ġë¯¿ ëĬĶ
Ġì¹¼ ë¦¬
íĮĮ ìĹĲ
ĠëıĮìķĦ ê°Ī
ĠìĹ°ê²° ëĲĺìĸ´
ĠìĿ´ê±¸ ë¡ľ
Ġìĸ´ì©Į ë©´
ĠìľĦ ìĹĦ
ìĺģ ê³¼
ĠíĶ¼ íķĺê¸°
Ġìľł ìĹĶ
ĠìĦ±ê²© ìľ¼ë¡ľ
Ġìĺµìħĺ ìĿ´
ìĪŃ ìĿ´
ĠíŀĪ ëĵł
Ġìª½ ìĹĲìĦľ
ĠìĿ´ë²Ī ìĹĲëıĦ
ĠëĲĺëıĮ ìķĦ
ĠìĦłë°ľ ë¡ľ
íĤ¤ ìĬ¤
ĠìĿ´íķ´ ê°Ģ
ê¸ī ìĿĢ
Ġíķł ì§Ģ
Ġê·¸ëŁ¬ ë¯Ģë¡ľ
ìŀĲ ëĿ¼ê³ł
ëħ¸ ë¯¸ìķ¼
ê¸Ģ ëĿ¼
Ġìµľìļ° ìĪĺ
Ġëĭ¤ìĭľ ê¸Ī
Ġë§ĪìĿĦ ìĿĺ
Ġë§¤ ê°ģ
Ġë©¤ë²Ħ ëĵ¤ìĿĺ
Ġë§ĮëĤĺ ê³ł
Ġë²Į ìĿ´ëĬĶ
å Ĥ
Ġìŀ¬ ë°°
Ġë¬» ëĬĶëĭ¤
Ġíŀĺìŀħ ìĸ´
ìĿ¼ ì§ĢëıĦ
Ġê¹Ķ ìķĦ
ĠìĦĿ ìĤ¬
Ġê¶¤ ëıĦ
ë§Ī ìĿ¸
åĴ Į
Ġë°ľ ê°ģ
ëĭĪ ì¹´
ì³¤ ê³ł
Ġê°Ģ ì¹ĺë¥¼
íĶĦ ìĬ¤
Ġë²Ħíħ ¨
e ed
ë¬´ ëĬ¬
ìĹĨ ìĸ´
êµ¬ ìĦ±
Ġë¶Ģ ìĪ´
ì¡° ìłķ
ĠëĤĺíı´ ëłĪìĺ¹
ĠíħĲ ëį°
ĠìĦłìĪĺ ëĵ¤ìĿĦ
ĠìŀłìĪĺ íķ¨
Ġë³´ íİ¸
Ġê²° íĪ¬
Ġì¦Ĳ ê¸¸
ĠëĤĺëīĺ ìĸ´
Ġìĭł ë¶Ģ
ĠëĶ¸ ìĿ´
Ġê¸° ìłģ
Ġì£½ìĿ´ ëł¤
ìĭł ìĹĲ
Ġë¹ĦíĮĲ ìĿ´
Ġíķł ìĿ¸
ĠìĤ¬ìĿ´ ë¥¼
ëĭ¹ ìľ¼ë¡ľ
Ġëªħì¹Ń ìĿĦ
Ġë°Ľìķĺ ëĭ¤ê³ł
ĠíĬ¹ ìłķíķľ
Ġì£½ ìľ¼ë©´
ing le
ëĺ ĳ
ì¡° ìĻĢ
ĠíķĦìļĶ ë¡ľ
Ġë¯¸êµŃ ê³¼
Ġì£¼ìĿĺ íķł
ĠíĸĪ ê¸°
ê³Ħ ìĻĢ
Ġë©¤ë²Ħ ëĵ¤
Ġì¸¡ ìĿĺ
ìĬµ ëĭĪê¹Į
ĠìĿĺ íļĮ
Ġê¹¨ ëģĹ
ĠìĹ¬ íĥĢ
Ġìķ½ìĨį ìĿĦ
å ²
ĠìĬ¤ì¹´ ìļ°
ìĪĺ íķĻ
ĠìĻ¸ ê³½
Ġê°ĩ íĺĢ
Ġíģ¬ ëĿ¼ìĿ´
Ġë°©ìĭĿ ìĿĢ
Ġë¶Ī ë¦¬ë©°
Ġë¸Į ëŀĺ
Ġìĸµ ìļ¸
ĠS U
ĠíĮ¨ ëĦĲíĭ°
ë¯¸ ìĪł
Ġë°ĸ ìĹĲìĦľ
ì°¨ ê²Į
ëł¸ ìľ¼ëĤĺ
ìĨĮ ë°©
ĠëĮĢë¶Ģë¶Ħ ìĿĦ
A n
ĠëĮĢíĨµëł¹ ìĿĢ
ĠO ne
ĠìĭĿ ëŁī
ìĤ¬ ê²©
Ġì°¸ ëª¨
ĠA ll
Ġë³Ģ íķľ
Ġíİ¸ ìĿĢ
Ġë§ĪìĿĦ ìĹĲ
ĠêµŃê°Ģ ê°Ģ
Ġìł Ĭ
Ġë³ĳ ëł¥ìĿ´
ĠëłĪë²¨ ìĿĦ
Ġê±° ë¶ģ
Ġë¶Īë¦¬ íķľ
ĠA D
ĠìĬ¤ íĥĪ
éĻ ¢
ê·¼ ìĿ´
ĠëıĮìķĦ ìĻĶ
åħ ¨
Ġì¸ł ë°Ķ
ìłģ ìĿ´ì§Ģ
Ġëĭ¤ ëħĶ
ìĪĺ ìĹĲê²Į
Ġìŀħ ìĤ¬
Ġë°©ìĨ¡ ìĹĲ
is m
Ġì¹ĺë£Į ë¥¼
Ġë§Ī ë¸Ķ
ĠìĨĮ ë¬¸
ĠìĿ¸ ê²©
Ġì¢ħ ìĤ¬
ìĦ¸ íı¬
ĠíĥĢìĿ´ë°į ìĹĲ
Ġê·¹ëĭ¨ ìłģìĿ¸
Ġëľ¨ ëĬĶ
æĦ Ľ
ê³ł ìĻĢ
Ġë°Ģ ë¦¬
ë³´ ìĥģ
Ġìĥģ íķĺìĿ´
Ġê¸° ë¦Ħ
ê¸°ë³¸ ìłģìľ¼ë¡ľ
ìŀĲ ìĦ¸íķľ
ĠìĿ´ìĻ¸ ìĹĲ
ĠëĤł ëĽ°
Ġë°ľ íĥģ
Ġì£¼ ìłľê°Ģ
ìĿ¸ë¯¼ ê³µíĻĶêµŃìĿĺ
ĠëĮĢìłĦ ì°¨
ìĺ¬ ëĿ¼
Ġíķĺ ë¯Ģë¡ľ
. ,
Ġê¸īê²© íŀĪ
ĠA d
ĠO P
ĠëĨĢ ëĿ¼ìļ´
ë²Ħ ë¦¬ë©´
Ġìŀ¬ íķĻ
ì¡Į ê¸°
ĠíĻķìĿ¸ ëĲĺìĹĪëĭ¤
Ġë¯¸ìħĺ ìĿĦ
Ġíĺĳ íļĮ
ĠìĹĶíĦ°íħĮìĿ¸ ë¨¼íĬ¸
ĠíĻ© ìłľê°Ģ
ëħĦë¶ĢíĦ° ëĬĶ
ĠíĹ· ê°Ī
ĠìĿ´ íĭĢ
Ġë³´ ëĥĪ
Ġë¸Ķ ë¡ľ
Ġê¸°ìĪł ìĿĺ
íĻĺ ìĿĢ
Ġìĺģìĥģ ìĹĲìĦľ
Ġë¬» ëĬĶ
ĠTV A
Ġë¯¸êµŃ ìĿ´
Ġêµ¬ ë¦Ħ
ĠëĤ¨ ê²Į
ĠìĦłìĪĺ ëĵ¤
ĠìĿ¸ íķ´ìĦľ
Ġìľ¼ ë¡ľ
Ġì¡´ ì¤ĳ
ĠìĿ¸ ìĥģìĿĦ
ëĲ¨ ìĹĲ
Ġëħ¸ëŀĺ ê°Ģ
Ġê·¸ ë¦ĩ
ĠA FC
ĠìĨĶ ì§ģ
Ġì« Ĵ
Ġì¦Ĳ ê±°
Ġê·¸ëŁ¬ ë©´ìĦľ
íķ´ìķ¼ íķľëĭ¤
Ġì¢ħ ê²°
ì¹Ń ìĿĦ
ĠìĿ´ ë³ĳ
Ġíı¬ íļį
ìĺ ´
ĠíĨł íģ°
íĴį ìĿĺ
Ġì§ĢëĤĺ ê°ĢëĬĶ
Ġëĭ¤ ìĿ´ìĸ´
Ġë°ĺë©´ ìĹĲ
ëĴ Ģ
ìĹĪëĭ¤ ê°Ģ
ĠìĺģíĻĶ ëĬĶ
ë³´ ìĹĲ
ĠìĦ¸ê³Ħ ë¡ľ
ìĦľ ìĬ¤
ë¿Ĳ ìĿ´ëĭ¤
ĠìķĦìĤ¬ íŀĪ
Ġìĭ± íģ¬ë¡ľ
Ġë°ľ ëªħ
ìŀĳ ìĿ¸
Ġ5 3
Ġê³¼ íķĻìŀĲ
íķĻëħĦ ëıĦ
íĺķ ìĿ¸
Ġë¹ĦêµĲ íķ´
ç¾ İ
at or
Ġë©į ì²Ń
in al
êµ° ëĭ¨
ou l
ĠìĦ±ê³µ ìłģìľ¼ë¡ľ
Ġë§¥ ìĬ¤
Ġë¬¸ìłľ ìłĲ
ç Ł³
ìĦ ¹
ê¸Ī ìĿĺ
Ġë¶Ī ìĮį
Ġê³¨ ëĿ¼
ĠìĿ¼ë³¸ ìĿ´
ĠëıĦ ìĦľ
ĠìºĲ ë¦Ń
Ġë¸Į ëĿ¼ìĿ´ìĸ¸
Ġëħ¸ ëł¥ìĿĦ
ĠC F
Ġê³łëł¤ íķĺë©´
ë¶Ģ íĤ¤
ĠìĿĺ ìĤ¬ë¥¼
ĠíĬ¸ ëĿ¼
ĠëĿ¼ ìĬ¤
Ġê·¸ ëĵ¤
Ġìļ° ëĿ¼
Ġê±° ëĳĶ
ĠíĸīëıĻ ìĿ´
íĮĮ ë¦¬
Ġê°Ĳ ìĥģ
Ġíı¬íķ¨ íķĺìĹ¬
ĠìłĢ ëĬĶ
ĠìĿ´ë¦Ħ ëıĦ
ëĤ¨ ëıĦìĿĺ
íĽĦ ì¿ł
ìłĦ ëıĦ
Ġìķ¤ ëĵľ
ê±´ ìĿĢ
ëĤ¬ ê³ł
ì¸ł ì¹´
Ġëįĺ ì§Ħ
Ġê¹Ģ ìĪĺ
Ġê²© ëł¤
Ġìķ °
ìĦ± ìĹĲìĦľ
ì¡± ìĿĢ
íģ¬ ëłĪ
ĠìŀĪ ê²ł
Ġëª© ìłģìĿĢ
ĠëģĶì°į íķľ
íĽĪ ìĿĢ
ĠíıĲì§Ģ ëĲľ
Ġë¬¸ ìĿ´
íĮĮ ëĿ¼
ë¡ł ê³¼
ëª¬ ìĿ´
ĠìĬ¤ìĬ¤ë¡ľ ë¥¼
ëıĦ ëĿ¼
Ġì²« ì§¸
ĠìŀĲ ìłľ
Ġë¶Ħëħ¸ íķľ
Ġê°ĢëĬ¥ íķł
Ġì´Ī ìĥģ
ĠíļĮ ìĥī
Ġê°ķ ë¦ī
ĠìĦ¸ ìļ°
Ġë°©ë²ķ ëıĦ
Ġë°Ķ ë¥¸
Ġëĭ¤ìļ´ ë¡ľëĵľ
ìŀĲ ìĿ´ìŀĲ
ëıĻ ìĭľ
Ġê°Ĳ íĥĦ
ëŁī ìĹĲ
ê²¬ ìĿĦ
Ġìĭľ ê²Į
ĠìĹŃ ìĿ´ëĭ¤
Ġìĭ¸ìļ° ê³ł
Ġìķ½ íĺ¼
Ġìĺ¤ ëĭ¤
Ġíķ´ ì¹ĺ
ĠìĿ¼ ì»
Ġì£¼ íĸī
íģ¬ë¡ľ ìĬ¤
ë°© ìĿĢ
Ġë§¤ ì²´
ĠíĨłëĦĪ ë¨¼íĬ¸
ìķĦ ëĤ´
ĠìĿ´ ìĺ¤
Ġìĥģ ìĭĿ
Ġo h
ĠìĦŀ ìĹ¬
ĠìĿ´ë£¨ ëĬĶ
ìĹĲê²Į ë§Į
ìķĦ ëĭĮ
ìĥģ ê°Ģ
ĠìĤ¬ ìľł
Ġë¯¸ íĤ¤
Ġëªħ ìĭľ
Ġìĭľìŀĳ íķĺê³ł
Ġê³ģ ìĹĲ
ëĵ± ìľ¼ë¡ľ
Ġìłĳ ìĸ´
ĠìĦł ìĿĦ
ĠìķĪ ê²½
ĠìĪĺ ìŀ¥
ë§ Ļ
ĠíĶĦë¡ľ ë¦¬ê·¸
ĠìĬ¬ íĶĶ
ĠëĤ´ ìĹĲìĦľëıĦ
ĠìŀĲ ìĽĲìĿĦ
Ġê²°ìłķ ìłģìľ¼ë¡ľ
Ġë¦¬ê·¸ ìĿĺ
íķ´ êµ°
Ġë²Ħ íĭ¸
Ġë¬¸ìłľ ìĿĺ
Ġì½Ķ ìĬ¤íĬ¸
ë£¨ íĬ¸
Ġs o
Ġìĭľìŀĳ íķ´ìĦľ
íį¼ ìĿĺ
ĠíķĻìĥĿ ëĵ¤ìĿĢ
ìĭł ìĿ¸
ê±¸ ìĿ´
Ġìĸĳ ìĿ´
at er
ĠìĹ¬ëŁ¬ ë²Ī
ĠìĿ´ë£¨ ê³ł
ĠìĿ¼ì» «
Ġë°Ķê¿ ¨
Ġì§ĢìĨį ìłģìĿ¸
ĠìĿ¸ë¬¼ ìĿĢ
ìĦľ ë¹ĦìĬ¤
Ġë©´ ìłģìĿĢ
Ġê³¨ ëłĺ
ĠìĹĨ ìĹĪê¸°
ìĹĺ ìĿĺ
íķĻ íļĮ
Ġ5 9
ì£¼ìĿĺ ìĿĺ
Ġë§ŀì¶° ìĦľ
ĠìĿ´ë¥´ ëŁ¬
ë¬¸ ìłľëĬĶ
ìļ° ë¦¬ëĬĶ
Ġë°© ìĿĦ
Ġìĸĺ ê¸°ê°Ģ
Ġìľł ìĦ±
Ġìĺ¤ ë¥¼
ĠíĶ¼ ì§Ģì»¬
Ġê·¸ íķ´
ë£¨ íĥĢ
Ġì´Ī ì½ľë¦¿
Ġìĸ¸ìłł ê°Ģ
ìĹĲ ìĸ´
ìĦľìļ¸ íĬ¹ë³Ħìĭľ
Ġì¡°ìĦł ìĿĺ
ĠìĤ¬ìĿ´ ë¡ľ
ìĺ Į
èĬ ±
ĠìĽĲ ì¡°
ĠìłģìłĪ íŀĪ
Ġë³´ ìķĺëĭ¤
ĠìłĦì²´ ìĹĲ
Ġ5 8
Ġë²Ħ ìĦ¯
ĠëĨĴ ìķĦìĦľ
Ġì»¤ìĬ¤ íħĢ
ĠíĮĮ íģ¬
Ġì½ĶìĬ¤ íĬ¬
y e
ë¦¬ ëĵľ
âĢ¦ )
ìŀ¬ ëĬĶ
íĬ¸ ëĦĺ
íį¼ ëĵľ
Ġìłķ êµĲ
ĠíĬ¸ ìľĹ
ë¬´ ì§Ģ
ĠíĮĢ ìľ¼ë¡ľ
ĠìĪľ íĻĺ
ĠìŀĲìłĦ ê±°
ĠëĿ¼ ìĿ¸ìĿĦ
Ġëĸ¨ìĸ´ ì§Ī
Ġìłľ ëħ¸
ĠìķĦ ìĭľ
ĠìĻĢ íĥĢ
Ġê³¼ê±° ìĹĲëĬĶ
Ġë²łë¥¼ ë¦°
Ġê¹Ĭ ìĿ´
Ġìľł ìĤ°
ĠíĨł ìĺ¤
ìĿ´ìĹĪ ê¸°ìĹĲ
ĠëıĦ ê¹¨
ĠíĶ¼ ìĿĺ
Ġë¯¸ ëħ¸
Ġìŀħ ì§Ģ
ìłĪ ìĿ´
Ġì¤Ģ ìĪĺ
íĥĦ ìĿĢ
ĠìķĬ ëĭ¤ê³ł
ĠìķĪìłķ ìłģìľ¼ë¡ľ
Ġëª° ìĤ´
ĠëıĦ ì¿ł
ì¸µ ìĿĢ
ë¤ ĺ
Ġíķĳ íģ¬
Ġê²ĥ ìĿ¸ê°Ģ
ĠìķĦ ìĬ¤ì¹´
ĠìŀĲì²´ ìĹĲ
ĠìĬ¤íĬ¸ ë¦¬íĬ¸
ĠìĿ¸ê³µ ì§ĢëĬ¥
Ġêº¾ ê³ł
æľ Ŀ
ĠìĹ¬ ìļ°
Ġë³´ ìĥģìĿĦ
ìĺ¤ ë©´
Ġì°¬ ìĦ±
Ġë¶Ģ ìĨį
ĠìĦ¸ ëĿ¼
ĠíĻľëıĻ ìĿ´
Ġë§Ī ìĵ°
ê°ľ ëĤĺ
ì²ĺ ê°Ģ
ĠíĶĮ ëŁ¬
Ġìķŀ ìĦł
ĠìĹĲíĶ¼ìĨĮ ëĵľê°Ģ
ì§Ħ íĸī
ĠìķĦ ì¼Ģ
Ġë³ĳ ê¸°
Ġì§Ģë°© ìĿĺ
Ġìĭ¤íĮ¨ íķĺê³ł
Ġê¶Į íķľ
ĠìķĦë¥´íĹ¨ íĭ°ëĤĺ
Ġë³´ ìĿ´ìĬ¤
ë¬´ ëĮĢ
ìľ Į
íİĻ íĬ¸
ĠìĬ¤ íĭ°ë¸Į
ĠëĤĺ ìĿ´ëĬĶ
ë¯¸ ì¦Ī
ê· ¤
ëª© ë¡Ŀ
Ġëĭ¤ ê°Ģê°Ģ
ìº Ħ
i um
ĠìĹ¬ íĮĮë¡ľ
ĠíĤ¬ ëŁ¬
ëłĮ ì§Ģ
Ġë¹Ļ ìĿĺ
Ġìµľ ìķħ
ì±Ħ ë¡ľ
Ġëª©íĳľ ë¥¼
ĠìłĦëĿ¼ ë¶ģëıĦ
197 9
ìĸ´ ì§ĢëĬĶ
Ġìłķ ìĽĲ
ĠìĶ »
Ġë§Ī ì°°
ĠëķĮ ë§Į
Ġë§Ī íĶ¼ìķĦ
ë¹ ¼
ìĽĶ íĺ¸
Ġì¼Ģ ë¹Ī
ìĥ Į
ë£¨ ìĹĲìĦľ
ĠìĹĨ ì§Ģ
Ġê³Ħ ìłķ
ë²Ħ ëł¤ìĦľ
ĠìķĮ ìķĺ
ê²Į ëĬĶ
ĠìŀĦ ì§Ħ
ĠìĬ¤ íķĢ
Ġìķ¨ë²Ķ ìĿĦ
ê·¸ ë¦°
ìĽł ê³ł
Ġë½ĳ ìĿĦ
Ġë» ¥
ĠìĹŃìĤ¬ ìłģ
Ġê²° ë¡ł
Ġë°ľìĥĿ íķł
ĠëĮĢ ê°Ģ
ĠìŀĲìĿ´ìĸ¸ ì¸ł
Ġì±ĶíĶ¼ìĸ¸ìĬ¤ ë¦¬ê·¸
ëĶľ ìĿ´
A nd
éĩ İ
ãĤĪ ãģĨ
Ġëĭ¤íģĲ ë©ĺ
Ġê²½ ëł¥ìĿ´
ìĤ° ëıĻ
ĠíķĺëĤĺ íķĺëĤĺ
ĠíĬ¸ ëŀĺ
Ġì§Ħíĸī íķł
Ġíĥ ķ
Ġë°ĺ ìłĦ
íķĺ ê²łì§Ģë§Į
ĠìĹĨìĸ´ ëıĦ
ĠëĲĺ ëĭĪ
ĠíĶĦë¡ľ ëłĪ
ĠìĿ´ ìĦ¸
ĠìĭĿ ìĤ¬
íİ¸ ìĿĢ
Ġëĭ¤ìĿ´ìķĦ ëª¬ëĵľ
íİĺ ìĿ´ì¦Ī
ĠìĿ¸ ìĹ°
íĭ° ëħ¸
Ġêµ° ìĿĺ
Ġë°ĶìĿ´ ìĹĲë¥¸
ëĮĢ ë¥Ļ
Ġë³¸ ëªħìĿĢ
ĠëĤĺ ìĿ´ë¡ľ
Ġëĵ¤ìĸ´ ê°Ģì§Ģ
Ġêµ´ ëŁ¬
ë¬¼ ê³¼
ĠìĿ´ ê¸°ëĬĶ
Ġì¤ĳ ê±°ë¦¬
ĠëĤ¨ ëıĻìĥĿ
Ġíĸ¥ íĽĦ
ĠìĦ¸ê³Ħ ëĮĢìłĦ
' re
Ġíķĺ ëĿ¼
ĠìĿ´ íĥľ
Ġëĵ±ìŀ¥ íķĺê³ł
ìĭ¬ ìĹĲ
ĠìĬ¤ íİł
Ġê²½ì°° ìĿ´
ĠìĹĨìĸ´ ì§Ħ
Ġë½ĳ ëĬĶ
Ġë¹Ħ ìļ©ìĿ´
Ġ19 20
Ġê³ł ì§Ģ
Ġë¦¬ íĭĢ
ë°Ľ ê²Į
Ġë°ķ ë¬¼ê´Ģ
ĠìĦł íı¬
ì§ĳ ìĹĲìĦľ
G r
ëĮĢ ë§Į
N E
Ġë£ ©
Ġêµīìŀ¥ íķľ
Ġìłķë¥ĺ ìŀ¥
ç© º
ĠìłĲ ìĪĺê°Ģ
Ġëŀ ĳ
é¾ į
Ġë³´ ëĤ¼
Ġëĭ® ìķĺëĭ¤
ĠëĶĶ íİľ
I X
ĠìłĦëŀµ ìĿĦ
ĠìķĦëĭĪ ê²Į
ĠìĦ¬ ìĿĺ
Ġìĥ Ĳ
ĠìĦ¤ìłķ ìĥģ
Ġì²Ń ì£¼
Ġìľłìļ© íķĺëĭ¤
Ġëģ¼ ìĽĮ
ê¹Ģ ìĥĪ
Ġê³ł ë¦½
ìĸ´ ëĳł
Ġê¹Įëĭ¤ ë¡ľìļ´
ë¶Ħ íķľ
ëĶĶ ìĻĢ
ìļ° ìĬ¤ê°Ģ
Ġìĭľìŀĳ íķĺë©´
ĠìĹ¬ ë¡łìĿ´
) }}}
ì´Ŀ ìĿĦ
ĠìĿ´ ë¥¸ëĭ¤
Ġì¹¨ ì°©
Ġì£¼ìŀ¥ íķľëĭ¤
Ġìĥģ ëĭ´
ĠíĨµíĭĢ ìĸ´
ê±° ëĭ¤
êµĲ ìĪĺ
ëĶĶ ìŀĲìĿ¸
Ġë°ĽìķĦ ìķ¼
ìŀĦ ìĿĺ
ĠìĿ´íĽĦë¡ľ ëıĦ
Ġ196 2
C K
F L
Ġì¹¨ ëª°
ĠìķĦì§ģ ê¹Įì§Ģ
Ġëĭ¨ ë°±
íĪ¬ ìķĦ
Ġìŀī ìĹ¬
êµ¬ ìŀ¥
Ġë¹ł ì§ĢëĬĶ
Ġê°ĸ ì¶°
Ġë³Ħ ëªħìĿĦ
Ġì¹¼ ë¡ľ
Ġìļ° ìĹĲ
ĠëĤ¨ ë§¤
ìį ¬
ĠëĮĢê²° ìĿĦ
Ġë¨¹ ìĹĪëĭ¤
ìĨĮ ìĨ¡
ëĮĢ ê³ł
Ã ¼
ĠìŀĲ êµŃ
ì£¼ ë©´ìĦľ
ĠíĮĢ ìĹĲìĦľ
ĠìĿ´ ëĮĢë¡ľ
20 22
Ġ196 6
ìŀĳ ìĤ¬
íŀĪ ê¸°
ĠìĤ¬ ëĭ¤
ĠíĨł ëĮĢë¡ľ
âĢ¦ .
Ġìŀ¡ ëª¹
ĠìĦ±íĸ¥ ìĿĦ
ëł¹ ìĿĢ
Ġìĭľë¦¬ì¦Ī ëĬĶ
ë©Ķ ìĿ´íĬ¸
ìŀĲ ë¡ľìĦľ
Ġìľłì§Ģ íķĺëĬĶ
ĠìĨĮ ì§ĳ
Ġë²ĦìłĦ ìĿĺ
Ġ >
ĠìĦłê±° êµ¬
ĠìĬ¤ ì¿¼
ìĥĪ ë¡ľìļ´
íĭ Ģë¡ľ
Ġê²ĢìĿĢ ìĥī
ĠëĪĦêµ¬ ëĤĺ
ìĤ´ ìĿ¸
Ġì°© ë¥Ļ
ĠíĬ¸ìľĦ ì¹ĺ
Ġê²½ ìĦ±
L S
íĺķ ìłľ
Ġì§Ħì§Ģ íķĺê²Į
ëĳĲ ë¥¼
è ĳ
Ġë°Ķ ëĿ¼ëĬĶ
ĠìķĦìĿ´ ëĵ¤ìĿ´
ĠìĪĺìĥģ íķľ
ĠëĤĺìĻĶ ìĿĦ
Ġë©Ķ ìĿ´ì§Ģ
ĠìĹĨ ê¸°ìĹĲ
ìĹĶ íĦ°íħĮìĿ¸
ĠìĿ´ë²¤ íĬ¸ë¡ľ
ì¹´ ëĵľë¥¼
Ġìľł íĭ¸
Ġìŀĺ íķĺëĬĶ
ĠìľłëĭĽ ìĿĺ
ëĭĪ ìĹĲ
ivers ity
Ġíĥĵ ìĿ¸ì§Ģ
ì ´
Ġh ave
ìĹ° íĺģ
Ġ7 7
ìŀĪëĭ¤ ëĬĶ
Ġëĭ¨ëıħ ìľ¼ë¡ľ
ĠìĿ´ëķĮ ëĬĶ
ĠìĹ° íĥĢ
Ġë°ľ ëłĪ
ë¡ľë´ĩ ëĮĢìłĦ
ĠíĪ¬ ìŁģ
Ġë³Ħ ê°ľìĿĺ
Ġê°Ģ ìĦ±
Ġê³µ ë¶Ģë¥¼
Ġëª¨ìĸĳ ìľ¼ë¡ľ
i en
ĠíĽĦ ìĿ¼
Ġë¯¸êµŃ ìĿĢ
Ġìłľ ì¹ĺê³ł
íĥĢ ì¼Ģ
C H
ĠíĿ¥ ë¯¸
Ġ7 6
ëłĪ ìĿ¸ì§Ģ
v en
Ġìĸ ¹
Ġë£ ¸
% ),
Ġíģ¬ëłĪ ëĶ§
ç ģ
ì»´ íĵ¨
ëį© ìĿ´
ĠìĽĲ ìĭľ
Ġìķł êµŃ
ëĶ° ëĿ¼
ĠíķĦ ë¦½
Ġìĥī ìĿ´
ĠëĳĲ ëĬĶ
ĠëĬ¥ëł¥ ëıĦ
ĠëĶĶ ì¦ĪëĭĪ
ë¬´ ë¡ľ
Ġë§Ī ìĺ¤
ëħĲ ìĿĦ
O O
Ġìĺ¬ëĿ¼ ìĻĢ
ĠìłĦ ëĭ´
Ġê°ľ ëªħ
ĠìĿ´ ê°Ģ
ĠíıŃ ë¡ľ
Ġë¬´ ëĮĢìĹĲ
ĠëķĮ ë¥¼
Ġ196 4
ĠìľĦíķ´ ìĦł
Ġëª¨ ìĿ¸
Ġìķ½ ìĿĦ
ĠëıĦìĭľ ë¡ľ
ì¾Į íķľ
ĠìĺĪ ìģĺ
Ġë¬¸ ìŀ¥
ĠíĨµ ì¹Ń
ë°Ķ ìĭľ
Ġìĵ¸ ëª¨
ĠìĹ°êµ¬ ìĨĮ
ĠìĺģíĻĶ ê°Ģ
çŁ ¥
Ġë§Ī ëķħ
Ġê²½ìłľ ìłģ
ĠD ay
Ġë¶Ģ íĮ¨
ê°Ģ ëģĶ
Ġíķ´ ìĹĲ
ìŀĲ ëĵ¤ê³¼
ê³µ ëıĻ
u al
Ġë¶ Ĳ
ĠëĿ¼ ë©°
ëª¨ ìĸ´
Ġëĭ¤ë£¨ ê³ł
Ġìĸ´ ë²¤
Ġìĭľ ëĮĢë¥¼
Ġìķħ íĻĶ
Ġìĺ ´
ë³´ íĹĺ
ĠíĬ¸ ë¦Ń
ĠíĥĪ ì·¨
Ġë°ķ ìĦ±
ĠSt ar
Ġëĵľ ë¦´
ĠìŀĪ ìĿĮìĹĲëıĦ
Ġì¹ĺ ê³łëĬĶ
ĠìĿ¼ ìļĶìĿ¼
Ġì£¼ íı¬
ĠíķŃëª© ìĿĦ
Ġëķħ ë³¼
Ġìĭ¬ê°ģ íķĺê²Į
è ·
Ġì ´
ĠìĨĲ ìĥģ
íŀĪ ë©°
Ġê³łëĵ± íķĻìĥĿ
Ġê·¸ëŁ¬ ëĭĪ
ìĺ¤ ëĭĪ
æ° Ĺ
ê³µê²© ëł¥
Ġë²Į ëłĪ
ì¹ĺ íĤ¨
ë¶Ħ ê°Ħ
ìª½ ìĿ´
Ġìļ´ìĺģ ìĿĦ
ĠíĥĦ ì°½
ëļ «
ĠìĤ¬ìļ© ëĲĺê³ł
D D
Ġë°©ìĭĿ ìĿĺ
ê°ģ ìĿĺ
ĠëĤľ ìĤ¬
íĥĢ ìĿ¸
Ġìĭľ ë§Ī
Ġê» į
ĠìĨĮ ì¤ĳ
ĠìĶ ¬
ë²Ķ ìĿ´
å¾ ·
ì¿ł ìĿĺ
le t
ìĿ´ë²¤ íĬ¸
ĠìķĬ ìŀĲ
ê°Ĳ ìĹ¼
ĠìĨĮë¹Ħ ìĹĲ
Ġíķĺ ëĭ¨
ĠìķĬ ìľ¼ëĭĪ
Ġëª¬ìĬ¤íĦ° ìĿĺ
ĠìķĪ ê³ł
ĠìłĢìŀĳ ê¶Į
ìłķ ë§Ĳ
Ġê¹Ģ ìľł
ìĹĺ ìĿ´
ĠìĥģëĮĢë¡ľ ëĬĶ
ĠëĤ® ê³ł
íĸĪìĿĦ ëķĮ
Ġìĸĳ ìĨĲ
Ġë¿Į ëł¤
Ġë¬¶ ìĸ´
ĠëģĶ ìĤ´
Ġê¸° ë¬ĺíķľ
ĠìĬ¹ ì°¨
Ġìľł ë¹Ħ
ĠìĿ´ìĥģ íķĺê²Į
Ġì¡°ê¸Ī ìĿ´ëĿ¼ëıĦ
ìĬ¤ íĭ´
íĤ¬ ìĿĦ
ĠìĿ´ ìĽĲ
ĠíŀĪ ë¹Ħ
ìĬ¤ íĭ±
Ġì§ĳ íķĦ
ĠíĤ¤ ë¥¼
ìĥģ ìĬ¹
ë¡ľ ìĿ´ëĵľ
sp an
Ġë¯¸ ì³Ĳ
Ġë°©ìĭĿ ìĿ´ëĭ¤
Ġìľ¡ ì²´
ĠI s
ëĿ¼ìļ´ëĵľ ìĹĲìĦľ
ë¦¬ìĬ¤ íĥĢ
ĠìĿĮë°ĺ ìĿ´ëĭ¤
Ġë¬´ëĤľ íķľ
ãĤĵ ãģł
íģ´ ëłĪ
Ġë¿Ĳ ëįĶëŁ¬
Ġë°± ìłľ
ĠìĨĮëł¨ ìĿĺ
Ġì¹ľ ìĿ¼
ĠëĤļ ìĭľ
Ġë©Ķì¹´ ëĭī
ĠëĮĢíļĮ ìĹĲ
Ġíķ´ ìĨĮ
ĠíķŃê³µ ëª¨
Ġì°¨ëŁī ìĿĢ
íıŃ ëł¥
Ġì§Ħ ìĭ¤
ì¢ħ ìľ¼ë¡ľ
ëħĢ ìĿĺ
íĽĪ ìĿĦ
Ġë²Įìĸ´ ì¡Įëĭ¤
ĠíĨł ëĭĪ
Ġ out
ĠíĻľìļ© íķł
Ġíĳľ ë©´
Ġë¬´ ìļ©
ĠíķĺìĹ¬ ê¸Ī
Ġëª© ìłģìĿ´
ĠìĬ¤íħ Ŀ
Ġ194 0
ĠìľłëĭĪ íģ¬
íĶ¼ ëĬĶ
Ġíľ© ìĵ¸
ì¦Ī ìĹĲìĦľ
Ð »
ëĭ´ ëĭ¹
ĠìŀĪìĸ´ìĦľ ëĬĶ
ĠìĿ´ëłĩ ëĭ¤
ê³ł ëĮĢ
ìĭľ ì¹´
Ġìĺ¤ ìĿ´
ĠëĤĺìĻĶ ê³ł
C l
Ġíķĺ ê¸ī
Ġëħ¸ ìĬ¤
Ġëªħ ìľ¼ë¡ľ
ëĶ© ìĿĦ
Ġ13 0
ĠëĶ°ëĿ¼ ìĦľëĬĶ
ĠìĦ±ê²© ìĿĢ
ĠìłĲ ìĹĲ
Ġìķħ ë§ĪìĿĺ
Ġì£¼ êµĲ
ìĦ± ìĿ¸
ĠìĥĿê°ģ íķĺì§Ģ
ã Ĥ¬
Ġê²½ ìĹ°
Ġíı¬ ìĬ¤íĦ°
ìĪĺ ìĪĺ
Ġìĭ¤ ìļ©
ìł ¼
ì½ ķ
ĠëĨĴ ì§Ģ
ĠìĿ¸ ìĩĦ
ĠëĨĴ ìĹ¬
ĠíĶĮëŀĺ ìĭľ
ëŀ ı
ĠíŀĪ ë©Ķ
Ġëĭ¬ëĿ¼ ì§Ħëĭ¤
Ġì¤ĳ ë¶Ģ
ĠëĤ¨ ëıĻ
Ġë°° ì°¨
ì»¤ ë¡ľ
ëŁī ëıĦ
ìĿĺ ìĽĲ
Ġìŀĥ ìĸ´ë²Ħë¦°
ë³¸ ìĿ¸
Ġë³´ìĹ¬ì£¼ ì§Ģ
Ġê³µ ê°Ĳ
ĠìĥĪ ê²¨
re s
ne w
ìĿ´ ìĦ¼
ĠëĮĢ ë§Ī
ì¡° íķľ
ìĹ¬ ë¦Ħ
ĠëĨĴ ìĿĦ
ĠíģĲ ë¸Į
A Y
ĠìĤ¬íķŃ ìĿĢ
Ġìĭľ ìłķ
ë¯¸ ìķĦ
Ġìŀ¬ëĬ¥ ìĿĦ
ĠëĲĺ ìĹĪëįĺ
ĠìĹ° ê°Ħ
ìĸ´ ì°Į
Ġì¸¡ë©´ ìĹĲìĦľ
ìĿĮ ë°ĺ
Ġíķĺë£¨ ìĹĲ
ĠìŀĬ íĺĢ
ë¡ľ ìľĪ
Ġì¢Į ì¸¡
Ġíİ ´
Ġëľ¨ ê±°ìļ´
ĠìĿ į
ĠìĿ´ ìľ¤
ìĤ¬ ìŀ¥
Ġê±°ì§ĵ ë§ĲìĿĦ
ìĭľ ê¸°
ë¶Ī ìĿĦ
Ġë§Ĳ íķ´ìĦľ
ìĦ¸ê³Ħ ìĿĺ
ĠëĮĢ ìĪĺ
ìĹħ ìĹĲ
Ġì¤ĳ ìĨĮ
Ġëª¨ ìĹĲ
ĠìĿ´ìłĦ ê¹Įì§Ģ
íĶĦë¡ľ ëĵĢ
è¨ Ģ
ì§ ĸ
ĠíķľêµŃ ìĭľë¦¬ì¦Ī
ĠìĿ¼íĸī ê³¼
ĠìŀĲ ì¹Ń
íĥĢ ìĽĮ
Ġìłľëª© ìľ¼ë¡ľ
ê ±
ìĬ¤ ìĻĢìĿĺ
ë²Ħ ë¥¼
Ġ19 30
Ġë³ĳ ê³¼
Ġëĭ¤ ì¼Ģ
Ġìĸ´ëłµ ê²Į
ê²ģ ê²Į
ĠìĪĺ ê¸ī
Ġë²ķ ìĿĦ
ĠìłĦ ìĿ¸
Ġìĭ¤ ìłĲ
ĠìĦł íĸī
Ġëħ¸ ìĿ¸
æ´ ŀ
ìłģ ëıĦ
Ġìŀĳ ê³ł
Ġìį¨ ëıĦ
Ġë³´ ìĬ¤ê°Ģ
Ġëī´ ì§Ī
Ġì°© íķľ
Ġë°Ľìķĺ ìľ¼ë©°
ĠìĿ¼ë°ĺ ìĿ¸
ç ķĮ
ĠëĲĺìĹĪ ìľ¼ëĤĺ
ĠìķĶ ìĭľ
ĠìŀĲìľł íķľêµŃ
ĠìķĦë¥´ ë°Ķ
ĠìĪĺìĪĺ ê»ĺëģ¼
a ir
Ġìĸ´ëĵľë²¤ ì²ĺ
ë¶Ħ ëªħ
Ġìķķ ê¶Į
Ġê¶Į ìľł
ìķ¤ìł¤ ëłĪìĬ¤
êº¼ ë²ĪìĹĲ
ĠìķĪ ê²¨
íĺ¼ ìĿĺ
é Ħ
ĠíĬ¹ íĻĶ
ĠëŃĲ ê°Ģ
ì½Ķ ë¡ľ
ĠëĪĦ ë¥´ê³ł
ë©Ķ ë¥´
Ġë± ĥ
ë³¼ ëĦ·
Ġì¢Į ìĿµ
Ġì§ģìłĦ ê¹Įì§Ģ
?? ?
Ġíı¬ ìŀ¥
ìĤ¬ ë§Ŀ
ì²Ń ëħĦ
ãĤ ĩ
Ġë¯¿ ì§Ģ
èĢ ħ
ĠìĿ´ ëĿ¼íģ¬
íķĺê³ł ëıĦ
Ġì£¼ ë¬¸ìĿĦ
Ġíĺķ íİ¸
Ġ196 5
ĠìĭĿ ëĭ¹
ĠíĽĦ ë°©
ĠíĻ© íĥľ
( +
Ġë´Ĳ ìĦľ
Ġíķ´ ë¨¸
Ġì£¼ ìłľë¡ľ
ĠíĶĦ ë¡ł
ĠìĹĶëĶ© ìĿĦ
H P
ìłķ ì§Ģ
Ġë°°ê²½ ìĿ´
ĠíķŃê³µ ê¸°
Ġìłķë¦¬ íķľ
ĠìľłëŁ½ ìĿĺ
Ġ one
ê´Ģ ê³Ħê°Ģ
ol le
ĠíļĮ ì°¨
Ġë¬´ë£Į ë¡ľ
Ġë£¨ ëĤĺ
íĶĮ ëŁ¬ìĬ¤
åº ľ
Ġë³´ ëĵľ
Ġíĺ¼ íķ©
A ìĿĺ
é ĺ
ìł ¯
ëĦ¤ ìĿ´ë²Ħ
Ġìĭľ ë²Ķ
Ġëĭ¤ ëĭĲ
Ġb l
ĠëĭĮ íħĲëıĦ
Ġìĸ´ê·¸ ë¡ľ
íķ´ ë°©
ê¸Ī ì§Ģ
> ,
D P
ĠìĹ°ìĺĪ ìĿ¸
Ġì§Ģ íĺľ
Ġë¶Ī ë§ĮìĿ´
ĠAK B
ìłģ ìĹĲ
ħ ìĬ¤
ìĪĺ ìļ©
ì§Ģ ëįĺ
ĠëĨĴ ìĿ´ëĬĶ
ĠìĿ´ íĺĦ
ĠìĪ¨ ìĿĦ
ĠìķĬ ëĬĶëį°
Ġìŀ¬ ìĤ°
ĠíĿĲ ë¥´ëĬĶ
Ġê¹ĶëģĶ íķĺê²Į
Ġëĵ±ìŀ¥ íķ´
Ġë³´ìĹ¬ ì¤Ħ
Ġì´Ī ê³¼
ĠìĨį ëıĦëĬĶ
ë° ĳ
æĺ Ł
ĠëĭĪ ê°Ģ
ĠìłĢ ì£¼ë¥¼
ĠìłĦíĨµ ìłģìĿ¸
íķĺê¸° ê¹Įì§Ģ
ë£¨ ìħĺ
ìĹ° ìĬ¹
ë¸Į ëłĪ
Ġë³ĳ íĸī
äº Ķ
Ġìķ¨ ë¦¬ìĬ¤
ë¯¸ ìĹĲê²Į
Ġì¢ĭ ëĭ¤ëĬĶ
ìĬ¹ ë¦¬
Ġê³ł ì¦Ŀ
ìĭ¤ ìłĲìĿĦ
Ġë°© ìľĦ
Ġíĥľ íģ´
Ġë§Ŀ ëªħ
ĠìĦľìļ¸ ìĭľ
ĠìĦłìłķ ëĲĺìĹĪëĭ¤
ĠD PS
å Ģ
Ġëĭ¨ ìĸ´ê°Ģ
Ġìĺ¬ëĿ¼ ê°Ħ
ëī´ ìļķ
Ġì¦Ī ìĿĮ
Ġë§¡ ëĬĶ
Ġê³¼ ìłķìĿ´
ĠíĮ¨íĦ´ ìĿĢ
Ġì¡°íķ© ìĿ´
Ġì§ĵ ëĬĶ
íĸĪ ìĸ´
Ġëĭ´ ë°°
Ġìŀ¬ ëĭ¨
íķĺ íĬ¸
Ġê³¤ ì¶©
Ġìĭ± ìĸ´
ĠëıĮìĹ° ë³ĢìĿ´
ìª½ ìĹĲìĦľ
ãģĹ ãģŁ
Ġë§º ê³ł
ìļ° ìĹĲê²Į
ĠìķĪíĥĢ ê¹Ŀ
ĠíĮ °
Ġíķľ êº¼ë²ĪìĹĲ
Ġë¶Ģíĥģ ìĿĦ
íĥĿ ìĿ´
b an
ìłķ ë¦¬
èĩ ª
y s
ĠíķĻìĥĿ ëĵ¤ìĿĺ
ĠíĶĮëłĪìĿ´ íķł
Ġìļ° ë£¨
ãĥ ı
ìĤ¬ìĭ¤ ìĥģ
Ġê³µ ìĿ´
Ġëª» íĸĪì§Ģë§Į
íģ´ ë¦°
ê°ľ ìĻĢ
ĠíĶĮ ëĿ¼ìĬ¤
Ġìĭ¤ìłľë¡ľ ëıĦ
Ġì³ Ĳëĭ¤
Ġìĭł ëĤĺê²Į
ĠíĥĢìĿ´ë°į ìĿĦ
ĠìĥĿ ì²´
ìħ ¸
ìłľ ì£¼
ĠíĻľëıĻ íĸĪëĭ¤
ĠìĦŃ ì·¨
" .
Ġê±°ê¸° ëĭ¤ê°Ģ
ĠëıĻ ìķĦë¦¬
Ġëĵľë¬¼ ê²Į
ĠìĪľ ê°ĦìĹĲ
ê´ĳ ê³ł
ìłķ ìĭĿ
ëħĦ ê²½
Ġê²ª ìĿĢ
ĠëĤ´ ë©°
íĸĪ ìĸ´ìļĶ
ĠìľĦíĹĺ ìĿ´
Ġë¶ĢìĤ° ê´ĳìĹŃìĭľ
Ġë©Ķ ìĿ´ëĵľ
ĠìĿ´ ìĿµ
æ ¯
ì±ħ ìĿ´
ĠìĿĮ ë£Į
ìĬĪíĥĢ ìĿ¸
Ġê°ľìµľ ëĲľ
Ġë¹ĦíĮĲ íķĺëĬĶ
m p
I L
Ġìļ° íļĮ
ĠìĿ¼ë³¸ ìĹĲìĦľëĬĶ
Ġì« Ħ
ĠìĻ¼ ìĨĲ
ĠìĿ´ ë¹¨
Ġìķ¼ë§Ī íĨł
ĠìĿ´ ëŁ´
ĠíĳľíĺĦ ìĿ´
m a
ĠìĤ¼ ê³ł
ì§Ħ ì§ľ
ĠìĨĮ ìĬ¤
Ġì°¨ì§Ģ íķľ
ìķ¡ ìĿĦ
ìķĪ ìľ¼ë¡ľ
ĠìĦł ë°ķ
ë°Ķìķ¼ ìĭľ
ĠìķĪ ëħķ
ĠìĽĥ ìĿĮ
Ġì µ¸
ĠìĿ¼ ëŀĮ
Ġëĭ´ëĭ¹ íķĺê³ł
Ġì§Ħíĸī íĸĪëĭ¤
Ġìĸ¼ íĭ°
Ġìĺ¤ ë¥´ëĬĶ
ĠìĹ´ ë§¤
ì´Ī ë¶ĢíĦ°
Ġíĥľ ìĽĮ
Ġíı¬ ì°©
Ġìłģ íŀĮ
ìłĦ ëĿ¼
ĠíĬ¹ íĻĶëĲľ
ĠD C
ì¢ĭ ê²Į
ìĿ´ëĤĺ ë§Ī
ĠëĦ¤ íĭ°ì¦Į
ĠìĹ´ ëł¸ëĭ¤
ëĤĺê°Ģ ìĻĢ
Ġë§Īëĵľë¦¬ ëĵľ
ë£¨ ìĿ´
ĠìĿ¼ ê³±
Ġë¯¸ ëĿ¼
Ġë³´ìĬ¤ íĦ´
d er
ìĹ° íĮ¨
Ġìĸ¸ê¸ī íĸĪëĭ¤
Ġì£¼ ìłĢ
íĺ¸ ì¿ł
ĠíķĻ ìĪł
ìĹħ ì²´
Ġìĵ°ëŁ¬ ì§Ħ
Ġê°Ĳ ëıĻ
ĠíĤ¤ ìļ°
ĠìĪľìĦľ ëĮĢë¡ľ
Ġìĭ¤ ëł¥ìĿĢ
o le
ĠìĪĺë¹Ħ ìĪĺ
Ġ z
Ġì¶Ķ ìĦ¸
ĠíķĻìĥĿ ìĿ´
Ġì§§ ê²Į
ĠíĬ¹ì§ķ ìĿĢ
Ġíı´ ë¦¬
Ġ194 4
ìĭľ ëĵľ
íĥĢ ê³ł
Ġë»Ķ íķľ
ĠìĽĲ ìĪĺ
ëŀĦ íķľ
Ġì¡° ì¹ĺë¥¼
ëĵ¤ íķľíħĮ
Ġê³µ ìĿ¸
Ġë³´ìĹ¬ì£¼ ë©´ìĦľ
Ġê´Ģ ë¦¬ë¥¼
Ġì¤ĳ ëł¥
íĿ¬ ë¥¼
ä¹ ¡
ë¬´ íķľ
ĠìķĶ íĺ¸
Ġë³´ëĿ¼ ìĥī
íķĺìĺĢ ëįĺ
åĲ Ī
ĠëĤ¨ ì§Ģ
ĠëĬ¥ ê°Ģ
Ġê¸°ê°Ħ ìĿ´
Ġíĸīìłķ êµ¬ìĹŃ
ìĪł ìĿ´
Ġìķł ìĻĦ
Ġíĥ Ń
Ġë¹Ħíĸī ê¸°
}}}} }}
ĠìĹ ½
íĥĢ ë¥´
íķĺ ìĻĢ
Ġë§ŀ ìķĺëĭ¤
ĠìłĦ ëĭ¹
ĠëĬĺ ìĸ´ëĤ¬ëĭ¤
ĠìłķëıĦ ë§Į
Ġw as
ĠìĪĺìĥģ íĸĪëĭ¤
íĬ¸ ëłĪ
Ġê°ķ ê°Ħ
ëħ¸ ë¥´
Ġíĳľ ìłķ
Ġë§Ŀ ìĦ¤
Ġê°Ķ ëĭ¤ê°Ģ
Ġë°ĺëĮĢ íķĺëĬĶ
ĠëłĪ ìĿ¼
Ġìŀħ ìĽĲ
ĠO p
ê°Ģ ìĿ´
Ġë¶Ģ ëģĦëŁ¬
ĠíĨµ íķĺì§Ģ
ĠìĿĺ ìĽĲìĿ´
at a
L B
íĮĲ ë§¤
Ġìĭ¤ ëł¤
ĠëĤłì¹´ ë¡ľìļ´
Ġë¶Ģ ëĵľëŁ¬
Ġê°Ģ ì±ł
Ġíı¬ ëıĦ
E P
ìĸ´ ìĹĲìĦľ
ì¤Ģ ìĿĢ
ĠìĨĲ ìŀĲ
Ġë¶Ļ ëĬĶ
ìĻĶ ëĭ¤ê³ł
ĠíĹ¬ ë©§
Ġë§Īì¼Ģ íĮħ
ĠS H
ĠíĨł ìļĶìĿ¼
ãĥ ĭ
ĠìĻĢ ì¹´
fr ac
ìĺ¤ ë¥¸
Ġì£¼ ìĸ´ì§Ħ
Ġê°Ī ìĥī
íķľ ì§Ģ
ì¸µ ìľ¼ë¡ľ
ê³µ ìĹĲ
Ġìļ´íĸī íķĺëĬĶ
Ġê°ľëħĲ ìĿĦ
oug h
Ġë§Ī ìĤ°
Ġë£¨ ì¹´
ĠV ol
ĠíŀĪë¡ľ ìĭľë§Ī
ìľł ìłĢ
Ġëĭ¹ ìĭłìĿĢ
Ġê²ĥ ìĹĲìĦľ
1 01
ĠìĺģìĽħ ìĿ´
ìĬ¤íİĺ ìĿ¸
ì§Ģ ëĭĪìĸ´
Ġë¯¸ëŀĺ ìĿĺ
Ġë³Ģ íķľëĭ¤
ĠëĤł ë¦°ëĭ¤
ĠëĮĢëĭ¤ ìĪĺìĿĺ
Ġìĭľ ì¢ħ
ĠìĿ´íĽĦ ë¶ĢíĦ°
éĸ Ģ
ìĿ¸ ì¹Ń
ĠìĺĪ ìĪĺ
Ġê³µ ìļ©
ĠìĹ° ëĿ½ìĿĦ
ä¹ Ŀ
Ġê²ĮìĿ´ì§Ģ ê°Ģ
ĠìĦ¸ ìļ°ê³ł
ìłĦ ë¶ĢíĦ°
Ġì¶ľ íĺĪ
Ġê³ł ë¥´
Ġìĥģ ì£¼
Ġì£¼ìĿ¸ê³µ ìľ¼ë¡ľ
ĠìĨĮ ìĪĺìĿĺ
Ġê²Ģ ìĹ´
ĠíĿ¡ ìĤ¬
Ġì°Ķ ëŁ¬
Ġìŀł ìĭ¤
ĠMA X
ĠìĿ½ ê³ł
ĠD NA
Ġë³µ ìĤ¬
Ġë°Ģ ê³ł
Ġìĭľì¦Į ìĹĲëĬĶ
ì§Ģ ìĪĺ
ĠìĤ° ëĭ¤
Ġê³µê°Ħ ìĿ´
Ġìĵ° ê¸°ëıĦ
Ġì¹´ íħĮ
Ġê³µ ìłķ
ĠëĴ¤ ìĿĺ
ĠëĮĢë¶Ģë¶Ħ ìĿ´ëĭ¤
ĠíĶ¼ ëĤľ
Ġëª¸ ìľ¼ë¡ľ
ĠíĺĦ ìĥģìĿĦ
ĠìĺģíĻĶ ë°°ìļ°
Ġë¹Ħ ê³µìĭĿ
Ġíı¬ íĥĪ
Ġìŀ¡ ìķĺëĭ¤
Ġê°Ģìł¸ ê°Ģ
Ġìĸ´ë¨¸ëĭĪ ë¥¼
Ġë¹Ħ ë¡ľ
Ġëĵ£ ì§Ģ
ĠìĿĢ íıĲ
Ġì§ĵ ê³ł
íĬ¹ë³Ħ ìŀĲì¹ĺ
Ġê·¼ì²ĺ ìĹĲìĦľ
Ġê°ĢëĬ¥íķĺëĭ¤ ëĬĶ
Ġê¹Ģ íı¬
Ġìĭł ì¤ĳ
Ġê¹Ģ ìĬ¹
Ġê¹Į ëĬĶ
Ġ194 9
ï¼ Į
197 3
ĠìłĢëł´ íķľ
é Į
ĠìĿ´ ë³Ħ
Ġê³µê²© ìĪĺ
ê²° íĺ¼
Ġ14 0
ĠëłĪìĿ´ ìĭ±
ĠV er
Ġê²½ê¸° ëł¥ìĿĦ
Ġíķĺ ìĭľ
ĠíĬ¸ëŁ¼ íĶĦ
Ġê°Ĳìĺ¥ ìĹĲ
ë§Į ëıĦ
! ?
Ġìŀ¬ ìĤ¬ìļ©
ĠìĤ¬ íĪ¬
Ġìłľëª© ìĿĢ
Ġëª¨ ì¢ħìĿĺ
ĠìĭĿ íĴĪ
ĠB S
ĠìĦłíĥĿ ìĿĦ
Ġë³´ ìĬ¤ë¥¼
Ġê¾ Ģ
ĠìĭľíĹĺ ìĿĦ
íĴį ìĿ´
ĠíĶĮ ëŀľ
ĠìĽĲ ë¡ľ
ìĸ¸ ìłľ
ëª¨ ìĻĢ
âĨ Ĳ
Ġìŀ¦ ìĿĢ
ĠëıĻë§¹ ìĿĦ
ì¦Ī ì¹´
ĠN E
ì Ń
íķĻ ê¸°
Ġì¢ħ ë¡ľ
éĸ ĵ
ĠìķĦ ìľł
Ġëª° ê³ł
ìĥĿ ìľ¼ë¡ľ
Ġë§ĲìĿ´ ìķ¼
ë²ł ë¦¬ìķĦ
Ġê¸° ìĨĮ
Ġìļ© ìķĶ
ĠìĹ° íĺģ
Ġëª¨ë¥´ ì§Ģë§Į
ì§Ģ ë¯Ģë¡ľ
Ġëĭ Ĳ
ĠíĺĦìŀ¬ ëıĦ
ĠëĤĺëĵ¤ ëª©
ĠìłĢ ëłĩê²Į
ëĮĢ ëıĦ
Ġë³Ģ íĥľ
ë§¨ ìĿĢ
Ġì¶©ê²© ìłģìĿ¸
Ġë°Ģìĸ´ ë¶Ļ
ìĤ¬ ëĭ¤
ìĺ¤ ê²Į
ëĤĺ ì§Ģ
Ġëª¨íĭ°ë¸Į ëĬĶ
Ġëĭ´ ê³ł
ëł¨ ìĿĦ
ĠìĿ¸ìłķ íķĺê³ł
Ġêµ¬ì¶ķ íķ¨
å³ ¶
ĠìĨĮ ëĵĿ
ĠìĤ¬ìļ© ìĿĦ
ë¶Ī ëªħ
Ġê¸ī ìĨį
ĠìĬ¤íĶ¼ ë¦¿
ìĹĪ ìĸ´
ĠìĦł ì§Ħ
Ġê°Ĳ ê°ģ
ĠL a
Ġì¤ĳ ëıĻ
Ġíķĺ ë§Ī
ëĤ´ ë©´
ãĤĵ ãģª
Ġê³µê²© ìłģìĿ¸
Ġë¶Ģ ëĮĢë¥¼
ìĻķ ê³¼
ë§ģ ìĿĢ
Ġìı ľ
ĠëĵľëŁ¬ ëĤľ
Ġê·¸ëłĩ ê¸°ìĹĲ
os s
Ġë§¤ ì¶ľ
Ġë°° ìļ¸
Ġë¬´ìĸ¸ ê°Ģë¥¼
ĠìĿĺ íķĻ
Ġìķ¨ ëŁ°
ì£¼ ê°Ħ
íķĺìŀĲ ëĬĶ
Ġë¬¸ìłľ ëĭ¤
ë²Ħ ê°Ģ
Ġë°ľ ìĿĮìĿ´
ì¹ĺê³ł ëĬĶ
Ġ un
ì£¼ìĿĺ ìłģ
ĠìĦ±ê³µ ìĿĦ
Ġë¶Ī ìĸ´
ĠìĿ´ëıĻ íķł
ĠìķĮëł¤ ì¤Ģëĭ¤
ĠìŀĲ ë¥¼
Ġì§Ģ êµ¬ë¥¼
O G
ĠìĬ¬ íį¼
Ġë¬´ ìĬ¬
ä½ ¿
( =
ìĤ¬ ëĵ¤ìĿ´
Ġëĵ¤ìĸ´ê°Ģ ê²Į
ĠA S
ĳ ¹
ĠëĪĪ ìķŀ
Ġë¶Ī ìĿĺ
Ġì§Ħíĸī íķľëĭ¤
N T
ãģĦ ãģ¦
ê¹Į ìļĶ
Ġê²°êµŃ ìĿĢ
íıī ê·ł
ĠíĥĲ ìĥī
ìĪĺ ëĿ¼
ĠìĤ¬ë§Ŀ íķĺìĺĢëĭ¤
æ İ
ìģ ¨
Ġë¦¬ì²ĺ ëĵľ
Ġì½ĶìĬ¤ íĶĦëłĪ
ì¹ĺ ë£Į
ë£¨ ìĹĲ
ì¡° ìŀĳ
Ġ194 6
Ġê·¼ê±° ë¡ľ
Ġê²½ì°° ìĹĲ
Ġë¦¬ ìĺ¤
Ġ194 8
ĠíĻķ ë¦½
ĠìķĬìķĺëĭ¤ ë©´
ĠìĹĲ ìĿ´ì§Ģ
ĠìĹ¬ê¸° ìłĢê¸°
Ġë©¤ë²Ħ ëĵ¤ìĿĢ
Ġë°° êµ¬
éĥ ½
ìŀĲ ì²´
Ġì¤ĳíĻĶ ìĿ¸ë¯¼ê³µíĻĶêµŃ
ĠìĤ´ ê²Į
Ġë¶Ģ ìŀ¥
ê³¨ ë¡ľ
ìľ¼ ëł¤ë©´
è Ĳ
ê²° ìłķ
ro p
ĠìĪĺ ì²ľ
ĠëĦĺ ì³Ĳ
Ġìŀħ êµ¬
Ġìĵ° ìĿ´ê³ł
Ġìłģ ëĵ¤ìĿ´
197 8
ê²½ ê³¼
Ġìĥģ ìĿĦ
ĠíĦ° ì§Ħ
ĠíĻĶ ìŀ¬
ĠìĤ¬ëĿ¼ ì§ĢëĬĶ
ĠE D
Ġìłķìĭł ìłģ
ìĦľ ìĸĳ
ì§Ħ ìĺģ
ĠíŀĲ ëŁ¬
Ġê°Ħëĭ¨ íķĺê²Į
ĠìĿ´ëģĮ ìĹĪëĭ¤
Ġì§Ħ ê²©
Ġì¤ĳêµŃ ìĸ´
ì¤ĳ íĻĶ
Ġì¡° ìĥģ
ĠìķĬ ëĤĺ
ĠëıĦ ìļĶ
ì½Ķ ìĹĲê²Į
Ġì»¨ ëĶĶìħĺ
æī Ģ
ĠìĬ Į
Ġìłķ íķ´
Ġë¯¸ìĤ¬ ìĿ¼ìĿĦ
Ġëĭ¨íĸī ë³¸
ä½ ľ
ìĿ¸íĦ° ëĦ·
Ġë¶Ģëĭ´ ìĿ´
Ġëį° ìĿ´íĬ¸
Ġìıĺ ìķĦ
ëħĦ ëıĻìķĪ
Ġìĸ´ ìĦ¤
ĠìĦľ íģ´
ĠìĦ¼ íĬ¸
Ġíıī ìĥģ
ĠìĿ´ëıĻ íķĺëĬĶ
ìĤ¼êµŃ ì§Ģ
Ġ( )
ĠìĿ´ìĸ´ ì¡Įëĭ¤
ìĽĲ ìĿ¸
ë°ķ ë¬¼ê´Ģ
ĠìľłìĤ¬ íķĺëĭ¤
Ġì¹´ ì¹´ìĺ¤
ĠìĨį ìĦ±ìĿ´
ìĵ° ëĬĶ
Ġì§ĳ ê³Ħ
ë°ĶìĿ´ ëŁ¬ìĬ¤
Ġìĭ¸ ìļ´ëĭ¤
Ã ¡
íķ´ ë³¼
Ġìĺ¤ ê²Į
Ġê°ķ íķĺê³ł
ĠëĦ¤ìŀĦ ëĵľ
Ġ ä¸Ń
ĠS er
ĠìĨĮ íĨµ
ìĪĺ ìłķ
Ġë§ĪìĿĮ ìĿĺ
Ġëį± ìĿĦ
ĠìłĦ ê³¼
Ġìŀ¥ì°© íķľ
ìŀĲ ìĺĢëįĺ
Ġìĸ´ëł¤ ìĽĢ
Ġë¬´ ìŀĲ
Ġìĭ¤ ë¦°
Ġì§Ģ ìľĦë¥¼
Ġìľł ì¹´
íķł ì§Ģ
ê·¸ ë§Ī
êµ° ì£¼
ĠìłĢ ê¸Ģ
ĠìķĦê°Ģ ìĶ¨
ëĦĲ ëĵľ
ĠìľłìłĢ ëĵ¤
ìŀĲ ëĭ¤
íĺģ ìĿ´
ĠìĤ´ìĿ¸ ìĤ¬ê±´
ĠëĶ° ë¥´
Ġ196 1
Ġê·¸ëł¤ ìł¸
Ġêµ¬ ëıĻ
ëĳĲ ìĿĺ
19 60
ëª© ìĹĲ
ëķĮ ë§Īëĭ¤
ĠìĪĺì¤Ģ ìĿĢ
é º
ìĿ´ëĭ¤ ê°Ģ
Ġì¢Ģ ëįĶ
Ġë§ī íĺĢ
ĠìĹĶ ëĵľ
Ġê°± ìĭł
t r
Ġê°ľ ìŀ¥
Ġëĭ¹ ëĮĢ
æ ©
Ġì¤ĳ ëĮĢ
Ġì¤ĳ ê²¬
Ġí į½
ëıĦ ìĸ´
Ġíı¬ ë¡ľ
Ġê±´ ë¦½
ëĳ Ķëĭ¤
ìļ° ìĬ¤ëĬĶ
ê´ĳìĹŃ ìĭľìĿĺ
íķĺ ëįĶëĭĪ
ëŀĺ ìĿĺ
íĦ° ìĬ¤
ë¡¯ ëį°
Ġë¶Īê³¼ íķĺëĭ¤
Ġì»¤ë§¨ ëĵľ
Ġíĺ Ģ
Ġê´ĳ ìĤ°
ĠìŀĳíĴĪ ìĹĲìĦľ
Ġd on
Ġê°Ģì¡± ìĿĦ
Ġë³´ ëĤ¸ëĭ¤
ëª© ìłģ
ê³µ ìĿĢ
Ġê±° ë¦¬ìĹĲ
ĠëıĦë§Ŀ ê°Ģ
ĠìķĦ íĶĪ
Ġìĺ¤ íį¼
Ġt r
Ġë²ķ ìłģ
Ġëª¨ìĬ¤íģ¬ ë°Ķ
Ġë°Ľìķĺ ëįĺ
ĠC S
Ġëĭ¤ë¥´ ì§Ģë§Į
ìĭľê°Ħ ìĿĢ
Ġì¹´ ë¦¬ìĬ¤
ĠíĮĶ ëłĪ
Ġë¬´ìĸ¸ ê°Ģ
Ġë¯¸ ìĨĮ
é ¢¨
ëĳĲ ìĹĲ
ĠíĻĶ íıĲ
Ġê´´ ìĪĺ
ìĬ¤ ìľĦ
Ġê·¸ëł¤ ì§Ħ
ãĥ ĸ
ìĵ° ê³ł
âĢ ķ
ê²¬ ìĿ´
Ġêµ ¶
Ġê°ĸ ëĭ¤
ëĦ ī
Ġëĭ¤ ëĭ¤
ĠìĦ± ì§ģ
Ġë§¤ ëĵľ
ê°ķ ìĿ´
ĠëĵĿ ìłĲìĿĦ
ì¸µ ìĹĲìĦľ
íķĺ ê²łëĭ¤
ë§Į ëªħ
Ġìļ° ìĬ¤
Ġì·¨ ìĹħ
íķł ë§Įíķľ
Ġìĺ¤ ë©Ķê°Ģ
ĠìľĦ ìĥģ
ĠëıĮìķĦ ìĺ¬
ĠìĿ¼ ìłķíķľ
Ġë§Ī ìĬ¤
ar l
Ġê·¸ ê±°
Ġì¢ħ ìĺģ
Ġë¬´ìĹĩ ìĿĦ
ì§Ī ìĹĲ
ĠíķĻêµĲ ìĿĺ
Ġê¸° ê»ı
Ġì¶ľ ìĤ°
Ġê¸¸ ìĹĲ
éŁ ĵ
ĠìķĦ ëłĪëĤĺ
ĠìĿ¸ ë²¤
ìĹĪ ê¸°ìĹĲ
ì¹´ ê²Į
ì°¨ ìĿ´ì¦Ī
Ġê°Ģ ëıĦ
Ġëª¨ ìĿĺ
ê¿ ī
Ġì£¼ ìŀħ
Ġìĵ° ìĿ´ì§Ģ
Ġìļ© ìĤ°
Ġëª¨ìĸĳ ìĿ´
ë¬¸ ìĹĲìĦľ
Ġê°ľ ê°Ģ
ĠëĮĢíķ´ ìĦł
Ġì£¼ ìĿ¸ìĿ´
ĠëĤ´ëł¤ ê°Ģ
ìŀīê¸Ģ ëŀľëĵľìĿĺ
Ġìŀ¬ ìŀ¥ìłĦ
å¤ ¢
Ġë©´ íĹĪ
Ġìķħ ëªħ
ĠìĬ¤ ë§¤
Ġê´Ģê³Ħ ìĹĨìĿ´
ì§Ģ íķĺ
ĠìĹĲ ëıĦ
ĠìĿĺëıĦ ìłģìľ¼ë¡ľ
ìĺ¤ ë©´ìĦľ
ĠíĨµ íĻĶ
an na
Ġëĭ¤ ë¦¬ê°Ģ
Ġë§İ ëĭ¤ëĬĶ
Ġì£¼ìĿ¸ê³µ ìĹĲê²Į
ĠìĿ´ë¦Ħ ìĹĲ
bl ue
ĠíĶ¼ ê·ľ
ĠíĨµ ìĨĶ
ë°Ķ ìĬ¤
å ¾Į
Ġëįķ ë¶Ħ
Ġë³´íĺ¸ ë§ī
ìĿ¼ ì°¨
Ġë¶Ħ íĻį
ĠìĦłìĪĺ ëĵ¤ìĿĢ
ì±Ħ ë¥¼
Ġíĺĳ ìĥģ
ì¡° ì§Ģ
íķ© ìĿĦ
Ġíį¼ ìĬ¤íĬ¸
ĠìĿ´ íĸī
ĠìĪĺ ìĪłìĿĦ
Ġê²Ģ ì¦Ŀ
ìķĦ ìĿ¼ëŀľëĵľ
Ġìł ¸
Ġë¬´íļ¨ íĻĶ
Ġë¡ľ ëłĮ
íķ´ ë²Ħëł¸ëĭ¤
ĠìĶ¨ ìķĹ
f orm
ì¶ľ íĮĲ
ìļ° ë¡ľ
ĠO VA
åĪ Ĩ
ĠìºĲ ì¹ĺ
Ġìĺ¤ ì¼Ģ
ê·¸ ë¦¬ìĬ¤
ĠìĥģíĻ© ìĹĲìĦľëıĦ
Ġìķł ìī¬
I t
íĹ¤ ëĵľ
Ġê³µìĤ° ì£¼ìĿĺ
Ġì£¼ìĿ¸ê³µ ê³¼
ĠìĦľíı¬ íĬ¸
ì£¼ íĥĿ
ãħĭ ãħĭ
o ver
ĠíĶ¼ ìĹĲ
ìļ¸ ìĤ°
ì¢ħ êµĲ
ĠíĸĪëĭ¤ ê°Ģ
ëĭĺ ìĿĢ
ĠëĤĻ ìĦł
çļ Ħ
ë¬¼ ë¦¬
Ġìį¬ ëįĶ
Ġëĭ¹ ì´Ī
ìĭľ ê¹Įì§Ģ
Ġë¬¸ìłľ ëıĦ
Ġë¸Ķ ë¦¬ìŀĲ
Ġê·¸ëłĪìĿ´ íĬ¸
Ġëķ ¡
íķ´ ìł¸ìĦľ
Ġì¶ķêµ¬ ìĦłìĪĺ
Ġì¶Ķ ë¦¬
ìĪł ìĿĺ
Ġìŀ¥ ìĭł
Ġê²ĥìĿ´ ì§Ģ
ĠíĮĮ ì¸ł
Ġê°Ĳ ì¶Ķ
Ġíĳľ ì§Ģ
Ġíŀĺ ìĿĺ
ê¿ Ģ
ì¶Ķ ì²ľ
Ġì´Īê¸° íĻĶ
Ġë³ĳ ìĽĲìĹĲ
ìĨĮ ìļ¸
Ġëħ¸ ì¡°
ĠëĬ¥ëł¥ ê³¼
ĠìķĦë§Ī ì¶Ķìĸ´
ĠëĶĶìŀĲìĿ´ ëĦĪ
ĠìķĬ ìĬµëĭĪëĭ¤
Ġì§Ħì¶ľ ìĹĲ
æ Ĥ
ĠìĿ´ ìĸ´ê°Ģ
Ġíĥľ êµŃ
ìĭŃ ìŀĲ
Ġì¶ľìĭł ìĿ¸
ìłĦ ë°ĺ
!! "
Ġìľł ëıĻ
Ġê³ł ìĦ±ëĬ¥
íĮĮ ìĿ¸
ìĺĪ ìļĶ
ì¡´ íķĺëĬĶ
Ġ6 3
ë¨¸ ë¦¬ë¥¼
Ġíķĺ ì¿ł
íĭ ĢìĿ´
Ġëį° ë¹Į
ĠìĬ¤íħĮ ìĿ´
ë¶ īìĿĢ
B T
Ġt ime
Ġê¸°ìŀ¬ ëĲľ
Ġìĭł ëį°
ë¬´ ìĮį
ĠëıĻ ë¶ģ
ĠìĬ¤ ëħ¸ìļ°
U n
ĠO S
Ġë¬´ë°© íķĺëĭ¤
ĠìĻĢì¤ĳ ìĹĲëıĦ
ĠìķĦ ë¹Ħ
P D
Ġëªħ ìĿĢ
ĠN BA
Ġë©Ī ì¶°
ìĬ¤ ëĤĺ
æľ ī
Ġê¿Ī ê¾¸
ĠìĿ´ìķ¼ ê¸°ëıĦ
ĠíĢ ĺ
ĠìĦłíĺ¸ íķĺëĬĶ
f l
Ġì¤ĳêµŃ ìĹĲìĦľ
ìĹ´ ìĹĲ
ĠìĽ¨ ìĿ´
Ġëª©ìĨĮ ë¦¬ë¡ľ
ëħĦ ìľ¼ë¡ľ
ëħ¸ ìĿ´
Ġìļ´ ëªħ
Ġì¢ħë¥ĺ ê°Ģ
ĠìłĦ ëł¥ìĿ´
ëĭ¬ ìĿĺ
Ġì°į ìĿĦ
ê°ĢëĬ¥ íķľ
Ġìĺ¤ ì£½
Ġ19 19
ĠìłĪ ë²½
Ġëª¨ëĳĲ ìĹĲê²Į
ë°ľ ìłĦ
ëŀĢ íĬ¸
ëĮĢ ê²°
ê·Ģ ë¥¼
ĠëłĪìĿ¸ ìłĢ
Ġíĸ¥ íķĺëĬĶ
ë¬´ ëĦ¤
ĠìĽ¬ ë§Į
Ġìłľ ìķ½
Ġìĭ¤íĹĺ ìĿĦ
Ġëª¨ ìķĦìĦľ
ĠG u
Ġê·¸ëłĩ ê¸°
y pe
Ġë©Ģ ìĸ´
ëŃ ī
ëħĢ ë¥¼
Ġ16 0
ìķĬ ê³ł
U M
Ġê²ĥ ëĵ¤ìĿĦ
ĠìķĶ ì»·
Ġìĺ¤ ë¥ĺê°Ģ
ĠìķĦë²Ħì§Ģ ìĿ¸
íķĺ ìĭł
ĠìĬ¤ì½Ķ íĭĢëŀľëĵľ
ĠìķĮìķĦ ì°¨
Ġì³Ĳ ìĦľ
ĠìłĦë°ĺ ìłģìĿ¸
ìłľ ìĹĲìĦľ
Ġê·¼ì²ĺ ìĿĺ
Ġíı¬ì§Ģìħĺ ìĿĦ
ion s
Ġê³ł ìķĦ
Ġë°Ķê¾¸ ê³ł
Ġìŀ¬ ìķĻ
Ġì¶ľìĹ° íķĺìĺĢëĭ¤
ìŀ £
ĠëĤ¨ íķĻìĥĿ
ĠëĪĪ ëıĻ
Ġì²łìłĢ íķĺê²Į
ìĿ´ëĿ¼ ìĿ´íĬ¸
ĠíĦ° ì§ĢëĬĶ
å® ®
Ġê³Ħ ëĭ¨
ìłĦ ìĹĲìĦľëıĦ
ì°¨ ê¸°
Ġíĳľ ìłĪ
ĠíĻĶ íķ´
ĠìĿ¼ë³¸ êµ°
Ġìĺ¤ íİĺëĿ¼
Ġë²Į ìį¨
ì§Ģ ìĥģ
Ġë¯¸êµŃ ìľ¼ë¡ľ
Ġë§ī ê°ķíķľ
Ġì§Ģ ìĭĿìĿĦ
ĠB J
Ġì§ģ ìĦł
ìĦ¸ ìĿ´ë¸Į
Ġë¦¬ ìĬ¤íĬ¸
Ġë©Ķ ëĶĶ
ĠìĦŀ ìĸ´
Ġê°Ħ íĮĮ
ĠìŀĲ ìľ¨
Ġëª» íķĺë©°
ëįĶ ë¸Ķ
ì§ģ ìĹĲ
ĠíĥĲ ìłķ
íĶĦëłĪ ìŀĦ
ĠìĹĲ ë¡ľ
ĠìĹ´ ì°¨ê°Ģ
Ġìĭľì¹´ ê³ł
Ġìĥģ ë¬´
ĠíķŃ íķ´
íĻľ ìķ½
ìľłíĿ¬ ìĻķ
Ġì¹´ ì§Ģ
ìłľ êµŃìĿĺ
ĠìºĲ ìĭľ
Ġ194 1
ìĪĺ íĺ¸
ĠíŀĪ ê°Ģìĭľ
ĠìĨĮìĨį ëĲľ
íħĮ ëĿ¼
Ġëª¨ ëĵľê°Ģ
Ġë²Ĺ ìĸ´ëĤľ
ĠìĿ´ ë¸Į
Ġì²´ ìĿ¸ì§Ģ
Ġì¡°ìĦł ë¯¼ì£¼ì£¼ìĿĺ
ëłĪ ëĬĶ
ĠëıĦ ìļ°
Ġíĺ¼ íĺĪ
ëį ®
ê²© íĪ¬
ìĹ° ìĿĢ
Ġëħ¸ ë¦ĩ
ĠìĿ¼ìľ¼ ì¼°
ĠëĳĲ ë£¨
ë¦¬ìĹĲ ìĿ´ìħĺ
ĠìĬ¤íı¬ ìĿ¼ëŁ¬
ëĤ´ ìĿĺ
Ġíģ´ ë¡ł
ĠíĻľìķ½ ìľ¼ë¡ľ
ĠìĽĲ íĻĶ
å£ «
ì½Ķ ìĿ¸
ì¨ ©
Ġìŀ İ
Ġëĭ¨ ë°ľ
ĠêµŃ íĨł
ar i
Ġê·¸ ë¦¬ëĬĶ
ĠëĲ ©ëĭĪëĭ¤
ĠìĹ¬ê¸° ìĹĲìĦľ
Ġë©´ ëıĦ
ì²Ń ìĿ´
Ġìĺ¤ë²Ħ ìĽĮì¹ĺ
Ġìĸ» ì§Ģ
Ġìĭľìŀĳ íķĺë©´ìĦľ
ĠìĿ¼ëĭ¨ ìĿĢ
Ġë§Į ëĤľëĭ¤
Ġì¶Ķê°Ģ ëĲľëĭ¤
Ġì°° ìĬ¤
) âĢĻ
ĠëĿ¼ ìĬ¤íĬ¸
Ġê°ľ êµŃ
ang e
E L
Ġìĺ¤ ìļ°
Ġìľł ìĸ¸
Ġì£¼ ëĭĪ
ĠìķĦìĿ´ ëĵ¤
Ġê¹Ģ ëĳĲ
Ġìŀ¥ ë¯¸
Ġë¶ģ ìĦľ
Ġì£¼ë³Ģ ìĿĦ
ìĿ´ëĭ¤ ë³´ëĭĪ
ĠëĤ¨ ìŀĲìĿĺ
Ġìŀ¬ë¯¸ ìŀĪëĬĶ
Ġëĵľë¦½ ìĿĦ
Ġìį ¸
Ġë¹¨ê°Ħ ìĥī
ĠíĨł íģ¬
Ġë¹Į ë³´ëĵľ
ĠíĨł íĬ¸ëĦĺ
.. ...
am es
íĶĦëŀĢ ìĭľìĬ¤ì½Ķ
ĠìĤ¬ë§Ŀ ìŀĲëıĦ
Ġì§Ŀ ìĤ¬ëŀĳ
ìĭ± ê¸Ģ
Ġë§¤ ê·¸
ìĻ¸ ìĹĲëıĦ
Ġíĺ¸ ìĿĳ
ê°ľ ìĹĲ
ĠìłķëıĦ ìĹĲ
ìĹ¬ ìķ¼
Ġìī½ ê³ł
k r
Ġn ow
ìĤ° íĻĶ
ì°¸ ëª¨
Ġìķł ìļ©
Ġìŀħ ëĬĶëĭ¤
ĠìłĦ ìŀ¥
) ;
Ġíķĺ ìĺĢìľ¼ë©°
en er
ĠW indows
ëĪĦ ê°Ģ
ê±° ëĬĶ
ĠìĦ¤ëªħ íķĺëĬĶ
Ġì°¾ ìķĦìĦľ
s v
Ġë¯¸êµŃ ìĹĲ
ĠíĦ´ ìĹĲ
íĭ° ëĬĶ
Ġë§Į ëĬ¥
ĠíķĦìļĶ íķł
Ġê°Ŀ ê´Ģ
Ġëª¨ ìĿĮ
ĠëĵľëŁ¬ ëĤ´
ë¦¬ ì¸ł
ĠëĤĺ ëĿ¼ê°Ģ
ĠìĦ± ìĶ¨
Ġê³ł ê³ł
ëĿ½ ìĿĺ
ĠìłĲ ë©¸
ĠìĤ¬ ìłķìĿ´
Ġìłģìļ© ëĲĺëĬĶ
ĠìĺĪ ìĭľ
ĠíĻķ ìĭł
Ġë¶Ģ ìĭ¤
ì¡± ê³¼
ĠíĥĲ ì§Ģ
ìĤ¬ëł¹ ê´Ģ
t on
ĠìĿ¼ ì¡°
Ġëª¨ë¥´ ê²łì§Ģë§Į
Ġê°Ħìłĳ ìłģìľ¼ë¡ľ
ìļ° ìĬ¤ë¥¼
ĠìĿ´ ëħ¸
ĠëĮĢ ìĻ¸
Ġìĭľ íģ¬
ë°Ķ ìľĦ
ì¶ľ ìĭł
Ġì°¾ìķĦ ìĻĢ
Ġëıħ ë³´
ĠìĿ¼ìĸ´ëĤĺ ì§Ģ
Ġë°©ìĤ¬ ëĬ¥
Ġì¶ľ ëıĻ
Ġìŀħ ìĹĲ
Ġê·¸ ëĮĢ
ä¿ ¡
ĠìĹ¬ ìŀĲë¥¼
ê°Ģ ìĿ¸
ê²ĮìŀĦ ìĿĦ
Ġë¬ĺ íķĺê²Į
Ġë°©ë²ķ ìĿ´ëĭ¤
Ġê´Ģê´ĳ ê°Ŀ
Ġê²½ íĸ¥
ĠìĥĿ ê¹ĢìĥĪ
ort s
ĠìķĦìĬ¤ ëĤł
Ġë¶Ī ì°¸
ĠìĿ¸ê°Ħ ê³¼
ĠëĬĺìĸ´ëĤľ ëĭ¤
ĠìĪĺ ìĹħìĿĦ
ĠìĿ´ ëıĦ
ĠìĨĮ ìĿĮ
Ġëĭ¹ìĦł ëĲĺìĹĪëĭ¤
ìĤ¬ ìŀĲ
R e
Ġì²Ń ëĤĺëĿ¼
ĠíİĢ ì¹ĺ
ĠëıĻìĦ± ìķł
ìķ¼ ìĬ¤
ĠìĻĢìĿ´ ë²Ī
Ġìĭł ìĿĦ
N C
ê³ł ìĥĿ
ĠìķĪìĬµ íķľ
ĠP P
ĠëĽ° ê³ł
ì£¼ êµ°
ĠëĤ¨ íķľ
ĠíļŁ ìĪĺ
Ġê°ķ ë¦¼
Ġì¹ľ ëĭ¤
ĠU p
Ġìĥģíĥľ ìĿ´ìĥģ
ëĮĢ ìĿ¸
ì¸¡ ìĿĺ
ìĭĿ íĴĪ
ĠíĿ¬ë§Ŀ ìĿĦ
Ġë²Ħ ë¦´
ìĤ° ë¦¬
Ġìĭ¶ ìĸ´ìĦľ
Ġê³µì¤ĳ ìĹĲìĦľ
ĠìĤ¬ íļĮìĿĺ
íķĺ ë¡ľ
ĠìŀĦëªħ ëĲĺìĹĪëĭ¤
Ġë¿Ĳ ìĿ´ì§Ģ
ê¸° ë©´ìĦľ
Ġê·¸ëłĩ ëĭ¤ë©´
ĠìĦ¬ ìĹĲ
ĠìĬ¹ ëł¤
e ep
Ġíĳľ ìłķìĿ´
Ġì±Įë¦° ì§Ģ
Ġìĭł ì¶ķ
Ġê°ķ íĺ¸
ĠíķĦ ìĤ¬
ĠíķĺíķĦ ìĿ´ë©´
Ġë³´ ìĿ´ê¸°
Ġì¢Į ìĦĿ
Ġíķ ı
Ġëħ¼ëŀĢ ìĿĦ
Ġëį°ëł¤ ê°Ģ
Ġì§Ģ ëħĶ
íĶĦë¡ľ ê·¸ëŀ¨
ãģ¡ ãĤĥ
ĠìºĲë¦ŃíĦ° ëĵ¤ìĿĺ
íļ ¡
ĠìķĦ ìĬ¤íĬ¸
ĠëĿ¼ìĿ´ ìĸ¸
ë¡Ńê²Į ëıĦ
Ġìĭľ ìĻ¸
ĠíķĻìĥĿ íļĮ
íķ´ ìĦł
çĲ Ĩ
ìĸ´ë²Ħ ëł¸ëĭ¤
Ġë³´ ìĬ¤ë¡ľ
ëĮĢ ìļ°
Ġë¯¸ ì¹ĺëĬĶ
ä» ģ
Ġìĭ¸ ìĽł
ĠìĥĿ íĥľ
ĠìķĦ ìĬ¬
Ġìķ¼ ìĪĺ
Ġì¶ķ ë³µ
ìłĲ ê³¼
ĠíķľêµŃ ìĿĢ
es e
Ġê°ģ ìŀĲìĿĺ
Ġë¹Į ë¦¬
ìĹ°êµ¬ ìĽĲ
ëĭ¹ ìĹ°íŀĪ
c k
ĠëıĻ ìķĦìĭľìķĦ
Ġê±¸ ì¹ľ
ĠëıĮìķĦ ìĺ¨ëĭ¤
Ġëº ¨
Ġê°Ģ ìĤ¬ë¥¼
ĠìłĦ ìĪĺ
Ġê³ł ìĭľ
ĠëĦ£ ìĹĪëĭ¤
ĠìĥĿê°ģ ìĹĲ
st r
ĠìĻĦë²½ íŀĪ
ĠìĹ¬ íĥľ
ĠíļĮ ìĤ¬ê°Ģ
ĠìķĪìłĦ íķĺê²Į
1 20
ĠíĨ ¨
ë°ķ ìĤ¬
ãĥ ł
Ġì´Ī ìĿ¸
íĻį ì½©
Ġìłľ ëĿ¼
Ļ ëĭĪëĭ¤
íĨµ ìĿ¼
ĠìĽĲëŀĺ ìĿĺ
Ġê°Ĳ ìĿ´
ĠëĪĪ ìľ¼ë¡ľ
Ġë°° íĦ°ë¦¬
ë³¼ íĬ¸
ë©´ ìĿĢ
Ġë³¸ ëĬ¥
ìŀĳ ìļ©
ĠìĤ¬ê³¼ ë¥¼
Ġëĵ±ìŀ¥ ìĿĢ
ĠìĤŃìłľ ëĲĺìĹĪëĭ¤
ĠìĹ¬ ë¶Ģë¥¼
Ġë°©ìĨ¡ êµŃ
Ġëĭ¤ ìĿ´ìĬ¤
ĠìĹĨ ìĹĪìĿĦ
Ġê¸¸ ëĭ¤
ë¦¬ìķĦ ìĻĢ
ë£¨ ë¡ľ
ëª¨ ìħĺ
Ġìŀĳ ìķĦ
ë²ķ ê³¼
ĠìķĦ ëŀ«
ĠíĹ ¥
ĠìłĦ ìłľ
ĠíĻ© íĽĦ
7 00
Ġë¬´ ìĭł
Ġì·¨ ìŀ¬
Ġ âĺĨ
Ġë°Ķ ëĭ·
ĠëĤ´ ìħĶëĦĲ
ëķĮ ëıĦ
ĠíĭĢ ë¦°
ĠìłĦìĦ± ê¸°
Ġìŀ¥ íĥĦ
ĠêµŃëĤ´ ìĹĲìĦľ
ì²Ń ìĿĺ
Ġë½ Ģ
Ġê» ´
ĠìĤ¬ëŀĮ ëĵ¤ê³¼
ë¡ł ìĹĲ
Ġìĸ´ ê¸ĭ
ĠìķĦë¦Ħ ëĭ¤
ê¾¸ ë¡ľ
ĠìĦĢ ëıĦìļ°
Ġì¤Ģ ê²°ìĬ¹
Ġìĭłê²½ìĵ° ì§Ģ
ĠìķĦ ìŀĲ
Ġë°©ìĨ¡ ìĿ´
Ġê²° ìłķìĿĦ
ëį° ë¥´
ĠìĹĲ ìĸ´ë¡ľ
ĠìĥģëĮĢ íķĺëĬĶ
Ġê¸°ìĪł ìĿ´ëĭ¤
ĠíĶ¼ ìĸ´
Ġìŀħ ìĹĪëĭ¤
ĠíĤ¤ ëĿ¼
ĠíĽĦë°ĺ ê¸°
o om
Ġë°ľ ê¸ī
Ġìµľ ìĹ°
le ss
Ġ0 8
ìĪľ íĻĺ
Ġë¬´ìĹĩ ë³´ëĭ¤ëıĦ
Ġëŀľ ëĵľ
ĠëĤ ¯
ëª¨ ìĹĲ
Ġíİĺë¥´ ìĭľìķĦ
Ġëŀ Ħ
Ġê¶Į íķľìĿĦ
ì¤ĳ ìĭ¬
ĠíĽĦ ìĿ¸
ĠëĨĢ ëŀį
ãĢĭ ()
Ġìķ½ íķĺëĭ¤
ì°¨ ì§Ģ
ê²½ íĹĺ
ĠìĬ¹ ë¬´ìĽĲ
ë£ ½
ĠìłĦ ìĹ¼
Ġíķ´ ì¤Ģ
Ġ0 4
ĠìĦ± ìĤ¬
Ġê³¨ íĶĦ
Ġêµ° ìĪĺ
Ġì§Ħì¶ľ ìĿĦ
Ġìĸ´ëłµ ê³ł
Ġë©ĺ ë¶ķ
Ġê²ª ê³ł
Ġë¨¹ ì§Ģ
Ġë°Ľìķĺ ì§Ģë§Į
Ġë³¸ ëĭ¤ë©´
Ġë§Ī ì§Ģ
ĠíĥĪ íĻĺ
P ro
ad y
íħĮ ìĬ¤íĬ¸
Ġê³ł ë¸Ķë¦°
Ġì²Ń ì¶ĺ
ì´Ŀ ë¦¬
Ġìºł íĶĦ
ĠíĬ¹ ê¸ī
ãģĵ ãģ®
ĠëĤ´ìļ© ìľ¼ë¡ľ
ê²¨ ìļ¸
Ġìķŀ ìĦ¸
Ġìĸ¸ê¸ī ìĿĦ
Ġê³µê²© ìĿĺ
Ġë§Ĳê³ł ëıĦ
Ġìĥģ ëĥ¥
Ġì§Ģ ëĤ´ëĬĶ
yst em
Ġë¶Ħ ëĭ¹
ìħ¨ ëĭ¤
a u
Ġê³µìĭĿ ìłģìĿ¸
Ġë¯¸ ìĦ±
Ġê¼¬ ë§Ī
ë°Ķ ìĿ¸
ĠìĦ±ê²© ìĿĺ
ĠìĦ¸ ëłĪ
Ġë²¤ ì¹ĺ
Ġìŀ¬ ìŀĦ
197 2
all y
æ° ¸
it ch
ìļ° ìĹĲ
ì¦Ŀ ìľ¼ë¡ľ
å¤ «
Ġë§µ ìĿĦ
íı¬ ìĻĢ
ë°± ìľ¼ë¡ľ
ĠìķĬ ëįĺ
ìĺ Ĩ
Ġê´Ģê³Ħ ìĹĲ
Ġê³ł ë§Ļ
Ġë¶Ģë¶Ħ ëıĦ
ì§Ģ ëĤľ
ĠìļĶ ê¸Ī
ìı ĺ
ĠëĶĶ ëłī
Ġìŀĳ ëħĦ
Ġì°¨ ë¡ľ
ë¥ µ
ĠìĺĪ ìķ½
Ġëļ ±
Ġìĸ Ħ
ë²Ħ ìĬ¤ê°Ģ
ë¬¸ ìĦľ
éĥ ¡
Ġìĭľ íĬ¸
ê³µ ìĤ°
Ġê·¼ ë¡ľ
Ġì¤Ħ ìĹ¬ìĦľ
Ġë¹Ħë°Ģ ìĿĦ
ĠìĬ¤íİĺ ìĿ¸ìĿĺ
Ġëŀľëį¤ ìľ¼ë¡ľ
ĠìĥģìľĦ ê¶Į
b r
M y
ĠìĿ´ë²¤íĬ¸ ìĹĲìĦľ
ì½ °
ĠëĤĺ ìĦľëĬĶ
Ġìŀ¥ ìĦ±
Ġëĭ¨ ê¸°
ì« ĵ
ìľĦ ê¹Įì§Ģ
Ġë¯¼ì£¼ ì£¼ìĿĺ
Ġë§ĮëĤĺ ìĦľ
ĠìĤ¬ ìļ°ìĬ¤
Ġë°© ìĹĲìĦľ
êµ¬ ëıĦ
Ġë¬´ìĦľ ìĽĮ
Ġë¬¼ ê³łê¸°
ĠA nd
ìŀĪëĭ¤ ê³ł
1 000
ĠëĿĦ ìĽĮ
Ġëĭ¬ ìĿĺ
ĠI C
Ġë°©ìĸ´ ëł¥ìĿĦ
Ġë³´ ëŁ¬
Ġë¹Į ëĶ©
Ġë°ľìĤ¬ íķĺëĬĶ
Ġë³´ìŀĲ ë©´
Ġëª¨ìħĺ ìĿ´
Ġë§ŀì¶Ķ ëĬĶ
ìĹĳ ìĬ¤
Ġì°¨ ìĿ´ëĤĺ
ë¥´ íĥĢ
Ġìĺ¬ íķ´
ë¶ģ ëıĦìĿĺ
ĠìķĦëĵ¤ ë¡ľ
ĠíĢ µ
ĠìħĶ íĭĢ
íĶĮ ë¦¿
ĠíĺĦ ëĮĢìĿĺ
ĠëĤ´ ìĦ±
Ġ6 2
ëį° ë·Ķ
ĠìĥģëĮĢ íķĺê¸°
Ġê±´êµŃ íĽĪìŀ¥
p ic
Ġë°Ľ ìľ¼ë©´ìĦľ
Ġë²ķ ë¬´
ì°¸ ì¡°
ĠìĹŃ ìĬµ
ĠìĿ¸ë¥ĺ ìĿĺ
ĠìłĦ ëĮĢ
olog y
Ġ3 60
Ġìĭł íķľ
ë¡Ģ ê°Ģ
Ġíİ Ń
ĠìĨį ìĦ±ìĿĦ
ĠìķĦëĭĪ ëĥĲ
Ġë¶ģ ëıĻ
ĠìĦ± ìĿĺ
Ġê·¸ëłĩ ëĵ¯
íģ´ ë¦Ń
Ġíķľ ê³Ħë¥¼
Ġê³ł ì§ĳ
Ġìĭ±ê°Ģ íı¬ë¥´
Ġë§İ ìķĺëįĺ
n er
Ġìĭł ìĥĿ
ë²Į ìĿĦ
ĠìĽĲ ëħĦ
ĠìĽĢì§ģ ìĿ´ì§Ģ
ub l
ë§ ĺ
ĠìĦ¸ ë²Īì§¸
ĠíĹĿê°Ģ ë¦¬
ìĹĪ ìĬµëĭĪëĭ¤
ĠíĶ¼ ì¹´
Ġìĭ¤ ìĤ¬
íħĮ ìĺ¤
ĠìĥĿê°ģ íĸĪëĭ¤
ĠìĬ¤ ì»¬
197 7
ĠìĿ¸ ìĥĿìĿĦ
Ġëħ¸ ëŀĢ
íĺ¸ ìĹĲê²Į
ĠëĳĲ êº¼
Ġê²°ê³¼ ë¡ľ
Ġë²Ħ ìĬ¤ë¥¼
Ġê¸°ìĪĻ ìĤ¬
Ġêµ¬ ìĥģ
ãģ ²
Ġëĵ±ìŀ¥ íķĺìĹ¬
Ġë¹Ħì¤ĳ ìĿĦ
ëĦ¤ ìĿ´ìħĺ
Ġ ãĦ
Ġíķĺë£¨ ì¹´
Ġì¤ĳ êµ¬
Ġìŀĳ ê°ĢëĬĶ
Ġìĺ¤ë¥¸ ìĨĲ
ĠëıĦ ëĬĶ
ĠìºĲë¦ŃíĦ° ìĿ´ëĭ¤
ig ital
Ġ ver
0000 00
ìłģ ìĿ´ìĹĪëĭ¤
Ġë¶Ģ ì²ľ
ë¦¬ ì¹ĺ
Ġê³µíĻĶ êµŃìĿĺ
ĠëĶľ ìĿ´
Ġì§Ģì¼ľ ë³´
ĠíķĢ ëŀĢëĵľ
ĠëĮĢ íĶ¼
Ġì°½ ìĿĦ
ëįĺ ìłĦ
ĠìľĦì¹ĺ íķľëĭ¤
ĠìĦ¤ìłķ ìĿĢ
ĠëĤ´ ì§ĢëĬĶ
ãĥ Ĺ
ĠìĬ¤íĥł ëĵľ
ĠíĪ Ń
Ġìľłë§Ŀ ì£¼
ë§Įíģ¼ ìĿĺ
Ġìŀ¥ ë¡ľ
Ġê³¼ ê²©
ĠìĹ¬ ìľłê°Ģ
ĠëĳĲ ê°ľ
ëĵ¤ ìĹĪëĭ¤
ĠíĽĦ ìľł
ĠíĽĦìĪł íķł
ĠìĿ´ ê´ĳ
ëĤľìĿ´ ëıĦ
ĠìĨĮ ëĿ¼
ĠìķĪ ìł¤
Ġê¹Ģ ë³ĳ
ê¼ Ń
Ġì¶Ķ ëª¨
ìŀ¡ ê³ł
ĠìĽĲëŀĺ ëĮĢë¡ľ
Ġëª¨ ìŀĦ
ë¹Ħ ìļ©
íģ¬ ë£¨
ê³ł êµĲ
Ġìĭ¤íĮ¨ ë¡ľ
Ġg et
ĠìĿ´ìļ© íķĺë©´
Ġë²Ķ ìľĦë¥¼
Ġìłķ ìĦĿ
ìļ° ë¦¬ê°Ģ
ĠìĦ± ìŀ¥ìĿĦ
ĠI M
é ³
ĠíķĺëĤĺ ìĹĲ
ĠìĪĺ ë¹Ħë¥¼
Ġëħ¸ëŀĺ ëĬĶ
íĭ° ì½ĺ
Ġëį° ëª¨
Ġ6 8
ë´ī ìĿĦ
ëĿ¼ìĿ´ íĦ°
ĠëĮĢíķĻ ìĥĿ
ëįķ ìħĺ
ìĹ° ë°©
ĠìĤ¬ ìŀĦ
ë§Ī ëł¥
Ġê²© íĩ´
Ġë§¡ ìķĺëįĺ
ĠìºĲë¦ŃíĦ° ìĿ¸
c he
ĠíĤ¤ ìļ°ëĬĶ
ĠëĿĦ ëĬĶ
ìĪĺ ìķĦ
ĠìĹħê·¸ëłĪìĿ´ ëĵľë¥¼
ãĥ İ
Ġëĭ¤ ì§Ĳ
ê·¸ ìĻĢ
ìĻķ íĽĦ
Ġê¸ī íĸī
Ġíĥģ ìĽĶ
Ġë©¸ ì¢ħ
ìłĢ ëŀĺ
ĠìĬ¤ì¹´ ìĽĥ
é İ
Ġë¨¸ ë¬´
Ġìŀ¡ íŀĮ
ĠíħĮ ì¸ł
ĠìĿ¸ ì¡°
Ġ[ [
ãģĵ ãģ¨
å¸ Ŀ
ĠìŀĦ íĮ©
ĠíŀĪ íĨł
ĠìłľêµŃ ìĿ´
ìłĦ ê¹Įì§Ģ
Ġì°½ ìĿĺ
ĠìĤ¬ ìłĦìĹĲ
Ġë³´ ìĺĢê³ł
ìłĲ ìĿ´ëĭ¤
ĠìĺĪ ë°©
Ġë¬´ ìĮį
197 6
ì§Ħ íķľ
Ġìª½ ìĿĦ
ĠíĻĶìĤ´ ìĿĦ
ĠìĨĮ ê¿ī
ê» ĳ
H e
ra in
ĵâĨ ĺ
Ġìĸ¸ ëį°ëĵľ
Ġì§Ģ ìĭľë¥¼
ê²Ģ ìĿĺ
Ġíķĺëĵľ ìĽ¨ìĸ´
å Ħ
êµ¬ ëĭĪ
Ġìļ° ìĦ¸
Ġìķ½ ìłĲìĿ´
ĠêµŃ ìĸ´
æĢ Ŀ
ìľ¼ ìĭł
Ġíķ´ êµ°ìĿĺ
Ġìĭł ì§Ģ
íķľ ìłķ
Ġëħ¸ ë¦°
st er
Ġë°ľ ëª©ìĿĦ
ë³¸ ìĿ´
ĠìĤ¬ ìĻĢ
ĠìĹ¬ëŁ¬ ë¶Ħ
Ġê°Ģê¹Ŀ ê²Į
èī ²
ĠëĮĢ ë²ķ
ëį°ìĬ¤ ë¦¬ê°Ģ
ĠëĽ°ìĸ´ëĤĺ ëĭ¤
ĠìĹ° ëĭ¬ìķĦ
ĠìĽĲ ìĿ¸ìĿĢ
Ġìĸĳ ë°ĺ
ĠíĮ¬ ìĿ´
Ġê·¸ë£¹ ìĿĺ
ë¹Ħ ë¡Ŀ
Ġìŀ¡ ëĬĶëĭ¤
ĠëĬĲëģ¼ ê²Į
ĠíĽ ¼ìĨĲ
ĠëĤĺìĻĶ ì§Ģë§Į
Ġë§Ī ìļ°ìĬ¤
N G
Ġìĥĺ íĶĮ
ç« ĭ
ĠëĤ´ ë±
ĠìĬ¤íĥĢ ìĿ¼ìĿĺ
Ġë¬´ ê¶ģ
Ġê³ł ìŀ¥
Ġë¬´ëĦĪ ëľ¨
Ġë¬´ ì£Ħ
ëĥ ħ
ĠG O
ĠíĤ¤ ìļĶ
r it
ë¥ĺ ìĹĲ
ìĿ¼ë³¸ ìĸ´
ĠìĪĺë¡Ŀ ëĲĺìĹĪëĭ¤
o id
Ġë¯¸ ë§Į
Ġì²Ń êµ¬
Ġë¯¼ íıĲ
ĠìĿĢ ë©Ķëĭ¬
ĠìĹ¬ê¸° ê³ł
ĠìĪĺ ì»·
ĠìĹĲ ë°Ģ
ĠìĨĲ íķ´ë¥¼
Ġíĸ¥ íķľëĭ¤
ĠìŀĲì²´ ìłģìľ¼ë¡ľ
Ġìĭľ ê¸°ê°Ģ
ë¶ģ íķľ
ĠìķĦë¥´ ë©Ķ
ê·ľ ì¹Ļ
ĠëĨį ë¯¼
ĠìĦł ìĿĺ
ì¼ĢìĿ´ íĮħ
ìĻĶ ëĬĶëį°
Ġì½Ķ ìĿ¸
ĠëĤĺ ëŀĢíŀĪ
Ġê³Ħ ëŀµ
Ġê¸°ì¤Ģ ìľ¼ë¡ľëĬĶ
ĠëĤĺ ë¹Ħ
an a
Ġìľł ìĹ°
Ġê° ¯
ĠíĥĢìĿ´ íĥĦ
ĠìŀĲìĭł ëĵ¤ìĿĦ
Ġêµ¬ìĦ± ìĽĲ
Ġíķ¨ ìĪĺ
ëĶ° ëĿ¼ìĦľ
Ġìĭł ë°ľ
Ġìĺ¬ëĿ¼ ìĺ¤ëĬĶ
íķ´ ëĿ¼
15 0
ìºł íį¼ìĬ¤
ëķĮ ê¹Įì§Ģ
Ġëª¨ëį¸ ìĿĦ
ë¹Ī ìĿ´
ĠìĹĲëĵľ ìĽĮëĵľ
Ġëª¨ë¥¸ ëĭ¤ëĬĶ
Ġê³µ ë¬´
ê² ľ
Ġê¹Ģ ìĦł
Ġì¡¸ìĹħ íķĺê³ł
åĽ ½
ĠëĶĶìĬ¤ íĶĮëłĪìĿ´
Ġëĵ£ ê¸°
197 4
ĠìķĦ ìĿ¼
Ġìĥģ ìĦ±
ë°Ķ ë¦¬
Ġìĭľìŀĳ ë¶ĢíĦ°
ĠëĮĢíļĮ ë¥¼
ë°Ķ ìĻĢ
ĠB R
ĠìĤ¬ë¬´ ëĿ¼ìĿ´
ãģ ¸
ĠìĹŃ ìĿĢ
ĠìķĦ ëĭ´
Ġëĭ¤ìĭľ ëĬĶ
ĠìķĮ ê¸°
ìĭľ ëĤ´
Ġì¡° ë¦½
Ġê¶Į ë¦¬ë¥¼
ĠíĮĲë§¤ íķĺëĬĶ
Ġë§Ī ëł¥ìĿĦ
ĠíĥĢ ìļ´
ĠíĮ¨ ìĬ¤ë¥¼
ĠìĿ´ë¦Ħ ê³¼
ìĭľ ëıĦ
Ġì²ŃìĻĢ ëĮĢ
Ġë§Ī ìĿ¼
èģ ĸ
ë¥ĺ ë¡ľ
ĠíĸīëıĻ ìĹĲ
ìĿ¸ ë°©
ĠíĶĦ ëŀŃ
Ġì£¼ ê±°
ê³µ ëĭ¨
Ġì¹ľêµ¬ ìĿ¸
Ġìĸ´ ëĤĺ
ĠìĦł ëıĻ
ĠíĨł ë¦¬
ë¹Į ëĶ©
íı´ ë¦¬ìĬ¤
ĠëĶ° ìĦľ
Ġë¹Ħ ìłĦ
ĠíĽĦì¿ł ìĺ¤ì¹´
ĠíĦ° ëĿ¼
ĠëĤĺíĥĢ ëĤ¬
ìŀ¡ ìĿĦ
Ġì°¨ëŁī ìĿĺ
ëĵ± ìĹĲ
Ġë§Ľ ìĿĦ
ëĲĲ ê³ł
Ġìŀ¬ ë¯¸ë¥¼
ì²ľ ìĿ´
Ġëĭ´ ê²¨
ĠëĳĺìĿ´ ìĦľ
Ġìļ¸ íĶĦ
Ġíģ¬ë¡ľ ìķĦ
Ġíŀĺ ìĹĲ
ê¶ Ī
ĠìĿĺíĺ¹ ìĿ´
ĠìķĦ êµ°ìĿĦ
ĠìĽĮ íģ¬ëŀĺíĶĦíĬ¸
B N
Ġë¬´ ë¹Ħ
ĠìĿ¸ ìŀ¬
íĤ¤ íĥĢ
íİ¸ ì§ĳ
ëĳĲ ê°Ģ
ĠíħĮìĿ´ ë¸Ķ
ë¥´ ëĵľ
ëĨĵ ìķĺëĭ¤
æĿ ¥
ĠìĿ´ ì§Ħ
íĻ© ìĿĦ
ĠìłľíĴĪ ìĿĦ
ĠìķĦ ëĥĲ
ë¡Ń ê³ł
Ġë³´ìĿ´ ê²Į
Ġìĭľ ìĦłìĿĦ
Ġë§ĪìĿĦ ìĹĲìĦľ
ĠëĬĲê¼ Ī
Ġë°ķ íĥĪ
ĠN ight
Ġë°ľíĳľ ëĲĺìĹĪëĭ¤
ëıĮ íĶĦ
Ġê°Ī ëĵ±ìĿ´
ĠìŀĲ ë¦¬ê°Ģ
ĠìķĦìĿ´ ìĿĺ
ë£Į ê°Ģ
ĠP K
Ġëĭ¤ íĪ¬
ĠìĿ´ë£¬ ëĭ¤
ĠUn iversity
ìłĲ íĶĦ
íıī íĻĶ
ĠíķĻìĥĿ ëĵ¤ìĿĦ
Ġë²łìĿ´ìĬ¤ ë³¼
Ġë°° ìĹŃ
ation s
íħĮ ìĬ¤
ĠíĽĦë³´ ìĹĲ
ëĺ ¥
ĠìĿ´ëªħ ë°ķ
Ġë¬´ ìĥī
Ġë§¡ ëĬĶëĭ¤
Ġë¬´ìĭľ íķł
ĠìĺģíĻĶ ìĹĲ
ë¯¸ ì½Ķ
Ġê°Ĳ ê¸Ī
Ġë³¸ ë¶Ģ
ìľ ½
ĠëıĻ ë©Ķëĭ¬
Ġê´ĳ ëªħ
Ġíķ´ëĭ¹ ëĲĺëĬĶ
ĠìĿ¸ìłķ íķĺëĬĶ
ĠìĻķ ì¡°ìĿĺ
ëĮĢ ê³µ
Ġìĸ Į
ĠìĹ°ìĬµ ìĿĦ
Ġíŀĺ ìĿĢ
Ġê³ł ë¡ľ
íĮĲ ìĹĲìĦł
ì¶© ì²Ń
id ae
ìŀĲ ë§¤
ĠìĥģëĮĢ ë°©ìĿĦ
Ġëĵľ ìĽĮ
ĠìĿ¸ê°Ħ ìĿĢ
ĠìĿ´ë¦¬ ìłĢë¦¬
ĠìĤ¼ ì´Į
Ġê¹Ģ ìľ¤
ĠìŀĲìľł ë¥¼
ĠìĤ¬ëŀĳ ìĹĲ
Ġíķĺ íĶĦ
ĠG l
Ġìĺ¤ìĬ¤íĬ¸ëłĪìĿ¼ ë¦¬ìķĦ
Ġì»¸ ëĭ¤
ì§Ģ ë¶Ģ
Ġêµ¬ íĺķ
Ġìĸĳ ëıĦ
Ġë©Ķìĭľ ì§Ģë¥¼
Ġëĵľ ë¡ľìļ°
ĠìĨĮìĨį ëĲĺìĸ´
ë£¡ ìĿ´
Ġë³µ ìĦł
Ġë¡Ŀ ë§¨
íĻ ī
Ġíĺ¸ ëŁ¬
Ġê¸°ëĭ¤ ëł¤
Ġê°Ģë©´ ìĿĦ
ìĤ¬ëł¹ ë¶Ģ
U T
ĠìĥĿ ëªħìĿĦ
Ġê³ł ë°ľ
ĠìĨĮ ìĽĲìĿĦ
Ġê°Ģ ìĿ´ëĵľ
íĴ ĭ
Ġë¶Ļ ìĹĪëĭ¤
æ ¡
è¨ ĺ
ë³´ ëıĦ
ê² ĢìĿ´
Ġìĥģ ìĿ¸
Ġë°ľíĳľ ëĲľ
ìĿ¼ ê¸°
ĠìĬ¤ ë¦´
Ġëħ¸ ëĬĶ
ĠìĿ¼ìłľ ê°ķìłĲ
ĠìĪĺ ìĭł
Ġì°¾ ìľ¼ëŁ¬
ĠìĤ¬ ìĤ¬
ĠìĬ¤ ì¦ĪíĤ¤
ĠC P
Ġê¹Ģ ì£¼
ĠëıĮ ë¦¬ëĬĶ
ĠëĤ´ ë¶ĢìĹĲìĦľ
Ġê°Ī ëĵ±ìĿĦ
Ġì¶©ì²Ń ë¶ģëıĦ
ĠíĨµ íķĺëĬĶ
Ġ6 1
ì§ģ ìĹħ
Ġíİ¸ ì§Ģ
Ġì³Ĳ ëıĦ
íĮĢ ìĹĲ
Ġë°ĿíĺĢ ì§Ģì§Ģ
Ġì£½ ìĿ´ì§Ģ
ìĪľ íŀĪ
ĠĊĊ ĠĊ
ìĿ´ ì¹ĺë¡ľ
íķ¨ ëĮĢ
Ġë¶ĪìķĪ íķľ
Ġëĵ± ìŀ¬
ĠíĨł ì§Ģ
ĠíıīìĨĮ ìĹĲ
bl ock
Ġìĭł ìŀ¥
Ġë°ľê²¬ ëĲĺìĹĪëĭ¤
æľ ĥ
ĠìĻ¸ íĺķ
ë¿ ľ
ì´Ŀ ìŀ¥
ĠìłĦ ìŀĦ
ĠìķĪ ë³´
Ġì³¤ ëĭ¤
Ġë§Į ëłĻ
ìĭľ ë¶ĢíĦ°
ĠíĬ¹ ìłĦ
ĠìĿĺ ìłķë¶Ģ
ìĭľì¼° ê³ł
ë§Īë²ķ ìĤ¬
ê¸ į
Ġìļ° ëĳĲ
ĠìĿĺ ìķĦ
Ġìĭł ë¹Ħ
ĠíĻĺ ìŀĲ
ëļ± íķľ
Ġëª°ìķĦ ëĦ£
Ġê¸° ì§Ģë¥¼
ê¸° íĽĦ
ĠìĿ´ìĻ¸ ìĹĲëĬĶ
ãģĹ ãģĦ
Ġê·¸ ë³´ëĭ¤
' ll
Ġë ¤
Ġë°© ìĸ¸
Ġìŀ¬ ìľĦ
ëĭ¬ ìĿ´
ĠëĲĺìĸ´ ë²Ħë¦°
Ġìĭł ëıĻ
íħĮ ìĿĺ
Ġë¶Ģë¶Ħ ìĿĺ
ĠëĤł ìĹĲ
ĠëĦĺìĸ´ ê°Ī
ĠìĽĥ ìĿĮìĿĦ
Ġìľł íķľ
ìķ¼ íķľëĭ¤
çļ ĩ
Ġì£¼ìĿĺ íķĺìŀĲ
Ġê´Ģë¦¬ íķĺëĬĶ
Ġì°¬ ìĸĳ
Ġëªħì¤ĳ ë¥ł
ãģ§ ãĤĤ
Ġê¸Ī ê°ķ
Ġê·¹ íķľ
ë¥´ ë©´ìĦľ
Ġê°Ģì¡± ìĿ´
ĠëĮĢê¸° ìĹħ
ë§Ī ìĤ¬
ë³Ģ ê²½
Ġê´ĳ ë³µ
Ġêµ¬ì²´ ìłģìĿ¸
Ġëĵ¤ìĸ´ê°Ģ ê¸°
ëĭ¤ ë³´ë©´
Ġë¬´ ëĬ¬
ĠìĽĲìŀĳ ê³¼
Ġì¢ĭìķĦ íķĺê³ł
ĠìĿ´ë¦Ħ ë§Į
Ġì¡¸ìĹħ ìĥĿ
ç ¿
ĠëħĢ ìĦĿìĿ´
ĠëĶ° ìľĦ
ëĿ¼ ëĭĪ
Ġë²Ħ ìłĦìĿĦ
ãħ ĩ
ĠëĳĲ ìĹĪëĭ¤
ĠíĶ¼íķ´ ëŁīìĿ´
íĮĢ ìĿ¸
ĠìĿ¸ìłķ íķĺì§Ģ
ĠìĹĺ ëłĪ
Ġìłķê·ľ ìĭľì¦Į
Ġë İ
Ġê°Ī ë¦¬ëĬĶ
ìķł ëĤĺ
ĠëĬ¥ëł¥ ìĹĲ
Ġìłģê·¹ ìłģìĿ¸
K T
Ġê°Ģë¡ľ ë§ī
Ġë²Ī ìĿ´ëĤĺ
íĨµ ìĹĲ
ĠëĤŃ ë¹Ħ
ĠD R
ĠìĬ¤íħ Ł
ìļ° ìĦł
ë°ĺ ë©´
ì»¤ ìĻĢ
Ġìľł ìłĦìŀĲ
Ġ195 8
Ġì§ģ íĸī
ĠC H
ĠíĻľëıĻ íķľ
Ġ195 5
Ġë¶ĢëıĻ ìĤ°
Ġì¹´ ëĦ¤
ìķĪ ëħķ
Ġê±° ìłĲ
ì¹´ ë¡ľ
ìļ´ íĸī
Ġêµ¬ íķĺëĬĶ
Ġê±· ìĸ´
Ġì£¼ ë¨¸ëĭĪ
Ġê¹¨ ê³ł
ut ion
ĠíĿī ëĤ´
sv g
Ġì¤ĳ ìĿ´ëįĺ
Ġì§Ģ ìĿĦ
ê±´ ë¬¼
ĠíĦ° ë³´
Ġì§Ģ ëĥĪ
Ġë§ ĳ
Ġìłľ ëĭĪ
ë¦¬ íĶĦ
íĪ¬ ìŀĲ
ĠìŀĲ ì±ħ
Ġê¶ģê·¹ ê¸°
ĠìĥģíĻ© ìĿ´ëĿ¼
Ġê·¸ íĽĦ
ĠíĽĪ ìŀ¥
êµ ³
Ġê±°ì£¼ íķĺëĬĶ
ĠìĬ¤ ìľĻ
ĠìĹŃ ìĿ´
Ġë§Ī ìłĢ
Ġì¤ĳìķĻ ìĹĲ
ê°ģ ìĦ±
Ġë§Ĳ íķĺì§Ģ
ç ĩ
Ġê¸°ëĬ¥ ìĿĢ
ĠìĿ¸ ì§ĢëıĦ
Ġìĺ¤ ìĦ¸
Ġê±¸ ë¦´
Ġëª© ìĿ´
Ġt vN
êµŃ ìŀ¥
Ġ194 3
ìĤ¬ ìĥģ
9 00
Ġìľł ìķĦ
Ġë§Ĳ ê³łëĬĶ
Ġì§Ģ ëĤ´ê³ł
ì±ħ ìŀĦ
ëĮĢ ìĻķ
ìĤ¬ ìĿ´ìĸ´
Ġë¹Ħ ìłķìĥģ
ä½ ķ
ìĸ´ íĥĿ
Ġëħ¸ ê³¨
Ġë§ŀ ë¬¼
Ġ195 4
íı¬ ë¨¸
ìŀĪ ê¸°
Ġêµ¬ë§¤ íķł
ãĤ º
ìļ°ì£¼ ìĹ°
ĠìķĬ ìĿĮ
Ġa b
Ġìĺ Ģ
ì²ĺ ìĿĺ
ĠëıĦ ëª¨
ëŀĢ ìĿĢ
Ġì½Ķ íĮĮ
ĠëıħìŀĲ ìłģìĿ¸
Ġë§Īì°¬ê°Ģì§Ģ ëĭ¤
ĠëĤ¬ ëĭ¤
éŃ Ķ
Ġíĺ¸ íģ¬
Ġìķ Ĺ
é Ł³
ëĲľëĭ¤ ë©´
íĨł ìĹĲê²Į
ĠìĹĲ ë¦¬
ĠíĶĮëłĪìĿ´ íķĺëĬĶ
ëª¨ ëĭĪ
ìĬ¨ ìĿĦ
ë©¸ ìĿĺ
Ġëª¨ ìļķ
Ġíĺ¸ ê°ĲìĿĦ
Ġì¤ĳ ìĭľ
ĠìĪĺ ì¹ĺë¥¼
ĠD ream
Ġ am
ĠìĤ¬ ìĽĲ
íĥķ ìĿĦ
Ġíı¼ ìĿ´
é¦ ¬
ĠíķŃ êµ¬
ĠìĿ´ìļ© ê°Ŀ
ĠìĬ¹ë¦¬ íķľ
Ġìĸ¼ë§Ī ëĵłì§Ģ
Ġë²Ħ íĶĦê°Ģ
íĸĪ ìľ¼ë©´
Ġíİ¸ ìĿĦ
ĠìĹŃíķł ìĿĢ
ì§ĳ ìĿĺ
Ġëª¨ëĵľ ìĹĲìĦľ
ëĨ Ķ
ĠE BS
ĠëĤ³ ìĿĢ
Ġëį´ ë§Īíģ¬
ĠìļĶ ë¯¸
íķ´ ìĹĲ
Ġì¹ĺìĹ´ íķľ
ìŀĳ ìĹĲ
ĠíĻĭ ì¹´ìĿ´ëıĦ
Ġì§Ħì¶ľ íĸĪëĭ¤
ìĿ´ ìĦľ
ĠìĪĺ íĻķ
ìĿ´ ìĹĲê²Į
íı¬ì¼ĵëª¬ ìĬ¤íĦ°
ĠìĿ¼ ë¦¬
ĠìĹ°êµ¬ ê°Ģ
Ġì§Ģ ë£¨
Ġíĺ¼ ìĿ¸
ĠíķľêµŃ ê³¼
Ġë²¨ ëĿ¼
ĠìľĦìĽĲ ìŀ¥
!! !!
ĠìĭľìłĲ ìĹĲ
Ġëĥ īìŀ¥
ì¹ĺ ëĭ¤
ĠíķĺëĤĺ ê°ĻìĿ´
ìĹĲ íĶ¼ìĨĮ
ĠëıĦ ë°°
Ġê¹Ģ ê´ĳ
ĠíĬ¸ ëŁ¬
ìĤ¼ ê±°ë¦¬
Ġë§ĮëĤĺ ë©´
ĠìĪĺ ìĿ¸
ĠìķĪ ëıĻ
ìĺĪ ìĦł
Ġë°ľìĤ¬ íķľëĭ¤
ĠíĿĲ ë¦ĦìĿĦ
ê·¹ ìĿĦ
ĠìĿ¸ ìĽĲìĿ´
Ġë¶Ģ ì§Ģ
Ġê°ķ ëł¬íķľ
ĠëıĻ ëħĦ
Ġê³µê²© ëł¥ìĿĢ
Ġìŀ¥ëĤľ ê°Ĳ
ĠëĤĺ ê¸°
ëŀĳ ìĿĢ
Ġë²Ī ê°Ī
Ġì£¼ ìľĦ
ìĹ¬ ëıĦ
Ġë°ķ ìĺģ
Ġê´ĳ ê³łë¥¼
Ġìª½ ìĿĺ
Ġê²Į ë¥´
ĠìŀĲ ê¸°ë¥¼
ĠêµĲ ìĭ¤
Ġê²½ ë¶Ģ
Ġíķ´ ì¤Ħ
Ġíģ¬ ì§Ģ
ĠíĬ¸ ëŀ©
ê¶ģ ìĿĺ
íĮ¨ ê°Ģ
A I
Ġì§ ł
ĠìĬ¹ ë¥ł
Ġíķľ ì¸µ
Ġë¸ĮëĿ¼ ìļ°
ç ¨
Ġíķľ ìĸĳ
Ġìłľ ìĻķ
Ġë°¥ ìĿĦ
Ġë°ĶëĢĮ ê³ł
ĠìľłëĭĽ ìĿĢ
ĠíĶ¼ ìĺ¤
0000 0000
Ġìĭľ íĤ¨
ëĮĢë¶Ģë¶Ħ ìĿĺ
Ġëĵ¤ìĸ´ ìĦľëĬĶ
Ġê³³ ëıĦ
ĠìĹī ë§Ŀ
Ġì°¾ ì§Ģ
ìĤ´ ìĿĺ
Ġíİ¸ ë¦¬
Ġë³´ëĦĪ ìĬ¤ë¥¼
Ġìŀ¥ ì¹ĺë¥¼
Ġì²´ ì½Ķ
Ġê³¼ ìĭľ
Ġê·¹ ì¤ĳ
íĦ´ ìĹĲ
Ġìļ° ìłķ
ë§¤ ìļ°
y l
ĠìĤ¬íĥľ ë¥¼
Ġëĸ¼ ìĸ´
ì§Ģ ìłķ
ĠìĹŃíķł ë¡ľ
ĠìĿ´ íĥĢ
Ġë£¨ ë¨¸
çī ©
Ġì£¼ íĮĮ
Ġë¹Ī ë²Ī
Ġì¹´ìĿ´ ìĤ¬
Ġìļ° ì¦Ī
ĠëĮĢ ëŁīìľ¼ë¡ľ
çĽ ¸
Ġëª» íķĺëĭ¤
196 8
íħ Ŀ
Ġë¬´ìĭľ íķĺëĬĶ
ì²´ ìłľ
Ġêµ° ëĮĢê°Ģ
íķĺê¸° ìĹĲëĬĶ
Ġê¸¸ ìĿ´ê°Ģ
ĠìĹĨìĸ´ ì¡Įëĭ¤
Ġêµ¬ ë¡ľ
Ġë¶Ħìķ¼ ìĹĲìĦľ
r en
ĠìķĦ íı¬
ĠëĤ¨ ìĸĳ
íģ´ ëĿ¼
ĠìķĦ ìļ¸
ê°ģ íĺķ
Ġíı¬ ìľł
ĠëıĮìķĦ ìĺ¤ëĬĶ
ĠìĦł ë¬¼ìĿĦ
ìļĶ ê°Ģ
Ġê³ł ìĤ¬
Ġê¸° êµ¬
ĠëĤ´ ë¦°ëĭ¤
ĠìĿ´ìª½ ëıĦ
ì¹Ń ìľ¼ë¡ľ
Ġë½ĳ ìĿĢ
ĠN HK
Ġì°¨ ìĹĲ
Ġì¡°ì§ģ ìĿĺ
ìķĦ ìĬ¬
Ġìĵ°ëŁ¬ ìł¸
Ġë¶Ī ëł¸ëĭ¤
ê³µ íķĻê³¼
íĿ¬ ìĻĢ
Ġì´Īëĵ± íķĻìĥĿ
ìļ ĺ
Ġíķľ ë°ĺëıĦ
ĠëĬ¥ëł¥ ì¹ĺëĬĶ
Ġìľłì§Ģ íķł
Ġìŀ¥ ìĿ¸
è ±
ç§ ģ
ĠíĻĺ ìĥĿ
E O
Ġê°ľë°ľ ëĲľ
ìĹ¬ ëĭ¨
Ġë¯¸ë£¨ ìĸ´
ĠìĿ´ ë§Ī
Ġíĳľ ìłķìľ¼ë¡ľ
Ġìĸ¸ê¸ī ëĲĺëĬĶ
Ġê´ĳ ë²ĶìľĦ
Ġê³¼ ìĸ¸ìĿ´
Ġë¶ ī
êµĲ ë¡Ńê²ĮëıĦ
ì·¨ ë¥¼
Ġj ust
ëłĪ íĥĢ
ĠìĬĪ íĬ¸
ĠëĬ ª
Ġ6 7
Ġëĭ¬ ëŁ¬ë¥¼
ĠìĦľë²Ī íĬ¸
ĠìĹ´ ë¦°ëĭ¤
ëĲĺìĹĪ ìĬµëĭĪëĭ¤
A W
ê» į
Ġëªħ ìĦ±ìĿĦ
ĠìĨĮìĦ¤ ê°Ģ
ĠíķĦ ëĵľìĹĲ
Ġê´´ ë¡ľìĽĮ
Ġëĸ¡ë°¥ ìĿ´
ëĭĪ ìĬ¤íĬ¸
ãĥ ĩ
ĠìļĶ ê²©
ĠìĿ´ ë°©
ê°Ĵ ìĿ´
ìĪł ë¡ľ
æ± Ł
ëŁ¬ ìĻĢ
ëħĦ ìĹĲìĦľ
Ġíĸī ë³´ë¥¼
Ġìłģìļ© ëĲĺì§Ģ
Ġìĥģíĥľ ìĿ´
ì°¬ ìĿĦ
Ġìĸ´ì§¸ìĦľ ìĿ¸ì§Ģ
ìĪ į
ĠìĽĲ ëĤ´
Ġ8 2
Ġê³ł ê°Ģ
ìĹħ ìŀĲ
Ġìĵ° ìĺĢëĭ¤
Ġì§Ħíĸī ìĿĦ
Ġ9 00
Ġê¸Ģ ìŀĲ
ìľł ì¹ĺ
p ort
ĠíĮĮ ìĿ¼ìĿĦ
Ġëª» íķľëĭ¤ëĬĶ
ĠíĶĦë¡ľê·¸ëŀĺ ë°į
Ġíļ¨ê³¼ ëıĦ
ĠìĨĮìĦ¤ ìĿĦ
ĠìĿ´ ìĿµìĿĦ
æ ¢
ĠìĿ´ ëĨĪ
ĠìĿ¼ ì£¼ìĿ¼
us h
ëĵ¤ ë¦¬
ëį° ìĿ´íĦ°
ĠìłĦíĪ¬ ëł¥
Ġëĸł ëĤ¬
Ġëĵ¤ìĸ´ ë³´ë©´
ìŀĲ ìĭłìĿ´
Ġíķĺ ëĬĲ
ëĿ¼ìĿ´ ìĸ´
Ġê²½ê¸° ìĿĺ
ĠìķĦ ë©Ķë¦¬ì¹¸
íĨµ ê³Ħ
íĮĢ ìľ¼ë¡ľ
ĠíĶĦë¡ľ ìķ¼êµ¬
ĠìĹŃíķł ìĿ´
Ġê²° ìĿĺ
ë¹Ī ìĿĺ
ĠìķĪìłĦ íķľ
Ġë°ĺ ì¯¤
ê³ł ìĹĲìĦľ
Ġìļ° ìľł
ĠìĿ´ë¥´ ëłĢëĭ¤
ĠìĥĿ ìķł
Ġê¼½ íŀĮëĭ¤
Ġëĭµ ê²Į
Ġë¶Ħ ìĭł
ĠìĿ¸ë¬¼ ëĵ¤ìĿ´
æ° ĳ
ĠìĦŀ ìĿ¸
æ Ł
íķ´ ë²Ħë¦°ëĭ¤
ĠìĦ±íĸ¥ ìĿĺ
Ġë§İ ëĭ¤ê³ł
ĠíħĮ ìĺ¤
Ġìĥģëĭ¹ ìĪĺ
Ġìľłì¹ĺ ìĽĲ
ê¸°ëıĻ ìłĦìĤ¬
ĠìłĦ ê²©
Ġìķ½ ë¬¼
ĠìĿ´ë¦Ħ ìĿ¸
ĠíĤ¤ íĥĢ
Ġìĺ¬ëł¤ ì£¼ëĬĶ
ĠâĢ Ķ
ĠìŀĲìĦ¸ ë¥¼
Ġ https
ë§Ī íĤ¤
Ġì¡° ëįĺ
Ġëħ¸ìĦł ìľ¼ë¡ľ
ĠëĤ´ ë¦¬ê³ł
Ġë©Ķ íĬ¸ë¡ľ
ì»¤ ëħķ
Ġë²Ĺ ê²¨
Ġë°ĸ ìĿĺ
ë°Ľ ì¹¨
íĬ ł
Ġë¶Ī íıī
or s
Ġëĭ¨ ìŀ¥
ê²¼ ê³ł
ĠG irl
ĠìĹĶ ì§ĦìĿ´
ĠìĿ´ëķĮ ë¶ĢíĦ°
ĠTe am
ĠìĹ° ê´ĢìĿ´
Ġíĸīë³µ íķľ
Ġê³µ ìĨĲ
ĠëĮĢíĳľ ë¡ľ
iel d
P l
ë°ĺ ìĿĳ
ë³´ ìķĪ
ĠëĳĲ ëĩĮ
ĠëĴ¤ ìĹĲëıĦ
íĬ¹ ì§ķ
Ġíı¬íķ¨ ëĲľëĭ¤
ì ĮĢ
Ġë¬´ ìĨĮìĨį
Ġíķĺ ìĤ¬
Ġë³´ ìĺĢìľ¼ëĤĺ
Ġìĺ¤ ê°Ģ
Ġëĭ¤ëĭĪ ìĹĺ
ĠìĦ¸ê³Ħ ê°Ģ
æ ı
ĠI P
ĠíĮĮ ëıĻ
Ġë§Īë²ķ ìľ¼ë¡ľ
Ġì¶ľ ìłľ
ĠìķĦëĤ´ ê°Ģ
ĠëĤ¨ ìĿĺ
Ġëĸ¨ìĸ´ ìł¸ìĦľ
Ġìĭł íķĻ
Ġê°Ģ ëĤĺ
ĠìłĦ ê°ľê°Ģ
Ġëĵ± ì§ĢìĹĲìĦľ
ĠìķĬ ê²ł
íļį ëĵĿ
ëłĮ ìĿĺ
D J
r is
Ġì§Ģ íĤ¬
Ġë°ľíĳľ íķĺìĺĢëĭ¤
ë²Ħ ìĬ¤ë¥¼
ìĺ¤ ë¥´ëĬĶ
ë°Ķ ì§Ģ
Ġë¶Ī íĥĢëĬĶ
ĠìĿ´ ìĨĮ
Ġ195 6
ë¦¬ìĬ¤ íģ¬
ĠìĤ¬ ìļ´
ì¹¸ ìĦ¼
ìĬ¤ íĶĦ
ĠëĽ° ëĬĶ
íĻķ ë¥ł
Ġëį¤ ë²¼
Ġ8 1
Ġìļ´ ëªħìĿĦ
Ġìµľ ìłĦ
Ġê³Ħíļį ìĿĢ
Ġìļ° ë¦°
Ġì¤Ħìĸ´ëĵ¤ ìĹĪëĭ¤
Ġë¶Ļìĸ´ ìŀĪëĬĶ
Ġì¶Ķê°Ģ ëĲĺìĸ´
ĠìĹ° ìĦ¤
ç ¯
el f
ìĭ¬ ê³¼
ĠíĮ¨ ì¹ĺë¥¼
ĠíıŃ ìĬ¤
Ġë°ľ ê°Ħ
ì§ģ ìĽĲ
ĠëłĪ ìĬ¤íĨł
196 9
Ġíĥľ ëıĦ
ĠíħĮ ìĿ¼ëŁ¬
ĠìķĦ íı´
åĽ Ľ
æŀ Ĺ
ĠìĿ¼ ìĤ¼
ëħĦ ìĹĲëıĦ
Ġê±° ê¾¸ë¡ľ
ĠìĤ¬ìĿ´ ì¦Ī
Ġì¸ ¤
ĠìľłëĭĪ ì½ĺ
ë¯¸ ì¸ł
ĠìĺģìĽĲ íķľ
19 45
ĠìĥģëĮĢ ë°©ìĿ´
Ġë¬´ìĬ¬ ë¦¼
G O
Ġì¹ľêµ¬ ë¥¼
Ġ áĦ
Ġë¨¸ ë¦¿
ìµľ ê³ł
ĠìĦľ ë°ĶìĿ´ë²Į
Ġìł ¬
Ġê²° ìłľ
Ġìļ© ëıĦ
ç¸ £
ë¦¬ ìĤ¬
Ġìĺ¤ ëĶĶìĺ¤
Ġìĺ¤ ëħ¸
ĠìĹ° ëıĻ
ĠìŀĪìĿĦ ì§Ģ
Ġìĺģíĺ¼ ìĿ´
ëĤĺ ëĿ¼ëĬĶ
Ġì£¼ ë¥¼
ĠëĴ¤ ìĿ´ìĸ´
Ġìĥģ ìĦ¸
Ġì¹´ ìĤ¬
ìĬ¨ ê³¼
Ġê¶Į ë¦¬
Ġì¡´ìŀ¬ íķĺëĬĶëį°
ë²Ī ìĹŃ
ê³¡ ìĿ¸
ĠìļĶì²Ń ìĿĦ
ĠíĶ¼ íķĺëĬĶ
ĠìĹ°ê²° íķĺëĬĶ
ĠìķĦìĿ´íħľ ìĿĢ
Ġìĺģìĥģ ìĿĢ
ĠìĿ¼ìľ¼ ì¼°ëĭ¤
íĻ© ìłľ
ê³µ ìŀ¥
197 1
Ġëª°ìķĦ ë¶Ļ
Ġìļ´ ë°ĺ
ë£¨ ìĬ¤ìĿĺ
ë°© ìľĦ
Ġê¹İ ìķĦ
Ġìº £
Ġë³µ ìŀ¥
æĿ ¾
Ġë¿Ĳ ìĿ´ìĹĪëĭ¤
ĠìĭľìĬ¤íħľ ìĿĺ
Ġì£¼ë¯¼ ëĵ¤ìĿ´
Ġê³ł ìĬ¤
ĠS ingle
Ġë¹Ħ ì°¸
ãĥ ĳ
ĠìĽĲ íĺķ
ĠìĨĮìĨį ìĤ¬
ìłķ ìĽĲ
Ġìĭľë¦¬ì¦Ī ìĻĢ
ĠíĹ¬ ë¦¬
ĠíĶ¼ ëĭĪ
Ġê²°ìĬ¹ ìłĦìĹĲìĦľ
ĠëĬ¥ëł¥ ì¹ĺë¥¼
Ġê¼´ ì°Į
ĠìĺĪ ìģľ
ì½ľ ëĿ¼
ĠìĪĻ ì²Ń
Ġìĭł ìĦ¸
ì¹ĺ ëıĦ
ĠUS B
ĠìĦ± ìĨĮìĪĺ
êµŃìłľ ê³µíķŃ
Ġíķ© ìŀĳ
ir st
Ġwh at
r d
ë²Ħ ìĿĺ
Ġìĭľì¦Į ìĿĺ
ìĥģ íĴĪ
Ġì§Ħíĸī íķľ
Ġëªħ ëĭ¨
ĠíķĦ ëĳĲë¡ľ
ê·¼ ìłĳ
ĠP V
ĠëĶĶë²Ħ íĶĦ
é ¤
ìĭł ê²½
ĠT o
Ġë°ĶëĿ¼ ë³´ëĬĶ
m l
ĠìķĦë§Ī ì¡´
Ġìĥģ ìŀĲë¥¼
ì½Ķ íĶĦ
ĠëĨĴ ì§Ģë§Į
ãĤ Ģ
ìĸĳ ìĿĢ
Ġë³ĳ ìĹŃ
ĠìĿ½ ìĿĦ
ì½ĺ ìĦľ
Ġìĭ«ìĸ´ íķľëĭ¤
E x
ĠëķĮë¬¸ ìĿ¸
Ġì¤ Į
ĠíķĻ ë¬¸
ĠìĪ¨ ê¸°ê³ł
ĠL CK
Ġëį± ìĹĲìĦľ
æ ĭ
ëĦ¤ ëįľ
ĠíĮ¬ ëĵ¤ìĿĦ
Ġìļ°ëł¤ ê°Ģ
Ġì¸¡ ìĹĲìĦľëĬĶ
íĭ° ìĺ¤
Ġì§§ ìķĦ
Ġì§Ģìĥģ íĮĮ
Ġíķ© ë²ķ
Ġì§Ģ ìļ°
ĠìĻ ĵ
ìĨĮ ìĬ¤
ìĦ¸ ëĮĢíķĻêµĲ
Ġíıī ë¡łê°Ģ
ĠìĤ¶ ìĿĺ
Ġìĥģ ëĭ¨
Ġë¯¼ì£¼ íĻĶ
ëĤĺ ë¦¬
ëĮĢ ìĤ¬ê´Ģ
ê·ľ ê°Ģ
ĠìĿ´ ëĿ¼
ĠìĥģìĪł íķľ
ĠìĬ¹ë¦¬ íĸĪëĭ¤
ĠìĽĢì§ģ ìŀĦìĿ´
Ġìĺ¤ë¥¸ íĮĶ
ä» £
ë£¨ íĥĢë¥¼
ìĭł ëıĦìĭľ
Ġê²Įìĭľ íĮĲ
H T
ìłĦ ëŀµ
Ġìĭľ ë°Ķ
ĠìĹ¬ìŀĲ ì¹ľêµ¬
r ing
Ġë§Ī ìľł
ĠíĬ¹ìĿ´ íķĺê²ĮëıĦ
Ġì°į ìĹĪëĭ¤
Ġë¶Ī ë¦´
Ġìĺ¬ ë¦¼
ëĵ±ìŀ¥ ìĿ¸ë¬¼
Ġìĭ¬ íķĺëĭ¤
Ġìĭł íķĺ
ĠìĤ´íİ´ ë³´ë©´
ĠíĶĦëŀľ ì°¨ìĿ´ì¦Ī
ĠìĭĿ ìĤ¬ë¥¼
ìĦ¼ ìĬ¤
ĠìķĬ ê±°ëĤĺ
ë°ľ ìĤ¬
Ġê³ł ìĿ¸
Ġíĥ± íĤ¹
ĠìĿ¼ ì¡±
Ġì¤Ħìĸ´ ëĵł
O VE
ĠëıĻ ìłķ
ĠëĶ°ëĿ¼ ê°Ģ
Ġì§ ¬
Ġëĸł ëĤĺëĬĶ
ĠíĻľìļ© íķľ
ĠìŀĲ ìķĦ
Ġê·¸ ë§ĪìłĢëıĦ
ĠìĪĺì¤Ģ ìĿĦ
ì°¨ ìĻĢ
ĠíĶĦëŀĳ íģ¬
ìĥ· ìĿĦ
ĠìĽĮ ë¦¬ìĸ´
Ġ194 2
ĠìŀĦ ê¸Ī
Ġë°° ê¸ī
th e
Ġê²ĥìĿ´ ëĭĪ
ĠìĤ¬ ì§ģ
ĠìĹĳ ìĭľì¦Ī
ãģ µ
Ġë°ĺ ëıĻ
Ġë°Ģ ë¦¬ìĸ¸
ãĥ ¢
ĠëĤ¨ ìķĺëĭ¤
ĠíĨł ë§ĪìĬ¤
ĠìŀĪìĸ´ ìļĶ
åı ²
ĠìľĦ íķ¨
Ġìĥ· ê±´
ë½ ķ
Ġìŀ¬ ìĪĺ
Ġê³Ħ ìłĪ
ĠíĸīëıĻ ìĿĢ
ĠìĺĪìĥģ ëĲľëĭ¤
Ġë¶Ģíĥģ íķľëĭ¤
Ġê°ľ ê´Ģ
ë§¨ ê³¼
+ +
ĠìłĪ ëĭ¨
ĠíĮ¨ë°° íķĺê³ł
ĠëĤłìķĦ ê°ĢëĬĶ
Ġë§Ī ë¬¼
Ġë°ľê²¬ ëĲľëĭ¤
Ġê´ľì°® ìķĦ
Ġê±¸ ë¦¬ë©´
le ct
íļ¨ ìľ¨
Ġíİĺ ìĸ´
ĠëĤ´ ë²Ħëł¤
ĠìĦ¸ ì»¨
ĠíĺĦ ìŀ¥ìĹĲìĦľ
ìº ĺ
Ġì£½ìĿĮ ìĹĲ
ĠëĤĺ ê°Ķëĭ¤
Ġì¶Ķ íĽĦ
ĠA N
ĠìĿ´ ê·¸
in c
~ !
ĠìĿĳ ëĭµ
ĠìĦ±ìŀ¥ íķľ
åħ «
Ġë¦¬ ë³¼
Ġìĭ¬ ìĿĺ
Ġíĳľ ì°½
åĮ ĸ
ĠìłĦ ìĦł
ëłĪ ë¸Ĳ
ĠëĤ¨ ìĦľ
Ġë¹ĦìĬ· íķĺì§Ģë§Į
Ġì¦Ŀê°Ģ íķĺëĬĶ
ê·¸ ëĮĢë¡ľ
ãĥ §
ìĭľì¼ľ ìķ¼
Ġê·¸ë§Į ëĳĲ
Ġìłķ ëĭµ
Ġë°Ķ ë¡ł
Ġê³µìĤ° ëĭ¹
Ġíİ¼ ì³¤ëĭ¤
ĠëĶĶìŀĲìĿ¸ ìĿĢ
ìº ĩ
ĠìľłìłĢ ìĿĺ
.( âĢ¦)
ĠìĦ¸ê³Ħ ìłģìľ¼ë¡ľ
ĠëĤ´ìļ© ìĹĲ
ĠíĶĦë¦° ìĦ¸ìĬ¤
ìĿ´ ëĬĶëį°
ĠìĪĺë¡Ŀ ëĲĺìĸ´
ĠìŀĲ ê³ł
Ġì´Ī ëŀĺ
197 5
ĠíĮ ¡
Ġì»´ ë°±
Ġê°Ģ íŀĪ
Ġíĥľìĸĳ ìĿĺ
ĠìĥĿ ëªħìĿĺ
ĠíĮ¬ ëĵ¤ëıĦ
ë§¤ ìĿ¼
Ġì½ľ ë¡¬
ĠìľłëĭĪ ë²ĦìĬ¤
Ġê¸° ìģ¨
ë³´ ê±´
Ġì½¤ ë³´ë¥¼
ëįķ ë¶ĦìĹĲ
Ġê·¸ ëŀľ
Ġë°° íĦ°
ĠìĨĮ ëĤĺ
Ġ10 5
ì²ł ìĿĢ
ub e
ĠìĹ° ë§Ĳ
g ain
ìĥģíĥľ ê°Ģ
ìĦ± ìŀ¥
Ġìļ° ì£¼ìĿĺ
Ġìŀĺ ìĥĿ
ĠíĴĭ ë³¼
ìŀĲ ìĭł
Ġíģ´ë¦¬ ìħ°
Ġìĭľì²Ń ìŀĲëĵ¤ìĿ´
ë¯¸ íĬ¸
ĠëĦĪ ëıĦ
ìĪĺ ìĤ°
Ġì§ĢëĤĺ ì¹ľ
ĠìĹ¬ê²¨ ì§Ħëĭ¤
ê¸° ìķĦ
Ġì¸ Ħ
Ġíĩ´ ì¹ĺ
Ġëĭ¤íģĲë©ĺ íĦ°ë¦¬
Ġë¡ľ ìļ°
le y
Ġì¶© ìĭ¤
Ġì¼Ģ ë¦¬
íĮĮìĿ´ ëĦĲ
ĠìĦ¸ë¥´ ë¹ĦìķĦ
Ġ9 2
Ġíģ¬ ëĿ¼ìļ´
íļ Ł
Ġê³¼ëıĦ íķľ
Ġë¦ ¼
ĠìĹ´ íĺĪ
ĠìľłìłĢ ëĬĶ
Ġíŀĺëĵ¤ ê³ł
ê´ĳ ìĿ´
ì½Ķ ë¯¸
ĠìĬ¤íĥĢ ëĶĶìĽĢ
Ġë¡ľ ë³´
Ġë§ĮëĤ¬ ìĿĦ
Ġì¤ĳ ê³ł
Ġê°ķ ë¯¼
an e
ëħ¸ ë²¨
ë¶Ī ëªħìĿĺ
a j
ëĦ ĵ
Ġê²ĥìĿ´ ì§Ģë§Į
éĢ ļ
ĠìĪĺ ìĭľë¡ľ
ìĹĶ ì§Ħ
ëª» íķ´
Ġë°Ķëĭ¥ ìĿĦ
ĠìĬ¤íĬ¸ë¦¬ ë°į
ĠìĬ¤íĥĢ ìĿ¼ìĿĦ
Ġë³Ģ íķĺì§Ģ
ĠT R
Ġë¶Ģ ìŀ¬
Ġë¦¬ ìħĭ
Ġë²Ī ìĶ©
ëĿ¼ìĹĲ ëª½
íĽĦ ì§Ģ
ë§Ī ë¸Ķ
ĠëıĮìķĦ ê°Ķëĭ¤
ĠìĿ¸ íħĶ
íĨł ë¡Ŀ
Ġì£¼ íĻ©
ĠìĨĮ ìĥĿ
ë°© ìĭĿ
Ġì¤ĳ ìĹĲìĦł
ĠìĹ¬ ê¸´
Ġ Ã
ë³´ ìĪĺ
ìĬ¬ ë¡¯
Ġìĸ´ëłµ ëĭ¤ëĬĶ
Ġíķ´ë³ĳ ëĮĢ
Ġë¡ ¬
ĠìĤ° íĥĢ
Ġê°ľë°ľ ìĿĦ
new s
ĠìĿ´ ì¼Ģ
íķ´ ìĸĳ
ëĲĺ ëĭĪ
Ġê³ł ìĿĺ
ĠìľĦì¹ĺ ëĬĶ
å¸ Ĥ
Ġë¯¸ ìĨĮë¥¼
Ġíħį ìĤ¬ìĬ¤
ĠëĿ¼ ê·¸ëĤĺ
ĠìĿ¼ë³¸ ìĿĦ
íķĺ ëĭĪê¹Į
ĠìłĢ ìĬ¹
w ard
íĸĪ ìĿĮìĿĦ
Ġë½ĳ ê¸°
Ġëĭ¤ ë£°
ĠìľĦ ìĻĢ
ìľł ì§Ģ
Ġê²ĥìĿ´ ë¯Ģë¡ľ
Ġê¸°ëĭ¤ ë¦¬ëĬĶ
ĠëĬĺìĸ´ëĤĺ ê³ł
ĠëĤ¨ ìŀĲëĬĶ
ĠìĨĮ ëĭĪ
ĠìĪľ ìľĦê°Ģ
Ġì¤ĳë°ĺ ìĹĲ
Ġìĺ¨ ì²ľ
ĠëĮĢìĭł íķ´
ĠíĬ¸ ëłĮ
Ġ195 9
ĠëĪĪ ìĿĺ
Ġì¡°ì¢ħ íķĺëĬĶ
ĠìŀĪëĬĶ ê²Į
Ġê°ľ ìĪĺ
ë½ Ģ
ìĦ± ê³µ
íĻĶ ëıĦ
ĠìĦĿ ìľł
ĠëĲĺ ê²Į
ĠìĿĺë¯¸ ìĿĺ
ëĤ¨ ìĿĺ
Ġì¡´ìŀ¬ íķĺê³ł
è ¾
Ġìĸ´ëł¤ ìĽĢìĿĦ
Ġëħ¸ë¬´ íĺĦ
ë¶Ģ ì¡±
ëĴ Ģëĭ¤
Ġë§Ī ìĬ¤ì½Ķ
ìĦ¸ ì¢ħ
ran s
Ġê³µ ì¤ĳìĹĲ
Ġë¬¸ íĻĶë¥¼
ëĭĲ ëĿ¼
Ġìŀħ íŀĪëĬĶ
Ġê°Ħ ì§Ģ
ìĤ¬ë¬´ ìĨĮ
ĠìĿ¼ íķĺê³ł
íĬ¹ ìłķ
íĿ Ļ
Ġê¸°ë¡Ŀ íķĺë©´ìĦľ
ìĿ¸ ëĵ¤ìĹĲê²Į
íĭĢ ëŀľ
Ġìĺ¬ëĿ¼ ê°Ķëĭ¤
ĠìĤ¬ ìłķìĿĦ
ìĸµ ìĽĲ
ĠíĺĦìĭ¤ ìĿĺ
Ġì¹´ íĶ¼
ĠëĮĢ íı¬
ìļ´ ìĪĺ
Ġëª¨ë¥´ ê²ł
ĠìĦ¸ìĽĶ íĺ¸
A B
ĠíĶĦë¡ľíĨł ìĬ¤
ĠìĭľìĬ¤íħľ ìĿĢ
ffff ff
ëª¬ ìĿĦ
Ġì§ĢìĽĲ ìĿ´
Ġì¸¡ ìĿ´
İ Ħ
ì¿ µ
ĠëĤ´ ê¸°
ëĵ± íı¬
ë§ģ ìĿĺ
ĠìļĶì½Ķ íķĺë§Ī
V S
c y
ĠìłĦ íķ´ì§Ħëĭ¤
Ġíĺĳ ëıĻ
íļĮ ìĻĢ
ĠìĥĿê°ģ íķĺë©°
ìĪľ ìĿ´
íĶĦê°Ģ ëĭĪìĬ¤
Ġê³µ ì§ľ
ĠêµĲ íĸ¥
Ġíķĺ ìĬ¤
Ġë¶ ĵ
ĠìĨĮ ê¸Ī
ĠìĿ´ ìĿĺ
Ġì°¨ì§Ģ íķľëĭ¤
ìĸ´ë²Ħ ë¦´
ê¸° ëıħêµĲ
íķĺ ëĬĲëĿ¼
Ġëª» íķĺìĺĢëĭ¤
Ġíķĺ ëŁ¬
ìĭľíĤ¤ ë©´ìĦľ
Ġëĭ¤ë¥¸ ëį°
ĠL IVE
Ġëħ¸ ë°Ķ
.. )
íķĦìĤ´ ê¸°
ĠìĿ´ ëħĲ
ĠìĹħëį°ìĿ´íĬ¸ ê°Ģ
ĠìĦł ì¡°
Ġê±¸ë§ŀ ê²Į
ë¦¬ ëĭ¤ê°Ģ
ĠëıĦ ë£¨
Ġì§Ģì§Ģ íķĺëĬĶ
Ġíķľ ëĭ¬
ìľ ķ
Ġì°¸ê°Ģ ìŀĲ
Ġìłľ ëıĦë¥¼
ĠìłĦ ëĳĲ
ĠìĺĪìłķ ìĿ´ìĹĪìľ¼ëĤĺ
ĠíķĺëĬĶ ê²Į
ĠëĤĺìĦľ ìĦľ
åı ¸
ĠA m
Ġìĭľê°Ħ ëĮĢ
Ġë¹Ħë¡¯ íķĺìĹ¬
Ġë¶Ģ ëĮĢê°Ģ
Ġ8 6
Ġìĥ¤ ìĺ¤
áĨŀ áĨ
ĠìĿ´ ìĸ´ëĤĺ
ëĦ¤ ìĻĢ
Ġì´Ŀ ê´Ħ
ĠíĻķìĿ¸ íķĺê³ł
ut e
ĠíĶ¼ ê³ł
ĠìĺĨ ìľ¼ë¡ľ
ìĬ¬ ìĿĦ
åĲ į
ĠìłĢ íķĺ
i am
íį¼ ëĬĶ
íļĮ ê¹Įì§Ģ
ìĹ¼ ìĿĦ
ĠìĨĮíĻĺ íķĺëĬĶ
Ġê·¹ ëĮĢíĻĶ
Ġì£¼ ìĹĲ
ì¹ ©
Ġë¯¸ ëģ¼
çĽ ®
ĠíķĦ ë¦Ħ
Ġ0 7
Ġë¹Ħë¡ľ ìĨĮ
Ġë§¨ ì²´ìĬ¤íĦ°
ë§Ī ë¦¬ë¥¼
Ġë°ĳ ìľ¼ë¡ľ
êµŃë¯¼ íķĻêµĲ
ë°± ìĿĺ
ĠìĤ¬ ìķħíķľ
Ġíķ´ ë³´
Ġìŀ¬ë£Į ë¥¼
Ġ195 2
ĠíĶĦë¡ľ ìĿ´ìĦ¼
ĠìĿ´ìĤ¬ ìŀ¥
ĠìĹ´ ëĮĢ
Ġë¯¼ ë³ĳ
ĠíĥĢìĿ´ ìĻĦ
ì½Ķ ëħ¸
ĠìĹĶ ì§ĢëĭĪìĸ´
Ġê·¸ ëĵ¤ìĹĲê²Į
ìĻĶ ìĿĦ
æĶ ¿
ĠíıīìĨĮ ìĹĲëĬĶ
Ġë¸ĶëĿ¼ ëĶĶ
Ġë¯¸ ëŁ¬
or ea
ë°© ìĤ¬
Ġê¿° ëļ«
ĠìĦ± ê²½
ĠëĤĺ ìĦ°
ĠëĤ´ ë°Ģ
Ġë³Ģ íķĺëĬĶ
Ġë§¡ ê²¨
ìŀ¬ ëĭ¨
ëŀĢ íķľ
ĠìĿ´ ìĦ¸ê³Ħ
Ġë°ķ ì§Ħ
19 50
ãģĦ ãģŁ
Ġì§Ģ ê·¹
ĠìĿĮ ëł¥
ëŀĳ ìĿĦ
é §
Ġê²Ģ ìłķ
ĠìŀĲ ê²©ìĿĦ
om b
Ġíı¬ ë§·
ìķ ĬìĿĢ
å ¡
Ġë¬¸ìłľ ìłĲìĿ´
Ġë§ī íĮĲ
ĠìµľìĨĮ íķľìĿĺ
Ġìłķ íķľ
Ġê·¸ ë£¨
Ġì²ĺë¦¬ íķĺëĬĶ
ĠëĤł ë¦°
Ġìłķë³´ ëĬĶ
íķĺëĭ¤ ë©°
Ġì§ģ ìŀ¥
Ġë§ŀì¶Ķ ê¸°
ê³µ ë¬´ìĽĲ
ĠìĤ¬ë§Ŀ íķĺê³ł
ì¶ľ ìĭľ
ĠëĮĢ ëªħ
Ġëªħ ëĤĺëĿ¼
ì¿ł ëĭĪ
Ġë¶Ļ ìĸ´ìĦľ
ĠíĿ¡íĺĪ ê·Ģ
Ġ194 7
ìķħ ë§Ī
Ġêµ¬ì¡° ê°Ģ
v iew
ĠìĪĺ ëĭ¨ìĿ´
Ġ9 4
ç ĭ
ĠëģĿëĤ´ ê¸°
Ġìĭľ ëıĦë¥¼
S R
ĠM k
ĠO ok
ë°©ìĨ¡ ìĿĦ
Ġìĥģê´Ģ ìĹĨ
ç Ĩ
ë³µ ìĿĢ
ĠíĻľìļ© íķĺëĬĶ
íĺ¸ ëıĦ
Ġê°ľìĿ¸ ìłģìĿ¸
Ġë¬´ìŀĳ ìłķ
íĸī ìľ¼ë¡ľ
ĠíĮ¨ë°° íĸĪëĭ¤
ĠìļĶêµ¬ íķľëĭ¤
ĠìŀĶ ë¥ĺ
is ion
ĠíĻĶìŀ¥ ìĭ¤
íģ´ëŀĺ ìĬ¤
t a
Ġíģ¬ ê¸°ìĿĺ
ĠO f
ĠìķĪ íĨłëĭĪ
Ġ7 8
ìĿ¼ ê°Ħ
ë²ł ë¥´íĬ¸
ĠêµŃê°Ģ ë¥¼
ĠII I
íĭ° ìĹĲ
Ġìĭ±ìĸ´ ìĨ¡
ìĹĲíĶ¼ìĨĮ ëĵľ
íķ´ ë²Ħë¦°
Ġëª¨ëĳĲ ìĿĺ
Ġê·¸ë¦¬ íķĢ
Ġë§Ĳ íķĺì§Ģë§Į
Ġë©Ķ ìĦ¸
ĠìĿ´ ë³µ
ìļĶ ìĽĲ
Ġëĭ¨ ìłĲìĿĦ
íķŃ ëª©
Ġëª¨ë¥¸ ëĭ¤ê³ł
Ġíķ´ ëıħ
Ġë¶Ī íĥĢ
ë©Ķ ëŀĦ
ê¶ģ ìĿĦ
on y
Ġë²ł ì§Ģ
á »
Ġì¹ľ ìłĪ
Ġì¶ľ ìĦĿ
ĠìĽĶ ê°Ħ
ĠëĦ¤ íģ¬ë¡ľ
ĠìłĦ ìĨį
Ġìĥģ ìĭľ
ìłķ ëıĻ
ì¤Ģ ìĿĦ
Ġë®¤ ì§Ģìħĺ
Ġë¬» íĺĢ
Ġë§Ī ë¥´íģ¬
Ġë°ķ ìķĦ
ĠìľłëĭĽ ìľ¼ë¡ľ
Ġìĸ´ëĵľ ë°´
Ġê³Ħíļį ìĹĲ
ìĿ¼ ìłľ
íĻ© íĽĦ
ĠíĨ ¡
ê²½ ìŁģ
ë§Ī ë±Ģ
è Ĥ
ëªħ ëıĦ
Ġê´Ģëł¨ íķĺìĹ¬
Ġì£¼ìĿĺ ë¥¼
Ġë£¨ ë¹Ħ
ĠëĮĢë¯¸ ì§ĢëĬĶ
ìĬ¤ëŁ½ ëĭ¤
ĠìĤ¬ìļ© íķĺìĺĢëĭ¤
Ġm an
Ġê²½íĹĺ ì¹ĺë¥¼
ĠëģĿ ìĿĦ
ĠìĦľ ë°©
Ġìŀ¥ ë¹Ħê°Ģ
ê²Ģì°° ì²Ń
Ġì¹ĺ ëłĢëĭ¤
ì°½ ìĿĺ
ĠìŀĲ ë¶Ģ
Ġíļ¨ìľ¨ ìĿĦ
ìļ© ê³¼
ĠìĽĲìŀĳ ìĹĲìĦľëĬĶ
ìķĦ ìĺ¤
ìĽł ëĭ¤ê³ł
ĠìĦłê±° ìĹĲ
ìŀ¥ ìĨĮ
Ġìĥģ ìĨį
ĠìĿ¸ì²ľ ê´ĳìĹŃìĭľ
Ġì£¼ ëł¥ìľ¼ë¡ľ
at tle
ë²½ ìĿ´
ĠëĪĪ ë¹Ľ
ìĦłê±° ìĹĲìĦľ
Ġì§§ ê³ł
íĬ¸ ëłĪìĿ´
Ġë§ī ì§Ģ
Ġíķĺ ëł¤ëĬĶ
ĠëĮĢ ìĭľ
ĠíĬ¹ ê³µ
Ġíķľ íķ´
ĠëĦ ¬
ĠìłķíĻ© ìĥģ
Ġëª¨ ë¹Į
ë§Ĳ ìĿĺ
ĠìĬ¤ìľĦ ì¹ĺ
Ġì§Ģêµ¬ ìĹĲ
ĠëĬ¦ ìĿĢ
Ġê±° ëĬĲ
Ġìĸ´ëĶĶ ìĹĲ
ĠëĤĺ ìĹ´
ë¬´ ê¸°ë¥¼
Ġíķ´ ë³Ģ
íĪ Ń
ì¹ĺ ìĺ¤
Ġëª¨íĹĺ ê°Ģ
ë¶Ģ ë¥´
íĦ° ìĹĲìĦľ
ìķĪ êµ°
Ġëªħ ìŀ¥
Ġë¹ł ì§Ģê²Į
íĶĮ ë¦¬
íķĺëł¤ ëįĺ
ĠíĮ ģ
ìĹĺ ëĿ¼
ê°Ķ ì§Ģë§Į
ĠìĤ¬ìļ© íķĺê²Į
ë¶Ħ ê¸°
ëł¤ ëįĺ
ëĵľ ìĹĲê²Į
Ġì¶Ķ ì¶ľ
Ġì§Ħíĸī ìĿ´
ĠìĬ¤ ì¹¼
Ġë¹Ħ ìļ©ìĿĦ
Ġëĭ¹ìĭľ ìĹĶ
ĠìĻĦ íĻĶ
Ġìłķ íķ´ìł¸
Ġê±° ì¹ł
Ġë§µ ìĿ´
A F
Ġê°ķ ëıĻ
Ġìłķ ë°Ģ
Ġë¹Ī íĭĪ
Ġíĺ¸ ëŀĳìĿ´
ê³¨ ìĿ´
ìļ´ëıĻ ìĿĦ
ëĤ Į
ê²½ ë¹Ħ
Ġ7 4
Ġë§Ĳ ëł¤
Ġìŀ¬ ì¦Ī
Ġë§Īì§Ģë§ī ê¹Įì§Ģ
n ing
ê°ľ ì¡°
Ġê¸° ë¥¼
ì²ĺìĿĮ ìĹĲëĬĶ
íĮ¨ ì¹ĺ
ĠëĮĢêµ¬ ê´ĳìĹŃìĭľ
ĠíĶĮëĿ¼ìĬ¤ íĭ±
D R
Ġë¬´ ìĦł
ĠìĿĳ ê¸ī
ëĿ¼ ìĭľ
Ġë°© ìľ¼ë¡ľ
ĠìĬ¤ ëĦ¤ìĿ´
Ġê·¸ ëıĦ
ĠìĬ¤ ë°Ķ
ë¦° ëĭ¤ê³ł
Ġì§Ī ë³ĳ
Ġíģ¬ ë¡¬
ĠëĶ° ë¥¸ëĭ¤
Ġë³Ģ ìĿ´
ĠíĻķë¥ł ìĿĢ
Ġìĺģ íĨłë¥¼
ëª¨ ë°ĶìĿ¼
Ġíı¬ íĦ°
Ġíķ© ì¹ľ
Ġ us
ìľµ íķ©
Ġìĭľ ëĦ¤ë§Ī
Ġìĺ¤ ëĭĪ
Ġëĭ¨ ëĭ¨
Ġíıī ìĿ¼
Ġíį¼ ë¶Ģ
Ġê°Ĳ íĸī
Ġê·¸ ëŀĢ
ìĥģ ìŀĲ
Ġê°ķ ìĦľ
ĠìłĢ ìĪł
Ġêµ¬ ìļ¸
Ġìłķ ì¹ĺê°Ģ
Ġìĺ¤ ìŀĲ
ãģ »
æ ¿
íĬ¸ ëŁ¼
íİ Į
ĠìķĦìī½ ê²ĮëıĦ
Ġìķŀ ìľ¼ë¡ľëıĦ
ĠëĵľëŁ¬ ëĤĺëĬĶ
i et
ìķĪ íĥĢë¥¼
Ġë³´ìĹ¬ì£¼ ê¸°ëıĦ
ëĬ ĳ
ĠíĶĦ ë¡¤
ĠíĿĳ ë§ī
íĳ¸ ë¥¸
Ġì§Ħì§Ģ íķľ
ĠìĺģíĻĶ ìĹĲìĦľ
Ġë°Ľìķĺ ìľ¼ëĤĺ
åĥ ķ
Ġìĸ´ ìĽĮëĵľ
ĠíĻĶë©´ ìĹĲ
ĠëĤľ ë¯¼
Ġìŀħ ìĸĳ
ĠëıĮ ìĿĦ
Ġë©Ģë¦¬ ìĦľ
ĠëĲĺ ìĤ´
ëĳĲ ìĤ°
Ġë°©ìĸ´ ë¥¼
ëį°ë¯¸ ì§Ģ
ĠìĿ´ ëĭ¨
ç¾ ħ
ê²© ìĿ¸
Ġìķ¨ë²Ķ ìĿĺ
ĠíĥĿ ìĭľ
ìĿ¼ ìľ¼
ìłĦ ì²ł
ìĤ° êµ°
Ġë¹ł ì§Ģê³ł
Ġê°ľìĹħ íķľ
Ġê¸°ë¡Ŀ íķĺëĬĶ
ãĥ Ģ
ãĢī ,
Ġìĭľ íĤ¬
ë°ķ ì¥Ĳ
ĠíĻĶë©´ ìĿ´
ĠëĶ° ëıĮ
ç Ĥ
o ad
ëĮĢ ë¶Ģ
Ġê¹Ģ ìĶ¨
ìĭ¤ ë¡Ŀ
ì»¤ ëĭĪì¦ĺ
Ġì¹´ ê²Į
Ġëį°ë·Ķ íĸĪëĭ¤
Ġê°ķ íĥĪ
ë§Ī ìĹĲê²Į
ar a
Ġì¹´ìļ´ íĬ¸
ìłģ ìľ¼ë¡ł
Ġë°ķ ì¢ħ
Ġ6 9
Ġíı¬ìĿ¸ íĬ¸ê°Ģ
Ġê²Ģ ìĪł
Ġê°ĢëĵĿ íķľ
ĠìĿ´ëŀĺ ìłĢëŀĺ
Ġë§ĲëłĪìĿ´ ìĭľìķĦ
Ġ7 3
ĠìľĦíĺĳ ìĿĦ
ĠíķĦ ëĿ¼
Ġm m
ĠëĤĺíĥĢ ëĤ¸ëĭ¤
ĠëĶ°ëľ» íķľ
ìĿ´ ìĸ´ìĦľ
ĠìĤ¬ ìľ¡
Ġë³´ ìĺĢì§Ģë§Į
Ġì¤ĳ íķĻìĥĿ
Ġë°Ķ ëŀĢëĭ¤
ì°½ ìĹĲ
ĠëĴ¤ ìĿ¸
Ġìĺ¤ ë¥¸ëĭ¤
Ġì§Ħíĸī íķĺê³ł
Ġë´ī ìĤ¬
ë°¥ ìĿĦ
V ER
ì²ĺ ìĬ¤
Ġë¸Ķ ëŁŃ
Ġì¶Ķêµ¬ íķĺëĬĶ
ë©´ ê³¼
Ġíķ´ ê³ł
Ġc olor
Ġíľĺ íķĺ
ĠìĤ¬ ëĤĺ
ëĵľ ë¦¼
ëıĻ ëĦ¤
Ġìľł ë¨¸
Ġìĭľë®¬ ëłĪìĿ´ìħĺ
Ð ¹
ìļ´ ìłĦ
ĠìĪĺì¤Ģ ìĹĲ
Ġ193 8
íļ¨ê³¼ ë¥¼
ĠëłĪ ìĬ¬ë§ģ
ĠíĤ¤ ë³´ëĵľ
ĠíħĮ ëĭĪìĬ¤
íĳľ ëĬĶ
Ġìŀ¬ëĬ¥ ìĿ´
ĠëĮĢ ìĿĺ
ĠìĽĲ ì£¼
Ġíķł ë¡ľìľĪ
ĠìĬ¤íĥ Ń
ĠíĴĢ ê³ł
Ġâ ħ
Ġíķĺ ì¸ł
Ġì²ł ê¶Į
ë©Ķ ëĭ¤
Ġê¿ ĩ
èĪ Ī
ĠëĬĺìĸ´ëĤĺ ëĬĶ
ĠíĶĦëĿ¼ ìŀĦ
ìķ ±
ëłĪìĿ´ íĬ¸
Ġì´Īë¡Ŀ ìĥī
ìļĶ ìĿĺ
ĠìĦł ë´ī
íķĺ ê²ł
ë¦¬ ì¡°
Ġí ĳ¼
ë²Į ìĿ´
ĠëıĦ íĬ¸
ĠìķĦ ëĭĺ
Ġíģ´ ëĿ¼ìĿ´
íķĺ ë¦¬
ĠìĥĿê°ģ íķ´ìĦľ
Ġìį¨ ë¨¹ìĿĦ
Ġìłģíķ© íķľ
ĠëĤł ê°ľë¥¼
ìĽĮ íģ¬
Ġë¨¹ ê¸°
ĠìķĦíĤ¤ ëĿ¼
æ² ³
ĠíĴįë¶Ģ íķľ
Ġëª¨ ì¹ľ
ĠíĮ¨ ë°Ģë¦¬
ëıĪ ìĿĦ
ou se
Ġìĺ¤ íķ´ë¥¼
Ġê·¸ë¦¬ íķĺìĹ¬
B I
Ġ7 1
ĠìŀħíķĻ ìĭĿ
ĠâĢ ¦
Ġì¤ĳ ëıĦ
ĠìĦ¸ ìĥģìĿĺ
Ġë©¤ë²Ħ ëĵ¤ê³¼
ë¨¸ ìĭł
ĠG S
Ġì£¼ ìľĦìĹĲ
Ġì±Ħ ë³´
Ġëī´ì§Ī ëŀľëĵľ
ĠëĶ¸ ìĿ¸
íĨłë¦¬ ìĸ¼
Ġë°ĶëŀĮ ìĿĦ
ĠëĨĪ ìĿ´
íĨµ ìĿĺ
Ġ( ...)
ìĸ¼ êµ´
ĠìĦ¤ìłķ ìľ¼ë¡ľ
ĠìĿ¼ ëł¨ìĿĺ
ìĹŃ ê¹Įì§Ģ
à ¤
ìĭ ¹
Ġê°Ģ ê²©ìĿĦ
Ġê´Ģ íķ´
ìĿ´íĥĪë¦¬ìķĦ ìĿĺ
ëĭµ ì§Ģ
Ġ195 3
Ġê°Ĵ ìĿĦ
ĠëĳĲ ë²Ī
ìĤ¬ê´Ģ íķĻêµĲ
ê·¼ ìĿĦ
Ġì¹ĺ ìķĪ
Ġëĭ¤ë£¬ ëĭ¤
Ġê±°ëĳĲ ë©°
å® ļ
ìĿ´ëĿ¼ê³ł ëĬĶ
ĠìĿĺë¯¸ ìĹĲìĦľ
b o
Ġ http
ĠìĿ´ ìĿ¸
Ġìĭľ ê³µ
Ġì²ľ ì£¼êµĲ
ëĮĢ ì¤ĳ
ê·¸ ëĿ¼ìļ´ëĵľ
ëĶĶ ìĬ¤íģ¬
ĠìĦłìĸ¸ íĸĪëĭ¤
Ġëĵľ ëłĪìĿ´
ĠìŀĦ ê¸°
ĠìĹĲ ë¯¸
Ġê°ķëł¥ íķĺëĭ¤
ĠíļĮ ìĤ¬ë¥¼
Ġê¸ī íķĺê²Į
ì§Ģ ìłĲ
Ġìŀ¥ ìĤ¬
íķĦ ë¡ľê·¸
å¼ µ
ĠG M
ìĻĶ ìľ¼ë©°
Ġë¯¸ ì½Ķ
ĠC M
ìĬ¤ íĤ¨
Ġíı¬ íħĲ
1 10
íĺľ ë¥¼
ĠëıĮìķĦ ê°Ħ
ĠíĺĦìĭ¤ ìĿĦ
ĠìĿ¼ íĻĺìľ¼ë¡ľ
Ġìľł ë©Ķ
Ġë¯¸ ìĵ°
íķĺìŀĲ ê³ł
ĠìĿ´ë£¨ìĸ´ ì§Ħëĭ¤
íħĮ ê°Ģ
Ġë§ŀì¶Ķ ë©´
Ġê·¹ ìļ°
ĠëĦĪ íĶĦë¥¼
Ġë³´ êµ¬
ĠìĽĲ ìĿ¸ìĿĦ
ì¼Ģ ìĿ¸
G ìĿĺ
ĠìĿ¸ë¬¼ ìĿĦ
Ġì§Ģ ìĹĪëĭ¤
Ġì½Ķ ëħ¸
ëĤ¨ ìĦ±
ĠìĽĮ ì»¤
ĠìĹ°ê²° ëĲľ
Ġìŀĺ ë§Į
Ġìłľ ë°ľ
Ġì¤ĳ ìĹĲëıĦ
ĠìĦľ ê¸°
Ġë°° ìĽĮ
Ġë§ŀ ì¶ľ
MA X
Ġíģ´ ëŁ¬
Ġì¶ķêµ¬ ëĭ¨
Ġìĺµìħĺ ìĿĦ
Ġì²´ëł¥ ê³¼
O K
ĠìĹĨ ê±°ëĤĺ
Ġë¡ľ ê³ł
Ġìķŀ ìĿĦ
T r
ĠìľłíĬľë¸Į ìĹĲ
Ġìĺ¤ ëłĮì§Ģ
íĮĮ ë¥´
ĠìĿ´ ì¤Ģ
Ġê¹ĥ íĦ¸
Ġëĭ¤ë¦Ħ ìĹĨëĬĶ
ìĹĲëĦĪ ì§Ģ
Ġìľł ê³ł
ĠëĨĴ ê¸°
ìĭľ ëĿ¼
Ġìĭľ ëĮĢê°Ģ
Ġìłģìļ© ëĲľ
ĠìĿ¸ ì§Īë¡ľ
ĠëıĦ ìķ½
ë°ĺ ìĿĢ
Ġì»´ ë±ĥ
ĠëĮĵê¸Ģ ìĿĦ
Ġíķ´ëĭ¹ ëĲľëĭ¤
Ġìŀīê¸Ģ ëŀľëĵľìĿĺ
Ġê² Ł
ĠìĹ´ ìĹĪëĭ¤
Ġê¸¸ ìĿ´ëĬĶ
ìĬ¤íĥĢ ìĿĺ
ãģ ³
Ġíķĺ ê¸´
ì ¯Ķ
ĠíĶĦë¡ľëĵĢ ìĬ¤
ìĦ¤ ìłķ
ĠìķĮëł¤ ì£¼
Ġê³ł ì¢ħ
Ġë°° ë¦¬ìĸ´
Ġìĩ Ħ
Ġë°© íĮ¨ë¥¼
ìŀ¡ ê¸°
ìį °
ĠìĿ´ ëĵ¤ìĹĲê²Į
ë¥ĺ ìĻĢ
Ġíĸī ë°©
Ġê°ľë°ľ ìĿ´
Ġë¬¼ íĴĪ
Ġë¶Ļ ëĬĶëĭ¤
ĠëĤĺê³ł ìķ¼
Ġë¯¸ ìĨĮëħĢ
ìĺĢëĭ¤ ë©´
ĠìĬ¤íĥľ íĶĦ
ë²ł íĬ¸
Ġë¶Īë¦¬ ê¸°ëıĦ
Ġë§Ī ê°Ģ
ĠìĥĿ ê¸°ê³ł
âĸ ²
ĠìĹ´ìĩł ë¥¼
Ġê±¸ ëł¤ìĦľ
ĠìĹ°êµ¬ ìĹĲ
íĬ¸ ë¡ł
ĠìłĦëıĻ ì°¨
ìĬ¤ íħĶ
íĥĢ ìļ°
ĠìĤ¬ìļ© íķĺëįĺ
ëķĮ ë¡ľ
ëĵľë¦¬ íŀĪ
ë°ĺ ìĹĲ
ĠìĤ¬ìļ© íķ´ìķ¼
ë°Ľ ê¸°
Ġë¬¼ìĸ´ ë³´
ë¯ Ģ
Ġëªħì¹Ń ìľ¼ë¡ľ
âĸ ¡
ĠìĭľìĦ¤ ìĿĦ
Ġíĺ¼ëŀĢ ìĿĦ
Ġê´Ģ ìŀ¥
ĠìĹ°ì¶ľ ìĿĦ
ìĿ´ ê±°
ĠëĮĢ ëĭĪ
Ġë°Ķëĭ¤ ìĹĲ
Ġê·¸ ê°Ħ
Ġ8 9
Ġê¸ī íŀĪ
íķ´ ë³´ìŀĲ
ĠìķĪ íķĺê³ł
Ġëª© íı¬
ĠìĤ¼ ì§Ħ
Ġ0 5
ĠM ag
ìºĲ ìĬ¬
Ġìłķ ìĦ±
íĺ¸ íħĶ
ĠìłĢ ìĦľ
Ġíķĺ ëıĦ
Ġìĺ¤ ë°Ķ
Ġë¨¹ ìĹ¬
Ġìłľ ëĦĪ
m y
ĠëķĮ ë¦¬ëĬĶ
ëĲĺ ëĤĺ
ë¦¼ ìĿĢ
íķ´ì£¼ ë©´
ĠìĲ Ĳ
ĠìłĲ ê²Ģ
âĪ ¼
Ġë¹Ħ ë¹Ħ
Ġì¹´ë©Ķ ëĿ¼ë¥¼
ë¹ĦìĬ· íķľ
ìĨ¡ ìĿ´
êµ ¿
Ġë¹ł ì§Ħëĭ¤
Ġì£¼ ê¸°ëıĦ
Ġê³µ íķĻ
Ġìļ´íĸī íķľëĭ¤
^ {
u ch
ìĺ¤ ëįĺ
ãģ Ĵ
ìĹ¬ìŀĲ ê³łëĵ±íķĻêµĲ
ĠìĪľ ì°°
Ġìĸ¼ ìĸ´
íĥĢëĤĺ ë²ł
ë°Ķ íĿĲ
at ed
ìĨĮ ëĭī
ë°ľ ìĹĲ
Ġì°¨ ìĽĲìĿĺ
ìĦ¸ ìĿ¸
ĠìľĦíĹĺ ìĹĲ
ëĭ¤ ìĻĢ
êµĲ ë¡ľ
Ġë°ľ íĺĦ
ĠìĦ¸ ëł¥ìĿĺ
ĠìķĦëŀĺ ìĹĲìĦľ
ĠíĮĮíĭ° ë¥¼
æ ľ´
ĠS N
ĠíĶĮ ëŁ¬ìĬ¤
Ġë§ŀì¶Ķ ìĸ´
ĠíħĮ ëłĪ
ĠìĹł ë¸Ķ
Ġë©ĶìĿ´ìłĢ ë¦¬ê·¸
Ġê¹Ķ ëł¤
éĩ į
D X
ĠëĦī ëĦī
Ġë£¨ íĤ¤
ĠêµĲì²´ ëĲĺìĹĪëĭ¤
ĠìĿ¸ ìłĳ
Ġìĺ¤ ëįĶ
Ġìłķë¶Ģ ìĹĲ
Ġëħ¸ìĦł ìĿ´ëĭ¤
Ġ ro
ĠíĥĢìŀħ ìĿĺ
äº ¬
ëı¼ ì§Ģ
ĠìĿ´ ë¡Ģ
ĠíĻľëıĻ ìĹĲ
ê°Ģ ëĿ½ìĿĦ
Ġìĭľ ìŀ¥ìĹĲìĦľ
E A
ìĨĮ ëĭĪ
ĠT ime
Ġìłľìŀĳ ì§ĦìĿ´
Ġê·¸ë¦¼ ìĿ´
Ġê°Ģ ëįĺ
ìĨĮ ëł¨
Ġíıī íĥĿ
o ther
Ġëĭ¤ë¦Ħ ìķĦëĭĮ
ëª¨ íĹĺ
åŃ¸ æł¡
Ġê¸ī ìĭĿ
íĻĪëŁ° ìĿĦ
ëĥ Ħ
ìĻ¸ ìĹĲ
ìĥĪ ë¥¼
ĠìĿ¸ ìĹ°ìĿ´
ĠíĬ¸ëłĪìĿ´ ëĭĿ
ì¶ķ ìĿĦ
Ġê²°ê³¼ ìĹĲ
Ġëĭ´ëĭ¹ íķľëĭ¤
ĠìķĪ ìĤ°
ĠíĮĮ ìĨĲ
ãĤ Ĩ
ì¿ł ìĻĢ
ĠìĿĺ ìĽĲìĿĢ
ê³µ ê³¼
Ġë°ĺ ìĦ±
ĠìĬ¤ ì½§
ìļ± ìĿ´
ĠAp ple
ìļĶ ë¥¼
ĠE N
Ġë¡ľ ìĹ´
ì§Ģê¸Ī ìĿĢ
Ġìŀ¬ ë¹¨ë¦¬
íĸī ëıĻ
Ġìķŀ ëĴ¤
Ġë¦¬ ìĬ¤íģ¬
Ġë°ķ ì¥Ĳ
ĠA V
åĭ ķ
Ġì¹ľêµ¬ ëĵ¤ê³¼
êµĲ ëĬĶ
ìĦ¸ ëł¥
ĠëĮĢ ì±ħ
ĠêµĲ ìĪĺê°Ģ
ĠS w
ĠíĪ¬ ê¸°
Ġìĭ¸ ìĿ´
ĠM SL
ëª© ìĿĢ
ĠëĵĢ ìĺ¤
Ġì²ĺë¦¬ íķł
ĠíĺĦ ê¸Ī
ìŀ ¼
Ġíģ´ë¦¬ìĸ´ íķĺë©´
Ġíķĺ ìĿ´ëĿ¼ìĿ´íĬ¸
Ġì£¼ ìĽĮ
ëĤ´ ëĬĶëį°
Ġëª» íĸĪëĭ¤ê³ł
Ġëį°ë·Ķ íķľ
Ġëĵľëŀĺê³¤ ìĿĦ
ìłķ ìŀĳ
ì¤ĳ ëĮĢ
Ġë°Ķë¥´ìħĢë¡ľ ëĤĺ
ĠìĻķ ì¡±
Ġìŀ¥ìĨĮ ìĹĲ
ĠìĿĺ ìĭ¬ìĿĦ
Ġê·¸ëħĢ ìĻĢ
Ġëĵ¤ìĸ´ ìĺ¨ëĭ¤
ëĭ¥ íĦ°
ì²´ êµŃ
Ġì¡°íķ© ìľ¼ë¡ľ
æĺ ¥
ĠE U
ìĽ¨ ìĿ´íĬ¸
íĥľ ìĿĺ
ĠíĽĦ ë¯¸
Ġë©Ģì©¡ íķľ
ĠíĮ¨ íĤ¤ì§Ģ
Ġê°Ģ ëł¹
ĠëĤ¨ ìŀĲë¥¼
Ġì¦ī ê°ģ
Ġê°Ģ ë©´ìĦľ
ĠìĿĳ ìĭľ
ĠìŀĲìľł ë¡ľìļ´
ĠíĤ ´
Ġë§Į íĻĶë¥¼
ĠìĹħëį°ìĿ´íĬ¸ ë¥¼
è °
Ġ7 9
Ġëį± ìĹĲ
Ġì°¸ê°Ģ íĸĪëĭ¤
ĠìĿ¼ìĸ´ëĤĺ ê³ł
ĠìĹŃìĤ¬ ìĹĲ
ĠìĿ´ìłĦ ìĹĲëıĦ
ĠíĶĦë¡ľê·¸ëŀ¨ ìĿ´
ì§ĵ ìĿĦ
ë¸Ķ ëłĪìĿ´ëĵľ
ì¢ħ ì¡±
ãģł ãģĳ
ëŀį ëĭĪëĭ¤
Ġì°¨ ëĤ¨
ëŀĳ ìĿĺ
ĠìłĦíĪ¬ ìĿĺ
Ġb ut
Ġë°ĶëĢĮ ë©´ìĦľ
ê°Ģ ìĬ´
ë³µ ìĿĺ
ê¸° ìĥĿ
ë¬¼ ìĿ´ëĭ¤
ĠìķĪ ê²½ìĿĦ
Ġìłģ ìĹĲ
Ġë§Į ëĤ¬ëĭ¤
ĠëłĪìĿ´ ë¸Ķ
Ġë§¥ ì£¼
Ġê²© ë¦¬
Ġê°ĢëĬ¥ íķ´
ĠìŀĳíĴĪ ìĿ¸
ĠíħĮíģ¬ ëĭī
ĠìłĦ ìĥĿ
ìĹĺ ìĿĢ
Ġë²Ħ ìĦľ
Ġë¹Ħ ìķĦ
ë°° ì¹ĺ
Ġë¡ľ ë§ĪìĿĺ
Ġë³´ ê°ķ
ĠíĳľíĺĦ íķľ
Ġë§µ ìĿĺ
ë¶Ģ íĦ´
Ġ8 4
Ġë©´ ìĿĦ
ĠìĶ¨ ê°Ģ
ĠëłĪ ìĭľíĶ¼
Ġë¯¼ê°Ħ ìĿ¸
ĠìĬ¬ íĶĪ
Ġê²ĥ ìŀĦìĿĦ
Ġêµ¬ íķľ
Ġíģ¬ë¦¬ìĬ¤ íĭ°
ëģ Į
Ġê·¸ê³³ ìĹĲ
Ġìŀ¥ ìĨĮë¥¼
Ġëĸł ëĤł
ê³µ ë¦½
Ġì¤Ħìĸ´ ëĵłëĭ¤
ë¶Ģ íĬ¸
Ġìŀĥ ê²Į
Ġë³´ ë¥´
ĠíķĦìļĶ ëıĦ
ĠíıĲ íĹĪ
Ġì¡¸ìĹħ íķľ
ĠìĿ´íķĺ ë¡ľ
ĠìķĦìĿ´ ìĬ¤íģ¬
ĠìĿĢíĩ´ ë¥¼
ĠìĤ¬ ì¹ĺ
ĠëĤ´ ë¿ľ
ĠìķĮ ëł¸ëĭ¤
Ġìľłê²© ìĪĺ
Ġë¸Ķ ëŁ¬
ìĭł íķľ
196 7
Ġëª¨ìĸĳ ìĿĦ
ë£ »
Ġìĺ¬ ë¦°ëĭ¤
ë±ħ íģ¬
ĠìķĦìĬ¬ ìķĦìĬ¬
Ġìĭ¤ ì¡´
êµŃ ë¦½
ĠíĶĦë¡ľê·¸ëŀ¨ ìĿ´ëĭ¤
Ġ193 9
Ġìŀħ íŀĮëĭ¤
ìĹĪ ìľ¼ëĭĪ
Ġíĺķ ìĭĿìĿĺ
Ġë©´ ìłĳ
ĠìĦ¤ëªħ íķł
ãĤĮ ãģŁ
Ġì¡´ìŀ¬ íķł
ĠìĹĦ ë°ĢíŀĪ
ìĬ¤íĭ° ìĬ¤
ĠíĮĮê´´ íķĺëĬĶ
Î ±
Ġê°ĳìĺ· ìĿĦ
Ġê°Ģ ìĤ¬ê°Ģ
ìĥģ ëıĦ
ìĭ¤ ìŀ¥
ë¶Ħ íķ´
in i
ëįĶ ëĿ¼ë©´
Ġìĺģíĸ¥ ëł¥ìĿ´
ĠSt r
ë¹Ħ ëĤĺ
ĠêµĲ ì°¨ë¡ľ
Ġìĸ´ìļ¸ ë¦¬ì§Ģ
Ġë¯¸ ì¹ł
ĠìĤ¬ë§Ŀ ìŀĲ
æ¼ ¢
ìĽĶ ìĿ´
ĠìĦ¸ ë¡ľ
å¤ ľ
Ġíıī ìķĪ
ìĤ¼ ìķĦ
åĲ Į
Ġë¯¸ ì¹ĺì§Ģ
ĠíĥĦ íĥĦ
Ġë°ľ ìłĦìĿĦ
íĺģ ìĿĺ
Ġë°ĶìĿ´ íĤ¹
ON E
K BO
ĠëĮĢëĭµ ìĿĦ
Ġëħ¼ ë¬¸
ìĻľ ëŀĢ
Ġ en
ĠìĤ ¿
Ġì§Ģìłķ ëĲľ
Ġì·¨ ë¯¸
Ġíķľ ìĭł
Ġì°½ ìĹħ
ìķĮ ëłī
ìĿ¼ ì§Ģ
ä¼ ļ
Ġìĭľ ìŀ¥ìĹĲ
íĥĪ ì¶ľ
ĠíĶ¼ ìĬ¤
Ġíĺ¸ ì¶ľ
Ġë§Ĳ ê¹Įì§Ģ
ê·¼ ìĿĺ
ĠâĨ Ĳ
Ġíĺ¸ ëĤł
ĠìĽĮ íĶĦ
Ġë¶ĪìķĪ ìłķ
ìłģ ìĿ´ëĿ¼
Ġëĭ¬ëĿ¼ ì§Ħ
Ġë§¤ ëĭĪìķĦ
Ġíķ´ ìļ´
Ġê²Į ìĬ¤íĬ¸ë¡ľ
Ġëľ» ìĿĺ
Ġë¶Ī ëł¤
ĠëĶ° ìĻĶëĭ¤
âĳ ¡
ĠëıĻìĥĿ ìĿ¸
ĠìłĦ ìĹĲìĦľ
ĠëıĻ êµ¬
ëĤĺ ë©´
Ġê°Ģ ìĦ¤
ëıĻ ë°©
ë°± ë§Į
ĠëĨį ì´Į
ĠìķĦ ê·¸
ëĿ½ ìľ¼ë¡ľ
Ġì¥Ĳ ê³ł
Ġê³µ ëª¨
Ġë¯¸ íķĺ
Ġëĭ¤ëĭĪ ë©°
Ġíı¬ ëĵľ
ĠìĻ¸ê³Ħ ìĿ¸
Ġë³¸ ì§Ħ
ĠìĬ¤ë¯¸ ìĬ¤
Ġ $
Ġìŀ¬ ìĤ°ìĿĦ
ë¿Ĳ ìĿ¸
ĠìŀĲ ì¹«
Ġíķ´ ì£¼ê³ł
ìĻ¸ êµĲ
Ġë§Į ë£¨
íķ¨ ê»ĺ
Ġë£¨ ë§ĪëĭĪìķĦ
ëł¹ ìĹĲ
Ġë³´ê³ł ëĬĶ
Ġê²ģ ëĭĪëĭ¤
r ic
Ġìĺ¤ ë¦¬ìĺ¨
ìĬ¤íĦ° ìĿĺ
ĠSe ason
ìĿ´ ëıĦ
Ġì·¨ íķľ
ĠëĤ´ ìłĦ
Ġë³´ ìĬ¤ìĿĺ
ĠíĨł íĤ¤
ìłĦ íķ¨
ëłĮ ìĿ´
Ġíķ´ê²° íķł
ìĨĮ ê°ľ
ëłĪ ìĸ´
ìĨį ëıĦë¥¼
ì§ĳ ëĭ¨
Ġìĺ¤ì£½ íķĺë©´
Ñ ĥ
Ġë¶Ģ ìľĦ
Ġíķľ ë°ĺ
íĨł ëģ¼
ĠìĿ¸ êµ¬ìĿĺ
ãģ§ ãģĻ
ĠëĪĦ ìĽĮ
ĠìłĦ ì°¨ë¥¼
Ġë¹¼ìķĹ ìķĦ
Ġì¡°ë³Ħ ë¦¬ê·¸
Ġë¶Ģ ëĮĢìĿĺ
ìĹ° ê¸°
ĠìĿ¸íĶ¼ ëĭĪíĭ°
ê³ł ìĸĳìĿ´
í Ĳģ
ĠìĿ¼ ìĽĲìľ¼ë¡ľ
ãħ ¡
Ġì¶© ëĤ¨
Ġê¸¸ ë¡ľ
Ġë²Į ìĺĢëĭ¤
Ġì£¼ìĸ´ ì§Ħëĭ¤
Ġê°Ģ ë£¨
ë§¤ ëĭĪìķĦ
Ġêµ° ë¦¼
ĠìĹĲëĦĪ ì§Ģê°Ģ
S c
ĠìĤ¬ìļ© ìŀĲê°Ģ
ĠìĿ´ ì¿ł
= ,
ĠëıĻë£Į ê°Ģ
ëħĦ ê¹Įì§ĢëĬĶ
Ġ9 3
æŃ Į
ĠëĿ¼ ë©´
Ġì¡´ìŀ¬ ê°ĲìĿ´
Ġì²ľ íķĺ
ĠO h
Ġì¡°ê°ģ ìĿĦ
Ġë¹Ħë¡Ģ ëĮĢíĳľ
Ġêµ¬ ë¦¬
ĠíĮĮ ê²©
ãģĿ ãģĨ
Ġë¬» ê³ł
Ġê¸°ìŀĲ íļĮ
Ġê°Ĳëıħ ê³¼
ìľ¡ êµ°
h am
ĠíĬ¸ ë¦´
Ġì¹ľ ë¶ĦìĿ´
Ġìĺģìĥģ ìĹĲ
ì¹´ ìĹĲê²Į
ĠìĹ¬ ëĬĶ
ĠìĨĮìľł ìŀĲ
D on
ìķĪ ê³¼
Ġê±´ ëĭ¤
íħį ìĬ¤
ĠëıĦ ìĭ¬
ĠëĶ° ìł¸
Ġë³µ ì§Ģ
Ġíľ© ìĭ¸
Ġë°ķ ìĥģ
ĠìºĲë¦ŃíĦ° ìĹĲ
Ġìľł ë¯¸
I O
ĠìĦ¸ ìĿ¼ëŁ¬
ĠìĻ¸ ë©´
Ġê·¸ ë¦´
ĠìĤ¬ ë¡Ģë¡ľ
ĠëıĻ ìĦľ
ìĿ¸ ëĵľ
ĠìĤ¬ ë©´
Ġê°Ļ ìķĦìĦľ
Ġìĭ¬ íŀĪ
ëĮĦ ëĭ¤
Ġë³¸ ì²´
ĠìĭŃ ìŀĲê°Ģ
Ġë¦¬ ëī´ìĸ¼
Ġì¢ĭ ìķĺëĭ¤
ĠëıĪ ìľ¼ë¡ľ
ĠëıĦ ëĮĢì²´
ë¦¼ ê³¼
Ġ195 1
ĠìĿ´ ê´Ģ
ìĪľ ìĸĳíķ¨
Ġìĭł íĿ¥
ìłĲ ëıĦ
å® ĺ
ĠìĿ¼ ìĿ¼ìĿ´
ĠM G
Ġf l
ì»´íĵ¨ íĦ°
Ġì»¬ ëłīìħĺ
Ġíķ´ ê°Ģ
ë§ ¡
ìĿĢ íķĺ
ìĦł ëĭ¤
ìķĬ ê²Į
ìĹħ ìľ¼ë¡ľ
Ġë°©ìĸ´ êµ¬
Ġê·¹ëĭ¨ ìłģìľ¼ë¡ľ
Ġë¬´ ëĮĢìĹĲìĦľ
Ġê¸°ê´Ģ ëĭ¨
Ġë¶Ģì¡± ìľ¼ë¡ľ
Ġìħĭ ì§¸
ĠíĶĮëŀĺ ê·¸
ë¶Ģ íĻľ
ĠíĮ¨ ìĬ¤íĬ¸
Ġì¹ĺ ë©°
Ġìłĳ ìĪĺ
* *
ì ´¬ìĺģ
ë¥´ ëħ¸
Ġê¹Ģ ìĹ°
ĠR es
ĠëĨĢ ëŀĢ
Ġìĭ±ìĸ´ìĨ¡ ëĿ¼ìĿ´íĦ°
ĠìŀĲ ëŀĢ
Ġì£¼ ìĪł
ì¹´ ì¦Ī
ĠìĬ¬ ëŀĺ
Ġë§¹ ìĦ¸
196 3
Ġê¶ģ íķ©ìĿ´
Ġ195 7
ìĿ¸ ìĤ¬
ìĽĲ ìĹĲê²Į
Ġêµ¬ ìĦ±ìĿ´
ĠìĻķ ìľĦ
Ġì½ §
Ġy eah
ĠíĿ¥ ë¯¸ë¥¼
ìī¬ ê°Ģ
ì¶© ìłĦ
Ġë¶Ī ë§Į
ĠO G
ĠìĿ´ëıĻ ìĨįëıĦ
% (
íķĺê¸° ë§Į
Ġìĭľ ê¸°ëĬĶ
ì°® ê²Į
Ġê¸°ì¤Ģ ìĿ´
é Ĺ
ĠëĦĺìĸ´ ê°Ħëĭ¤
Ġíĺ¸ ê¸°
ĠìĻķ ìĿĦ
Ġëıħë¦½ ìĿĦ
ĠëĤĺ ìĹĲê²Į
ĠìĹĦ ë§Īê°Ģ
Ġë¹Ħ ë°
ëĤ´ ìķ¼
Ġì§Ħ ìĪł
Ġë¶Ļ ìĿ´ëĬĶ
ĠìŀĲìĭł ë§ĮìĿĺ
ĠëĤ´ë± ī
ĠëĤĺë¬´ ìľĦíĤ¤
ĠìĪľê°Ħ ìĿ´ëıĻ
ë¶Ħ ìĦĿ
ĠíŀĪ ìĤ¬
ëĬĲëĥĲ ìĹĲ
ë²ĦìĬ¤íĦ° ë¯¸ëĦĲ
Ġìĭł ì¹¸ìĦ¼
ĠìĤ¬ëŀĮ ìĹĲ
re en
ĠìłĦíĪ¬ ëĬĶ
ĠìĹĨ ìĹĪìľ¼ëĤĺ
ĠA t
Ġë´Ĳ ìĦľëĬĶ
íķĺ ìķ¼
ĠìĿ¼ ê¾¼
Ġë°© ìĭ¬
ìłķ ëıĦìĿĺ
ì§Ħ ìĹĲê²Į
ĠìĹĲ ìĿ¼
ë§Į ìľ¼ë¡ľëĬĶ
Ġë¦¬ ë°Ķ
åĳ ½
ĠëĦ£ ìľ¼ë©´
Ġìĺ¤ ë¹Ħ
ĠíĻľìķ½ ìĿ´
ëŁ¬ ë¡ľ
Ġìłģ êµ°
ĠìĥģìľĦ íĺ¸íĻĺ
F I
ĠìķĦë¬´ ëłĩ
ĠìĿ´ë£¨ìĸ´ ì§Ģì§Ģ
ìĿ¼ ëķĮ
ìķ¼ ìĥ¤
ĠíĶ¼ ëĵľ
Ġë¯¼ ì¤ĳ
ĠíĶ¼ ëĭīìĬ¤
Ġëıķ ëĬĶ
Ġê¸Ī ìļĶìĿ¼
Ġëĭ¤ë¦Ħ ìĹĨ
Ġíİĺë¯¸ëĭĪ ì¦ĺ
ìºĲ ìĬ¤íĬ¸
Ġì¿ ¤
íĤ¤ ë¡ľ
ĠCom p
ĠìĽĲìŀĲ ëł¥
Ġ8 7
ĠìľłìłĢ ëĵ¤ìĹĲê²Į
ĠìĹħ ìłģ
ĠëłĪìĿ´ ëĶĶ
ĠS m
Ġë²Ħ ìĬ¤íĬ¸
Ġê±¸ ìĸ´ìĦľ
ĠìºĲ ë¡¤
Ġíķľ ê°ķ
Ġë£¨ íĬ¸ë¥¼
ëĮĢ ë¯¸
ĠìĽĲ ìĿĦ
ĠìĬ¤ìĬ¤ë¡ľ ìĿĺ
ëĭ¤ ëĵľ
ĠíĮĮ íİ¸
æ ¶
Ġìŀ¬ ë°ľ
Ġê²½ ì§Ī
ĠìĿ´íĽĦ ìĹĶ
ĠíĽĦë³´ ë¥¼
ĠíļŁ ìĪĺê°Ģ
ĠíĮ ľ
ĠëĮĢíĳľ ìłģ
Ġìĭľìłķ ì´Į
Ġì¹´ ê°Ģ
Ġìĥģ ìĩĦ
ĠC ar
Ġë³¼ ìĿĦ
ĠëłĪìĿ´ ë¸Ĳ
ĠìķĦìĿ´íħľ ìľ¼ë¡ľ
ëĮĢíĳľ ìłģìľ¼ë¡ľ
ìĹĲ ëĭ¤ê°Ģ
Ġì§Ģ ìĺ¤
ëĤ´ ìļ©
it tle
ĠìĿ´ ë¥´ê¸°
ĠìĽ¨ ìĿ¼
Ġëª¨ ëĵľìĿĺ
ĠíĶĦë¡ľ ëįķìħĺ
ĠìĦ¬ ë©¸
ĠíģĲ ìĸ´
Ġë°Ķë¡ľ ëĬĶ
Ġë¬¸ ìĿĺ
Ġì¹ľêµ¬ ëĵ¤ìĿ´
Ġëļ Ŀ
ĠíĻľë°ľ íķľ
ĠìĿĮìķħ ìĿ´
ĠìĹĨìĹĪëĭ¤ ëĬĶ
Ġìŀħ ì§Ģê°Ģ
ĠëĮĢ íķĺëĬĶ
ĠëĦĺ ê¸°ëĬĶ
Ġëį§ë¶Ļ ìĹ¬
êµ¬ ë©į
ĠëĦ£ ëĬĶëĭ¤
Ġê·Ģ ê°Ģ
íĤ¥ ìĿĦ
Ġëħ¸ë¥´ ìĽ¨ìĿ´
Ġìŀħ êµŃ
Ġë³µ ìŀ¥ìĿĦ
Ġë¹łìł¸ ëĤĺê°Ģ
Ġìĭłìŀħ ìĥĿ
Ġê´ĳ ê²½ìĿĦ
ìĸ´ ëĶĶ
Ġìĭ¤ ìĹħ
Ġë©´ ìĹĲìĦľëĬĶ
ĠìĤ´ìķĦ ê°ĢëĬĶ
y m
Ġíķĺ ê¸°ìĹĲ
ĠëĤĺ ë¥´
Ġìłľ ì§Ģ
Ġë¬´ ê¸°ìĹĲ
Ġì£¼ìŀ¥ ìĿĢ
ëĬ¥ ëł¥ìĿĢ
Ġëĵ±ìŀ¥ íķĺìĺĢëĭ¤
Ġì£¼ëıĦ ê¶ĮìĿĦ
Ġì¢ĭìĿĢ ëį°
ĠëªħìĺĪ ìĿĺ
D C
ĠHP ê°Ģ
ĠìĨĮ ìĭĿ
Ġ8 3
Ġëªħ ìĦ±
ĠìĹĺë¦¬ìŀĲë²ł ìĬ¤
åĬ Ľ
ìļĶ ì½Ķ
Ġìĺ¤ ë§Į
ĠFA ì»µ
a id
Ġëª¨ìľ¼ ëĬĶ
Ġëĵ±ìŀ¥ ìľ¼ë¡ľ
Ġì¤ĳíĻĶë¯¼ êµŃ
Ġìĭ¤ ë¡ľ
ĠA ir
Ġë§ī íĮĲìĹĲ
ìĦ¤ ëªħ
Ġê±¸ ë©´
ë¦¼ ìľ¼ë¡ľ
íį¼ ëĭĪ
ĠíķľêµŃ ìĿĦ
Ġê°Ģ ìĻĢ
ãĤĮ ãĤĭ
ìĿ¼ ëıĦ
Ġì¡° íķŃ
ê³ł ì¿ł
ìĬ¬ ë¦¬
Ġê¶Į ìľĦ
Ġíľ´ëĮĢ íı°
Ġë°¤ ìĿĺ
ìķĦ ìĹĲ
ì½Ķ ë¥´
ĠP ar
Ġìº¡ ìĬĲ
Ġíĺĳ ì¡°
Ġê±´ ê°Ģ
ĠìķĮ ìĿĦ
... ?
Ġë°©ìĨ¡ ìĿ¸
Ġë¦ ½
Ġìĥģíĥľ ìĹĲìĦľëĬĶ
ĠìĬ¤íĨł ë¦¬ìĿĺ
Ġë¦¬ ì¦Ī
ĠëĮĢ ëł¹
íı¬ ìĹĲ
Ġìķķë°ķ ìĿĦ
ĠìĬ¤ ì¿ł
Ġë¬¸ ìĭł
ë¦¬ìĬ¤ ìĻĢ
Ġê±´ë¬¼ ìĿĢ
Ġìĸ ķ
ìĿ¼ë°ĺ ìłģìľ¼ë¡ľ
Ġê°ĢìĬ´ ìĹĲ
ĠíķĺìĿ´ ë¸Įë¦¬
ë°± íĻĶìłĲ
ĠìķĦë¥´íĹ¨ íĭ°
ĠìĽĲ íĻľ
Ġì´Ī ëĭ¹
Ġëªĩ ë²Ī
ĠD E
ëł¤ ëĭ¤
~ "
ĠìĬ¤íĤ¬ ìĿ´ëĭ¤
Ġì§ĢìĹŃ êµ¬
ĠìĿ¼ ì²´
Ġì¦Ŀê°Ģ íķĺê³ł
ĠíĤ¤ ë³´
Ġìĭľ ìķ¼ë¥¼
Ġìºł íį¼ìĬ¤
Ġìŀ¬ ë²Į
Ġë¶ĪëŁ¬ ìĿ¼ìľ¼
Ġ ar
íĤ¤ ìĹĲê²Į
Ġë¡ľ íħĮìĿ´ìħĺ
Ġë¶Īíİ¸ íķľ
ĠëĮĢì²´ ìłģìľ¼ë¡ľ
ĠìĪĺíĸī íķĺëĬĶ
Ġì±Ħ ì°į
Ġíı¬íķ¨ íķľëĭ¤
Ġê°Ģ ìĺ¤
ĠìķĪ ê°ľ
ê³ł ìĸĳ
ì¤Ģ ë¹Ħ
ĠìĿ¼ë³¸ ìľ¼ë¡ľ
ìĿ¸ìĿ´ ìŀĲ
Ġíķĺ ìĿ´ëĵľ
íĮĮ ìĿ´íĦ°
ĠíĶ¼ íĬ¸
íı´ ë¦¬
ê°ģ ê°ģ
Ġìŀ¥ìĨĮ ë¡ľ
ĠëĶ ¥
Ġê³ł ëĵł
ĠíĮĶ ìĿ´
Ġì£¼ ìĨĮ
Ġì¤Ħ ìĿĦ
ë¬ »
ìĭĿ ë¬¼
ĠìĪŃ ë°°
ìĤ° ë©´
ĠìĿ½ ëĬĶëĭ¤
Ġì¶Ķê°Ģ ìłģìĿ¸
Ġì§Ħì¶ľ íķľ
Ġëª¨ëĭĪ íĦ°
um p
ìĬ¤íİĺ ìħľ
Ġê·¸ ì³¤ëĭ¤
ĠëĤĺ ìĿ´ë¥¼
ĠíĮĲ ëĭ¤
ëĮĢ ì±ħ
ĠíĶĦ ëŀŃíģ¬
ãģĦ ãģ¤
Ġë°ķ íĺĢ
Ġëĭ¤íĸīíŀĪ ëıĦ
ĠìłĪëĮĢ ìłģìĿ¸
ìĤ¬ ìĿ´ëĭ¤
Ġìłģ ë¦½
ë¶Ī ëĬ¥
ĠëıĻë¬¼ ìĿĺ
% .
D ìĿĺ
ãİ¡ ~
ĠìĿ¼ìľ¼ íĤ¬
íĻ© ê¸Ī
ë¸Ķ ë¦¿
Ġë°ľ ìĿ´
Ġì°¾ ìĿĢ
Ġìŀł ìĿĦ
ĠìŀĲ ê²©ìĿ´
ĠC o
Ġëĥ ħ
Ġìĭłëį° ëłĲëĿ¼
Ġì¶ľìłĦ íķľ
Ġíĺģ ìĭł
Ġëª¨ ìŀĲë¥¼
ë°° ê²½
ĠìłĦìŀĳ ê³¼
ĠëıĦì¿ł ê°ĢìĻĢ
íĽ ¼
Ġìłķì¹ĺ ìĿ¸ìĿ´ëĭ¤
ëĤ¨ ë¶Ģ
ëĵĿ ìłĲìĿĦ
í ľ
Ġê³µíı¬ ìĿĺ
ëŁ¬ìĭľìķĦ ìĿĺ
Ġëīĺ ìķĻ
Ġë§Ī ìĭľê³ł
ĠìŀĪëĬĶ ê°Ģ
ë¡Ŀ ìĿĦ
Ġëª© ìļķ
ãģ« ãģª
Ġêµ¬ ìłľ
Ġ19 14
ëĵ± íķĺê²Į
Ġì½ĺ ìħī
ĠìķĪ ëĵľëłĪ
ìĥģ ìĿ´ëĭ¤
Ġëª¹ ìĭľ
ê° ¯
ëª© ìĿĺ
Ġë©ĶìĿ´ ì»¤
Ġë¹ł ëľ¨
ê±°ë¦¬ ë©°
ëĵľ ë¦Ń
ì§Ī ê³¼
ĠìĭľìĦ¤ ìĿ´
ë¬´ ìĤ¬
ĠìĨĮíĻĺ íķł
ëľ ¬
ĠíķĺëĬĺ ìĿĺ
íĪ¬ ëĭĪë²ĦìĬ¤
ĠD S
ĠìĿ¸ ë¬¸
ĠìĪľ ì²ľ
ĠíĻį ì§Ħ
é ©
íĶ¼ ë¡ľ
Ġë§Ī ëª¨
Ġì¢ĭìķĦ íķľëĭ¤ê³ł
Ġë²Įìĸ´ ì§Ħëĭ¤
ĠìĬ¤íĬ¸ëĿ¼ìĿ´ ì»¤
Ġë³Ħ ìĿĦ
ëĭ¤ëĭĪ ë©°
Ġì¹Ń íĺ¸ë¥¼
ĠìķĦë¥´ë©Ķ ëĭĪìķĦ
ĠìĹĨìĿ´ ëıĦ
ĠëĤĺê°Ģ ìĦľ
Ġë¶Ģ ëĵľ
Ġë¡ľ ìłĢ
ĠìĤ¬ ìĹĲ
ĠìºĲë¦ŃíĦ° ìĻĢ
ĠìĬ¤íĨłë¦¬ ìĹĲìĦľ
âħ ¡
ìĿ¼ ìĪĺë¡Ŀ
ĠëĦĺìĸ´ ê°Ħ
Ġìĺ¬ë°Ķ ë¥¸
ì£¼ ëħĦìĿĦ
Ġëĵľëŀĺê³¤ ìĿĺ
ĠìĿĺë¢° ë¥¼
ĠìĿ´ ì²ľ
Ġê´Ģ ë¦¬ê°Ģ
ĠìĥĮ íĶĦëŀĢìĭľìĬ¤ì½Ķ
ĠëıĻ ëªħìĿĺ
Ġë¬´ ìłľíķľ
ìĤ° ê³¼
ë§ģ ìľ¼ë¡ľ
ë³´ ì¡°
Ġì¸ł íĤ¤
Ġì£½ ìŀĲ
ĠT OP
Ġì°¸ìĹ¬ íķĺëĬĶ
Ġìµľìĥģ ê¸ī
Ġíĺ¸ ê°Ĳ
Ġìĥģëĭ¹ ìĪĺê°Ģ
Ġì¸¡ ê·¼
ë¬´ ìĹĩ
ìĭľ ê³Ħ
Ġìŀ¥ë©´ ëıĦ
Ġìĭ¸ìĽĢ ìĹĲ
ĠëĨĴ ëĭ¤ëĬĶ
Ġì¤ĳìĭ¬ ìĿĺ
Ġëħ¸íĬ¸ ë¶ģ
it s
Ġê³ł ìľłìĿĺ
Ġë³¸ ìŀĳìĿĺ
ìĻĶ ì§Ģë§Į
Ġìŀĺëª» ìĿĦ
Ġë¶Ģ íĿ¥
ĠM usic
ĠìłĦ ìłģìĿ´
196 4
ìŀĲ ë¦¬ìĹĲ
Ġëĵ¤ìĸ´ ìŀĪëĬĶ
ê°Ģì§Ģ ê°Ģ
ìļ° ë¨¼
ĠìĿ¼íĸī ìĹĲê²Į
Ġì½Ķ íĬ¸
ĠëĤĺìĺ¤ ìŀĲ
Ġíķĺ ì¹ĺ
ĠìŀĲ ì²ĺ
ëħĦ ëıĦìĹĲ
ĠìķĮ ëĿ¼
ĠìĺĪ ìĿĺ
ĠìĹ¬ ë¶Ģ
Ġìłķ ë©´ìľ¼ë¡ľ
ĠìķĪ ëĲł
Ġê¸Ģ ëŀĺ
Ġìĥģ ìļ©
ë¹Ħ ìĸ´
ĠíĴĢ ë¦°
ĠâĢ »
ĠìĬ¬ ìĬ¬
Ġëĵ±ìŀ¥ íĸĪëįĺ
ì´Ŀ ëıħ
ĠìĬ¤íĨł ë¦¬ëĬĶ
Ġê³Ħìķ½ ìĿ´
Ġëª» íĸĪëĭ¤ëĬĶ
ĠíĺĦ ìŀ¥ìĹĲ
ëħĢ ë¡ľ
Ġíľ´ ìĬ¤íĦ´
ìĿ¸ ì¦Ŀ
Ġë¯¸ ëĤ¨
Ġëģ ĦëĬĶ
ĠìĤ° ìķħ
ìĻ ¼
Ġë± ī
ìķĦ ë¬´ë¦¬
y out
Ġìŀ¬ë£Į ë¡ľ
ĠKO F
Ġë¶Ģëª¨ ê°Ģ
Ġíķľ ìĦ±
ĠG SL
Ġë¬ĺ ìĤ¬ë¥¼
íķ´ ë¨¸
íıŃ íĴį
Ġê°ĢëĬ¥ íķĺê¸°
ìĸ´ ì§Ģê³ł
ĠíĺĦ íĻ©
Ġd ay
Ġê¸°íĥĢ ë¦¬ìĬ¤íĬ¸
Ġì¤ į
ĠìĬ¤íĥĢ ìĿ¼ìĿ´
íĨł ìĭľ
Ġì²´ìľ¡ ê´Ģ
ìĤ° ìĹĲìĦľ
Ġì£¼ ë¬´
Ġì¶ľìłĦ íķĺìĹ¬
Ġë°Ľìķĺ ëĬĶëį°
ri end
Ġë¶ĢíĻľ íķľ
Ġì¡° ìĿ´
íı ¿
E E
Ġë¹Ħ ì¶°
Ġë³ ¶
ê³Ħ ìķ½ìĿĦ
Ġë§Įë§Į ì¹ĺ
ë¦¬ìļ° ëĵľ
ãĥ¼ ãĥ«
Ġëĵľ ë¡ł
Ġìĺ¤ ëĶĺ
Ġê°Ģ ë§Ī
ĠíĮĢ ê³¼
ãģĦ ãĤĭ
ãģĺ ãĤĥ
Ġëº Ģ
Ġìŀħ ìŀ¥ìĿ´
ìħĶ ìĦľ
ê·ł ê´Ģ
196 6
ĠR em
ë§¥ ìĿĦ
íĥľ íıīìĸĳ
Ġëĭ¨ ìłĲìĿĢ
ĠëĤĺ ëŃĩ
Ġëĭ´ ìŀĦ
er m
Ġíĥľ ê·¹
ëħĦ ì°¨
ìłĪ ë¡ľ
ëĮĢ ì§Ģ
Ġëĵ±ìŀ¥ ìĿ´
ìĽ¨ ìĿ´ë¸Į
ìºĲëĤĺëĭ¤ ìĿĺ
ì¹´ ìĹĲ
ìķĪ íķľ
ĠíĨµ íĸī
ë³µ ë¬´
Ġìĸ´ëĤĺ ëįĶ
Ġì£¼ìĸ´ ì§ĢëĬĶ
Ġìľłë¦¬ íķĺëĭ¤
Ġë§Ĳ ëĿ¼ëĬĶ
ĠíķľëĤĺëĿ¼ ëĭ¹
íĥĦ ê³¼
Ġìĸ¸ê¸ī íķľëĭ¤
n y
Ġìĭ £
ë° ı
Ġì´Ī ê¸°ìĿĺ
ĠìľĦ ëł¥ìĿĢ
Ġ0 6
Ġë¬´ë¦¬ íķĺê²Į
ĠL V
Ġê³µê²© ê³¼
Ġë°Ģ ì§ĳ
196 5
ĠìĿ¼ ë²ł
X C
íĺķ ìĤ¬
ìĦ¸ ë¥´
ĠëĦĺ ìĿĢ
Ġì§ ĻìĿĢ
ĠìķĦ ë¦¬ìķĦ
Ġê³ł ëĮĢìĿĺ
Ġì¥Ĳ ìĸ´
ĠëıĻ ëł¥
æĢ §
Ġìµľ ìłķ
it ed
Ġê´Ģ ìłĲìĹĲìĦľ
ìĺ¤ ë¹ł
Ġë³¸ ìĦłìĹĲ
ìı ł
ìĨĶ ë¡ľ
Ġì¡°ê±´ ìĿĢ
Ġë¶Ģ ì±Ħ
Ġíı¬ ë³ĳ
Ġì¹ľêµ¬ ëĵ¤
Ġìĭľ ê¸°ìĿĺ
ĠëıĦ ìĭľìĹĲ
ĠìĿ´ìłģ íĸĪëĭ¤
ë§Ī ë¦¬ê°Ģ
ìĸ´ëĸ »ê²Į
L a
Ġëĭ¹ íķĺë©°
Ġëĭµ ìĿĦ
Ġë§Ī ìĭľëĬĶ
ì°¨ íĬ¸
U EFA
å ģ
ìłģ ìĿ´ì§Ģë§Į
íķ¨ ìľ¼ë¡ľìĦľ
Ġì°¬ ìĬ¤ë¥¼
ë°© ë²ķ
ìĦł ëıĦ
Ġë§Ĳ íķĺë©´ìĦľ
ĠíĽĦì¿ł ìĭľë§Ī
ĵâĨĺ âĨĴ
íļĮ ê´Ģ
Ġë¯¸ì¹ľ ëĵ¯ìĿ´
Ġê·¸ëĤĺë§Ī ëıĦ
Ġìĭľ ê¸°ë¥¼
ĠìĭľìłĪ ìĿĦ
ë©´ íĹĪ
ìĤ¬ ì¿ł
ĠíıĲ ìĦł
ĠQ u
ĠìķĦìī½ ê²Į
Ġë¡ľìĬ¤ ìķ¤ìł¤ëłĪìĬ¤
Ġì§Ī ì£¼
ĠíĶĦë¡ľê·¸ëŀ¨ ìĿĺ
åı ¤
ìĿĺ ìĻ¸ë¡ľ
Ġëĸ¨ìĸ´ ì§Ģë©´
Ġë°Ķê¾¸ ìĸ´
ĠëĿ¼ìĿ´íĬ¸ ëĭĿ
ìĤ¬ êµ¬
Ġì¤ĳ ì¶Ķ
Ġê¹Ģ ëıĦ
Ġêµ¬ ëıĦ
ĠíļĮ ê³Ħ
ìĿ´ëĭĿ ìĿĦ
ĠìĹ¬ ìĪĺ
ëħ¸ ë¦¬
Ġëħ¸ ë¦´
Ġì¶Ķ ê¶ģ
Ġë§Ĳ íķĺê¸¸
ìĭľíĤ¤ ëĬĶëį°
ĠëĨĴ ìľ¼ë©°
Ġë°ķ ëªħ
Ġì§ģíĽĦ ìĹĲ
ìĿ¼ ëªħ
ë°© ìĺģ
ĠìłľêµŃ ìĿĦ
Ġê³µ ë°±
Ġìĥ ¹
Ġìķħ ê¸°
Ġìłķ íķĺëĬĶ
ĠëıĦ ë¦¬ìĸ´
Ġê°ķíĻĶ ëĲľ
Ġìĭľ ì¡°
ì¤ĳ ê³Ħ
Ġì§ĢìĨį ìĭľê°Ħ
ãĤĮ ãģ¦
ĠìĦ¼íĬ¸ ëŁ´
ĠìĿ´ ëĵ¤ëıĦ
ìĸ´ ì§¸
íĺĳ ëł¥
Ġê¸Īë©Ķëĭ¬ ìĿĦ
Ġë¯¸ìĦ± ëħĦ
íĨµ ìĥģ
ĠëıĦê¹¨ ë¹Ħ
ĠëĨĢ ëŁ¬
ê°Ģì§Ģ ë¡ľ
ëĭ¤ìĿĮ ìĿĢ
Ġê°ĢëĿ¼ ìķī
íĥ ĵ
Ġê¸°ë¡Ŀ ëĲĺìĸ´
ìĺĢ ìľ¼ëĭĪ
ĠíķľêµŃ ìĿ´
' )
ìĦłìĪĺ ê¶Į
ĠíħĮëŁ¬ ë¦¬ìĬ¤íĬ¸
Ġ {
ìĸ´ ì¡Įëĭ¤
Ġê¹Ĭ ê²Į
Ġë³´ ìĤ´
Ġê°ĢëĬ¥ ìĦ±
Ġê²ĮìŀĦ ìĹĲìĦľëĬĶ
ĠêµŃê°Ģ ìĹĲìĦľ
Ġì£½ìĿ´ ëł¤ê³ł
ĠìŀĲìĭł ë³´ëĭ¤
ĠìķĬ ëįĶëĿ¼ëıĦ
ĠíķĺëĬĶ ì§Ģ
íĻĶ ë¶ĢíĦ°
ì¹ĺ ìŀĲ
Ġë½ Ĳ
Ġë¹ł ì¡Įëĭ¤
ĠíĿĶ ìłģìĿ´
Ġìĭ¤ ìĥģìĿĢ
Ġë¶Ħ ë°°
ìķħ ê¸°
Ġì§ ļ
Ġë¶Ī ë¦¬ê³ł
íĿ ł
U C
Ġì²« ëĤł
Ġìłķìĭł ëĤĺê°Ħ
ĠìĤ¬ ìĿ¸
ĠìĹ° ë£¨
Ġìĭľë¦¬ì¦Ī ìĹĲìĦľëĬĶ
orm al
ìĿ´ëĿ¼ ë©´ìĦľ
ĠìºĲë¦ŃíĦ° ëĵ¤
T e
ê²Į ìĿ´ì§Ģ
Ġì¹´ ìĹĲ
Ġì±Ħ ì·¨
ìĵ ´
ĠìĥĪëĪĦë¦¬ ëĭ¹
é ľ
ĠëłĪ ìĺ¨
Ġw ant
ĠíĮĮ íĤ¤ìĬ¤íĥĦ
Ġëĵ¤ìĸ´ê°Ģ ê³ł
ìĹ´ ìĿĢ
Ġë¶ĢëĵľëŁ¬ ìļ´
Ġëĭ¹ ìĭłìĿĦ
Ġì²ĺ íķľ
Ġê´´ ë¬¼ìĿ´
ĠìĿ¼ ê°ģ
ëķĮ ë¶ĢíĦ°
Ġì§Ģ ìĸ´ì§Ħ
Ġìķ¡ ìĦ¸ìĦľ
Ġíĳľ ë¥¼
ĠëĬĲê»´ ì§ĢëĬĶ
op h
Ġë¬¸ìĦľ ìĿĺ
ĠìĪĺ ìĦ±
Ġìĭł ìĿĢ
ì§ģ ìĿ´
ĠìĿ¸ ì±Ī
Ġë¡ľë§¨ ìĬ¤
ëłĪ ìĬ¤ìĿĺ
ì¢ħ ê³¼
ê±° ë¦¬ìĹĲ
Ġêµ¬ìĦ± íķĺëĬĶ
Ġë¯¸ìħĺ ìĹĲìĦľ
Ġì¶Ķ ê¸°
ë²Ķ íķľ
ĠìķĮ ë¦¬ëĬĶ
Ġíħį ìĬ¤íĬ¸
ĠìĪĺ ë§Į
Ġíķĺ ëĿ¼ê³ł
ìłĲ ìĿ¸
ë¶Ģ ìĹĲìĦľëĬĶ
ĠY our
ĠëĤĺëĪĦ ëĬĶ
ìŀīê¸Ģ ëŀľëĵľ
r m
Ġìĵ° ìĿ¼
ìļ¸ íĬ¸ëĿ¼
ĠìĽĥ ìľ¼ë©°
ìĪĺ ì¤Ģ
ĠìĤ¬ ë²Ķ
ëĵľ ë¦¬ìķĦ
ê²ĥ ìĹĲ
Ġì¡´ ìĬ¤
ĠSt ation
Ġë²Ħ ë¦ĩ
ĠìĪĺ íĽĪ
Ġì§ĳ ìĿ´
ĠKT X
i us
íķĺ ìŀĦ
Ġë³¸ëŀĺ ìĿĺ
ĠìŀĲ ìŀĳ
Ġê²°ìłķ ëĲĺìĹĪëĭ¤
Ġë¶Ģëĭ´ ìĿĦ
F ate
Ġë§ŀ ì§Ģë§Į
ìŀĲë¦¬ ìĹĲìĦľ
íĥľ ìĸĳ
ĠìĹ¬ê¸° ê¹Įì§Ģ
ìķĺ ëĬĶì§Ģ
ìĻĶ ëĭ¤ëĬĶ
Ġëĭ´ëĭ¹ íĸĪëĭ¤
ìĺ¤ ìĤ¬ì¹´
íĥľ ëĬĶ
Ġíģ¬ ê¸°ëĬĶ
Ġìĩł íĩ´
ê¸° ë³´ëĭ¤ëĬĶ
ĠëłĪ ìĿ´ì§Ģ
âĢ Ķ
ĠìĪľ ìľĦë¥¼
Ġìĵ¸ ëª¨ê°Ģ
ĠëĽ°ìĸ´ëĦĺ ëĬĶ
ê°ľ êµŃ
Ġìĸ¼íĭ° ë°ĭ
ĠìĹ¬ ìĦ±ìĿĦ
ë£¨ ìĹ£
ĠìĮĵ ìĹ¬
ĠìŀĪ ëĵ¯
ĠëĤĺ ìĿĦ
Ġìĺ¤íĤ¤ ëĤĺìĻĢ
ĠìłĦ ì§Ģ
ìĿ´íĬ¸ ê°Ģ
Ġìĸ´ë¨¸ëĭĪ ìĻĢ
ĠìŀĲ ë¦¬ëĬĶ
ĠíĬ¹ íĹĪ
è¡ Ĺ
ìĽĲ ìĿ´ëĭ¤
ĠìĦľ ëªħ
ĠìĤ¬ëŀĮ ìĿ´ëĿ¼ë©´
ë¨¹ ëĬĶëĭ¤
ëįĶ ìĻĢ
Ġíı¬ê¸° íķĺì§Ģ
Ġìĸĳ ëĮĢ
ëĵ¯ íķĺëĭ¤
ĠìķĮ ìĪĺ
ĠìĤ¼ ëĬĶ
ĠëĤ ¡
Ġì§Ħ ëĭ¨
ĠíļĮìĤ¬ ìĹĲìĦľ
Ġë°ĶëŀĮ ìĿĺ
Ġë¶Ī ë¬¸
ĠëĤľ ë¬´
åŃ ¦
ĠìĹĲìĿ´ ìłĦ
Ġìĸ´ ìĭľìĬ¤íĬ¸
ĠìĪĺíĸī íķł
íħĮ ëĤĺ
ļ ê½ĥ
Ġë¬¼ ìĿĺ
Ġì¸ł ì¿ł
ê°Ģ ë¥´
ĠìĦ¤ëªħ íķľëĭ¤
Ġíģ¬ ë¦¬ìĹĲ
ë¶Ī ìĿ´
ĠìķĦë¬´ íĬ¼
Ġê²ĮìĿ´ì§Ģ ë¥¼
ë¹Ħ ëıĦ
Ġë¡ľ ë¦¬
ìĭ¸ ìĽĢìĿĦ
Ġê°ĸ ëĬĶëĭ¤
ìĬ¤íĬ¸ ë¦¼
ĠìŀĲ ìĽĲìĿ´
ĠìĦľìļ¸ ëĮĢ
ë¹µ ìĿĦ
Ġê¸° ê´´
ĠìĹ¬ ìºĲ
ĠìĹĦ íıĲ
ĠìĥĿê²¨ ìĦľ
Ġë°°ì°¨ ê°Ħ
ç ł
ĠëĤ´ ë¦´
ĠëĤ¨ ê¸°
â Ħ
ĠíĽĪ íĽĪ
íķ´ ì§Ģ
Ġë³¸ ìĿĺ
ĠìŀĲ ë¥´
ëĮĢ íĨµëł¹
ëłĪ ìķĦ
Ġë©´ ìłľ
Ġë§Ī ì¡±
ìĸĳ êµ°
ĠìĥģìĬ¹ íķľëĭ¤
ëĭ¹ íķĺê¸°
Ġëĭ¬ëĿ¼ ë¶Ļ
ĠëĤĺíĥĢëĤĺ ìĦľ
Ġìŀ¥ íķĻ
Ġíķ© ì³ĲìĦľ
ĠíĳľíĺĦ íķĺëĬĶ
ëģĦ ëŁ½
ê³Ħ ìĹĲìĦľëĬĶ
ĠL ife
íĮ¨ ìĿĺ
ìķĦ ë¹ł
ìłĦ ìĿ¸
Ġì§ģ ê²°
ĠëĤ´ ë¹Ħ
íĶĦ ë¦°
Ġìĭł ì¡°
ëª¨ íĭ°ë¸Į
Ġë³Ħ ëªħìĿĢ
Ġìĭł ìĦ¸ê°Ģ
ëĭµ ìĭľê³ł
íĹ¬ ë¦Ħ
ide o
ë© Ī
ëª¨ ìŀĲ
Ġë¶Ħ ìĩĦ
Ġìĸ¼êµ´ ë¡ľ
ì¹¸ ìĿĺ
Ġì§ ¸
ĠìŀĲ ë°ľ
ĠëĮĢ ìĥģìĿĺ
Ġê´ľì°® ëĭ¤
ĠíĹĪë¬´ íķĺê²Į
ĠìĦł íļĮ
êµ° ìĿ¸
ĠìĿĢíĩ´ íķľ
êµ¬ ë¥´
Ġë°Ķ ì¿ł
Ġëĭ¬ ëŀĺ
ĠìķĮëł¤ ì£¼ëĬĶ
ĠìłĢì§Ī ëłĢ
ëħĦëĮĢ ë¶ĢíĦ°
ìŀ¥ ìĹĲê²Į
Ġë¶Ģ ê³¼
Ġë¯¸ ë¬ĺíķľ
Ġë°°ì¹ĺ ëĲĺìĸ´
Ã ¶
ĠìĹ¬ ì£¼ìĿ¸ê³µ
Ġë¬´ ìĭĿ
ĠëĤ´ ë¡ľ
Ġì£½ ìĿ´ë©´
ìĹ İ
èı ¯
ĠìŀĲ ìĨĲ
ì¹´ íĬ¸
ĠíĥĢ ë¥´
Ġì¶ľìĭľ íķľ
ĠíĨł ë¯¸
Ġë§Ī ìļĶ
Ġê³µê²©ëł¥ ê³¼
Ġë¬¸ìĦľ ìĹĲ
Ġê³ł ê¸°ë¥¼
ĠìĤ¬ ìĨĮíķľ
Ġêµ¬ë©į ìĿ´
Ġì·¨ê¸ī íķĺëĬĶ
Ġì´Īë°ĺ ìĿĺ
íĺĦìŀ¬ ìĿĺ
ĠìķĦ ì¹´ìĿ´
ĠëıĻ íĺ¸
êµŃ ëĮĢíķĻêµĲ
Ġì¹ľ íķĺê²Į
Ġìĭ¬ìĤ¬ ìľĦìĽĲ
Ġì£¼ ê°Ģ
ĠCom m
ĠëķĮ ëĤĺ
ĠìĿ´ ê²¼ëĭ¤
ĠëĿ¼ìĿ´ ëĦĪ
Ġë°ķ ìļ©
ĠìĿ´ë²Ī ìĹĲ
ĠíĺĦìŀ¬ ê¹Įì§ĢëıĦ
ê³¡ ë¦¬
ë³ ¶
ìŀ¥ ê¸°
Ġìľł ì¦Ī
ĠìĻ¸ ì¹ĺëĬĶ
2 50
ëª «
Ã ¤
ĠìĿ´ ì¯¤
ĠìĹ° ê¸°ê°Ģ
Ġê²ª ëĬĶ
ĠëıĮ ìĿ´
ĠìĥĿëªħ ì²´
Ġê°ķ ìĤ¬
Ġìĸ¼ ëĿ¼ìĿ´ìĸ¸
Ġë¹¨ ìķĦ
ĠëĮĢ ìī¬
ì½¤ ë³´
ìĥī ê³¼
ëĭ¤ ë¥´
Ġê²°ìłķ íĸĪëĭ¤
ê¸° ìĸµ
Ġë¦¬ ë¯¹ìĬ¤
ĠìĿ´ëĤ´ ìĹĲ
Ġìĭľìŀĳ íĸĪìľ¼ë©°
ìĤ¬ íĨł
ĠëĤ® ìķĦìĦľ
ëĶĶìķĦ ëĿ¼
ĠíĶĦ ëłĪìĬ¤
Ġë§İ ìķĺê³ł
ĠìĹĶ íĦ°
ĠìĿ´ ìĺ¨
Ġìłķ ê¶ĮìĿĦ
Ġìŀ¥ ìłĲìĿĦ
ĠíĹ¬ë¦¬ ì½¥
% }}}
Ġìĭľê°Ħ ëıĦ
Ġt ext
Ġìĭ¬ ìķ¼
ĠíĶĦë¡ľëĵĢ ìĭ±
Ġë¬¼ê±´ ìĿ´
ĠíĻľìķ½ íķľ
Ġr ight
è° ·
ë¬´ ê²Į
Ġê¹Ģ ëªħ
ĠíĢĦë¦¬íĭ° ê°Ģ
ĠìľĦ ë¥¼
Ġc on
äº ķ
Ġì¦Ŀ ë°ľ
ĠëĤ® ì§Ģë§Į
Ġë°ľëıĻ íķł
ĠëĤ´ ëĨĵìĿĢ
ĠëĴ¤ íĭĢ
ĠëĶĶ ë°Ķ
ĠìĽĮ íĦ°
ĠìĿĺíĺ¹ ìĿĦ
Ġë²Ħëł¤ ì§Ħ
Ġì£¼ ìŀ¬
ĠëįĶëŁ¬ ìļ´
ĠE ng
ĠìĺģêµŃ ìĹĲìĦľ
Ġê°ĢëĤľ íķľ
ĠìķĦëĭĪ ë¯Ģë¡ľ
ĠíĪ¬ ìĪĺê°Ģ
ĠìĹĲ ìĦľëĬĶ
Ġëª¸ ìĿĺ
ĠìĽĲ íĿī
Ġì£½ ìĿ´ê¸°
ëĤ¨ ìĿĢ
Ġê°Ģ ë¸Įë¦¬
Ġë¹Ħ ìĬ¤íĬ¸
ìĦ¸ ëĿ¼
ìĺģ ë¬¸
Ġëĭ¨ ë§Ĳ
ĠëĿ¼ìĿ¸ ìłĦ
Ġë¶Ħìķ¼ ìĿĺ
Ġê¶Į ëĬ¥
ê°Ģ ê²©
Ġìŀ¥ ìłľ
ĠR ec
Ġë¬¸ ëĭ¨
Ġë¶Ģì§Ħ íķľ
ìłĢ íķŃ
Ġíıīê·ł ìŀĲì±ħ
ð Ł
ìĿ¸ ëªħ
íķ´ ìĻ¸
ĠìĤ¬ëŀĳ ìĿ´
ĠëĿ¼ ìļ´
ëħ¸ìļ° ìĹĲ
v ent
Ġë°Ķ ë¦¬
íķĺ ìļ°
ĠìłĲ ìĭ¬
ĠëĮĢ ìĹŃ
ĠAr t
Ġëĭ¨ ëĭ¨íķľ
Ġ9 1
F O
ê³ł ìŀĲ
Ġd own
ĠìĿµìĪĻ íķľ
ë¯¸ìĤ¬ ìĿ¼
Ġê·ľ ìłľ
ëł¸ ëĭ¤ê°Ģ
ê³ł ëŀĺ
ê±° ì§Ħ
ì¤ĺ ëıĦ
ëį §
Ġë¹Ħ ìŀĲ
ë³Ģ ìĨį
ĠìĬ¤íĥ¯ ìĿ´
ĠëĤł ìĶ¨
Ġì´Ŀ íķ©
Ġì¶©ê²© ê³¼
ĠëĤ´ ì£¼
Ġíıī ì°½
ë©Ķ ìĿ´ì§Ģ
Ġëĭ¨ ëł¨
Ġëħ¹ íĻĶ
Ġë¹Ħ ì¶Ķ
ĠëĴ¤ ë¡ľëĬĶ
B E
ëıĦ ìĤ¬
um mer
Ġëħ¸ëıĻ ìŀĲ
ĠìŀĲ ê¸°ëıĦ
Ġìļ° íİ¸
Ġê²ĮìŀĦ ìĿ¸
ĠP R
Ġë°ĶëŀĮ ìĿ´
ĠìĿ´ ì²ĺëŁ¼
íļĮ ëĭ´
Ġê¸°ìĹħ ìĿ¸
Ġë¯¸ ëģĦëŁ¬
ìĿ´íĬ¸ ìĿĺ
ê±°ë¦¬ ìĹĲìĦľ
ĠìĨ¡ ì¶ľ
Ġì°© ì§Ģ
ĠìĿ´ìª½ ìĿ´
Ġì²¼ ìĭľ
Ġë¬´ ìĭ¤ìłĲìľ¼ë¡ľ
ëĮĢíļĮ ìĹĲìĦľ
ĠìĹĨëĭ¤ ìĭľíĶ¼
íĶĦë¡ľëĵĢ ìĦľ
Ġê±°ë¶Ģ íķĺê³ł
Ġë§Įëĵ¤ ì§Ģ
ëħĦ ìłľ
Ġë¹Ħ ê¼¬
ĠíĻĺê²½ ìĹĲìĦľ
ê²½ì°° ìĦľ
ĠëĤĺ ìĦ°ëĭ¤
Ġì±Ķ íĶĦ
Ġê°Ģ íķĺëĬĶ
Ġì§Ģ ëıĦë¥¼
ê²¨ ìĦľ
ëĪ Į
ì²ł ìĪĺ
Ø §
ĠìĤ´ ìķĺëĭ¤
ìĺ¤ ë©°
ë¸Į ëĬĶ
ĠíĶĮëĿ¼ ì¦Īë§Ī
ĠìĽĲëŀĺ ë¶ĢíĦ°
ĠíĬ¸ëłĪìĿ´ ëĦĪ
Ġ ĠĊ
ê³ł ìĤ¬
ìĭł ìĦ±
ĠëĮĢëĭ¤ ìĪĺê°Ģ
ĠìĦ± ìĿ´
ĠìĪľ ìĸĳíķ¨
ĠíĶĦëłĪ ëį°
ëĵľ ë¥´
Ġëĭ¤ íķ´
Ġë°ķ ìĤ¬ê°Ģ
Ġìłľ ìķ½ìĿ´
Ġìĥģ íķľ
Ġë¬¸ íĻĶê°Ģ
ĠëĤ¨íİ¸ ìĿ´
ãĥķ ãĤ
ê³¼ ìĿ´
Ġíķľ ìĪ¨
ìĿ¸ íĺķ
ĠìŀĶ ìĿ¸
Ġìĺ¤íĶĦ ëĿ¼ìĿ¸
ĠìĤ¬ ê´Ģ
Ġìłľ íľ´
Ġê¹Ģ ìĽĲ
åº ¦
Ġìĺģ ê°ĲìĿĦ
ĠíļĮ ê·Ģ
ĠìľłëĮĢ ìĿ¸
èĹ ¤
Ġìľł íĥĦ
ĠìĺģìĽħ ìĿĺ
ĠìĺĪìłķ ìĿ´ëĿ¼ê³ł
Ġëªħ ìĿ¸
Ġê°Ģ ìĿĺ
íŀĪ ë©´ìĦľ
ĠëĤ´ ìłķ
Ġìľłìļ© íķĺê²Į
ĠíļįëĵĿ íķľ
ìĹ° ìĬ¹ìĿĦ
Ġì¡° ëł¥
Ġë¶Ī ë¥ľ
ìĸ¸ ìłķ
Ġë¬´ë¦¬ íķľ
ë¹Ħ ë°Ģ
Ġêµ° ìļ©
ĠìĻĶ ìĿĦ
ì½Ķ ì¹ĺ
ĠìľĦíĺĳ ìłģìĿ¸
Ġë²łìĿ´ìĬ¤ ë¡ľ
ĠìĿĺ ìĤ¬ê°Ģ
ëĤ´ ìħĶëĦĲ
ĠB E
ĠëıĻ ë¡ľë§Ī
Ġìŀħ ìĦ±
ĠëĶĶ ë¹ĦìłĦ
d e
ĠìķĪ ìĦ±
Ġê²½ì°° ìĿĺ
ĠìĹ £
Ġ @
Ġê¸°ë°ĺ ìĿĦ
Ġë» ĺ
ìļ° ìĬ¹ìĿĦ
ĠëĬĺ ìĸ´ëĤ¬
em ent
ĠìĬ¹ ìŀĲ
tern ational
Ġ193 6
Ġì¡°ì§ģ ìĿĦ
Ġê¸°ëħĲ ìľ¼ë¡ľ
Ġëħ¸ë¶Ģ ëĤĺê°Ģ
ĠìĿ¸ë¬¼ ìĿĺ
ĠX X
Ġìĸ´ ìĬ¤
Ġëĥī ëıĻ
ìĭľíĤ¤ ëł¤
ĠíĻĶë©´ ìĿĦ
íķĺ ìľĦ
ĠëıĮëł¤ ë³´
Ġì£¼ ë¨¹ìĿĦ
æ §
ë°© ê³¼
ĠìĦ±ê³µ íķĺë©´
Ġìĺ¨ ëª¸
Ġë§Įëĵ¤ ìĹĪê³ł
ìĭł ê¸°
íķĦ ìļĶ
íķĻ ìĿ´
Ġê±´ ëį°
Ġìķ¼ ë§Į
Ġë°Ľìķĺ ìĿĦ
Ġëļľ ê»ĳ
ìĿ¼ ê¹Į
ĠìĿ¸ ëł¥
ĠëĤ´ ë©´
ĠíķĦ ìĹ°
ĠíĿ¥ ë¶Ħ
Ġë¶Ī ì¾Į
Ġíģ¬ë¦¬ìĬ¤ íĨł
ê³µ ì¤ĳ
ĠìĪĺíĺ¸ ìŀĲ
Ġì¤ĳìĭ¬ ìĿ´
Ġìĺģ ëĵ±íı¬
Ġë°Ŀ íŀĮëĭ¤
Ġë°ľ íĨ±
ëĤĺëĿ¼ ë¥¼
ĠìĹŃ ìĹĲìĦľ
Ġë²Ķ ìĿ¸
Ġë¬´ ëıĦ
ë©Ķ ìĿĺ
ĠìĦ¤ìłķ ìĹĲ
Ġê°Ķ ìĿĦ
ĠìķĬ ê²łëĭ¤ê³ł
íķľëį° ëĭ¤
Ġë¡ľ ìĬ¤íĬ¸
ìĽĢ ìĿĺ
ĠìĦ¤ì¹ĺ íķľ
íķ «
ì²Ń ìĨĮëħĦ
ì¦Ī ëĭĪìĬ¤
Ġëĭ¨ ì²´ë¡ľ
Ġì¹¼ ëĿ¼
Ġìĭľê°Ħ ê³¼
G o
Ġìłķ ìĤ¬
Ġì²´ ëł¥ìĿĢ
Ġì½Ķ ëĵľë¥¼
ì°¬ ìĿ´
Ġë¶Ī ê¸¸
ĠìĤ¬íļĮ ìĹĲ
ĠìĿ¼ ìłĪ
ëĤĺ ìĭľ
ìĺĪ ê°Ģ
Ġíķ©ë¥ĺ íķľ
ĠíĿĺ ëŁ¬ëĤĺ
Ð ²
Ġê±° ë¦¬ëĬĶ
ĠíĥĢ ì¹ĺ
Ġê±´ ìĿĺ
ĠìķĮê³ł ë¦¬ì¦ĺ
ĠìĿ¸ìĥģ ìłģìĿ¸
Ġê³ł ìļ°
ìłģ ìĿ´ëĿ¼ëĬĶ
Ġìĭ¤ ì²ľ
ĠëĤ¨ ëĬĶëĭ¤
ic an
íĹĮ íĦ°
íķ´ íķľëĭ¤
ĠìĬ¤ë¦´ ëŁ¬
ëıĦ ëĭĪìķĦ
íĶĦ íĬ¸ë¥¼
ê°ľ ê·¸
ì½¤ íķľ
n ess
Ġê°ľ ìĹ°
ĠìĤ¬ ê²©ìĿĦ
Ġë§Ĳ ë§Į
ëĤł ìĿĺ
Ġëªħë°± íķľ
Ġë§µ ìĹĲìĦľ
ì£½ ìĿĦ
Ġë§ ´
ì§Ģ ìĿ´ëĭ¤
íķĻêµĲ ë¥¼
g er
ĠìĽĮ íģ¬
Ġì¤ĳ ìĦ±
Ġë°Ķ íĭ°
íĭ° ëĦĺ
ĠëĨĴ ìķĺëĭ¤
Ġê³¨ ë¡ľ
ĠBl ack
Ġíķĺ íĽĦ
ĠíĸĪ ëĬĶì§Ģ
o int
ĠëĴ¤ íĨµ
íİ¸ ê³¼
ĠëĽ° ì³Ĳ
ĠëıĦìĭľ ê°Ģ
Ġì¥ °
Ġë¯¸ ë¯¸
íķĺëĭ¤ ë³´ëĭĪ
) ãĢį
Ġë³Ħ ìĿ´
Ġë°°ìļ° ê°Ģ
ĠíĬ¸ë¦¬ ê±°
íķĺ ëĵ¯ìĿ´
ìĹ° ê³¼
Ġíĺķ ìĥģ
ĠìĨĮìľł íķĺê³ł
ìĬ¤íĥĢ ê°Ģ
Ġìłķ ìĿ´
Ġë²ł ë¦¬
Ġëª» íĸĪìĿĦ
ëıĪ ìĿĺ
ĠìĽĲ ë§Ŀ
ê³µ íı¬
Ġë°° ìĪĺ
Ġì¹ľ ìłķ
Ġê°ķ ìĿĦ
ĠëĦ£ ìĸ´ìĦľ
Ġê³µê°ľ íķľ
Ġë§Īë²ķ ìĿ´
íĮ¨ ìĭľë¸Į
Ġì²ł ê°ĳ
Ġëª» íķĺì§Ģë§Į
ìķĦ ë¦Ħ
ãĤ »
ĠìľĦíĹĺ ìĿĦ
Ġê±¸ ì¦Ī
Ġë°Ŀ íŀĪê³ł
Ġìĭľì²Ń ìŀĲëĵ¤ìĿĺ
íļ¨ê³¼ ê°Ģ
Ġê·¹ ìĭ¬íķľ
Ġìĭľ ìĺ¤
Ġìĭľ ëª¨
ìĺ¤ ëĬĶëį°
íĶĦ ëłĪìĬ¤
Ġë¸ĮëĿ¼ ëįĶ
Ġìĵ° ë©°
Ġê±°ëŀĺ ë¥¼
Ġê¸°ëĮĢ íķł
Ġì¹´ ë¦¬
Ġêµ¬ íķĺëŁ¬
å¸ «
" )
Ġìħ ľ
ìĮ Ķ
Ġìłķ ì¤Ģ
Ġë¦¬ ëª¨ëį¸
âĢ ł
ĠìºĲëĤĺëĭ¤ ìĿĺ
ĠìĶ ©
ê²° ìĹĲ
ìĻĦ ìłĦ
Ġìľ¤ ë¦¬
Ġëĵľëŀĺê³¤ ë³¼
ê± Ģ
ë²Ħ ëĬĶ
ìª½ ìĿĦ
ìĿ´ìķ¼ ê¸°
Ġë¹Ħ ëĭ¨
íĶĦ íĦ°
ëıħ ìĿĦ
ĠíĻľëıĻ íķĺìĺĢëĭ¤
Ġìķ¼ ìĻ¸
Ġn ight
íĺ¼ ìĿĦ
Ġìĺģ ìĸ´ë¥¼
ĠëģĿ ëĤ´ê³ł
Ġb ack
ĠìŀĪìĹĪ ëĬĶì§Ģ
íĬ¸ ë£¨
Ġê³ł ëıĦ
ĠíķľíĥĢ ìĹĲìĦľ
Ġë°©ìĨ¡ ëĲľ
ìĭľ ëĮĢìĹĲ
ë°Ľ ëįĺ
Ġëľ¨ ê³ł
Ġë°Ķ ëĶĶ
Ġì¶ĺ ì²ľ
ìĬ¤ ìĽ¨ëį´
Ġë¹Ħ ìĸ´
Ġìĸ´ ìĦľ
Ġëª©íĳľ ëĬĶ
ĠìľĦì¹ĺ ë¡ľ
Ġíķ´ê²° íķĺê¸°
ê³¼íķĻ ê¸°ìĪł
Ġë§ĪìĿ´íģ¬ë¡ľ ìĨĮíĶĦíĬ¸
ĠìĿĺ ë¬¸ìĿĺ
ĠìĹĲ ëłĪ
ĠëĮ Ĳ
ë²Ī íĺ¸ë¥¼
ë£Į ë¡ľ
íķ´ ë²Ħë¦¬ëĬĶ
ìłĦ ëł¥
Ġìĸ¸ ìĸ´ë¥¼
ĠìľĦìĽĲ íļĮ
Ġë¸ĮëłĪìĿ´ ë¸Į
w o
ìĽĲ ëĵ¤ìĿĢ
Ġë¬¸ìłľ ìłĲìĿĦ
Ġëĭ¤ë¥´ ì§Ģ
ĠëıĻ ì°¸
ëĿ¼ê³ł ëĬĶ
Ġëª© ìĤ¬
Ġëĭ¹ìĭľ ìĹĲëıĦ
íķ´ ì§Ģê¸°
ëĤĺ ì¤ĳìĹĲ
ìĽĮ ì»¤
íķĺ ìĸĢ
Ġì°¨ ëĬĶ
ĠìĹ¼ ìĥī
ë¬¸ ìŀĲ
Ġì´Ī ê³ł
ìĿ¸ ë§Įíģ¼
Ġì§Ģ ëĤł
Ġë°ķìłķ íĿ¬
ĠìĬ¤íħĶ ìĬ¤
Ġìĵ° ë¦¬
Ġì§ģ ìĨį
Ġê²½ìŁģ ìĿĦ
ëª¬ ê³¼
ë°Ģ íķĺê²Į
ë¶Ģ ìŀĳ
ĠëıĮìķĦê°Ģ ê¸°
ìĽĶ ìĿĦ
íıŃ ë°ľ
ĠëıĦìĻĢ ì£¼ëĬĶ
ìĻķ êµŃ
Ġê²¸ ìŀĦ
ĠìłĦë°ĺ ê¸°
ĠìĬ¤ì¹´ìļ° íĬ¸
åł ´
ĠìĦ¸ ê¸Ī
ĠëĬ Ļ
Ġê¹Ģ êµ¬
ĠëĤĺê°Ģ ê³ł
ĠìĨĮê¿ī ì¹ľêµ¬
Ġê³³ ìĿĺ
Ġìĥģ ìłĲìĹĲìĦľ
Ġìŀĳê³¡ íķľ
ĠìĹŃìŀĦ íĸĪëĭ¤
Ġë²Į ê¸Ī
ìłģ ìĿ´ëĿ¼ê³ł
Ġíĩ´ ìĹŃ
ĠìĹĶíĦ°íħĮìĿ¸ ë¨¼
Y P
ĠìĤ¬ê±´ ê³¼
Ġê°ģ ìĿ¸
ĠìĻķ ë¹Ħ
Ġëĭ¤ìĿ´ ë¬ĺ
ĠìĦ¬ ê´ĳ
Ġìŀĥ ìĸ´ë²Ħ
Ġíı¬ íģ¬
Ġê¹ĢëĮĢ ì¤ĳ
ìĺ¤ ìļ°
Ġ3 50
Ġêµ° ëĭ¨ìĿĺ
ĠëıĦë§Ŀ ì³Ĳ
ĠìļĶ êµ¬ë¥¼
Ġì¹´ìļ´ íĭ°
ĠìĬµ ê²©ìĿĦ
ĠëĮĢê²° ìĹĲìĦľ
ìľł ëıĦ
ĠìĤ¬ìļ© íķĺëĬĶëį°
ìĸ¸ ìĸ´
Ġëĭ¬ ìĿ¸
Ġëª¬ íħĮ
Ġì¤ĳ ìŀ¬
ê°ľ ëħĲ
Ġë²łìĿ´ ë¹Ħ
ĠìĨĮ ìĽĲ
Ġì§ĢìĹŃ ìĹĲìĦľëĬĶ
Ġìłģ ê³¼
Ġíģ¬ ê¸°ë¥¼
ê°¤ ëŁ¬
ê°ķ ìłĦ
ĠìķĦë¦Ħ ëĭµ
ĠS uper
Ġíŀĺëĵ¤ ê²Į
Ġìŀ¥ê°ĳ ìĿĦ
ĠíİŃ ê·Ħ
ĠëģĿëĤĺ ì§Ģ
æ Ĩ
Ġ17 0
Ġë¹Ħ ì¹ĺ
Ġëĭ¤ìĿ´ìĬ¤ ì¼Ģ
ĠíĶĮëłĪìĿ´ ìĬ¤íħĮìĿ´ìħĺ
Ġì°¨ ì²´
ìķĦ ìĹĲê²Į
Ġíģ¬ë¡ľìķĦ íĭ°ìķĦ
Ġê°ĢëĬ¥ íĸĪëĭ¤
196 2
ì£¼ ì¿ł
ìĹ° íĮ¨ë¥¼
ĠìĪľ ìłķ
Ġë²Į ìĿ´ê³ł
Ġì¤ĳêµŃ ìĿ¸
Ġê°ľë°ľ ìĹĲ
Ġì»¨ìħī ìĿĦ
ĠìĹ°ê¸° íķľ
ìłĢ ê²ĥ
ĠìĨį ìĦ±ìĿĺ
ĠìĿ¸ê·¼ ìĹĲ
Ġê¸° íĶ¼
ĠëĤ® ê²Į
[ [
Ġë§Īì§Ģë§ī ìĹĲëĬĶ
Ġë§ĪìĿĮ ìĿĢ
ìĭľì¼ľ ì£¼ëĬĶ
ĠìĪĺ ìĿµìĿĦ
ĠëĬĲëĤĮ ìĿĺ
ìŀĲ ëĵ¤ëıĦ
ìĬ¤íĦ° ê°Ģ
L e
Ġë§Ĳ ìĿĺ
Ġë°© ìļ¸
Ġë²Ħíĭ° ëĬĶ
ĠìĽĲìłķ ìĹĲìĦľ
ìĪĺ ìŀħ
Ġì£¼ ìĭľ
Ġíĺ¸ ë¥´
ìĸ´ ëĿ¼
ë¶Ģ ë¦¬ê·¸
Ġë¨¸ë¦¬ì¹´ ëĿ½
} )]
Ġì¹ Ļ
Ġê³¼ ìłľ
Ġìĸ´ëĬĲ ëĤł
Ġì£¼ê¸° ìłģìľ¼ë¡ľ
Ġë¯¸ ê¶ģ
Ġë¶Ħ ëŁī
ê°Ĳ ìĤ¬
Ġ) ]
ìķł ê°Ģ
Ġìĸ´ëĬĲ ìĥĪ
ĠS o
ĠìºĲë¦ŃíĦ° ëĵ¤ìĿĢ
Ġì¶ķ ìłģ
ëķ ¡
ìĪľ ê°Ħ
Ġë§ĪìĿĮ ìľ¼ë¡ľ
Ġë°Ķê¿Ķ ìĦľ
Ġë£¨ íģ¬
ĠíĴ ĢìĿ´
ĠëĤĺ ë¬´ë¥¼
ĠìĹŃëĮĢ ê¸ī
Ġë²Ħíĭ° ê³ł
ĠìĦ± ë°°
ìŀĦ ë¬´
íħĮ ë£¨
íĳľ ë¡ľ
Ġëª© ìĹĲ
ĠíĻľìļ© íķ´
ĠìĨĮ ìĨĮíķľ
Ġë§º ìĿĢ
ëĨį êµ¬
Ġê¸° ì²´ê°Ģ
ë¶Ī êµĲ
å¤ ĸ
ë³´ ìĻĢ
ì¸¡ ìĿĢ
D F
Ġê³ł ëŀĺ
ìĺĢëĭ¤ ê°Ģ
Ġë°ķ ìŀ¬
ĠìµľíĽĦ ë¥¼
Ġë¡ľ ì»¬
ĠìºĲë¦ŃíĦ° ëĭ¤
p p
C om
Ġêµ¬ íķ´ì£¼
Ġíıīë²Ķ íķĺê²Į
Ġê²ĥë§Į ìľ¼ë¡ľëıĦ
Ġë¤ ¼
n o
âĢĻ ,
Ġë¶Ģ ë¦¬ëĬĶ
íĺķ ìĿ´ëĭ¤
ic ro
Ġë§Į íļĮ
ëª¨ ìĸĳ
Ġíķľ ëĮĢ
ë¯¸ ìķĪ
Ġê²¹ ì¹ĺëĬĶ
ëħĦ ìłĦ
ìĺĢ ëĬĶì§Ģ
ĠìĤ´ ê¸°
ĠíĶĦë¦¬ ëĵľë¦¬íŀĪ
ĠëĳĺëŁ¬ ìĭ¼
ĠìĥģíĻ© ìĹĲìĦľëĬĶ
ìĹ° ëıĦ
íİĺ ìĸ´
ĠìĿ¸ì¢ħ ì°¨ë³Ħ
Ġì¤ĳêµŃ ê³¼
m ìĿĺ
Ġê¹Į ëĭŃ
ë¦¼ ìĹĲ
s o
Ġìŀĥ ìĹĪëĭ¤
Ġìłľëª© ìĿ´
ë¹¨ ê°Ħ
ĠìĹĲ ë²Ħ
á ħ
ìĿ´ë¦Ħ ìĿĺ
v ol
Ġìłģ ìĸ´ìĦľ
Ġë°°ìļ° ê³ł
ĠëĿ¼ìĿ´ìĺ¨ ì¦Ī
ĠëĮĢ ëŁīìĿĺ
Ġë¬¶ ìĹ¬
ĠìĹ°ìĥģ ìĭľíĤ¤ëĬĶ
ìŀ¥ ìĪĺ
ĠíĽĦ ê¶ģ
D A
ìĹĲ ìĿĺ
Ġëĭ¹ ì²¨
ì»¨ ëĮĢ
ìķĦ ì¹¨
Ġê°ķ íķ´ìĦľ
le d
ĠëĦĺ ê¸´
ĠíĶĦë¡ľëłĪ ìĬ¬ë§ģ
ĠM M
Ġë°ĺìĺģ íķľ
Ġìĺģìĥģ ìĿĺ
ĠìŀŃ ìĬ¨
Ġë¬¸ìĦľ ë¡ľ
Ġëĵ¤ ë¦°ëĭ¤
ĠìĻĦìĦ± ëĲľ
Ġì¦Ŀê±° ê°Ģ
ĠìĦ¸ ì¸ł
Ġíİĺë¥´ ëĤľ
ĠìķĦ ì¤Į
AC K
ë¬¼ ì§Ī
ì½Ķ ìĹĲ
Ġì°¨ ë¡Ģë¡ľ
ĠìĻĶ ëĭ¤ê³ł
æĥ ³
ĠìĽĲìŀĳ ìĹĲìĦľ
Ġê³µíĨµ ìłģìľ¼ë¡ľ
ĠìĪĺ ë£Į
ĠìķĮëłī ìĬ¤
ê°Ģì§Ģ ìĿĺ
II I
ĠìĦ±ìĨĮìĪĺ ìŀĲ
ĠìĨĮ ìļ°
Ġìŀ¥ íİ¸
ĠìĹħ ìłģìĿĦ
Ġì²ĺì°¸ íķľ
ĠëĶ° ìľĦëĬĶ
ê°Ĳ íķĺê²Į
å® Ī
U R
ĠëĤ Ģ
ĠP er
ĠíĮ Ł
ĠìĦ¬ ìĿĦ
ĠìļĶì¦ĺ ìĿĢ
Ġíıī íĻĶë¥¼
ĠíķĻêµĲ ê°Ģ
ĠëĨĴìķĦ ì¡Įëĭ¤
ê²ĮìŀĦ ìĿĺ
íķĺ ëĦ¤
Ġì¹´ íĥĪ
ãĥ ¯
Ġìµľì¢ħ ë³´
ay er
ĠìĪĺ ìĹĲ
íĬ¹ ìĦ±
Ġìĭ¤ ì±ħ
ĠíĶĦë¡ľíĨł íĥĢìŀħ
è º
Ġì¶ľ êµ¬
Ġì§ĢìĹŃ ìĿ´ëĭ¤
Ġìŀ¡ ìķĦìĦľ
Ġì£¼ ìłĦìľ¼ë¡ľ
ĠìĥĿìĤ° íķĺëĬĶ
Ġê³µíı¬ ë¥¼
Ġìĸ´ì°Į ë³´ë©´
ĠìĹĲìĬ¤ íĮĮ
íĬ¸ ìĹĲê²Į
ìļ© ìĤ¬
ìĭľ íĶ½
b y
ë²Ķ ìĿĺ
Ġì£¼ìŀ¥ íķĺê³ł
ĠëĮĢ ê³ł
ĠíĮ¨ ëĭī
Ġê½ ģ
Ġë§º ìĸ´
Ġê°Ļ ê³ł
ë¦½ ìĬ¤
ĠíĥĢìĿ´íĭĢ ê³¡
Ġìĥģíĥľ ëĿ¼
Ġì ¯Ķ
Ġìĭľ ì²´ê°Ģ
ĠìľĦ íĥģ
ĠìłĲ ìľ¼ë¡ľ
ì¹Ń ìĿ´
ë§Ī ëĭĪ
ĠìľłìłĢ ëĵ¤ëıĦ
Ġë¶Ħ ëĮĢ
Ġëªħ ëª©
ĠìĿĮ íĸ¥
Ġìī¬ ëĬĶ
Ġë§Ī ëĶĶ
Ġê°ľê·¸ ë§¨
} {
íķľ ê²Į
ĠìĿ¸ê°Ħ ìľ¼ë¡ľ
å ¿ł
Ġë°° ë¡ľ
ĠìĦ± ìłĦ
Ġíĥľ ìĥĿ
Ġë¬´ìŀĳ ìľĦ
é Ĭ
Ġìĸ¸ê¸ī íķĺëĬĶ
ĠìĹħê·¸ëłĪìĿ´ ëĵľê°Ģ
ĠìĤ¬ ìĪĺ
ĠìĹŃ ê´Ģê´ĳ
ĠëĬĲëĤĮ ìľ¼ë¡ľ
ĠêµŃëĤ´ ìĹĲ
íĸī ìĹĲ
ì¢ħ ë¥ĺ
Ġíĸī ìĤ¬ë¥¼
Ġì¡°ìĦł ìĭľëĮĢ
ë¯¼ ëĭ¹
Ġëª¸ íĨµ
ë¶Ģ ìĥģ
ê³¡ ëıĻ
ë²Ħ íĶĦ
íĸī ìľĦë¥¼
ĠìĿ¼ íĴĪ
Ġw ay
è· ¯
ĠìĪĺ ìĨĮ
ãĥĥ ãĤ¯
c on
ëıĻ ê¸°
Ġê°Ģ ëĭ¤
ĠëĤ¨ ìĦ±ìĿ´
íķľ ë²Ī
ë¶Ģ ìĹ¬
Ġì§Ħíĸī ëĲĺê³ł
Ġìłķ ë¦½
ë°© íĮ¨
ìĬ¹ ìľ¼ë¡ľ
ìļĶ ìĨĮ
Ġìļ´ íķŃ
ĠëĮĢëĭµ íķľëĭ¤
ç Ńī
ĠëıĻ ì¡°
ê·Ģ ê°Ģ
ĠìłĦìŁģ ìľ¼ë¡ľ
ĠìķĦ ë¦¬ìĬ¤
ìĨĮ ëĵĿ
ì¹´ ì¿ł
Ġíį¼ íİĻíĬ¸
êµŃ ìľł
Ġê°Ģì¡± ìĿĺ
ĠìĹ¬ ìĿ¸
Ġë²Į ìĿ¸ëĭ¤
ë³´ ê·¸
Ġìłķ ìļ°
ì¤Ħ ê±°ë¦¬
ĠìĹ¼ ëł¤
Ġë³¼ ëĵľ
ëĲĺ ëıĦë¡Ŀ
ãģ Ķ
Ġs ome
ìĿ¸ íķ´
ì¸¡ ìĹĲìĦľ
Ġë¹Ħì¤ĳ ìĿĢ
L et
ìĺµ ìħĺ
ëĳĺ ëŁ¬
Ġd es
Ġëĵľë¬¼ ëĭ¤
ĠìĤ¬ ëĤ´
Ġê´Ģ íķĺìĹ¬
Ġìĭ¤ ë£¨ìĹ£
ĠìĻ¸ ë¡ľ
ë²Ħ ê±°
d u
ĠíĥĢ ì§Ģ
Ġë³´ ìĥģìĿ´
Ġì½ °
ëĮ Ĳ
Ġëį°ìĿ´ ë¹Ĺ
l a
Ġíķ´ ë¥¼
Ġì¤ĳê°Ħ ì¤ĳê°Ħ
ĠëĮĢíķĻ ìĿĺ
Ġê²© ì¹¨
Ġë§Īì½Ķ íĨł
Ġì§ Ļ
ãģĦ ãģĦ
. }}}
ë³¸ ìĿĺ
Ġëĵ¤ìĸ´ ìĻĶëĭ¤
ĠìŀĪ ëĤĺ
ë³¸ ìĿĢ
ĠíĮ¨ íĤ¤
ìĺĪ ìłķ
ĠìĪĺ íĹĺ
A ll
ec ial
ë¶Ģ ìĤ¬
ë©Ķ ìĭľ
Ġë¦¬ê·¸ ìĹĲ
ë¯¸ëĦ¤ ìĿ´íĦ°
ìĹ¬ ê¸°ìĹĲ
ĠíķĻ ìľĦë¥¼
ĠìĪĺ íıī
ì£¼ìĿĺ ìĹĲ
ĠëĨĵ ëĬĶ
íķľíħĮ ëĬĶ
æ ĩ
ìļ° ëŁ¬
ĠìĦłíĥĿ íķĺë©´
ĠëĦĺìĸ´ ê°Ķëĭ¤
ìĺĪ ìĿĺ
Ġë¬´ëĦĪ ìł¸
ìĬ¤ íĨ°
íĦ´ ìĿ´
ì²Ń ìĿĢ
ĠB M
ĠíĥĪëĿ½ íĸĪëĭ¤
ìĭľ ê²Į
ĠìĤ¬ ì°°
Ġëĭī ëĦ¤
ê±´ ì¶ķ
ĠìĹŃ ìĤ¬ëĬĶ
ê¸°ë¡ľ ëĬĶ
Ġíı¬íķ¨ íķ´ìĦľ
Ġëĭ¤ íĪ¼
Ġëª¨ ëįĺ
ĠëĨĵ ìķĺëĭ¤
ĠíĺĪ íĨµ
Ġìļ¸íĬ¸ëĿ¼ ë§¨
ë²Ķ ìĿĦ
Ġë¶Īê°Ģ ìĤ¬ìĿĺ
ĠB BC
ĠíĸĪ ìľ¼ëĭĪ
Ġëħ¸ìĦł ìĿĺ
ìĥĪ ê°Ģ
Ġë°ķ ë¬¼
Ġë³´ê³ł ìĦľ
ĠD o
ĠìĪĺ ëĿ½
Ġë¯¸ ëĵ¤
Ġof f
Ġêµ° ìĤ¬ë¥¼
Ġì¹Ń íĺ¸
ë¦¬ ëĿ¼ëĬĶ
ĠëĤĺ ìĿ¸
Ġìłķ ìŀ¬
ëĤľ íŀĪ
Ġëĵľë¦½ ìĿ´
Ġê¸° ì°¨
ĠìķĪ ìĹĲëĬĶ
Ġìłľìŀĳ ìĿĦ
ĠìĹī ëį©
ìĨĮ ëª¨
íģ´ ë¦¬ìĸ´
ĠìłĦ ìĪłìĿĦ
Ġëªħ ëĭ¨ìĹĲ
ìĬ¤íĥĢ íģ¬ëŀĺíĶĦíĬ¸
ĠìĿ´íĽĦ ë¶ĢíĦ°ëĬĶ
ĠëĨį ëĿ½
ìĪĺ ìĨ¡
ì¤ĳ ê°ĦìĹĲ
ë°©íĸ¥ ìľ¼ë¡ľ
Ġíķĺ ëł¤ë©´
ĠìłľêµŃ ìĿĢ
Ġê²ĥ ëĵ¤
íĮĲ íĥĢ
Ġìĺ¬ëĿ¼ê°Ģ ë©´
èĩ £
Ġëĺĳ ëĺĳ
ag on
Ġê±´ë¬¼ ìĹĲ
Ġë³´ ê¸°ëıĦ
ĠB GA
Ġíĺľ íĥĿìĿĦ
ĠíĹĪ ìľĦ
ìį ¹
íİ¸ ê³¡
ĠìĦ¸ê³Ħ ìłģìĿ¸
ëĳĲ ê·¼
ê¸ī íķľ
ìĥģ ìĹħ
Ġë§Į íķĺëĭ¤
è¶ Ļ
íĻĶ ìĹ¼
ĠëķĮ ë¡ľëĬĶ
D igital
ë§Į ìĽĲìĿĦ
Ġíŀĺ ê³¼
ëł¤ ëĤĺ
ì§Ģ ëĭĪìķĦ
Ġë®¤ íĥĪ
ì£¼ ìĭĿ
ëıĻ ìĽĲ
íķĳ íģ¬
Ġì£¼ìŀ¥ ëıĦ
ĠìĿ¼ì¢ħ ìĿ´ëĭ¤
ì°¨ ëĮĢìłĦ
ĠìĻ¸ ëª¨ê°Ģ
ìļ° ëĭĪ
ìĤ´ ë¡ľ
ë¬´ ìĻĢ
Ġê½ĥ ìĿĦ
I E
Ġëĭ¤ ëĭĮ
Ġìĭľì¦Į ìĿĢ
åħ Ī
ãģĻ ãĤĭ
ĠìĦłìĪĺ ëĭ¨
Ġìłķ íĺķ
ëĿ¼ìĿ´ ì¦Ī
Ġê¸°ê´Ģëĭ¨ ì´Ŀ
Ġì¡´ìŀ¬ ëĬĶ
ĠìĽĶ íĻĶ
ĠìĿ´ ì°½
Ġì§Ģ ê°ģ
Ġê°ķ ìĬµ
ĠìĤ¬íļĮ ìĹĲìĦľ
ĠìĿ´íķ´ íķĺì§Ģ
ĠìĿ¸ íĺķìĿĦ
Ġëĭ¤ëĭĪ ê³ł
AR D
ĠìķĦ ê¹Ŀ
Ġê²½ì°° ìĿĢ
ìļ°ì£¼ìĹ° ìĥģ
Ġë¦¬ ë²ł
ë¹Ľ ìĿĺ
ë©ĭ ëĮĢë¡ľ
ĠëĴ¤ ëį®
ĠíĥĢìĿ´ê±° ì¦Ī
Ġíĺĳ ìĿĺ
ìĥ¤ ìĿĺ
ìķĦ ìĤ¬
Ġê²Ģ ìĤ¬ë¥¼
ĠìĿ´ê¸° ì§Ģ
íĹĪ ëĤĺ
ĠìĬ¤ íĶĮëŀĺ
Ġê°ķ íĻĶë¥¼
Ġd isplay
ë§ĪìĿ´ íģ´
Ġë°Ķ ê·¸
ĠíĽĦ ë¡ľ
Ġëĵ¤ ìŀĲë©´
ĠëĦĪ íģ´
Ġì¤ĳêµŃ ìĿ´
ĠìĬ¤ íĭ±
Ġê¸° ê°ĦìĹĲ
Ġë°° íĽĦ
Ġm ore
Ġëĭī ëĦ¤ìŀĦ
ĠëĮĢ ëĮĢë¡ľ
Ġìĭł íĺ¸ë¥¼
ëįĶ ë¶Īìĸ´
Ġìĭł ìłĦ
ĠêµĲ ìĹŃ
Ġìĭł íĻĶìĿĺ
el y
ĠìĪĺ ì¹ĺëĬĶ
Ġë³´ ë³µ
ìĺ¤ìĬ¤íĬ¸ ëłĪìĿ¼
Ġìĸĳ ìķĦ
Ġê¸°ë¡Ŀ íĸĪê³ł
ìĺģ ìĽĲ
ĠíĮ© ìħĺ
ĠíļĮ ê³ł
Ġëª¨ìľ¼ ê³ł
Ġê°Ģ ì°½
Ġìĭľê°Ħ ëıĻìķĪ
ĠìĨĮìŀ¬ ë¥¼
d ay
ê·ľ ìĿĺ
ë§ŀ ìĿĢ
ĠìĤ´íķ´ íķľ
ĠìľłëĭĪíı¼ ìĿĦ
ĠëĮĢ íĥĢë¡ľ
ĠìĿĺ ìŀ¥
« ¼
íĥĢ ëĿ¼
Ġì²ĺ ë¶Ħ
Ġíĺ¸ ìĭľ
ĠëĦĵ ê²Į
Ġê³µê²© íķĺë©´
ëį° ëª¨
ìķĦ íĮĮ
Ġíĺķ ìĿ´
Ġì£Ħ ìĨ¡
ĠíĮĮìķħ íķĺê³ł
Ġìĭľ íĿ¥
ï §
Ġë³´ ê¸°ëĬĶ
ë§Ī ì¼ĵ
ëĸ ¨
Ġìŀħ ë²ķ
ĠìłĦíĪ¬ ëł¥ìĿĦ
Ġë§º ìĹĪëĭ¤
ĠëĨĢëŀį ê²ĮëıĦ
Ġë§Ī ì³¤ëĭ¤
Ġì¡° ì»¤
ĠêµŃ êµ°
Ġëĵľ ë£¨
íĶĮ ìĿĦ
Ġê°Ĳ ìŀĲ
íķĺìĺĢ ìĿĦ
æµ ģ
ĠìķĦ ëĵ¤ìĿĺ
Ġëĥī ê°ģ
ĠìķĦëĤ´ ë¥¼
ç ħ
ĠìĪĺìłķ ëĲĺìĹĪëĭ¤
ëĤĺ ë¡ľ
Ġì¦Ŀê±° ë¥¼
Ġìļ° ëĬĶ
Ġë²Ķì£Ħ ë¥¼
ëĤ´ ê²Į
Ġìŀħ ì²´
Ġë²ł ëĭĪ
Ġí ĳ¹
Ġê°ķ ìĪĺ
ì§ĳ ìľ¼ë¡ľ
ĠìĻķ ìĭ¤
Ġìķ¨ë²Ķ ìĹĲ
Ġíľĺë§Ĳ ëł¤
ëĤľ ìĿĦ
ĠìķĦëĭĪ ëĥĲê³ł
Ġì¹ľ ìĦł
b s
ĠìłĦíĪ¬ ëł¥ìĿ´
ĠíĤ¬ ìĿĦ
ĠìķĶ ìļ¸
Ġëª¨ëį¸ ìĿ¸
Ġë¬´ê¸° ìĻĢ
ĠëĮĢíĳľ ê°Ģ
ĠëĦī ë°±
ìĹĺ ë¦¬
Ġí īģ
ìĹĲìĦľ ëĤĺ
Ġë¬¸ìłľ ìĻĢ
æĪ ĳ
ìŀ¥ ê´Ģ
. ),
ĠìĬ¤íĨł ë¦¬ìĹĲ
ĠìĿ´ íĻĶ
Ġê³Ħ ê³¡
ëĨ¨ ëĭ¤
ĠíĽĦ ì§ĢìĻĢ
ĠìĮĵ ìĿ¸
ĠìķĦëĤ´ ìĻĢ
ĠìĹĨ ìĹĪëĬĶëį°
Ġë°ķ ìĤ¬ìĿĺ
ê²½ ê¸°ê°Ģ
ĠìĿ´ìļ© íķľëĭ¤
ìĪ¨ ìĹĲ
ĠìĿ¼íĸī ìĿĺ
ìĥĿ ê°ģ
U P
ĠëĶ ķ
ĠëłĪë²¨ ìĹħ
ĠìĦĿ ë°©
ĠëıĻë£Į ë¡ľ
Ġ und
ĠA mer
Ġì¢ĭìķĦ íķĺì§Ģ
Ġëĥī ìłķ
et a
å¤ ı
Ġë³´ ìŀī
ëłĪ ìķĮ
Ġìķł ìłķ
Ġíĸī ìłģìĿĦ
ë£¨ ìĤ´
ĠU I
ĠíĻľìķ½ íĸĪëĭ¤
ìľł ìĤ°
ì½Ķ ë¡ľëĤĺ
ĠëĨĴ ëĭ¤ê³ł
Ġíį¼ ë¶ĵ
ĠìŀĲ ê¸°ëĬĶ
ì§Ħ ëĭ¤ëĬĶ
Ġë¯¸ ìĭĿ
ar ch
íıŃ ìĿ´
Ġê¹Į ë§Īê·Ģ
ĠìĿ´ ìĶ¨
ëłĪ ê¸°
Ġê±´ë¬¼ ìĿĺ
íĮħ ìĿ´
ĠìĿ´íķ´ íķĺê¸°
ĠíĨłëĦĪ ë¨¼
ê°Ĳ ìĿĺ
ë²ł ê°Ģ
ĠF PS
Ġì¤Ħ ë¦¬
ìĭľ ì½ĶìĿĺ
ìĥĿ ì¡´
ìĦ¸ ìĿ´ë²Ħ
ĠëĤ¨ ìª½ìľ¼ë¡ľ
ìĽĢ ìĹĲ
ĠA ss
ist ory
display style
Ġìľłë¡ľ íĮĮ
ĠëĪ ķ
Ġë¯¸ ìĦ¸
å ķ
ëł¥ íķľ
ĠëĤ´ ì£¼ê³ł
ĠëįĶìļ± ìĿ´
Ġìľł íķ´
ì³¤ ëĭ¤ê³ł
Ġë¹ħíĨł ë¦¬ìķĦ
íĿĶ íŀĪ
Ġìļ° ì¹ĺ
ĠìĿ´ íĺ¸
ìĿ¼ ë¶Ģë¡ľ
ëŀĢ ê³¼
ĠO ff
ê²Į ìļĶ
Ġ12 5
ĠìĿ´ê³³ ìĿĦ
ì¡° ê¸Ī
ë¶Ħ ë¥ĺ
Ġì§Ģê·¹ íŀĪ
íķĻ ìĬµ
íĸī ìĿĢ
ĠìĤ¬ìļ© íķĺê¸°ëıĦ
ĠíĤ ·
ĠìĿ´ëıĻ ìĿ´
ĠìĹŃíķł ëıĦ
ë°ĶìĿ´ ìŀĶ
ĠìĪĺ ëĭ¨ìľ¼ë¡ľ
ĠìĨĮë¹ĦìĹĲ íĬ¸
ĠëĥĦìĥĪ ê°Ģ
ĠìłĦ ê°ľë¥¼
ĠëĶĶë²Ħ íĶĦë¥¼
ìĬ¤ íį¼
íĥĢ ëħ¸
u ro
Ġêµ¬ ë¶ĦìĿ´
ìĬ¤íģ¬ ë¡¤
ìłģ ìĿ¼
ĠìĬ¹ ë¦¬ìĹĲ
Ġê°Ģê²© ìĹĲ
ĠìĿ¼ë³¸ ê³¼
ê°ĳ ìĿĦ
ĠíĮ¨ ìŀĲ
Ġë¿Ĳ ìĿ´ê³ł
Ġì±ħ ìłķ
Ġíİ¸ ì°¬
ĠêµĲ ìĦŃ
Ġíĳľ ì¶ľ
Ġì°¸ ìľ¼ë¡ľ
ĠìĺģíĻĶ ë¡ľ
ìĽĲ ëĵ¤ìĿĦ
Ġë§Įëĵ¤ ë©´
åĸ Ħ
Ġì¸ł ì¹´
ĠìŀĲ ì§Ħ
ìłľë¥´ ë°ĶìĿ´ìŀĶ
ĠìĿ´íķ´ íķĺê³ł
ĠìĦľ ìĹ´
íĨµ ìłľ
íĨ¤ ìĿĺ
Ġë¯¿ ìĸ´
ì§Ħ ëıĦ
Ġë°Ģ ëłĪ
Ġë¸ĶëŀĻ íĻĢ
ëĳ ¡
ĠìĨįëıĦ ëıĦ
ìĭł ëĭ¤
Ġê¹Ģ íĿ¬
G ë¥¼
ìŀĲ ëĿ¼
ĠìĦľ ì§Ģ
Ġìļ° ë¦¬ë¥¼
Ġì²´ ìłľë¥¼
Ġìĺģ ìĹŃìĿĦ
Ġë¯¸ ëħĢ
ĠíĥĢ ëĭ¤
Ġì¿ µ
å° ĳ
Ġë¬´ ìŀ¥ìĿĦ
Ġì·¨ íķĺê³ł
ê³³ ìĹĲ
Ġìĥī ìĿĦ
ëªħ ìĿ´ëĤĺ
ĠëĮĢíķĻ ìĹĲ
ĠìłģìłĪ íķĺê²Į
ĠìĭľëĦĪ ì§Ģë¥¼
Ġìľłëł¥ íķľ
Ġë°° ìĹĲ
ĠìłĲ ê±°
ĠëĬ¥ ìĪĻ
ĠëĬ ĻìĿĢ
K ë¦¬ê·¸
Ġë¦¬ ë²ĦìĬ¤
ĠëŁ ¼
ãģª ãĤī
ĠëĵľëŁ¬ ëĥĪëĭ¤
X ìĿĺ
Ġë²Ħ ìĬ¤ê°Ģ
Ġë§ĮëĤĺ ëŁ¬
Ġì¹ľêµ¬ ë¡ľ
Ġìĳ ¤
æĪ ¦
Ġë³¸ ìĤ¬
Ġê³µ ìĦ¸ë¥¼
ìŀħ êµ¬
ĠíĻĺê²½ ìĿĦ
Ġì»¨ìħī ìľ¼ë¡ľ
ê¸° ìķ¼
Ġë¬´ ìĭ¤ìłĲ
Ġìŀ¥ ìĿĦ
Ġì¸¡ ìĹĲ
ìĦ¸ ì¸ł
ëŁ¼ ë¹ĦìķĦ
ĠìĦłíĥĿ íķĺëĬĶ
ĠíĮ¨ ì¹ĺê°Ģ
Ġìŀĳì¤ĳ ìĹĲìĦľëĬĶ
ëĭ¹ íķĺì§Ģ
ì¹´ ìłľ
ĠB o
ĠìĤ¬ íĤ¤
ĠíĬ¹ì§ķ ìľ¼ë¡ľ
Ġì¢ģ ìķĦ
ĠíĿ¬ ëĮĢìĿĺ
ĠíĴĪ ìĿĢ
Ġê´Ģëł¨ íķľ
ìĬ¤íĥĢ ìĿ¼
Ġíı¬ì¼ĵëª¬ ìĬ¤íĦ°
Ġê³ł ë¦¬
Ġë¬¸ ìŀĲë¥¼
ë¹Ħ ìĸ¸
ĠëĤ¨ ë°ľ
ĠìĻ¸ ëª¨ë¥¼
ĠìķĦë²Ħì§Ģ ìĹĲê²Į
Ġê°ĲìĹ¼ ëĲľ
ĠìĥĿê°ģ ìľ¼ë¡ľ
Ġêµ¬ ìĦĿ
Ġ193 7
ĠìķĬìĿĢ ëį°
ĠìĿ´ìłĦ ê¹Įì§ĢëĬĶ
ont r
ĠìķĬ ìľ¼ë©´ìĦľ
ĠìĨĮëħĢ ìĿĺ
ëĭ¤ íĸī
Ġê²½ ê³Ħë¥¼
Ġê°ķ íĸī
Ġì¶ľìĹ° íķĺìĺĢê³ł
Ġìĵ¸ëį° ìĹĨìĿ´
Ġì¶ľìĹ° íķĺëĬĶ
Ġê¸°ë°ĺ ìĿĺ
ìºł íĶĦ
Ġíķĺ ìĺĢëĬĶëį°
ĠìĿ¸ ëĶĶìĸ¸
Ġíķĺ ìļ°
Ġìĭ¬ ìŀ¥ìĿĦ
Ġë¯¸ ëĿ¼ìĿ´
íħĮ ëŁ¬
Ġëıħ ë°±
è ¬
Ġëĸł ëĤĺê²Į
ĠE RA
Ġìłľ ìŀ¬
ĠíĬ¸ë¡ľ íĶ¼
ĠìĦ¤ë¦½ íķľ
ì§Ģ ëªħ
ìłķ ìĪĺ
Ġë°ľ ì¹¸
Ġì¶Ķ ì²¨
Ġìĥ Ģ
Ġë³ĳ ìĽĲìĹĲìĦľ
Ġìłģìļ© ëĲĺìĹĪëĭ¤
Ġì¶ľìłĦ íĸĪëĭ¤
Ġíģ´ ëłĪìĿ´
ç¶ ĵ
Ġìķ¼ ë§Īëĭ¤
Ġë³¸ëŀĺ ëĬĶ
Ġì§Ģ ì¤ĳ
Ġì¢Ģ ë¹Ħê°Ģ
AN D
ĠìĦ¸ìĽĮ ì§Ħ
ĠëĿ¼ ìļ°
Ġíİ¸ ìĹĲìĦľëĬĶ
Ġì´¬ìĺģ ìĿĦ
v el
Ġìĭľ ìŀ¥ìĿĦ
Ġë¿ľ ìĸ´
ĠìķĦëĭĪ ìĹĪê³ł
ì§ĳ ìĿĢ
Ġë¶Ģ ì¶Ķ
ĠìĦ± ì§Ī
ìĭ ¯
Ġê²°êµŃ ìĹĲëĬĶ
ìłķ ë¥ĺ
ĠëĮĢíķľë¯¼êµŃ ìĹĲìĦľ
ĠìķĦ ëį¸
Ġë²Ī íĺ¸ëĬĶ
ĠíĮĮê´´ íķł
è į
Ġê²½ ìĿĺ
Ġìĺģ ëĤ¨
Ġìłģ ìŀ¬
ì±Ķ íĶ¼ìĸ¸
ĠëĤ¨ ê·¹
Ġëĭ¤ìĿĮ ìĿĺ
íĮ ľ
Ġë³ĳìĤ¬ ëĵ¤ìĿ´
ĠíĥĦìĥĿ íķľ
Ġë°ĺ íķŃ
ĠìĿ´ë£¨ìĸ´ ì§ĢëĬĶ
Ġë°Ľ ëįĺ
Ġíİ¸ ìĿ´ìĹĪëĭ¤
Ġì§ģ ìĹħìĿĦ
ëĪĪ ìĹĲ
ìķĬ ëĬĶ
ĠìĹ¼ ëĳĲìĹĲ
ë¶Ģ ëª¨
Ġìĸĳ ë³´
Ġ4 000
us s
ĠìķĦì¿ł ìķĦ
Ġëĵ¤ ìľ¼ë©´
is c
Ġìłľìŀĳ ìŀĲ
ĠìĦľìļ¸ ìĿĺ
Ġì£¼ë³Ģ ìĹĲìĦľ
Ġê¼½ íŀĪëĬĶ
ĠìĿĺ ì§Ģê°Ģ
íĩ´ ê·¼
ĠìĹĲíĶ¼ìĨĮ ëĵľë¥¼
Ġêµ¬ê°Ħ ìĹĲìĦľ
ë©ĺ íĥĪ
ĠìĿ´ ë§ĪìłĢëıĦ
Ġëªħ ëª©ìľ¼ë¡ľ
Ġê¼´ ìĿ´
Ġë³Ģê²½ ëĲľ
ëį Ł
ë¶Ħ ê³¼
ìĤ° ìĹŃ
Ġ if
Ġê³µ ìĬµ
ĠìĬ¤íĬ¸ ëłĪìĬ¤
Ġìºł íį¼
ê³ł ìĭľ
Ġê¹Ģ ì¹ĺ
Ġì¢ħ ìłĦ
ì§Ģ ìĹĲê²Į
ĠìĦľ ì¹ĺ
ĠìĹĲ ë³¼
Ġê¸° ìĪĺ
Ġë§Ī ìĹĲ
Ġë§Ī ì¹´
ĠëįĶ êµ¬ëĤĺ
ë²ł ë¥¼
ĠìĦľ íĥľ
ĠìĪĺ ì¤ĳ
Ġìĥģ ìŀĦ
ĠëĤ´ëł¤ ìĺ¤ëĬĶ
ĠìıŁìķĦ ìł¸
z y
Ġìĩ¼ íĬ¸
ĠìĿ¸ íħĮ
íĻĺ ê³¼
Ġì§ĳìķĪ ìĿĺ
ĠìŀĲ ë¹Ħ
ì¢ĭìķĦ íķĺëĬĶ
Ġíķľê°Ģ ìļ´ëį°
íķ´ ìĦĿ
Ġëįĺ ì§Ģê³ł
ĠìĤ°íĥĦ ì´Ŀ
íĥĦ ìĹĲ
ìĭľíĤ¤ ê±°ëĤĺ
ĠìĪľê°Ħ ìĿ´
íĻ© ìĿ´
Ġì£½ ìĿ¸ëĭ¤
Ġíĺ¸ ëŀĳ
ĠìĤ´ ìĿ´
Ġë¶ģ ê·¹
ĠëĮĢ ìĻķ
Ġê°ĢëĬ¥ íķ´ì¡Įëĭ¤
ĠìĿ´ë¦Ħ ìĹĲìĦľ
íķĺëł¤ ëĭ¤
D e
Ġê° ¸
ĠíĶĦëŀĳìĬ¤ ìĸ´
Ġìŀ¥ìĨĮ ìĹĲìĦľ
ë¸Ķ ë¡Ŀ
éĽ Ĩ
i ous
Ġê²½ ëł¥ìĿĦ
ĠëĮĢ íĮ¨
ëªħ ìĹĲê²Į
ĠíŀĪ ëĿ¼
Ġë¬´ì§Ģë§īì§Ģ íķľ
ĠJ ohn
Ġëĭ¨ ê³ĦìĹĲìĦľ
Ġë©Ķ êµ¬
ĠëłĪë²¨ ìĿĢ
ê¹ ¡
Ġíĩ´ ì¶ľ
Ġê³łë§Ī ìĽĮ
ĠI N
Ġê°ĳìŀĳ ìĬ¤ëŁ½ê²Į
ëıĪ ìĿ´
Ġëĸ¡ë°¥ ìĿĦ
ë£¨ìĤ´ ëłĺ
ĠR E
ĠìĬ¤ëĤĺìĿ´ íį¼
Ġìĭ¬ ìĥģ
ĠìĹĦê²© íķľ
ĠëłĪìĬ¤íĨł ëŀĳ
Ġíĥ Ķ
ĠëıĻ ê°ĳ
ĠìĦľ ë¯¼
ĠíķĻ ëĮĢ
ì¶© ìĿ´
Ġíı¼ ìĿĦ
Ġê·¼ ìĽĲ
Ġëĭ´ëĭ¹ íķľ
Ġê²ĥ ìĿ´ëĿ¼ë©°
ĠíĻķìĿ¸ íķľ
Ġê²ĥ ìĿĺ
ĠêµŃë°© ë¶Ģ
ĠìľĪ íĦ°
Ġìĭľ ìŀ¥ìĿ´
Ġê°ķ íĥĢ
Ġì¤Ħ ìĿ¼
åł Ĥ
ê ±±
Ġì½ ķ
Ġëĸłìĺ¤ ë¥´ëĬĶ
Ġë§Įëĵ¤ ê¸°ëıĦ
ĠëĶ°ëĿ¼ ìŀ¡
al d
íĻĶ íķĺê³ł
Ġìĥģ ìĦ±ìĿ´
Ġë¹Ħ ëªħ
çı ¾
ĠëĲĺ ê±°ëĤĺ
ĠëĦĺ ìĤ¬
Ġë§Ŀ ì¹ĺ
ìĽ¨ ìĿ´ìĿĺ
ĠíĮ¨ì¹ĺ ìĹĲìĦľ
Ġê²½ ê³łë¥¼
Ġë°Ķ ë¦¬ìĹĲìĿ´ìħĺ
Ġë¶Ħë¦¬ ëĲĺìĸ´
ì°® ìĿĢ
Ġìłľê³µ íķĺê³ł
Ġíķ¨ ëĮĢë¥¼
] :
æĺ Į
Ġëĭ´ ë°°ë¥¼
éĦ Ń
Ġë°© íĺ¸
ĠìĿ´ëıĻ íķľëĭ¤
Ġë§Įëĵľ ëĬĶëį°
Ġë¬´ ë¦¬ë¥¼
Ġë¶Ħ ëį°ìĬ¤ë¦¬ê°Ģ
Ġë§¥ ëıĦ
Ġê²½ì°° ìĦľ
Ġì¹ĺ ìļ°
ì°¸ ìĹ¬
ĠëıħìĿ¼ ìĸ´
Ġì´Ī ìłĲìĿĦ
ìĬ¤íĥĢ ìĿ¸
Ġë³ĳ íķ©
ä¸ĸ çķĮ
ìĦł ì§Ģ
Ġë²ķ íķľ
ĠìĤ¬ ê¸°ë¥¼
ìķ½ ìĿĺ
Ġìķ¼ë§Ī ëª¨íĨł
ĠìĿ¼ì»« ëĬĶ
íĬ¸ ëıĦ
å ¢
ë§Ī ìĻķ
ĠíĥĢ ìĦľ
Ġê±´ ìŀ¬
ĠëĤĺíĥĢëĤĺ ê³ł
Ġë°ľ ìķħ
Ġëª© ê±¸
Ġëªħëł¹ ìĹĲ
Ġìĭľ ìłĲìĿ´
íĶ¼ ìĺ¤
ĠëĦĺ ê¸°
Ġê·¸ëŀĳ íĶĦë¦¬
ë¸Į ë£¨
IC E
Ph one
ĠêµŃ ìłģ
ĠU P
Ġíķľ íĥĦ
ĠëıĮ ë¦´
íĨł ë²¤
ĠìĺĪìłĦ ìĹĲëĬĶ
ëĶĶì§Ģ íĦ¸
Ġëĭ¨ ìĸ´ëĬĶ
ĠC EO
Ġì¶ķêµ¬ ë¥¼
Ġì¡°ìĦłë¯¼ì£¼ì£¼ìĿĺ ìĿ¸ë¯¼ê³µíĻĶêµŃ
ĠíĻĪ ìĹĲìĦľ
ĠëĤĺìĻĶ ìľ¼ë©°
ë¦¬ ëĿ¼ê³ł
Ġë§Ī ìĪłìĤ¬
Ġê°ĢëĬ¥íķľ ëį°
Ġìĭ¸ìļ° ëĭ¤ê°Ģ
ë½ ĳ
ĠM ac
ĠíķĻìĥĿ ëĵ¤
Ġìĭľìĥģ ìĭĿ
ê°Ģ ëĤĺ
ĠìĦ¸ ë¦¬ìĹĲ
Ġì¤Ģë¹Ħ íķľ
Ġê³µ ì§ģ
ê·¤ ëŁ¬
Ġê±° ëĥĲ
êµĲìľ¡ ìĿĦ
ëıĻ ìķĦ
Ġì¤ĳ ìĥģìĿĦ
Ġw orld
ë¹ł ë¥¸
Ġê°ĢìĬ´ ìĿĦ
ĠHe art
ĠìĹ¬ ë°°ìļ°
ì²ľ ëħĦ
ĠëĿĦ ê²Į
ĠG B
sh ip
F l
ĠìļĶ ë¥´
íĦ´ ìĿĺ
ĠìĨĮ ê·¹
Ġì°¨ ìĽĲìĿ´
Ġê³µê°ľ íĸĪëĭ¤
ĠëĵľëŁ¬ ëĤ´ëĬĶ
ĠìĬ¤ ì½ľ
Ġíİ¸ íķľ
Ġë§Ŀ ìĽĲ
ë¯¸ ì¹ĺ
Ġì£½ ìĸ´ìĦľ
ĠìĤ¬ìĿ´ ìĹĲìĦľëıĦ
u h
ĠëĮĢ ìĤ¬ë¡ľ
ĠìĹ¬ìŀĲ ì¹ľ
ì¹´ ëıĦ
Ġíı¬ ìĭĿ
ìļ± ìĿĺ
Ġë©ľë¡ľ ëĶĶ
ĠëĤ´ ìĻ¸
ç ½
Ġìŀ¬íĻľ ìļ©
Ġë³Ģ ëıĻ
ĠìĦłíĥĿ ìĿ´
Ġë°ľëıĻ íķĺëĬĶ
ëį¸ íĶ¼ìķĦ
ãģ İ
ĠS k
Ġìŀ¥ ë¥´ìĿĺ
Ġê½Ĥ ìķĦ
íķľ ëķĮ
Ġm argin
Ġëį¸ íĥĢ
Ġë¶Ģ ëł¤
ĠìĨĮ ìĭ¤
ĠìºĲ ìĦľ
ĠëĦĪ ìĻĢ
ĠìķłëĭĪë©ĶìĿ´ìħĺ ìĿĺ
ì£¼ ê¸°ëıĦ
Ġêµ¬ì²´ ìłģìľ¼ë¡ľ
Ġë°ĺ ìĹŃ
ĠëıĮìķĦìĺ¤ ì§Ģ
íĻĶ ìŀ¥
Ġì£¼ ë©´ìĦľ
ĠìĿ´ëķĮ ë¬¸ìĹĲ
ëİ Į
ĠìŀĲ ê°ģ
ĠëĮ Ī
ìĥ ¨
Ġì²Ń ë£¡
Ġê³¼íķĻ ê¸°ìĪł
Ġìĸ´ëĶĶ ë¡ľ
ê¸° íķľ
ìłķ ë¶ĢìĿĺ
ĠB ar
Ġëĭ¬ëł¤ ëĵ¤
ë©ķ ìĭľì½Ķ
Ġì± ł
Ġë¬´ë¦İ ìĿĦ
ìłĢ ìĻĢ
ĠêµŃëĤ´ ìĹĲìĦľëĬĶ
Ġì¤¬ ëĭ¤
ĠSC P
ĠëĮĢ ëıĦìĭľ
ĠìĦł êµ¬
Ġ im
ìĤ´ ìĹĲ
ĠìĨį ìĿĦ
° ëĭ¤
ìł ĵ
ĠìĿ´ë¥´ê¸° ê¹Įì§Ģ
ì£¼ ìĦ¸ìļĶ
ĠìŀĲìľł ìŀĲ
Ġì°¨ê°Ģ ìļ´
Ġìłľ íĶĦ
Ġíĸī ëł¬
Ġìĺģíĺ¼ ìĿĺ
æħ ¶
ĠëķĮ ë§Īì¹¨
ĠëıĻ ì°½
ĠìłĦ ìŀ¥ìĹĲ
ë°Ľ ìľ¼ë©°
åħ µ
Ġíĺ¼ ëıĻ
ĠëĬĲëĤ Ģëĭ¤
ĠëĮĢìĿĳ íķĺëĬĶ
Ġìĭ¶ ìĹĪì§Ģë§Į
Ġê¸ī ìłľ
ìĬ¤ëŁ½ ê³ł
u x
ëĭ¹ ìŀ¥
Ġë°ĺ íĻĺ
ĠC an
ĠìĤ¬ë¡Ģ ëıĦ
Ġê¸°ìĹ¬ íĸĪëĭ¤
Ġíĳľ ë°©
ĠìĬ¤íħĮìĿ´ì§Ģ ë¥¼
Ġì§Ħ ëıĻ
Ġë°ķ ì°¬
Ġì§ĢìĨį ìĭľê°ĦìĿ´
ĠëĴ· ë°Ľì¹¨
ĠìķĦ ë£¨
Ġë°ĺ ê²©ìĿĦ
ap h
Ġì¹´ ìļ°
ĠíĶ¼íķ´ ëĬĶ
Ġëĭ¤ ìĿ´ëĤĺ
ê¸ī ìĹĲ
Ġì§Ģ ìłĲìĹĲ
Ġì¹¨ íķ´
íķĳ ìĿĦ
ìĥģê°Ģ ìĥģìľ¼ë¡ľ
Ġë Ĺ
ìĹ° ì¶ľ
Ġëĸł ëıĮ
Ġë¬´ìĹĩ ìĿ´
ĠëķĮë¬¸ ìľ¼ë¡ľ
Ġì§Ħíĸī ëĲł
Ġì§Ģêµ¬ ë¡ľ
ĠìĦŃ ìĻ¸
Ġê¸° ìĦ±
Ġìľł ìĭł
íĿ °
Ġìķł ë¥¼
Ġì¤ĳêµŃ ìĹĲ
ì½ľ ë¡ľ
Ġë²Ī ìĭĿ
Ġëį°ë·Ķ ë¥¼
ç į
ìľ½ ê³ł
ë§Ī ë¥´íģ¬
ĠìĦ¸ ìĥģìĹĲìĦľ
ĠëĤĺíĥĢëĤĺ ì§Ģ
Ġê³µíĨµ ìłĲìĿ´
Ġì´Ī ëĬ¥ëł¥
ĠìĬ¤íħĮìĿ´ì§Ģ ìĹĲìĦľ
ĠìłĦ ìĹĲëıĦ
Ġë³´ ìłķìĿĦ
Ġì£¼ ìľł
Ġìıł ìıł
ìŀĲ ìĬ¤
íķĻ ë²Ī
ë²Ħ ë¦¬ê¸°
ì£¼ ë³Ģ
Ġë²ķ ìĿ¸
ìļ´ëıĻ ìŀ¥
Ġëĭ¨ ìĪ¨ìĹĲ
ìł¸ ìĬ¤
Ġë°©ë¬¸ íķľ
Ġì¡´ìŀ¬ íĸĪëįĺ
Ġëĭ¬ìĦ± íķľ
ĠíĪ¬ ìĪĺë¡ľ
íıī ìĿ´
ĠìĤ¬ ìłķìľ¼ë¡ľ
ĠëĮĢ ê°ģ
ĠB B
ĠëĮĢ ìĹ¬
19 48
Ġìłľì£¼ ëıĦ
Ġì£¼ë¯¼ ëĵ¤ìĿĢ
ĠìĤ¬ìļ© ê°ĢëĬ¥
åı £
ĠìĶ¹ ìĸ´
Ġìŀħ íŀĲ
Ġê´ĳ ë¬¼
ĠìĹ¬ê¸°ìĦľ ëıĦ
Ġë°¸ëŁ° ìĬ¤ê°Ģ
ìĹ° íķĺê²Į
ĠìĦ¸ íĬ¸ë¥¼
ĠìŀĦ íĮ©íĬ¸
Ġê°ķ ëĮĢ
Ġë§ŀ ìľ¼ë©°
ì¢Ģ ë¹Ħ
Ġì£¼ ëĬĶëį°
ë¶Ħ ìĹĲìĦľ
ĠìĿ´ìĸ´ ì§Ģê³ł
Ġìĭłë¢° ë¥¼
Ġë§ĮëĤĺ ê¸°
Ġë§µ ìĹĲ
ĠìĿ´ê²ĥ ìłĢê²ĥ
Ġë§Ī ì²ľ
ëľ© ìĿ´ëĤĺ
ĠìĿ¼ìľ¼ íĤ¨ëĭ¤
ĠìķĮ ìķĺëĭ¤
Ġê¹Ģ ì°½
ĠìľłëŁ½ ìĹĲìĦľ
ĠìĺģìĽħ ìĿĦ
Ġì§Ħ ìĥģ
at t
Ġíķĺ ëıĦë¡Ŀ
Ġê²Į ìŀ¬
íĪ¬ ëªħ
ì¶ľ ìłĦ
Ġì¹ĺ ë¥¸
ĠìĿ´ëķĮ ìĿĺ
196 1
ë¬´ ìĹĲ
ìĪĺëıĦ ê¶Į
ĠìłĦ ìĿ´
Ġë³µ ìĿĮ
éĽ ²
ĠíĶ¼ ê²¨
íĬ¹ë³Ħ ìĭľìĿĺ
ë¦¬ ë°Ķ
Ġê³¼ ìĿ¼
Ġìĸĳ íĺ¸
Ġëªħì¤ĳ ë¥łìĿ´
Ġë¬´ì§Ģ ê°ľ
ìĹ° ìĺĪ
ĠìĿ´ë¯¸ ì§ĢëĬĶ
ĠìłĦ ìłģ
ĠíĶĦë¡ľìłĿ íĬ¸ë¥¼
Ġë³´ ëįĺ
Ġë³µê·Ģ íĸĪëĭ¤
Ġê¹ ½
Ġëĭ¨ ê²Ģ
ìŀĸìķĦ ìļĶ
ìķĦ ìĿ´ìĬ¤
ĠìķĮëłīìĤ° ëįĶ
ëł¤ ëĭ¤ê°Ģ
Ġë© §
ĠìĦľ ìłģ
ëĵľ ëĤĺ
Ġê°Ģ ê¸ī
ìĥ¤ ë¥¼
ĠíĺĦìĭ¤ ìłģìľ¼ë¡ľ
ĠCh rist
ĠS ec
Ġê³µê²© íķľ
Ġì´Ŀ ìľ¼ë¡ľ
ë²ł ìĬ¤íĬ¸
ĠìĿ´ ë§Į
íĹ Ŀê°Ģ
ìĽĲ êµ°
Ġìĭł ëħĲ
ĠC R
Ġë°ĶëĢ Ķ
ĠëĶ± ëĶ±
Ġêµ´ ë³µ
ĠëĦĵ ê³ł
Ġíķ´ ìŀĦ
ĠíĬ¸ìľĦíĦ° ìĹĲ
íĽĪ ê³¼
éģ ł
Ġíķľ ë³µ
ĠíĻķì§Ħ ìŀĲ
ĠìłĦ ê´ĳ
Ġìľł ë²¤
ĠêµĲ ìĪĺëĬĶ
Ġìľłìļ° íĤ¤
ëłĪ íĭ°
ĠëĬ¥ëł¥ ìĿĺ
Ġì¡Į ëĭ¤
Ġê²ĥ ê¹Įì§Ģ
ĠìŀĪìĿĦ ì§ĢëıĦ
ĠìłĦ ìłĦ
ĠìĦ± íıŃ
íĤ¹ ìĿ´
Ġëį´ ë§Ī
Ġë²Ħ ë¦¼
ĠëĤ® ì¶Ķ
Ġë¹ĦêµĲ íķł
ìłĦ ìĭľ
Ġìĺ¤ ì¿ł
å Ķ
Ġë§Įëĵ¤ ìĹĪëĭ¤ê³ł
ĠíĻľìļ© íķĺìĹ¬
å° ¹
Ġìĥģì²ĺ ê°Ģ
( ~
ĠëķĮ ëķĮë¡ľ
Ġë¶Ģ íĴĪìĿĦ
ĠíĥĢ ìĿ¸ìĿĺ
Ġëĭ¤ìĸĳ íķĺê²Į
ĠìķĦìĿ´ ëĬĶ
Ġë³ĳ ìĿĦ
Ġë¶Ģì¡± íķĺëĭ¤
Ġë³´íĺ¸ ë¥¼
Ġë§Ĳ íķĺëĬĶëį°
ĠìľĦ ì£¼
/ +
Ġë§Ĳ íķĺê¸°ëıĦ
Ġë³¸ ê´ĢìĿĢ
ĠêµĲ íļĮìĿĺ
Ġë¶Ħ ëŁīìĿ´
âĸ ·
Ġìľł ë°°
ìī¬ ìĿĺ
Ġìıĺ ë©´
ĠëħĢìĦĿ ìĿĢ
ëĮĢ íĺķ
ĠíķŃëª© ìĹĲ
ãĥ© ãĤ¤
ĠëĮĢëĮĢ ìłģìĿ¸
ĠëĮĢ ìľĦ
Ġ193 5
Ġë² ħ
Ġìľł ìĬ¤
ëįĶ ë¹Ļ
ĠìłĦìĦ¤ ìłģìĿ¸
Ġìĭł ìĦ¸ê³Ħ
ë³Ħ ìĿĺ
Ð ´
ìĦľ ê¸°
ĠìĦ¸ ìĥģìĿ´
Ġêµµ ìĿĢ
Ġ Â
ĠìĤ¬ ëª¨
Ġìļ¸ ìĿĮ
ê²½ ìľ¼ë¡ľ
ĠëıĦë§Ŀ ì¹ĺëĬĶ
ìĹħ ìĿĢ
ì½Ķ ìĺ¬
Ġê·¼ê±° ê°Ģ
at ic
Ġì¤ĳ ìĸ¼
Ġìĺµ íĭ°
ĠìĤ¬ìĿ´íĬ¸ ìĹĲìĦľ
ĠëıĦìłĦ ê³¼
Ġê±° ëĴĢëĭ¤
ê°Ķ ìĿĦ
Ġë¿Ĳ ìĿ¸
ìĬ ĺ
ĠíĶĦë¡ľê·¸ëŀ¨ ìĹĲ
Ġì£½ ìĹĪëĭ¤ê³ł
Ġìĩ¼ íģ¬
Ġë³´ ìĿ´ëĤĺ
Ġíľĺëĳĺ ëŁ¬
ĠìĤ¬ ì¶ľ
Ġë¹¼ ê³łëĬĶ
Ġìłķì²´ ë¶ĪëªħìĿĺ
íĹ Ĳ
ì¹Ļ ìĿĦ
Ġê³łëł¤ ëĮĢíķĻêµĲ
Ġìĭľìŀĳ íķĺê²Į
Ġìĭľìŀĳ íķĺë©°
ĠëĤł ìĿĢ
Ġê°ĲìĨĮ íķľëĭ¤
ê°ģ ìľ¼ë¡ľ
Ġê¹ °
ĠìŀĪìĹĪëĭ¤ ë©´
ĠëĶ° ì§ĢìŀĲ
ĠêµĲ ìĸĳ
ãĥ ĵ
T T
ëłĪ ìĻĢ
ì£¼ìĿĺ ìĻĢ
Ġëķ Ģ
ĠìĤ¬ìļ© íĸĪëįĺ
ĠíĨłë¡ł íĨł
S o
ĠìĥĪë¡ľ ìĿ´
[...]
