{
  "version": "1.0",
  "truncation": null,
  "padding": null,
  "added_tokens": [
    {
      "id": 0,
      "content": "<|endoftext|>",
      "single_word": false,
      "lstrip": false,
      "rstrip": false,
      "normalized": true,
      "special": true
    }
  ],
  "normalizer": null,
  "pre_tokenizer": {
    "type": "ByteLevel",
    "add_prefix_space": false,
    "trim_offsets": true,
    "use_regex": true
  },
  "post_processor": {
    "type": "ByteLevel",
    "add_prefix_space": true,
    "trim_offsets": false,
    "use_regex": true
  },
  "decoder": {
    "type": "ByteLevel",
    "add_prefix_space": true,
    "trim_offsets": true,
    "use_regex": true
  },
  "model": {
    "type": "BPE",
    "dropout": null,
    "unk_token": null,
    "continuing_subword_prefix": "",
    "end_of_word_suffix": "",
    "fuse_unk": false,
    "vocab": {
      "<|endoftext|>": 0,
      "!": 1,
      "\"": 2,
      "#": 3,
      "$": 4,
      "%": 5,
      "&": 6,
      "'": 7,
      "(": 8,
      ")": 9,
      "*": 10,
      "+": 11,
      ",": 12,
      "-": 13,
      ".": 14,
      "/": 15,
      "0": 16,
      "1": 17,
      "2": 18,
      "3": 19,
      "4": 20,
      "5": 21,
      "6": 22,
      "7": 23,
      "8": 24,
      "9": 25,
      ":": 26,
      ";": 27,
      "<": 28,
      "=": 29,
      ">": 30,
      "?": 31,
      "@": 32,
      "A": 33,
      "B": 34,
      "C": 35,
      "D": 36,
      "E": 37,
      "F": 38,
      "G": 39,
      "H": 40,
      "I": 41,
      "J": 42,
      "K": 43,
      "L": 44,
      "M": 45,
      "N": 46,
      "O": 47,
      "P": 48,
      "Q": 49,
      "R": 50,
      "S": 51,
      "T": 52,
      "U": 53,
      "V": 54,
      "W": 55,
      "X": 56,
      "Y": 57,
      "Z": 58,
      "[": 59,
      "\\": 60,
      "]": 61,
      "^": 62,
      "_": 63,
      "`": 64,
      "a": 65,
      "b": 66,
      "c": 67,
      "d": 68,
      "e": 69,
      "f": 70,
      "g": 71,
      "h": 72,
      "i": 73,
      "j": 74,
      "k": 75,
      "l": 76,
      "m": 77,
      "n": 78,
      "o": 79,
      "p": 80,
      "q": 81,
      "r": 82,
      "s": 83,
      "t": 84,
      "u": 85,
      "v": 86,
      "w": 87,
      "x": 88,
      "y": 89,
      "z": 90,
      "{": 91,
      "|": 92,
      "}": 93,
      "~": 94,
      "¡": 95,
      "¢": 96,
      "£": 97,
      "¤": 98,
      "¥": 99,
      "¦": 100,
      "§": 101,
      "¨": 102,
      "©": 103,
      "ª": 104,
      "«": 105,
      "¬": 106,
      "®": 107,
      "¯": 108,
      "°": 109,
      "±": 110,
      "²": 111,
      "³": 112,
      "´": 113,
      "µ": 114,
      "¶": 115,
      "·": 116,
      "¸": 117,
      "¹": 118,
      "º": 119,
      "»": 120,
      "¼": 121,
      "½": 122,
      "¾": 123,
      "¿": 124,
      "À": 125,
      "Á": 126,
      "Â": 127,
      "Ã": 128,
      "Ä": 129,
      "Å": 130,
      "Æ": 131,
      "Ç": 132,
      "È": 133,
      "É": 134,
      "Ê": 135,
      "Ë": 136,
      "Ì": 137,
      "Í": 138,
      "Î": 139,
      "Ï": 140,
      "Ð": 141,
      "Ñ": 142,
      "Ò": 143,
      "Ó": 144,
      "Ô": 145,
      "Õ": 146,
      "Ö": 147,
      "×": 148,
      "Ø": 149,
      "Ù": 150,
      "Ú": 151,
      "Û": 152,
      "Ü": 153,
      "Ý": 154,
      "Þ": 155,
      "ß": 156,
      "à": 157,
      "á": 158,
      "â": 159,
      "ã": 160,
      "ä": 161,
      "å": 162,
      "æ": 163,
      "ç": 164,
      "è": 165,
      "é": 166,
      "ê": 167,
      "ë": 168,
      "ì": 169,
      "í": 170,
      "î": 171,
      "ï": 172,
      "ð": 173,
      "ñ": 174,
      "ò": 175,
      "ó": 176,
      "ô": 177,
      "õ": 178,
      "ö": 179,
      "÷": 180,
      "ø": 181,
      "ù": 182,
      "ú": 183,
      "û": 184,
      "ü": 185,
      "ý": 186,
      "þ": 187,
      "ÿ": 188,
      "Ā": 189,
      "ā": 190,
      "Ă": 191,
      "ă": 192,
      "Ą": 193,
      "ą": 194,
      "Ć": 195,
      "ć": 196,
      "Ĉ": 197,
      "ĉ": 198,
      "Ċ": 199,
      "ċ": 200,
      "Č": 201,
      "č": 202,
      "Ď": 203,
      "ď": 204,
      "Đ": 205,
      "đ": 206,
      "Ē": 207,
      "ē": 208,
      "Ĕ": 209,
      "ĕ": 210,
      "Ė": 211,
      "ė": 212,
      "Ę": 213,
      "ę": 214,
      "Ě": 215,
      "ě": 216,
      "Ĝ": 217,
      "ĝ": 218,
      "Ğ": 219,
      "ğ": 220,
      "Ġ": 221,
      "ġ": 222,
      "Ģ": 223,
      "ģ": 224,
      "Ĥ": 225,
      "ĥ": 226,
      "Ħ": 227,
      "ħ": 228,
      "Ĩ": 229,
      "ĩ": 230,
      "Ī": 231,
      "ī": 232,
      "Ĭ": 233,
      "ĭ": 234,
      "Į": 235,
      "į": 236,
      "İ": 237,
      "ı": 238,
      "Ĳ": 239,
      "ĳ": 240,
      "Ĵ": 241,
      "ĵ": 242,
      "Ķ": 243,
      "ķ": 244,
      "ĸ": 245,
      "Ĺ": 246,
      "ĺ": 247,
      "Ļ": 248,
      "ļ": 249,
      "Ľ": 250,
      "ľ": 251,
      "Ŀ": 252,
      "ŀ": 253,
      "Ł": 254,
      "ł": 255,
      "Ń": 256,
      "Ġì": 257,
      "Ġë": 258,
      "ìĿ": 259,
      "íķ": 260,
      "Ġê": 261,
      "ëĭ": 262,
      "ìĹ": 263,
      "ìĿ´": 264,
      "Ġí": 265,
      "ëĭ¤": 266,
      "ëĬ": 267,
      "ëĬĶ": 268,
      "ìĹĲ": 269,
      "ê³": 270,
      "ê°": 271,
      "ë¡": 272,
      "ìĦ": 273,
      "ìĿĺ": 274,
      "ì§": 275,
      "ë¡ľ": 276,
      "íķĺ": 277,
      "ìĿĦ": 278,
      "ìł": 279,
      "ĠìĿ": 280,
      "ìŀ": 281,
      "Ġìŀ": 282,
      "ë¥": 283,
      "ê°Ģ": 284,
      "ë¦": 285,
      "ëı": 286,
      "ê³ł": 287,
      "ì§Ģ": 288,
      "íķľ": 289,
      "ìľ": 290,
      "¸°": 291,
      "ìĭ": 292,
      "ìĦľ": 293,
      "ê²": 294,
      "ëĵ": 295,
      "ìķ": 296,
      "Ġìķ": 297,
      "Ġìł": 298,
      "ë§": 299,
      "Ĥ¬": 300,
      "ëıĦ": 301,
      "ìĬ": 302,
      "ë¥¼": 303,
      "ë¦¬": 304,
      "ìĿĢ": 305,
      "ê¸°": 306,
      "ëĤ": 307,
      "ìĸ": 308,
      "ĮĢ": 309,
      "ë©": 310,
      "Ġê°": 311,
      "ìļ": 312,
      "ëł": 313,
      "ìľ¼": 314,
      "ĠìĿ´": 315,
      "Ŀ¼": 316,
      "Ġë§": 317,
      "Ġë°": 318,
      "êµ": 319,
      "Īëĭ¤": 320,
      "Ġê²": 321,
      "ĠìĹ": 322,
      "ëĿ¼": 323,
      "ìĸ´": 324,
      "ìĬ¤": 325,
      "Īĺ": 326,
      "ìĿ¸": 327,
      "Ġìĭ": 328,
      "·¸": 329,
      "íķ´": 330,
      "ìĺ": 331,
      "ìľ¼ë¡ľ": 332,
      "ìĹĲìĦľ": 333,
      "ëĤĺ": 334,
      "ëħ": 335,
      "Ġëĭ": 336,
      "ĠëĤ": 337,
      "ìĽ": 338,
      "ë°": 339,
      "ìĭľ": 340,
      "ê²Į": 341,
      "ĠìĦ": 342,
      "ëį": 343,
      "Ġë³": 344,
      "ĥģ": 345,
      "Ġê³": 346,
      "¶Ģ": 347,
      "Ġ1": 348,
      "ëĵ¤": 349,
      "ë³": 350,
      "ë¬": 351,
      "ëŀ": 352,
      "Ġê·¸": 353,
      "Ġì§": 354,
      "ì¹": 355,
      "ìĻ": 356,
      "ë©´": 357,
      "£¼": 358,
      "ĠìĤ¬": 359,
      "Ġìĺ": 360,
      "ìŀĲ": 361,
      "Ġëª": 362,
      "ë§Į": 363,
      "ë²": 364,
      "ìķĦ": 365,
      "ëĮĢ": 366,
      "ëŁ": 367,
      "ëĲ": 368,
      "ìĤ¬": 369,
      "íĸ": 370,
      "ëħĦ": 371,
      "ê³¼": 372,
      "íĬ": 373,
      "ĠìķĦ": 374,
      "Ġìľ": 375,
      "íĻ": 376,
      "Ġ2": 377,
      "íĥ": 378,
      "ĠìĪĺ": 379,
      "ĠìŀĪ": 380,
      "Ġíķĺ": 381,
      "Ġëĵ": 382,
      "ëª": 383,
      "ĠëĮĢ": 384,
      "ì²": 385,
      "ìŀ¥": 386,
      "íĬ¸": 387,
      "Ġëı": 388,
      "íĺ": 389,
      "ëĵľ": 390,
      "ìĿ¼": 391,
      "¯¸": 392,
      "Ġê°Ģ": 393,
      "ìĻĢ": 394,
      "Ġë¬": 395,
      "ìĨ": 396,
      "ë¶Ģ": 397,
      "Ġìĭľ": 398,
      "ìłĦ": 399,
      "¹Ħ": 400,
      "ìĪĺ": 401,
      "¤ĳ": 402,
      "Ġêµ": 403,
      "ìłķ": 404,
      "Ġíķľ": 405,
      "ìļ°": 406,
      "Ġë³´": 407,
      "Ġìĸ": 408,
      "ìĥģ": 409,
      "ìłģ": 410,
      "ĠìłĦ": 411,
      "ë©°": 412,
      "Ġê²ĥ": 413,
      "ëĭĪ": 414,
      "íĦ": 415,
      "ì£¼": 416,
      "Ġê¸°": 417,
      "Ġëĭ¤": 418,
      "êµŃ": 419,
      "Ġíķ": 420,
      "±°": 421,
      "ĠìĬ": 422,
      "ì¡": 423,
      "ëĲĺ": 424,
      "ĠìŀĲ": 425,
      "ìĦ±": 426,
      "ĠëĲ": 427,
      "ķĮ": 428,
      "ĠìĨ": 429,
      "Ġì§Ģ": 430,
      "íĦ°": 431,
      "ì°": 432,
      "ĠëĤĺ": 433,
      "ê¸": 434,
      "íĶ": 435,
      "ìĿ´ëĭ¤": 436,
      "íķĺëĬĶ": 437,
      "ëį°": 438,
      "ĠìŀĪëĭ¤": 439,
      "ĽĦ": 440,
      "ì¹ĺ": 441,
      "íĻĶ": 442,
      "Ġìłķ": 443,
      "ìłľ": 444,
      "Ġìļ": 445,
      "ŀĪ": 446,
      "êµ¬": 447,
      "ë§Ī": 448,
      "ì§Ģë§Į": 449,
      "íĮ": 450,
      "ìĭł": 451,
      "ìĹĪëĭ¤": 452,
      "ìļ©": 453,
      "Ġë²": 454,
      "ëŁ¬": 455,
      "ĥĿ": 456,
      "Ġëª¨": 457,
      "ĠíĻ": 458,
      "ìĽĲ": 459,
      "ĠìĿ¼": 460,
      "ë¬¸": 461,
      "Ġì¶": 462,
      "ĠíĮ": 463,
      "ë¥´": 464,
      "ë³´": 465,
      "Ġì°": 466,
      "Ġë§Ī": 467,
      "ĠëķĮ": 468,
      "Ġíĺ": 469,
      "Ġëį": 470,
      "Ġë¶": 471,
      "Ġìĥģ": 472,
      "Ġì¹": 473,
      "ëıĻ": 474,
      "ìĹ¬": 475,
      "ģ¬": 476,
      "ëł¤": 477,
      "Ġìłľ": 478,
      "íŀĪ": 479,
      "ë¯¸": 480,
      "íĨ": 481,
      "ë£": 482,
      "ìĺ¤": 483,
      "ìĽĶ": 484,
      "Ġê²½": 485,
      "Ġìľł": 486,
      "Ġê³µ": 487,
      "ëł¥": 488,
      "ĠíĶ": 489,
      "ì§Ħ": 490,
      "ĠìĬ¤": 491,
      "Ġì£¼": 492,
      "ëłĪ": 493,
      "íĥĢ": 494,
      "Ġì¤ĳ": 495,
      "Ġì²": 496,
      "Ġíı": 497,
      "´Ģ": 498,
      "ĠìĿ¸": 499,
      "Ġíĥ": 500,
      "Ġì¡": 501,
      "ļĮ": 502,
      "ê¹": 503,
      "ê°Ħ": 504,
      "00": 505,
      "ì¦": 506,
      "ĠìĹĨ": 507,
      "Ġë¶Ģ": 508,
      "ë¶": 509,
      "ìķ¼": 510,
      "ĠìķĬ": 511,
      "ëªħ": 512,
      "Ġëĵ±": 513,
      "ëįĺ": 514,
      "íĤ": 515,
      "ìĹĪ": 516,
      "ìĹĲê²Į": 517,
      "íķĺê³ł": 518,
      "ê·¸": 519,
      "Ġ3": 520,
      "ĠìĻ": 521,
      "ëĦ": 522,
      "..": 523,
      "ìĤ": 524,
      "ìĦł": 525,
      "Ġìĺ¤": 526,
      "íķľëĭ¤": 527,
      "ĠìľĦ": 528,
      "íķł": 529,
      "ë¹Ħ": 530,
      "ê²©": 531,
      "ãģ": 532,
      "ìĨĮ": 533,
      "íķĻ": 534,
      "ĠëĲĺ": 535,
      "ê±°": 536,
      "ĠìĨĮ": 537,
      "ìľĦ": 538,
      "01": 539,
      "ìĺĢ": 540,
      "Ġë¬´": 541,
      "Ġë¹Ħ": 542,
      "ĠìĽ": 543,
      "Ġìĸ´": 544,
      "íĸĪëĭ¤": 545,
      "ëĲľ": 546,
      "ëĭ¹": 547,
      "ëŀĺ": 548,
      "ê¹Į": 549,
      "ê³Ħ": 550,
      "ë¬´": 551,
      "íģ¬": 552,
      "ë²Ħ": 553,
      "½Ķ": 554,
      "íı": 555,
      "±´": 556,
      "Ġ-": 557,
      "Ġ(": 558,
      "ì²´": 559,
      "íĭ": 560,
      "ìŀĳ": 561,
      "Ġíķ´": 562,
      "Ġì¢": 563,
      "ê³µ": 564,
      "ì¹´": 565,
      "íļĮ": 566,
      "ĳĲ": 567,
      "Ġë¯¸": 568,
      "êµĲ": 569,
      "ì¶": 570,
      "ĠìĹ¬": 571,
      "ĠëĶ": 572,
      "Ġíĸ": 573,
      "ìĦ¸": 574,
      "ë¯": 575,
      "ĠìĦł": 576,
      "ìĿ´ëĿ¼": 577,
      "Ġì¡°": 578,
      "ì¡°": 579,
      "ìĿĮ": 580,
      "Ġë§Į": 581,
      "ĠìŀĪëĬĶ": 582,
      "ëĭ¨": 583,
      "íĽĦ": 584,
      "íĤ¤": 585,
      "ëĶ": 586,
      "Ġê³ł": 587,
      "Ġë°Ķ": 588,
      "Ġìĺģ": 589,
      "ìŀ¬": 590,
      "ĠíĬ": 591,
      "ĠëıĻ": 592,
      "ìĭĿ": 593,
      "íĶĦ": 594,
      "ìļ´": 595,
      "ìŀĦ": 596,
      "ìĭ¤": 597,
      "ãĢ": 598,
      "ìĹŃ": 599,
      "ĠëĤ´": 600,
      "ĠìĹ°": 601,
      "ĠëıĦ": 602,
      "íħ": 603,
      "´Ī": 604,
      "Ġë§Ĳ": 605,
      "ìľł": 606,
      "ì¤ĳ": 607,
      "ë¬¼": 608,
      "Ġê±°": 609,
      "ĠìĦ±": 610,
      "ĠëĦ": 611,
      "íĸĪ": 612,
      "Ġë°ľ": 613,
      "ê·": 614,
      "ë¶Ħ": 615,
      "ìĪ": 616,
      "ì¤": 617,
      "ĠíĽĦ": 618,
      "Ġë©": 619,
      "ì°¨": 620,
      "Ġë°©": 621,
      "Ġëħ": 622,
      "íĸī": 623,
      "Ġêµ¬": 624,
      "ìĥĿ": 625,
      "µľ": 626,
      "íİ": 627,
      "ë£¨": 628,
      "ĠìĤ": 629,
      "ìĹ°": 630,
      "ë¸": 631,
      "ê°ľ": 632,
      "ĠìĿĺ": 633,
      "ìļĶ": 634,
      "ĠìķĪ": 635,
      "ë¥¸": 636,
      "Ġ'": 637,
      "êµ°": 638,
      "Ġìĭł": 639,
      "ĠíĨ": 640,
      "ĠëķĮë¬¸": 641,
      "ê¹Įì§Ģ": 642,
      "ì¦Ī": 643,
      "ë°ĺ": 644,
      "ĠìĥĿ": 645,
      "Ġìŀ¥": 646,
      "ê²½": 647,
      "ìĹĲëĬĶ": 648,
      "Ġê°ľ": 649,
      "ĠìĦ¸": 650,
      "Ġíķľëĭ¤": 651,
      "ëª¨": 652,
      "ëĬ¥": 653,
      "ë©´ìĦľ": 654,
      "íĨł": 655,
      "íĺ¸": 656,
      "ìĨį": 657,
      "ëĵ¤ìĿ´": 658,
      "ë¦°": 659,
      "Ġê¹": 660,
      "Ġ4": 661,
      "ìłĲ": 662,
      "ìķĺ": 663,
      "ëĤ´": 664,
      "íķĺê²Į": 665,
      "ë¯¼": 666,
      "Ġíİ": 667,
      "ìĤ°": 668,
      "ê´Ģ": 669,
      "ëĬĶëį°": 670,
      "ë³¸": 671,
      "Ġ19": 672,
      "ê°ģ": 673,
      "ìĺģ": 674,
      "ëŀĮ": 675,
      "ĳľ": 676,
      "Ġë¹": 677,
      "Ġë¶Ī": 678,
      "ĠìĹŃ": 679,
      "Ī¬": 680,
      "Ġìµľ": 681,
      "ìķĪ": 682,
      "Ġìłģ": 683,
      "ĠìĦľ": 684,
      "íĭ°": 685,
      "ë°©": 686,
      "Ġë§İ": 687,
      "ìħ": 688,
      "ìľ¼ë©°": 689,
      "Ġì§Ħ": 690,
      "Ġê²Į": 691,
      "Ġê°ķ": 692,
      "ì¢": 693,
      "Ġê°Ļ": 694,
      "ìĺĢëĭ¤": 695,
      "Ġë¬¸": 696,
      "Ġëĭ¹": 697,
      "ĠëįĶ": 698,
      "Ġì¹´": 699,
      "Ġ5": 700,
      "Ġìĭ¤": 701,
      "ìĹĲìĦľëĬĶ": 702,
      "Ġê¸": 703,
      "Ġê²°": 704,
      "Ġ:": 705,
      "Ġê·": 706,
      "ì¸": 707,
      "ĠìķĮ": 708,
      "Ġìļ°": 709,
      "ì½Ķ": 710,
      "Ġê´Ģ": 711,
      "ì¤Ģ": 712,
      "ëĶĶ": 713,
      "ìłģìľ¼ë¡ľ": 714,
      "ĠíĮĮ": 715,
      "Ġ201": 716,
      "ìłĢ": 717,
      "ë¡Ŀ": 718,
      "ĠíĥĢ": 719,
      "ĠëĨ": 720,
      "ê¸ī": 721,
      "Ġë¦": 722,
      "íķĺëĭ¤": 723,
      "ĠìĽĲ": 724,
      "ëħ¸": 725,
      "Ġì¶ľ": 726,
      "Ġë°ĺ": 727,
      "ê±´": 728,
      "Ġëĵ¤": 729,
      "íĮĮ": 730,
      "ë²Ī": 731,
      "Ġíı¬": 732,
      "Ġê²½ìļ°": 733,
      "ĠëķĮë¬¸ìĹĲ": 734,
      "ĠëĲľ": 735,
      "Ġëħ¸": 736,
      "Ġìŀĳ": 737,
      "ì¼": 738,
      "ĠëĤ¨": 739,
      "Ġë°Ľ": 740,
      "ìĬµ": 741,
      "ĠíĬ¹": 742,
      "¶Į": 743,
      "ë°ľ": 744,
      "ë¶ĢíĦ°": 745,
      "ìłģìĿ¸": 746,
      "ĠíĶĦ": 747,
      "ë°Ķ": 748,
      "ëłĪìĿ´": 749,
      "ë¨": 750,
      "ëĵł": 751,
      "ìĹħ": 752,
      "íķĺìĹ¬": 753,
      "ì¢ħ": 754,
      "ëĳĲ": 755,
      "ĠëĬ": 756,
      "íĥľ": 757,
      "ëŁ°": 758,
      "ë¸Į": 759,
      "íı¬": 760,
      "Ġë°°": 761,
      "ãĤ": 762,
      "ĠĊ": 763,
      "íĺķ": 764,
      "ë¦¬ê³ł": 765,
      "ë²ķ": 766,
      "ĺĲ": 767,
      "Ġë¦¬": 768,
      "íĶ¼": 769,
      "íĨµ": 770,
      "ĠìĤ¬ëŀĮ": 771,
      "Ġì°¨": 772,
      "ê¸Ī": 773,
      "ëĤľ": 774,
      "Ġëł": 775,
      "±¸": 776,
      "Ġìĵ": 777,
      "Ġëĭ¨": 778,
      "Ġëª»": 779,
      "Ġì¶Ķ": 780,
      "ĠìĤ¬ìļ©": 781,
      "ëĥ": 782,
      "ĠêµŃ": 783,
      "ĠëĶ°": 784,
      "ĠìŀĲìĭł": 785,
      "ìĬ¹": 786,
      "íķĺê¸°": 787,
      "ëŀĢ": 788,
      "er": 789,
      "íĴ": 790,
      "Ġ\"": 791,
      "in": 792,
      "íķ´ìĦľ": 793,
      "íĹ": 794,
      "ĠëĿ¼": 795,
      "íĮĲ": 796,
      "ĠìĿ´íĽĦ": 797,
      "ìĸĳ": 798,
      "ë¡ł": 799,
      "ëįĶ": 800,
      "ĠíĺĦ": 801,
      "Ġë¡": 802,
      "ì²ĺ": 803,
      "ĠìĪ": 804,
      "ìĺ¨": 805,
      "ìĥ": 806,
      "...": 807,
      "ìĬ¤íĬ¸": 808,
      "ĠëłĪ": 809,
      "Ġëģ": 810,
      "ĠS": 811,
      "ë¦Ħ": 812,
      "ĠíĨµ": 813,
      "Ġê³Ħ": 814,
      "Ġì¢ĭ": 815,
      "Ġë³¸": 816,
      "Ġëį°": 817,
      "âĢ": 818,
      "ĠíĶ¼": 819,
      "ëĲĺìĹĪëĭ¤": 820,
      "ĠìĹĲ": 821,
      "ì»": 822,
      "ĠëĺĲ": 823,
      "ëĭ¤ëĬĶ": 824,
      "ìĪł": 825,
      "Ġë§¤": 826,
      "ëĮĢë¡ľ": 827,
      "19": 828,
      "ëĿ¼ê³ł": 829,
      "ëĿ¼ëĬĶ": 830,
      "ĠíĿ": 831,
      "Ġê°Ĳ": 832,
      "íĺĦ": 833,
      "ì§ģ": 834,
      "ìŀħ": 835,
      "íħĮ": 836,
      "ìĭ¬": 837,
      "Ġíģ": 838,
      "Ġ6": 839,
      "ĠíĹ": 840,
      "¿ł": 841,
      "Ġë²Ħ": 842,
      "ĠìķĦëĭĪ": 843,
      "Ġíķ¨": 844,
      "Ġëĭ¬": 845,
      "ĠêµĲ": 846,
      "Ġë¨": 847,
      "íĪ¬": 848,
      "ìĻ¸": 849,
      "Ġë¬¼": 850,
      "Ġì´Ī": 851,
      "Ġìº": 852,
      "Ġìŀ¬": 853,
      "ĠëĳĲ": 854,
      "Ġê±´": 855,
      "ë©Ķ": 856,
      "Ġì£": 857,
      "ëĭ¤ê³ł": 858,
      "Ġì¦": 859,
      "Ġëĵľ": 860,
      "Ġìŀħ": 861,
      "Ġë¶Ħ": 862,
      "ëŀĳ": 863,
      "Ġìĥ": 864,
      "ê¶Į": 865,
      "201": 866,
      "íĳľ": 867,
      "ãĥ": 868,
      "ìĿ´ëĤĺ": 869,
      "ëĵ¤ìĿĢ": 870,
      "ìĽĮ": 871,
      "ìħĺ": 872,
      "íķĺë©´": 873,
      "Ġì±": 874,
      "ĠìĺĪ": 875,
      "ĠìĦ¤": 876,
      "ì¶ľ": 877,
      "Ġì½Ķ": 878,
      "ëĦ¤": 879,
      "ĠìłķëıĦ": 880,
      "Ġíģ¬": 881,
      "ì´Ī": 882,
      "Ġì¤": 883,
      "ëĵ¤ìĿĦ": 884,
      "ìĦ¤": 885,
      "ìł¸": 886,
      "´ĳ": 887,
      "Ġê³µê²©": 888,
      "Ġëĭ¤ë¥¸": 889,
      "ĠìļĶ": 890,
      "Ġ7": 891,
      "Ġê¹Ģ": 892,
      "ê»": 893,
      "íķ©": 894,
      "ĠëĮĢíķľ": 895,
      "Ġíİ¸": 896,
      "on": 897,
      "íģ": 898,
      "Ġìĺ¬": 899,
      "Ġì»": 900,
      "ìľ¼ëĤĺ": 901,
      "ì¡±": 902,
      "an": 903,
      "ĠëĪ": 904,
      "íķ¨": 905,
      "´Ŀ": 906,
      "ëĵ±": 907,
      "Ġì°¸": 908,
      "ë¹": 909,
      "ìĹĲëıĦ": 910,
      "Ġëªħ": 911,
      "ì²Ń": 912,
      "ĠìłĲ": 913,
      "ĠìłĢ": 914,
      "ë§¤": 915,
      "ìķ½": 916,
      "ìļ¸": 917,
      "ìĦĿ": 918,
      "Ġë¸": 919,
      "íķĺì§Ģ": 920,
      "Ġ8": 921,
      "ê¸°ëıĦ": 922,
      "ĠëĲľëĭ¤": 923,
      "į¼": 924,
      "ëĵ¤ìĿĺ": 925,
      "íĻ©": 926,
      "ì§Ī": 927,
      "Ġ10": 928,
      "ĠëĴ": 929,
      "ì¸ł": 930,
      "ì²ľ": 931,
      "Ġíķł": 932,
      "Ġíıī": 933,
      "ĠíĮ¨": 934,
      "Ġë¡ľ": 935,
      "ê¸°ë¥¼": 936,
      "ë£Į": 937,
      "ëŁī": 938,
      "Ġì£½": 939,
      "Ġìĵ°": 940,
      "Ġ200": 941,
      "ëĦĪ": 942,
      "ë³ĳ": 943,
      "ë¦¬ëĬĶ": 944,
      "íķĺë©°": 945,
      "ë°°": 946,
      "ëł¹": 947,
      "ë¥ĺ": 948,
      "ê¸°ìĹĲ": 949,
      "ĠM": 950,
      "ì§ĢëĬĶ": 951,
      "ëĲĺìĸ´": 952,
      "ĠëıĮ": 953,
      "ë§Ŀ": 954,
      "ĠíĻĶ": 955,
      "Ġê²ĥìĿ´": 956,
      "ìĸ¸": 957,
      "ĠìĻ¸": 958,
      "íĴĪ": 959,
      "Ġê±¸": 960,
      "ĠA": 961,
      "ª½": 962,
      "Ġëĵ±ìŀ¥": 963,
      "ëĭĪëĭ¤": 964,
      "Ġëĸ": 965,
      "Ġìŀĺ": 966,
      "íİ¸": 967,
      "ĠíĻķ": 968,
      "ë³µ": 969,
      "êµŃìĿĺ": 970,
      "Ġë©Ķ": 971,
      "Ġ9": 972,
      "ë¦Ń": 973,
      "íķĻêµĲ": 974,
      "Ġì²ĺ": 975,
      "Ġëĵ¤ìĸ´": 976,
      "Ġê°ĢëĬ¥": 977,
      "ëŁ¼": 978,
      "ê»ĺ": 979,
      "Ġë§ŀ": 980,
      "Ġë³Ģ": 981,
      "ê°ķ": 982,
      "íĿ": 983,
      "Ġê°ĻìĿĢ": 984,
      "ëıħ": 985,
      "ĠíĶĮ": 986,
      "ĠìºĲ": 987,
      "Ġì§ģ": 988,
      "íķĺìĺĢëĭ¤": 989,
      "ĠíķĺëĬĶ": 990,
      "ë¦½": 991,
      "ìłĪ": 992,
      "ë¨¸": 993,
      "Ġíĺ¸": 994,
      "íĸ¥": 995,
      "ëĬĶëĭ¤": 996,
      "Ġê³¼": 997,
      "ĠìĤ´": 998,
      "ì¡Į": 999,
      "ëł¨": 1000,
      "ĠëĴ¤": 1001,
      "ĠC": 1002,
      "ĠíķĺëĤĺ": 1003,
      "ê²ĥ": 1004,
      "ìĤ´": 1005,
      "ìĨ¡": 1006,
      "ëĤ¨": 1007,
      "ìķĺëĭ¤": 1008,
      "ĠíļĮ": 1009,
      "ëķĮ": 1010,
      "ì¿ł": 1011,
      "ĠìĨį": 1012,
      "or": 1013,
      "Ġê²ĮìŀĦ": 1014,
      "20": 1015,
      "Ġìĭ¬": 1016,
      "ê°Ĳ": 1017,
      "ëħĢ": 1018,
      "ĠíķĻ": 1019,
      "ìĶ": 1020,
      "Ġì¢ħ": 1021,
      "ëģ": 1022,
      "ĠT": 1023,
      "Ġíķ¨ê»ĺ": 1024,
      "ê²°": 1025,
      "ĠíĻľ": 1026,
      "ĠëĨĴ": 1027,
      "Ġìĭľìŀĳ": 1028,
      "íĻĺ": 1029,
      "Ġíħ": 1030,
      "ê±°ëĤĺ": 1031,
      "ĠìķĦìĿ´": 1032,
      "Ġíŀ": 1033,
      "Ġëª¨ìĬµ": 1034,
      "Ġì¹ĺ": 1035,
      "}}": 1036,
      "ë³´ëĭ¤": 1037,
      "Ġìķł": 1038,
      "th": 1039,
      "ìŀĪ": 1040,
      "Ġíķĺì§Ģë§Į": 1041,
      "Ġíĸī": 1042,
      "ĠíķĦ": 1043,
      "ĠãĢ": 1044,
      "ar": 1045,
      "ë§Ĳ": 1046,
      "Ġìļ´": 1047,
      "ëĭ¤ê°Ģ": 1048,
      "Ġëª©": 1049,
      "ëĲľëĭ¤": 1050,
      "ë¦¼": 1051,
      "ë¦¬ë¥¼": 1052,
      "Ġê·¸ë¦¬ê³ł": 1053,
      "Ġìķ½": 1054,
      "Ġë²Ī": 1055,
      "ìĺĪ": 1056,
      "ļ¨": 1057,
      "ĠìĬ¹": 1058,
      "Ġë°ķ": 1059,
      "ĠìľĦíķ´": 1060,
      "ìĿ´ëĿ¼ê³ł": 1061,
      "íİĺ": 1062,
      "ëª©": 1063,
      "Ġê°Ħ": 1064,
      "ìĿ´íĬ¸": 1065,
      "Ġìĸ¸": 1066,
      "Ġê²ĥìĿĦ": 1067,
      "ĠíĬ¸": 1068,
      "ĠìĦłìĪĺ": 1069,
      "Ġì¡´": 1070,
      "ìĿ´ëĿ¼ëĬĶ": 1071,
      "ëĭ¬": 1072,
      "ì¦Į": 1073,
      "Ġì²´": 1074,
      "Ġìĸĳ": 1075,
      "ĠìĤ¬ìĭ¤": 1076,
      "ĠíĸĪëĭ¤": 1077,
      "ĠíĸĪ": 1078,
      "ĠíĤ": 1079,
      "ĠB": 1080,
      "ì³": 1081,
      "Ģë¡ľ": 1082,
      "ìķħ": 1083,
      "ĠëĲĺìĹĪëĭ¤": 1084,
      "ê·¼": 1085,
      "ëĲĺëĬĶ": 1086,
      "ë§ī": 1087,
      "ê¸°ê°Ģ": 1088,
      "Ŀ½": 1089,
      "ĠìĥĿê°ģ": 1090,
      "Ġê°ģ": 1091,
      "ĠìĹĨëĭ¤": 1092,
      "Ġë§Įëĵ¤": 1093,
      "Ġíĳľ": 1094,
      "ĠëĤĺìĺ¤": 1095,
      "Ġêµ°": 1096,
      "ĠëĤł": 1097,
      "ìĸ´ìĦľ": 1098,
      "en": 1099,
      "ì§ĳ": 1100,
      "ì±": 1101,
      "Ġëıħ": 1102,
      "ĠìĿ¼ë³¸": 1103,
      "ëłĩ": 1104,
      "ìª½": 1105,
      "ìĥī": 1106,
      "Ġë¬¸ìłľ": 1107,
      "Ġì§ĳ": 1108,
      "ê²ł": 1109,
      "Ġ20": 1110,
      "íĥĦ": 1111,
      "ĢìĿ´": 1112,
      "ìĻķ": 1113,
      "ĠìĿĮ": 1114,
      "st": 1115,
      "ĠíĨł": 1116,
      "),": 1117,
      "íĹĺ": 1118,
      "íį¼": 1119,
      "ê¸´": 1120,
      "ĠìĿ´ìĥģ": 1121,
      "ìĬ¤íĦ°": 1122,
      "ĠëĶ°ëĿ¼": 1123,
      "ĠëģĿ": 1124,
      "ëł¸": 1125,
      "·¨": 1126,
      "´ī": 1127,
      "ëĿ½": 1128,
      "Ġë£": 1129,
      "ĠìĹ´": 1130,
      "Ġì´Ŀ": 1131,
      "íĤ¬": 1132,
      "íĮ¨": 1133,
      "Ġíŀĺ": 1134,
      "ĠìĻĦ": 1135,
      "Ġê·¸ëŁ¬": 1136,
      "ĠìĿ´ë¦Ħ": 1137,
      "ãĢĭ": 1138,
      "ĠíĶĦë¡ľ": 1139,
      "ĠP": 1140,
      "ĠìĨĲ": 1141,
      "Ġíĺķ": 1142,
      "ë¦¬ê°Ģ": 1143,
      "ìĹĲìĦľëıĦ": 1144,
      "ĠD": 1145,
      "Ġëĭ¤ìĭľ": 1146,
      "Ġë²ł": 1147,
      "ê³¡": 1148,
      "Ġê°Ģìŀ¥": 1149,
      "Ġìŀ¡": 1150,
      "ĠìŀĪìĹĪ": 1151,
      "al": 1152,
      "ĠëĶĶ": 1153,
      "ëĿ¼ìĿ´": 1154,
      "´´": 1155,
      "Ġë°ı": 1156,
      "Ķëĭ¤": 1157,
      "ĠìĪľ": 1158,
      "ëł¥ìĿĦ": 1159,
      "ë³Ħ": 1160,
      "ì²ĺëŁ¼": 1161,
      "ĠíĪ¬": 1162,
      "íķŃ": 1163,
      "ĠíĮĢ": 1164,
      "ë²ł": 1165,
      "Ġë¯": 1166,
      "ìĿ´ë©°": 1167,
      "Ġ12": 1168,
      "at": 1169,
      "ĠF": 1170,
      "ĠìĤ¬ìĿ´": 1171,
      "ëĤł": 1172,
      "ĠìĹĨëĬĶ": 1173,
      "ë¦¬ìķĦ": 1174,
      "ë°ķ": 1175,
      "ëĭ´": 1176,
      "ì§Ģê³ł": 1177,
      "ĠíĮĲ": 1178,
      "ì§¸": 1179,
      "ĠíķľêµŃ": 1180,
      "ìŁ": 1181,
      "ìĿ´ì§Ģ": 1182,
      "ëĭĮ": 1183,
      "Ġê²ĥìĿ´ëĭ¤": 1184,
      "ëĨ": 1185,
      "ĠìĺģíĻĶ": 1186,
      "ĠëĺĲíķľ": 1187,
      "Ġëª¨ëĳĲ": 1188,
      "ë¦ŃíĦ°": 1189,
      "Ġíĥľ": 1190,
      "Ġì¦Ŀ": 1191,
      "ê²¨": 1192,
      "Ġëĭ¹ìĭľ": 1193,
      "le": 1194,
      "íĶĮ": 1195,
      "Ġë§ī": 1196,
      "ĠìĻķ": 1197,
      "ìĬ¤ìĿĺ": 1198,
      "ĠìĥĪ": 1199,
      "Ġë³¼": 1200,
      "ĠìĥģíĻ©": 1201,
      "ou": 1202,
      "ĠíŀĪ": 1203,
      "Ġìķ¼": 1204,
      "Ġê²ĥìľ¼ë¡ľ": 1205,
      "ëł¥ìĿ´": 1206,
      "ê¸°ëĬĶ": 1207,
      "Ġíģ´": 1208,
      "ìŁģ": 1209,
      "ĠíĴ": 1210,
      "ìľ¼ë©´": 1211,
      "ĠL": 1212,
      "ëĲĺìĹĪ": 1213,
      "ëŀľ": 1214,
      "ì§Ģë¥¼": 1215,
      "ìĿ´ê³ł": 1216,
      "íĺĢ": 1217,
      "ê¸Ģ": 1218,
      "ìĿ´ëĬĶ": 1219,
      "200": 1220,
      "Ġë³µ": 1221,
      "Ġê·¼": 1222,
      "ĠìºĲë¦ŃíĦ°": 1223,
      "ĠíĤ¤": 1224,
      "ìĹĶ": 1225,
      "ë²Ķ": 1226,
      "ĠìĥģëĮĢ": 1227,
      "Ġì¹ľ": 1228,
      "ì¡´": 1229,
      "Ġì±Ħ": 1230,
      "ĠìŀĪìĹĪëĭ¤": 1231,
      "ë°Ľ": 1232,
      "ĠíıŃ": 1233,
      "ì½": 1234,
      "Ġë³´ìĹ¬": 1235,
      "ĠãĢĬ": 1236,
      "Ġ11": 1237,
      "¨ìĸ´": 1238,
      "Ġìļ©": 1239,
      "íķĺë©´ìĦľ": 1240,
      "ì»¤": 1241,
      "ì³Ĳ": 1242,
      "Ġìķŀ": 1243,
      "ĠíķŃ": 1244,
      "ĠëĦĪ": 1245,
      "Ġë§İìĿ´": 1246,
      "ê´ĳ": 1247,
      "ìĿ´ìĹĪ": 1248,
      "ĠíĶĮëłĪìĿ´": 1249,
      "ëĸ": 1250,
      "Ġë¹ł": 1251,
      "ìłĳ": 1252,
      "íĥĪ": 1253,
      "ë¸Ķ": 1254,
      "ĠìŀĦ": 1255,
      "ëĬĲ": 1256,
      "Ġì¶©": 1257,
      "Ġë³Ħ": 1258,
      "ëĥĲ": 1259,
      "ĠëĤľ": 1260,
      "ë¦¬ìĬ¤": 1261,
      "íĥĿ": 1262,
      "Ġê²ĥìĿĢ": 1263,
      "íķĺì§Ģë§Į": 1264,
      "Ġë¸Į": 1265,
      "ĠëĦĺ": 1266,
      "ĠíĦ": 1267,
      "ê°Ļ": 1268,
      "Ġìĥģíĥľ": 1269,
      "Ġëª¨ëĵł": 1270,
      "ĠëĬ¥": 1271,
      "Ġìĭľê°Ħ": 1272,
      "Ġíķ©": 1273,
      "Ġì¡´ìŀ¬": 1274,
      "ìĹĨ": 1275,
      "ìĹ´": 1276,
      "Ġíļ¨": 1277,
      "ëĳ": 1278,
      "ë²¨": 1279,
      "Ġë£¨": 1280,
      "Ġê²°êµŃ": 1281,
      "ëĥ¥": 1282,
      "Ġíģ°": 1283,
      "Ġë¨¹": 1284,
      "Ġê´ĳ": 1285,
      "ê²¬": 1286,
      "ĠíħĮ": 1287,
      "ĠìŀĲìĭłìĿĺ": 1288,
      "ĠK": 1289,
      "ĠG": 1290,
      "Ġíķĺê³ł": 1291,
      "Ġì¶ķ": 1292,
      "ìķł": 1293,
      "ë¦¬ì¦Ī": 1294,
      "ĠëĦ¤": 1295,
      "Ġë³´ë©´": 1296,
      "Ġì¤Ģ": 1297,
      "ìĬ¤ë¥¼": 1298,
      "Ġëĭ¤ìĿĮ": 1299,
      "ì°½": 1300,
      "ì¶Ķ": 1301,
      "Ġì½": 1302,
      "Â·": 1303,
      "ìŀĲê°Ģ": 1304,
      "ĠëĪĪ": 1305,
      "Ġì¶Ķê°Ģ": 1306,
      "Ġë§¤ìļ°": 1307,
      "Ġ/": 1308,
      "Ġë³ĳ": 1309,
      "ĠI": 1310,
      "Ġëĳ": 1311,
      "ì¼Ģ": 1312,
      "Ġëĵ¯": 1313,
      "ìĦ±ìĿ´": 1314,
      "ìĪľ": 1315,
      "Ġìĭľì¦Į": 1316,
      "Ġì·¨": 1317,
      "ë°±": 1318,
      "Ġ~": 1319,
      "Ġë§İìĿĢ": 1320,
      "ì¹ľ": 1321,
      "re": 1322,
      "ĠìĤ°": 1323,
      "ĠíĺĦìŀ¬": 1324,
      "ë¶Ī": 1325,
      "Ġì²ľ": 1326,
      "Ġì»¤": 1327,
      "ëĪ": 1328,
      "ìĬ¤ê°Ģ": 1329,
      "ĠìĤ¼": 1330,
      "Ġìĸ¼": 1331,
      "ìľ¡": 1332,
      "Ġíİĺ": 1333,
      "ĠëĪĦ": 1334,
      "ì²ł": 1335,
      "Ġê²Ģ": 1336,
      "Ġì¤Ħ": 1337,
      "Ġê¸Ī": 1338,
      "Ġê¸°ë¡Ŀ": 1339,
      "ìĿ¸ëĭ¤": 1340,
      "ĠëĤĺìĺ¨": 1341,
      "Ġì°¾": 1342,
      "Ġìĸ»": 1343,
      "ê·¹": 1344,
      "ë¯Ģë¡ľ": 1345,
      "íħľ": 1346,
      "¿Ĳ": 1347,
      "ëĵĿ": 1348,
      "ĠìĦ¸ê³Ħ": 1349,
      "ë¦´": 1350,
      "ëĦĲ": 1351,
      "ĠR": 1352,
      "ëĵ¤ìĹĲê²Į": 1353,
      "Ġì§ĢìĹŃ": 1354,
      "Ġìķħ": 1355,
      "Ġë¸Ķ": 1356,
      "íĦ´": 1357,
      "Ġìī": 1358,
      "ìĿ´ìĹĪëĭ¤": 1359,
      "ļį": 1360,
      "Ġì¼": 1361,
      "ì£¼ìĿĺ": 1362,
      "Ġ199": 1363,
      "ĠìłĦíĪ¬": 1364,
      "ĠE": 1365,
      "ĠíĽ": 1366,
      "íĭĢ": 1367,
      "Ġìĭ¸": 1368,
      "ĠN": 1369,
      "Ġìĥģëĭ¹": 1370,
      "ê°ĢëĬĶ": 1371,
      "Ġë¯¼": 1372,
      "ìĽĢ": 1373,
      "ĠìķĦëĭĪëĿ¼": 1374,
      "ì£": 1375,
      "ĠìĭĿ": 1376,
      "íĻľ": 1377,
      "ëıĮ": 1378,
      "Ġëľ": 1379,
      "ĠëĬĲ": 1380,
      "ì¡Įëĭ¤": 1381,
      "ìĭľìķĦ": 1382,
      "íıī": 1383,
      "ëĮĢíķľ": 1384,
      "ìĿ¸ìĿ´": 1385,
      "Ġë°±": 1386,
      "ĠìĿ´ìļ©": 1387,
      "Ġì²«": 1388,
      "ĠìķĦëĭĮ": 1389,
      "ĠìĿ´ìľł": 1390,
      "...)": 1391,
      "ìĤ¬ë¥¼": 1392,
      "ĠìŀĪìľ¼ë©°": 1393,
      "ĠH": 1394,
      "ëŁ½": 1395,
      "ê°Ģì§Ģ": 1396,
      "ë³Ģ": 1397,
      "ìĬ¬": 1398,
      "ëĵ¤ê³¼": 1399,
      "ë§ģ": 1400,
      "Ġê¸¸": 1401,
      "ĠëıĮìķĦ": 1402,
      "Ġê·¸ëŁ°": 1403,
      "ĠìŀĲì²´": 1404,
      "ê±¸": 1405,
      "ic": 1406,
      "it": 1407,
      "Ġëŀ": 1408,
      "ìłľë¡ľ": 1409,
      "is": 1410,
      "ĠìĹĦ": 1411,
      "ëħĦìĹĲ": 1412,
      "ë¶Ģë¶Ħ": 1413,
      "ĠíĻ©": 1414,
      "ì§Ħëĭ¤": 1415,
      "íĿ¬": 1416,
      "ìĿ¸ëį°": 1417,
      "Ġê°Ī": 1418,
      "ë¶ģ": 1419,
      "ìº": 1420,
      "íĮĢ": 1421,
      "Ġê²½ê¸°": 1422,
      "íķĺìŀĲ": 1423,
      "ì°°": 1424,
      "Ġë°Ģ": 1425,
      "ĠìĹ¬ëŁ¬": 1426,
      "(...)": 1427,
      "ī´": 1428,
      "Ġì²ł": 1429,
      "Ġì²ĺìĿĮ": 1430,
      "íģ´": 1431,
      "Ġê·¹": 1432,
      "Ġìĺ¨": 1433,
      "ë¥ł": 1434,
      "ĠíĹĪ": 1435,
      "Ġë²Į": 1436,
      "Ġëª¨ìĬµìĿĦ": 1437,
      "ĠìŀĳíĴĪ": 1438,
      "Ġìĸ´ëĸ": 1439,
      "Ġë¶ģ": 1440,
      "ĠìķĬëĬĶ": 1441,
      "Ġ15": 1442,
      "ĠìĹħ": 1443,
      "ìĭľíĤ¤": 1444,
      "ì§Ģê°Ģ": 1445,
      "ìĥģìĿĦ": 1446,
      "Ġìĭľë¦¬ì¦Ī": 1447,
      "ĠìłĪ": 1448,
      "Ġê·¸ëŁ¬ëĤĺ": 1449,
      "Ġë°Ķë¡ľ": 1450,
      "ìĺ¬": 1451,
      "ì°¬": 1452,
      "ĠíķĦìļĶ": 1453,
      "ìĤ¬ê°Ģ": 1454,
      "Ġê³³": 1455,
      "íĺ¼": 1456,
      "į¨": 1457,
      "ê°Ī": 1458,
      "ì°©": 1459,
      "Ġê·¸ëŀĺ": 1460,
      "ĠëĲĺìĸ´": 1461,
      "ë§¨": 1462,
      "Ġì§Ħíĸī": 1463,
      "ê·ľ": 1464,
      "Ġê±°ìĿĺ": 1465,
      "ĠíĨµíķ´": 1466,
      "ing": 1467,
      "Ġ18": 1468,
      "Ġíĭ": 1469,
      "Ġë¯¸êµŃ": 1470,
      "ìľ¨": 1471,
      "ĠìĿ´ë¯¸": 1472,
      "ìĿ¸ì§Ģ": 1473,
      "Ġì°½": 1474,
      "íģ¼": 1475,
      "ì¶ķ": 1476,
      "ëłĩê²Į": 1477,
      "ì¦Ŀ": 1478,
      "íĤ¨": 1479,
      "ĠíĮ¬": 1480,
      "Ġë¨¸": 1481,
      "íķĺìĺĢ": 1482,
      "ĠìķĬê³ł": 1483,
      "Ġì²Ń": 1484,
      "ë¦°ëĭ¤": 1485,
      "ĠìĹŃìĭľ": 1486,
      "Ġëª°": 1487,
      "ëıĦê°Ģ": 1488,
      "ê¸¸": 1489,
      "¶ģ": 1490,
      "ĠâĢ": 1491,
      "Ġì¸": 1492,
      "ìŀ¥ìĿĦ": 1493,
      "ê´´": 1494,
      "Ġëĭ¤ë§Į": 1495,
      "Ġíķ´ëĭ¹": 1496,
      "ìĸ´ëĤĺ": 1497,
      "ëĤ¬": 1498,
      "ĠìĿ´ëŁ°": 1499,
      "ĠìĿĢ": 1500,
      "Ġê½": 1501,
      "Ġë°Ŀ": 1502,
      "íĸĪê³ł": 1503,
      "ĠìĬ¤íĤ¬": 1504,
      "ì§Ģë§ī": 1505,
      "Ġê¸°ìĪł": 1506,
      "ê¸°ë¡ľ": 1507,
      "Ġê°ĻìĿ´": 1508,
      "íĸĪëįĺ": 1509,
      "íŀ": 1510,
      "ìĿ´ìĬ¤": 1511,
      "ëĵľë¥¼": 1512,
      "ëĿ¼ëıĦ": 1513,
      "Ġë¶Ļ": 1514,
      "Ġëĸ¨ìĸ´": 1515,
      "ìŀĪëĬĶ": 1516,
      "âĨ": 1517,
      "Ġìŀł": 1518,
      "ĠìĪĺëıĦ": 1519,
      "ĩ´": 1520,
      "ĠëŁ": 1521,
      "ĠìĿ´ìķ¼": 1522,
      "íķ´ìķ¼": 1523,
      "Ġ0": 1524,
      "ĠW": 1525,
      "ì§ķ": 1526,
      "ìĿĳ": 1527,
      "Ġíļ¨ê³¼": 1528,
      "ìĿ´ì§Ģë§Į": 1529,
      "ĠíĥĪ": 1530,
      "ľĺ": 1531,
      "ëª¬": 1532,
      "ìĹĲìĦł": 1533,
      "10": 1534,
      "ì¼ľ": 1535,
      "Ġë°©ìĨ¡": 1536,
      "ĠëĿ¼ìĿ´": 1537,
      "ĠO": 1538,
      "ì¹Ń": 1539,
      "ìĦ±ìĿĦ": 1540,
      "ì°¸": 1541,
      "ĠìĹĶ": 1542,
      "Ġth": 1543,
      "Ġëĳĺ": 1544,
      "ë¡Ģ": 1545,
      "Ġíĺ¼": 1546,
      "Ġì¦ī": 1547,
      "Ġë¶Ģë¶Ħ": 1548,
      "Ġì¢ĭìĿĢ": 1549,
      "íĬ¹": 1550,
      "ĠìŀĪëĬĶëį°": 1551,
      "ĠìľĦì¹ĺ": 1552,
      "ìĿ´ê°Ģ": 1553,
      "}}}": 1554,
      "ì´Ŀ": 1555,
      "ìī": 1556,
      "ì£¼ëĬĶ": 1557,
      "ĠíĬ¹íŀĪ": 1558,
      "ìĬ¨": 1559,
      "Ġê¶Į": 1560,
      "ac": 1561,
      "es": 1562,
      "Ġê´Ģëł¨": 1563,
      "ĠìĬĪ": 1564,
      "Ġë¬¼ë¡ł": 1565,
      "ĠìĤ¬ê±´": 1566,
      "ëĵ¯": 1567,
      "ìĶ¨": 1568,
      "ĠíĻĺ": 1569,
      "Ġê³¨": 1570,
      "ĠìĿ¼ë¶Ģ": 1571,
      "ĠìķĦë¬´": 1572,
      "ĠìĿ¼ë°ĺ": 1573,
      "Ġê³ĦìĨį": 1574,
      "Ġì£¼ìĿ¸": 1575,
      "Ġìħ": 1576,
      "Ġb": 1577,
      "ìķĦìĦľ": 1578,
      "ì±ħ": 1579,
      "ë²Į": 1580,
      "ĠíĦ°": 1581,
      "Ġê·Ģ": 1582,
      "Ġë³´ê³ł": 1583,
      "ĠëĮĢë¶Ģë¶Ħ": 1584,
      "Ġëĭ´": 1585,
      "ëĲĺê³ł": 1586,
      "ë²¤": 1587,
      "ĠìķĬëĬĶëĭ¤": 1588,
      "ĠìĻĢ": 1589,
      "ê³¨": 1590,
      "ë¦¬ìĹĲ": 1591,
      "ëĭĺ": 1592,
      "ĠìŀĪìĸ´": 1593,
      "Ġëĸł": 1594,
      "Ġì¶ķêµ¬": 1595,
      "Ġìĭ¶": 1596,
      "ĠíĻľëıĻ": 1597,
      "ëĵľëĬĶ": 1598,
      "ìłĦíŀĪ": 1599,
      "ĠìĿ¸íķ´": 1600,
      "ë¥´ëĬĶ": 1601,
      "Ġë§ģ": 1602,
      "Ġëĭ¬ë¦¬": 1603,
      "Ġë²ķ": 1604,
      "ë·": 1605,
      "ê·Ģ": 1606,
      "íķĦ": 1607,
      "ĠíĶ¼íķ´": 1608,
      "Ġ+": 1609,
      "Ġê¼": 1610,
      "Ġìłľìŀĳ": 1611,
      "ëģ¼": 1612,
      "ĠêµŃê°Ģ": 1613,
      "Ġì¢Ģ": 1614,
      "ìĸµ": 1615,
      "ĠìķĬìĿĢ": 1616,
      "om": 1617,
      "Ġë°°ìļ°": 1618,
      "Ġë§¡": 1619,
      "ìĬ·": 1620,
      "ĠëĲĺëĬĶ": 1621,
      "Ġë§Įëĵ¤ìĸ´": 1622,
      "Ġë§Īì§Ģë§ī": 1623,
      "ëĵľìĿĺ": 1624,
      "Ġê°Ĳëıħ": 1625,
      "ìĿ¸ìĿĺ": 1626,
      "Ġê°Ģì§Ģê³ł": 1627,
      "Ġë²Ķ": 1628,
      "ìĬ¤ëĬĶ": 1629,
      "ĠìłķëıĦë¡ľ": 1630,
      "Ľ°": 1631,
      "ìĭľìĹĲ": 1632,
      "el": 1633,
      "Ġë¿Ĳ": 1634,
      "ĠëĮĢíķľë¯¼": 1635,
      "ë¨¹": 1636,
      "ëł¸ëĭ¤": 1637,
      "ê³¤": 1638,
      "ë³¼": 1639,
      "ìłķìĿĦ": 1640,
      "ĠìŀĪìĿĦ": 1641,
      "ë°Ģ": 1642,
      "Ġìĺ¬ëĿ¼": 1643,
      "ë´": 1644,
      "Ġëªĩ": 1645,
      "ĠìŀĪê³ł": 1646,
      "ëĨĵ": 1647,
      "Ġëª¸": 1648,
      "Ġ16": 1649,
      "Ġ30": 1650,
      "Ġê¸°ì¤Ģ": 1651,
      "ĠìķĬìķĺ": 1652,
      "Ġì¿ł": 1653,
      "ĠëĮĢíķ´": 1654,
      "Ġë³´ìĿ¸ëĭ¤": 1655,
      "ĠìĽĶ": 1656,
      "ë©ĶìĿ´": 1657,
      "ë´ī": 1658,
      "ê±°ë¦¬": 1659,
      "Ġê³¡": 1660,
      "ì¸µ": 1661,
      "íļį": 1662,
      "ìľ¼ëĭĪ": 1663,
      "íĽ": 1664,
      "Ġë¹ĦìĬ·": 1665,
      "ĠìĪĺì¤Ģ": 1666,
      "ìĸ´ê°Ģ": 1667,
      "ìĭľê°Ħ": 1668,
      "Ġë´": 1669,
      "ĠëĤ´ìļ©": 1670,
      "ol": 1671,
      "ĠìĿ¸ê°Ħ": 1672,
      "ĠìĿ´ë¥¼": 1673,
      "Ġm": 1674,
      "ĠìĿ´ìłĦ": 1675,
      "ìĩ": 1676,
      "ìķĻ": 1677,
      "ìŀĲë¥¼": 1678,
      "ĠíĥĦ": 1679,
      "ëĪĦ": 1680,
      "ĠìĦ±ê³µ": 1681,
      "Ġíķĺëĭ¤": 1682,
      "ĠìĬ¤íĥĢ": 1683,
      "ĠìłľìĻ¸": 1684,
      "ë¡ľëĬĶ": 1685,
      "Ġìłĳ": 1686,
      "he": 1687,
      "ĠëĤ®": 1688,
      "êµ´": 1689,
      "ëıĦë¡Ŀ": 1690,
      "ìľĦë¥¼": 1691,
      "ĠíĹ¤": 1692,
      "ĠëĮĢìĭł": 1693,
      "000": 1694,
      "ìĪĺê°Ģ": 1695,
      "¾¸": 1696,
      "ìĿ´ìŀĲ": 1697,
      "Ġê¸°ë³¸": 1698,
      "Ġìĸ´ëĬĲ": 1699,
      "ìŀĲìĿĺ": 1700,
      "ad": 1701,
      "ìŀ¡": 1702,
      "ìĹĪê³ł": 1703,
      "Ġê·¸ìĿĺ": 1704,
      "BS": 1705,
      "ĠìĿ¸ë¬¼": 1706,
      "ëŀµ": 1707,
      "Ġê·¸ëĥ¥": 1708,
      "ĠìĤ¬ë§Ŀ": 1709,
      "Ġë§Īë²ķ": 1710,
      "Ġo": 1711,
      "ëĵ±íķĻêµĲ": 1712,
      "ìĻĶ": 1713,
      "ìĻĢìĿĺ": 1714,
      "ion": 1715,
      "íĮħ": 1716,
      "ĠëĲł": 1717,
      "ìŀ¥ìĿ´": 1718,
      "ĠëĨĴìĿĢ": 1719,
      "ĠëĤĺíĥĢ": 1720,
      "ìĬ¤íĥĢ": 1721,
      "ĠíĴĢ": 1722,
      "ëıĦë¡ľ": 1723,
      "Ġìĥģëĭ¹íŀĪ": 1724,
      "ìµľ": 1725,
      "ĠìĿ´ìĸ´": 1726,
      "Ġì¶ľìĭł": 1727,
      "ë¦¬ìĿĺ": 1728,
      "íĬ¸ë¥¼": 1729,
      "Ġë§ģíģ¬": 1730,
      "ëĵľê°Ģ": 1731,
      "ìĬĪ": 1732,
      "Ġì£¼ìĿ¸ê³µ": 1733,
      "ĠëĮĢíĳľ": 1734,
      "am": 1735,
      "Ġê²ĥëıĦ": 1736,
      "ë¡ľìļ´": 1737,
      "ĠëĽ°": 1738,
      "Ġê·¸ëĮĢë¡ľ": 1739,
      "Ġëħ¼": 1740,
      "ì§ľ": 1741,
      "Ġs": 1742,
      "ĠìĦľìļ¸": 1743,
      "Ġ198": 1744,
      "Ġê·¸ëħĢ": 1745,
      "ĠìķĶ": 1746,
      "ëį¸": 1747,
      "ĠìĹĨìĿ´": 1748,
      "ëł¤ê³ł": 1749,
      "ë§Īëĭ¤": 1750,
      "Ġìĸ¸ê¸ī": 1751,
      "Ġëĵ±ìĿĺ": 1752,
      "íıŃ": 1753,
      "ëĵ¤ëıĦ": 1754,
      "Ġì§Ī": 1755,
      "ĠìĿĺë¯¸": 1756,
      "Ġë©´": 1757,
      "ĠìĹĺ": 1758,
      "ì¸¡": 1759,
      "ê²Ģ": 1760,
      "ìĿ¼ìĹĲ": 1761,
      "ĠU": 1762,
      "ëħĲ": 1763,
      "ĠëłĪìĿ´": 1764,
      "ìĬ¤ë¡ľ": 1765,
      "ĠëĦĪë¬´": 1766,
      "ìĨĲ": 1767,
      "ìĬµëĭĪëĭ¤": 1768,
      "Ġê²©": 1769,
      ".\"": 1770,
      "ëĮĢìĿĺ": 1771,
      "Ġíı¬íķ¨": 1772,
      "199": 1773,
      "Ġë°ĽìķĦ": 1774,
      "ëıĦë¥¼": 1775,
      "ĠìĿĺíķ´": 1776,
      "Ġì§ģìłĳ": 1777,
      "ĸìĹĲ": 1778,
      "ìĪĺë¥¼": 1779,
      "Ġê´Ģê³Ħ": 1780,
      "ĠëŃ": 1781,
      "ê¸°ìĿĺ": 1782,
      "ìĤ¬ìĿĺ": 1783,
      "Ġì§Ģê¸Ī": 1784,
      "ĠV": 1785,
      "Ġt": 1786,
      "ëĿ¼ë§Ī": 1787,
      "ê³łë¡ľ": 1788,
      "ĠëĬĺ": 1789,
      "Ġì¢ĭìķĦ": 1790,
      "ëĶ©": 1791,
      "Ġê²°ê³¼": 1792,
      "ëĤ¸": 1793,
      "ìŀĪëĭ¤": 1794,
      "ì¹¨": 1795,
      "Ġw": 1796,
      "ëľ": 1797,
      "ìĸ¼": 1798,
      "Ġëįķ": 1799,
      "ĠíĻį": 1800,
      "ig": 1801,
      "Ġ#": 1802,
      "ë¥´ê²Į": 1803,
      "ìĦ¼": 1804,
      "ĠìķĮëł¤": 1805,
      "Ġ13": 1806,
      "ĠìĽĮ": 1807,
      "¤ë²Ħ": 1808,
      "íĽĪ": 1809,
      "ëĬĺ": 1810,
      "ëłĮ": 1811,
      "ìłĦìĿĦ": 1812,
      "ĠíĮĶ": 1813,
      "ĠìĿ´ëĬĶ": 1814,
      "Ġê°ĸ": 1815,
      "ĠìŀĪëįĺ": 1816,
      "Ġ14": 1817,
      "Ġë§İëĭ¤": 1818,
      "Ġì¤ĳêµŃ": 1819,
      "ĠìĭľìłĪ": 1820,
      "ëĤĺëĬĶ": 1821,
      "ĠëĬ¥ëł¥": 1822,
      "ì§ĢëıĦ": 1823,
      "as": 1824,
      "Ġf": 1825,
      "ëįķ": 1826,
      "ĠíĥĢìĿ´": 1827,
      "ë²Īì§¸": 1828,
      "ĠìŀĪì§Ģë§Į": 1829,
      "ì¿": 1830,
      "Ġthe": 1831,
      "ìĿĮìĿĦ": 1832,
      "Ĳëĭ¤": 1833,
      "íĻķ": 1834,
      "Ġê²½ìļ°ê°Ģ": 1835,
      "íķĺëĬĶëį°": 1836,
      "ëĭĽ": 1837,
      "Ġìľ¡": 1838,
      "ìļ±": 1839,
      "ìŀĲëĬĶ": 1840,
      "ä¸": 1841,
      "ëĭĿ": 1842,
      "ìĹ¼": 1843,
      "ì¹ĺëĬĶ": 1844,
      "ë¡ľìĦľ": 1845,
      "âĢ¦": 1846,
      "ëĮĢë¥¼": 1847,
      "ĠìŀĲìĭłìĿ´": 1848,
      "Ġ17": 1849,
      "id": 1850,
      "ë¦¬ê·¸": 1851,
      "il": 1852,
      "ì¤Ħ": 1853,
      "ĠëıĻìķĪ": 1854,
      "Ġíĸ¥": 1855,
      "Ġd": 1856,
      "ëŀ¨": 1857,
      "ĠìłĦìŁģ": 1858,
      "ìĹĺ": 1859,
      "ĠëŁ¬": 1860,
      "ĠìĿ´ëıĻ": 1861,
      "ìĵ": 1862,
      "ê¹Ģ": 1863,
      "®¤": 1864,
      "íķĺëįĺ": 1865,
      "ë¦¬ì§Ģ": 1866,
      "ìłķìĿ´": 1867,
      "ëĲł": 1868,
      "21": 1869,
      "ĠìľĦíķľ": 1870,
      "ed": 1871,
      "ìłĲìĿĦ": 1872,
      "ìĥĪ": 1873,
      "ìĶ©": 1874,
      "ì¶©": 1875,
      "íĶ½": 1876,
      "ĠìķłëĭĪ": 1877,
      "ëªħìĿ´": 1878,
      "âĨĴ": 1879,
      "ĠëĤĺìĺ¤ëĬĶ": 1880,
      "ĠëĦ£": 1881,
      "et": 1882,
      "Ġì¦Ŀê°Ģ": 1883,
      "íĴį": 1884,
      "ĠíĻĪ": 1885,
      "Ġì§ĢìĽĲ": 1886,
      "Ġëľ»": 1887,
      "ëĢ": 1888,
      "ay": 1889,
      "ĠìľłìłĢ": 1890,
      "Ġë©¤ë²Ħ": 1891,
      "Ġë°©ìĸ´": 1892,
      "us": 1893,
      "ìĽħ": 1894,
      "Ġê´´": 1895,
      "ì¤ĳìĹĲ": 1896,
      "ìĹĨìĿ´": 1897,
      "ĠìĦłíĥĿ": 1898,
      "íĻĶë¥¼": 1899,
      "ë¨¼": 1900,
      "Ġc": 1901,
      "ĠìĹ¬ê¸°": 1902,
      "ì¤Ģëĭ¤": 1903,
      "Ġë¦¬ê·¸": 1904,
      "Ġê·ľ": 1905,
      "Ġìĵ¸": 1906,
      "ë¦¬ìĸ´": 1907,
      "Ġíıīê°Ģ": 1908,
      "Ġíģ¬ê²Į": 1909,
      "Ġì°¾ìķĦ": 1910,
      "Ġíĺĳ": 1911,
      "ĠìĹ°êµ¬": 1912,
      "ëŀľëĵľ": 1913,
      "ĠìĿ´ìĹĲ": 1914,
      "ro": 1915,
      "Ġì¶ľìĹ°": 1916,
      "ĠìķĦë²Ħ": 1917,
      "ëĭµ": 1918,
      "ľ´": 1919,
      "ĠìĹ¬ìŀĲ": 1920,
      "Ġë°ĶëĢ": 1921,
      "Ġ100": 1922,
      "ë¨¸ëĭĪ": 1923,
      "ĳ¸": 1924,
      "Ġìļ¸": 1925,
      "Ġof": 1926,
      "Ġë¬ĺ": 1927,
      "Ġìĺģíĸ¥": 1928,
      "Ġë°ľìĥĿ": 1929,
      "Ġìŀ¥ë©´": 1930,
      "Ġê·¸ëĬĶ": 1931,
      "ìī¬": 1932,
      "ĠìłĦì²´": 1933,
      "ĠìŀĲê¸°": 1934,
      "ì»¬": 1935,
      "Ġë§Ŀ": 1936,
      "ĠìĹĦì²Ń": 1937,
      "ê³¼ëĬĶ": 1938,
      "ëªħìĿĦ": 1939,
      "ê²¼": 1940,
      "Ġì±ħ": 1941,
      "ìĿ¸ìĿĦ": 1942,
      "and": 1943,
      "ëĲĺì§Ģ": 1944,
      "Ġëī´": 1945,
      "ì¹ĺë¥¼": 1946,
      "Ġì»¨": 1947,
      "ëĤĺê°Ģ": 1948,
      "ìºĲ": 1949,
      "Ġìĭ¤ìłľë¡ľ": 1950,
      "Ġê°ľë°ľ": 1951,
      "Ġê¸ī": 1952,
      "ì¹ĺê°Ģ": 1953,
      "Ġë¨¼": 1954,
      "ë²½": 1955,
      "ìĻĶëĭ¤": 1956,
      "Ġìī½": 1957,
      "Ġë°©ë²ķ": 1958,
      "íķĺê¸°ëıĦ": 1959,
      "ĠëĺĲëĬĶ": 1960,
      "Ġë§Įëĵł": 1961,
      "Ġë°ľë§¤": 1962,
      "ĠìĿ´ë£¨": 1963,
      "íļ¨": 1964,
      "ê°ĻìĿ´": 1965,
      "íĺĳ": 1966,
      "18": 1967,
      "Ġìķķ": 1968,
      "Ġë§ĲìĿĦ": 1969,
      "Ġp": 1970,
      "ìĸ´ë¡ľ": 1971,
      "ê°ĳ": 1972,
      "ĠëıĦìĭľ": 1973,
      "12": 1974,
      "ãģĦ": 1975,
      "ĠíĢ": 1976,
      "ĠìŀĪëĭ¤ëĬĶ": 1977,
      "ìĤ¼": 1978,
      "ĠëĭĪ": 1979,
      "ĠJ": 1980,
      "ëĶĶìĺ¤": 1981,
      "Ġìľłëªħ": 1982,
      "ê°ĻìĿĢ": 1983,
      "Ġìµľê³ł": 1984,
      "Ġ<": 1985,
      "ìĺ¥": 1986,
      "ë¦¬ì¹´": 1987,
      "ìĥģìĿ´": 1988,
      "ì±Ħ": 1989,
      "Ġëįĺ": 1990,
      "ãģ®": 1991,
      "Ġì¹¨": 1992,
      "Ġíį¼": 1993,
      "ìľ¼ë¡ľëĬĶ": 1994,
      "Ġìļ°ìĬ¹": 1995,
      "ìĿ´ë¥¼": 1996,
      "ĠëĤĺìĺ¨ëĭ¤": 1997,
      "ìĽĲìĿ´": 1998,
      "Ġìª½": 1999,
      "ëħĦëĮĢ": 2000,
      "ì¼ĵ": 2001,
      "ìļ°ëĬĶ": 2002,
      "Ġíĭ°": 2003,
      "ĠìĬ¬": 2004,
      "Ġê³¼ê±°": 2005,
      "ĠìĿ´ê²ĥ": 2006,
      "Ġê·¸ëłĩ": 2007,
      "Ġíĺ¹": 2008,
      "Ġê³µìĭĿ": 2009,
      "Ġê½¤": 2010,
      "ìĻ¸ë¶Ģ": 2011,
      "Ġ25": 2012,
      "ìłĦìĹĲ": 2013,
      "ê³¼ìĿĺ": 2014,
      "íĬ¸ê°Ģ": 2015,
      "ê·¸ëŀ¨": 2016,
      "Ġì¹¼": 2017,
      "ìĪĻ": 2018,
      "ìłĦìĹĲìĦľ": 2019,
      "Ġë³´ìĹ¬ì£¼": 2020,
      "Ġë¶Īê°Ģ": 2021,
      "Ġìļ´ìĺģ": 2022,
      "ìĭĿìĿĦ": 2023,
      "Ġìĩ": 2024,
      "ëĭĪìķĦ": 2025,
      "ëıĦìĿĺ": 2026,
      "ĠìĨĮìĨį": 2027,
      "ĠíıĲ": 2028,
      "ìĿ´ê¸°": 2029,
      "ĠìĬ¤íĨł": 2030,
      "Ġì¹´ëĵľ": 2031,
      "Ġë³Ģê²½": 2032,
      "ĠìķĬìķĺëĭ¤": 2033,
      "ìĸ´ëĤľ": 2034,
      "ĠìķĦëĭĪëĭ¤": 2035,
      ").": 2036,
      "Ġì¸¡": 2037,
      "ìķĮ": 2038,
      "ĠìĽĲëŀĺ": 2039,
      "Ġëħ¸ëŀĺ": 2040,
      "ìĿ´ìĸ´": 2041,
      "Ġíķĺì§Ģ": 2042,
      "ĠìłĦë¶Ģ": 2043,
      "âĢĻ": 2044,
      "ĠìĤ¬ëĿ¼": 2045,
      "íŀĮ": 2046,
      "ch": 2047,
      "ĠìŀĲì£¼": 2048,
      "Ġì¡°ê¸Ī": 2049,
      "íĸĪì§Ģë§Į": 2050,
      "Ġì¹ľêµ¬": 2051,
      "Ġëª¬": 2052,
      "íĩ´": 2053,
      "ê°Ŀ": 2054,
      "ĠìłľëĮĢë¡ľ": 2055,
      "ĠíĶĦëŀĳ": 2056,
      "ĠíĿ¬": 2057,
      "ĠìĤ¬ëŀĳ": 2058,
      "ĠëĨį": 2059,
      "Ġê°ĳ": 2060,
      "11": 2061,
      "ĠìĿ¸íĦ°": 2062,
      "Ġì¤ĳìļĶ": 2063,
      "ìļ´ëĵľ": 2064,
      "ĠìĿĮìķħ": 2065,
      "ìĿ¼ë³¸": 2066,
      "ëŀĻ": 2067,
      "Ġë´ī": 2068,
      "Ġëĵ£": 2069,
      "ĠëĨĵ": 2070,
      "ëĮĢíķľë¯¼": 2071,
      "Ġìı": 2072,
      "íľĺ": 2073,
      "Ġì´Īë°ĺ": 2074,
      "ë§Įíģ¼": 2075,
      "Ġê¸Ģ": 2076,
      "ìį¨": 2077,
      "íļĮìĿĺ": 2078,
      "ĠëıĪ": 2079,
      "ìŀĲë¡ľ": 2080,
      "ï¼": 2081,
      "ìĻĢëĬĶ": 2082,
      "ĠìĹŃíķł": 2083,
      "ê³³": 2084,
      "ĠìĦľë¡ľ": 2085,
      "Ġë¹Ħíķ´": 2086,
      "Ġë¹Į": 2087,
      "ĠìľłëĭĽ": 2088,
      "ĠìŀĪìĸ´ìĦľ": 2089,
      "å¤": 2090,
      "!!": 2091,
      "Ġëĵ±ìĿĦ": 2092,
      "íĤ¹": 2093,
      "ĠëķĮë¬¸ìĿ´ëĭ¤": 2094,
      "ìĺĢëįĺ": 2095,
      "ìĹĲìĦľìĿĺ": 2096,
      "Ġê°ĢëĬ¥íķĺëĭ¤": 2097,
      "Ġìķ¨": 2098,
      "ëĮĢíķĻêµĲ": 2099,
      "íĸĪìĿĦ": 2100,
      "ë¡Ń": 2101,
      "ĠìĮ": 2102,
      "ĠìłģìĿ´": 2103,
      "ëĤĺëĿ¼": 2104,
      "Ġê¹Į": 2105,
      "Ġê°Ģì§Ħ": 2106,
      "ì°¬ê°Ģì§Ģ": 2107,
      "ê²©ìĿĦ": 2108,
      "ĠíķĻìĥĿ": 2109,
      "{{": 2110,
      "ĠíķĻêµĲ": 2111,
      "íħĲ": 2112,
      "Ġì£¼ë¡ľ": 2113,
      "15": 2114,
      "Ġì°į": 2115,
      "Ġìłķë³´": 2116,
      "ĠëģĮ": 2117,
      "íŀĪëł¤": 2118,
      "Ġê³µê°ľ": 2119,
      "Ġë¹ĦêµĲ": 2120,
      "Ġëķ": 2121,
      "ìĿµ": 2122,
      "ë£¡": 2123,
      "Ġìłķì¹ĺ": 2124,
      "Ġê²°ìłķ": 2125,
      "íķĺëł¤": 2126,
      "íĶĦíĬ¸": 2127,
      "ìĿ´íĦ°": 2128,
      "Ġëį°ë¯¸": 2129,
      "ìŀĲìĿ¸": 2130,
      "Ġíķ´ëıĦ": 2131,
      "Ġíĥĳ": 2132,
      "Ġìľłì§Ģ": 2133,
      "Ġê·¸ê²ĥ": 2134,
      "Ġë°Ķê": 2135,
      "Ġë§Īì°¬ê°Ģì§Ģ": 2136,
      "Ġë½": 2137,
      "ĠìķĦì§ģ": 2138,
      "ê°ľìĿĺ": 2139,
      "Ġê°Ļëĭ¤": 2140,
      "Ġíķĺë©°": 2141,
      "ĠìĹ¬ìĦ±": 2142,
      "ow": 2143,
      "ë¥´ë©´": 2144,
      "êµ°ìĿĺ": 2145,
      "ve": 2146,
      "ëªħìĿĺ": 2147,
      "ĠìĤ¬íļĮ": 2148,
      "ìĪĺìĿĺ": 2149,
      "ĠëĤ¨ìŀĲ": 2150,
      "ìĦľëĬĶ": 2151,
      "ĠìĿ´ëŁ¬": 2152,
      "ëłī": 2153,
      "íĺģ": 2154,
      "Ġíĺķíĥľ": 2155,
      "ĠĠ": 2156,
      "ìĤ¬ëĬĶ": 2157,
      "´Į": 2158,
      "ìĬ¤ìĻĢ": 2159,
      "ì§Ģìĸ´": 2160,
      "íķĺê±°ëĤĺ": 2161,
      "ëıĻìķĪ": 2162,
      "Ġê°ķëł¥": 2163,
      "ë¦¬ìĺ¤": 2164,
      "ht": 2165,
      "Ġì§ĢëĤĺ": 2166,
      "px": 2167,
      "ìĬ¤íħľ": 2168,
      "Ġë³´ê¸°": 2169,
      "Ġë¥": 2170,
      "ê°ģì£¼": 2171,
      "ĠìĤ¬ëŀĮìĿ´": 2172,
      "ìĹ°íŀĪ": 2173,
      "ĠìĤ´ìķĦ": 2174,
      "ìľĦìĽĲ": 2175,
      "ĠëĮĢíķľë¯¼êµŃ": 2176,
      "âĺ": 2177,
      "Ġìĺ¤íŀĪëł¤": 2178,
      "ĠìķĦìĿ´íħľ": 2179,
      "Ġê¹¨": 2180,
      "ĠëıħìĿ¼": 2181,
      "ë¡¯": 2182,
      "ĠëĲĺê³ł": 2183,
      "ĠìĹĨìĸ´": 2184,
      "Ġìłķë¶Ģ": 2185,
      "ì§ĢìĿĺ": 2186,
      "Ġê¶ģ": 2187,
      "ĠìķĮê³ł": 2188,
      "íı°": 2189,
      "íĬ¸ë¡ľ": 2190,
      "Ġë¹¨": 2191,
      "ĠìĶ": 2192,
      "Ġë°ľê²¬": 2193,
      "ìĵ°": 2194,
      "ëĬĶì§Ģ": 2195,
      "ë©¸": 2196,
      "ĠìĨ¡": 2197,
      "Ġë¹¼": 2198,
      "ë¬¼ìĿĦ": 2199,
      "ìłĲìĿ´": 2200,
      "Ġ197": 2201,
      "Ġë©Ģ": 2202,
      "Ġê¸°ì¡´": 2203,
      "ë£¹": 2204,
      "ĠìĿ´ë²¤": 2205,
      "ìĿ´ëĵľ": 2206,
      "íĸĪëĭ¤ê³ł": 2207,
      "ĠëĨĢ": 2208,
      "ê²ĮìŀĦ": 2209,
      "ë©ĶìĿ´ìħĺ": 2210,
      "ĠìŀĪëĭ¤ê³ł": 2211,
      "Ġì£¼ìŀ¥": 2212,
      "Ġêµ¬ìĦ±": 2213,
      "ĠìĦ¤ìłķ": 2214,
      "íĨµëł¹": 2215,
      "Ġìĺģìĥģ": 2216,
      "Ġë§ĪìĿĮ": 2217,
      "Ġì°¸ê°Ģ": 2218,
      "ìĿ¸ìĿĢ": 2219,
      "Ġì°©": 2220,
      "Ġìłķë§Ĳ": 2221,
      "ĠíĮĮê´´": 2222,
      "ĠíĽĦë°ĺ": 2223,
      "ìĽĲìĿĦ": 2224,
      "ëŁ¬ëĤĺ": 2225,
      "ìģ": 2226,
      "ëłµ": 2227,
      "ìĽĥ": 2228,
      "ìĹĪëįĺ": 2229,
      "íĸĪìľ¼ë©°": 2230,
      "ë¶ĦìĹĲ": 2231,
      "ĠëĶľ": 2232,
      "ĠëłĪë²¨": 2233,
      "nd": 2234,
      "Ġì¡¸": 2235,
      "Ġê°Ģê¹Į": 2236,
      "Ġëĵ±ìĿ´": 2237,
      "Ġì¢ĭëĭ¤": 2238,
      "ĠíĶĦë¦¬": 2239,
      "ë¹Ī": 2240,
      "Ġë¬´ê¸°": 2241,
      "ĠìĿ´ëķĮ": 2242,
      "ë¡¤": 2243,
      "Ġê¿": 2244,
      "ent": 2245,
      "Ġìĸ´ëĸ¤": 2246,
      "ê²½ê¸°": 2247,
      "íĬľ": 2248,
      "ëĤĺë§Ī": 2249,
      "ìķķ": 2250,
      "ĠìĻľ": 2251,
      "íĬ¼": 2252,
      "Ġìłķìĭł": 2253,
      "ĠìľłìĿ¼": 2254,
      "íĥģ": 2255,
      "ĠĊĠĊ": 2256,
      "íĻĶê°Ģ": 2257,
      "ë¥´ê³ł": 2258,
      "ĠìķĦìĺĪ": 2259,
      "ëĮĢê°Ģ": 2260,
      "Ġë¶Ģì¡±": 2261,
      "ĠíĻľìķ½": 2262,
      "íĻĶìĹĲìĦľ": 2263,
      "ê°Ħëĭ¤": 2264,
      "Ġìĸ´ëł¤": 2265,
      "ìĻĦ": 2266,
      "ìĸ´ë¥¼": 2267,
      "ì§Ģë¡ľ": 2268,
      "ê¶ģ": 2269,
      "198": 2270,
      "Ġìµľì¢ħ": 2271,
      "ĠíĸīëıĻ": 2272,
      "ëĤ¬ëĭ¤": 2273,
      "ìĭľì¦Į": 2274,
      "ì»µ": 2275,
      "ĠëıĻìĭľìĹĲ": 2276,
      "ëĦ·": 2277,
      "ĠëĵľëĿ¼ë§Ī": 2278,
      "Ġë§ĪìĿ´": 2279,
      ".)": 2280,
      "Ġì¡°ìĦł": 2281,
      "Ġíķĺë©´": 2282,
      "Ġëĵ¤ìĸ´ê°Ģ": 2283,
      "ëĵľë¡ľ": 2284,
      "ìĬ¤íģ¬": 2285,
      "Ġë´Ĳ": 2286,
      "ìĿ´ê¸°ëıĦ": 2287,
      "ëª»": 2288,
      "Ġëª¨ìĸĳ": 2289,
      "ì£Ħ": 2290,
      "ìĦ¸ê¸°": 2291,
      "ìķĶ": 2292,
      "Ġ2018": 2293,
      "ĠìĥĪë¡ľìļ´": 2294,
      "ĠìĤ¬ìĭ¤ìĥģ": 2295,
      "Ġì¿": 2296,
      "ë¥¸ëĭ¤": 2297,
      "ê·¸ë¦¬ê³ł": 2298,
      "ì©": 2299,
      "Ġëĥ": 2300,
      "ĠìŀĶ": 2301,
      "ê·ł": 2302,
      "Ġìį¨": 2303,
      "ìŀĦìĿĦ": 2304,
      "50": 2305,
      "ìĺ¤ëĬĶ": 2306,
      "Ġìµľì´Ī": 2307,
      "ĠâĨĴ": 2308,
      "ìļķ": 2309,
      "ìĭľì¼ľ": 2310,
      "ĩĮ": 2311,
      "Ġë¨¼ìłĢ": 2312,
      "ĠìĻĦìłĦíŀĪ": 2313,
      "Ġ50": 2314,
      "ĠëĮĢíķĻ": 2315,
      "ìĭľìĿĺ": 2316,
      "BC": 2317,
      "ĠìĨĮíĻĺ": 2318,
      "ĠìķĦëŀĺ": 2319,
      "Ġëª¬ìĬ¤íĦ°": 2320,
      "Ġë°ĶëĢĮ": 2321,
      "ëĺĲ": 2322,
      "ìĽł": 2323,
      "ĠìŀĲìľł": 2324,
      "ĠíĻķìĿ¸": 2325,
      "Ġìľ¤": 2326,
      "ĠëĶ¸": 2327,
      "ĠíĶĦë¡ľê·¸ëŀ¨": 2328,
      "ĠëĲĺìĹĪ": 2329,
      "īìŀ¥": 2330,
      "ëĤ´ëĬĶ": 2331,
      "ĠëĤ´ëł¤": 2332,
      "16": 2333,
      "ĠìĬ¹ë¦¬": 2334,
      "Ġë½ĳ": 2335,
      "ìĽ¨": 2336,
      "Ġíŀĺëĵ¤": 2337,
      "ĠëĮĢíĨµëł¹": 2338,
      "Ġìŀĥ": 2339,
      "Ġëª¨ëį¸": 2340,
      "ìĥģìľ¼ë¡ľ": 2341,
      "):": 2342,
      "ĠìĦ¤ëªħ": 2343,
      "ĠìĦ¬": 2344,
      "Ġë¹ĦìĬ·íķľ": 2345,
      "Ġë°ĶëŀĮ": 2346,
      "ĠìĦ±ëĬ¥": 2347,
      "íķľêµŃ": 2348,
      "ëĭī": 2349,
      "Ġë°©ìĭĿ": 2350,
      "ë°ĸìĹĲ": 2351,
      "Ġì½ĺ": 2352,
      "Ġëħ¸ìĦł": 2353,
      "Ġë²ĦìłĦ": 2354,
      "ìľ¤": 2355,
      "Ġì°¨ì§Ģ": 2356,
      "ĠìĿ´ëŁ¬íķľ": 2357,
      "»ê²Į": 2358,
      "Ġì£¼ë³Ģ": 2359,
      "ì½ĺ": 2360,
      "ëŁŃ": 2361,
      "ìĥ¤": 2362,
      "ĠâĢĺ": 2363,
      "Ġìĩ¼": 2364,
      "Ġë¬¸ìĦľ": 2365,
      "ì·¨": 2366,
      "ĠìĭľìĬ¤íħľ": 2367,
      "ëĮĢìĹĲ": 2368,
      "ëľ¨": 2369,
      "Ġì¢Į": 2370,
      "Ġë§ĮëĤĺ": 2371,
      "íĺ¹": 2372,
      "ĠíĿĶ": 2373,
      "ë°į": 2374,
      "Ġ[": 2375,
      "¢°": 2376,
      "Ġìłģìļ©": 2377,
      "Ġ2016": 2378,
      "Ġì°¸ìĹ¬": 2379,
      "30": 2380,
      "ĠìłĦìĹĲ": 2381,
      "ĠìĹŃìĤ¬": 2382,
      "ĠìĦ¤ì¹ĺ": 2383,
      "ìłģìĿ´": 2384,
      "ĠìĿ´ë²Ī": 2385,
      "ĠìĿ¼ìĿ´": 2386,
      "ë·Ķ": 2387,
      "ì¹¸": 2388,
      "Ġ24": 2389,
      "Ġë³´íĨµ": 2390,
      "íĥķ": 2391,
      "Ġ2017": 2392,
      "ê°ĦìĹĲ": 2393,
      "ĠëĬĲëĤ": 2394,
      "Ġ2019": 2395,
      "ĠìķĬìķĦ": 2396,
      "ĠìĿ´ìķ¼ê¸°": 2397,
      "Ġìĭ¤íĮ¨": 2398,
      "ìĹĦ": 2399,
      "ëįĶëĿ¼ëıĦ": 2400,
      "ìļ°ìĬ¤": 2401,
      "ĊĊ": 2402,
      "ãģª": 2403,
      "ĠìĽĢ": 2404,
      "ì²Ļ": 2405,
      "im": 2406,
      "íĹĮ": 2407,
      "ë¹ł": 2408,
      "ëī´": 2409,
      "Ġì¤ĳìĭ¬": 2410,
      "Ġ)": 2411,
      "ot": 2412,
      "Ġë§Įíģ¼": 2413,
      "ì´Į": 2414,
      "Ġê°ķíĻĶ": 2415,
      "Ġy": 2416,
      "Ġê¸°ìĤ¬": 2417,
      "ĠìµľëĮĢ": 2418,
      "ë¢°": 2419,
      "ĠìĦ¼": 2420,
      "ĠìłĦíĺĢ": 2421,
      "ĠX": 2422,
      "Ġê°Ģì§Ģ": 2423,
      "ĠìĦ±ê²©": 2424,
      "Ġíĺ¹ìĿĢ": 2425,
      "íħĶ": 2426,
      "ëıĦëĬĶ": 2427,
      "ë³´ë©´": 2428,
      "Ġin": 2429,
      "ĠíĮ¨ë°°": 2430,
      "Ġìĭ±": 2431,
      "Ġëħ¹": 2432,
      "ìĽĲìĿĺ": 2433,
      "ë§¹": 2434,
      "em": 2435,
      "ìĤ¬ìĭ¤": 2436,
      "ĠëĮĢíļĮ": 2437,
      "ë²ĦìĬ¤": 2438,
      "Ġíľ´": 2439,
      "17": 2440,
      "Ġë°ĺìĿĳ": 2441,
      "ĠëķĮëĬĶ": 2442,
      "íĨ¤": 2443,
      "Ġê·¸ëŀĺìĦľ": 2444,
      "íĸĪëĬĶëį°": 2445,
      "Ġa": 2446,
      "êµ¬ë¥¼": 2447,
      "ìĿ´íĽĦ": 2448,
      "ĠíĳľíĺĦ": 2449,
      "Ġë°ľíĳľ": 2450,
      "ĠìľĦíķ´ìĦľ": 2451,
      "ì¼°": 2452,
      "Ġê³Ħíļį": 2453,
      "Ġ2015": 2454,
      "ìĶ¬": 2455,
      "Ġë¶Īê°ĢëĬ¥": 2456,
      "ë·°": 2457,
      "åħ": 2458,
      "Ġìĸ´ëĸ»ê²Į": 2459,
      "íĭ´": 2460,
      "ì¹ł": 2461,
      "ìĽĢìĿĦ": 2462,
      "ĠìĦ±ìļ°": 2463,
      "Ġ2020": 2464,
      "Ġì¶ľìĭľ": 2465,
      "Ġë²Īì§¸": 2466,
      "ĠìĿ´ë£¨ìĸ´": 2467,
      "Ġê·¸ëłĩê²Į": 2468,
      "ĠìĹĨìĹĪëĭ¤": 2469,
      "Ġíķľë²Ī": 2470,
      "ë¹Į": 2471,
      "Ġë°Ľê³ł": 2472,
      "Ġìĸ¼êµ´": 2473,
      "ĠìĽĶëĵľ": 2474,
      "ìłľê°Ģ": 2475,
      "ì³¤": 2476,
      "ĠíĿĳ": 2477,
      "ëĿ¼ìĿĺ": 2478,
      "ëģĶ": 2479,
      "íĺľ": 2480,
      "ĠìĺģêµŃ": 2481,
      "Ġëĭ¤ìĸĳ": 2482,
      "ĠíļĮë³µ": 2483,
      "íķľëĭ¤ëĬĶ": 2484,
      "Ġst": 2485,
      "ì§ĢìĹĲ": 2486,
      "ĠëıĻìĿ¼": 2487,
      "ìĿ´ìĹĪëįĺ": 2488,
      "Ġë°ĶìĿ´": 2489,
      "ë³´ëĭ¤ëĬĶ": 2490,
      "ĠìĦĿ": 2491,
      "ëĭ¤ë©´": 2492,
      "ĠìĿ´ëłĩê²Į": 2493,
      "ëį¤": 2494,
      "ĠìĿĳ": 2495,
      "Ġìĭ¬ì§Ģìĸ´": 2496,
      "Ġêµīìŀ¥": 2497,
      "ë°©ìĨ¡": 2498,
      "ìĭľíĤ¨": 2499,
      "íĬ¸ìĿĺ": 2500,
      "ver": 2501,
      "Ġê°Ģìł¸": 2502,
      "ìĸ´ëıĦ": 2503,
      "ĠìĿ¸ìłķ": 2504,
      "ik": 2505,
      "Ġìĺ¤ë¸Į": 2506,
      "ĠìķłëĭĪë©ĶìĿ´ìħĺ": 2507,
      "ëĭĪê¹Į": 2508,
      "ĠìĥĿìĤ°": 2509,
      "Ġìĸ¼ë§Ī": 2510,
      "Ġì°¨ëŁī": 2511,
      "Ġëĵľëŀĺ": 2512,
      "ìĸ´ë²Ħ": 2513,
      "ĠìĨĶ": 2514,
      "14": 2515,
      "ĠíķĺìĺĢëĭ¤": 2516,
      "Ġl": 2517,
      "ĠìĬĪíį¼": 2518,
      "ìĿ´ìĿĺ": 2519,
      "()": 2520,
      "ë¹Ħë¥¼": 2521,
      "ìŀ¥ìĿĺ": 2522,
      "Ġê¸°ëĬ¥": 2523,
      "íķ´ëıĦ": 2524,
      "ëĿ¼ê°Ģ": 2525,
      "ur": 2526,
      "Ġë§ĪìĿĦ": 2527,
      "ĠìĬ¤íĬ¸": 2528,
      "Ġê²Įëĭ¤ê°Ģ": 2529,
      "ëĮĢíķľë¯¼êµŃìĿĺ": 2530,
      "ìķ¡": 2531,
      "Ġì¼ĢìĿ´": 2532,
      "un": 2533,
      "íĢ": 2534,
      "Ġ2014": 2535,
      "ì²´ë¥¼": 2536,
      "Ġì§Ħì¶ľ": 2537,
      "Ġ196": 2538,
      "ĠíŀĺìĿĦ": 2539,
      "íĹĪ": 2540,
      "äº": 2541,
      "Ġì±Ķ": 2542,
      "ëĭ¤ë§Į": 2543,
      "Ġê²¬": 2544,
      "ìķĦê°Ģ": 2545,
      "Ġê¸´": 2546,
      "ĠìĬ¤íħĮ": 2547,
      "Ġëĺ": 2548,
      "Ġê¸°ìĸµ": 2549,
      "Ġìķ¨ë²Ķ": 2550,
      "Âł": 2551,
      "Ġ|": 2552,
      "Ġë¬¸ìłľê°Ģ": 2553,
      "ĠìĤ¬ì§Ħ": 2554,
      "Ġê²½ì°°": 2555,
      "ĠìŀĲìĭłìĿĦ": 2556,
      "Ġë¹Ī": 2557,
      "ë¬¸ìĿĦ": 2558,
      "ì¡°ì°¨": 2559,
      "Ġn": 2560,
      "ĠìĽĢì§ģ": 2561,
      "Ġìĥī": 2562,
      "Ġë°ĽìĿĢ": 2563,
      "Ġ21": 2564,
      "ir": 2565,
      "ìĭŃ": 2566,
      "ĠëĤĺê°Ģ": 2567,
      "ì¶ĺ": 2568,
      "ìĭ±": 2569,
      "ìľ¼ë¡ľìĦľ": 2570,
      "Ġìĥ¤": 2571,
      "ìĪĺë¡ľ": 2572,
      "ëĮĢíķĻ": 2573,
      "ì°®": 2574,
      "ãģ¦": 2575,
      "Ġíİ¸ìĿ´ëĭ¤": 2576,
      "Ġê²½ìļ°ëıĦ": 2577,
      "Ġë°ĿíĺĢ": 2578,
      "ĠíĸĪì§Ģë§Į": 2579,
      "ĠìŀĪê²Į": 2580,
      "Ġê·¸ë¦¬": 2581,
      "Ġëį°ë·Ķ": 2582,
      "ìĤ¬ë¡ľ": 2583,
      "ĠíĬ¹ìĪĺ": 2584,
      "Ġë³´ìĬ¤": 2585,
      "ĠìŀĪê¸°": 2586,
      "ìĪĺëĬĶ": 2587,
      "ĠíĽĪ": 2588,
      "ĠìĿ´ë¦ĦìĿĦ": 2589,
      "ag": 2590,
      "º¼": 2591,
      "íĸĪìľ¼ëĤĺ": 2592,
      "ĠìĿ¼ëĭ¨": 2593,
      "ìŀ¥ìĹĲìĦľ": 2594,
      "ĠëĶ°ë¥´ë©´": 2595,
      "ĠëĦĺìĸ´": 2596,
      "ĠêµĲìľ¡": 2597,
      "Ġëĭ´ëĭ¹": 2598,
      "ìĥģìĿĺ": 2599,
      "Ġìĵ°ëĬĶ": 2600,
      "Ġìĵ´": 2601,
      "ĠíķĺëĬĶëį°": 2602,
      "Ġ22": 2603,
      "íķľíħĮ": 2604,
      "ëłĪë²¨": 2605,
      "íĸĪëĭ¤ëĬĶ": 2606,
      "ëĭ¥": 2607,
      "Ġìī¬": 2608,
      "ë¶ĢìĿĺ": 2609,
      "ĠíĴį": 2610,
      "å®": 2611,
      "íĶ¼ìĨĮ": 2612,
      "ì¹ĺê³ł": 2613,
      "ëł¥ìĿĢ": 2614,
      "ëĲĺìĹĪê³ł": 2615,
      "ëĵ¤ìĹĲ": 2616,
      "ìľ¼ë¯Ģë¡ľ": 2617,
      "íĻį": 2618,
      "ìłľë¥¼": 2619,
      "ĠíĶĮëłĪìĿ´ìĸ´": 2620,
      "od": 2621,
      "ĠìŀĲëıĻ": 2622,
      "ê°Ķ": 2623,
      "ĠìĪ¨": 2624,
      "ê¶ĮìĿĦ": 2625,
      "ëĿ¼ë©´": 2626,
      "Ġì½ľ": 2627,
      "íĶĦë¡ľ": 2628,
      "ĠìĦłê±°": 2629,
      "Ġì¡¸ìĹħ": 2630,
      "ĠëĤ¨ìķĦ": 2631,
      "Ġë¹ĦíĮĲ": 2632,
      "Ġë°ľëıĻ": 2633,
      "ĠíĮĲë§¤": 2634,
      "Ġíĩ´": 2635,
      "ĠíĻķë¥ł": 2636,
      "íģĲ": 2637,
      "ì¹Ļ": 2638,
      "ĠìĥģëĮĢë¡ľ": 2639,
      "Ġíľĺ": 2640,
      "Ġìĸ´ë¨¸ëĭĪ": 2641,
      "ĠíĽĦë³´": 2642,
      "ì¹´ìĿ´": 2643,
      "Ġ2010": 2644,
      "íķĺìĺĢê³ł": 2645,
      "ĠìĭľìłĲ": 2646,
      "ĠëĤľìĿ´": 2647,
      "Ġê·¸ëŀĺëıĦ": 2648,
      "ëħĦë¶ĢíĦ°": 2649,
      "ĠìĤ¬ìļ©íķĺëĬĶ": 2650,
      "ĠìķĬëĭ¤": 2651,
      "Ġëĭ¤ìĿ´": 2652,
      "Ġì¤ĳìķĻ": 2653,
      "ãĢį": 2654,
      "ìŀ¥ìĿĢ": 2655,
      "ĠëĵľëŁ¬": 2656,
      "ĠìŀĲì²´ê°Ģ": 2657,
      "Ġë¹Ľ": 2658,
      "íĶ¼ìĸ¸": 2659,
      "ìĭ¸": 2660,
      "ìłģìĿĦ": 2661,
      "ë¦¬ìĻĢ": 2662,
      "ĠìĿ´ëģ": 2663,
      "ĠìĺģìĽħ": 2664,
      "ëĮĢíĳľ": 2665,
      "Ġ23": 2666,
      "Ġê³łëł¤": 2667,
      "Ġì¼Ģ": 2668,
      "ĠìĪľê°Ħ": 2669,
      "Ġë¯¿": 2670,
      "ĠíĬ¹ì§ķ": 2671,
      "Ġê³¼ìłķ": 2672,
      "ì§Ģì§Ģ": 2673,
      "ê³Ħë¥¼": 2674,
      "ë¦¿": 2675,
      "Ġíķ´ìĦľ": 2676,
      "ãĥ¼": 2677,
      "ĠëĶ°ëĿ¼ìĦľ": 2678,
      "13": 2679,
      "ĠìŀĲìĦ¸": 2680,
      "ĠëĮĢíķ´ìĦľ": 2681,
      "Ġê³µê²©ìĿĦ": 2682,
      "Ġì¶ľìĥĿ": 2683,
      "Ġêµ¬ì¡°": 2684,
      "ĠìĬ¤íİĺ": 2685,
      "Ġíķĺë£¨": 2686,
      "Ġì§ĢìĨį": 2687,
      "ë¬¸ìĹĲ": 2688,
      "íĺĪ": 2689,
      "Ġë§¥": 2690,
      "ĠëĮĢì²´": 2691,
      "Ġëįķë¶ĦìĹĲ": 2692,
      "Ġëª»íķĺê³ł": 2693,
      "ĠëįĶìļ±": 2694,
      "Ġê°ĢëĬ¥íķľ": 2695,
      "ĠìĹĨê³ł": 2696,
      "Ġìļ°ë¦¬": 2697,
      "Ġê·¸ëŁ°ëį°": 2698,
      "um": 2699,
      "Ġì³": 2700,
      "ìłĦìĿ´": 2701,
      "!\"": 2702,
      "Ġìĸ´ë¦°": 2703,
      "Ġì»´": 2704,
      "Ġêµīìŀ¥íŀĪ": 2705,
      "æľ": 2706,
      "ê°Ģê°Ģ": 2707,
      "ĠíĬ¹ìĦ±": 2708,
      "Ġëª»íķľ": 2709,
      "ack": 2710,
      "ë¶Ģë¥¼": 2711,
      "Ġìĸ´ëłµ": 2712,
      "íĿ¥": 2713,
      "ë¶ĢìĹĲ": 2714,
      "ìŀ¥ìľ¼ë¡ľ": 2715,
      "Ġëĭ¤ë¥´": 2716,
      "km": 2717,
      "Ġë§Īì°¬ê°Ģì§Ģë¡ľ": 2718,
      "Ġê°ľìĿ¸": 2719,
      "2020": 2720,
      "êµ¬íķĺê³ł": 2721,
      "ëĲĺë©´ìĦľ": 2722,
      "ìĬ¤ëŁ¬": 2723,
      "ê¼": 2724,
      "ë¦¬ë¡ľ": 2725,
      "Ġê·¸ë¦¼": 2726,
      "Ġê°ģê°ģ": 2727,
      "ê°ĲìĿĦ": 2728,
      "Ġíļį": 2729,
      "êµ°ìĿ´": 2730,
      "ĠìĽĲìŀĳ": 2731,
      "Ġíķµ": 2732,
      "Ġë¬»": 2733,
      "ìŀ¥ìĹĲ": 2734,
      "Ġëĭµ": 2735,
      "íģ¬ë¡ľ": 2736,
      "ĠêµŃìłľ": 2737,
      "Ġh": 2738,
      "Ġëĵ±ìŀ¥íķĺëĬĶ": 2739,
      "Ġê°ĢëĬ¥ìĦ±ìĿ´": 2740,
      "íĥĢë¥¼": 2741,
      "Ġë§µ": 2742,
      "ê²łì§Ģë§Į": 2743,
      "ĠìĿ´ìłľ": 2744,
      "ĠìĪĺìĥģ": 2745,
      "Ġì£¼ìĿĺ": 2746,
      "Ġ2013": 2747,
      "ìĦłìĿĦ": 2748,
      "ìľ¼ë©´ìĦľ": 2749,
      "Ġë³´ëĤ´": 2750,
      "ĠìĤ¬ëŀĮëĵ¤ìĿ´": 2751,
      "ìķĦìĿ´": 2752,
      "ĠíĻķìĭ¤": 2753,
      "ëĶľ": 2754,
      "Ġê²°íĺ¼": 2755,
      "ĠìĿµ": 2756,
      "Ġìłľê³µ": 2757,
      "=\"": 2758,
      "ãģŁ": 2759,
      "ec": 2760,
      "ĠY": 2761,
      "ĵ¨": 2762,
      "2018": 2763,
      "ĠëŁ¬ìĭľìķĦ": 2764,
      "Ġê·¸ëĤĺë§Ī": 2765,
      "Ġ2012": 2766,
      "Ġê²¨": 2767,
      "ĠíĹĮ": 2768,
      "ĠíĻľìļ©": 2769,
      "Ġëķħ": 2770,
      "2019": 2771,
      "Ġê±´ë¬¼": 2772,
      "ĠìľĦíĹĺ": 2773,
      "ĠëĮ": 2774,
      "ĠêµŃëĤ´": 2775,
      "ìłł": 2776,
      "Ġìĭľê°ĦìĿ´": 2777,
      "ê°Ķëĭ¤": 2778,
      "Ġg": 2779,
      "Ġì°¸ì¡°": 2780,
      "Ġ28": 2781,
      "ĠTV": 2782,
      "ëĥĪëĭ¤": 2783,
      "ìĽĶìĹĲ": 2784,
      "ĠìĿ¼ìľ¼": 2785,
      "ff": 2786,
      "ĠëĤĺìĻĢ": 2787,
      "ĠìķĮìķĦ": 2788,
      "Ġê°ĲìĨĮ": 2789,
      "Ġíı´": 2790,
      "ì£½": 2791,
      "ì¹ĺë¡ľ": 2792,
      "Ġå": 2793,
      "ĠëĶ±": 2794,
      "ê¹Įì§ĢëĬĶ": 2795,
      "±±": 2796,
      "25": 2797,
      "ìŀĲê¸°": 2798,
      "ì§Ŀ": 2799,
      "Ġëıħë¦½": 2800,
      "ëĮĢëĬĶ": 2801,
      "ĠìĹĲíĶ¼ìĨĮ": 2802,
      "ĠìŀĪìĹĪëįĺ": 2803,
      "Ġê°ķëł¥íķľ": 2804,
      "ëĿ¼ìĿ¸": 2805,
      "Ġìķ¡": 2806,
      "ĠìĦ¤ë¦½": 2807,
      "ĠíĽ¨": 2808,
      "ĠìļĶêµ¬": 2809,
      "ì§ĵ": 2810,
      "ëĲĺë©°": 2811,
      "ì²´ê°Ģ": 2812,
      "ĠìĤ¬ìļ©íķł": 2813,
      "ë¿Ĳ": 2814,
      "ìħĶ": 2815,
      "ĠëĤĺë¨¸": 2816,
      "íĹ¤": 2817,
      "ìł¤": 2818,
      "ìĦ±ìĿĺ": 2819,
      "ut": 2820,
      "ĠìĦłë°ľ": 2821,
      "ë¹Ħê°Ģ": 2822,
      "Ġë®¤": 2823,
      "ëłĢ": 2824,
      "ëŁīìĿ´": 2825,
      "ĠìĹ¬ìłĦíŀĪ": 2826,
      "Ġ26": 2827,
      "íĮĶ": 2828,
      "ëĤľëĭ¤": 2829,
      "ìĿ´ëĿ¼ë©´": 2830,
      "Ġê°ĢëĬĶ": 2831,
      "âĢĿ": 2832,
      "Ġë²Įìĸ´": 2833,
      "Ġ40": 2834,
      "Ġë°°ê²½": 2835,
      "ĠíķĺìŀĲ": 2836,
      "ĠìĽĥ": 2837,
      "íķĺëĤĺ": 2838,
      "ëĳ¥": 2839,
      "Ġë°Ľìķĺëĭ¤": 2840,
      "ĠíĽ¨ìĶ¬": 2841,
      "íıĲ": 2842,
      "íķĻìĥĿ": 2843,
      "ë¦¼íĶ½": 2844,
      "ĠìĪĺê°Ģ": 2845,
      "íŀĪëĬĶ": 2846,
      "ĠìĺĨ": 2847,
      "Ġì±ĶíĶ¼ìĸ¸": 2848,
      "Ġëĭ¨ìĪľ": 2849,
      "ìĭľíĤ¤ëĬĶ": 2850,
      "ìĿ¸ë¬¼": 2851,
      "yle": 2852,
      "ĠìĿ´ë²¤íĬ¸": 2853,
      "Ġìĭľì²Ń": 2854,
      "ì¢Į": 2855,
      "Ġê°Ģì¡±": 2856,
      "Ġë°Ľìķĺ": 2857,
      "ìľĦë¡ľ": 2858,
      "ë¦¬ê¸°": 2859,
      "Ġìļ°ì£¼": 2860,
      "ĠìĪĻ": 2861,
      "ìĿ´ë¡ľ": 2862,
      "22": 2863,
      "ì½ľ": 2864,
      "Ġyou": 2865,
      ".(": 2866,
      "ëŁ´": 2867,
      "Ġì§ĵ": 2868,
      "Ġê´": 2869,
      "Ġë¬´ìĭľ": 2870,
      "ë´ĩ": 2871,
      "Ġíĳ¸": 2872,
      "Ġê²½íĹĺ": 2873,
      "ë¹ĦìķĦ": 2874,
      "ĠíĶĦëŀĳìĬ¤": 2875,
      "Ġ194": 2876,
      "íĤ¤ëĬĶ": 2877,
      "Ġë¶Īêµ¬íķĺê³ł": 2878,
      "ëĨĵê³ł": 2879,
      "Ġë°¤": 2880,
      "ĠëŃĲ": 2881,
      "ĠìĹĦì²ŃëĤľ": 2882,
      "ìĭ¬ìĿĦ": 2883,
      "ë¯¹": 2884,
      "Ġ27": 2885,
      "Ġìī½ê²Į": 2886,
      "ĠìłľêµŃ": 2887,
      "Ġê¾¸": 2888,
      "Ġë§¨": 2889,
      "Ġë¬¸íĻĶ": 2890,
      "ìĩ¼": 2891,
      "íķľëĭ¤ê³ł": 2892,
      "Ġìĺģíĸ¥ìĿĦ": 2893,
      "ĠíĽĦìĹĲ": 2894,
      "ĠìĪĺë¡Ŀ": 2895,
      "ìĹħìĿĦ": 2896,
      "ì¥": 2897,
      "ìĭĿìĿ´": 2898,
      "ê²łëĭ¤ê³ł": 2899,
      "Ġì§Ħì§ľ": 2900,
      "ine": 2901,
      "ìĪĺë¡Ŀ": 2902,
      "Ġìĸ´ëĶĶ": 2903,
      "Ġêµ¬ê°Ħ": 2904,
      "Ġë¶ĦìľĦ": 2905,
      "ĠìĿ´íķ´": 2906,
      "ì°Į": 2907,
      "ĠìķĦì£¼": 2908,
      "Ġìĭ¤ìłľ": 2909,
      "ëł¤ìĦľ": 2910,
      "Ġìĵ°ëŁ¬": 2911,
      "ìĹĨëĬĶ": 2912,
      "2017": 2913,
      "ê°ľë¥¼": 2914,
      "íĸīìĿĦ": 2915,
      "Ġì¡°ê±´": 2916,
      "Ġê¸°ì¤Ģìľ¼ë¡ľ": 2917,
      "Ġíķľìłķ": 2918,
      "ĠëĤĺìĻĶ": 2919,
      "ĠíķĺìĿ´": 2920,
      "ëłĪìĬ¤": 2921,
      "ĠìķĦë§Ī": 2922,
      "Ġë§ĲìĿ´": 2923,
      "ê²łëĭ¤": 2924,
      "Ġìŀ¡ìķĦ": 2925,
      "Ġê·¸ë¥¼": 2926,
      "ìĦ±ìĿĢ": 2927,
      "ë¥Ļ": 2928,
      "ìłķíķľ": 2929,
      "íķĻëħĦ": 2930,
      "op": 2931,
      "ĠíĥĲ": 2932,
      "ìľĦìĹĲ": 2933,
      "Ġíķ´ê²°": 2934,
      "ĠëĤĻ": 2935,
      "êµ¬ìĿĺ": 2936,
      "Ġìķ½ê°Ħ": 2937,
      "ĠìĪł": 2938,
      "ìĭłìĿ´": 2939,
      "Ġê¿Ī": 2940,
      "Ġê°ķíķľ": 2941,
      "ê·¸ëŀĺ": 2942,
      "ak": 2943,
      "ĠëĮĢíķľë¯¼êµŃìĿĺ": 2944,
      "Ġë³¸ìĿ¸": 2945,
      "ĠìĹŃíķłìĿĦ": 2946,
      "Ġì§Ģë°©": 2947,
      "ĠìķĦë¥´": 2948,
      "ìĤ¬ìĻĢ": 2949,
      "ĠëıĻë£Į": 2950,
      "Ġíĺ¼ìŀĲ": 2951,
      "Ġ&": 2952,
      "ĠíļįëĵĿ": 2953,
      "ĠìĿĺê²¬": 2954,
      "ĠíıŃë°ľ": 2955,
      "ì¶°": 2956,
      "ìłķëıĦ": 2957,
      "êµ¬ê°Ģ": 2958,
      "ation": 2959,
      "ë§ĮìĹĲ": 2960,
      "os": 2961,
      "2016": 2962,
      "ĠìķĦë²Ħì§Ģ": 2963,
      "197": 2964,
      "ë§ĮìĿ´": 2965,
      "ĠìłķíĻķ": 2966,
      "Ġì¶Ķìłķ": 2967,
      "Ġë°©íĸ¥": 2968,
      "Ġì·¨ê¸ī": 2969,
      "ì¤¬": 2970,
      "íĶĦë¥¼": 2971,
      "ĠìľłëŁ½": 2972,
      "ĬìĿĢ": 2973,
      "ì£¼ê³ł": 2974,
      "Ġëĵľëŀĺê³¤": 2975,
      "ĠìĹ°ê²°": 2976,
      "ĠìĥĿíĻľ": 2977,
      "Ġëĺĳ": 2978,
      "ĠíĬ¹ë³Ħ": 2979,
      "ëĤĺìĿ´": 2980,
      "Ġìŀĺëª»": 2981,
      "Ġëħ¼ëŀĢ": 2982,
      "ë¡ľë¶ĢíĦ°": 2983,
      "Ġì£¼ëĬĶ": 2984,
      "ĠêµŃë¯¼": 2985,
      "Ġë©ĶìĿ´": 2986,
      "íĬ¸ëĬĶ": 2987,
      "Ġìĸĺ": 2988,
      "ĠìķĦëĵ¤": 2989,
      "Ġì¡°íķ©": 2990,
      "Ġë¿": 2991,
      "Ġë³´íĺ¸": 2992,
      "ĠíĹ¬": 2993,
      "ëłĪìĿ´ëĵľ": 2994,
      "Ġë»": 2995,
      "íı´": 2996,
      "íĭ°ë¸Į": 2997,
      "ĠíĺĦìĭ¤": 2998,
      "Ġê²ĥìĹĲ": 2999,
      "ë¹Ļ": 3000,
      "ì¿Ħ": 3001,
      "Ġëļ": 3002,
      "ĠìŀĳìĿĢ": 3003,
      "ë§Įíķľ": 3004,
      "ì£ł": 3005,
      "Ġì£Ħ": 3006,
      "Ġê³§": 3007,
      "ĠíĮ¨íĦ´": 3008,
      "ëĿ¼ìļ´ëĵľ": 3009,
      "Ġëĵ±ìŀ¥íķľëĭ¤": 3010,
      "....": 3011,
      "ĠìĿ½": 3012,
      "íĥĳ": 3013,
      "ĠìķĬìĿĦ": 3014,
      "Ġì¡°ì§ģ": 3015,
      "ĠëıĦë§Ŀ": 3016,
      "íĥĪë¦¬ìķĦ": 3017,
      "ìľĦê°Ģ": 3018,
      "ê·¸ëŁ¬ëĤĺ": 3019,
      "Ġë§Ĳíķľëĭ¤": 3020,
      "Ġê²½ìłľ": 3021,
      "ãħ": 3022,
      "Ġëĭ¤ìĸĳíķľ": 3023,
      "Ġì²ĺë¦¬": 3024,
      "Ġì§§": 3025,
      "Ġê³Ħìķ½": 3026,
      "ìĹĩ": 3027,
      "ê³łë¥¼": 3028,
      "Ġì¥": 3029,
      "Ġë°´": 3030,
      "Ġë²Ĺ": 3031,
      "Ġ2011": 3032,
      "ĠìĪĺë¹Ħ": 3033,
      "Ġê·¸ê°Ģ": 3034,
      "ëĿ¼ìĦľ": 3035,
      "Ġë³´ëĬĶ": 3036,
      "ãģĹ": 3037,
      "æĿ": 3038,
      "Ġëģ¼": 3039,
      "ìĭłìĿĦ": 3040,
      "Ġë°ĽëĬĶ": 3041,
      "ĠíħĶ": 3042,
      "Ġìĭ«": 3043,
      "Ġìļ´ëıĻ": 3044,
      "ĠíĿ¡": 3045,
      "íĭ±": 3046,
      "Ġand": 3047,
      "ì¹¼": 3048,
      "ìĿ´ëŀĢ": 3049,
      "Ġë¯¸êµŃìĿĺ": 3050,
      "ĠíĺĦëĮĢ": 3051,
      "ĠìĺĪìłķ": 3052,
      "ap": 3053,
      "ëħĦìĹĲëĬĶ": 3054,
      "Ġì¦Ĳ": 3055,
      "ĠëĮĢìłĦ": 3056,
      "ĠSt": 3057,
      "ëıĪ": 3058,
      "Ġëĭ¹ìĹ°íŀĪ": 3059,
      "ì¼ĢìĿ´": 3060,
      "ĠìĿ´ìľłë¡ľ": 3061,
      "ëį´": 3062,
      "Ġì§Ģíķĺ": 3063,
      "íĪ": 3064,
      "Ġì¶©ë¶Ħ": 3065,
      "ìĿ¼ìĿĦ": 3066,
      "ê¸°ê³ł": 3067,
      "Ġë¸ĮëĿ¼": 3068,
      "ĠëĿ": 3069,
      "Ġêµ´": 3070,
      "Ġë°©ìĺģ": 3071,
      "ëŀĦ": 3072,
      "ìĭłìĿĺ": 3073,
      "ê°Ģë¥¼": 3074,
      "ë¶Ļ": 3075,
      "ìĤ¬ìĹĲ": 3076,
      "Ġë¹Ħë¡¯": 3077,
      "ëĵ¯ìĿ´": 3078,
      "ê³µê²©": 3079,
      "ë®¤": 3080,
      "Ġë²¨": 3081,
      "Ġìŀĳì¤ĳ": 3082,
      "Ġê´ľ": 3083,
      "TV": 3084,
      "ë§¥": 3085,
      "ìĦ¸ê³Ħ": 3086,
      "ìķ¼ë§Ī": 3087,
      "Ġìłľíķľ": 3088,
      "íĥĢë¡ľ": 3089,
      "ëĭ¤ë¥¸": 3090,
      "ight": 3091,
      "Ġì¤ĳìļĶíķľ": 3092,
      "ì¦ĺ": 3093,
      "Ġì¢ħë£Į": 3094,
      "íļĮë¥¼": 3095,
      "Ġì´Īê¸°": 3096,
      "Ġì«": 3097,
      "ĠëĿ¼ìĿ¸": 3098,
      "ĺìĬ¤íĬ¸": 3099,
      "Ġìļķ": 3100,
      "ìĨĮë¥¼": 3101,
      "ĠëģĬ": 3102,
      "Ġì¶ľìłĦ": 3103,
      "ĠìĽ¨": 3104,
      "ul": 3105,
      "Ġì°¸ê³łë¡ľ": 3106,
      "ìŀĲìĻĢ": 3107,
      "ë§ĮìĿĦ": 3108,
      "íĺĶëĭ¤": 3109,
      "ìĿ´ë©´": 3110,
      "¾¼": 3111,
      "ëĭ¨ìĿĺ": 3112,
      "ìļ´ëį°": 3113,
      "ê°ĢìĿĺ": 3114,
      "ë³´ëĭĪ": 3115,
      "ê²¼ëĭ¤": 3116,
      "Ġëĵ¤ê³ł": 3117,
      "ìĺģíĻĶ": 3118,
      "ìĺĢê³ł": 3119,
      "Ġë³´ìĿ´ëĬĶ": 3120,
      "Ġëĭ¤ìĿĮê³¼": 3121,
      "ĠìĬ¤ìĬ¤ë¡ľ": 3122,
      "Ġíĥĵ": 3123,
      "ìŀĲëĵ¤ìĿ´": 3124,
      "ë©ĺ": 3125,
      "ëį°ìĿ´íĬ¸": 3126,
      "ĠìĹ°ìĨį": 3127,
      "ãģ«": 3128,
      "Ġìĺ¤ëŀĺ": 3129,
      "ê½": 3130,
      "ĠíŀĪë¡ľ": 3131,
      "ĠìĿ´ìľłëĬĶ": 3132,
      "ãĤĭ": 3133,
      "ĠíĿ¥": 3134,
      "ëł¬": 3135,
      "ë¦¬íĭ°": 3136,
      "íķĺëĭ¤ëĬĶ": 3137,
      "oc": 3138,
      "ìĿ´ìĹĲ": 3139,
      "ëĿ¼ë¥¼": 3140,
      "ë¬ĺ": 3141,
      "Ġ29": 3142,
      "ê²Ĳ": 3143,
      "ê³łëĵ±íķĻêµĲ": 3144,
      "ĠëĬĲëĤĮ": 3145,
      "ëĿ¼ë©°": 3146,
      "ĠëĲĺë©´": 3147,
      "Ġto": 3148,
      "ĠìĬµ": 3149,
      "ëĤĻ": 3150,
      "ëªħìĿĢ": 3151,
      "ĠíĶ¼íķ´ë¥¼": 3152,
      "Ġíģ¬ë¡ľ": 3153,
      "ĠìłĦë¬¸": 3154,
      "ëŀį": 3155,
      "ëĤĺìĿĺ": 3156,
      "ri": 3157,
      "ëł¥ìľ¼ë¡ľ": 3158,
      "2015": 3159,
      "ìĩĦ": 3160,
      "ëŀŃ": 3161,
      "Ġìŀħìŀ¥": 3162,
      "Ġê·¸ë£¹": 3163,
      "Ġì£¼ìļĶ": 3164,
      "ĠíķĺìĹ¬": 3165,
      "ìł¸ìĦľ": 3166,
      "íķĺëĭ¤ê°Ģ": 3167,
      "ëĭ´ìľ¼ë¡ľ": 3168,
      "Ġì¤ĳìĹĲ": 3169,
      ".#": 3170,
      "ĠëĤ®ìĿĢ": 3171,
      "ĠìĥģìĬ¹": 3172,
      "ĠëĤĺìĻĶëĭ¤": 3173,
      "Ġì°¸ê³ł": 3174,
      "ìĭľë¡ľ": 3175,
      "ì´ĪìĹĲ": 3176,
      "Ġìĺ¤ë¥¸": 3177,
      "ëĤĺê²Į": 3178,
      "ìĿĺë¥¼": 3179,
      "íķĻê³¼": 3180,
      "ĠìĨĮìĦ¤": 3181,
      "Ġ2000": 3182,
      "Ġëĭ¤ëĭĪ": 3183,
      "ìĭľë§Ī": 3184,
      "ê¸°ìĻĢ": 3185,
      "ë¹ĦìłĦ": 3186,
      "?)": 3187,
      "Ġv": 3188,
      "ìĨĶ": 3189,
      "Ġìŀ¥ë¹Ħ": 3190,
      "Ġë°ľìĤ¬": 3191,
      "ĠìĿĮë°ĺ": 3192,
      "ĠíĥĢê³ł": 3193,
      "Ġë§Ľ": 3194,
      "ëĥĲê³ł": 3195,
      "ìĿ´ì¦Ī": 3196,
      "ìłĲìľ¼ë¡ľ": 3197,
      "ìĽĲìľ¼ë¡ľ": 3198,
      "ìľłìĿĺ": 3199,
      "´¬": 3200,
      "ĠìĬ¤íĨłë¦¬": 3201,
      "ìĭľë¥¼": 3202,
      "Ġíģ¬ë¦¬ìĬ¤": 3203,
      "ĠíķŃëª©": 3204,
      "ë¦¬ë©°": 3205,
      "Ġë²ĦìĬ¤": 3206,
      "ì£¼ë¡ľ": 3207,
      "ë¶Īìĸ´": 3208,
      "ĠìŀĲë¦¬": 3209,
      "Ġê´Ģë¦¬": 3210,
      "ì¤ĺ": 3211,
      "Ġê°Ģê²©": 3212,
      "Ġê¼¬": 3213,
      "ĠìĹ¬ê¸°ìĦľ": 3214,
      "Ġëª©ìĨĮ": 3215,
      "ĠìĿ¼ìĿĦ": 3216,
      "ëĭ¹íķľ": 3217,
      "ĠìŀĲìĹ°": 3218,
      "Ġíķĺê¸°": 3219,
      "ë§ŀ": 3220,
      "íĳ¸": 3221,
      "ë´Ĳ": 3222,
      "ìĭľì¼°": 3223,
      "Ġê²½ìļ°ëĬĶ": 3224,
      "Ġì°¬": 3225,
      "âĺħ": 3226,
      "ì§Ģê²Į": 3227,
      "íĶĮëłĪìĿ´": 3228,
      "ìĦłìĿĺ": 3229,
      "ĠëĤĺìģ": 3230,
      "ĊĠ": 3231,
      "Ġë¥ĺ": 3232,
      "ĠëĲĺì§Ģ": 3233,
      "ìĦŃ": 3234,
      "ìĽĲìĿĢ": 3235,
      "ĠëĵĢ": 3236,
      "Ġíĸīìłķ": 3237,
      "ĠëĦĵ": 3238,
      "ë¡ľë¥¼": 3239,
      "ë¹ĦìĬ¤": 3240,
      "ë¬´ë¥¼": 3241,
      "ĠThe": 3242,
      "ER": 3243,
      "Ġìķ¼êµ¬": 3244,
      "Ġë°ĺëĮĢ": 3245,
      "ĠëĵĿ": 3246,
      "Ġë¶ĢìĤ°": 3247,
      "ìĭľê°Ģ": 3248,
      "ë§ĪìłĢ": 3249,
      "ĠìłĦìļ©": 3250,
      "Ġê°Ģë©´": 3251,
      "Ġì¤Ģë¹Ħ": 3252,
      "ĠíħĶëłĪ": 3253,
      "Ġëĭ¬ìĦ±": 3254,
      "Ġê¸°ê°Ħ": 3255,
      "ĠëĨĴëĭ¤": 3256,
      "ab": 3257,
      "ĠìĹĳ": 3258,
      "ìĹĲê²ĮëĬĶ": 3259,
      "ĠìĿ¼ìĸ´ëĤĺ": 3260,
      "ë§Ĳë¡ľ": 3261,
      "ãģ£": 3262,
      "Ġíģ´ë¦¬ìĸ´": 3263,
      "ce": 3264,
      "ĠëĳĲê³ł": 3265,
      "ĠìĨĮìŀ¬": 3266,
      "ĠëĤĺë¨¸ì§Ģ": 3267,
      "ëĳĶ": 3268,
      "ë¥´íģ¬": 3269,
      "(...).": 3270,
      "íİľ": 3271,
      "ëĲĺìĹĪìľ¼ë©°": 3272,
      "Ġíķĺë©´ìĦľ": 3273,
      "Ġë¸ĶëŀĻ": 3274,
      "Ġë²½": 3275,
      "åŃ": 3276,
      "Ġë¶ĢíĻľ": 3277,
      "ĠëĮĢë¯¸": 3278,
      "ath": 3279,
      "ĠíĿĲ": 3280,
      "ìĿ´ë²Ħ": 3281,
      "Ġìļ´íĸī": 3282,
      "ë¶Ģê°Ģ": 3283,
      "Ġê°¤": 3284,
      "ĠìłĪëĮĢ": 3285,
      "Ġë¬¸ìłľëĬĶ": 3286,
      "ëł¤ëĬĶ": 3287,
      "ìĦ¸ë¥¼": 3288,
      "íķ¨ìĿĦ": 3289,
      "íķĺëĭ¤ê³ł": 3290,
      "ĠìĬ¤íĥ": 3291,
      "ĠìĹħëį°ìĿ´íĬ¸": 3292,
      "ĠìĿ´ìĥģìĿĺ": 3293,
      "Ġì²´ëł¥": 3294,
      "Ġêµ³": 3295,
      "ìŀħëĭĪëĭ¤": 3296,
      "ëĺĲíķľ": 3297,
      "ì¢ħìĿĺ": 3298,
      "'s": 3299,
      "Ġíİ¼": 3300,
      "ĠìĭľëıĦ": 3301,
      "Ġ2009": 3302,
      "Ġë°ĸìĹĲ": 3303,
      "ìłĦìĿĺ": 3304,
      "ìĿ¼ìĿ´": 3305,
      "Ġëª¨ëĵľ": 3306,
      "ìĿ¸íĬ¸": 3307,
      "íİĻ": 3308,
      "ë°¥": 3309,
      "ãĢĢ": 3310,
      "ĠìłģìĿĦ": 3311,
      "ëª½": 3312,
      "ì§Ģê¸°": 3313,
      "Ġëŀľ": 3314,
      "Ġ2008": 3315,
      "Ġë¯¼ì£¼": 3316,
      "Ġì¹Ń": 3317,
      "all": 3318,
      "ìĬ¤íĨł": 3319,
      "ĠìĿ¼ë³¸ìĿĺ": 3320,
      "ìĥģìĹĲ": 3321,
      "ìĬ¤íĭ°": 3322,
      "ĠìĹ¼": 3323,
      "ST": 3324,
      "ê´ĢìĿ´": 3325,
      "ĠíķŃê³µ": 3326,
      "ìľ¼ë¡ľëıĦ": 3327,
      "ì§Ģìħĺ": 3328,
      "ìĬ¤ìĹĲ": 3329,
      "ĠìłľìĻ¸íķľ": 3330,
      "Ġë¬¼ë¦¬": 3331,
      "ìķĦë²Ħ": 3332,
      "ìĹŃìĭľ": 3333,
      "Ġstyle": 3334,
      "24": 3335,
      "ĠìĤ¬ìĭ¤ìĿĦ": 3336,
      "ìĬ¤íħĮ": 3337,
      "ãģĭ": 3338,
      "ëĭ¨ìĿĦ": 3339,
      "Ġë²ĪìĹŃ": 3340,
      "íķ©ëĭĪëĭ¤": 3341,
      "ĠìĥĿì¡´": 3342,
      "ĠëĮĢë¶Ģë¶ĦìĿĺ": 3343,
      "ãĢĬ": 3344,
      "Ġì¢ĭì§Ģ": 3345,
      "ìĿĮìĹĲëıĦ": 3346,
      "ĠëĴ·": 3347,
      "2014": 3348,
      "ì¹´ìĻĢ": 3349,
      "ter": 3350,
      "Ġì²łëıĦ": 3351,
      "Ġëĭ¤ë¥´ê²Į": 3352,
      "?\"": 3353,
      "Ġìĺ¬ë¦¼íĶ½": 3354,
      "ë¸Ĳ": 3355,
      "ãĥ³": 3356,
      "ĠâĢľ": 3357,
      "ĠíĮĮìĽĮ": 3358,
      "ëĶĶìĸ´": 3359,
      "Ġìĭłê²½": 3360,
      "Ġìĸ»ìĿĦ": 3361,
      "Ġâ": 3362,
      "ëĭ¤ëĭĪ": 3363,
      "ì¡°ê±´": 3364,
      "ë¦¬ë©´": 3365,
      "ëħ¼": 3366,
      "ì£¼ë¥¼": 3367,
      "´¬ìĺģ": 3368,
      "Ġëį±": 3369,
      "Ġìľłë¦¬": 3370,
      "Ġì§Ģêµ¬": 3371,
      "ĠìľłëĭĪ": 3372,
      "ë¯¸êµŃìĿĺ": 3373,
      "ĠìħĪ": 3374,
      "Ġê¸°ìĹħ": 3375,
      "Ġìµľê·¼": 3376,
      "ĠìĻ¸êµŃ": 3377,
      "íķĳ": 3378,
      "Ġíķ´ìķ¼": 3379,
      "īìĿĢ": 3380,
      "ĠìĹ°ì¶ľ": 3381,
      "ìľĦìĽĲíļĮ": 3382,
      "Ġì§ķ": 3383,
      "ĠìĿ¸íĦ°ë·°": 3384,
      "ĠìĿ´ëģĮ": 3385,
      "íĺ¸ë¥¼": 3386,
      "íķĢ": 3387,
      "ìĹĪì§Ģë§Į": 3388,
      "Ġë¶Ģë¥´": 3389,
      "ë¦¬ê²Į": 3390,
      "ĠìĦ±ìŀ¥": 3391,
      "Ġì¹¸": 3392,
      "ĠëĬ¥ëł¥ìĿĦ": 3393,
      "Ġê²ĥê³¼": 3394,
      "ĠìĥģíĻ©ìĹĲìĦľ": 3395,
      "Ġêº¼": 3396,
      "íģ¬ë¥¼": 3397,
      "ĠìĹĲëĦĪ": 3398,
      "íķ´ì£¼": 3399,
      "íİĺìĿ´ì§Ģ": 3400,
      "{{{": 3401,
      "Ġë¯¸ìħĺ": 3402,
      "Ġë³´ìĿ´": 3403,
      "ĠíĢĺìĬ¤íĬ¸": 3404,
      "Ġê³µìĹ°": 3405,
      "ëĲĺê¸°": 3406,
      "ĠìĮĵ": 3407,
      "ĠìłķëıĦìĿĺ": 3408,
      "Ġæ": 3409,
      "Ġë°ĺë©´": 3410,
      "ìľĪ": 3411,
      "Ġì§Ģíľĺ": 3412,
      "ëĵ¤ìĸ´": 3413,
      "ìļ´ëıĻ": 3414,
      "ĠìĨĮëª¨": 3415,
      "60": 3416,
      "ìľ¼ë¡ľìį¨": 3417,
      "êµĲìľ¡": 3418,
      "ĠìĥĿê¸´": 3419,
      "ĠíķŃìĥģ": 3420,
      "ìĦ¸ëĮĢ": 3421,
      "Ġë§ĪìĬ¤íĦ°": 3422,
      "ĠìľĦì¹ĺíķľ": 3423,
      "ĠëįĶë¶Īìĸ´": 3424,
      "ìĦłìĿ´": 3425,
      "Ġëª»íĸĪëĭ¤": 3426,
      "ë±": 3427,
      "ĠìĹĶëĶ©": 3428,
      "ĠëģĿëĤĺ": 3429,
      "çĶ": 3430,
      "ìĬ¤ëŁ½": 3431,
      "Ġê³ĦìĹ´": 3432,
      "Ġì¸ł": 3433,
      "ĠìĹ°ê¸°": 3434,
      "Ġìĭ¸ìļ°": 3435,
      "ĠìµľìĨĮ": 3436,
      "ë¯¼ì£¼": 3437,
      "ëĵĢ": 3438,
      "íĬ¹ë³Ħ": 3439,
      "ãĢī": 3440,
      "ĠìķĦëĭĪê³ł": 3441,
      "ë¬¼ë¡ł": 3442,
      "ìłĿ": 3443,
      "İìĿĢ": 3444,
      "ìĹ¬ìĦľ": 3445,
      "ĠíĿĺ": 3446,
      "êµ°ìĿĦ": 3447,
      "ëĭĲ": 3448,
      "ê³łëĬĶ": 3449,
      "ĠìĤ¬ëŀĮìĿĢ": 3450,
      "ë°ĶìĿ´": 3451,
      "ë¡ľê°Ģ": 3452,
      "ë¬¼ìĿ´": 3453,
      "ì§ĦìĿĦ": 3454,
      "ìŀĶ": 3455,
      "Ġê°ĢìĪĺ": 3456,
      "íĶĪ": 3457,
      "ìĦľë¥¼": 3458,
      "Ġë¬ĺìĤ¬": 3459,
      "ìĦľìļ¸": 3460,
      "Ġ||": 3461,
      "íĵ¨": 3462,
      "',": 3463,
      "Ġë¶Ħëħ¸": 3464,
      "Ġë°ĶëŀĮìĹĲ": 3465,
      "Ġëĵ±ìľ¼ë¡ľ": 3466,
      "Ġë±": 3467,
      "íķĻìŀĲ": 3468,
      "Ġëį¤": 3469,
      "Ġë§ĮíĻĶ": 3470,
      "ìĪĺíķľ": 3471,
      "Ġë¶ĪëŁ¬": 3472,
      "Ġê²¸": 3473,
      "ìĿ´ëĿ¼ëıĦ": 3474,
      "ë§ĪìĿĺ": 3475,
      "Ġëª¨ìĬµìĿ´": 3476,
      "ìĸ´ìķ¼": 3477,
      "Ġëª©ë¡Ŀ": 3478,
      "ë¯¸ê°Ģ": 3479,
      "ìĿ¸ìľ¼ë¡ľ": 3480,
      "ĠìŀĲëŀĳ": 3481,
      "40": 3482,
      "ë¡±": 3483,
      "ë¤": 3484,
      "Ġë¯¸ëŀĺ": 3485,
      "ìķĹ": 3486,
      "ound": 3487,
      "íı¬ì¸ł": 3488,
      "ìĹĪëĬĶëį°": 3489,
      "Ġì³Ĳ": 3490,
      "íĦ¸": 3491,
      "ìĹĪëĭ¤ê³ł": 3492,
      "ĠìĪĺëĬĶ": 3493,
      "ãģ¨": 3494,
      "ĠëĲĺìĹĪê³ł": 3495,
      "gr": 3496,
      "ëĮ": 3497,
      "ìĽĢìĿ´": 3498,
      "êµ°ìĿĢ": 3499,
      "ĠëĤĺìĦľ": 3500,
      "Ġìľłëªħíķľ": 3501,
      "ë¹Ľ": 3502,
      "íĺ¸ê°Ģ": 3503,
      "Ġëª©íĳľ": 3504,
      "Ġë§ĮëĵľëĬĶ": 3505,
      "ìĭĿìľ¼ë¡ľ": 3506,
      "ĠìĭľìŀĳíĸĪëĭ¤": 3507,
      "ëĤ´ê³ł": 3508,
      "ĠëĤ´ê°Ģ": 3509,
      "ì§ĦìĿ´": 3510,
      "ëĲĲëĭ¤": 3511,
      "Ġìŀ¥ì°©": 3512,
      "ìĬ¤ì½Ķ": 3513,
      "Ġ195": 3514,
      "ĠìľĦìĹĲ": 3515,
      "íĶĦë¦¬ì¹´": 3516,
      "Ġëªħì¹Ń": 3517,
      "ë¬¸íĻĶ": 3518,
      "åĲ": 3519,
      "ëŀ«": 3520,
      "Ġëª»íķĺëĬĶ": 3521,
      "ëŀĢëĵľ": 3522,
      "ë£¬": 3523,
      "ëıĦìĹĲ": 3524,
      "ĠìĤŃ": 3525,
      "ëĤ¼": 3526,
      "ìĿ´ë¸Į": 3527,
      "ĠìĪĺìłķ": 3528,
      "Ġìķ¤": 3529,
      "Ġê´ľì°®": 3530,
      "ìĻ¸ë¡ľ": 3531,
      "ĠíĻķìłķ": 3532,
      "Ġì¡´ìŀ¬íķľëĭ¤": 3533,
      "ĠìĶ¨": 3534,
      "ĠìłģìĿĢ": 3535,
      "ĠìĨĮê°ľ": 3536,
      "ìĸ´ìĿĺ": 3537,
      "ĠìķĬê²Į": 3538,
      "Ġê±´ìĦ¤": 3539,
      "ìĭľëĬĶ": 3540,
      "Ġìį": 3541,
      "ĠìĺĪìĥģ": 3542,
      "ĠìĿ¼íĸī": 3543,
      "ĠKBS": 3544,
      "Ġìĸµ": 3545,
      "ĠëıĻë¬¸": 3546,
      "ëįĶëĭĪ": 3547,
      "Ġë¹ħ": 3548,
      "Ġìĺ¥": 3549,
      "Ġê¸°ë°ĺ": 3550,
      "ëª°": 3551,
      "Ġìŀĳê³¡": 3552,
      "Ġê²ĢìĿĢ": 3553,
      "íĺĦìŀ¬": 3554,
      "Ġë¹łë¥¸": 3555,
      "ĠìĬ¤íĶ¼": 3556,
      "ìĪ¨": 3557,
      "ĠìľłíĬľ": 3558,
      "ĠíĺĦìŀ¬ëĬĶ": 3559,
      "ĠëĶ°ë¡ľ": 3560,
      "Ġëĭ¬ëł¤": 3561,
      "Ġë¹Ħíĸī": 3562,
      "ìłľìĿĺ": 3563,
      "íķ´ì§Ħ": 3564,
      "ĠìĹĲíĶ¼ìĨĮëĵľ": 3565,
      "ëĭ¨ìĿ´": 3566,
      "Ġê°ģì¢ħ": 3567,
      "Ġ2007": 3568,
      "Ġìĺ®": 3569,
      "Ġë¬´ìĹĩ": 3570,
      "Ġê°ĳìŀĲê¸°": 3571,
      "ĠíĽĪëł¨": 3572,
      "Ġk": 3573,
      "ë§Īê°Ģ": 3574,
      "ĠìĿ¼ìłķ": 3575,
      "ì§ĢìĻĢ": 3576,
      "ĠìķĪìĹĲ": 3577,
      "ëªĩ": 3578,
      "ĠìĿ¸êµ¬": 3579,
      "ĠìłĦêµŃ": 3580,
      "ë¶Ģë¡ľ": 3581,
      "ìĬ¤ëŁ¬ìļ´": 3582,
      "Ġê²ĥìĿ´ëĿ¼ê³ł": 3583,
      "ĠìĹĨìĿĦ": 3584,
      "ìĦ¸ê°Ģ": 3585,
      "ê¹Ŀ": 3586,
      "ĠìķķëıĦ": 3587,
      "Ġì§Ģìłķ": 3588,
      "ì¼ĵëª¬": 3589,
      "ĠìŀĪìľ¼ëĤĺ": 3590,
      "ìĥģìĿĢ": 3591,
      "ĠëĴ¤ìĹĲ": 3592,
      "ëĶ°": 3593,
      "Ġê°ĢëģĶ": 3594,
      "Ġë©ĶìĿ¸": 3595,
      "ĠíĴĪ": 3596,
      "Ġë¯¸ìĤ¬": 3597,
      "23": 3598,
      "ĠFC": 3599,
      "ĠëĤĺíĥĢëĤĺ": 3600,
      "ìĿ¼ë¶ĢíĦ°": 3601,
      "ìħī": 3602,
      "íķĺëĿ¼": 3603,
      "Ġê²½ìļ°ìĹĲëĬĶ": 3604,
      "Ġëªħëł¹": 3605,
      "ãģĨ": 3606,
      "ia": 3607,
      "Ġì´¬ìĺģ": 3608,
      "ĠêµĲì²´": 3609,
      "ie": 3610,
      "íĭ¸": 3611,
      "íĮ©": 3612,
      "ëĴ": 3613,
      "¯¤": 3614,
      "åı": 3615,
      "ĠëĮĢìĤ¬": 3616,
      "Ġ31": 3617,
      "Ġê³µê²©ëł¥": 3618,
      "FA": 3619,
      "Ġë¶ģíķľ": 3620,
      "ĠìŀĪëĭ¤ë©´": 3621,
      "ĠëĤĺëĬĶ": 3622,
      "ì½©": 3623,
      "Ġê¸°ê´Ģ": 3624,
      "ĠìĥģíĻ©ìĿ´": 3625,
      "ĠìłĦë°ĺ": 3626,
      "ĠëĤ©": 3627,
      "iki": 3628,
      "Ġë³¸ìĿ¸ìĿ´": 3629,
      "ìĮ": 3630,
      "Ġì§Ģì¼ľ": 3631,
      "ĠëĤĺë¦Ħ": 3632,
      "Ġê¹Ķ": 3633,
      "ì§Ģë©´": 3634,
      "ì°¸ê³łë¡ľ": 3635,
      "art": 3636,
      "ëĭ¤ìļ´": 3637,
      "Ġë³Ħë¡ľ": 3638,
      "ãĤĵ": 3639,
      "ĠìĪĺíĸī": 3640,
      "ì°¨ê°Ģ": 3641,
      "ĠìķĪìłķ": 3642,
      "Ġê²ª": 3643,
      "ìĤ´ìķĦ": 3644,
      "Ġìĭ±ê¸Ģ": 3645,
      "mm": 3646,
      "Ġì§Ģì§Ģ": 3647,
      "Ġë³´ëĭĪ": 3648,
      "Ġê·¼ì²ĺ": 3649,
      "Ġê²°ìĬ¹": 3650,
      "ê½ĥ": 3651,
      "ìħľ": 3652,
      "ëŁ¬ìĬ¤": 3653,
      "ĠìłľìĿ¼": 3654,
      "íĶĦê°Ģ": 3655,
      "ĠìĿ´ë¦ĦìĿ´": 3656,
      ")'": 3657,
      "ĠìĭĿìľ¼ë¡ľ": 3658,
      "Ġëı¼": 3659,
      "ëĶĺ": 3660,
      "Ġê²ĮìŀĦìĿĦ": 3661,
      "ëª¨íĨł": 3662,
      "{{{#": 3663,
      "Ġê·¼ìłĳ": 3664,
      "ĠìĹĨëĭ¤ê³ł": 3665,
      "ĠìĿ´ìļ©íķ´": 3666,
      "ìª½ìľ¼ë¡ľ": 3667,
      "Ġê¸°íĥĢ": 3668,
      "Ġê¸°ëĮĢ": 3669,
      "ë²Ħë¦°": 3670,
      "ĠíķĦìļĶíķľ": 3671,
      "Ġê²½ìŁģ": 3672,
      "ë§İìĿĢ": 3673,
      "Ġê°ľëħĲ": 3674,
      "ìľ¨ìĿ´": 3675,
      "ëļ": 3676,
      "Ġëª¨ë¥´": 3677,
      "Ġê°Ģê¹Įìļ´": 3678,
      "Ġì°¨ìĿ´ê°Ģ": 3679,
      "Ġìŀłìĭľ": 3680,
      "ìŀī": 3681,
      "ëŀĲ": 3682,
      "pl": 3683,
      "ĠìĤ¬ê³ł": 3684,
      "ĠìŀĪìľ¼ëĭĪ": 3685,
      "ĠìĽ¹": 3686,
      "ìĽĲìĹĲ": 3687,
      "Ġê°Ģìļ´ëį°": 3688,
      "ë§ĪìŀĲ": 3689,
      "ìĨĮê°Ģ": 3690,
      "ĠìĿ´íĥĪë¦¬ìķĦ": 3691,
      "Ġì§ĳì¤ĳ": 3692,
      "ra": 3693,
      "ìĿ´ìħĺ": 3694,
      "ìķĺëįĺ": 3695,
      "ĠìĹĨëĭ¤ëĬĶ": 3696,
      "Ġë¹łë¥´ê²Į": 3697,
      "ord": 3698,
      "ë³´ëĬĶ": 3699,
      "Ġì§ĢëĤľ": 3700,
      "Ġê°ĸê³ł": 3701,
      "Ġë°Ķê¿": 3702,
      "ĠëĤĺìĺ¬": 3703,
      "Ġë©¸": 3704,
      "ĠíĭĢ": 3705,
      "ì°¨ë¥¼": 3706,
      "ĠìĮį": 3707,
      "Ġì²ĺìĿĮìľ¼ë¡ľ": 3708,
      "Ġë§Įìķ½": 3709,
      "ĠëıĦìŀħ": 3710,
      "ì°į": 3711,
      "ĠìĻ¼": 3712,
      "ĠíĬ¹ìłķ": 3713,
      "Ġíķĺê²Į": 3714,
      "Ġëĵ£ê³ł": 3715,
      "Ġê¸°ëĭ¤": 3716,
      "ĠìĤ¬ìĿ´ìĹĲ": 3717,
      "2013": 3718,
      "ĠëĪĦêµ¬": 3719,
      "ĠìķĦìĿ´ëıĮ": 3720,
      "ill": 3721,
      "Ġì£½ìĿĢ": 3722,
      "Ġe": 3723,
      "ê°ĦìĿĺ": 3724,
      "Ġê´Ģíķľ": 3725,
      "ĠíĥĪì¶ľ": 3726,
      "Ġìłķìŀĳ": 3727,
      "ìĦ¬": 3728,
      "Ġë°ľìłĦ": 3729,
      "ĠìĤ¬ìļ©íķľëĭ¤": 3730,
      "ë¶ĢëĬĶ": 3731,
      "ì§ĢìĹŃ": 3732,
      "ĠìĿ´ìķ¼ê¸°ë¥¼": 3733,
      "íĮĮìĿ´": 3734,
      "íĮ¬": 3735,
      "ĠĊĊ": 3736,
      "Ġì§ĢëıĦ": 3737,
      "ë¦¬ìĬ¤íĬ¸": 3738,
      "Ġê³µëıĻ": 3739,
      "ĠìĬ¤íħĮìĿ´ì§Ģ": 3740,
      "Ġë¶Ģìłķ": 3741,
      "Ġíĥ±": 3742,
      "Ġë§ĲìĹĲ": 3743,
      "Ġ2006": 3744,
      "Ġê±°ê¸°": 3745,
      "ĠìłĦìĦ¤": 3746,
      "ãĤī": 3747,
      "ĠíĸĪìľ¼ëĤĺ": 3748,
      "Ġê³¼ìłķìĹĲìĦľ": 3749,
      "ëĤ¸ëĭ¤": 3750,
      "Ġë¶Ģëª¨": 3751,
      "wiki": 3752,
      "Ġ60": 3753,
      "ê³Ħê°Ģ": 3754,
      "ìĬ´": 3755,
      "ĠìŀĲë£Į": 3756,
      "Ġì½¤": 3757,
      "Ġë§¹": 3758,
      "ĠìĺĽ": 3759,
      "ë¦¬ìŀĲ": 3760,
      "ĠìĹ°íķ©": 3761,
      "ëĥĲëĬĶ": 3762,
      "Ġë¹łìł¸": 3763,
      "ë§ĮìĿĺ": 3764,
      "ĠìĤ¼ìĦ±": 3765,
      "ëĮĢìłĦ": 3766,
      "Ġìµľê³łìĿĺ": 3767,
      "196": 3768,
      "Ġì¤ĳìĹĲìĦľ": 3769,
      "Ġë³µê·Ģ": 3770,
      "ìĿ¼ìĿĺ": 3771,
      "ëķ": 3772,
      "ĠëĤĺë¬´": 3773,
      "ĠíĦ¸": 3774,
      "Ġìĺ·": 3775,
      "ë¬´ë¦¬": 3776,
      "Ġì¿¨": 3777,
      "ëŁīìĿĦ": 3778,
      "Ġíļ¨ê³¼ë¥¼": 3779,
      "íĻĶêµŃ": 3780,
      "Ġë³´ìľł": 3781,
      "Ġë¶Ħë¥ĺ": 3782,
      "ĠìĿ´íĽĦë¡ľ": 3783,
      "ìĤ¬ìĿ´": 3784,
      "ëħĦê¹Įì§Ģ": 3785,
      "ãģ¯": 3786,
      "Ġë¶ĢìĹ¬": 3787,
      "ĠìŀĪìĹĪê³ł": 3788,
      "ĠìľłìĤ¬": 3789,
      "ìĸ¸ìĿĦ": 3790,
      "ìĿ¼ëŁ¬": 3791,
      "ìĭ¬ìĿ´": 3792,
      "ĠëıĻìĥĿ": 3793,
      "ĠìĿ´ë¦ĦìĿĢ": 3794,
      "ëĲĲ": 3795,
      "ĠZ": 3796,
      "Ġì¤Ħìĸ´": 3797,
      "ë¡ľìĿĺ": 3798,
      "ëĳĺ": 3799,
      "Ġìłĳê·¼": 3800,
      "Ġìĺµ": 3801,
      "Ġë¨¸ë¦¬": 3802,
      "ĠìĨĮëħĢ": 3803,
      "Ġëľ¨": 3804,
      "íģ¬ê°Ģ": 3805,
      "Ġë¬¼ê±´": 3806,
      "ĠìłĢì§Ģ": 3807,
      "ëıĻìĿĦ": 3808,
      "ìĿ´ìĻĢ": 3809,
      "Ġë¡¤": 3810,
      "Ġë°Ķê¾¸": 3811,
      "Ġëĭ¬ëĿ¼": 3812,
      "ĠìĿ´ìĻ¸": 3813,
      "Ġì§ģíĽĦ": 3814,
      "ĠëĤĺëĿ¼": 3815,
      "ê³ĦìĿĺ": 3816,
      "Ġë°°ì¹ĺ": 3817,
      "íĨ¨": 3818,
      "¾Į": 3819,
      "ìķ¼ë§Ĳë¡ľ": 3820,
      "íĿĲ": 3821,
      "ĠìĥĪë¡ľ": 3822,
      "ëĦĺ": 3823,
      "ĠìķĦì¹´": 3824,
      "Ġì§Ģë°°": 3825,
      "íĬ¸ëĿ¼": 3826,
      "2012": 3827,
      "íģ¬ìĿĺ": 3828,
      "íŀĲ": 3829,
      "íĴĢ": 3830,
      "ë²Ħëł¸ëĭ¤": 3831,
      "ëĤĺëĭ¤": 3832,
      "Ġëĵ±ìŀ¥ìĿ¸ë¬¼": 3833,
      "{{{#!": 3834,
      "ëĵľìĭľ": 3835,
      "ìļ°ê°Ģ": 3836,
      "ëĵ¤ë¡ľ": 3837,
      "Ġë¹Ħë°Ģ": 3838,
      "ĠìŀĪìľ¼ë©´": 3839,
      "ĠìĻĶ": 3840,
      "ë¡Ńê²Į": 3841,
      "Ġìłľê±°": 3842,
      "Ġíı¬ê¸°": 3843,
      "ì»¨": 3844,
      "ìĬ¤ì¹´": 3845,
      "Ġìĸ´ì©": 3846,
      "ê°ĲìĿ´": 3847,
      "ê¾¸": 3848,
      "Ġë°ĸ": 3849,
      "ê²ĥëıĦ": 3850,
      "ìĺĢìľ¼ëĤĺ": 3851,
      "2010": 3852,
      "ĠìķĮê²Į": 3853,
      "ìħĢ": 3854,
      "ãĤĤ": 3855,
      "Ġë°ĳ": 3856,
      "íĥĢê°Ģ": 3857,
      "ĠíĸĪëįĺ": 3858,
      "ĠìłľíĴĪ": 3859,
      "Ġëĵ±ìŀ¥íķľ": 3860,
      "Ġêµ°ìĤ¬": 3861,
      "ì¦ĪìĿĺ": 3862,
      "ĠëģĿìĹĲ": 3863,
      "ì¹ĺìĿĺ": 3864,
      "Ġ,": 3865,
      "ĠìĿ´ìłģ": 3866,
      "ìŀĦìĿ´": 3867,
      "Ġê½ĥ": 3868,
      "Ġë¬´ëł¤": 3869,
      "ê¾¼": 3870,
      "Ġì§ľ": 3871,
      "ãģ§": 3872,
      "ĠëıĻë¬¼": 3873,
      "ĠëıĮìķĦê°Ģ": 3874,
      "ìľĦëĬĶ": 3875,
      "ìĦ¯": 3876,
      "ê¸°ìĪł": 3877,
      "ĠìĽĶëĵľì»µ": 3878,
      "ëĥĪ": 3879,
      "ëĳł": 3880,
      "Ġë³´ìķĦ": 3881,
      "ĠìĤ¬ëĥ¥": 3882,
      "ĠëıĦì°©": 3883,
      "âĺĨ": 3884,
      "ë¯¸ë¥¼": 3885,
      "íĦ°ë¥¼": 3886,
      "Ġì«ĵ": 3887,
      "ĠëĮĢíķĻêµĲ": 3888,
      "ĠëĶĶìŀĲìĿ¸": 3889,
      "ĠãĢĪ": 3890,
      "Ġíıīê·ł": 3891,
      "ĠìĤ´íķ´": 3892,
      "Ġíĳľê¸°": 3893,
      "ĠíĻĺê²½": 3894,
      "ìĿ´ëĭĪ": 3895,
      "ìĪĺëıĦ": 3896,
      "ĠëĿĦ": 3897,
      "ĠíĮĮíĭ°": 3898,
      "ìĬ¤ì¼Ģ": 3899,
      "Ġìºł": 3900,
      "ĠëĤ¨ìĿĢ": 3901,
      "æĸ": 3902,
      "Ġê²½ê¸°ìĹĲìĦľ": 3903,
      "ĠëĤĺì¤ĳìĹĲ": 3904,
      "(?)": 3905,
      "ĠíĺĪ": 3906,
      "ĠìĭľíĹĺ": 3907,
      "Ġê°Ģë¬¸": 3908,
      "Ġì¢ħë¥ĺ": 3909,
      "ëĤ¨ëıĦ": 3910,
      "Ġìµľê°ķ": 3911,
      "Ġíķ´ìĻ¸": 3912,
      "ĠìľłìĿ¼íķľ": 3913,
      "Ġì¤Ģëĭ¤": 3914,
      "ìĹĪìĿĦ": 3915,
      "Ġì£¼ë¯¼": 3916,
      "ĠìķĦíĤ¤": 3917,
      "ëı¼": 3918,
      "ëªħìľ¼ë¡ľ": 3919,
      "ĠíķĺëĬĺ": 3920,
      "ìłģìľ¼ë¡ľëĬĶ": 3921,
      "ĠSK": 3922,
      "ìī½": 3923,
      "ĠëĿ¼ìĿ´ë¸Į": 3924,
      "48": 3925,
      "ĠëĿ¼ê³ł": 3926,
      "ĠìķĦëĭĪë©´": 3927,
      "ĠãĢĮ": 3928,
      "ĠìĤ¬ëŀĮìĿĦ": 3929,
      "Ġì¶Ķì¸¡": 3930,
      "Ġìĭ¬ê°ģ": 3931,
      "ì²´ìĿĺ": 3932,
      "ĠìĭľìłĦ": 3933,
      "Ġìıĺ": 3934,
      "ĠíŀĲ": 3935,
      "ì§Ģë©´ìĦľ": 3936,
      "Ġë¬´ìĬ¨": 3937,
      "Ġê°Ģë¥´": 3938,
      "ĠìłĦìŀĳ": 3939,
      "Ġìĺ¤ëĬĺ": 3940,
      "ont": 3941,
      "Ġìŀĳê°Ģ": 3942,
      "ĠìŀĲë¦¬ë¥¼": 3943,
      "ĠíħĶëłĪë¹ĦìłĦ": 3944,
      "Ġíģ´ëŀĺ": 3945,
      "ìĹŃìĿĦ": 3946,
      "ĠìĭľëĮĢ": 3947,
      "Ġë°ĽìĿĦ": 3948,
      "ë¦¬íĬ¸": 3949,
      "Ġíķ©ë¥ĺ": 3950,
      "ĠìĤ¬ìĿ´íĬ¸": 3951,
      "ìłĲìĿĢ": 3952,
      "ĠëĤĺìĿ´": 3953,
      "ĠìĨĮëł¨": 3954,
      "Ġë¡ľë§Ī": 3955,
      "ĠìĻĦìłĦ": 3956,
      "ê¹¨": 3957,
      "Ġë¦°": 3958,
      "ĠìĻĦìĦ±": 3959,
      "Ġê²½ê¸°ë¥¼": 3960,
      "ĠìĿ´ê±¸": 3961,
      "ĠíĮĲëĭ¨": 3962,
      "The": 3963,
      "ë¡ľëĵľ": 3964,
      "íĺ¸ìĦł": 3965,
      "Ġìĸ¸ìłľ": 3966,
      "ĠëģĮìĸ´": 3967,
      "ĠìĥģíĥľìĹĲìĦľ": 3968,
      "æ°": 3969,
      "ĠìĤ¬ìĹħ": 3970,
      "íĤ¤ê°Ģ": 3971,
      "ì£¼ê°Ģ": 3972,
      "ĠìķŀìĹĲ": 3973,
      "ëĳĲê³ł": 3974,
      "ĠìĨĮë¦¬": 3975,
      "ëł¥ê³¼": 3976,
      "Ġì¹ł": 3977,
      "ë¶ĢíĦ°ëĬĶ": 3978,
      "Ġìĺģìĸ´": 3979,
      "Ġê°ľìµľ": 3980,
      "Ġìĵ°ê³ł": 3981,
      "ĠëĬĲëģ¼": 3982,
      "Ġì§ģìĹħ": 3983,
      "ĠìĤ¬ë¡Ģ": 3984,
      "Ġê·¸ëħĢìĿĺ": 3985,
      "ĠíļĮìĤ¬": 3986,
      "Ġë§İìķĦ": 3987,
      "ĠìłĲìĿĦ": 3988,
      "ìłľëĬĶ": 3989,
      "ĠMBC": 3990,
      "å¤§": 3991,
      "íĻĶìĿĺ": 3992,
      "ĠìŀĲì²´ëĬĶ": 3993,
      "ĠëĤłìķĦ": 3994,
      "ue": 3995,
      "ĠìĹ°ìĬµ": 3996,
      "ä»": 3997,
      "ĠìĿ¸íķľ": 3998,
      "Ġë¶Ģíĥģ": 3999,
      "éģ": 4000,
      "ìĬ¤íĤ¬": 4001,
      "ell": 4002,
      "Ġë³´ìĹ¬ì¤Ģëĭ¤": 4003,
      "íĬ¸ë¦¬": 4004,
      "ìľĦìĿĺ": 4005,
      "Ġëĭ¤ë£¨": 4006,
      "Ġìĥģê´Ģ": 4007,
      "Ġì¹ĺë£Į": 4008,
      "ĠíĨµíķ©": 4009,
      "ê·¸ëŁ°": 4010,
      "éĩ": 4011,
      "ë²Ħë¦°ëĭ¤": 4012,
      "Ġê³łìłķ": 4013,
      "ĠëıĦì¤ĳ": 4014,
      "ĠëĤ¨ìĦ±": 4015,
      "Ġíķľëĭ¤ëĬĶ": 4016,
      "ê¸ĪìĿĦ": 4017,
      "ë°ĽìĿĢ": 4018,
      "ĠëŀŃ": 4019,
      "Ġíķľíİ¸": 4020,
      "ĠëĬ¦": 4021,
      "Ġíı¬ì§Ģìħĺ": 4022,
      "ìĸĳìĿ´": 4023,
      "Ġì¡°ìĤ¬": 4024,
      "Ġëĥī": 4025,
      "ìĹĲë§Į": 4026,
      "AR": 4027,
      "ĠíĬĢ": 4028,
      "ê¿": 4029,
      "Ġê¼Ń": 4030,
      "Ġ2005": 4031,
      "ìłķìĿĺ": 4032,
      "Ġë°ĿíĺĶëĭ¤": 4033,
      "ë³´ê³ł": 4034,
      "Ġê³µê°Ħ": 4035,
      "íĺķìĿĦ": 4036,
      "ea": 4037,
      "ìĽĲìĹĲìĦľ": 4038,
      "ëĿ¼ìĬ¤": 4039,
      "íķĺìĺĢìľ¼ë©°": 4040,
      "Ġìĥģëĭ¹íķľ": 4041,
      "íķĺìĿĺ": 4042,
      "ê²łëĭ¤ëĬĶ": 4043,
      "ĠëķĮë§Īëĭ¤": 4044,
      "Ġ}}}": 4045,
      "ê´ĢìĿĦ": 4046,
      "ê¸°ìĤ¬": 4047,
      "ĠíĻĪíİĺìĿ´ì§Ģ": 4048,
      "ĠëĽ°ìĸ´ëĤľ": 4049,
      "ìĤ´ìķĦìŀĪëĬĶ": 4050,
      "ëĩĮ": 4051,
      "Ġë²¤": 4052,
      "ìłģìĿĢ": 4053,
      "Ġê¸°ëħĲ": 4054,
      "ìĺ¨ëĭ¤": 4055,
      "ĠëŃĶ": 4056,
      "ĠëĽ°ìĸ´": 4057,
      "ĠìłľìĻ¸íķĺë©´": 4058,
      "Ġê³¼íķĻ": 4059,
      "ê°ľìĽĶ": 4060,
      "Ġìŀī": 4061,
      "ê°ľë¡ľ": 4062,
      "ĠìĹĨì§Ģë§Į": 4063,
      "ĠìŀĪìĹĪëĬĶëį°": 4064,
      "Ġë°°íĭĢ": 4065,
      "ĠëĨĴìķĦ": 4066,
      "ëłĽ": 4067,
      "Ġìłķìĥģ": 4068,
      "ĠëĸłëĤĺ": 4069,
      "80": 4070,
      "ĠíĮĢìĿĺ": 4071,
      "ì§ĢëĿ¼": 4072,
      "ĠìĿ¸ëıĦ": 4073,
      "ĠíĥĢìŀħ": 4074,
      "Ġìĭľê°ĦìĿĦ": 4075,
      "ì²©": 4076,
      "ĠìĤŃìłľ": 4077,
      "ë³´ë¥¼": 4078,
      "Ġê³µì¤ĳ": 4079,
      "Ġëĵ¯íķĺëĭ¤": 4080,
      "Ġì¹´ìļ´": 4081,
      "ĠëıĦì¿Ħ": 4082,
      "2011": 4083,
      "ì²´ëĬĶ": 4084,
      "ĠìĻĦë²½": 4085,
      "ëħķ": 4086,
      "ìłķìĹĲ": 4087,
      "Ġ193": 4088,
      "ì½¤": 4089,
      "Ġë´ĲëıĦ": 4090,
      "ĠìľłìĿ¼íķĺê²Į": 4091,
      "Ġë°ĺëĵľìĭľ": 4092,
      "Ġê±°ì£¼": 4093,
      "ìĦłìĪĺ": 4094,
      "ĠíĻĢ": 4095,
      "ĠìķĦëĤ´": 4096,
      "ĠíĸĪëĬĶëį°": 4097,
      "Ġ.": 4098,
      "ìĹ°êµ¬": 4099,
      "íħĲì¸ł": 4100,
      "ĠìĭľìĦ¤": 4101,
      "íĻĶëĲľ": 4102,
      "ìĦ±ìĹĲ": 4103,
      "ĠíĥĢê²©": 4104,
      "Ġìłľëª©": 4105,
      "ìĭľíĤ¬": 4106,
      "ëĤĺë¥¼": 4107,
      "Ġíļ¨ê³¼ê°Ģ": 4108,
      "Ġì¡°ì¢ħ": 4109,
      "íĤ¤ìĿĺ": 4110,
      "ëª¨ê°Ģ": 4111,
      "ìĸ´ì§Ħ": 4112,
      "Ġëĭ¤ìĨĮ": 4113,
      "Ġì¢ħì¢ħ": 4114,
      "ãĥ»": 4115,
      "ĠëıĦìĻĢ": 4116,
      "ìķĦìĿĺ": 4117,
      "ĠëĮĢìĥģ": 4118,
      "ìļ©ìľ¼ë¡ľ": 4119,
      "ìĿį": 4120,
      "ĠìĹĨìĸ´ìĦľ": 4121,
      "Ġë²łìĿ´": 4122,
      "ëĵ¬": 4123,
      "ìĿ¸ê³¼": 4124,
      "Ġê±±": 4125,
      "íĿĳ": 4126,
      "ĠìļĶì²Ń": 4127,
      "Ġêµ¬ë§¤": 4128,
      "ĠìłĲìłĲ": 4129,
      "íĦ°ê°Ģ": 4130,
      "iz": 4131,
      "ĠìĥģìľĦ": 4132,
      "ìłģìĿ´ëĭ¤": 4133,
      "ĠëĲĺëĬĶëį°": 4134,
      "Ġìĭ¤íĹĺ": 4135,
      "Ġìĺ¬ëł¤": 4136,
      "Ġíı¬ì¼ĵëª¬": 4137,
      "Ġë³Ģìĭł": 4138,
      "ĠëĮĢêµ¬": 4139,
      "åľ": 4140,
      "ìļĶìĿ¼": 4141,
      "íķľëĭ¤ë©´": 4142,
      "ìĸ´ëĬĶ": 4143,
      "ĠìłĦëŀµ": 4144,
      "ëĲĺë©´": 4145,
      "ĠìĹ¬ê¸°ìĹĲ": 4146,
      "ìĿ´ìĥģ": 4147,
      "ĠìĿ´ê³³": 4148,
      "ist": 4149,
      "ë¥´íĬ¸": 4150,
      "ĠìĿ¸ì²ľ": 4151,
      "ĠìĿ´ê²Į": 4152,
      "ë¡ľê·¸": 4153,
      "ë¥´ìĿĺ": 4154,
      "Ġìłķë¦¬": 4155,
      "ìĿĮìĿ´": 4156,
      "if": 4157,
      "Ġê²ĥì²ĺëŁ¼": 4158,
      "ĠêµĲíĨµ": 4159,
      "ëĵľìĻĢ": 4160,
      "ëıĻìĥĿ": 4161,
      "ëĪĪ": 4162,
      "ãĤĮ": 4163,
      "Ġëį°ìĿ´íĦ°": 4164,
      "ë¶ĦìĿ´": 4165,
      "Ġìĭ«ìĸ´": 4166,
      "íĥĦìĿĦ": 4167,
      "ĠëĮĢê¸°": 4168,
      "ìĦĿìĿ´": 4169,
      "Ġ80": 4170,
      "ìĹ½": 4171,
      "ëįľ": 4172,
      "åį": 4173,
      "Ġë§ŀì¶Ķ": 4174,
      "ìĺĢì§Ģë§Į": 4175,
      "ĠëĩĮ": 4176,
      "Ġ2004": 4177,
      "Ġë¶Ħëªħ": 4178,
      "ãĤĴ": 4179,
      "Ġë§º": 4180,
      "ĠìŀĪìĹĪì§Ģë§Į": 4181,
      "ãģı": 4182,
      "ON": 4183,
      "ìĿ¸ê°Ģ": 4184,
      "ìĿ´ëĭĿ": 4185,
      "ĠëıĦë¡ľ": 4186,
      "ëĭĪìĬ¤": 4187,
      "Ġì±ĦëĦĲ": 4188,
      "ëĭĪíĭ°": 4189,
      "ĠëĿ¼ëĬĶ": 4190,
      "ì§ĢìĹĲìĦľ": 4191,
      "Ġë¿Į": 4192,
      "ĠëĦĲ": 4193,
      "Ġìķłì´ĪìĹĲ": 4194,
      "ìĿ´ìķ¼": 4195,
      "å°": 4196,
      "ĠìĿ¸íĦ°ëĦ·": 4197,
      "26": 4198,
      "ëĨį": 4199,
      "ê·¸ë£¹": 4200,
      "ë°©ìĿĦ": 4201,
      "ìŀ¥íĮĲ": 4202,
      "ìĬ¹ìĿĦ": 4203,
      "Ġìĥģíĥľë¡ľ": 4204,
      "27": 4205,
      "ãģ¾": 4206,
      "Ġìłķê·ľ": 4207,
      "ĠìĿ´ìª½": 4208,
      "ĠCh": 4209,
      "ĠíĥĪëĿ½": 4210,
      "28": 4211,
      "ìĤ¬ì¹´": 4212,
      "Ġì¼Ħ": 4213,
      "ì´Īëĵ±íķĻêµĲ": 4214,
      "Ġë°ĺëĮĢë¡ľ": 4215,
      "Ġì¤ĳê°Ħ": 4216,
      "ard": 4217,
      "ëŁ¿": 4218,
      "ĠëŁ°": 4219,
      "ĠìķĦêµ°": 4220,
      "ìĨĮëħĦ": 4221,
      "ĠìĪĺë§İìĿĢ": 4222,
      "Ġê°ĢìĦľ": 4223,
      "Ġì¢ĭìķĦíķĺëĬĶ": 4224,
      "ê¸°ê´Ģ": 4225,
      "ĠìķĮëł¤ìł¸": 4226,
      "Ġë¬´ì¡°ê±´": 4227,
      "ë°ĽëĬĶ": 4228,
      "ëłĪìĿ¸": 4229,
      "ĠíĥĵìĹĲ": 4230,
      "ì§ĪìĿĦ": 4231,
      "íĻĢ": 4232,
      "!)": 4233,
      "up": 4234,
      "ĠìķĬìľ¼ë©´": 4235,
      "ë§Īë²ķ": 4236,
      "ĠìłķìĿĺ": 4237,
      "ìĦ±ê³¼": 4238,
      "ĠìłĦì°¨": 4239,
      "ìłĦìŁģ": 4240,
      "ĠìĿ´ë¡ľ": 4241,
      "ëĵľìĹĲ": 4242,
      "ãģĮ": 4243,
      "ĠìłĦê¸°": 4244,
      "ì¯¤": 4245,
      "ĠìľłíĬľë¸Į": 4246,
      "ë¬¸ìĿ´": 4247,
      "Ġì§Ģìĥģ": 4248,
      "ëĤĺìĻĢ": 4249,
      "íķĺëıĦë¡Ŀ": 4250,
      "ìľ¼ë¡ľë¶ĢíĦ°": 4251,
      "ĠíĶĦëłĪ": 4252,
      "ì³¤ëĭ¤": 4253,
      "Ġì²Ļ": 4254,
      "ĠìŀĲìĦ¸íķľ": 4255,
      "ìķĪìĿĦ": 4256,
      "ê´ĳìĹŃìĭľ": 4257,
      "Ġë³¸ëŀĺ": 4258,
      "Ġë¹Ħë¡¯íķľ": 4259,
      "ĠìĥĿê°ģíķ´": 4260,
      "ê°ĢìĻĢ": 4261,
      "ĠìĿ´ë¦Ħìľ¼ë¡ľ": 4262,
      "ĠìĹ´ë¦°": 4263,
      "Ġë¡¯": 4264,
      "ì§Ĳ": 4265,
      "ë¬´ëĿ¼": 4266,
      "ĠìĻ¸ìĹĲëıĦ": 4267,
      "ĠìķĪìłĦ": 4268,
      "ĠíĬ¹ìĿ´": 4269,
      "ate": 4270,
      "Ġìĸ´ëł¤ìļ´": 4271,
      "Ġì¶Ķì²ľ": 4272,
      "ĠíĤ¹": 4273,
      ")]": 4274,
      "ì§Ģë©°": 4275,
      "ìļ°ë¦¬": 4276,
      "ĠìĭŃ": 4277,
      "ĠíĻĶë©´": 4278,
      "ĠíķĺëĤĺë¡ľ": 4279,
      "Ġë²Ķì£Ħ": 4280,
      "íĮĮíĬ¸": 4281,
      "ìĦĿìĿĦ": 4282,
      "Ġê±´ëĭ´": 4283,
      "íĸĪê¸°": 4284,
      "Ġì¶©ë¶ĦíŀĪ": 4285,
      "ĠíĪ¬ìŀħ": 4286,
      "Ġëªĩëªĩ": 4287,
      "Ġì£¼ê³ł": 4288,
      "ĠìĨĮìľł": 4289,
      "Ġì¢ħêµĲ": 4290,
      "ë³´ëĭ¤ëıĦ": 4291,
      "Ġì¶©ê²©": 4292,
      "ëĦ£": 4293,
      "Ġì»´íĵ¨": 4294,
      "Ġë¹¨ë¦¬": 4295,
      "Ġìłķì±ħ": 4296,
      "Ġë¹Ħì¤ĳ": 4297,
      "ìłķìĿĢ": 4298,
      "Ġê³¤": 4299,
      "Ġëª½": 4300,
      "ĠëĮĢìĿĳ": 4301,
      "Ġì§ĢíĤ¤": 4302,
      "ê°ľê°Ģ": 4303,
      "ĠìĤ¬ë¬´": 4304,
      "99": 4305,
      "ä¹": 4306,
      "ìĸ´ëĤ¬ëĭ¤": 4307,
      "ĠìķĶìĤ´": 4308,
      "íĢ´": 4309,
      "ì¡°ìĿĺ": 4310,
      "íı¼": 4311,
      "ĠìĹħê·¸": 4312,
      "Ġë³´ìĺĢëĭ¤": 4313,
      "ìĦ¼íĦ°": 4314,
      "ìĹĲê²ĮìĦľ": 4315,
      "Ġìĸ¸ë¡ł": 4316,
      "Ġë¸Ķë£¨": 4317,
      "ĠìłĦíĨµ": 4318,
      "ì¿¨": 4319,
      "Ġë¶Ģíķĺ": 4320,
      "AN": 4321,
      "Ġë¯¸ëĭĪ": 4322,
      "ĠìľĦíĺĳ": 4323,
      "ë¡ľìļ°": 4324,
      "ĠìľĮ": 4325,
      "Ġê±°ë¶Ģ": 4326,
      "ìĭľëĮĢ": 4327,
      "ĠìĿĺíķĺë©´": 4328,
      "ì¡Įê³ł": 4329,
      "Ġìµľì´Īë¡ľ": 4330,
      "ĠìĦłìłķ": 4331,
      "ëĿ¼ìļ°": 4332,
      "Ġìĭ¸ìĽĢ": 4333,
      "ìĬ¤ìĹĲìĦľ": 4334,
      "ìª½ìĹĲ": 4335,
      "ĠëķĮê¹Įì§Ģ": 4336,
      "Ġíıīë²Ķ": 4337,
      "ìĪłìĿĦ": 4338,
      "Ġ90": 4339,
      "ers": 4340,
      "ant": 4341,
      "Ġê³µíı¬": 4342,
      "cm": 4343,
      "Ġë³ĢíĻĶ": 4344,
      "ĠëıĪìĿĦ": 4345,
      "å·": 4346,
      "ĠìĦ±íĸ¥": 4347,
      "ĠìĨĲìĿĦ": 4348,
      "Ġë¶Īë¦¬": 4349,
      "Ġëĵ±ìĹĲ": 4350,
      "ëŃ": 4351,
      "ìĿ´ë¯Ģë¡ľ": 4352,
      "æĺ": 4353,
      "ĠìĺĪë¥¼": 4354,
      "ìĦ¸ìĿĺ": 4355,
      "¶¤": 4356,
      "Ġíĳľìĭľ": 4357,
      "Ġëĸ¡": 4358,
      "ìĦ¸ìļĶ": 4359,
      "ìŀĲëĵ¤ìĿĢ": 4360,
      "ĠíĸĪê³ł": 4361,
      "Ġê·¸ê±¸": 4362,
      "Ġê´Ģëł¨ëĲľ": 4363,
      "Ġì§Ĳ": 4364,
      "íķĺëł¤ê³ł": 4365,
      "ëłĪìĿ´ìħĺ": 4366,
      "ìĭľìĺ¤": 4367,
      "ì£¼ìĿ¸": 4368,
      "ëł¥ìĿĺ": 4369,
      "ok": 4370,
      "Ġê¸°ê³Ħ": 4371,
      "ë§Ľ": 4372,
      "Ġë³¸ìĿ¸ìĿĺ": 4373,
      "Ġë°Ķëĭ¤": 4374,
      "ep": 4375,
      "ĠíĤ¬": 4376,
      "íģ¬ëŀĺ": 4377,
      "ãĤĬ": 4378,
      "Ġíļ": 4379,
      "ëĵľë¦¬": 4380,
      "ĠíĶ½": 4381,
      "Ġëĵ¯íķľ": 4382,
      "ëıĦìĻĢ": 4383,
      "ĠíĶĦë¡ľìłĿ": 4384,
      "Ġë§ŀì¶°": 4385,
      "ĠëĬ¥ëł¥ìĿ´": 4386,
      "âĸ": 4387,
      "ĠíĮĮìĿ´": 4388,
      "ìĭľíĤ¤ê³ł": 4389,
      "ìĺ·": 4390,
      "29": 4391,
      "ĠìŀĪì§Ģ": 4392,
      "Ġìĭľë¦¬ì¦ĪìĿĺ": 4393,
      "íĮĲìĿĦ": 4394,
      "ë»": 4395,
      "ë¯¸ìĿĺ": 4396,
      "Ġì¤ĳë°ĺ": 4397,
      "ĠìĽĮëĤĻ": 4398,
      "ìķĺê³ł": 4399,
      "IN": 4400,
      "ëĮĢíļĮ": 4401,
      "Ġ70": 4402,
      "ë¶ĢìĹĲìĦľ": 4403,
      "Ġìļ°ìĦł": 4404,
      "one": 4405,
      "ìĹŃìĤ¬": 4406,
      "Ġë°ĽëĬĶëĭ¤": 4407,
      "ĠìķĬì§Ģë§Į": 4408,
      "ĠìŀĳìĹħ": 4409,
      "Ġë§ĲíķĺëĬĶ": 4410,
      "ĠìłĦìĤ¬": 4411,
      "ĠëıĦìłĦ": 4412,
      "Ġì¹´ìĿ´": 4413,
      "Ġê·¸ë¦°": 4414,
      "ë¦¬ìĺ¨": 4415,
      "ì¤ĳíķĻêµĲ": 4416,
      "ĠLG": 4417,
      "Ġë¬´ìŀ¥": 4418,
      "ĠëħĢ": 4419,
      "0000": 4420,
      "Ġë³´ëĭ¤": 4421,
      "ĠìłĲìĿ´": 4422,
      "Ġëĭ¤íģ¬": 4423,
      "Ġ2002": 4424,
      "ĠìĥĿê°ģíķĺë©´": 4425,
      "Ġë²Ħê·¸": 4426,
      "Ġìĥģì§ķ": 4427,
      "ang": 4428,
      "ĠíĿ¬ìĥĿ": 4429,
      "ĠëĮĢì¤ĳ": 4430,
      "ë§Īë¥¼": 4431,
      "ĠìľĦìĿĺ": 4432,
      "ê»´": 4433,
      "Ġë¡Ŀ": 4434,
      "ëıĦìĭľ": 4435,
      "Ġì£½ìĿĮ": 4436,
      "ìŀĸ": 4437,
      "Ġìĭľë¯¼": 4438,
      "ìĻķìĿĺ": 4439,
      "ĠìĿ¼ëŁ¬": 4440,
      "ëª¨ë¡ľ": 4441,
      "Ġë¶ķ": 4442,
      "ĠìĹ°ìŀ¬": 4443,
      "ĠêµŃê°ĢëĮĢíĳľ": 4444,
      "ĠìĤ¬ëŀĮëĵ¤ìĿĢ": 4445,
      "Ġìŀ¥ë©´ìĿ´": 4446,
      "êµ¬ìĹĲ": 4447,
      "Ġë©ĺ": 4448,
      "ëª¨ë¥¼": 4449,
      "ĠìĦłìĥĿ": 4450,
      "ëĤĺë¬´": 4451,
      "ì½ĶìĿĺ": 4452,
      "Ġì¤ĳìĭ¬ìľ¼ë¡ľ": 4453,
      "Ġìĸ»ìĸ´": 4454,
      "ĠíĨµê³¼": 4455,
      "âĹ": 4456,
      "03": 4457,
      "Ġê°Ģê¹Ŀ": 4458,
      "ĠíĥĢì¹´": 4459,
      "ct": 4460,
      "Ġëį°ëł¤": 4461,
      "Ġ{{{#!": 4462,
      "ĠíĮĮìĿ¼": 4463,
      "Ġì¢ħì¡±": 4464,
      "ĠíĬ¹ìľłìĿĺ": 4465,
      "ëł¤ë©´": 4466,
      "ĠìĥĿìĦ±": 4467,
      "ĠìĤ¬íĥľ": 4468,
      "ĠìĹĲìĿ´": 4469,
      "ĠëĤ´ìĹĲìĦľ": 4470,
      "ìŀĲìĹĲ": 4471,
      "ìĿ´ìĹĪê³ł": 4472,
      "ê²½ìĿĦ": 4473,
      "Ġìŀ¥ìĨĮ": 4474,
      "Ġê±°ì³Ĳ": 4475,
      "ì¢ĭ": 4476,
      "Ġê°ľê·¸": 4477,
      "math": 4478,
      "Ġê·¸ìķ¼ë§Ĳë¡ľ": 4479,
      "Ġë¡ľë´ĩ": 4480,
      "Ġëĭ¤íĸī": 4481,
      "ĠíĻķìŀ¥": 4482,
      "ì§ĦìĿĺ": 4483,
      "ê¹Ĳ": 4484,
      "ëĿ¼ìĿ´ëįĶ": 4485,
      "ë¶ģëıĦ": 4486,
      "ë°Ķë¡ľ": 4487,
      "Ġìļ´ìļ©": 4488,
      "æŃ": 4489,
      "íĺ¸ëĬĶ": 4490,
      "íİł": 4491,
      "ĠëĮĢê²°": 4492,
      "ìĤ¬ëŀĳ": 4493,
      "ëķĮë¬¸ìĹĲ": 4494,
      "Ġê°Ķ": 4495,
      "Ġë°ĺë³µ": 4496,
      "ä½": 4497,
      "ĠìłķìĭĿ": 4498,
      "Ġëĭ¤ë¥´ëĭ¤": 4499,
      "íĥĢìĿ´": 4500,
      "íķ´ì¡Įëĭ¤": 4501,
      "ĠëĲĺë©´ìĦľ": 4502,
      "ith": 4503,
      "ãģł": 4504,
      "ne": 4505,
      "Ġìĺģíĺ¼": 4506,
      "Ġë¶Īê³¼": 4507,
      "ìķ½ìĿĦ": 4508,
      "Ġëļ«": 4509,
      "ê°Ģë¡ľ": 4510,
      "ëĨĪ": 4511,
      "ĠëĤĺìĺ¤ì§Ģ": 4512,
      "ë¶ĦìĿĦ": 4513,
      "Ġìŀħê³ł": 4514,
      "ĠëķĮëıĦ": 4515,
      "og": 4516,
      "Ġì¡°ìŀĳ": 4517,
      "(,": 4518,
      "ĠíĦ´": 4519,
      "ĠìķĦë¬´ë¦¬": 4520,
      "ĠìĨĮë¹Ħ": 4521,
      "ĠìµľíĽĦ": 4522,
      "ĠìĬ¤íı¬ì¸ł": 4523,
      "ìłķìľ¼ë¡ľ": 4524,
      "ìĿ¸ëĵ¤ìĿ´": 4525,
      "êµ°ìĹĲ": 4526,
      "Ġëº": 4527,
      "Ġë©ľ": 4528,
      "ĠìľĪ": 4529,
      "ìĹŃìľ¼ë¡ľ": 4530,
      "Ġêµ³ìĿ´": 4531,
      "ĠìĿ¸ìĭĿ": 4532,
      "ĠêµŃíļĮìĿĺ": 4533,
      "ĠíĻĪëŁ°": 4534,
      "íĬ¸ìĹĲ": 4535,
      "ìĮį": 4536,
      "ĠìĤ¬ëĬĶ": 4537,
      "ì¹ĺê²Į": 4538,
      "ĠìłĢíķŃ": 4539,
      "ĠìĿ´ê±´": 4540,
      "íĻĪ": 4541,
      "ĠíĬ¸ìľĦ": 4542,
      "ìĹ¬ëĭ´ìľ¼ë¡ľ": 4543,
      "ĠìķŀìĹĲìĦľ": 4544,
      "Ġì±Ļ": 4545,
      "ĠëĨĪ": 4546,
      "ground": 4547,
      "ê°¤": 4548,
      "Ġìłģê·¹": 4549,
      "%,": 4550,
      "Ġë¹¼ìķĹ": 4551,
      "ë¥´ê°Ģ": 4552,
      "ëĭ¨ê³Ħ": 4553,
      "195": 4554,
      "Ġê¸°ëıĻ": 4555,
      "ë¡ľëıĦ": 4556,
      "ãĢı": 4557,
      "ĠìĦłìĸ¸": 4558,
      "ĠìĦŀ": 4559,
      "Ġìĺģìŀħ": 4560,
      "Ġë»Ķ": 4561,
      "ĠëĮĢë¹Ħ": 4562,
      "ĠìļĶë¦¬": 4563,
      "Ġìµľì´ĪìĿĺ": 4564,
      "Ġë¬´ë¦¬": 4565,
      "Ġç": 4566,
      "ãģĵ": 4567,
      "íķĺëĭĪ": 4568,
      "Ġë°ĶëĿ¼": 4569,
      "ĠëĮĢíĺķ": 4570,
      "Ġìį¼": 4571,
      "Ġìĸ¼ë§ĪëĤĺ": 4572,
      "ê³¼íķĻ": 4573,
      "íļĮê°Ģ": 4574,
      "Ġë³¸ê²©": 4575,
      "Ġë©ĭ": 4576,
      "ĠêµĲìĪĺ": 4577,
      "PC": 4578,
      "ëĭ¨ìĹĲ": 4579,
      "ìŀĲëĵ¤ìĿĺ": 4580,
      "åĪ": 4581,
      "Ġíŀĺëĵł": 4582,
      "ĠíıīìĨĮ": 4583,
      "Ġë§Ĳìķĺëĭ¤": 4584,
      "45": 4585,
      "ĠìĬ¤ìľĦ": 4586,
      "Ġì¹ĺëªħ": 4587,
      "ĠìłĲëł¹": 4588,
      "Ġ2003": 4589,
      "ss": 4590,
      "Ġë¦¬ëįĶ": 4591,
      "íĹ¨": 4592,
      "ë¤Ħ": 4593,
      "Ġì¹´ë©Ķ": 4594,
      "íĶĦëłĪ": 4595,
      "íķ´ë¥¼": 4596,
      "ĠìĪ«": 4597,
      "Ġë§Īë¬´ë¦¬": 4598,
      "ĠíĻľëıĻìĿĦ": 4599,
      "ë¹¨": 4600,
      "ì²´ë¡ľ": 4601,
      "ĠëĮĢíĻĶ": 4602,
      "ìĹĪìľ¼ë©°": 4603,
      "íľ´": 4604,
      "Ġíĺģ": 4605,
      "07": 4606,
      "ëłĢëĭ¤": 4607,
      "Ġë¡¯ëį°": 4608,
      "ĠíĮ¨ì¹ĺ": 4609,
      "íĶ¼ìķĦ": 4610,
      "Ġë¶Ħë¦¬": 4611,
      "ìĦłê±°": 4612,
      "Ġë¶Ļìĸ´": 4613,
      "Ġë§ŀëĬĶ": 4614,
      "Ġìĺ¤ëŀľ": 4615,
      "ëĭ¤ìĭľ": 4616,
      "ĠìĹŃëĮĢ": 4617,
      "ëĭ¨íķľ": 4618,
      "2009": 4619,
      "ĠíŀĪìĸ´ë¡ľ": 4620,
      "ëıĦìļ°": 4621,
      "ĠìŀĪìĹĪìľ¼ëĤĺ": 4622,
      "ìĹĪìľ¼ëĤĺ": 4623,
      "ĠíĬ¸ë¦¬": 4624,
      "Ġëª¨ìĬµìľ¼ë¡ľ": 4625,
      "ê·¸ëŁ¬": 4626,
      "Ġë°©ë¬¸": 4627,
      "ì¹´ëĵľ": 4628,
      "Ġìĭľê¸°": 4629,
      "Ġê±°ëĳĲ": 4630,
      "ĠíĺĲ": 4631,
      "ë§ĪìĿ´": 4632,
      "ìŀ¥ê³¼": 4633,
      "ackground": 4634,
      "íĬ¸ìĻĢ": 4635,
      "ĠìĿĺìĻ¸ë¡ľ": 4636,
      "íĥĢìŀĦ": 4637,
      "Ġ=": 4638,
      "Ġìĺ¤ë²Ħ": 4639,
      "ast": 4640,
      "íĶĦë¦¬": 4641,
      "Ġë°Ķíĥķ": 4642,
      "íķ´ì§Ħëĭ¤": 4643,
      "ìĨĮëħĢ": 4644,
      "ë£¨ìĬ¤": 4645,
      "Ġëª¸ìĿĦ": 4646,
      "Ġì§Ħìŀħ": 4647,
      "Ġìĺµìħĺ": 4648,
      "ĠíıĲì§Ģ": 4649,
      "ìĤ¬ê±´": 4650,
      "ì»´": 4651,
      "Ġìŀĩ": 4652,
      "ìłĦìľ¼ë¡ľ": 4653,
      "ãĢĭ(": 4654,
      "ë¡łìĿĦ": 4655,
      "ìĭľíĤ¨ëĭ¤": 4656,
      "ëĭ¤ìĿ´": 4657,
      "ĠìĿĢíĩ´": 4658,
      "íĬ¹íŀĪ": 4659,
      "Ġëĭ¹ìĹ°": 4660,
      "ĠìķĦëĭĪì§Ģë§Į": 4661,
      "ëĵłì§Ģ": 4662,
      "ãĤ¤": 4663,
      "ì»·": 4664,
      "ĠìĤ¬ê¸°": 4665,
      "ive": 4666,
      "Ġë¬´ëĦĪ": 4667,
      "ìĭ¤ìĿĦ": 4668,
      "Ġëĵł": 4669,
      "íĨłë¦¬": 4670,
      "Ġë§ĲíĸĪëĭ¤": 4671,
      "ãĢģ": 4672,
      "ĠìĥĿëªħ": 4673,
      "Ġë¶ĪìķĪ": 4674,
      "Ġëª¨ë¥´ëĬĶ": 4675,
      "ìļ°ê³ł": 4676,
      "ĠìŀŃ": 4677,
      "Ġë¬¸ìłľë¥¼": 4678,
      "Ġì´ĪëĮĢ": 4679,
      "35": 4680,
      "ê³¨ìĿĦ": 4681,
      "Ġìĺ¬ëĿ¼ê°Ģ": 4682,
      "Ġë¹Ļ": 4683,
      "ìĭľë¸Į": 4684,
      "ë§Įìľ¼ë¡ľ": 4685,
      "ì°¸ê³ł": 4686,
      "Ġì»¬": 4687,
      "ì§ĢìŀĲ": 4688,
      "ëĭ¹ìĿĺ": 4689,
      "ì´ī": 4690,
      "ĠíĥĢìĿ´íĭĢ": 4691,
      "ĠìħĢ": 4692,
      "Ġê¾¸ì¤Ģ": 4693,
      "ì¹´ê°Ģ": 4694,
      "ìĩł": 4695,
      "Ġíı¬íķ¨íķľ": 4696,
      "ì¥Ĳ": 4697,
      "Ġë¯¸ëĵľ": 4698,
      "ĠIn": 4699,
      "ĠìĦłë³´": 4700,
      "Ġê¸°ë³¸ìłģìľ¼ë¡ľ": 4701,
      "éĻ": 4702,
      "Ġìĭ¤ìĭľ": 4703,
      "ĠĠĠĠ": 4704,
      "Ġë°¸": 4705,
      "ìĭľíĭ°": 4706,
      "ìĬ¤ëŁ½ê²Į": 4707,
      "Ġê°ģìĦ±": 4708,
      "ë²ķìĿĦ": 4709,
      "Ġê³łëĵ±íķĻêµĲ": 4710,
      "ĠìĤ¶": 4711,
      "Ġì¹´ëĵľë¥¼": 4712,
      "íħĢ": 4713,
      "ĠìĥģíĻ©ìĿĦ": 4714,
      "Ġê·¸ë¦¬ìĬ¤": 4715,
      "ĠìŀĬ": 4716,
      "Ġê¸°ì¡´ìĿĺ": 4717,
      "ì°¨ë¡ľ": 4718,
      "ĠìĤ´ìķĦëĤ¨": 4719,
      "2008": 4720,
      "ë¥´ê¸°": 4721,
      "íĺķìĿ´": 4722,
      "Ġê·¸ëł¤": 4723,
      "ëŀĲëĭ¤": 4724,
      "ĠìĤ´ìĿ¸": 4725,
      "ĠíĬ¹ìĦ±ìĥģ": 4726,
      "Ġëª©ìĪ¨": 4727,
      "//": 4728,
      "ĠìłĦíĻĺ": 4729,
      "Ġëĭ¥": 4730,
      "íķĺëł¤ëĬĶ": 4731,
      "ĠìĿ´ìĤ¬": 4732,
      "ëŁ¬ê°Ģ": 4733,
      "ãĢĮ": 4734,
      "æĹ": 4735,
      "Ġê±°ê¸°ìĹĲ": 4736,
      "ĠìĿĺíķľ": 4737,
      "íķĺìŀĲë©´": 4738,
      "ëħĦìĿĺ": 4739,
      "Ġíİľ": 4740,
      "ĠëĤ´ìļ©ìĿĢ": 4741,
      "ĠíĪ¬ìĪĺ": 4742,
      "ĠìļĶìĨĮ": 4743,
      "ĠìĦľë²Ħ": 4744,
      "Ġë¨¹ê³ł": 4745,
      "íĺ¸ìĿĺ": 4746,
      "Ġë§ŀìķĦ": 4747,
      "ë¯¸êµŃ": 4748,
      "Ġìĺ¤íĶĦ": 4749,
      "ĠìĿ¸ê¸°": 4750,
      "ê°Ĵ": 4751,
      "Ġë¬´íķľ": 4752,
      "ĠëĤ«": 4753,
      "Ġë°Ķëĭ¥": 4754,
      "ĠìĭľëĤĺ": 4755,
      "Ġë´¤": 4756,
      "Ġëĭ®": 4757,
      "Ġë§īìķĦ": 4758,
      "ìĽ¨ìĸ´": 4759,
      "PS": 4760,
      "ë§ĪíĬ¸": 4761,
      "íĮ¨ë¥¼": 4762,
      "ĠíĿī": 4763,
      "Ġë§Īì¹ĺ": 4764,
      "ĠìķĦëĤĺ": 4765,
      "AT": 4766,
      "Ġë¹ĦëĤľ": 4767,
      "ĠëĮĢíķ´ìĦľëĬĶ": 4768,
      "ĠìķŀìĦľ": 4769,
      "ìļ©íķľ": 4770,
      "ë°©ìĹĲ": 4771,
      "ë³´ìŀĲ": 4772,
      "Ġê·¸ìłĢ": 4773,
      "ìĿ¼ìĿĢ": 4774,
      "ê³łìĨį": 4775,
      "ĠëłĪëĵľ": 4776,
      "ë³µìĿĦ": 4777,
      "ìĿ´ìĹĪìľ¼ëĤĺ": 4778,
      "ĠìĿ´ëĵ¤ìĿĢ": 4779,
      "ï½": 4780,
      "ĠìķĦìī¬": 4781,
      "ëłĲ": 4782,
      "Ġë°Ľì§Ģ": 4783,
      "ëĵľëĿ¼ë§Ī": 4784,
      "Ġë¶Ģë¶ĦìĿ´": 4785,
      "Ġë§ĪìĿĮìĿĦ": 4786,
      "ĠëªħìĿĺ": 4787,
      "Ġë³´ì¡°": 4788,
      "Ġë¶īìĿĢ": 4789,
      "ĠìĹ°ì£¼": 4790,
      "ë¦¬ì§ĢëĦĲ": 4791,
      "ìĹĲê²ĮëıĦ": 4792,
      "ì¼Ħ": 4793,
      "ë¦ī": 4794,
      "Ġê¸Īì§Ģ": 4795,
      "Ġë©Ī": 4796,
      "09": 4797,
      "our": 4798,
      "Ġëħ¸ëıĻ": 4799,
      "ĠìĬ¹ë¦¬ë¥¼": 4800,
      "ĠìĨįëıĦ": 4801,
      "ĠìĦľìĪł": 4802,
      "Ġíģ´ëŁ½": 4803,
      "ĠíģĲ": 4804,
      "ĠëıĦìĽĢìĿĦ": 4805,
      "ìĭľì¼°ëĭ¤": 4806,
      "ĠìĤ¬ê³¼": 4807,
      "33": 4808,
      "ove": 4809,
      "ĠQ": 4810,
      "ìĿ¼ë³¸ìĿĺ": 4811,
      "Ġê²¹": 4812,
      "ĠíļĮíĶ¼": 4813,
      "íķĺìĿ´": 4814,
      "ìľµ": 4815,
      "ëĬ¥ëł¥": 4816,
      "Ġì§Ģìłģ": 4817,
      "Ġê¸°ë¡ĿíĸĪëĭ¤": 4818,
      "05": 4819,
      "ĠìļĶìĭľ": 4820,
      "ê³łê°Ģ": 4821,
      "Ġìĸ´ëĳł": 4822,
      "ĠìłĦê°ľ": 4823,
      "ĠìĿ¼ëŁ¬ìĬ¤íĬ¸": 4824,
      "ity": 4825,
      "ë²Ħë¦¬ëĬĶ": 4826,
      "ìĤ°ìĿĦ": 4827,
      "Ġê°ľë´ī": 4828,
      "ìłĦìĿĢ": 4829,
      "ĠíĻķë³´": 4830,
      "ĠëıĮëł¤": 4831,
      "Ġëĵ±ê¸ī": 4832,
      "ëĦĪìĬ¤": 4833,
      "ãģį": 4834,
      "ëĶĶìķĦ": 4835,
      "ë¹µ": 4836,
      "Ġê°ĲìķĪ": 4837,
      "ĠíĺķìĦ±": 4838,
      "ĠíĮĢìĿ´": 4839,
      "ĠëĤ¨íİ¸": 4840,
      "ĠìĹĶì§Ħ": 4841,
      "ĠìĬ¤ì½Ķ": 4842,
      "ĠíĽĦìĨį": 4843,
      "ì²łëıĦ": 4844,
      "Ġfor": 4845,
      "Ġê½¤ëĤĺ": 4846,
      "Ġëħ¸ëł¥": 4847,
      "Ġë¯¸ë¦¬": 4848,
      "ĠìłĲìĹĲìĦľ": 4849,
      "ĠëĿ¼ëĶĶìĺ¤": 4850,
      "ìĸĢ": 4851,
      "ĠëĮĢëĭµ": 4852,
      "ĠìķĦëĬĶ": 4853,
      "ëĭµê²Į": 4854,
      "Ġíķĺëĵľ": 4855,
      "ub": 4856,
      "Ġì²´ëł¥ìĿ´": 4857,
      "ìĺĢëĬĶëį°": 4858,
      "Ġê·¸ëķĮ": 4859,
      "ìĥĿíĻľ": 4860,
      "ì¿łëĿ¼": 4861,
      "Ġìħĭ": 4862,
      "Ġê²½ê¸°ëıĦ": 4863,
      "ìłĦíĪ¬": 4864,
      "ĠìĤ¬ëŀĮìĿĺ": 4865,
      "Ġvs": 4866,
      "ĠìĿ´ê¸°": 4867,
      "Ġì°¨ìĿ´": 4868,
      "ì¶ľìĹ°": 4869,
      "ìłľìĹĲ": 4870,
      "Ġê±°ì§ĵ": 4871,
      "ìķħìĿĺ": 4872,
      "ìĦ±ëıĦ": 4873,
      "íķĺë¯Ģë¡ľ": 4874,
      "ĠìłĲìĿĢ": 4875,
      "íŀĮëĭ¤": 4876,
      "ĠìłģìĿĺ": 4877,
      "ĠìĿ´ìĻĢ": 4878,
      "ĠëħĦ": 4879,
      "íĺĶ": 4880,
      "íĪ°": 4881,
      "ìĿ¼ê¹Įì§Ģ": 4882,
      "ìĦ¸ìĿ´": 4883,
      "Ġë§ĪìĤ¬": 4884,
      "ĠìĿ´íĽĦìĹĲ": 4885,
      "ìĽłëĭ¤": 4886,
      "íĥĢëĬĶ": 4887,
      "Ġìŀ¥ê°ĳ": 4888,
      "ì£¼ìĭľ": 4889,
      "ì¦Īê°Ģ": 4890,
      "Ġë¶Ģë¥¸ëĭ¤": 4891,
      "ĠíķĺëĤĺìĿĺ": 4892,
      "ëī": 4893,
      "ê²°êµŃ": 4894,
      "ĠìŀĦëªħ": 4895,
      "ĠíĮ¨ëŁ¬": 4896,
      "êµ¬ëĬĶ": 4897,
      "ëĴ¤": 4898,
      "ëĲ¨": 4899,
      "ĠíĥĿ": 4900,
      "ĠìłģìłĪ": 4901,
      "ìĿ´ëĿ¼ìĦľ": 4902,
      "ìĽĮìĦľ": 4903,
      "Ġë¬´ìĤ¬": 4904,
      "Ġê°ľì¡°": 4905,
      "ë¥ľ": 4906,
      "Ġê²½ìĥģ": 4907,
      "íĥĲ": 4908,
      "ê³ĦìĹĲ": 4909,
      "ĠìĤ¬ê²©": 4910,
      "íĻĶìĹĲ": 4911,
      "Ġê³µëŀµ": 4912,
      "ãĤ¹": 4913,
      "Ġìŀ¥ëĤľ": 4914,
      "Ġ2021": 4915,
      "ĠíĶĦë¡ľëĵĢ": 4916,
      "Ġê±´ì¶ķ": 4917,
      "ìĹĪëĭ¤ëĬĶ": 4918,
      "íĶĦìĿĺ": 4919,
      "tp": 4920,
      "Ġìĭľìŀĳíķľëĭ¤": 4921,
      "Ġìłķë³´ë¥¼": 4922,
      "Ġëħ¼ëŀĢìĿ´": 4923,
      "est": 4924,
      "play": 4925,
      "ìĿ¼ë°ĺ": 4926,
      "êµĲíĨµ": 4927,
      "ĠëĶĶì§Ģ": 4928,
      "íĬ¸ë¡¤": 4929,
      "ë¡ľìĬ¤": 4930,
      "ĠìĪ²": 4931,
      "Ġíķľëĭ¤ê³ł": 4932,
      "KBS": 4933,
      "ĠëĤĺìģĺ": 4934,
      "ex": 4935,
      "Ġë¶Ģë¥´ëĬĶ": 4936,
      "ry": 4937,
      "Ġê¼½": 4938,
      "ë¡ľëĤĺ": 4939,
      "Ġëĭ¤ìļ´": 4940,
      "Ġíĥĳìŀ¬": 4941,
      "ìŀł": 4942,
      "ëģĦ": 4943,
      "Ġë¶Ħìķ¼": 4944,
      "ìĸ´ìļĶ": 4945,
      "ĠìĪĺë°ĸìĹĲ": 4946,
      "ëĭ¹ìĭľ": 4947,
      "ìłķë³´": 4948,
      "ìĹĲìĦľë§Į": 4949,
      "ĠìĻķêµŃ": 4950,
      "Ġë§Īë¦¬": 4951,
      "Ġëįľ": 4952,
      "Ġìķ¼ë§Ī": 4953,
      "Ġëĭ¨ìĪľíŀĪ": 4954,
      "ĠìĹ°ìŀ¥": 4955,
      "ĠëĲĲ": 4956,
      "ìļ©ìĿ´": 4957,
      "ĠíħĲ": 4958,
      "ë¥łìĿ´": 4959,
      "ë¯¸ëĬĶ": 4960,
      "ê·¸ëŁ°ëį°": 4961,
      "ĠìŀĲìĭłìĿĢ": 4962,
      "Ġë¬¶": 4963,
      "Ġì£½ìĿĦ": 4964,
      "ĠëĤłëł¤": 4965,
      "ì¹ľëĭ¤": 4966,
      "ë¶ķ": 4967,
      "ĠìĿ¼ìĸ´ëĤľ": 4968,
      "Ġ500": 4969,
      "Ġê±±ìłķ": 4970,
      "Ġìłľìķķ": 4971,
      "ĠëĤĺëĪĦ": 4972,
      "ë¯¸ìķ¼": 4973,
      "ìĭłìĿĢ": 4974,
      "Ġê°Ģê²Į": 4975,
      "ë°©ìĿĺ": 4976,
      "ë£¨ê°Ģ": 4977,
      "Ġëį°ë¯¸ì§Ģë¥¼": 4978,
      "ìĺĢìľ¼ë©°": 4979,
      "ê·ľëª¨": 4980,
      "è¡": 4981,
      "Ġëľ¬": 4982,
      "ĠëĤĺìĺ¤ê³ł": 4983,
      "ĠìĿ¼ìĿĢ": 4984,
      "Ġë¹ĦêµĲìłģ": 4985,
      "ëĨĵìĿĢ": 4986,
      "Ġê°¤ëŁ¬": 4987,
      "Ġì´ī": 4988,
      "Ġê±°ëĮĢíķľ": 4989,
      "ìĦłìĹĲ": 4990,
      "Ġìĺ¤íĽĦ": 4991,
      "ìŀĲë¦¬": 4992,
      "ë°Ľê³ł": 4993,
      "ĠìĦľë¹ĦìĬ¤": 4994,
      "06": 4995,
      "ëª¨ë¦¬": 4996,
      "ŁìķĦ": 4997,
      "Ġë§Įëĭ¤": 4998,
      "adi": 4999,
      "ë¦¬ë©´ìĦľ": 5000,
      "ëª©ìĿĦ": 5001,
      "http": 5002,
      "Ġë°ľìĸ¸": 5003,
      "íļĮìĹĲ": 5004,
      "ĠëĪĪìĹĲ": 5005,
      "Ġì°Į": 5006,
      "ĠìĿ´ìľłê°Ģ": 5007,
      "ĠíĪ¬íĳľ": 5008,
      "ĠìĨĲìĹĲ": 5009,
      "ìĭĿìĿĺ": 5010,
      "íĬ¸ìĹĲìĦľ": 5011,
      "Ġìľłëŀĺ": 5012,
      "Ġê³łìĨį": 5013,
      "ĠìķĦíĶĦë¦¬ì¹´": 5014,
      "Ġë¶ĢëĮĢ": 5015,
      "ĠìķĻ": 5016,
      "ort": 5017,
      "ĠëĤĺìĿ´íĬ¸": 5018,
      "Ġ...": 5019,
      "Ġë§Īë¥´": 5020,
      "ìĦ±ìľ¼ë¡ľ": 5021,
      "://": 5022,
      "ë¬¼ìĿĺ": 5023,
      "ĠíĽĮ": 5024,
      "ĠìłĢê²©": 5025,
      "ip": 5026,
      "ì½Ķê°Ģ": 5027,
      "Ġê°Ģë¦¬": 5028,
      "02": 5029,
      "ĠSBS": 5030,
      "Ġìķŀìľ¼ë¡ľ": 5031,
      "ì¨": 5032,
      "Ġì¢ģ": 5033,
      "Ġ35": 5034,
      "ëł´": 5035,
      "ĠëĪĦêµ°": 5036,
      "ìŀĲëĵ¤": 5037,
      "ãĥ«": 5038,
      "Ġê¸°ìĪłìĿĦ": 5039,
      "ĠíĶĮëŀĺ": 5040,
      "íģ¬ëĬĶ": 5041,
      "ĠëĮĢíĳľìłģìĿ¸": 5042,
      "ÃĹ": 5043,
      "ĠíĹĪìļ©": 5044,
      "ain": 5045,
      "íķľëį°": 5046,
      "ëł¸ê³ł": 5047,
      "Ġì§Ģê¸ĪìĿĢ": 5048,
      "Ġëĸ¨ìĸ´ì§Ħ": 5049,
      "Ġëª°ìķĦ": 5050,
      "ĠíĻķìĭ¤íŀĪ": 5051,
      "Ġìŀ¬ë£Į": 5052,
      "Ġë§Īì¹¨": 5053,
      "ê³µíķŃ": 5054,
      "ê¹Įì§ĢëıĦ": 5055,
      "Ġìķī": 5056,
      "Ġì»¨ìħī": 5057,
      "ìĹŃìĿ´": 5058,
      "ĠìŀĪìĬµëĭĪëĭ¤": 5059,
      "Ġëĵ±ë¡Ŀ": 5060,
      "å¹": 5061,
      "ìĺ¤íĶĦ": 5062,
      "ëıĻìĿ´": 5063,
      "Ġê³łíĨµ": 5064,
      ".'": 5065,
      "Ġ2001": 5066,
      "ëĮĢíķľë¯¼êµŃ": 5067,
      "Ġëį°ìĿ´": 5068,
      "2000": 5069,
      "å¯": 5070,
      "Ġë§ŀê³ł": 5071,
      "Ġê³³ìĹĲ": 5072,
      "ìĬ¤íĥĦ": 5073,
      "ind": 5074,
      "Ġìĥģì²ĺ": 5075,
      "Ġì¡°ê°ģ": 5076,
      "Ġì»¤ë®¤": 5077,
      "Ġêµ¬ë¶Ħ": 5078,
      "Ġì»´íĵ¨íĦ°": 5079,
      "Ġ\\": 5080,
      "ĠíķĦìļĶê°Ģ": 5081,
      "ĠìŀĪëıĦë¡Ŀ": 5082,
      "ĠëĳĶ": 5083,
      "ìķĬ": 5084,
      "Ġëª»íķľëĭ¤": 5085,
      "ìķŀ": 5086,
      "Ġê·¸ë§Į": 5087,
      "Ġ1990": 5088,
      "Ġë§Įëĵ¤ìĸ´ì§Ħ": 5089,
      "éĥ": 5090,
      "Ġë°¥": 5091,
      "ìĿ´ëįĺ": 5092,
      "ì¤ĳêµŃ": 5093,
      "ëłĺ": 5094,
      "ìĤ¬ìĹĲìĦľ": 5095,
      "Ġìŀ¡ê³ł": 5096,
      "íļĮìĹĲìĦľ": 5097,
      "ĠìĹ¬ë¦Ħ": 5098,
      "Ġme": 5099,
      "ĠëĤĺëī": 5100,
      "ìŀĸìķĦ": 5101,
      "2007": 5102,
      "Ġë§Įíķľ": 5103,
      "íĻĶìĹĲìĦľëĬĶ": 5104,
      "Ġìľ¡êµ°": 5105,
      "ĠìľĦìĽĲ": 5106,
      "ĠìĬ¤íģ¬": 5107,
      "Ġê·¸ìĹĲ": 5108,
      "ìĥģìĹĲìĦľ": 5109,
      "ĠëķĮìĿĺ": 5110,
      "isplay": 5111,
      "ìłķë¶Ģ": 5112,
      "Ġê±°ë¦¬": 5113,
      "Ġì¸¡ë©´": 5114,
      "ĠëģĿëĤľ": 5115,
      "ì¡°ìĦł": 5116,
      "íĨłê°Ģ": 5117,
      "ĠìķĦë¦Ħ": 5118,
      "ë¬¼ë¡ľ": 5119,
      "Ġíĺķíĥľë¡ľ": 5120,
      "íĤ¤ë¥¼": 5121,
      "Ġë¬¼ìĸ´": 5122,
      "íķĺê¸°ë¡ľ": 5123,
      "ê³µìĿĦ": 5124,
      "ë¡¬": 5125,
      "Ġì¤ĳëĭ¨": 5126,
      "ĠìłĲíĶĦ": 5127,
      "se": 5128,
      "Ġíıīê°Ģë¥¼": 5129,
      "com": 5130,
      "Ġìĸ´ëłµëĭ¤": 5131,
      "ìĭľìķĪ": 5132,
      "ê¶ĮìĿ´": 5133,
      "ĠìĦ¤ê³Ħ": 5134,
      "Ġìŀ¥ê¸°": 5135,
      "ì¹´ìĿĺ": 5136,
      "Ġìłľìĭľ": 5137,
      "Ġon": 5138,
      "ìļ°ìĿĺ": 5139,
      "ìķłëĭĪ": 5140,
      "ëĿ¼ìĻĢ": 5141,
      "ĠìĻĦë£Į": 5142,
      "íģ¬ëŀĺíĶĦíĬ¸": 5143,
      "Ġíķ´ìĦĿ": 5144,
      "ĠìĨĮëħĦ": 5145,
      "AM": 5146,
      "Ġëª¨íĹĺ": 5147,
      "08": 5148,
      "íĭ°ìĸ´": 5149,
      "ìŀĦìĹĲëıĦ": 5150,
      "ĠìĤ¬ìĿ´ìĹĲìĦľ": 5151,
      "ë´¤": 5152,
      "Ġì¤ĳìĿ´ëĭ¤": 5153,
      "ĠëĶ±íŀĪ": 5154,
      "ë°ľìĿĦ": 5155,
      "Ġíİ¸ì§ĳ": 5156,
      "100": 5157,
      "Ġë³¸ìĿ¸ìĿĢ": 5158,
      "Ġì¢Ģë¹Ħ": 5159,
      "ĠìľłëıĦ": 5160,
      "ìĭľë¦¬ì¦Ī": 5161,
      "ëł¥ìĹĲ": 5162,
      "Ġíģ¬ëĭ¤": 5163,
      "IC": 5164,
      "ìĺ¹": 5165,
      "Ġì£¼ë¬¸": 5166,
      "ĠìĿ¸ê¸°ê°Ģ": 5167,
      "Ġì§ĢëĭĮ": 5168,
      "Ġë©¸ë§Ŀ": 5169,
      "íĴĪìĿĦ": 5170,
      "Ġì½ĶìĬ¤": 5171,
      "ìĽĲëŀĺ": 5172,
      "ë©ľ": 5173,
      "ĠëĬĲê»´": 5174,
      "ĠìµľëĮĢíķľ": 5175,
      "Ġë§Ĳê³ł": 5176,
      "ìĤ¬ëŀĮ": 5177,
      "ĠìĿ´ìļ©íķľ": 5178,
      "Ġë³´ë³ĳ": 5179,
      "ĠëĮĦ": 5180,
      "ëĭ¹ìĿ´": 5181,
      "ĠìºĲë¦ŃíĦ°ê°Ģ": 5182,
      "Ġì§ģìłĦ": 5183,
      "ìĦľê°Ģ": 5184,
      "Ġìķ½ìĨį": 5185,
      "ĠëģĿëĤ´": 5186,
      "ìĬ¤íĦ´": 5187,
      "Ġíĥľìĸĳ": 5188,
      "ìĿ´ëĿ¼ë©°": 5189,
      "ìłģìĿ´ê³ł": 5190,
      "Ġìĺ¤ë¥´": 5191,
      "line": 5192,
      "Ġì§§ìĿĢ": 5193,
      "íı¬ë¥¼": 5194,
      "ëŀĺëıĦ": 5195,
      "ĠëĲĺë©°": 5196,
      "Ġì§ĢëĭĪ": 5197,
      "ĠìĨĶë¡ľ": 5198,
      "arg": 5199,
      "ĠíĿ¬ë§Ŀ": 5200,
      "ì§ĪìĿ´": 5201,
      "ĠìĤ¬ìļ©íķľ": 5202,
      "ĠìĹĨê¸°": 5203,
      "ìĤ¬ê´Ģ": 5204,
      "ĠëĶ°ë¥¸": 5205,
      "ëĮĢìĹĲìĦľ": 5206,
      "ust": 5207,
      "ë¥Ń": 5208,
      "end": 5209,
      "íķĺìĺĢìľ¼ëĤĺ": 5210,
      "Ġë°©íķ´": 5211,
      "Ġë³ĳìĤ¬": 5212,
      "ĠìĿ¼ë°ĺìłģìĿ¸": 5213,
      "Ġre": 5214,
      "ĠìĥģëĮĢê°Ģ": 5215,
      "ãĤĪ": 5216,
      "ld": 5217,
      "Ġì¶Ķê°Ģë¡ľ": 5218,
      "ĠíĮĢìĿĦ": 5219,
      "ëĿ½ìĿĦ": 5220,
      "Ġê±°ìłĪ": 5221,
      "íļ¨ê³¼": 5222,
      "ìŀĲìĹĲê²Į": 5223,
      "Ġê±¸ìĸ´": 5224,
      "Ġë¨¹ëĬĶ": 5225,
      "Ġë¶Īë¦¬ëĬĶ": 5226,
      "ĠëĭĮ": 5227,
      "íıīê°Ģ": 5228,
      "ĠìķĦìĭľìķĦ": 5229,
      "ëį°ë¯¸": 5230,
      "ìĸ´ëĤ¬": 5231,
      "2006": 5232,
      "æĪ": 5233,
      "Ġê²¨ìļ°": 5234,
      "Ġê±°ìķ¼": 5235,
      "AC": 5236,
      "ìĿ¼ë¡ľ": 5237,
      "Ġìĭľìŀĳíķľ": 5238,
      "Ġë¿Ĳë§Į": 5239,
      "ĠìĥĮ": 5240,
      "Ġìķħë§Ī": 5241,
      "Ġê³łëĮĢ": 5242,
      "ì§Ģë°©": 5243,
      "Ġë°ĶëĢĮìĹĪëĭ¤": 5244,
      "ë§ĪìĬ¤": 5245,
      "ì¡°ê°Ģ": 5246,
      "ìĥģíĥľ": 5247,
      "ìķĦìĽĥ": 5248,
      "êµ¬ë¡ľ": 5249,
      "ë¦¬ìķĪ": 5250,
      "ong": 5251,
      "êµ¬ëĤĺ": 5252,
      "ëŁīìĿĺ": 5253,
      "ë¬´ê¸°": 5254,
      "Ġìĸĺê¸°": 5255,
      "ĠëĮĵ": 5256,
      "ĠìĹ¬íĸī": 5257,
      "ĠëĮĢëĨĵê³ł": 5258,
      "ob": 5259,
      "ĠìĹł": 5260,
      "Ġëĸ¨ìĸ´ìł¸": 5261,
      "ĠìĿ¸ë¥ĺ": 5262,
      "Ġê°ľìĿĺ": 5263,
      "ê²ģ": 5264,
      "ëĵ±ìŀ¥": 5265,
      "ĠëĲĺê¸°": 5266,
      "ì¦Īë¥¼": 5267,
      "ì§Ģì»¬": 5268,
      "Ġìĺ¤ë¦¬ì§ĢëĦĲ": 5269,
      "ìŀĺ": 5270,
      "Ġëĭ¤ë¦Ħ": 5271,
      "ĠëĤ¸": 5272,
      "ëıħêµĲ": 5273,
      "Ġê·¸ëŁ¼": 5274,
      "ĠìĽ¬": 5275,
      "ĠìĿ´ìłĦìĹĲ": 5276,
      "íķľíİ¸": 5277,
      "ìĺ¤ì¹´": 5278,
      "Ġêµ¬ì¶ķ": 5279,
      "ì°¨ìłĦ": 5280,
      "ĠëıĻë§¹": 5281,
      "ë§ĪìĿĦ": 5282,
      "ï¼ģ": 5283,
      "Ġë³´ìĿ´ì§Ģ": 5284,
      "íħį": 5285,
      "Ġì¥Ĳ": 5286,
      "Ġê¹Ĭ": 5287,
      "ëĭ¨ìĿĢ": 5288,
      "ë¦¬ìķĦìĿĺ": 5289,
      "ìķ¤": 5290,
      "Ġê°ľìĦł": 5291,
      "Ġë°Ķê¿Ķ": 5292,
      "ĠìĥĿê²¨": 5293,
      "ë©į": 5294,
      "Ġë°ĽìķĦëĵ¤": 5295,
      "íŀĪê³ł": 5296,
      "04": 5297,
      "ĠìłľìĻ¸íķĺê³ł": 5298,
      "ly": 5299,
      "ĠìłĬìĿĢ": 5300,
      "ëĭ¬ëĿ¼ê³ł": 5301,
      "ĠìłľìķĪ": 5302,
      "Ġìº¡": 5303,
      "Ġëį°ë¯¸ì§Ģ": 5304,
      "ì¹ĺê¸°": 5305,
      "ëĭĪê°Ģ": 5306,
      "Ġë¯¼ì¡±": 5307,
      "Ġìĸ´ëĬĲìłķëıĦ": 5308,
      "Ġit": 5309,
      "ĠëłĮ": 5310,
      "Ġê°ľíİ¸": 5311,
      "Ġë°Ģìĸ´": 5312,
      "ĠíĿ¡ìĪĺ": 5313,
      "ĠìĥĿê¸°": 5314,
      "ìĦľê´Ģ": 5315,
      "Ġê·¸ëłĪìĿ´": 5316,
      "Ġëª¨ìķĦ": 5317,
      "ëĲĺìĹĪëįĺ": 5318,
      "ëĳĳ": 5319,
      "íĶĦëŀĳ": 5320,
      "SS": 5321,
      "íĨ±": 5322,
      "ëħĦê°Ħ": 5323,
      "ãģĤ": 5324,
      "ĠìĪĺì¤ĢìĿĺ": 5325,
      "ìłĦìĤ¬": 5326,
      "ĠìĹĦì²ŃëĤĺê²Į": 5327,
      "ĠìĤ°ìĹħ": 5328,
      "ĠíķĦìĪĺ": 5329,
      "ë©Ķëĭ¬": 5330,
      "Ġë©Ģë¦¬": 5331,
      "ìĿĦëķĮ": 5332,
      "Ġì§ĳìĹĲ": 5333,
      "ëĲĺê¸°ëıĦ": 5334,
      "ĠìĬ¤íĤ¬ìĿĦ": 5335,
      "ìĬ¤íİĺ": 5336,
      ".(...)": 5337,
      "ãĥ©": 5338,
      "Ġëª¨íĭ°ë¸Į": 5339,
      "37": 5340,
      "FC": 5341,
      "ĠìŀĳìĦ±": 5342,
      "Ġë§Įëĵ¤ìĹĪëĭ¤": 5343,
      "Ġë¬¸ìłľë¡ľ": 5344,
      "ĠëģĿê¹Įì§Ģ": 5345,
      "ĠìķĮëł¤ì§Ħ": 5346,
      "ĠëłĪìłĦ": 5347,
      "ì§ĢìĽĲ": 5348,
      "ĠëĤ´ë¶Ģ": 5349,
      "ĠìĭľëĤĺë¦¬ìĺ¤": 5350,
      "ĠëķĮë¶ĢíĦ°": 5351,
      "ëĤ©": 5352,
      "Ġê¸°íļį": 5353,
      "ĠìĨįìĦ±": 5354,
      "ĠíĮĮíĬ¸": 5355,
      "íĮĲìĿ´": 5356,
      "Ġíķ´êµ°": 5357,
      "ĠìŀħíķĻ": 5358,
      "ĠìĤ¬ëł¹": 5359,
      "Ġìĺ¤íĨł": 5360,
      "ì°¾": 5361,
      "Ġê·Ģì¡±": 5362,
      "Ġìŀłê¹Ĳ": 5363,
      "ĠìĦľë¸Į": 5364,
      "ë¹ĦìĿĺ": 5365,
      "ĠëĪĪìĿĦ": 5366,
      "ë²łë¥´": 5367,
      "ĠëĶĶìŀĲ": 5368,
      "Ġê°ĢìĬ´": 5369,
      "íĥĢìĿĺ": 5370,
      "ĠìĿ´íķĺ": 5371,
      "ĠìĨĮë¦¬ë¥¼": 5372,
      "ĠíĻĶìĹ¼": 5373,
      "Ġì¦Ŀê±°": 5374,
      "ë¿": 5375,
      "ĠíķľêµŃìĿĺ": 5376,
      "Ġê¼´": 5377,
      "ĠìĨįìĹĲìĦľ": 5378,
      "Ġë³´ì»¬": 5379,
      "ë¯¸ëĦĲ": 5380,
      "ê¶ĮìĿĺ": 5381,
      "Ġìĸ´ìļ¸": 5382,
      "ëŁīìĿĢ": 5383,
      "ìĿ´ìĹĪì§Ģë§Į": 5384,
      "Ġë°Ķíĥķìľ¼ë¡ľ": 5385,
      "Ġë¶Ģëĭ´": 5386,
      "Ġê¸¸ìĿĦ": 5387,
      "ëĵľëĿ¼": 5388,
      "Ġìĭ¶ìĸ´": 5389,
      "ĠìĿ´íĽĦìĹĲëĬĶ": 5390,
      "Ġíĺľ": 5391,
      "Ġíıīë²Ķíķľ": 5392,
      "ë§Īë¦¬": 5393,
      "ìĿ¸ë¯¼": 5394,
      "ìħĭ": 5395,
      "ĠìķĮëłī": 5396,
      "ĠëĤ³": 5397,
      "ĠëĤ´ìļ©ìĿĦ": 5398,
      "Ġê±¸ë¡ľ": 5399,
      "Ġê°Ģìłķ": 5400,
      "IA": 5401,
      "ëĭ¨íŀĪ": 5402,
      "Ġëį´": 5403,
      "ì¥¬": 5404,
      "ë¡łìĿ´": 5405,
      "ĠíŀĺìĿ´": 5406,
      "ëĶĶìħĺ": 5407,
      "ìĥ·": 5408,
      "ê¸°ë³¸": 5409,
      "ĠëĴ¤ë¡ľ": 5410,
      "Ġíı¬ë¥´": 5411,
      "ĠìĿ¸ê¸°ë¥¼": 5412,
      "ê²©ìĿ´": 5413,
      "Ġë³´ìĹ¬ì£¼ëĬĶ": 5414,
      "ê²ĥìĿ´": 5415,
      "ĠìĬ¤ì¹´": 5416,
      "ìĺ¤ê°Ģ": 5417,
      "Ġì½ĶëĦĪ": 5418,
      "íĦ°ìĿĺ": 5419,
      "ë¨¼íĬ¸": 5420,
      "íĮ¡": 5421,
      "ĠPC": 5422,
      "Ġê·¼ê±°": 5423,
      "ĠìĹĨìľ¼ë©°": 5424,
      "Ġê°±": 5425,
      "ìĤ¬íĤ¤": 5426,
      "Ġì´Īë°ĺìĹĲ": 5427,
      "Ġíļ¨ìľ¨": 5428,
      "Ġì£¼ëıĦ": 5429,
      "ä¸Ń": 5430,
      "íķ¨ìĿ´": 5431,
      "ĠëħĢìĦĿ": 5432,
      "ìĹ°íķ©": 5433,
      "çİ": 5434,
      "ĠìĹī": 5435,
      "Ġë¹ĦëĶĶìĺ¤": 5436,
      "ìĹ¬ìŀĲ": 5437,
      "Ġëª»íķ´": 5438,
      "ĠíĮ©": 5439,
      "ê´": 5440,
      "ĠìĽĲìłķ": 5441,
      "ĠìĥģíĻ©ìĹĲ": 5442,
      "Ġ300": 5443,
      "ĠìĤ¬ëŀĮëĵ¤": 5444,
      "ĠìĿ´ìķ¼ê¸°ê°Ģ": 5445,
      "ĠíĥĢìĿ´ë°į": 5446,
      "ëĲĺìĹĪëĬĶëį°": 5447,
      "ĠëıĦìĽĢìĿ´": 5448,
      "Ġì£¼ìĹ°": 5449,
      "ê°ĸ": 5450,
      "ĠìĻ¸êµŃìĿ¸": 5451,
      "Ġê´ĳì£¼": 5452,
      "ëĵ±ìĿĦ": 5453,
      "ìĺ¤ìĿĺ": 5454,
      "ĠíĻ©ìłľ": 5455,
      "ĠìĤ¬ìĥģ": 5456,
      "Ġíķµìĭ¬": 5457,
      "Ġìłľì¡°": 5458,
      "ĠíĭĪ": 5459,
      "Ġë®¤ì§ģ": 5460,
      "Ġì§ĦíĻĶ": 5461,
      "ĠìŀĲìĤ´": 5462,
      "ĠìĨįëıĦê°Ģ": 5463,
      "Ġë§ĮìĹĲ": 5464,
      "íķĺê²ĮëıĦ": 5465,
      "ìĤŃ": 5466,
      "OR": 5467,
      "Ġë²ĶìľĦ": 5468,
      "Ġë°©ìĭĿìľ¼ë¡ľ": 5469,
      "ĠìĹĨê²Į": 5470,
      "íĬ¸ëĤ¨": 5471,
      "ĠìķĬìľ¼ë©°": 5472,
      "Ġì±ħìŀĦ": 5473,
      "éĽ": 5474,
      "Ġê¾¸ì¤ĢíŀĪ": 5475,
      "ê¸°ìĹĲëĬĶ": 5476,
      "ê¼¬": 5477,
      "ëĲĺìŀĲ": 5478,
      "íĨłìĿĺ": 5479,
      "ë¬µ": 5480,
      "íĺĦìĿĺ": 5481,
      "ĠëĤĺëĪ": 5482,
      "ĠëĵľëĿ¼ìĿ´": 5483,
      "Ġìłķëĭ¹": 5484,
      "ìĭĿìĿĢ": 5485,
      "Ġìķłë§¤": 5486,
      "Ġê²Įìĭľ": 5487,
      "ĠìĪĺíĺ¸": 5488,
      "ĠíĮĮìķħ": 5489,
      "ìĤ¬ìļ©": 5490,
      "Ġê±": 5491,
      "Ġê°ķìłľ": 5492,
      "Ġê°ľíĨµ": 5493,
      "ìĻĢìĦľ": 5494,
      "Ġíĸ¥íķ´": 5495,
      "ĠâĢĵ": 5496,
      "ì¹ĺì§Ģ": 5497,
      "Ġë¸ĮëłĪìĿ´": 5498,
      "ì¹ĺìĹĲ": 5499,
      "ëħĦìĿ´": 5500,
      "Ġì¤ĳìĹĲìĦľëıĦ": 5501,
      "íĹ¬": 5502,
      "ìį": 5503,
      "íĮĮìĿ´ìĸ´": 5504,
      "ëį©": 5505,
      "90": 5506,
      "ìĪĺìĻĢ": 5507,
      "ĠìŀĲìĭłìĹĲê²Į": 5508,
      "Ġë¿ĲìĿ´ëĭ¤": 5509,
      "Ġê°ĲìĹ¼": 5510,
      "ìĿĢíĸī": 5511,
      "å¾": 5512,
      "ë°ĽìķĦ": 5513,
      "Ġìļ°ëł¤": 5514,
      "Ġë´īìĿ¸": 5515,
      "ĠìĥģëĮĢìłģìľ¼ë¡ľ": 5516,
      "íĸ¥ìĿ´": 5517,
      "ìĤ¬ìĿ¸": 5518,
      "Ġìĭľíĸī": 5519,
      "47": 5520,
      "ìŀĲëĵ¤ìĿĦ": 5521,
      "Ġë³´ê¸ī": 5522,
      "Ġì°¨ë¡Ģ": 5523,
      "ìĿ¸ê°Ħ": 5524,
      "ĠìĿ´ê²ĥìĿĢ": 5525,
      "Ġê·¸ëĵ¤ìĿĺ": 5526,
      "ì³ĲìĦľ": 5527,
      "ĠëŀĢ": 5528,
      "ĠìĬ¹ê°ķ": 5529,
      "ew": 5530,
      "Ġìĸ¸ìĸ´": 5531,
      "ĠëĦĺìĸ´ê°Ģ": 5532,
      "ìĬ¤íĤ¤": 5533,
      "ê²½ì°°": 5534,
      "Ġì£½ìĿ´": 5535,
      "Ġê´ĢíĨµ": 5536,
      "ĠìĽĲíķĺëĬĶ": 5537,
      "Ġëŀĺ": 5538,
      "Ġìĭ¶ìĿĢ": 5539,
      "Ġë°ľíľĺ": 5540,
      "ĠìĿĺìĭ¬": 5541,
      "ĠìĬµê²©": 5542,
      "Ġíİĺë¥´": 5543,
      "Ġìĸ´ì°Į": 5544,
      "ë²łìĿ´": 5545,
      "Ġíŀĺëĵ¤ëĭ¤": 5546,
      "ëĿ¼ë¦¬": 5547,
      "ëŀľëĵľìĿĺ": 5548,
      "36": 5549,
      "ĠìĹ¬ê²¨": 5550,
      "ëĮĢìĻĢ": 5551,
      "ëģ¼ë¦¬": 5552,
      "Ġëį©": 5553,
      "ĠíķĦìĤ´": 5554,
      "Ġè": 5555,
      "ìłĲìĹĲ": 5556,
      "Ġê°ķì¡°": 5557,
      "ud": 5558,
      "Ġíķ´ì£¼": 5559,
      "Ġë°ĺìĺģ": 5560,
      "Ġë§Ĳíķ´": 5561,
      "Ġê²ĮìŀĦìĿĺ": 5562,
      "Ġê²ĮìĿ´": 5563,
      "Ġëĭ¨ì²´": 5564,
      "ìŀĪëįĺ": 5565,
      "ĠìĽĲê±°ë¦¬": 5566,
      "Ġë§¡ìķĺëĭ¤": 5567,
      "Ġ1999": 5568,
      "Ġ1000": 5569,
      "ëħĦìĿĦ": 5570,
      "Ġê°Ħëĭ¤": 5571,
      "Ġëĭ¨ëıħ": 5572,
      "ĠìŀĦë¬´": 5573,
      "Ġê·¸ëħĢëĬĶ": 5574,
      "Ġì¶Ķê°ĢëĲľ": 5575,
      "Ġìĺ¤ìĬ¤íĬ¸": 5576,
      "íĨłë¥¼": 5577,
      "ëķħ": 5578,
      "ìķĦìĭľìķĦ": 5579,
      "íĺķìĿĺ": 5580,
      "ĠìĥģëĮĢë¥¼": 5581,
      "ãģĻ": 5582,
      "ìĤ¬íļĮ": 5583,
      "ĠìĤ¬ê±´ìĿ´": 5584,
      "ìĺ¤ìĬ¤": 5585,
      "ê´Ģë¦¬": 5586,
      "ĠìľĦë¡ľ": 5587,
      "Ġê·¸ëħĢë¥¼": 5588,
      "Ġê³ĦìĤ°": 5589,
      "ĠëĬĺìĸ´ëĤĺ": 5590,
      "ê²ĮëıĦ": 5591,
      "Ġbe": 5592,
      "ĠëįĶë¸Ķ": 5593,
      "Ġê¶¤": 5594,
      "íķµ": 5595,
      "Ġë¬´ê¸°ë¥¼": 5596,
      "ë³´ìĬ¤": 5597,
      "ëĤĺë¯¸": 5598,
      "Ġê´ĳê³ł": 5599,
      "Ġë°ĺëŀĢ": 5600,
      "Ġì¢ħíķ©": 5601,
      "Ġ45": 5602,
      "ëĬĲëĥĲ": 5603,
      "Ġíľ": 5604,
      "íķĺëŁ¬": 5605,
      "äºº": 5606,
      "Ġíı°": 5607,
      "Ġ1998": 5608,
      "ĠìĬ¤íİĺìĿ¸": 5609,
      "ì¡°ë¥¼": 5610,
      "ëŁ¬ë¥¼": 5611,
      "¼Ī": 5612,
      "ĠìķĬìķĺê³ł": 5613,
      "Ġì§ĢìĹŃìĿĺ": 5614,
      "ĠëĲĲëĭ¤": 5615,
      "ìĪĺìĹĲ": 5616,
      "Ġëĸ¨ìĸ´ì§ĢëĬĶ": 5617,
      "Ġë§Įì¡±": 5618,
      "iv": 5619,
      "Ġë¶Ģìĥģ": 5620,
      "ìĤ¬ìĹħ": 5621,
      "Ġë¨¸ë¦¬ë¥¼": 5622,
      "Ġì£¼ìĸ´": 5623,
      "ĠìłĦìŀĲ": 5624,
      "Ġì»¨íĬ¸ë¡¤": 5625,
      "íĻĶë¡ľ": 5626,
      "ĠíķĺëĤĺê°Ģ": 5627,
      "Ġëª¨ìŀĲ": 5628,
      "ìłĦìŀĲ": 5629,
      "Ġë©Ģíĭ°": 5630,
      "íĨ°": 5631,
      "Ġê¶ģê·¹": 5632,
      "Ġê´Ģê´ĳ": 5633,
      "ê¸´ëĭ¤": 5634,
      "ìĦ¸íĬ¸": 5635,
      "ĠìĹĺë¦¬": 5636,
      "ë¦ĩ": 5637,
      "ê¹Įì§ĢìĿĺ": 5638,
      "ë¹ĦëĬĶ": 5639,
      "Ġì¶©ëıĮ": 5640,
      "ĠëĤľìĿ´ëıĦ": 5641,
      "ĠìķĦì¹¨": 5642,
      "ĠíķĢ": 5643,
      "Ġìļ©ë³ĳ": 5644,
      "Ġê´ĳìĹŃ": 5645,
      "ìĭ¬íŀĪ": 5646,
      "ëĲĺëĬĶëį°": 5647,
      "ĠíĥĢìŀĦ": 5648,
      "ĠíĻľìķ½ìĿĦ": 5649,
      "ìĥĿìĿĦ": 5650,
      "å¥": 5651,
      "Ġëĸ¨": 5652,
      "Ġê¹İ": 5653,
      "Ġë¶ķê´´": 5654,
      "ìłĲìĹĲìĦľ": 5655,
      "Ġëĭ¹íĻ©": 5656,
      "ì¤¬ëĭ¤": 5657,
      "Ġëī´ìļķ": 5658,
      "Ġì§Ģê¸ī": 5659,
      "ĠíĬ¸ëłĪìĿ´": 5660,
      "Ġìľłìļ°": 5661,
      "ãģĳ": 5662,
      "ë¸ĮëĿ¼": 5663,
      "Ġì°°": 5664,
      "Ġì¶ľë°ľ": 5665,
      "ign": 5666,
      "2005": 5667,
      "Ġì¤ĳíĻĶ": 5668,
      "Ġì¶ĶìłķëĲľëĭ¤": 5669,
      "ê´ĢìĿĢ": 5670,
      "ĠìĿĺìĽĲ": 5671,
      "Ġìķ¡ìħĺ": 5672,
      "Ġë°°ê²½ìľ¼ë¡ľ": 5673,
      "Ġíı¬ìĿ¸íĬ¸": 5674,
      "ĠìĨįìĹĲ": 5675,
      "Ġê¸°ì²´": 5676,
      "ĠìķĦìĽĥ": 5677,
      "Ġê³µíĨµ": 5678,
      "ìĭľìĻĢ": 5679,
      "ock": 5680,
      "ë©Ķë¦¬ì¹´": 5681,
      "ì¡¸": 5682,
      "ìķĺì§Ģë§Į": 5683,
      "ĠíŀĪíĬ¸": 5684,
      "AL": 5685,
      "Ġìĺ¤ëĬĶ": 5686,
      "ĠêµŃíļĮìĿĺìĽĲ": 5687,
      "av": 5688,
      "ĠìĬ¤íİĻ": 5689,
      "Ġê±´ëĦĪ": 5690,
      "Ġìĥģíĥľê°Ģ": 5691,
      "ĠëıĻìĿ¼íķľ": 5692,
      "ĠìŀĲê¸°ê°Ģ": 5693,
      "ì¹ĺìĻĢ": 5694,
      "Ġìī¬ìļ´": 5695,
      "out": 5696,
      "Ġ32": 5697,
      "ãģķ": 5698,
      "idth": 5699,
      "Ġìĺ¨ëĿ¼ìĿ¸": 5700,
      "Ġê³łë¯¼": 5701,
      "Ġë°Ģëł¤": 5702,
      "Ġê²ĮìŀĦìĿ´": 5703,
      "ê°Ĳëıħ": 5704,
      "ë¬´ìĽĲ": 5705,
      "BO": 5706,
      "ĠíİĺìĿ´": 5707,
      "íķĺê¸°ìĹĲ": 5708,
      "ê¸°ë§Į": 5709,
      "ĠíĸĪëĭ¤ê³ł": 5710,
      "Ġë°°ìĭł": 5711,
      "Ġê³µìĤ°": 5712,
      "ĠìĦ¤ëĵĿ": 5713,
      "ĠíķĺëĤĺë¥¼": 5714,
      "Ġì§Ģëªħ": 5715,
      "ë£¨ìĿĺ": 5716,
      "ĠìłĦìĪł": 5717,
      "Ġì°©ìļ©": 5718,
      "Ġê³µíķŃ": 5719,
      "Ġë¶ĦìĦĿ": 5720,
      "å¸": 5721,
      "ore": 5722,
      "Ġë°¸ëŁ°": 5723,
      "éĩĳ": 5724,
      "ç¥": 5725,
      "ìĿ¸ì§ĢëĿ¼": 5726,
      "ë¡ľìĦľìĿĺ": 5727,
      "ëŀ¬": 5728,
      "Ġìŀ¬ë¯¸": 5729,
      "ĠìĿ¸ìĤ¬": 5730,
      "ĠìķĪíĥĢ": 5731,
      "|-": 5732,
      "ìŀĲëıĻ": 5733,
      "íŀĺ": 5734,
      "íĥ±": 5735,
      "ĠìĿ´ê²ĥìĿ´": 5736,
      "ì²«": 5737,
      "Ġì¶¤": 5738,
      "ëª¸": 5739,
      "ww": 5740,
      "ìķĪíĥĢ": 5741,
      "ë£©": 5742,
      "íķĺê¸´": 5743,
      "70": 5744,
      "(âĢ¦": 5745,
      "Ġì»¤ë²Ħ": 5746,
      "ll": 5747,
      "ç¾": 5748,
      "ìŀĳìĿĺ": 5749,
      "ĠII": 5750,
      "ĠêµŃê°ĢëĮĢíĳľíĮĢ": 5751,
      "ë£¨ë¥¼": 5752,
      "ë©Ģ": 5753,
      "ĠâĨ": 5754,
      "ãģªãģĦ": 5755,
      "Ġë²ĦíĶĦ": 5756,
      "Ġëªħì¤ĳ": 5757,
      "Ġr": 5758,
      "ê¶ĮìĹĲìĦľ": 5759,
      "ì§ĦìĿĢ": 5760,
      "OS": 5761,
      "Ġë³´ìĪĺ": 5762,
      "Ġìĺ¨ê°ĸ": 5763,
      "ëĭĪìĸ´": 5764,
      "ë§ĲìĿĦ": 5765,
      "ë°´": 5766,
      "ĠìĿ´ë¡ł": 5767,
      "ê³µìĿĺ": 5768,
      "ë°°ìļ°": 5769,
      "Ġíĸīë³µ": 5770,
      "ìĬ¤íĬ¸ë¡ľ": 5771,
      "Ġì²´íı¬": 5772,
      "ë¦¬ëĤĺ": 5773,
      "ĠFI": 5774,
      "ìĸ´ìł¸": 5775,
      "ĠìĿĦ": 5776,
      "ìĦłìĹĲìĦľ": 5777,
      "ĠÂ·": 5778,
      "ëłĻ": 5779,
      "75": 5780,
      "order": 5781,
      "Ġë¯¸ì¹ľ": 5782,
      "ĠëĿ¼ìĿ´íĬ¸": 5783,
      "ĠëĮĢëĭ¤": 5784,
      "ëŀ©": 5785,
      "Ġìĭ¤ì§Ī": 5786,
      "ĠìŀĪìľ¼ë¯Ģë¡ľ": 5787,
      "Ġìļ°ìĬ¹ìĿĦ": 5788,
      "Ġì¥¬": 5789,
      "ê³Ħë¡ľ": 5790,
      "ĠìķĬê¸°": 5791,
      "êµŃìĿ´": 5792,
      "Ġì»¤ë®¤ëĭĪíĭ°": 5793,
      "Ġê°Ģìŀħ": 5794,
      "Ġis": 5795,
      "íĿ¡": 5796,
      "ìºł": 5797,
      "Ġë¥´": 5798,
      "ëį°ìĬ¤": 5799,
      "ĠíķĦìļĶíķĺëĭ¤": 5800,
      "ëĭ¨ìľ¼ë¡ľ": 5801,
      "Ġì±Ħìļ©": 5802,
      "ĠëªħìĺĪ": 5803,
      "ëł¥ëıĦ": 5804,
      "Ġêµ¬ìŀħ": 5805,
      "Ġì§Ħìĺģ": 5806,
      "Ġíĳľì¤Ģ": 5807,
      "ĠíĺĦìŀ¬ìĿĺ": 5808,
      "Ġëĵ¤ìĸ´ìĺ¤": 5809,
      "Ġê²ĥìĿ´ìĹĪëĭ¤": 5810,
      "ĠìĭľìłĲìĹĲìĦľ": 5811,
      "īį": 5812,
      "ìĹĪê¸°": 5813,
      "ure": 5814,
      "ëĤ´ê°Ģ": 5815,
      "ĠìĤ¬ëŀĮëĵ¤ìĿĦ": 5816,
      "ì°¨íĶ¼": 5817,
      "Ġëª¨ë¥¸ëĭ¤": 5818,
      "Ġì¹´íİĺ": 5819,
      "Ńī": 5820,
      "Ġë²łìĿ´ìĬ¤": 5821,
      "Ġë§Īëł¨": 5822,
      "ĠìĹŃìľ¼ë¡ľ": 5823,
      "add": 5824,
      ",#": 5825,
      "ĠìĻ¸ìĹĲ": 5826,
      "ìĨįëıĦ": 5827,
      "ĠìĺĪìłĦ": 5828,
      "ĠìĹĲëĦĪì§Ģ": 5829,
      "åº": 5830,
      "ĠìĻĢì¤ĳìĹĲ": 5831,
      "Ġë²ĦíĬ¼": 5832,
      "Ġêµ¬ìĹŃ": 5833,
      "ĠëĴ¤ì§ĳ": 5834,
      "ĠìĤ´ì§Ŀ": 5835,
      "ĠìĤ¬íķŃ": 5836,
      "ë§ĮìĽĲ": 5837,
      "ect": 5838,
      "ĠíĻįì½©": 5839,
      "ĠëĤ´ëĤ´": 5840,
      "ĠëĤ´ìļ©ìĿ´": 5841,
      "age": 5842,
      "ìĬ¤íĮħ": 5843,
      "ë¨¹ëĬĶ": 5844,
      "ere": 5845,
      "ìĽĮëĵľ": 5846,
      "êº¼": 5847,
      "ì§Ģê¸Ī": 5848,
      "ĠíĻ©ê¸Ī": 5849,
      "ê°ľë°ľ": 5850,
      "ĠìłĦëĭ¬": 5851,
      "ĠëŃĶê°Ģ": 5852,
      "Ġì£ł": 5853,
      "ĠìŀħìĿĢ": 5854,
      "ìĿ´ê²Į": 5855,
      "ë¬¸ìĿĺ": 5856,
      "ìĭľìĦ¤": 5857,
      "ĠìĦ¼íĦ°": 5858,
      "éĢ": 5859,
      "Ġëĵ±ëĵ±": 5860,
      "Ġê²ĥìĿ´ëĿ¼ëĬĶ": 5861,
      "Ġìĸ»ìĿĢ": 5862,
      "display": 5863,
      "ìķĺëĭ¤ê³ł": 5864,
      "ass": 5865,
      "ë¦¬ëĭ¤": 5866,
      "ãĥĪ": 5867,
      "Ġëī´ìĬ¤": 5868,
      "ft": 5869,
      "ĠìĨĮíĶĦíĬ¸": 5870,
      "Ġíİ¸ìĦ±": 5871,
      "ìĺģìĥģ": 5872,
      "çĽ": 5873,
      "2004": 5874,
      "ĠìĤ¬ìĭ¤ìĿ´": 5875,
      "Ġìķ½íķľ": 5876,
      "ĠìĹħê·¸ëłĪìĿ´ëĵľ": 5877,
      "ê¸°ìĿ¸": 5878,
      "ĠëĳĺìĿ´": 5879,
      "íģ°": 5880,
      "ë§ĮìĿĢ": 5881,
      "VE": 5882,
      "ĠìĿĺìĤ¬": 5883,
      "ĠHP": 5884,
      "Ġíķ¸": 5885,
      "íķĻìĿĦ": 5886,
      "ë²¼": 5887,
      "ì¤ĳìķĻ": 5888,
      "Ġë°Ľê²Į": 5889,
      "Ġì½©": 5890,
      "Ġëĭ¹ìŀ¥": 5891,
      "ìĿ´ëŁ°": 5892,
      "46": 5893,
      "ëĭĺìĿ´": 5894,
      "Ġê·¸ê²ĥìĿĦ": 5895,
      "ome": 5896,
      "ĠíĽĮë¥Ń": 5897,
      "ëłģ": 5898,
      "ìĽĲìłĦ": 5899,
      "Ġ1997": 5900,
      "Ġìĸ´ì©Ķ": 5901,
      "ìĻľ": 5902,
      "LC": 5903,
      "Ġì¹´ì¦Ī": 5904,
      "31": 5905,
      "Ġíĺ¼ëŀĢ": 5906,
      "ĠíıŃíĥĦ": 5907,
      "ìĽ¨ìĿ´": 5908,
      "ĠìķĦìĬ¤": 5909,
      "ĠíĥĳìĬ¹": 5910,
      "ë¯¸ëĭĪ": 5911,
      "ĠìĦ±ìļ°ëĬĶ": 5912,
      "íĬ¹ë³Ħìĭľ": 5913,
      "Ġê³µìľł": 5914,
      "Ġíķĺëĭ¤ê°Ģ": 5915,
      "ê°ĢëĬ¥": 5916,
      "Ġë§Įëĵ¤ê³ł": 5917,
      "ë©´ìĦľëıĦ": 5918,
      "å±±": 5919,
      "Ġë°´ëĵľ": 5920,
      "ë©´ìĹĲ": 5921,
      "ê²¨ì§Ħ": 5922,
      "ĠíĿ°": 5923,
      "Ġë§ĲëıĦ": 5924,
      "Ġíķĺê¸°ëıĦ": 5925,
      "Ġëį®": 5926,
      "Ġíķĺëįĺ": 5927,
      "íģ¬ëĿ¼": 5928,
      "ìĭľì½Ķ": 5929,
      "ëİ": 5930,
      "ĠìĬ¤íĥł": 5931,
      "Ġì½Ķë¯¹": 5932,
      "ĠìķĬìķĦìĦľ": 5933,
      "ĠìĿ¸ì§Ģ": 5934,
      "ìĦłìĿĢ": 5935,
      "Ġì·¨ìŀĦ": 5936,
      "ĠëĤ©ì¹ĺ": 5937,
      "ĠëĪĦê°Ģ": 5938,
      "ĠëĲĺìŀĲ": 5939,
      "ê´ĢìĿĺ": 5940,
      "Ġ1996": 5941,
      "ì¦ĿìĿĦ": 5942,
      "íķ´ìł¸": 5943,
      "ìĦ°": 5944,
      "ìĿ¼ìĹĲëĬĶ": 5945,
      "ĠìĤ½": 5946,
      "ëĦ¬": 5947,
      "Ġë¦´": 5948,
      "ĠìĻ¼ìª½": 5949,
      "Ġê°ĸì¶Ķ": 5950,
      "Ġë¶Ļìŀ¡": 5951,
      "ĠëĨĵê³ł": 5952,
      "ëį±": 5953,
      "ì§ģìĿĦ": 5954,
      "ìľłëŁ½": 5955,
      "Ġê·¼ë¬´": 5956,
      "95": 5957,
      "Ġê±°ëĮĢ": 5958,
      "ĠìºĶ": 5959,
      "Ġëĭ¹ìĭľìĹĲëĬĶ": 5960,
      "ĠíĻįë³´": 5961,
      "ĠíĮ¨ëŁ¬ëĶĶ": 5962,
      "Ġë§ĮëĤľ": 5963,
      "ëıĻìĹĲ": 5964,
      "ìļ©ìĿĦ": 5965,
      "ìĻķìĿ´": 5966,
      "ĠíĥĦìĥĿ": 5967,
      "ĠìĺĨìĹĲ": 5968,
      "ìłģìĿĺ": 5969,
      "Ġë²Ħíĭ°": 5970,
      "Ġìĭłì²´": 5971,
      "Ġë¶Īëªħ": 5972,
      "ãĢĤ": 5973,
      "Ġê·¸ê²Į": 5974,
      "Ġë§Īì£¼": 5975,
      "íķłëķĮ": 5976,
      "Ġêº": 5977,
      "ë©´ìĿĦ": 5978,
      "íĮĲìĹĲ": 5979,
      "ĠSh": 5980,
      "ĠëłĪìĿ´ìłĢ": 5981,
      "ë¨¸ë¦¬": 5982,
      "Ġì¡°ìłķ": 5983,
      "ëĵ¤ìĿ´ëĭ¤": 5984,
      "ĠìĻ¸êµĲ": 5985,
      "ìķĺëĬĶëį°": 5986,
      "Ġì¤Ħìĸ´ëĵ¤": 5987,
      "ìĿ´ëķĮ": 5988,
      "ëĲĺìĹĪìľ¼ëĤĺ": 5989,
      "ĠëķĮëł¤": 5990,
      "ìĭľìĬ¤": 5991,
      "ĠìŀĳìłĦ": 5992,
      "ĠëĮĢê³µ": 5993,
      "Ġì¶Ķê°ĢëĲĺìĹĪëĭ¤": 5994,
      "ĠíĮĢìĿĢ": 5995,
      "Ġëĵ¤ìĸ´ìĦľ": 5996,
      "ëŀŃíģ¬": 5997,
      "AS": 5998,
      "Ġì²ĺì¹ĺ": 5999,
      "ìĿĮìķħ": 6000,
      "Ġìĭ¤íĸī": 6001,
      "ĠTh": 6002,
      "Ġê²¨ìļ¸": 6003,
      "íĨ¨ë¦Ń": 6004,
      "ĠìłģìĹĲê²Į": 6005,
      "ess": 6006,
      "ìħ¨": 6007,
      "ĠëĳĺëŁ¬": 6008,
      "ĠëĤ´ìĹĲ": 6009,
      "ìĦłìľ¼ë¡ľ": 6010,
      "ëª¨ìĿĺ": 6011,
      "Ġì²ĺìĿĮë¶ĢíĦ°": 6012,
      "Ġê°Ģë¡ľ": 6013,
      "ĠìŁ": 6014,
      "ĠìĿĺëıĦ": 6015,
      "Ġê·¸ëŁ´": 6016,
      "Ġì½¤ë³´": 6017,
      "Ġ1995": 6018,
      "ĠìºĲëĤĺëĭ¤": 6019,
      "íĻĶëĬĶ": 6020,
      "Ġë²Ĺìĸ´ëĤĺ": 6021,
      "éĸ": 6022,
      "ĠëĪĪì¹ĺ": 6023,
      "ìļ°ìĬ¹": 6024,
      "ĠíĻķë¥łë¡ľ": 6025,
      "Ġíķ´ìĦ¤": 6026,
      "ë§ĪëĬĶ": 6027,
      "Ġêµ¬ëĭ¨": 6028,
      "ĠìĿ´ë¥´": 6029,
      "Ġëĵ¤ìĸ´ê°ĢëĬĶ": 6030,
      "ĠìĤ´ê³ł": 6031,
      "ìĿ¸ìĿ´ëĭ¤": 6032,
      "ê¸°ìĹĲìĦľ": 6033,
      "ĠìľłíĤ¤": 6034,
      "ĠìľĦíķĺìĹ¬": 6035,
      "Ġì§Ģíķĺì²ł": 6036,
      "Ġë³Ģíĺ¸": 6037,
      "Ġë°Ķë¥´": 6038,
      "ê±°ë¦¬ê°Ģ": 6039,
      "ìĦ¸ëĬĶ": 6040,
      "Ġê·¸ê³³": 6041,
      "Ġë°©ìĨ¡ìĿĦ": 6042,
      "ĠRe": 6043,
      "ĠëĦ¥": 6044,
      "Ġê³µìĿĦ": 6045,
      "ĠëĤĺìģľ": 6046,
      "Ġë§Īì§Ģë§īìľ¼ë¡ľ": 6047,
      "ĠëıĮíĮĮ": 6048,
      "ĠìłľêµŃìĿĺ": 6049,
      "Ġê²½ìĺģ": 6050,
      "Ġê°Ĵ": 6051,
      "Ġë¡ľì¼ĵ": 6052,
      "Ġê·¸ëĭ¤": 6053,
      "Ġìĵ°ì§Ģ": 6054,
      "ë°Ľìķĺëĭ¤": 6055,
      "ng": 6056,
      "ĠëĵĢìĸ¼": 6057,
      "ë°©ìĿ´": 6058,
      "ĠìĦľíı¬": 6059,
      "Ġëª¨ìħĺ": 6060,
      "ĠíĸīëıĻìĿĦ": 6061,
      "ë¥ĺê°Ģ": 6062,
      "Ġìĵ´ëĭ¤": 6063,
      "Ġë³´ìĹ¬ì£¼ìĹĪëĭ¤": 6064,
      "ìļ°ë¥¼": 6065,
      "Ġìłľê¸°": 6066,
      "íķĺì§ĢëĬĶ": 6067,
      "ĠìĥĿë¬¼": 6068,
      "sp": 6069,
      "êµ°ê³¼": 6070,
      "Ġì§ĳìķĪ": 6071,
      "ìĭľê°ĦìĿ´": 6072,
      "ĠëįķìĹĲ": 6073,
      "Ġëĸłìĺ¬": 6074,
      "ìĿ´ë¦Ħ": 6075,
      "Ġë§Ĳíķľ": 6076,
      "ĠìĥģëĮĢìĿĺ": 6077,
      "êµ¬ìĹŃ": 6078,
      "ĠìĹĲìĿ´ìĬ¤": 6079,
      "Ġì²łëıĦìĹŃ": 6080,
      "Ġì¡´ìŀ¬íķĺëĬĶ": 6081,
      "ìĦľìĿĺ": 6082,
      "ê°ģìĿĦ": 6083,
      "ê¶ĮìĹĲ": 6084,
      "ĠíĨµíķľ": 6085,
      "38": 6086,
      "Ġì¶Ķì§Ħ": 6087,
      "Ġë¡ľëĵľ": 6088,
      "ìĵ¸": 6089,
      "ĠìĻĢìĿ´": 6090,
      "êµŃê°Ģ": 6091,
      "ĠìĦ±ìłģ": 6092,
      "Ġìŀ¥ìķł": 6093,
      "ìķĺìĿĦ": 6094,
      "Ġë´Ħ": 6095,
      "Ġê³ĦìĨįíķ´ìĦľ": 6096,
      "Ġë³´ìĹ¬ì¤Ģ": 6097,
      "ĠìľĦìĹĲìĦľ": 6098,
      "ìŀ¥ìĿ¸": 6099,
      "Ġëĵ¤ìĸ´ê°Ħ": 6100,
      "Ġì§Ģìĺ¥": 6101,
      "Ġíķĳ": 6102,
      "Ġê°ĢëĵĿ": 6103,
      "êµŃë¯¼": 6104,
      "Ġë°ķìĤ´": 6105,
      "Ġìħ°": 6106,
      "Ġëĭ¹ìĦł": 6107,
      "ìĭ¼": 6108,
      "Ġê²ģ": 6109,
      "íķ´ì£¼ëĬĶ": 6110,
      "ì¡±ìĿĺ": 6111,
      "ìłĦìĹĲìĦľëĬĶ": 6112,
      "ĠìĿ¼ì¢ħìĿĺ": 6113,
      "íĶĦëĬĶ": 6114,
      "ĠãĢİ": 6115,
      "Ġì²ĺìĿĮìĹĲëĬĶ": 6116,
      "Ġë§İìķĺëĭ¤": 6117,
      "Ġì»¨íħĲì¸ł": 6118,
      "Ġë½ĳìķĦ": 6119,
      "Ġê³¨ëĵľ": 6120,
      "ìĭ¤ìłľë¡ľ": 6121,
      "ìĽĲëıĦ": 6122,
      "??": 6123,
      "ĠìĿ¸ê°ĦìĿĺ": 6124,
      "Ġìĭľíĭ°": 6125,
      ")\"": 6126,
      "ë°¤": 6127,
      "ĠìĺĪìĪł": 6128,
      "ĠìłĪë°ĺ": 6129,
      "ĠìĦ¸íĬ¸": 6130,
      "ĠìĦłë°°": 6131,
      "ĠìĬ¤íĤ¨": 6132,
      "ĠìŀĲëıĻì°¨": 6133,
      "Ġë¶Ģë¶ĦìĿĢ": 6134,
      "ĠìĿ´ëĵ¤": 6135,
      "Ġëĸ¼": 6136,
      "ëĤ´ë©°": 6137,
      "ĠíĨµìĿ¼": 6138,
      "34": 6139,
      "ĠëĤĺìĺ¤ëĬĶëį°": 6140,
      "ëįĺê°Ģ": 6141,
      "Ġëħ¸ëŀĺë¥¼": 6142,
      "ê³µìĭĿ": 6143,
      "ĠìĺģìĥģìĿĦ": 6144,
      "ë£¸": 6145,
      "Ġì¦Ŀëªħ": 6146,
      "are": 6147,
      "ëĵ±ê¸ī": 6148,
      "Ġëį°ë¦¬ê³ł": 6149,
      "ĠìĦ¸ìĿ´": 6150,
      "ĠìĭľëĤ´": 6151,
      "Ġê³ĦìĬ¹": 6152,
      "ĠíķĺìľĦ": 6153,
      "ìĨĮìĿĺ": 6154,
      "ĠíĻķë¥łìĿ´": 6155,
      "Ġê±´ê°ķ": 6156,
      "ĠëĮĢë¥Ļ": 6157,
      "ĠìĹ´ìĭ¬íŀĪ": 6158,
      "ê¸°ìĹħ": 6159,
      "Ġìŀ¬ìĥĿ": 6160,
      "éĿ": 6161,
      "ãĥª": 6162,
      "Ġê¸Ģë¡ľ": 6163,
      "ĠëĵĿìłĲ": 6164,
      "Ġê°ĲëıħìĿĺ": 6165,
      "Ġíķ´ìłľ": 6166,
      "ĠìĬ¤íĬľ": 6167,
      "ëª¨ëĵł": 6168,
      "ë³ĳìĿĦ": 6169,
      "ĠíĮĲíĥĢ": 6170,
      "ĠìĻĢìĦľ": 6171,
      "Ġì¿Ħ": 6172,
      "Ġìĺ¤ë¥¸ìª½": 6173,
      "Ġë³¸íİ¸": 6174,
      "Ġíĺĳëł¥": 6175,
      "ĠìľĦíķ´ìĦľëĬĶ": 6176,
      "ĠìĹ°ìĺĪ": 6177,
      "ĠìłģëıĦ": 6178,
      "ĠëĽ°ìĸ´ëĤĺ": 6179,
      "ĠìĬ¤íĥ¯": 6180,
      "32": 6181,
      "ì¹´ë¥¼": 6182,
      "íĸĪëĭ¤ê°Ģ": 6183,
      "ian": 6184,
      "ĠíĿĶíŀĪ": 6185,
      "ĠìĹŃìłĦ": 6186,
      "Ġë¸ĮëĿ¼ì§Ī": 6187,
      "ĠìĬ¤íĮĮ": 6188,
      "Ġíĺķìłľ": 6189,
      "Ġê¸°ëıħêµĲ": 6190,
      "Ġíı¼": 6191,
      "Ġì±Ħë¡ľ": 6192,
      "ĠìĿ´ìĥģíķľ": 6193,
      "Ġê¸°ìłĪ": 6194,
      "ê³µíĻĶêµŃ": 6195,
      "ĠìĹĲìĸ´": 6196,
      "ìĤ°ìĹħ": 6197,
      "ë¶ĢìĻĢ": 6198,
      "ê¸°ê°Ħ": 6199,
      "St": 6200,
      "Ġíķ´ì²´": 6201,
      "Ġë°ľìĿĮ": 6202,
      "Ġê±°ëŀĺ": 6203,
      "ë³Ħë¡ľ": 6204,
      "ëĦ¤ê°Ģ": 6205,
      "ìĽĲê³¼": 6206,
      "ãģ£ãģ¦": 6207,
      "ĠìłķëıĦëĬĶ": 6208,
      "ide": 6209,
      "ĠíĪ¬ìŀĲ": 6210,
      "ìĪŃ": 6211,
      "ĠìĹĨìĹĪëįĺ": 6212,
      "ĠíĽĦìĹĲëĬĶ": 6213,
      "ĠìĿ¼ë°ĺìłģìľ¼ë¡ľ": 6214,
      "íķŃê³µ": 6215,
      "Ġê³³ìĹĲìĦľ": 6216,
      "ĠìĿĢê·¼": 6217,
      "Ġìŀ¬ëĬ¥": 6218,
      "ìķĦë¦¬": 6219,
      "ìĭľíķľ": 6220,
      "ĠíĶĮëłĪìĿ´ìĸ´ê°Ģ": 6221,
      "ĠìĨĮë©¸": 6222,
      "ìĬ¤ìĹĲê²Į": 6223,
      "ĠêµĲíĻĺ": 6224,
      "Ġê±¸ëł¤": 6225,
      "ge": 6226,
      "Ġëĵ±íĮĲ": 6227,
      "Ġìĺ¤íĶĪ": 6228,
      "ĠSp": 6229,
      "ĠìłľìĿ´": 6230,
      "ĠìķĦìĿ´íħľìĿĦ": 6231,
      "íĤ¥": 6232,
      "ì§Ģë§Ī": 6233,
      "ĠìŀĲë¦¬ìĹĲ": 6234,
      "ìĭľìŀ¥": 6235,
      "ĠìĭłìĿ¸": 6236,
      "GM": 6237,
      "Ġìĸ¼êµ´ìĿĦ": 6238,
      "39": 6239,
      "ĠëĿ¼ìĿ´ë²Į": 6240,
      "Ġëª»íķł": 6241,
      "Ġìľµ": 6242,
      "ìĺĢëĭ¤ê³ł": 6243,
      "íĮĲìĹĲìĦľëĬĶ": 6244,
      "ê³ĦìĹĲìĦľ": 6245,
      "Ġê´Ģê³Ħë¥¼": 6246,
      "ĠëķĮë¬¸ìĿ¸ì§Ģ": 6247,
      "ĠìķĦë¬´ëŀĺëıĦ": 6248,
      "ĠìĿĺë¯¸ê°Ģ": 6249,
      "íķ´ì§ĢëĬĶ": 6250,
      "ĠìĤ¬ìĿ´ìĿĺ": 6251,
      "Ġë§¡ìĿĢ": 6252,
      "Ġìĭłë¢°": 6253,
      "Ġë¬´ëł¥": 6254,
      "Ġì¤ĳê°ĦìĹĲ": 6255,
      "Ġë§ĲìĿ´ëĭ¤": 6256,
      "ìķ¼êµ¬": 6257,
      "æ³": 6258,
      "íĭ°ìķĦ": 6259,
      "Ġê±·": 6260,
      "ëĭĪìĿĺ": 6261,
      "uc": 6262,
      "Ġê´Ģìĭ¬ìĿĦ": 6263,
      "Ġë¹Ħë¡Ŀ": 6264,
      "ê°ĢëĿ½": 6265,
      "ood": 6266,
      "Ġde": 6267,
      "ê»ı": 6268,
      "ĠìĤ¬ê±´ìĿĦ": 6269,
      "ê°ĢìĹĲ": 6270,
      "ĠìĿ¼ë¶ĢëŁ¬": 6271,
      "è¦": 6272,
      "ìĭľíĶ¼": 6273,
      "ì¦ĪëĬĶ": 6274,
      "Ġìķķë°ķ": 6275,
      "ĠíĶ¼ìķĦ": 6276,
      "Ġê·¸ë§Įíģ¼": 6277,
      "ëĶĶìĸ¸": 6278,
      "ĠìĻĶëĭ¤": 6279,
      "íĦ°ëĬĶ": 6280,
      "Ġë³´ìŀĲ": 6281,
      "Ġë§İê³ł": 6282,
      "ìĬ¤íĬ¸ë¥¼": 6283,
      "íķĻê¸ī": 6284,
      "ĠìĪľìĭĿ": 6285,
      "Ġë¬´ìĦľ": 6286,
      "Ġë£Į": 6287,
      "ĠìĥĿê°ģíķĺëĬĶ": 6288,
      "ë³´ëĭ¨": 6289,
      "Ġë±Ģ": 6290,
      "ĠìĦłìĪĺê°Ģ": 6291,
      "ĠíķĺëĤĺìĿ¸": 6292,
      "Ġì£¼ëł¥": 6293,
      "ĠìķĪëĲĺëĬĶ": 6294,
      "åŃĲ": 6295,
      "Ġê°Ģê¹ĮìĿ´": 6296,
      "ee": 6297,
      "Ġëŀľëį¤": 6298,
      "Ġborder": 6299,
      "ëĿ¼ìļ´": 6300,
      "na": 6301,
      "ë¦¬ìĸ¸": 6302,
      "ĠìĤ¬ëŀĮëıĦ": 6303,
      "ãģ¡": 6304,
      "ëħĦëıĦ": 6305,
      "ëĵľìĹĲìĦľ": 6306,
      "Ġë³´ëıĦ": 6307,
      "Ġë¶Ģì§Ħ": 6308,
      "Ġë¯¼ê°Ħ": 6309,
      "Ġê¸°íļĮë¥¼": 6310,
      "ĠëĤĺì¹´": 6311,
      "ë¶ĢëĮĢ": 6312,
      "Ġê·¸ëĭ¤ì§Ģ": 6313,
      "ìĦľë¡ľ": 6314,
      "Ġêº¾": 6315,
      "Ġbackground": 6316,
      "ran": 6317,
      "Ġë¶ĻìĹ¬": 6318,
      "ĠìķĦìĤ¬": 6319,
      "ë²Ħë¦¬ê³ł": 6320,
      "æ´": 6321,
      "ê¹Ķ": 6322,
      "ìĿ´ì¹ĺ": 6323,
      "ĠíĮĮê²¬": 6324,
      "âĻ": 6325,
      "ì¦Ĳ": 6326,
      "Ġëª©ìłģìľ¼ë¡ľ": 6327,
      "ìĸ´ì£¼": 6328,
      "ĠìĨĮìļ¸": 6329,
      "Ġë³´ìĿ´ê³ł": 6330,
      "Ġë§ŀìĿ´": 6331,
      "Ġìĵ°ëŁ¬ëľ¨": 6332,
      "ĠëıĮìķĦìĺ¤": 6333,
      "Ġìĭłì²Ń": 6334,
      "ĠíĻĶìĤ´": 6335,
      "ìĺ¤ë¥¼": 6336,
      "Ġìĭ¬ê°ģíķľ": 6337,
      "ìĿ´ìĹĪëĬĶëį°": 6338,
      "Ġë¹Ħíķĺë©´": 6339,
      "ĠìĿ´ëĵ¤ìĿ´": 6340,
      "Ġë¬´ëĤľ": 6341,
      "Ġê·¹ìŀ¥íĮĲ": 6342,
      "ire": 6343,
      "ĠìĿĮìĭĿ": 6344,
      "âĢĵ": 6345,
      "ìĿ¸ëıĦ": 6346,
      "Ġë§ĪëĤĺ": 6347,
      "44": 6348,
      "EC": 6349,
      "ê³¼ê±°": 6350,
      "ë¯¼ì£¼ëĭ¹": 6351,
      "ê¸īìĿĺ": 6352,
      "ĠíĨµíķ´ìĦľ": 6353,
      "ĠìĪĺìŀħ": 6354,
      "argin": 6355,
      "íķľìĿĺ": 6356,
      ")(": 6357,
      "ĠìķĦë¬´ëŁ°": 6358,
      "ë¶ĢìĤ°": 6359,
      "Ġì·¨ìĨĮ": 6360,
      "Ġê³łìĸĳ": 6361,
      "ì§±": 6362,
      "ãģĪ": 6363,
      "Ġì¦īìĭľ": 6364,
      "ĠìĤ¬ìĭ¤ìĿĢ": 6365,
      "êµŃìłľ": 6366,
      "ëĦĮ": 6367,
      "ìķħíķľ": 6368,
      "ĠíħĮëŁ¬": 6369,
      "Ġëĭ¿": 6370,
      "ìĥīìĿ´": 6371,
      "Ġê²Ĳ": 6372,
      "ä¸Ģ": 6373,
      "Ġìłķì²´": 6374,
      "ê±°ìļ´": 6375,
      "ĠìķĪìĬµ": 6376,
      "ize": 6377,
      "Ġë³´ìĿ´ë©°": 6378,
      "ĠìĪľìĭĿê°ĦìĹĲ": 6379,
      "Ġi": 6380,
      "ìŀĲëıĦ": 6381,
      "ĠìĪĺì¤Ģìľ¼ë¡ľ": 6382,
      "ê°Ģë©´": 6383,
      "íļĮëĬĶ": 6384,
      "Ġì¹ĺê³ł": 6385,
      "ê³łìĿĺ": 6386,
      "Ġë³µìŀ¡": 6387,
      "ĠìĿ´ëŀĺ": 6388,
      "Ġë°ľë§¤ëĲľ": 6389,
      "Ġ1980": 6390,
      "Ġê³µìŀĳ": 6391,
      "Ġê³µê²©ìĿ´": 6392,
      "ĠìĿ´ìĬ¬": 6393,
      "ì¶ķêµ¬": 6394,
      "ëĥĲë©°": 6395,
      "ìħ°": 6396,
      "ĠëĤľìĿ´ëıĦê°Ģ": 6397,
      "Ġë³´ìĥģ": 6398,
      "íĮĲìĿĢ": 6399,
      "å¼": 6400,
      "ì¹ľêµ¬": 6401,
      "ĠëĴ¤ë¥¼": 6402,
      "ê¸°íĥĢ": 6403,
      "ĠëĮĢë¡ľ": 6404,
      "Ġê³µì£¼": 6405,
      "ĠìĬ¤ì¼Ģ": 6406,
      "ì¦ĪíĤ¤": 6407,
      "Ġëª°ëŀĺ": 6408,
      "Ġë£°": 6409,
      "Ġëĭ¹íķľ": 6410,
      "Ġë¬¸ìĿĦ": 6411,
      "ë¥ĺë¥¼": 6412,
      "ëį°ìĿ´": 6413,
      "Ġ36": 6414,
      "Ġìĺ¤ìĺ¤": 6415,
      "ìĺ¤ë¦¬": 6416,
      "íĺķìĿĢ": 6417,
      "ĠíĶĮëĿ¼": 6418,
      "Ġë°©íĸ¥ìľ¼ë¡ľ": 6419,
      "ìļ´ëĭ¤": 6420,
      "Ġìŀīê¸Ģ": 6421,
      "ĠìĥĿê²¼ëĭ¤": 6422,
      "ĦëĬĶ": 6423,
      "æĻ": 6424,
      "ëĦĲíĭ°": 6425,
      "ìĹ¬ê¸°": 6426,
      "Ġë©Ķê°Ģ": 6427,
      "Ġíģ´ë¡ľ": 6428,
      "ì¨Į": 6429,
      "Ġê·¸ëłĩëĭ¤ê³ł": 6430,
      "Ġìĵ°ìĿ¸ëĭ¤": 6431,
      "Ġê·¸ëıĻìķĪ": 6432,
      "íĮĲìĿĺ": 6433,
      "Ġê·¸ëħĢê°Ģ": 6434,
      "Ġíķ´ê¸Ī": 6435,
      "ĠìŀĪê¸´": 6436,
      "Ġìĵ°ìĿ´ëĬĶ": 6437,
      "ĠìĦ¸ìĽĮ": 6438,
      "ĠìķĦìķ¼": 6439,
      "Ġìĭ¸ìļ°ëĬĶ": 6440,
      "ê²½ìłľ": 6441,
      "íļĮìĤ¬": 6442,
      "qu": 6443,
      "ëĮĢìŀ¥": 6444,
      "ĠëĮĢìŀ¥": 6445,
      "ìĨĮë¦¬": 6446,
      "ĠìĤ¬ìļ©íķĺë©´": 6447,
      "ë²ĦíĬ¸": 6448,
      "Ġì°¸ìłĦ": 6449,
      "ĠëĬĺìĸ´": 6450,
      "ì¢ħìĿ´": 6451,
      "2002": 6452,
      "Ġíħľ": 6453,
      "ìľ¼ëł¤": 6454,
      "Ġê³µíĻĶêµŃ": 6455,
      "Ġì§ĢìĹŃìĹĲ": 6456,
      "Ġëħ¸ì¶ľ": 6457,
      "ĠìĬ¤íĶĦ": 6458,
      "%)": 6459,
      "ĠìĹ°ë°©": 6460,
      "Ġëĭ¹ìĭľìĿĺ": 6461,
      "Ġë°©ë²ķìĿĦ": 6462,
      "55": 6463,
      "ĠìıŁìķĦ": 6464,
      "ĠìĦłíĺ¸": 6465,
      "radi": 6466,
      "Ġëĭ¨ìĿ¼": 6467,
      "ĠíĬ¸ëŀĻ": 6468,
      "ĠìĿ´ìĬ¹": 6469,
      "ãĥĥ": 6470,
      "Ġìłł": 6471,
      "Ġì§ĳëĭ¨": 6472,
      "ĠíħĮìĿ´": 6473,
      "Ġê°ĲëıħìĿ´": 6474,
      "ëĿ¼ëħ¸": 6475,
      "ĠëıĦëĭ¬": 6476,
      "ĠíĿĶëĵ¤": 6477,
      "Ġë©ĶìĿ´ìłĢ": 6478,
      "ĠëĳĲëł¤": 6479,
      "ìĭ¤ìĿ´": 6480,
      "ìĭ¤ìĹĲ": 6481,
      "ĠíħĮë§Ī": 6482,
      "Ġìłľì£¼": 6483,
      "æµ": 6484,
      "ĠìĿĺê²¬ìĿ´": 6485,
      "íĺķìľ¼ë¡ľ": 6486,
      "Ġë¶Ģì¡±íķľ": 6487,
      "ãİ": 6488,
      "Ġìĺ¬ë¦¬": 6489,
      "Ġx": 6490,
      "Ġê·ł": 6491,
      "ì¤ĳíķľ": 6492,
      "ĠëĦĺëĬĶ": 6493,
      "ĠìŀĲìĿ´": 6494,
      "Ġì¤ĳìĿ¸": 6495,
      "ĠëķĮìĹĲëĬĶ": 6496,
      "Ġë²łë¥´": 6497,
      "ĠìĪĺìļĶ": 6498,
      "è¨": 6499,
      "ê²ĥìĿĦ": 6500,
      "Ġìĵ°ëłĪ": 6501,
      "Ġëĵ±ê³¼": 6502,
      "Ġìłķê¸Ģ": 6503,
      "Ġìłķë§Ĳë¡ľ": 6504,
      "ĠìĬ¹ê²©": 6505,
      "ĠìĹ°ê·¹": 6506,
      "ë®": 6507,
      "ë¸Įë¦¬": 6508,
      "ìĨĮìĹĲ": 6509,
      "Ġìª½ìľ¼ë¡ľ": 6510,
      "ED": 6511,
      "ake": 6512,
      "ì¾Į": 6513,
      "ĠìłĦëĿ¼": 6514,
      "ĠìĹ¬ëıĻìĥĿ": 6515,
      "ìĿĺë¡ľ": 6516,
      "Ġê²ĥìĿ´ëĿ¼": 6517,
      "ĠìķĦëĿ¼": 6518,
      "æĹ¥": 6519,
      "Ġë¡±": 6520,
      "Ġìĺ¹": 6521,
      "ĠìĦŃ": 6522,
      "ìľĻ": 6523,
      "Ġêµ¬íĺĦ": 6524,
      "ĠìĿ´ìļ©íķĺìĹ¬": 6525,
      "Ġëĵ±ìĹĲìĦľ": 6526,
      "Ġì£¼ëª©": 6527,
      "ĠíĮ¨ì¹ĺë¡ľ": 6528,
      "ĠìµľìķħìĿĺ": 6529,
      "2021": 6530,
      "Ġë°ĺìĿĳìĿĦ": 6531,
      "Ġë§Įëĵłëĭ¤": 6532,
      "ĠìķĦëĭĲ": 6533,
      "Ġëĵľë¦½": 6534,
      "Ġì¶ĶëĿ½": 6535,
      "Ġê·¸ëŁ°ì§Ģ": 6536,
      "Ġê·¸ëłĩì§Ģ": 6537,
      "Ġê°ĦìĿĺ": 6538,
      "ê²½ìĿ´": 6539,
      "Ġì¶ľíĮĲ": 6540,
      "ì²ĺìĿĮ": 6541,
      "Ġëĭ¤ëĭĪëĬĶ": 6542,
      "ìĬ¤íĬ¸ëĿ¼": 6543,
      "ov": 6544,
      "ĠëĲĺëıĮ": 6545,
      "ĠìķĦë¬´ëıĦ": 6546,
      "radius": 6547,
      "Ġë°©íĮ¨": 6548,
      "Ġ1994": 6549,
      "ĠíĸĪìĿĦ": 6550,
      "ĠëĲĺì°¾": 6551,
      "Ġëª»íķĺê²Į": 6552,
      "íħĮìĿ¸": 6553,
      "Ġìľłëªħíķĺëĭ¤": 6554,
      "íĤ¨ëĭ¤": 6555,
      "ê±°ë¦¬ëĬĶ": 6556,
      "ĠìĿ´ë¤Ħ": 6557,
      "Ġë³¸ê²©ìłģìľ¼ë¡ľ": 6558,
      "Ġì¡±": 6559,
      "Ġê¸į": 6560,
      "Ġê¸°ë¡ĿìĿĦ": 6561,
      "Ġmy": 6562,
      "ìĹŃìĹĲìĦľ": 6563,
      "ìĭľê³ł": 6564,
      "ĠêµŃë¦½": 6565,
      "ĠìĿ´ìĬ¤": 6566,
      "ĠìĦ±ëĬ¥ìĿ´": 6567,
      "ê·¸ëŀĺëıĦ": 6568,
      "EN": 6569,
      "Ġê³łìľł": 6570,
      "Ġê¸°ìĹ¬": 6571,
      "Ġëį°ë¯¸ì§Ģê°Ģ": 6572,
      "ĠìłĦíĪ¬ìĹĲìĦľ": 6573,
      "ìĽĲëĵ¤ìĿ´": 6574,
      "Ġíģ´ë¦¬": 6575,
      "ĠìĪĺë¦¬": 6576,
      "ĠìĿ´ë¯¸ì§Ģ": 6577,
      "Ġëį°ìĬ¤": 6578,
      "Ġëª©ìĪ¨ìĿĦ": 6579,
      "Ġë³Ģê²½ëĲĺìĹĪëĭ¤": 6580,
      "Ġê¸°ëĬ¥ìĿĦ": 6581,
      "ìĽĶë¶ĢíĦ°": 6582,
      "Ġfont": 6583,
      "ĠëĶĶìĬ¤": 6584,
      "\",": 6585,
      "Ġê²¬ìłľ": 6586,
      "ëł¸ìĿĦ": 6587,
      "Ġê»": 6588,
      "ĠìĬ¤íĮĮìĿ´": 6589,
      "ĠíĸīìĤ¬": 6590,
      "ìĦ¸íķľ": 6591,
      "ëĿ¼ìĿ´ìĸ¸": 6592,
      "ĠìķĦë¬´ê²ĥëıĦ": 6593,
      "Ġë§¡ê³ł": 6594,
      "Ġor": 6595,
      "Ġìµľìĥģ": 6596,
      "ĠAr": 6597,
      "ëıĻìĿĺ": 6598,
      "Ġë¸Įëŀľëĵľ": 6599,
      "500": 6600,
      "ìĨįìĦ±": 6601,
      "Ġê´´ë¬¼": 6602,
      "Ġì¡°ì§Ģ": 6603,
      "ĠëĳĲë²Īì§¸": 6604,
      "Ġê²½ê³Ħ": 6605,
      "2003": 6606,
      "ĠëĮĢë¦½": 6607,
      "ĠìĿ¸ê·¼": 6608,
      "Ġëŀ©": 6609,
      "ê´Ģê³Ħ": 6610,
      "ber": 6611,
      "Ġëĭ¤ê°Ģ": 6612,
      "Ġìĭ¤ëł¥": 6613,
      "Ġìĺ¤íĶĦëĭĿ": 6614,
      "Ġì¡°ì¤Ģ": 6615,
      "VP": 6616,
      "ĠìĹ´ì°¨": 6617,
      "ìŀĲëĵ¤ìĹĲê²Į": 6618,
      "ìķ¼ê°Ģ": 6619,
      "íķ´ê°Ģ": 6620,
      "ë±ħ": 6621,
      "ë§µ": 6622,
      "Ġìľ¼": 6623,
      "íĦ°ë¦¬": 6624,
      "ë°ĶìĿ¼": 6625,
      "Ġë¶Īíİ¸": 6626,
      "ìĿ¸ëĵ¤ìĿĢ": 6627,
      "ê¹Įì§Ģë§Į": 6628,
      "Ġêµ¬íķ´": 6629,
      "ĠìĿ´íĽĦë¡ľëĬĶ": 6630,
      "ĠìĥĿê°ģìĿĦ": 6631,
      "Ġê±¸ì³Ĳ": 6632,
      "Ġì£¼ì§Ģ": 6633,
      "ĠíĶĦë¡ľíĨł": 6634,
      "ĠìŀĦìĭľ": 6635,
      "Ġëĸ¡ë°¥": 6636,
      "ĠìĿĺìĭĿ": 6637,
      "ĠëĤŃ": 6638,
      "ìĤ°ìĿ´": 6639,
      "íĶ¼ìĬ¤": 6640,
      "Ġìĺ®ê²¨": 6641,
      "''": 6642,
      "ìĤ¬íķŃ": 6643,
      "ë°ĶëĿ¼": 6644,
      "Ġë°©ë²ķìĿ´": 6645,
      "ìĤ¬ìĿ´íĬ¸": 6646,
      "ëĭ¹íķĺê³ł": 6647,
      "'t": 6648,
      "ì¦ī": 6649,
      "ĠëłĪìłĦëĵľ": 6650,
      "ìļ°ì£¼": 6651,
      "Ġê¹ĢìĦ±": 6652,
      "Ġê²ĮìĿ´ì§Ģ": 6653,
      "ĠëĤļ": 6654,
      "Ġìĵ°ë©´": 6655,
      "ĠëĪĪìĿ´": 6656,
      "ĠëĮĵê¸Ģ": 6657,
      "Ġëĭ¤íĸīíŀĪ": 6658,
      "Ġìĸ´ì°¨íĶ¼": 6659,
      "Ġê²©íĮĮ": 6660,
      "Ġinline": 6661,
      "ìłĢíŀĪ": 6662,
      "ì±ħìĿĦ": 6663,
      "ĠìĪľìľĦ": 6664,
      "ë¥´ë¥¼": 6665,
      "Ġê²½ìľł": 6666,
      "Ġíķ´ëĭ¹íķĺëĬĶ": 6667,
      "Ġë¯¸ìĤ¬ìĿ¼": 6668,
      "Ġíİ¸ìĿ´": 6669,
      "ĠìŀĪìĸ´ìķ¼": 6670,
      "ë¯¼ìĿ´": 6671,
      "ĠìĬ¤íİĺìħľ": 6672,
      "ìĥīìĿĦ": 6673,
      "ĠìķĦìĺ¤": 6674,
      "Ġê¹ĥ": 6675,
      "Ġì¹´ë¥´": 6676,
      "íĸ¥ìĿĦ": 6677,
      "ĠìĭłìĦ¤": 6678,
      "ë²Ħë¦¬": 6679,
      "Ġìĺ¤ë¦¬": 6680,
      "Ġë¹ĦìĬ·íķĺê²Į": 6681,
      "ì£¼ìĿ¸ê³µ": 6682,
      "ë§ĪìłĢëıĦ": 6683,
      "ĠíĻĶëł¤": 6684,
      "Ġë¶Ģë¶ĦìĿĦ": 6685,
      "Ġëĭ¤ìĪĺ": 6686,
      "adding": 6687,
      "ial": 6688,
      "ëĲĺìĹĪì§Ģë§Į": 6689,
      "Ġíĺ¸íıī": 6690,
      "ĠíĽĶ": 6691,
      "ĠìĦ±ìĿ¸": 6692,
      "ĠìĪĺìļ©": 6693,
      "ëĭ«": 6694,
      "ĠëĦĵìĿĢ": 6695,
      "ĠëıĮê²©": 6696,
      "ì½ĶëĬĶ": 6697,
      "Ġìłľë¡ľ": 6698,
      "ëĭ¹ìĿĦ": 6699,
      "Ġì²´ìľ¡": 6700,
      "æī": 6701,
      "ĠëıĻìĽĲ": 6702,
      "Ġê·¸ê²ĥëıĦ": 6703,
      "Ġê³łìłĦ": 6704,
      "Ġëª©ìłģ": 6705,
      "Ġì£¼ìĿ¸ê³µìĿ´": 6706,
      "Ġì§Ŀ": 6707,
      "ĠìĹ°ê³Ħ": 6708,
      "Ġë¬´ê²Į": 6709,
      "Ġê¸ĢìĿĦ": 6710,
      "ãģĿ": 6711,
      "ĠÐ": 6712,
      "Ġì´ĪìĽĶ": 6713,
      "íķ´ìĿĺ": 6714,
      "ĠìŀĪìĹĪëĭ¤ê³ł": 6715,
      "ëľ©": 6716,
      "ĠìĿ´ëĵĿ": 6717,
      "Ġê±°ëĿ¼ê³ł": 6718,
      "Ġê·¸ìĹĲê²Į": 6719,
      "áĨ": 6720,
      "HE": 6721,
      "ìľ¨ìĿĦ": 6722,
      "Ġì¶©ì²Ń": 6723,
      "Ġìĸ»ëĬĶ": 6724,
      "ĠíĬ¸ëłĪ": 6725,
      "ĠìĦľë¹Ħ": 6726,
      "ëĵľëŀĺ": 6727,
      "Ġìĭ¤ìłľë¡ľëĬĶ": 6728,
      "Ġê¹ĬìĿĢ": 6729,
      "ĠëłĪìĿ¸": 6730,
      "Ġê¸°ì´Ī": 6731,
      "íĻĪëŁ°": 6732,
      "Ġì½Ķë¡ľëĤĺ": 6733,
      "Ġëĵ¤ìĿĢ": 6734,
      "ĠëĦ¤ìĿ´ë²Ħ": 6735,
      "Ġë©Ķëĭ¬": 6736,
      "ê¸°ì§Ģ": 6737,
      "IT": 6738,
      "Ġë°Ł": 6739,
      "Ġë§Ĳíķł": 6740,
      "ĠìŀĲì²´ë¥¼": 6741,
      "ìĸ´ìĻĢ": 6742,
      "Ġì£½ëĬĶ": 6743,
      "ëĤĺì¹´": 6744,
      "ê·¸ë¦¬": 6745,
      "Ġëª¨ìĬµìĿĢ": 6746,
      "Ġëį¸": 6747,
      "ìĿĺê°Ģ": 6748,
      "ĠBl": 6749,
      "ê´Ģëł¨": 6750,
      "ĠìľłìłĢëĵ¤ìĿ´": 6751,
      "Ġìļ´ìłĦ": 6752,
      "ĠìĿ´ëĵ¤ìĿĺ": 6753,
      "Ġë¬µ": 6754,
      "Ġê³µë¶Ģ": 6755,
      "ìĦ±ìļ°": 6756,
      "ë¦°ìĿ´": 6757,
      "Ġê²½ê¸°ê°Ģ": 6758,
      "Ġê³ĦíļįìĿĦ": 6759,
      "ê²©ìľ¼ë¡ľ": 6760,
      "ĠëªħìĿ´": 6761,
      "ãĤ¢": 6762,
      "ĠìĻ¸ëª¨": 6763,
      "Ġì§Ģê¸Īê¹Įì§Ģ": 6764,
      "ìĤ¬ëł¹": 6765,
      "Ġìĺ¤ë¡ľ": 6766,
      "ĠìĤ¬ìĿ´ê°Ģ": 6767,
      "ĠìķĪìĹĲìĦľ": 6768,
      "ĠíĽĦì¿ł": 6769,
      "ìķ¼ìĿĺ": 6770,
      "Ġìĭłê·ľ": 6771,
      "ãģ¤": 6772,
      "Ġë³¸ìĿ¸ëıĦ": 6773,
      "ĠìĥĿê²¼": 6774,
      "ĠìĨĮìŀ¬ë¡ľ": 6775,
      "ĠìĹĨìķł": 6776,
      "ĠĊĠ": 6777,
      "ĠìľĦê¸°ìĹĲ": 6778,
      "ĠìķĦìļ°": 6779,
      "ëł¹ìĿĦ": 6780,
      "ìĭ¤ìĹĲìĦľ": 6781,
      "Ġê³µê¸ī": 6782,
      "íķ¨ìĹĲ": 6783,
      "ë²ĪìĿĺ": 6784,
      "Ġì¤ĳíķĻêµĲ": 6785,
      "ë¦¬ìĹĦ": 6786,
      "ìķĦë¥¼": 6787,
      "ê´Ģìľ¼ë¡ľ": 6788,
      "Ġì£½ìĹ¬": 6789,
      "Ġê°ĳìĺ·": 6790,
      "ëħģ": 6791,
      "Ġíı¬ìĿ¸": 6792,
      "ìľłê°Ģ": 6793,
      "MBC": 6794,
      "íĮĮìĿĺ": 6795,
      "ĠíĶĦë¡ľìłĿíĬ¸": 6796,
      "ìłľìŀĳ": 6797,
      "ìĹ°ìĿ´": 6798,
      "Ġê¸°ë°ĺìľ¼ë¡ľ": 6799,
      "ĠíĻĶìŀ¥": 6800,
      "Ġê°ĵ": 6801,
      "ê·¸ëĬĶ": 6802,
      "Ġíĥľìĸ´ëĤ¬ëĭ¤": 6803,
      "Ġëħ¹ìĿĮ": 6804,
      "Ġë³µìĪĺ": 6805,
      "Ġëª¹": 6806,
      "ark": 6807,
      "49": 6808,
      "Ġë§ĪëħĢ": 6809,
      "Ġê³łê¸ī": 6810,
      "ĠìĦ¸ëł¥": 6811,
      "ĠìĬ¤ë§ĪíĬ¸": 6812,
      "Ġê´ľì°®ìĿĢ": 6813,
      "Ġì½Ķë¯¸": 6814,
      "ìĽ¨ëį´": 6815,
      "PG": 6816,
      "ĠìĹħë¬´": 6817,
      "æĿİ": 6818,
      "ĠíķĻìĤ´": 6819,
      "FF": 6820,
      "ĠEX": 6821,
      "ìķ¨": 6822,
      "ĠëĮĢìĥģìľ¼ë¡ľ": 6823,
      "Ġë§ĪìĿĮìĹĲ": 6824,
      "êµŃìĿĦ": 6825,
      "ìĨĮìĦ¤": 6826,
      "ĠëĦ£ìĸ´": 6827,
      "Ġìľłë¡ľ": 6828,
      "Ġë¬´ë£Į": 6829,
      "Ġì¹´ìļ´íĦ°": 6830,
      "ĠìĤ¬ì§ĦìĿĦ": 6831,
      "ëĭ¹íŀĪ": 6832,
      "ëª¨ëį¸": 6833,
      "å¿": 6834,
      "ĠìĤ¬ìŀ¥": 6835,
      "Ġìĭľìŀ¥": 6836,
      "Ġëĵľëŀį": 6837,
      "Ġëħ¸ìĺĪ": 6838,
      "Ġì½ĺìĦľ": 6839,
      "ĠìŀĲìĭłê³¼": 6840,
      "ĠíļĮìłĦ": 6841,
      "ĠëĦ¤ëįľ": 6842,
      "åĽ": 6843,
      "Ġíķ´ë°©": 6844,
      "Ġë§ĺ": 6845,
      "çİĭ": 6846,
      "ë§Īë£¨": 6847,
      "Ġíģ¬ë¦¬": 6848,
      "ĠíĮĮìĿ´íĦ°": 6849,
      "ĠëĤĺëīĺ": 6850,
      "ĠìŀĳëıĻ": 6851,
      "Ġìĸ´ê¹¨": 6852,
      "ìĿ¼ëŀľëĵľ": 6853,
      "kg": 6854,
      "Ġìŀħìŀ¥ìĹĲìĦľëĬĶ": 6855,
      "Ġëĵ±ìŀ¥íĸĪëĭ¤": 6856,
      "ìķĺìľ¼ëĤĺ": 6857,
      "ëĤĺëıĦ": 6858,
      "ĠìľĦì¹ĺë¥¼": 6859,
      "Ġpadding": 6860,
      "ĠFIFA": 6861,
      "Ġê°ĢíĨ¨ë¦Ń": 6862,
      "ĠìĿ¸ìĥģ": 6863,
      "ë¹ĦìĹĲ": 6864,
      "ĠìĿĳìĽĲ": 6865,
      "ãĤ¯": 6866,
      "íķĺìĹĲ": 6867,
      "ĠìºĲë¦ŃíĦ°ë¥¼": 6868,
      "Ġìĥĺ": 6869,
      "ĠëıĮì§Ħ": 6870,
      "ĠëıĦìĽĢ": 6871,
      "ĠìĦ±ëĬ¥ìĿĦ": 6872,
      "ìĿ¸ìĹĲ": 6873,
      "ĠëįĺìłĦ": 6874,
      "Ġê³µê²©ëł¥ìĿ´": 6875,
      "ë¶Ģë¥´íģ¬": 6876,
      "ìŀ¥íķľ": 6877,
      "Ġì°¨ë³Ħ": 6878,
      "ë£°": 6879,
      "bl": 6880,
      "Ġíĺ¼ìŀĲìĦľ": 6881,
      "íħĮìĿ´": 6882,
      "ĠìĹ¬ëŁ¬ê°Ģì§Ģ": 6883,
      "Ġìª½ìĿ´": 6884,
      "Ġë¹łì§Ħ": 6885,
      "ë¿Ĳë§Į": 6886,
      "Ġë¶Īë¦°ëĭ¤": 6887,
      "Ġêº¼ëĤ´": 6888,
      "Ġë²ķë¥ł": 6889,
      "ĠêµĲíĻ©": 6890,
      "Ġê²ĢìĤ¬": 6891,
      "ĠìĿ¸ìĥĿ": 6892,
      "ĠíĻķì§Ħ": 6893,
      "Ġëĺĳê°ĻìĿ´": 6894,
      "Ġì¹´ëĵľê°Ģ": 6895,
      "©ëĭĪëĭ¤": 6896,
      "Ġëĭ¬ëŁ¬": 6897,
      "ĠíĶĦë¦¬ë¯¸": 6898,
      "Ġëª¸ìĹĲ": 6899,
      "Ġëıķ": 6900,
      "íķ´ì¡Į": 6901,
      "ì£¼ìĹĲ": 6902,
      "ë¨¹ìĿĦ": 6903,
      "ĠíıīíĻĶ": 6904,
      "æķ": 6905,
      "Ġê´Ģê³Ħê°Ģ": 6906,
      "íķ´ë³´": 6907,
      "íĽĦë°ĺ": 6908,
      "Ġì§ĳìĸ´": 6909,
      "åĬ": 6910,
      "ĠìłĲì°¨": 6911,
      "ìĿ¸ìĿ¸": 6912,
      "ĠNo": 6913,
      "ì¡°ë¦¬": 6914,
      "ë³´íĨµ": 6915,
      "ëĭ¤ìĿĮ": 6916,
      "Ġìĭľê°ģ": 6917,
      "Ð°": 6918,
      "ì©¡": 6919,
      "ì§Ģêµ¬": 6920,
      "Ġë©ķ": 6921,
      "ìĬĪíį¼": 6922,
      "ĠìĿ´íĽĦìĿĺ": 6923,
      "ĠíĪ": 6924,
      "ĠìĿ´íĽĦìĹĲëıĦ": 6925,
      "ìĿ¸ìĹĲê²Į": 6926,
      "ë²ĪìĹĲ": 6927,
      "íĳľë¥¼": 6928,
      "ĠíĮ¨ìĭľë¸Į": 6929,
      "Ġìĩł": 6930,
      "ĠAP": 6931,
      "Ġë¹¨ê°Ħ": 6932,
      "ĠìĿ´ë¦ĦìĿĺ": 6933,
      "ãĦ": 6934,
      "ĠìĹŃìŀĦ": 6935,
      "ĠëĶľëŁ¬": 6936,
      "íĻĶëĲĺìĸ´": 6937,
      "Ġë¯¸ìĪł": 6938,
      "ê³¼ë¥¼": 6939,
      "Ġíİ¸ìŀħ": 6940,
      "Ġìĭľê¸°ìĹĲ": 6941,
      "ĠëĤ´ëĬĶ": 6942,
      "íķ¨ìľ¼ë¡ľìį¨": 6943,
      "íı¬ë¥´": 6944,
      "ëĿ¼ìĿ´íĬ¸": 6945,
      "MP": 6946,
      "ĠëĬĳ": 6947,
      "ĠìłĦíĪ¬ë¥¼": 6948,
      "íĥĢìŀħ": 6949,
      "Ġë¨¹ìĿĦ": 6950,
      "ĠìķĦì§ģëıĦ": 6951,
      "ìĹĨëĭ¤": 6952,
      "ê¶": 6953,
      "ĠYou": 6954,
      "ĠìĤ¬ëŀĮëĵ¤ìĿĺ": 6955,
      "ĠìĬ¤íı°": 6956,
      "Ġë³´ìĹ¬ì£¼ê³ł": 6957,
      "Ġëĭ¬ìķĦ": 6958,
      "Ġêµ¬ì¶ľ": 6959,
      "Ġë¬´ëĮĢ": 6960,
      "ëŀĢìĥī": 6961,
      "ĠKT": 6962,
      "Ġwh": 6963,
      "Ġì¡°ìłĪ": 6964,
      "ĠíĺķíĥľìĿĺ": 6965,
      "EX": 6966,
      "Ġê¸°ìŀĲ": 6967,
      "ëªħíķľ": 6968,
      "ĠëĲľëĭ¤ëĬĶ": 6969,
      "ë¦¬ìļ°": 6970,
      "Ġì¡°ê¸ĪìĶ©": 6971,
      "ìŀĳìĿĦ": 6972,
      "íģ¬ìĻĢ": 6973,
      "ìŀ¬ë¥¼": 6974,
      "ë³´ëĵľ": 6975,
      "Ġëª¸ìĿ´": 6976,
      "Ġë³´ëĤ¸": 6977,
      "ĠíĬ¸ìľĦíĦ°": 6978,
      "íķĺë©´ìĦľëıĦ": 6979,
      "ì¸łíĤ¤": 6980,
      "ì£¼ëħĦ": 6981,
      "ite": 6982,
      "ĠìĹ°ìķł": 6983,
      "ë³´ê°Ģ": 6984,
      "Ġë¶Īê°ĢëĬ¥íķĺëĭ¤": 6985,
      "Ġíħį": 6986,
      "ìĦ¸ìĹĲ": 6987,
      "Ġê²°ìĦ±": 6988,
      "Ġëĵľë¬¼": 6989,
      "ĠíķĺëĤĺëĬĶ": 6990,
      "ime": 6991,
      "Ġíıīê°Ģê°Ģ": 6992,
      "Ġíķĺê±°ëĤĺ": 6993,
      "ê·¸ìĿĺ": 6994,
      "size": 6995,
      "Ġíģ¬ë£¨": 6996,
      "ĠìĪĺì§ĳ": 6997,
      "Ġê³Ħê¸ī": 6998,
      "Ġë¹Ħì¤ĳìĿ´": 6999,
      "Ġë§Īì§Ģë§īìĹĲ": 7000,
      "ëĳ¥ìĿ´": 7001,
      "Ġwith": 7002,
      "ĠíĸīìĦ±": 7003,
      "ì¼Ī": 7004,
      "ĠìľĦíĤ¤": 7005,
      "ĠëĮĢíķĺìĹ¬": 7006,
      "Ġë§Īë²ķìĤ¬": 7007,
      "ë§ģìĿĦ": 7008,
      "ìŀĲíĤ¤": 7009,
      "Ġìŀħëĭ¨": 7010,
      "íĮĮë¥¼": 7011,
      "ĠìĬ¤íĬ¸ëĿ¼ìĿ´": 7012,
      "Ġ38": 7013,
      "Ġë¹Ķ": 7014,
      "Ġë§¤ìĿ¼": 7015,
      "ë£Įë¥¼": 7016,
      "ì²´ìĹĲ": 7017,
      "ĠëıĮìķĦìĺ¨": 7018,
      "Ġê³³ìľ¼ë¡ľ": 7019,
      "ë§ĪìĬ¤íĦ°": 7020,
      "ĠìĺģìĽĲ": 7021,
      "ĠìĺĪì¸¡": 7022,
      "Ġë²łíĬ¸ëĤ¨": 7023,
      "Ġê¸°ìĬµ": 7024,
      "ick": 7025,
      "Ġì¡°ìĭ¬": 7026,
      "Ġë§ĲìĿĢ": 7027,
      "ĠëĤ®ìķĦ": 7028,
      "ìŁģìĿ´": 7029,
      "ix": 7030,
      "ĠëģĶ": 7031,
      "ĠëĶĶì§ĢíĦ¸": 7032,
      "Ġê³§ë°Ķë¡ľ": 7033,
      "ĠìĿ´ëĤ´": 7034,
      "ĠìļĶìĥĪ": 7035,
      "Ġë¦¬ë²Ħ": 7036,
      "Ġíķ©ê²©": 7037,
      "íĬĢ": 7038,
      "ear": 7039,
      "Ġê³³ìĿ´": 7040,
      "ĠìķĬìķĺì§Ģë§Į": 7041,
      "ìľłíĤ¤": 7042,
      "Ġê·¸ëŀĺíĶ½": 7043,
      "ëĭĺìĿĺ": 7044,
      "íŀĪë¡ľ": 7045,
      "ëıĻìľ¼ë¡ľ": 7046,
      "ĠëĳĲìĤ°": 7047,
      "íİ¸ìĿĺ": 7048,
      "Ġìłķì°©": 7049,
      "ĠëĮĢê·ľëª¨": 7050,
      "ç§": 7051,
      "ĠìºĲë¦ŃíĦ°ìĿĺ": 7052,
      "ìĿ¸ëĵ¤ìĿĺ": 7053,
      "íķ´ëĭ¹": 7054,
      "Ġìłľë²ķ": 7055,
      "Ġìĺ¤ë¹ł": 7056,
      "ĠìłĦê¹Įì§Ģ": 7057,
      "Ġê´´ë¡Ń": 7058,
      "Ġëįĺìł¸": 7059,
      "ìłĦì°¨": 7060,
      "ëĤĺëĿ¼ìĿĺ": 7061,
      "SP": 7062,
      "AD": 7063,
      "Ġë°ķìĤ¬": 7064,
      "Ġìłģê·¹ìłģìľ¼ë¡ľ": 7065,
      "ĠìĭłìĿĺ": 7066,
      "Ġíĵ¨": 7067,
      "ĠNPC": 7068,
      "ĠìĿ¸ìĪĺ": 7069,
      "ĠíĬ¹ë³Ħíķľ": 7070,
      "ĠìŀĪìĹĪìľ¼ë©°": 7071,
      "ĠìĽĲëŀĺëĬĶ": 7072,
      "ĠëĮĢíıŃ": 7073,
      "ì§ĢëĬĶëį°": 7074,
      "ĠìĹ¬ëĭ´ìľ¼ë¡ľ": 7075,
      "ph": 7076,
      "ĠëĪĮ": 7077,
      "íĸĪìĹĪëĭ¤": 7078,
      "ë¶Ģìŀ¥": 7079,
      "Ġëĺĳê°ĻìĿĢ": 7080,
      "ĠíĥĢìĽĮ": 7081,
      "ì¸Ħ": 7082,
      "ĠíĸĪìľ¼ë©°": 7083,
      "ì¤ĳìĿ¸": 7084,
      "Ġëĳ¥": 7085,
      "ì¡°ëĬĶ": 7086,
      "orm": 7087,
      "Ġëĵ±ìĿĢ": 7088,
      "ĠìĹĨìĹĪê³ł": 7089,
      "ĠíķĺëįĶëĿ¼ëıĦ": 7090,
      "íĸīìłķ": 7091,
      "ĠíĨµìĭł": 7092,
      "Ġíĥģ": 7093,
      "Ġê°ľêµĲ": 7094,
      "Ġìĸ´ê·¸": 7095,
      "rom": 7096,
      "ĠìĹ®": 7097,
      "ĠìĿĺíĺ¹": 7098,
      "Ġíķ´ìłģ": 7099,
      "ĠìĥĿíĻľìĿĦ": 7100,
      "ace": 7101,
      "sh": 7102,
      "ë¯¼ìĿĺ": 7103,
      "ĠìĹĦë§Ī": 7104,
      "íĬ¸ìĽĮ": 7105,
      "ëĭ¹íĸĪëĭ¤": 7106,
      "ìĬ¤íĨ¤": 7107,
      "ĠìķĪëĵľë¡ľ": 7108,
      "Ġìłģìĸ´ëıĦ": 7109,
      "ì¹´ëĬĶ": 7110,
      "ĠìĤ´ëł¤": 7111,
      "ĠìĿµìĪĻ": 7112,
      "ĠìĬ¤íĥĢìĿ¼": 7113,
      "êµĲìĿĺ": 7114,
      "ì§ľë¦¬": 7115,
      "ĠìĪĺìĽĲ": 7116,
      "Ġì§ĢìĨįìłģìľ¼ë¡ľ": 7117,
      "íĺ¸ë¡ľ": 7118,
      "ëĤ´ê¸°": 7119,
      "íĦ°íħĮìĿ¸": 7120,
      "ëĵ¤ìĹĲê²ĮëĬĶ": 7121,
      "Ġê²©íĪ¬": 7122,
      "Ġëĭī": 7123,
      "ory": 7124,
      "Ġê°Ģê¹Ŀëĭ¤": 7125,
      "ĠëĤĺìĿĺ": 7126,
      "ëĭ¹íķĺëĬĶ": 7127,
      "ë©Ķê°Ģ": 7128,
      "Ġê·¸ìĻĢ": 7129,
      "ëĵ±ìĿ´": 7130,
      "ĠíķľëķĮ": 7131,
      "Ġíķ©ì³Ĳ": 7132,
      "ĠëĵľëĶĶìĸ´": 7133,
      "Ġë¶Īë²ķ": 7134,
      "Ġê³¡ìĿĦ": 7135,
      "66": 7136,
      "ë³ĳìĿ´": 7137,
      "Ġëĭ¨ì§Ģ": 7138,
      "2001": 7139,
      "ĠìĹ°ìĥģ": 7140,
      "Ġêµ¬ìĨį": 7141,
      "ĠíĢĦ": 7142,
      "oy": 7143,
      "Ġê³łíĸ¥": 7144,
      "ìĺģìĸ´": 7145,
      "ë¯¸ìĻĢ": 7146,
      "ìłľêµŃ": 7147,
      "Ġì§¤": 7148,
      "Ġì¹´ëĤĺ": 7149,
      "íķĺìĭľ": 7150,
      "Ġë§¤ëĭĪ": 7151,
      "ë¡ľë¡ľ": 7152,
      "ĠìŀĲìĽĲ": 7153,
      "nt": 7154,
      "ìºĶ": 7155,
      "ì£¼ë©´": 7156,
      "ĠìĭľíĤ¤": 7157,
      "Ġíģ¬ê³ł": 7158,
      "ìĺģìĿ´": 7159,
      "42": 7160,
      "Ġë¯¸ìķ¼": 7161,
      "ëł¹ìĿ´": 7162,
      "Ġìĺ¤ìĬ¤": 7163,
      "98": 7164,
      "éķ": 7165,
      "Ġê¸¸ìĿ´": 7166,
      "ĠëķĮê°Ģ": 7167,
      "ĠìķĦíĭ°": 7168,
      "Ġë©ĶíĥĪ": 7169,
      "ĠíĽĦì§Ģ": 7170,
      "ìķĦë²Ħì§Ģ": 7171,
      "ĠëıĦì¤ĳìĹĲ": 7172,
      "Ġëĭ¨ìĸ´": 7173,
      "íķ¨ê³¼": 7174,
      "ëĭ¹ìĹĲ": 7175,
      "ĠíħĮíģ¬": 7176,
      "Ġì¶Ķìłģ": 7177,
      "Ġìľłìļ©": 7178,
      "Ġë§īìĿĦ": 7179,
      "ies": 7180,
      "ĠìŀĲì¹ĺ": 7181,
      "Ġ1992": 7182,
      "Ġì¶©ìłĦ": 7183,
      "ëĿ¼ìĹĲ": 7184,
      "ĠëĦĲë¦¬": 7185,
      "ĠëģĿëĤĺê³ł": 7186,
      "ĠìłķëıĦê°Ģ": 7187,
      "ĠìĺģêµŃìĿĺ": 7188,
      "ĠìłĦì²´ìłģìľ¼ë¡ľ": 7189,
      "ìĿ´ê¸´": 7190,
      "old": 7191,
      "ĠíĶĮëłĪìĿ´ë¥¼": 7192,
      "Ġìĸ´ì§¸": 7193,
      "íĺĦìĿ´": 7194,
      "Ġìĸ¼ìĿĮ": 7195,
      "ĠìĨĮíĻĶ": 7196,
      "ëģĦëŁ¬": 7197,
      "ĠíķľêµŃìĸ´": 7198,
      "ĠìĨĮë¦¬ê°Ģ": 7199,
      "ê´ĢìĹĲ": 7200,
      "ĠìłķíĻķíŀĪ": 7201,
      "ëĭ´ìĿĦ": 7202,
      "ìŀĳì¤ĳ": 7203,
      "ë¬¸íķĻ": 7204,
      "ë©´ìľ¼ë¡ľ": 7205,
      "åŁ": 7206,
      "Ġì¡°ìĦ±": 7207,
      "ìŀĩ": 7208,
      "77": 7209,
      "ìłľíķľ": 7210,
      "Ġìļ¸ìĤ°": 7211,
      "ĠìķĶíĿĳ": 7212,
      "æ²": 7213,
      "ìĨĮìĹĲìĦľ": 7214,
      "íĨ¡": 7215,
      "ĠìĿ´ëĵ¤ìĿĦ": 7216,
      "ìºĲë¦ŃíĦ°": 7217,
      "Ġ150": 7218,
      "Ģëĭ¤": 7219,
      "Ġ33": 7220,
      "Ġìĸ´ëĶĶê¹Įì§Ģ": 7221,
      "Ġë¹ĦìĬ·íķĺëĭ¤": 7222,
      "ìĬĪíĥĢ": 7223,
      "Ġê·¸ëĵ¤ìĿĢ": 7224,
      "Ġëĭ¨ìłĲ": 7225,
      "Ġê°ľìĭľ": 7226,
      "ĠëĵľëŁ¬ëĤĺ": 7227,
      "Ġì¶ľìĭłìĿĺ": 7228,
      "ìĭľíĹĺ": 7229,
      "Ġê¸°ìĸµìĿĦ": 7230,
      "Ġëĭ¬ë¦°": 7231,
      "Ġìŀĳìļ©": 7232,
      "Ġ1993": 7233,
      "ĠìĦłë¬¼": 7234,
      "Ġíĥľìĸ´ëĤľ": 7235,
      "ĠëĦĺê²¨": 7236,
      "ëłĪìĿ¼": 7237,
      "Ġê²Ģìĥī": 7238,
      "ì²¨": 7239,
      "ë¦¬ìĹĲìĦľ": 7240,
      "Ġë°ľëĭ¬": 7241,
      "Ġê·¸ëŀ¬": 7242,
      "æĽ": 7243,
      "ìĭľìłĪ": 7244,
      "ĠìķĬìķĦëıĦ": 7245,
      "ĠìĪĺìĺģ": 7246,
      "ĠìķĪëĤ´": 7247,
      "ĠìķĦëĭĪìĹĪëĭ¤": 7248,
      "ĠìĹ¬ëŁ¬ëª¨ë¡ľ": 7249,
      "Ġì´Īëĵ±íķĻêµĲ": 7250,
      "ìĤ¬ë¬´": 7251,
      "Ġìŀ¥ìłĲ": 7252,
      "Ġëį§": 7253,
      "OL": 7254,
      "ê³µìĤ¬": 7255,
      "ĠìĹĲìĬ¤": 7256,
      "ice": 7257,
      "Ġìĸ´ì§Ģ": 7258,
      "ĠìķĬìķĺëįĺ": 7259,
      "Ġê·¼ì²ĺìĹĲ": 7260,
      "Ġë°ĸìľ¼ë¡ľ": 7261,
      "Ġëª°ëł¤": 7262,
      "ĠëĮĢë¶Ģë¶ĦìĿ´": 7263,
      "ĠëĮĢì²´ë¡ľ": 7264,
      "Ġì§ĢëĭĪê³ł": 7265,
      "ID": 7266,
      "ĠíĻĶìĿ´íĬ¸": 7267,
      "ĠíĻĢë¡ľ": 7268,
      "Ġëĭ¤ìĦ¯": 7269,
      "ìĹ°ìĿĺ": 7270,
      "Ġìĸ´ëĸ»ê²Įëĵł": 7271,
      "âĶ": 7272,
      "ìª½ìĿĺ": 7273,
      "ì¹ĺë©°": 7274,
      "Ġíģ¬ëłĪ": 7275,
      "Ġë¥¼": 7276,
      "ĠìĥģíĴĪ": 7277,
      "Ġíİ¼ì³Ĳ": 7278,
      "ĠíĬ¸ë¡ľ": 7279,
      "ĠëĿ½": 7280,
      "ĠíĹ¨": 7281,
      "mer": 7282,
      "Ġê¸įìłķ": 7283,
      "Ġë§ŀì§Ģ": 7284,
      "ame": 7285,
      "ìĶ¨ê°Ģ": 7286,
      "row": 7287,
      "íķĺëĿ¼ê³ł": 7288,
      "Ġê·ľìłķ": 7289,
      "Ġê°ĢìĿ´": 7290,
      "Ġì¶ľìŀ¥": 7291,
      "Ġê±¸ë¦°": 7292,
      "Ġìĸ¸ëĭĪ": 7293,
      "Ġì¶Ķê²©": 7294,
      "ĠíİĺìĿ´ìĬ¤": 7295,
      "IS": 7296,
      "ĠìķķëıĦìłģìĿ¸": 7297,
      "eg": 7298,
      "Ġëª©ê²©": 7299,
      "Ġìľłíĸī": 7300,
      "ĠëįĶë¹Ļ": 7301,
      "Ġê·¹ëĭ¨": 7302,
      "ĠëŁ¬ë¸Į": 7303,
      "ĠCD": 7304,
      "Ġì¶ĺ": 7305,
      "ëĮĦ": 7306,
      "Ġê±°ë¦¬ê°Ģ": 7307,
      "ìķĪìĿ´": 7308,
      "olor": 7309,
      "Ġë°ĺë°ľ": 7310,
      "ĠíİĺìĿ´ì§Ģ": 7311,
      "ĠìĿ¸ê³µ": 7312,
      "ĠíļŁ": 7313,
      "Ġê³łìĸĳìĿ´": 7314,
      "ĠSP": 7315,
      "ê·¸ê°Ģ": 7316,
      "ĠìĦľìĦľ": 7317,
      "ë¦ĦìĿĦ": 7318,
      "Ch": 7319,
      "ëįĶìĬ¤": 7320,
      "Ġë¶ĢìĥģìĿĦ": 7321,
      "ê¶ĮìĿĢ": 7322,
      "Ġìļ°ë¦¬ê°Ģ": 7323,
      "ê´Ħ": 7324,
      "Ġê³łë°±": 7325,
      "ĠëĲĺì§Ģë§Į": 7326,
      "Ã©": 7327,
      "Ġê³ģ": 7328,
      "ìĪłìĤ¬": 7329,
      "ê°Ģê³ł": 7330,
      "ëªħìĿ´ëĭ¤": 7331,
      "Ġë³Ģíĺķ": 7332,
      "ëłĪëĤĺ": 7333,
      "ĠëłĪì½Ķ": 7334,
      "ĠìŀĲìĭłëĵ¤ìĿĺ": 7335,
      "ĠíıŃíĴį": 7336,
      "ĠìĤ¬ìļ©íķĺê³ł": 7337,
      "ë¶ĦìĿĺ": 7338,
      "Ġê³Ħìķ½ìĿĦ": 7339,
      "ëįĶìļ±": 7340,
      "íķłìĪĺ": 7341,
      "Ġë¶Īê½ĥ": 7342,
      "ìĭ¤íķľ": 7343,
      "ĠêµŃë°©": 7344,
      "Ġëª¨ìľ¼": 7345,
      "ĠìĺĽëĤł": 7346,
      "ä¼": 7347,
      "Ġë¬´ìĸ¸": 7348,
      "ë°°ë¥¼": 7349,
      "ĠíĮ¬ëĵ¤ìĿ´": 7350,
      "é«": 7351,
      "ëĶĶê°Ģ": 7352,
      "ĠìĿ´ê²ĥìĿĦ": 7353,
      "ĠìĦ±ê³µíĸĪëĭ¤": 7354,
      "Ġìŀ¡ëĬĶ": 7355,
      "Ġì¤ĳìĹĲëĬĶ": 7356,
      "ĠìĪĺíķĻ": 7357,
      "Ġì¡°ìļ©": 7358,
      "ì£¼ì§Ģ": 7359,
      "ĠëĲĺìĹĪìľ¼ë©°": 7360,
      "ĠíĢ¸": 7361,
      "ĠíķĺëĤĺìĿ´ëĭ¤": 7362,
      "Ġíİ¸ìĿĺ": 7363,
      "Ġìĭ¬íķľ": 7364,
      "ë¦¬ìĸ¼": 7365,
      "ĠíĺĦìĥģ": 7366,
      "ë²ķìĿ´": 7367,
      "Ġê¸°ëĬ¥ìĿ´": 7368,
      "ĠìĺĪëĬ¥": 7369,
      "ìĦ¸ë¡ľ": 7370,
      "Ġìĸ´ëĸł": 7371,
      "41": 7372,
      "ey": 7373,
      "SL": 7374,
      "ëĵŃ": 7375,
      "íĸĪëĬĶì§Ģ": 7376,
      "Ġë³´ìŀ¥": 7377,
      "Ġì°½ìŀĳ": 7378,
      "Ġ1991": 7379,
      "ìģĺ": 7380,
      "ãģ¿": 7381,
      "ê²ĥìĿĢ": 7382,
      "ĠPro": 7383,
      "ĠíļĮìĿĺ": 7384,
      "Ġê°Ŀ": 7385,
      "ĠìĿĺì¡´": 7386,
      "ëĿ¼ê¸°": 7387,
      "eat": 7388,
      "ìĿ¼ë³´": 7389,
      "ëĨĢ": 7390,
      "Ġì¡´ìŀ¬íķĺì§Ģ": 7391,
      "ëŀ«ëıĻìķĪ": 7392,
      "II": 7393,
      "ìķĦëĭĪ": 7394,
      "Ġë¶ĢíĦ°": 7395,
      "ond": 7396,
      "ìķĦë¥´": 7397,
      "ìĤ¬ìļ°": 7398,
      "Ġìłķë¥ĺ": 7399,
      "ìĺ¤ê³ł": 7400,
      "ĠìŀĪê¸°ìĹĲ": 7401,
      "ĠìĹ¬ìĻķ": 7402,
      "ĠNC": 7403,
      "ĠìĿ¼ëıĦ": 7404,
      "ìĹŃìĹĲ": 7405,
      "Ġê´Ģê°Ŀ": 7406,
      "ĠìĤ¬ìļ©íķĺìĹ¬": 7407,
      "ëħ¸ê°Ģ": 7408,
      "ĠìºĲë¦ŃíĦ°ë¡ľ": 7409,
      "Ġì§ĢëĤĺì¹ĺê²Į": 7410,
      "ê³¼ëıĦ": 7411,
      "Ġë§īê¸°": 7412,
      "Ġê·¸ê²ĥìĿ´": 7413,
      "ëĮĢìĥģ": 7414,
      "ĠìłĦìŁģìĿĦ": 7415,
      "Ð¾": 7416,
      "ëģĿ": 7417,
      "ĠìĤ¼êµŃ": 7418,
      "ĠìĿ´ìĬ¬ëŀĮ": 7419,
      "Ġë³´ë©°": 7420,
      "ĠìĹĨìľ¼ëĭĪ": 7421,
      "ĠíķľíĻĶ": 7422,
      "ĠëĮĢëŀµ": 7423,
      "ĠìĥĿê°ģíķĺê³ł": 7424,
      "Ġë²łìĬ¤íĬ¸": 7425,
      "ĠíĹ¤ëĵľ": 7426,
      "ĠìķĦìī½": 7427,
      "Ġê¹Ģìĺģ": 7428,
      "Ġì½Ķëĵľ": 7429,
      "ìŀĦìĬ¤": 7430,
      "ëĵľëŁ¬": 7431,
      "ĠìķĦë²Ħì§Ģê°Ģ": 7432,
      "ĠíĹ¤ìĸ´": 7433,
      "ë¡Ģë¡ľ": 7434,
      "Ġìī½ëĭ¤": 7435,
      "ìŀĲë§ĪìŀĲ": 7436,
      "Ġë§ĪìĿ´íģ´": 7437,
      "ë¥´ì§Ģ": 7438,
      "ìłķì¹ĺ": 7439,
      "ĠìĬ¤íĤ¬ìĿ´": 7440,
      "ĠìĿ´ìª½ìĿĢ": 7441,
      "êµĲë¥¼": 7442,
      "ĠìĤ¬ìłķ": 7443,
      "ìľ¼ë¡ł": 7444,
      "ë¦°ìĿĺ": 7445,
      "ìķĦëĬĶ": 7446,
      "ìĿ´ìĹĪëĭ¤ê³ł": 7447,
      "Ġê²ĥìĿ´ê³ł": 7448,
      "å¤©": 7449,
      "OP": 7450,
      "ĠëĤĺë£¨": 7451,
      "Ġëĭ¤ë£¬": 7452,
      "Ġê¶Įì´Ŀ": 7453,
      "ìĭ¤ìłĲ": 7454,
      "ë¹ĦëĶĶìĺ¤": 7455,
      "ĠìķĮíĮĮ": 7456,
      "Ġìį¨ìĦľ": 7457,
      "Ġíļ¨ê³¼ëĬĶ": 7458,
      "Ġê¸°ìĸ´": 7459,
      "Ġìĸ¸ìłľëĤĺ": 7460,
      "åĭ": 7461,
      "ĠìĦ¸ê³ĦìĿĺ": 7462,
      "ìľ¼ëł¤ê³ł": 7463,
      "Ġë¹Ĺ": 7464,
      "ìĺĪìĪł": 7465,
      "Ġíķľëį°": 7466,
      "Ġê²ī": 7467,
      "ëĶĶë¡ľ": 7468,
      "ìŀĪê³ł": 7469,
      "Ġëĵ¤ìĸ´ê°Ħëĭ¤": 7470,
      "RA": 7471,
      "Ġ75": 7472,
      "ĠíĮ¬ëĵ¤ìĿĢ": 7473,
      "Ġ48": 7474,
      "Ġëª¨ëĳĲê°Ģ": 7475,
      "ĠìĿ´ì£¼": 7476,
      "âĢ¦âĢ¦": 7477,
      "margin": 7478,
      "ëĭ¹íķ´": 7479,
      "êµĲíļĮ": 7480,
      "Ġëª¨ìĹ¬": 7481,
      "Ġê³łìļ©": 7482,
      "ĠíĮĲíĥĢì§Ģ": 7483,
      "ĠìĥģíĻ©ìĿ´ëĭ¤": 7484,
      "åĮ": 7485,
      "ĠìĺĪìĻ¸": 7486,
      "Ġê³µê²©ìĹĲ": 7487,
      "Ġëħ¸íĬ¸": 7488,
      "ìłķíĻķ": 7489,
      "ĠìĦ±ìłģìĿĦ": 7490,
      "íķĺê¸°ëĬĶ": 7491,
      "Ġì¤ĳìĹĲìĦľëĬĶ": 7492,
      "ĠìĹĨìľ¼ë©´": 7493,
      "Ġì²«ë²Īì§¸": 7494,
      "ë²Ħëł¤": 7495,
      "Ġì£¼ìłĦ": 7496,
      "Ġì¶ľíĺĦ": 7497,
      "Ġë°ĿíĺĢì¡Įëĭ¤": 7498,
      "ìĭ¬ìľ¼ë¡ľ": 7499,
      "íıīìĸĳ": 7500,
      "ìŀĲê³ł": 7501,
      "MA": 7502,
      "ĠìĪĺìĨ¡": 7503,
      "Ġíĺĳë°ķ": 7504,
      "Ġ;": 7505,
      "ĠìĿ´ìĦ±": 7506,
      "ìĤ¬ëĭ¨": 7507,
      "Ġë¦¬ë©ĶìĿ´": 7508,
      "ëĵľë¦½": 7509,
      "ëĵłê°Ģ": 7510,
      "ëĭ¤ëĭĪëĬĶ": 7511,
      "ĠíĮĿ": 7512,
      "Ġì§Ħìłķíķľ": 7513,
      "ĠëĤ´êµ¬": 7514,
      "ĠìĿ´ìŀ¬": 7515,
      "65": 7516,
      "Ġíķ«": 7517,
      "ìĿ´ëıĻ": 7518,
      "ĠìĿĺë¯¸íķľëĭ¤": 7519,
      "ĠëĤ´ìĿĺ": 7520,
      "ĠëĮĢíĻĶë¥¼": 7521,
      "ĠìłĢìŀ¥": 7522,
      "Ġê·¸ëŁ¼ìĹĲëıĦ": 7523,
      "Ġìĭ¤ëł¥ìĿĦ": 7524,
      "Ġê°Ģëĵľ": 7525,
      "ìĨĮíķľ": 7526,
      "Ġì§Ħì§Ģ": 7527,
      "íĽĦìĹĲ": 7528,
      "ä¿": 7529,
      "ĠìŀĲê°Ģ": 7530,
      "íİ¸ìĹĲìĦľ": 7531,
      "Ġìŀħëł¥": 7532,
      "íĻĺìĿ´": 7533,
      "Ġë¶ĻìĿĢ": 7534,
      "ĠìķĦëĭĪëĥĲëĬĶ": 7535,
      "ĠìĸĳìĤ°": 7536,
      "ìĬ¤íĬ¸ê°Ģ": 7537,
      "Ġê·¼ìľ¡": 7538,
      "ĠìĿ´ë£¨ìĸ´ì§Ħ": 7539,
      "ĠíĮĮíĬ¸ëĦĪ": 7540,
      "ĳ¼": 7541,
      "ìĽĶìĹĲëĬĶ": 7542,
      "ê²Ł": 7543,
      "ìĺĪë¥¼": 7544,
      "ìķĦìķ¼": 7545,
      "ĠëŁ°ëįĺ": 7546,
      "Ġë©Ķìĭľ": 7547,
      "ĠìĿ´ì¤ĳ": 7548,
      "ĠëĲĺìĸ´ìĦľ": 7549,
      "ĠìĬ¤íĬľëĶĶìĺ¤": 7550,
      "ĠìĦ±ë¦½": 7551,
      "ĠìĭĿë¯¼": 7552,
      "ĠìĹĳìĬ¤": 7553,
      "Ġì£¼ë³ĢìĹĲ": 7554,
      "ë³´ê¸°": 7555,
      "ĠìĿĺë£Į": 7556,
      "íĪ¬ê°Ī": 7557,
      "Ġíĥ±ì»¤": 7558,
      "Ł³": 7559,
      "íĥĢì¹´": 7560,
      "ĠìłĦì§ģ": 7561,
      "ĠëĤĺìĻĢìĦľ": 7562,
      "ĠìĿ´ëĤł": 7563,
      "ĠìµľíĽĦìĿĺ": 7564,
      "Ġê³µê°ľëĲľ": 7565,
      "à¸": 7566,
      "ĠëĮĢì²ĺ": 7567,
      "Ġìĥģíĺ¸": 7568,
      "ĠíĻľìĦ±": 7569,
      "ìľłë¥¼": 7570,
      "Ġì²ĺë²Į": 7571,
      "Ġëĭ¨ìĪľíķľ": 7572,
      "ëĮĢìĤ¬": 7573,
      "Ġë¶ģë¯¸": 7574,
      "Ġëĭ¤ë£¨ëĬĶ": 7575,
      "Ġê·¸ë¡ľ": 7576,
      "per": 7577,
      "ĠìĹĨëĬĶëį°": 7578,
      "ĠëģĮê³ł": 7579,
      "Ġê·ĢìĹ¬": 7580,
      "ëĶ±": 7581,
      "Ġë¬¸íĹĮ": 7582,
      "ëĦ¤ìĿ´": 7583,
      "ëĭ¹íķľëĭ¤": 7584,
      "ĠìľĦíĹĺíķľ": 7585,
      "Ġì«ĵìķĦ": 7586,
      "ĠëĤĺíĥĢëĤľ": 7587,
      "Ġë³´ìķĪ": 7588,
      "ĠìĥĿê°ģìĿ´": 7589,
      "ë³į": 7590,
      "ëĲĺìĹĪëĭ¤ê³ł": 7591,
      "Ġêµ°ìĿ¸": 7592,
      "ĠëģĮëł¤": 7593,
      "ìĹ°ìĿĦ": 7594,
      "ĠíķĺëĭĪ": 7595,
      "Ġë²Ħë¦¬ê³ł": 7596,
      "Ġê°Ģê³ł": 7597,
      "Ġíķ¨ìłķ": 7598,
      "ĹëĤł": 7599,
      "ĠìłĦíĺķ": 7600,
      "Ġìłķì¹ĺìĿ¸": 7601,
      "ãģĬ": 7602,
      "ëĲĺì§Ģë§Į": 7603,
      "íĿĶ": 7604,
      "ìĽĶëĵľ": 7605,
      "ë§Įíģ¼ìĿĢ": 7606,
      "ëŁŃìĭľ": 7607,
      "Ġë§Ĳíķĺë©´": 7608,
      "Ġë¹µ": 7609,
      "ãĥ¼ãĥ": 7610,
      "Ġë³´ìĿ¸": 7611,
      "Ġë¬´ë¦": 7612,
      "43": 7613,
      "Ġë£¨íĬ¸": 7614,
      "ĠëĨĴìĿ´": 7615,
      "Ġíİł": 7616,
      "íĨłëĬĶ": 7617,
      "ë¥ĺìĿĺ": 7618,
      "ìĸ´ë¦¬": 7619,
      "oh": 7620,
      "èª": 7621,
      "íİĺìĿ´": 7622,
      "ĠìĻ¸ìĹĲëĬĶ": 7623,
      "ìĦĿìĿĢ": 7624,
      "ĠìĦ¤ìłķìĿ´": 7625,
      "ĠìĹĲìĦľ": 7626,
      "íķ´ìĦľëĬĶ": 7627,
      "ĠìĪĺìĤ¬": 7628,
      "ëĲĺìĹĪìĿĦ": 7629,
      "ì¨Įëĵł": 7630,
      "Ġì§Ģìĸ´": 7631,
      "ë¬¼ìĹĲ": 7632,
      "Ġì¤ĳêµŃìĿĺ": 7633,
      "ĠMC": 7634,
      "Ġë°ĽìķĦëĵ¤ìĿ´": 7635,
      "Ġì§ĢìĹŃìĹĲìĦľ": 7636,
      "BA": 7637,
      "Ġíĺ¸íħĶ": 7638,
      "Ġìĭ¬ë¦¬": 7639,
      "ĠíĮĲìłķ": 7640,
      "íĥĢìĻĢ": 7641,
      "éģĵ": 7642,
      "ìĭłìľ¼ë¡ľ": 7643,
      "ìĨĮëĬĶ": 7644,
      "ĠíļĮìŀ¥": 7645,
      "Ġì§ĢìĹŃìĿĦ": 7646,
      "ìĬ¬ëŁ¬": 7647,
      "ĠëłĪìĺ¤": 7648,
      "ĠìłĦìĽĲ": 7649,
      "ĠíĨµìłľ": 7650,
      "ëħ¸ìĿĺ": 7651,
      "Ġê°ĩ": 7652,
      "ëĵ¤ê³¼ëĬĶ": 7653,
      "ë°©ìĸ´": 7654,
      "Ġë§İìķĦìĦľ": 7655,
      "ìĨĮë¡ľ": 7656,
      "ëĭ¤ë³´ëĭĪ": 7657,
      "ìŀĲì¹ĺ": 7658,
      "ìŀĳìĿ´": 7659,
      "ëıĦë¥´": 7660,
      "Ġì§ģìĽĲ": 7661,
      "ĠëĦ¤ê°Ģ": 7662,
      "íĨµìĿĦ": 7663,
      "ĠëĮĢíķŃ": 7664,
      "Ġê°ķìłľë¡ľ": 7665,
      "ĠìłĪë§Ŀ": 7666,
      "Ġì°©ê°ģ": 7667,
      "ì¸łìĿĺ": 7668,
      "ìĭ¤ë¡ľ": 7669,
      "88": 7670,
      "Ġìĭľì¼ľ": 7671,
      "Ġê°Ĳìĭľ": 7672,
      "Ġìŀ¦": 7673,
      "Ġê´Ģê³Ħë¡ľ": 7674,
      "ĠìĦ¹": 7675,
      "ë¡łìĿĺ": 7676,
      "ĠëĬĲëĤĮìĿ´": 7677,
      "Ġë¸Ķë¡Ŀ": 7678,
      "Ġì²´ëł¥ìĿĦ": 7679,
      "ĠìĿĺë¢°": 7680,
      "Ġë¬¸íķĻ": 7681,
      "Ġìŀ¡ìĿĦ": 7682,
      "íĮĢìĿ´": 7683,
      "ìŀ¬ê°Ģ": 7684,
      "ost": 7685,
      "ĠìĤ¬ìļ©íķ´": 7686,
      "Ġì£¼ìĹĪëĭ¤": 7687,
      "Ġêµ¬ìĦ±ëĲĺìĸ´": 7688,
      "Ġë³´ìĿ¼": 7689,
      "ĠíĴĢìĸ´": 7690,
      "ĠìĦ±ê²©ìĿ´": 7691,
      "Ġì´ĿìĿĦ": 7692,
      "'(": 7693,
      "ê³¡ìĿĦ": 7694,
      "êµ°ìľ¼ë¡ľ": 7695,
      "Ġê³łëĵ±": 7696,
      "ĠíĬĢìĸ´ëĤĺ": 7697,
      "Ġìłķì§Ģ": 7698,
      "ĠíĮĮìĿ¼ëŁ¿": 7699,
      "Ġë§ĪìĿ´ëĦĪ": 7700,
      "èĪ": 7701,
      "ìĹħìĿ´": 7702,
      "Ġë³¸ìĦł": 7703,
      "Ġìĺ¤ëŀ«ëıĻìķĪ": 7704,
      "ëĭ¤ìĿĺ": 7705,
      "Ġë§Ĳë¡ľ": 7706,
      "ĠìĺĪë¹Ħ": 7707,
      "Ġëºı": 7708,
      "ĠìŀĥìĿĢ": 7709,
      "íļĮë§Ĳ": 7710,
      "ê¸Ģë¡ľ": 7711,
      "ile": 7712,
      "Ġë²Ħëł¤": 7713,
      "íİĢ": 7714,
      "Ġì§Ģê¸ĪìĿĺ": 7715,
      "ë¦¼ìĿĦ": 7716,
      "íķĺëł¤ë©´": 7717,
      "Ġê°Ģë³į": 7718,
      "ĠíİĢ": 7719,
      "ĠìŀĲìĭłëıĦ": 7720,
      "Ġìĵ°ê¸°": 7721,
      "Ġêµ¬ë©į": 7722,
      "Ġê¹¨ëĭ«": 7723,
      "ĠìĨĮìĪĺ": 7724,
      "Ġëĭ¤ë¦¬": 7725,
      "Ġê°Ĳìłķ": 7726,
      "ĠìķĬëĬĶëĭ¤ëĬĶ": 7727,
      "Ġë°ĺìĿĳìĿ´": 7728,
      "ĠíĶĮëŀ«": 7729,
      "Ġë¼Ī": 7730,
      "Ġìĸ´ë¦°ìĿ´": 7731,
      "orld": 7732,
      "ĠìĪĺì¹ĺ": 7733,
      "ĠìķĦë¹ł": 7734,
      "ĠìłĦíĻĶ": 7735,
      "ĠìĹĨëįĺ": 7736,
      "Ġìĥģíĸ¥": 7737,
      "íĸĪìĬµëĭĪëĭ¤": 7738,
      "ĠíĺĦì§Ģ": 7739,
      "ê·¸ëĿ¼": 7740,
      "ĠìłĢëħģ": 7741,
      "Ġìĸ´ì©Į": 7742,
      "ĠëĤĺë¥¼": 7743,
      "Ġë§Īë²ķìĿĦ": 7744,
      "ĠëĬ¥ëł¥ìĿĢ": 7745,
      "Ġê´Ģìĭ¬ìĿ´": 7746,
      "ìĥīìľ¼ë¡ľ": 7747,
      "íķĺê³łìŀĲ": 7748,
      "Ġì¹¨ê³µ": 7749,
      "ìĺµ": 7750,
      "Ġìłķì¹ĺìłģ": 7751,
      "ëĵľëłĪ": 7752,
      "ì¿¼": 7753,
      "ĠíĶĦë¦°": 7754,
      "ĠìĿ´ëģĮê³ł": 7755,
      "Ġëĵ¤ìĿ´": 7756,
      "ëħ¹": 7757,
      "PU": 7758,
      "ìĹŃìĿĺ": 7759,
      "Ġíķľê¸Ģ": 7760,
      "Ġê²½ê¸°ëĬĶ": 7761,
      "ĠìĻ¸ë¶Ģ": 7762,
      "ĠìĿ¼ìľ¼íĤ¤": 7763,
      "ë¦¬íı¬": 7764,
      "ĠëıĻëĦ¤": 7765,
      "ĠìķĦìĭľìķĪ": 7766,
      "ĠíķĺìĪĺ": 7767,
      "ãĤı": 7768,
      "ĠìłķëıĦëĭ¤": 7769,
      "ĠìłģëĮĢ": 7770,
      "Ġìŀ¥ìĭĿ": 7771,
      "ĠìĿ´ìłĦìĿĺ": 7772,
      "Ġê¹Įëĭ¤": 7773,
      "âĳ": 7774,
      "ĠìĨĮíĶĦíĬ¸ìĽ¨ìĸ´": 7775,
      "Ġê²°ê³¼ë¥¼": 7776,
      "ëħ¸ìļ°": 7777,
      "ëĭ¹ìĿĢ": 7778,
      "EFA": 7779,
      "íķĺëĬĶê²Į": 7780,
      "Ġìļ°ìĪĺ": 7781,
      "Ġì½ľëĿ¼": 7782,
      "Ġëª¨ë¦¬": 7783,
      "íĽĦìĿĺ": 7784,
      "Ġë³´ìĿ´ì§Ģë§Į": 7785,
      "ĠìłĦì²ł": 7786,
      "ë¹ĦíĬ¸": 7787,
      "ĠëĤ¼": 7788,
      "ĠìŀłìĪĺ": 7789,
      "ĠìħĶ": 7790,
      "Ġê°ĪìķĦ": 7791,
      "ìĸ´ë²Ħë¦°": 7792,
      "Ġë¹ļ": 7793,
      "ãĤģ": 7794,
      "Ġì¤Ģìļ°ìĬ¹": 7795,
      "ev": 7796,
      "ĠìĹĲëĵľ": 7797,
      "ĠìłĦëł¥": 7798,
      "Ġëļľ": 7799,
      "ìķĺìľ¼ë©°": 7800,
      "Ġê²°íķ©": 7801,
      "ĠìŀĪëĭ¤ê°Ģ": 7802,
      "Ġì£¼ê¸°": 7803,
      "ĠíĸĪëĭ¤ëĬĶ": 7804,
      "ëį°ëĭ¤": 7805,
      "ĠFA": 7806,
      "Ġì§ĢìĽĲìĿĦ": 7807,
      "Ġê·¼ëį°": 7808,
      "ĠìŀĲë§¤": 7809,
      "ĠëĤ´ëĨĵ": 7810,
      "Ġì¦Ī": 7811,
      "ĠíķľëıĻìķĪ": 7812,
      "ì¡Įìľ¼ë©°": 7813,
      "ë¬´ìŀ¥": 7814,
      "1999": 7815,
      "ì¤ĺìķ¼": 7816,
      "act": 7817,
      "êµ¬ëł¤": 7818,
      "ê¸ĪìĿ´": 7819,
      "ìĺģìĿĺ": 7820,
      "íĨµìĭł": 7821,
      "ëĭ¨ì²´": 7822,
      "Ġë§ŀëĭ¤": 7823,
      "èĩ": 7824,
      "Ġê°Ķëĭ¤": 7825,
      "ĠíĨłëª¨": 7826,
      "Ġë§Īì¸ł": 7827,
      "Ġì§ĢëĤ´": 7828,
      "ĠëĲĺìĹĪëĭ¤ê³ł": 7829,
      "NS": 7830,
      "ĠíıŃì£¼": 7831,
      "íģ´ëŁ½": 7832,
      "ëŁ¬ìĭľìķĦ": 7833,
      "align": 7834,
      "ê·¼íĺľ": 7835,
      "ĠìĹĨìĹĪ": 7836,
      "Ġìłĳì´ī": 7837,
      "Ġê±°ê¸°ëĭ¤": 7838,
      "ĠìŀĲìĿ´ìĸ¸": 7839,
      "Ġíĥľìĸ´ëĤĺ": 7840,
      "ë¡ľë´ĩ": 7841,
      "Ġê³°": 7842,
      "ìŀĳìĿĢ": 7843,
      "Ġì»¤íĶĮ": 7844,
      "ëľ»": 7845,
      "ê³łê¸°": 7846,
      "ìĺģìĽħ": 7847,
      "ëŁīìľ¼ë¡ľ": 7848,
      "Ġë§ĪìĿĮìĿ´": 7849,
      "íĮĮê°Ģ": 7850,
      "Ġì°¨ëĭ¨": 7851,
      "ìķĺëĭ¤ëĬĶ": 7852,
      "ĠíķĺíķĦ": 7853,
      "ĠìĦľìļ¸íĬ¹ë³Ħìĭľ": 7854,
      "ì²´ìľ¡": 7855,
      "ìĭľíĤ¤ê¸°": 7856,
      "ĠíĮ¬ëį¤": 7857,
      "||": 7858,
      "Ġê²ĥë§Į": 7859,
      "íķľìĿĦ": 7860,
      "íĭ°ëĤĺ": 7861,
      "ë¡ľë§Ī": 7862,
      "íĺĳíļĮ": 7863,
      "ish": 7864,
      "ì£¼ìļĶ": 7865,
      "ê²łì§Ģ": 7866,
      "ĠìŀĳíĴĪìĿĺ": 7867,
      "Ġë¹¡": 7868,
      "Ġê°Ĳìĺ¥": 7869,
      "eb": 7870,
      "Ġê·ľì¹Ļ": 7871,
      "ë»Ĳ": 7872,
      "io": 7873,
      "man": 7874,
      "ĠìĦ¸ìĽĶ": 7875,
      "ĠíĮĮìĿ´ìĸ´": 7876,
      "Ġíĳ¸ë¥¸": 7877,
      "ì¡°ì°¨ëıĦ": 7878,
      "ìĭĿìĹĲ": 7879,
      "Ġ1988": 7880,
      "ib": 7881,
      "Ġê°ķíķĺê²Į": 7882,
      "ĠëĮĢìĥģìĿ´": 7883,
      "ĠìĿ´ìĸ´ì§ĢëĬĶ": 7884,
      "ĠëıħìŀĲ": 7885,
      "Ġíŀĺìľ¼ë¡ľ": 7886,
      "Ġê°ĲìĤ¬": 7887,
      "Ġìĭ¸ìļ¸": 7888,
      "ĠìłķíĻķíķľ": 7889,
      "Ġë¶ĦìľĦê¸°": 7890,
      "Ġê²½íĸ¥ìĿ´": 7891,
      "ĠìĭłìĦ±": 7892,
      "Ġì»·": 7893,
      "ê¿Ī": 7894,
      "Ġ1970": 7895,
      "Ġê´Ģíķł": 7896,
      "Ġì°½ì¡°": 7897,
      "Ġìŀ¥ìĪĺ": 7898,
      "ĠìķĦë¨¸": 7899,
      "Ġë©Ķì¹´": 7900,
      "Ġëĺĳê°Ļ": 7901,
      "Ġë°ĶëĢĲ": 7902,
      "ãĤ·": 7903,
      "ĠìĪľìĪĺ": 7904,
      "ĠUn": 7905,
      "ĠìĦ¸ìĥģìĿĦ": 7906,
      "Ġëĭ¨ê³Ħ": 7907,
      "Ġì»µ": 7908,
      "ĠìłĦìĭľ": 7909,
      "Ġìĺ¬ë¦°": 7910,
      "Ġì£½ìĿĮìĿĦ": 7911,
      "Ġê²½ë¹Ħ": 7912,
      "Ġê·¹ë³µ": 7913,
      "ĠíķĦëĵľ": 7914,
      "Ġë¬´ëłµ": 7915,
      "RE": 7916,
      "ĠìĤ¬ìļ©íķĺì§Ģ": 7917,
      "ëĿ¼ìĹĺ": 7918,
      "ëĮĢêµ¬": 7919,
      "Ġê¸°ìĪłìĿ´": 7920,
      "ì¢Ģ": 7921,
      "85": 7922,
      "æĦ": 7923,
      "ĠìľĮë¦¬ìĹĦ": 7924,
      "ìŀ¬ë¡ľ": 7925,
      "Ġë³´ë¬¼": 7926,
      "ich": 7927,
      "íĬ¸ë¦Ń": 7928,
      "Ġìŀ¬íĮĲ": 7929,
      "ary": 7930,
      "ìĸ´ëĤł": 7931,
      "ìķĦìķĦ": 7932,
      "Ġëĭ¹íķ´": 7933,
      "ìĦĿìĿĺ": 7934,
      "ĠíĶĮëłĪ": 7935,
      "Ġíģ¬ë¡ľìĬ¤": 7936,
      "ĠìĥĿê°ģë³´ëĭ¤": 7937,
      "1998": 7938,
      "íĤ·": 7939,
      "ĠìłĦë©´": 7940,
      "Ġìĥ·": 7941,
      "ave": 7942,
      "Ġë§ŀìĿĢ": 7943,
      "ĠìľłëĮĢ": 7944,
      "ĠìĤ¬ê±°ë¦¬": 7945,
      "ĠìłĦíķ´": 7946,
      "ëĲľëĭ¤ëĬĶ": 7947,
      "ĠëĮĢìĤ¬ë¥¼": 7948,
      "Ġë°©ì¶ľ": 7949,
      "ĠìĿ´ìĥģìľ¼ë¡ľ": 7950,
      "Ġ37": 7951,
      "ĠìĹ¬ê°Ŀ": 7952,
      "ìłĦê³¼": 7953,
      "Ġãħ": 7954,
      "ì¢ħìĿĦ": 7955,
      "Ġê³łìĥĿ": 7956,
      "ëłĪìĿ´íĦ°": 7957,
      "Ġë§Īë¦¬ìĺ¤": 7958,
      "ì£¼ì°¨": 7959,
      "Ġì£½ìĿ¸": 7960,
      "ĠìķĦëĭĪëĿ¼ê³ł": 7961,
      "ìĸ´ëĸ": 7962,
      "ĠìĻ¸ê³Ħ": 7963,
      "ê°Ģìŀ¥": 7964,
      "Ġë§ĮëĤ¬": 7965,
      "Ġë°©ë²ķìĿĢ": 7966,
      "Ġë§ŀê²Į": 7967,
      "Ġì¤ĺ": 7968,
      "ĠìĿ´ìĭľ": 7969,
      "ìķĪìĹĲ": 7970,
      "ìłĦìĦ¤": 7971,
      "ĠëĨįêµ¬": 7972,
      "íĪ¬ë¥¼": 7973,
      "Ġì¤ĳê³Ħ": 7974,
      "Ġíı¬íĥĳ": 7975,
      "ĠìĿ¼ìłľ": 7976,
      "ĠìĬ¤íĭ°": 7977,
      "Ġë§ĪëıĦ": 7978,
      "Ġê²Ģì°°": 7979,
      "ì½ĶìĻĢ": 7980,
      "íĺĦëĮĢ": 7981,
      "96": 7982,
      "Ġê¹¨ìĸ´": 7983,
      "Ġìĺ·ìĿĦ": 7984,
      "Ġë§Īíģ¬": 7985,
      "ĠìĦłì¶ľ": 7986,
      "å£": 7987,
      "ë½": 7988,
      "Ġë°ľë§¤ëĲĺìĹĪëĭ¤": 7989,
      "ë¹ħ": 7990,
      "ìĿµìĿĦ": 7991,
      "ëªħìĹĲ": 7992,
      "ĠìľĦì¹ĺíķ´": 7993,
      "Ġê³µíĻĶ": 7994,
      "ê²ĮìĿ´": 7995,
      "Ġìĭłê³ł": 7996,
      "ĠìķĦëĤĺìļ´": 7997,
      "çĻ": 7998,
      "ĠìĹŃìĤ¬ìĥģ": 7999,
      "aw": 8000,
      "ĠíĮĮìĿ´ëĦĲ": 8001,
      "Ġìŀ¥ë©´ìĿĦ": 8002,
      "ìĭ¬íķľ": 8003,
      "ê°Ģì¡±": 8004,
      "ach": 8005,
      "ĠìĿ´ê¸¸": 8006,
      "íĻĶìĻĢ": 8007,
      "ëĭĪìĻĢ": 8008,
      "ìĦľìĹĲ": 8009,
      "ĠíĬ¹ìĿ´íķľ": 8010,
      "ĠìĪĺìĭŃ": 8011,
      "Ġê°ľìŀħ": 8012,
      "ìĺĢëĭ¤ëĬĶ": 8013,
      "ê²½ìĿĺ": 8014,
      "ĠìĺĪìĦł": 8015,
      "Ġìį©": 8016,
      "ìĿ¸ì§ĢëĬĶ": 8017,
      "Ġìĸ´ëĵľ": 8018,
      "ë³ĢìĿ´": 8019,
      "ĠìļĶê´´": 8020,
      "ì½Ķë¥¼": 8021,
      "Ġì²ŃìĨĮëħĦ": 8022,
      "Ġì°¸ìĦĿ": 8023,
      "ĠëıĻìĭľ": 8024,
      "ĠìĬ¹ë¶Ģ": 8025,
      "Ġë°ķìłķ": 8026,
      "Ġëĭ«": 8027,
      "ĠAI": 8028,
      "Ġë¹łë¥´": 8029,
      "ĠêµĲíļĮ": 8030,
      "ìķ¼ë¥¼": 8031,
      "Ġê±´êµŃ": 8032,
      "ĠëĤ¬": 8033,
      "ĠìĤ¬ëŀĳìĿĦ": 8034,
      "Ġj": 8035,
      "Ġby": 8036,
      "ĠíĬľ": 8037,
      "ëħĶ": 8038,
      "ĠìĤ¬ëŀĮëĵ¤ìĹĲê²Į": 8039,
      "ìĺĢê¸°": 8040,
      "Ġìłķë³µ": 8041,
      "Ġì¿łíĤ¤": 8042,
      "Ġë¶Ģë¬¸": 8043,
      "ì©į": 8044,
      "ĠìħĪìĿ´ëĭ¤": 8045,
      "ĠëĤĺëĪł": 8046,
      "ĠíĮĮëĿ¼": 8047,
      "ê¸°ë¡Ŀ": 8048,
      "Ġì°¨ëĿ¼ë¦¬": 8049,
      "íĻĺìĿĦ": 8050,
      "ĠíĮ¬ëĵ¤ìĿĺ": 8051,
      "å½": 8052,
      "ê¸°ëıĻ": 8053,
      "ĠëįĶëįĶìļ±": 8054,
      "Ġë¬´ëį¤": 8055,
      "áĦ": 8056,
      "Ġì°¾ëĬĶ": 8057,
      "ëħ¸ìĬ¤": 8058,
      "Ġíķľë§Ī": 8059,
      "ĠëĤ´ìĦ¸": 8060,
      "ĠìĦ¸ê³Ħë¥¼": 8061,
      "ê²Įëĭ¤ê°Ģ": 8062,
      "ĠíĹĮë²ķ": 8063,
      "íĻĶíķľ": 8064,
      "ĠìĹŃìĿĦ": 8065,
      "íı¬ê°Ģ": 8066,
      "ë§ĿìĿĦ": 8067,
      "Ġê°ĢëĬ¥íķĺë©°": 8068,
      "Ġìĸ´ëĶĶê¹Įì§ĢëĤĺ": 8069,
      "íķĺê°Ģ": 8070,
      "Ġìŀĥê³ł": 8071,
      "Ġíķĺê³Ħ": 8072,
      "ĠìŀĪìĹĪê¸°": 8073,
      "ĠìĤ¬ìļ©ëĲĺëĬĶ": 8074,
      "ĠSS": 8075,
      "Ġíķ©ìĦ±": 8076,
      "ĠìĤ¬ì¿ł": 8077,
      "ĠëĶĶë²Ħ": 8078,
      "ìĤ°ìĿĺ": 8079,
      "Ġëĭ¬ê³ł": 8080,
      "ìļĶìĭľ": 8081,
      "Ġìłķëł¹": 8082,
      "ì¶¤": 8083,
      "ìĿ´ê¸°ìĹĲ": 8084,
      "Ġëĵ¤ìĸ´ê°Ī": 8085,
      "íį¼ìĬ¤": 8086,
      "ĠìĿĢíĸī": 8087,
      "ĠëķĲ": 8088,
      "ç«": 8089,
      "Ġ400": 8090,
      "ìĿ¼ëĵľ": 8091,
      "ĠíĺķìĤ¬": 8092,
      "Ġì¸µ": 8093,
      "ĠíĻľë°ľ": 8094,
      "Ġë§Ĳíķĺë©°": 8095,
      "Ġë©Ģì©¡": 8096,
      "Ġë³´ê²Į": 8097,
      "Ġë°©ìĹĲ": 8098,
      "ë¯¸íĦ°": 8099,
      "ĠìĭĿë¬¼": 8100,
      "ĠíĿĺëŁ¬": 8101,
      "Ġ120": 8102,
      "Ġë³´ìĹ¬ì£¼ë©°": 8103,
      "ĠëĤĺìķĦ": 8104,
      "ë³´ë³ĳ": 8105,
      "?'": 8106,
      "Ġìĺ¤ëĬĺëĤł": 8107,
      "ãĢĭ,": 8108,
      "ì°¨ëĬĶ": 8109,
      "ĠìłģìĿĳ": 8110,
      "ook": 8111,
      "Ġsh": 8112,
      "ĠìłĦê³µ": 8113,
      "Ġyour": 8114,
      "ĠìłĦìĦ±": 8115,
      "íķĻìłģ": 8116,
      "Ġëĭ¤ìĪĺìĿĺ": 8117,
      "ĠìĿ¼ì°į": 8118,
      "Ġëª¨ë¥¸": 8119,
      "Ġíĸ¥ìĥģ": 8120,
      "ĠìĿ¼ìĭľ": 8121,
      "ëĦ¨": 8122,
      "ĠìĿ´ëģĦëĬĶ": 8123,
      "ĠìĿ¸íĦ°ë·°ìĹĲìĦľ": 8124,
      "UN": 8125,
      "Ġ1989": 8126,
      "ĠìĬ¤íĬ¸ë¦¬": 8127,
      "ë¯¸ëĦ¤": 8128,
      "Ġê¹ľ": 8129,
      "ĠëĮĢë¯¸ì§Ģë¥¼": 8130,
      "Ġêµ¬ì²´": 8131,
      "Ġë©Īì¶Ķ": 8132,
      "ëŀĢìĿĺ": 8133,
      "Ġìķ±": 8134,
      "Ġì¶ľë§Ī": 8135,
      "ĠíĶĦë¡ľëĵĢìĦľ": 8136,
      "ĠêµĲìŀ¥": 8137,
      "ĠëıħìĿ¼ìĿĺ": 8138,
      "ĠìłĦìĹĲëĬĶ": 8139,
      "Ġë¬´ìĹĩë³´ëĭ¤": 8140,
      "Ġìķµ": 8141,
      "Ġìŀ¥êµ°": 8142,
      "ĠìĦľìĸĳ": 8143,
      "ëĺ": 8144,
      "ì±ł": 8145,
      "ah": 8146,
      "ĠìķŀëĳĲê³ł": 8147,
      "https": 8148,
      "íĬ¸ë§¨": 8149,
      "ìĭ¤ìĿĺ": 8150,
      "Ġì´Īì°½": 8151,
      "ike": 8152,
      "Ġêµ°ì£¼": 8153,
      "Ġìľłì¹ĺ": 8154,
      "ìĦ¤ìĿĦ": 8155,
      "ĠìĿĺë¬´": 8156,
      "Ġê²ĥìĿ¸ì§Ģ": 8157,
      "Ġë§Īë¦¬ìķĦ": 8158,
      "Ġê´Ģìĭ¬": 8159,
      "Ġë§Īì¹¨ëĤ´": 8160,
      "SBS": 8161,
      "ĠìĨįíķĺëĬĶ": 8162,
      "Ġë¯¸ì¸ł": 8163,
      "Ġ1987": 8164,
      "ëĵ±ìĿĺ": 8165,
      "Ġê°ķíķĺëĭ¤": 8166,
      "Ġìĭ¤ëł¥ìĿ´": 8167,
      "Ġì¼ĢìĿ´ìĬ¤": 8168,
      "ĠíļĮìĽĲ": 8169,
      "ĠìŀĪìĸ´ëıĦ": 8170,
      "Ġê³µêµ°": 8171,
      "ê²½ìĹĲ": 8172,
      "Ġìĺ¤ìĤ¬ì¹´": 8173,
      "Ġìµľëĭ¤": 8174,
      "Ġìµľê°ķìĿĺ": 8175,
      "Įë¦°": 8176,
      "Ġë³Ħê°ľë¡ľ": 8177,
      "Ġë§İìĿĢëį°": 8178,
      "Ġëª©ìĨĮë¦¬": 8179,
      "ĠíĽĮë¥Ńíķľ": 8180,
      "Ġê°ģë³¸": 8181,
      "ëĬĲëĿ¼": 8182,
      "ë³´ë¡ľ": 8183,
      "íĨłìĻĢ": 8184,
      "iss": 8185,
      "ĠëĿ¼ìĿ´ëįĶ": 8186,
      "Ġìĸ´ëĳĲ": 8187,
      "ĠìĤ¬ìļ©ëĲľëĭ¤": 8188,
      "Ġëĭ¤ë¥¼": 8189,
      "ê³±": 8190,
      "ĠíıīìĿ´": 8191,
      "Ġìłľìĸ´": 8192,
      "Ġë¬´ê¸°ë¡ľ": 8193,
      "Ġíļ¡": 8194,
      "Ġë¶ĦìľĦê¸°ë¥¼": 8195,
      "Ġíķľëĭ¤ë©´": 8196,
      "Ġê¹Ģìłķ": 8197,
      "ìĹĲëĭ¤": 8198,
      "Ġë¹Ħìļ©": 8199,
      "ĠMP": 8200,
      "Ġë³Ħëĭ¤ë¥¸": 8201,
      "ë©´ìĹĲìĦľ": 8202,
      "ĠëĤĺë¦ĦëĮĢë¡ľ": 8203,
      "ë§īìĿĦ": 8204,
      "Ġíķľê³Ħ": 8205,
      "íİ´": 8206,
      "OM": 8207,
      "ĠìĿ¼ë³¸ìĸ´": 8208,
      "ĠìķĦë¦Ħëĭ¤ìļ´": 8209,
      "ë°©íĸ¥": 8210,
      "ëĵľëŀĺê³¤": 8211,
      "ìłĦëĮĢ": 8212,
      "Ġê°ĪìĪĺë¡Ŀ": 8213,
      "Ġë¹Ħìĥģ": 8214,
      "Ġì£¼ë§Ĳ": 8215,
      "Ġê½Ĥ": 8216,
      "ĠìľĦì£¼ë¡ľ": 8217,
      "ug": 8218,
      "Ġìŀ¥êµĲ": 8219,
      "Ġíı¬ìĬ¤íĬ¸": 8220,
      "Ġê³¼ìłķìĿĦ": 8221,
      "ä¸ī": 8222,
      "ë¹Ħë¡ľ": 8223,
      "ĠìĬ¤ë¯¸": 8224,
      "ìľ¼ëŁ¬": 8225,
      "ìģľ": 8226,
      "Ġê°ĸì¶ĺ": 8227,
      "Ġê°ĢìĨį": 8228,
      "Ġë§Īêµ¬": 8229,
      "ĠìĨĮì´Ŀ": 8230,
      "Ð¸": 8231,
      "ì¡Įì§Ģë§Į": 8232,
      "Ġìĺ¤ìłĦ": 8233,
      "ĠíĶ¼ë¥¼": 8234,
      "ĠíķĻìĽĲ": 8235,
      "ìĪĺìĥģ": 8236,
      "Ġìł¤": 8237,
      "Ġê°ĻìķĦ": 8238,
      "êµ¬ìĻĢ": 8239,
      "ìĤ¬ê¸°": 8240,
      "ë§Īíģ¬": 8241,
      "ìĹ£": 8242,
      "ĠìĨĮìĭĿìĿĦ": 8243,
      "ĠëıħíĬ¹": 8244,
      "ëħĦìĥĿ": 8245,
      "ĠìłĲìĿ´ëĭ¤": 8246,
      "Ġìĭ¸ìĽĢìĿĦ": 8247,
      "Ġë°ĺê²©": 8248,
      "ëĿ": 8249,
      "ë®¬": 8250,
      "íĶ¼ë¥¼": 8251,
      "Ġë¬´ìłģ": 8252,
      "Ġë§ĮëĤĺê²Į": 8253,
      "ìłĦë¬¸": 8254,
      "ìŀĲìĿ´ëĭ¤": 8255,
      "ĠìĬ¤ì¹´ìĿ´": 8256,
      "Ġ55": 8257,
      "Ġìĺ¤íķ´": 8258,
      "Ġì£½ìĿ¼": 8259,
      "ëł¸ëįĺ": 8260,
      "ëıĦìĹĲìĦľ": 8261,
      "Ġê³µê²©íķĺëĬĶ": 8262,
      "ìĦ±ëĬ¥": 8263,
      "ë²ĪìĿĦ": 8264,
      "Ġê³µê°ľëĲĺìĹĪëĭ¤": 8265,
      "ĠìĿ´ë¯¼": 8266,
      "Ġëľ¯": 8267,
      "Ġê°ĢëĬ¥ìĦ±ëıĦ": 8268,
      "Ġë³´ì§Ģ": 8269,
      "ĠìĿĺë¯¸ë¡ľ": 8270,
      "ê³½": 8271,
      "Ġì¾Į": 8272,
      "Ġìı´": 8273,
      "Ġíķľì°¸": 8274,
      "Ġì²¨": 8275,
      "ĠíŀĪëį°": 8276,
      "Ġì¹Ńì°¬": 8277,
      "ìŀĪìĸ´": 8278,
      "Ġë³´ê´Ģ": 8279,
      "Ġìļ¸íĬ¸ëĿ¼": 8280,
      "ìĬ¤íĶ¼": 8281,
      "ĠìĹ°ëĿ½": 8282,
      "ì§ĳìĿĦ": 8283,
      "Ġê²ĥìĿ´ë©°": 8284,
      "ê¸°ê¹Įì§Ģ": 8285,
      "ĠìľłìĤ¬íķľ": 8286,
      "ì¡°ìĤ¬": 8287,
      "ĠíĥĢì¼Ģ": 8288,
      "ìĿ´ìĹĪìľ¼ë©°": 8289,
      "ë³ĳìĽĲ": 8290,
      "ĠìŀĪëĬĶì§Ģ": 8291,
      "ë°ĶëŀĮ": 8292,
      "Ġìŀ¡íĺĢ": 8293,
      "Ġê²½ëł¥": 8294,
      "êµ¬ì¹ĺ": 8295,
      "ĠìŀĲë¦¬ìĹĲìĦľ": 8296,
      "ë³´ìĿ´": 8297,
      "Ġë¶ĢìĿ¸": 8298,
      "ĠST": 8299,
      "Ġëªħëł¹ìĿĦ": 8300,
      "ĠìĹĨìĿĮ": 8301,
      "ãĤŃ": 8302,
      "Ġë¶ĦìľĦê¸°ê°Ģ": 8303,
      "íĭ°ëĵľ": 8304,
      "ĠëĤłê°ľ": 8305,
      "Ġëľ»ìĿĢ": 8306,
      "ance": 8307,
      "ëĲĺìĸ´ìĦľ": 8308,
      "ê·¸ëŀĺìĦľ": 8309,
      "Ġë§īìŀ¥": 8310,
      "ĠíķľíĥĢ": 8311,
      "Ġëĭ¥íĦ°": 8312,
      "Th": 8313,
      "ĠíĢĦë¦¬íĭ°": 8314,
      "Ġë¬´íļ¨": 8315,
      "Ġì°¾ìķĦê°Ģ": 8316,
      "ĠìŀĲëĬĶ": 8317,
      "Ġë¬¼ìĿĦ": 8318,
      "ĠìĿ´ì§ĳ": 8319,
      "íĮĮë¡ľ": 8320,
      "ê·¼ëį°": 8321,
      "ĠCC": 8322,
      "ìĿ´íĬ¸ë¥¼": 8323,
      "ì¡Įëĭ¤ê³ł": 8324,
      "ìłķìĥģ": 8325,
      "ĠìĿ¸ê°ĦìĿ´": 8326,
      "1990": 8327,
      "ĠìŀĲìĭĿ": 8328,
      "ë¡ľìĻĢ": 8329,
      "ĠìķĦëĭĪëĿ¼ëĬĶ": 8330,
      "ëĭ·": 8331,
      "ĠìĦłìĪĺëĵ¤ìĿ´": 8332,
      "Ġìłķë¶ĢëĬĶ": 8333,
      "Ġë¶Īê°ĢëĬ¥íķľ": 8334,
      "Ġë²ĦíĶĦë¥¼": 8335,
      "ĠìķĦíĮĮíĬ¸": 8336,
      "ĠìļĶì¦ĺ": 8337,
      "ë°ĽìĿĦ": 8338,
      "ĠëĤ¨ë¶Ģ": 8339,
      "ĠìĬ¤ìĽ¨ëį´": 8340,
      "ëªħê³¼": 8341,
      "ĠíĶĮë¡ľ": 8342,
      "ëĵ¤ìĿ¸": 8343,
      "ĠëĲĺìĹĪëĬĶëį°": 8344,
      "ëĭ¹íķł": 8345,
      "ĠìĿ¸íķĺìĹ¬": 8346,
      "ìĺ¤ëĬĺ": 8347,
      "Ġì¹ĺëĬĶ": 8348,
      "Ġìĭłë¬¸": 8349,
      "ê³łìĨįëıĦë¡ľ": 8350,
      "ment": 8351,
      "Ġë°ĿíŀĪ": 8352,
      "ĠìĽ¹íĪ°": 8353,
      "Ġì²ŃëħĦ": 8354,
      "ĠíĶĦëĿ¼": 8355,
      "ê¸ĭ": 8356,
      "íĺ¸ìĻĢ": 8357,
      "ĠëĤĺìģĺì§Ģ": 8358,
      "ì°¨ë¡Ģ": 8359,
      "ple": 8360,
      "ì¦ĪìĻĢ": 8361,
      "Ĩį": 8362,
      "ì¡°ì§ģ": 8363,
      "Ġëĵ¤ìĸ´ìĺ¨": 8364,
      "Ġìĭľëĭ¬": 8365,
      "Ġëĵ¤ìĿĦ": 8366,
      "ìĹĲìĿ´": 8367,
      "ĠDLC": 8368,
      "Ġê°ľíĺģ": 8369,
      "ëŀĢëĭ¤": 8370,
      "íĮħìĿĦ": 8371,
      "ëįĶëĿ¼": 8372,
      "ĠëĤľëĭ¤": 8373,
      "ìħĺìĿĦ": 8374,
      "Ġë¸Ķë¡ľê·¸": 8375,
      "æĸĩ": 8376,
      "èĢ": 8377,
      "Ġë³´ìľłíķĺê³ł": 8378,
      "Ġì¤ĳìĿĺ": 8379,
      "Ġì§ĵìĿĦ": 8380,
      "ë¡łìĿĢ": 8381,
      "ë²ķìĿĢ": 8382,
      "Ġê²°ì½Ķ": 8383,
      "Ġê°Ģìķ¼": 8384,
      "ĠìĺĪê³ł": 8385,
      "íĮĢìĿĺ": 8386,
      "ĠëĮĢë¯¸ì§Ģ": 8387,
      "Ġê¸°ìŀ¬": 8388,
      "ĠìĦłìĥĿëĭĺ": 8389,
      "ĠìľĦë°ĺ": 8390,
      "Ġë¶ĢíĴĪ": 8391,
      "ë¬ĺíķľ": 8392,
      "ĠìĥģìĹħ": 8393,
      "Ġë©°": 8394,
      "ëĭ¨ê³¼": 8395,
      "ĠìłĲìĪĺ": 8396,
      "ë°ĽëĬĶëĭ¤": 8397,
      "ĠíĸīìľĦ": 8398,
      "ĠìłĳìĨį": 8399,
      "Ġëĭ¤ìĿ´ìķĦ": 8400,
      "ĠìĿ¸íĺķ": 8401,
      "Ġìĸ´ëĸłíķľ": 8402,
      "Ġê²½ê¸°ìĹĲ": 8403,
      "ë°ĶìĿĺ": 8404,
      "ìĿ´ìłľ": 8405,
      "Ġì£Ħëĭ¤": 8406,
      "ìĿ¼ëĭ¨": 8407,
      "ĠëĬĶ": 8408,
      "Ġë¯¿ê³ł": 8409,
      "íķĺëĿ¼ëĬĶ": 8410,
      "Ġì§ĳìĹĲìĦľ": 8411,
      "Ġêµ¬ìĤ¬": 8412,
      "ë²ĪìĿ´": 8413,
      "Ġìŀ¡ì§Ģ": 8414,
      "Ġëª¨ìĸĳìĿ´ëĭ¤": 8415,
      "Ġëĳĺì§¸": 8416,
      "æł": 8417,
      "ĠëŃī": 8418,
      "Ġê°Ģë¬¸ìĿĺ": 8419,
      "âĢľ": 8420,
      "Ġê·¸ëĵ¤ìĿĦ": 8421,
      "ê¹¥": 8422,
      "íķĺìĺĢëĬĶëį°": 8423,
      "ĠíĿ¥íĸī": 8424,
      "ìĿ´ëłĩê²Į": 8425,
      "ĠìĽĲì¹Ļ": 8426,
      "ens": 8427,
      "ìķĦëŀĺ": 8428,
      "ëĮĢìĭł": 8429,
      "ĠìķĦëĭĮê°Ģ": 8430,
      "ĠíĹĺ": 8431,
      "ĠëĤĺê°ĢëĬĶ": 8432,
      "íı¬ë¡ľ": 8433,
      "Ġthat": 8434,
      "Ġìĭ¶ëĭ¤": 8435,
      "âĶĢ": 8436,
      "ĠìĿ¸êµ¬ëĬĶ": 8437,
      "Ġë¶ĢìŀĦ": 8438,
      "ĠìŀĲëıĻìľ¼ë¡ľ": 8439,
      "Ġê°Ļì§Ģë§Į": 8440,
      "ë¹ĦìĻĢ": 8441,
      "ĠìĤ¬ê±´ìĿĺ": 8442,
      "çī": 8443,
      "ìľłëĭĽ": 8444,
      "Ġë²łìĸ´": 8445,
      "Ġë³´ëĦĪìĬ¤": 8446,
      "íĽĪëł¨": 8447,
      "Ġë¬´ë¦İ": 8448,
      "ĠëĤĺíĥĢëĤľëĭ¤": 8449,
      "ìŀ¬ìĿ¸": 8450,
      "Ġë©į": 8451,
      "ê³ĦìĹ´": 8452,
      "íķ´ì¤Ģëĭ¤": 8453,
      "ìłĦê¸°": 8454,
      "Ġì±Ļê²¨": 8455,
      "Ġë¦¬ë©ĶìĿ´íģ¬": 8456,
      "Ġìļ°ìĹ°íŀĪ": 8457,
      "ìĿ´ëŁ¬": 8458,
      "ĠìĿ´ë¦¬": 8459,
      "ĠìĤ¬ìļ´ëĵľ": 8460,
      "Ŀê°Ģ": 8461,
      "now": 8462,
      "Ġì´Į": 8463,
      "......": 8464,
      "Ġhe": 8465,
      "ĠPD": 8466,
      "ĠëĦ·": 8467,
      "ĠìķĦìī¬ìļ´": 8468,
      "Ġìĸ´ë§Ī": 8469,
      "Ġì±ĦíĥĿ": 8470,
      "Ġëĸ¨ìĸ´ì§Ħëĭ¤": 8471,
      "Ġìĭľì¦ĮìĿĦ": 8472,
      "Ġì§Ģê¸ĪëıĦ": 8473,
      "ĠPS": 8474,
      "Ġê¿ĪìĿĦ": 8475,
      "êµŃìĹĲ": 8476,
      "OT": 8477,
      "ì£¼ë¯¼": 8478,
      "Ġíķłë¨¸ëĭĪ": 8479,
      "ĠìĥĪë²½": 8480,
      "Ġì£½ê³ł": 8481,
      "Ġë§ŀìĦľ": 8482,
      "ĠìĿ´ì§Ģ": 8483,
      "ĠìĪĺëł¨": 8484,
      "ì´Īë°ĺ": 8485,
      "ë¹Ĺ": 8486,
      "Ġìĸ´ëł¤ìĽĮ": 8487,
      "ĠìŀħìĿĦ": 8488,
      "ìķĦë§Ī": 8489,
      "Ġìĺ¬ë¦¬ëĬĶ": 8490,
      "1996": 8491,
      "NA": 8492,
      "ìķ½íķľ": 8493,
      "Ġëĭ¤ëĵ¤": 8494,
      "ëĭ¨ì§Ģ": 8495,
      "ĠìĿ¼ìĥģ": 8496,
      "ĠìķĦë¦¬": 8497,
      "Ġëį°ëĭ¤ê°Ģ": 8498,
      "ëĶ§": 8499,
      "Ġë§ĪìĿ¸": 8500,
      "Ġê¸°ìļ¸": 8501,
      "ĠìĤ¬íĨł": 8502,
      "ĠëĴ¤ìĹĲìĦľ": 8503,
      "ìķ½ìĿ´": 8504,
      "ĠìĿ´ìłķ": 8505,
      "ìĹŃëĮĢ": 8506,
      "ĠíĹ¤ìĿ´": 8507,
      "Ġê¸°ë¡Ŀíķĺë©°": 8508,
      "Ġë°©ë²ķìľ¼ë¡ľ": 8509,
      "Ġì»¸": 8510,
      "ëĦĪìĿĺ": 8511,
      "ĠìŀĲëŀĳíķľëĭ¤": 8512,
      "ĠBGM": 8513,
      "ĠíĻķìĿ¸íķł": 8514,
      "Ġì»¤ë§¨": 8515,
      "ìĸĦ": 8516,
      "Ġëª¨ë°ĶìĿ¼": 8517,
      "ì¸łê°Ģ": 8518,
      "ĠëĦ£ê³ł": 8519,
      "ĠëªħìĿĦ": 8520,
      "ĠìĿ¼ë°©": 8521,
      "Ġë¹Ħë¡Ģ": 8522,
      "ĠìĦ¸ê³Ħê´Ģ": 8523,
      "Ġë´Ĳìķ¼": 8524,
      "Ġë¶Ģë¥¸": 8525,
      "Ġê°ĪëĿ¼": 8526,
      "ĠìķĦë°Ķ": 8527,
      "ìĿ´ë²Ī": 8528,
      "æĢ": 8529,
      "iver": 8530,
      "ĠíķĦë¦¬": 8531,
      "Ġì±ĦìĽĮ": 8532,
      "Ġíı´ëŀĢëĵľ": 8533,
      "ĠìľłìłĢê°Ģ": 8534,
      "ĠìłģíĺĢ": 8535,
      "ĠìķĦê°Ģ": 8536,
      "Ġê°ĲìķĪíķĺë©´": 8537,
      "ëĭĪëĬĶ": 8538,
      "ĠëĮĢë§Į": 8539,
      "Ġ99": 8540,
      "ëŁ¬ìĿĺ": 8541,
      "ìľ¼ë¡ľìĦľìĿĺ": 8542,
      "ìŀ¥ê°ĳ": 8543,
      "oo": 8544,
      "ĠìĿ´ê±°": 8545,
      "ĠìºĲìĬ¤íĮħ": 8546,
      "ĠíĶĮëŀ«íı¼": 8547,
      "ëķĮëĬĶ": 8548,
      "Ġìĭľìŀĳìľ¼ë¡ľ": 8549,
      "Ġë¶ĢìĪĺ": 8550,
      "ĠìĿ¼ë³¸ìĹĲìĦľ": 8551,
      "Ġê·¸ëĵ¤ìĿ´": 8552,
      "Ġíķĺìķ¼": 8553,
      "ï¼Ī": 8554,
      "ĠíĽĦê³Ħ": 8555,
      "íİĺë¥´": 8556,
      "Ġìĸ´ì§Ģê°Ħ": 8557,
      "Ġê°ķëĤ¨": 8558,
      "ĠíĥĢìĿ´ê±°": 8559,
      "ë§Īì§Ģë§ī": 8560,
      "ëĶķ": 8561,
      "ĠìĦľë¶Ģ": 8562,
      "ìĽ°": 8563,
      "ĠëĤ´ì§Ģ": 8564,
      "ë¬¼ìĿĢ": 8565,
      "ĠìĿ´ìĥģìĿĦ": 8566,
      "1997": 8567,
      "ĠëĮĢì¶©": 8568,
      "êµŃìĿĢ": 8569,
      "ĠìĹ°ìĤ¬": 8570,
      "ìļķìĿĦ": 8571,
      "ê°ľìļĶ": 8572,
      "ĠìĤ¬ëŀĮëĵ¤ëıĦ": 8573,
      "ĠìķĦë²Ħì§ĢìĿĺ": 8574,
      "Ġé": 8575,
      "ĠìłĦë©¸": 8576,
      "Ġì°Ķ": 8577,
      "ĠìĹ°ê´Ģ": 8578,
      "Ġë¡ľìĬ¤": 8579,
      "Ġì¢Įìļ°": 8580,
      "Ġê¹Įì§Ģ": 8581,
      "ĠíĦ°ëľ¨": 8582,
      "ĠìĿĢê·¼íŀĪ": 8583,
      "ĠìŀĪìĹĪìĿĦ": 8584,
      "ìĬ¤íĬ¸ìĿĺ": 8585,
      "Ġìĭ¬íķĺê²Į": 8586,
      "ĠìĤ¬ëĿ¼ì§Ħ": 8587,
      "Ġëħ¸ë¥´": 8588,
      "OC": 8589,
      "ìĺ¤ìĻĢ": 8590,
      "Ġë¶ĪìĿĦ": 8591,
      "Ġëª¨ì¡°ë¦¬": 8592,
      "ìĽĲìŀĳ": 8593,
      "ëĶ¸": 8594,
      "ĠìķĦëĵ¤ìĿ´": 8595,
      "Ġìĸ´ë¥¸": 8596,
      "ëĽ°": 8597,
      "ĠëĲľëĭ¤ê³ł": 8598,
      "Ġëĭ¤ìĿĮëĤł": 8599,
      "ĠëĨĴê³ł": 8600,
      "ĠĊĠĊĠĊĠĊ": 8601,
      "ê²ĥìľ¼ë¡ľ": 8602,
      "Ġë¸Įë£¨": 8603,
      "ĠëĤ¨ê²¨": 8604,
      "ĠCom": 8605,
      "ìķĪìĿĺ": 8606,
      "ĠìĭľìłĪìĿĺ": 8607,
      "Ġìºłíİĺ": 8608,
      "íĥĦìĿ´": 8609,
      "ĠìĿ´ë£¨ìĸ´ìł¸": 8610,
      "ëĿ¼ìĿ´ë¸Į": 8611,
      "Ġê³¨ëĵł": 8612,
      "ëĭ¤ëŀĢ": 8613,
      "Ġë°ľìĥĿíķľ": 8614,
      "ĠëªħíĻķ": 8615,
      "è»": 8616,
      "Ġëľ»ìĿĦ": 8617,
      "ëĩ": 8618,
      "ĠëĵľëĬĶ": 8619,
      "ìĺ¤ë²Ħ": 8620,
      "Ġì§ĢëĤĺê°Ģ": 8621,
      "Ġë¨¸ë¬¼": 8622,
      "ë°©ìĹĲìĦľ": 8623,
      "ê±´ìĿĦ": 8624,
      "ĠìłľëıĦ": 8625,
      "êµ¬ë¦¬": 8626,
      "ther": 8627,
      "Ġë®": 8628,
      "Ġë¹Ħìĭ¸": 8629,
      "Ġê¹Ģíĥľ": 8630,
      "ĠìłĪëĮĢë¡ľ": 8631,
      "ìĥīìĿĺ": 8632,
      "Ġìŀ¡ìĿĢ": 8633,
      "ĠìĪĺì¤ĢìĿ´ëĭ¤": 8634,
      "Ġëħ¸ë¶Ģ": 8635,
      "Ġë¯¸ìĬ¤": 8636,
      "ìĿ¸ì²ľ": 8637,
      "Ġìĵ°ëłĪê¸°": 8638,
      "ëĦ¥": 8639,
      "Ġê·ľëª¨": 8640,
      "Ġìŀ¥ìķħ": 8641,
      "íķľìĿ´": 8642,
      "Ġìķ½ê°ĦìĿĺ": 8643,
      "ëł¸ëĭ¤ê³ł": 8644,
      "ĠíķĺëĿ½": 8645,
      "Ġìĸ´ë¦´": 8646,
      "íģĲìĸ´": 8647,
      "ĠìŀĲë¦¬ìŀ¡": 8648,
      "ĠìłĦíķ¨": 8649,
      "ìĹĶëĶ©": 8650,
      "ĠìŀĦë¬´ë¥¼": 8651,
      "ê¸īìľ¼ë¡ľ": 8652,
      "ĠìŀĲê·¹": 8653,
      "Ġë²Įìĸ´ì§Ħ": 8654,
      "ìĺĢìĿĦ": 8655,
      "ĠíĻĺìĬ¹": 8656,
      "Ġë§Ĳíķĺê³ł": 8657,
      "ĠíļĮìĪĺ": 8658,
      "µ¸": 8659,
      "ìĥģê³¼": 8660,
      "Ġê²ĮìŀĦìĹĲìĦľ": 8661,
      "Ġëĵ¤ë©´": 8662,
      "ĠíķľêµŃìĹĲìĦľ": 8663,
      "ĠíľĺëĳĲ": 8664,
      "Ġíķ´ë³ĳ": 8665,
      "Ġê¸°ë¡Ŀíķľ": 8666,
      "íĮ½": 8667,
      "ĠíĶĦëĿ¼ìĿ´": 8668,
      "ëĤľìĿ´": 8669,
      "Ġê³¼ê±°ìĿĺ": 8670,
      "Ġìºĺ": 8671,
      "Ġëª©ìĨĮë¦¬ê°Ģ": 8672,
      "ĠCl": 8673,
      "Ġìĺ¬ëŀĲëĭ¤": 8674,
      "ë£¨ëĬĶ": 8675,
      "ì¦ĿìĿ´": 8676,
      "ëĨĴ": 8677,
      "Ġë°Ľìľ¼ë©°": 8678,
      "Ġê±°ëĵŃ": 8679,
      "Ġ34": 8680,
      "ĠíĶĦëŀĳìĬ¤ìĿĺ": 8681,
      "ê³µíķĻ": 8682,
      "Ġë¯¸êµŃìĹĲìĦľ": 8683,
      "íķĺë§Ī": 8684,
      "ĠìķĮê²łì§Ģë§Į": 8685,
      "Ġê³½": 8686,
      "ĠíĽĹëĤł": 8687,
      "ë¨¹ê³ł": 8688,
      "US": 8689,
      "ĠìŀĳíĴĪìĿĦ": 8690,
      "ĠìĦ¤ë¦½ëĲľ": 8691,
      "ê°Ģìĭľ": 8692,
      "ĠìĤ¬ìĸĳ": 8693,
      "ãģ©": 8694,
      "97": 8695,
      "ĠìĿ´ì¦Ī": 8696,
      "ĠìłķìĭłìĿĦ": 8697,
      "Ġì¢ĭê²Į": 8698,
      "ĠëłĪë²¨ìĿ´": 8699,
      "ìļ°ìĻĢ": 8700,
      "ë³¸ë¶Ģ": 8701,
      "Ġìłķë¶ĢìĿĺ": 8702,
      "Ġê°ľë§ī": 8703,
      "ĠíĻĶê°Ģ": 8704,
      "ĠëĳĺìĿĢ": 8705,
      "ĠìĭľëĮĢìĿĺ": 8706,
      "'.": 8707,
      "ìŀĲìľł": 8708,
      "ìķĦíĮĮíĬ¸": 8709,
      "ë°©ìľ¼ë¡ľ": 8710,
      "Ġìľ¨": 8711,
      "Ġë°Ķê¹¥": 8712,
      "ĠíĶĮëłĪìĿ´ìĺ¤íĶĦ": 8713,
      "CV": 8714,
      "íķĺê²łëĭ¤ê³ł": 8715,
      "íķĦëĵľ": 8716,
      "ì¡ĮëĬĶëį°": 8717,
      "Ġê°Ģì§ľ": 8718,
      "ĠìĪ¨ìĸ´": 8719,
      "ķíĦ°": 8720,
      "ĠíĻĶë¥¼": 8721,
      "ĠëĦ¤íĬ¸ìĽĮ": 8722,
      "ĠAl": 8723,
      "íĤ¤ìĻĢ": 8724,
      "Ġê²½ìļ°ìĹĲ": 8725,
      "ĠìľĦì¹ĺìĹĲ": 8726,
      "ëļ±": 8727,
      "Ġì±ĶíĶ¼ìĸ¸ìĬ¤": 8728,
      "pe": 8729,
      "Ġê°ľìłķ": 8730,
      "ì¡°ë¡ľ": 8731,
      "ì§ĪìĿĺ": 8732,
      "ìķĦìĻĢ": 8733,
      "ì¡ĮìĿĦ": 8734,
      "æĶ": 8735,
      "Ġë¬´ë°©": 8736,
      "ì»¤ê°Ģ": 8737,
      "ë¯¸ëĤĺ": 8738,
      "Ġìĸ¸ê¸īíķľ": 8739,
      "ë´Ĳìķ¼": 8740,
      "Ġìļ©ìĿĺ": 8741,
      "ĠëĤ´ë³´": 8742,
      "ìķłëĭĪë©ĶìĿ´ìħĺ": 8743,
      "ĠíĻķëĮĢ": 8744,
      "ê±°ìķ¼": 8745,
      "Ġë©Ķëī´": 8746,
      "íĮĲìĹĲìĦľ": 8747,
      "ĠìĹ´ìĩł": 8748,
      "ae": 8749,
      "ãİ¡": 8750,
      "ĠíĹĽ": 8751,
      "ĠìłĦë¶ĢíĦ°": 8752,
      "Ġë§Īìĭľ": 8753,
      "ìĿ¸ëĵ¤": 8754,
      "ĠëıĻë¶Ģ": 8755,
      "ĠìĿ´ë¥¸": 8756,
      "Ġë®¤ì§Ģì»¬": 8757,
      "Ġê±°ë¦¬ë¥¼": 8758,
      "Ġìĺ¤ì§ģ": 8759,
      "ĠìłģìłĪíķľ": 8760,
      "ĠìķĪíĭ°": 8761,
      "Ġíķľìłķìľ¼ë¡ľ": 8762,
      "OW": 8763,
      "Ġë©ĶíĥĢ": 8764,
      "ìĭłê³¼": 8765,
      "Ġì¶©ê²©ìĿĦ": 8766,
      "ë²ħ": 8767,
      "ì£¼ê¸°": 8768,
      "ĠLv": 8769,
      "Ġëĵ¤ëł¤": 8770,
      "Ġíĺģëªħ": 8771,
      "ëŁ¬ëĵľ": 8772,
      "ë¡ľìĦľëĬĶ": 8773,
      "ï¼ī": 8774,
      "ĠìľĻ": 8775,
      "Ġì§ĳìĿĦ": 8776,
      "Ġê·¸ëłĩëĭ¤": 8777,
      "ëħĦë§ĮìĹĲ": 8778,
      "Ġat": 8779,
      "ĠëĮĢìĤ¬ê°Ģ": 8780,
      "Ġê°ķìļĶ": 8781,
      "ë§ģìĿ´": 8782,
      "Ġìłķì²´ë¥¼": 8783,
      "íĿ¬ê°Ģ": 8784,
      "ĠëŃĺ": 8785,
      "ĠíĹĮíĦ°": 8786,
      "ĠìŀĳìĤ¬": 8787,
      "Ġê°Ħë¶Ģ": 8788,
      "ĠìłľìŀĳëĲľ": 8789,
      "ĠíķĻìĥĿëĵ¤ìĿ´": 8790,
      "Ġê°Ħíĺ¹": 8791,
      "ìĹ°ìĨį": 8792,
      "ĠëĪĮëŁ¬": 8793,
      "Ġë¬¼ëŁ¬": 8794,
      "Ġìľµíķ©": 8795,
      "LE": 8796,
      "ê²ĢìĿĦ": 8797,
      "ãĤ¿": 8798,
      "Ġê°ĲëıħìĿĢ": 8799,
      "Ġìŀ¬íĺĦ": 8800,
      "ĠíħĮìĬ¤íĬ¸": 8801,
      "Ġê³Ħê¸°ë¡ľ": 8802,
      "ĠìłĦíĺķìłģìĿ¸": 8803,
      "Ġê¸°ë³¸ìłģìĿ¸": 8804,
      "ëł¬íķľ": 8805,
      "Ðµ": 8806,
      "ĠìķĬëıĦë¡Ŀ": 8807,
      "ì¢ħìĿĢ": 8808,
      "Ġìŀĳì¤ĳìĹĲìĦľ": 8809,
      "ĠëŀŃíĤ¹": 8810,
      "íķĺê¸°ê°Ģ": 8811,
      "Ġë³´ëĿ¼": 8812,
      "Ġì¶ľìŀħ": 8813,
      "Ġle": 8814,
      "Ġëª¨ë¥´ê³ł": 8815,
      "Ġë¸Įë¦¬": 8816,
      "ĠìĦ¸ê³ĦìĹĲìĦľ": 8817,
      "ìĦĿìĹĲ": 8818,
      "Ġë¯¼ì£¼ëĭ¹": 8819,
      "ë¥łìĿĦ": 8820,
      "ëĲĺìĹĪëĭ¤ëĬĶ": 8821,
      "red": 8822,
      "ë§ĪìĻĢ": 8823,
      "ĠëĮĦìĬ¤": 8824,
      "Ġë¶ĢëĶ": 8825,
      "ìŀĳíĴĪ": 8826,
      "Ġê³µìĭĿìłģìľ¼ë¡ľ": 8827,
      "ĠìĭľìĬ¤íħľìĿĦ": 8828,
      "Ġê³³ìĿĢ": 8829,
      "ì§ĢëĤĺ": 8830,
      "âĺħâĺħ": 8831,
      "Ġì£¼ë¨¹": 8832,
      "ĠëĦ¤ëįľëŀĢëĵľ": 8833,
      "Ġíķ©ë³ĳ": 8834,
      "Ġíŀĺëĵ¤ìĸ´": 8835,
      "Ġìĸ´ëĳłìĿĺ": 8836,
      "ĠìĬ¤ìĬ¹": 8837,
      "é«ĺ": 8838,
      "ìķĦíĶĦë¦¬ì¹´": 8839,
      "ĠìĨĮíĺķ": 8840,
      "ĠëĤ´ë¦¬": 8841,
      "ĠíĬ¸ëŁ¼": 8842,
      "Ġì£½ìĸ´": 8843,
      "ĠëĦī": 8844,
      "ĠëĮĢê°ľ": 8845,
      "ì§Īë¡ľ": 8846,
      "ĦìĥĪ": 8847,
      "ê·¸ë¥¼": 8848,
      "ëŀĳìĿ´": 8849,
      "ë§ĮíĻĶ": 8850,
      "ëĭĪë¥¼": 8851,
      "Ġë¹łìł¸ëĤĺ": 8852,
      "íķ´ì§Ģê³ł": 8853,
      "ĠìĦłìĪĺë¡ľ": 8854,
      "ç´": 8855,
      "Ġì¼ľ": 8856,
      "Ġë³ĳëł¥ìĿĦ": 8857,
      "Ġì²´ê²°": 8858,
      "ìĤ¼êµŃ": 8859,
      "Ġë¬´ìĭľíķĺê³ł": 8860,
      "Ġë¬´ê´Ģ": 8861,
      "Ġìĭľì¦Ī": 8862,
      "ë©Ķë¦¬": 8863,
      "ê¸ĢìĿ´": 8864,
      "ĠíĻĪëŁ°ìĿĦ": 8865,
      "Ġì²ĺíĺķ": 8866,
      "Ġë§ĪìĻķ": 8867,
      "ĠìĿ´ì¹ĺ": 8868,
      "ĠëıĦë°ľ": 8869,
      "íı¬ìĿĺ": 8870,
      "ĠìĬ¤ë§ĪíĬ¸íı°": 8871,
      "Ġê¹Ģì¢ħ": 8872,
      "1995": 8873,
      "ìª½ìĿĢ": 8874,
      "ĠìĽĲë³¸": 8875,
      "ĠëĪĪë¬¼ìĿĦ": 8876,
      "ĠìĦłê³ł": 8877,
      "Ġê³µê³µ": 8878,
      "ence": 8879,
      "Ġëĵ±ìŀ¥íķĺì§Ģ": 8880,
      "ì¡°íķ©": 8881,
      "ë¬¸ìĿĢ": 8882,
      "Ġë°ľìĸ¸ìĿĦ": 8883,
      "pt": 8884,
      "Ġì°¾ê¸°": 8885,
      "ëĬ¬": 8886,
      "Ġì¤¬": 8887,
      "ëĿ¼íģ¬": 8888,
      "ê´Ģê´ĳ": 8889,
      "Ġë©ķìĭľì½Ķ": 8890,
      "ìĦłê³¼": 8891,
      "ëĭĮëĭ¤": 8892,
      "ìĭ¬ì§Ģìĸ´": 8893,
      "76": 8894,
      "Ġê°ľë°©": 8895,
      "ì§Ħìľ¼ë¡ľ": 8896,
      "WE": 8897,
      "íĶĦìĻĢ": 8898,
      "ê³µìĽĲ": 8899,
      "ĠëĤ¨ë¶ģ": 8900,
      "ë°ķìĬ¤": 8901,
      "æĿ±": 8902,
      "ë¹Ħëĵľ": 8903,
      "ĠìĿ´íĥĪ": 8904,
      "ãĥ¬": 8905,
      "}}}}": 8906,
      "ĠìłĦìĿĺ": 8907,
      "ĠíĤ¥": 8908,
      "Ġìī´": 8909,
      "Ġì£½ìĿ´ê³ł": 8910,
      "ìĬ¤íı¬ì¸ł": 8911,
      "Ġë°©ìĸ´ëł¥": 8912,
      "Ġë§Įëĵ¤ê¸°": 8913,
      "ĠìŀĪìĹĪëĭ¤ëĬĶ": 8914,
      "ĠìłĦì²´ë¥¼": 8915,
      "ĠëŀŃíģ¬": 8916,
      "az": 8917,
      "ĠëĤ¨ê¸´": 8918,
      ")Â·": 8919,
      "Ġì¼Ī": 8920,
      "ìħĶëĦĲ": 8921,
      "çļ": 8922,
      "ĠëķĮìĹĲ": 8923,
      "ĠíĽĦìĨĲ": 8924,
      "ì²¼": 8925,
      "VD": 8926,
      "åĲĽ": 8927,
      "ìłķê³¼": 8928,
      "Ġì¢ĭìĿĦ": 8929,
      "Ġì£½ëĬĶëĭ¤": 8930,
      "ĠMe": 8931,
      "Ġê°Ģê²©ìĿ´": 8932,
      "ĠìłľìŀĦìĬ¤": 8933,
      "ĠìļķìĿĦ": 8934,
      "Ġìĸ¼êµ´ìĿ´": 8935,
      "Ġëĵ¤ìĸ´ê°Ķ": 8936,
      "Ġë¹ĽìĿĦ": 8937,
      "Ġì¿łë¡ľ": 8938,
      "ä¸Ĭ": 8939,
      "Ġíģ´ëŀĺìĬ¤": 8940,
      "íķı": 8941,
      "ëħĦëĮĢìĹĲ": 8942,
      "Ġê²ĥìĿ¼": 8943,
      "ì¹´ëĿ¼": 8944,
      "ĠìĨĲìľ¼ë¡ľ": 8945,
      "ìĦ¸ìĬ¤": 8946,
      "ëĤĺìĿ´íĬ¸": 8947,
      "ãĨį": 8948,
      "ĠìĻĦë²½íķľ": 8949,
      "íĸĪëĭ¤ë©´": 8950,
      "ìĹĲê²Ĳ": 8951,
      "Ġê¹ĶëģĶ": 8952,
      "ì²ľìĭľ": 8953,
      "ë²ĮëłĪ": 8954,
      "ì£¼ìĻĢ": 8955,
      "ìľĹ": 8956,
      "ĠìĭłìĿ´": 8957,
      "ãĤ«": 8958,
      "ĠìķĦìĿ´ì½ĺ": 8959,
      "Ġëĭ¹íķĺëĬĶ": 8960,
      "ĠìĬ¤íĶ¼ëĵľ": 8961,
      "çľ": 8962,
      "ëĤĺìĦľ": 8963,
      "Ġìłģíķ©": 8964,
      "Ġë¯¸êµŃìĿ¸": 8965,
      "ĠìłĦíĽĦ": 8966,
      "Ġê°Ħìĭł": 8967,
      "ĠíĺķìĭĿ": 8968,
      "ĠìķĦìĿ´ë¥¼": 8969,
      "ĠMVP": 8970,
      "íĥĢìļ´": 8971,
      "Ġë¹ĦíĮĲìĿĦ": 8972,
      "ì¸łë¥¼": 8973,
      "ĠìĤ¬ë§Ŀíķľ": 8974,
      "ĠëĨĢëĿ¼": 8975,
      "ĠìķĮëłīìĤ°": 8976,
      "ìķĦë¬´": 8977,
      "ĠëģĪ": 8978,
      "ë°Ķëĭ¥": 8979,
      "ĠíĨ°": 8980,
      "ĠëĤĺìĿ´ê°Ģ": 8981,
      "Ġë§¤ëħĦ": 8982,
      "Ġì½Ķìĸ´": 8983,
      "Ġê¸°ìļ©": 8984,
      "ì¶ľì²ĺ": 8985,
      "Ġ1986": 8986,
      "Ġìĭłë¶Ħ": 8987,
      "Ġë¯¸ëĶĶìĸ´": 8988,
      "åľĭ": 8989,
      "Ġìłľìłķ": 8990,
      "ìľ¨ìĿĢ": 8991,
      "ìĥĿìĿĺ": 8992,
      "Ġëª°ëĿ¼ëıĦ": 8993,
      "ĠìĿ¼ìĽĲ": 8994,
      "Ġê¸°ë³ĳ": 8995,
      "Ġì§ĢìĭĿ": 8996,
      "Ġë°©ìĤ¬": 8997,
      "Ġë¯¸ëĤĺ": 8998,
      "íķĺë¥¼": 8999,
      "ĠëĮĢìĽĲ": 9000,
      "ëłĪëĵľ": 9001,
      "Ġë³ĳëł¥": 9002,
      "ì£¼ìŀĲ": 9003,
      "ĠìĿ´ìļ©íķ´ìĦľ": 9004,
      "ë¸Įë¥¼": 9005,
      "Ġêµ°ëĭ¨": 9006,
      "ĠVS": 9007,
      "ìĶ¨ëĬĶ": 9008,
      "ëĤĺê³ł": 9009,
      "Ġëıĭ": 9010,
      "Ġë²Ħëł¸ëĭ¤": 9011,
      "ëĮĢìĽĲ": 9012,
      "ĠìĻł": 9013,
      "ĠëĤĺìĺ¤ê¸°": 9014,
      "ĠìľłìłĦ": 9015,
      "ĠìĺģìĹħ": 9016,
      "Ġë¶ĢìĦľ": 9017,
      "ĠìĺĪìłķìĿ´ëĭ¤": 9018,
      "Ġì§Ģíĺķ": 9019,
      "Ġì¢ĭê³ł": 9020,
      "çµ": 9021,
      "Ġì¹´ë¥¼": 9022,
      "ìŀĲë£Į": 9023,
      "ĠëĦĮ": 9024,
      "ĠíĶ¼ìķĦëħ¸": 9025,
      "ê°ģìĿ´": 9026,
      "Ġëª°ëĿ½": 9027,
      "Ġì°įìĸ´": 9028,
      "Ġê·Ģì°®": 9029,
      "ĠìĿ´ìĿĢ": 9030,
      "ĠíĻĺìĺģ": 9031,
      "!'": 9032,
      "ì¹´ìĺ¤": 9033,
      "Ġìĺ¬ëł¸ëĭ¤": 9034,
      "ì¤ĳìĿ´ëĭ¤": 9035,
      "ëıħìĿ¼": 9036,
      "ĠìķĬìķĺìĿĦ": 9037,
      "ĠOST": 9038,
      "êµ°ëĭ¤": 9039,
      "Ġê°¤ëŁŃìĭľ": 9040,
      "ê¸°ëĤĺ": 9041,
      "īģ": 9042,
      "ĠìĿ´ìĺģ": 9043,
      "ë¡ľìĽĮ": 9044,
      "Ġìľłëł¹": 9045,
      "Ġë¬¼ëł¤": 9046,
      "Ġë¹Ħìĭ¼": 9047,
      "ãģĺ": 9048,
      "ĠAT": 9049,
      "ìĭ¤ìĿĢ": 9050,
      "ãĤĥ": 9051,
      "ĠìĿ´ìĻ¸ìĿĺ": 9052,
      "ë²ķìĽĲ": 9053,
      "86": 9054,
      "Ġê²½ê³ł": 9055,
      "Ġë³´ëĦĪ": 9056,
      "ĠêµŃìłľê³µíķŃ": 9057,
      "ë§ĿìĿ´": 9058,
      "íĥĦìĿĺ": 9059,
      "Ġì°¢": 9060,
      "Ġê°¤ëŁ¬ë¦¬": 9061,
      "ì¢ħíķ©": 9062,
      "Ġìĥģìĥģ": 9063,
      "Ġìĥīê¹Ķ": 9064,
      "int": 9065,
      "ĠëĤĺìĺ¤ë©°": 9066,
      "ëıĮìĿ´": 9067,
      "ĠìºĲë¦ŃíĦ°ëĬĶ": 9068,
      "Ġê·¸ê±´": 9069,
      "...\"": 9070,
      "êµŃëĤ´": 9071,
      "ĠAn": 9072,
      "ĠíĮĲê²°": 9073,
      "ê²¸": 9074,
      "ëłĪìĺ¤": 9075,
      "Ġê¸ĪìĨį": 9076,
      "ê²łëĭ¤ë©°": 9077,
      "íģ¬ëĿ¼ìĿ´ëĤĺ": 9078,
      "ìĤ¬ìĿ´ëĵľ": 9079,
      "ĠíĨµìĥģ": 9080,
      "ĠëĤĺìķĦê°Ģ": 9081,
      "ĠìŀĪìĿĮìĿĦ": 9082,
      "ĠìķīìķĦ": 9083,
      "ëĿ¼ê³łëıĦ": 9084,
      "Ġì¦īìľĦ": 9085,
      "Ġëľ»íķĺëĬĶ": 9086,
      "ĠìĽħ": 9087,
      "ìĸ´ë§Ī": 9088,
      "ê³Ħíļį": 9089,
      "ĠíķľìŀĲ": 9090,
      "Ġì¦Ŀìĸ¸": 9091,
      "Ġë³´ì¡´": 9092,
      "Ġëª©íĳľë¡ľ": 9093,
      "ĠìĭľëĦĪ": 9094,
      "ìĬ¤íĨłë¦¬": 9095,
      "Ġíı¬ë¥´íĪ¬ê°Ī": 9096,
      "ë°Ķë¥´": 9097,
      "ìĭ±íĦ´": 9098,
      "ë¦¬íĭ°ì»¬": 9099,
      "Ġì½Ķë¯¸ëĶĶ": 9100,
      "ĠíĬ¹ì§ĳ": 9101,
      "ĠíķĺëĤĺëıĦ": 9102,
      "ëŀľìĬ¤": 9103,
      "íķĺëįĶëĿ¼ëıĦ": 9104,
      "ì§ģíķľ": 9105,
      "Ġìĺ¬ëĿ¼ìĺ¨": 9106,
      "ëĲĺê²Į": 9107,
      "Ġë£¬": 9108,
      "Ġê¸īê²©": 9109,
      "ìĹĳ": 9110,
      "ëŀĢìĿ´": 9111,
      "ë¬¼ê´Ģ": 9112,
      "ĠêµŃìĻķ": 9113,
      "ì¹ĺë©´": 9114,
      "ìŀĦìĿĢ": 9115,
      "ĠíĨµìĤ°": 9116,
      "ìŀĲëıĻì°¨": 9117,
      ")/": 9118,
      "ì§Ħê³¼": 9119,
      "Ġìıł": 9120,
      "ĠíĥĪíĩ´": 9121,
      "ĠìĦłìłĦ": 9122,
      "Ġìŀĳê°Ģê°Ģ": 9123,
      "ìĿ´íĥĪë¦¬ìķĦ": 9124,
      "Ġëĭ¨ìłĲìĿ´": 9125,
      "Ġê³¼ê±°ìĹĲ": 9126,
      "ical": 9127,
[...]
